{
  "version": "1.0",
  "truncation": null,
  "padding": null,
  "added_tokens": [
    {
      "id": 0,
      "content": "<unk>",
      "single_word": false,
      "lstrip": false,
      "rstrip": false,
      "normalized": false,
      "special": true
    },
    {
      "id": 1,
      "content": "<s>",
      "single_word": false,
      "lstrip": false,
      "rstrip": false,
      "normalized": false,
      "special": true
    },
    {
      "id": 2,
      "content": "</s>",
      "single_word": false,
      "lstrip": false,
      "rstrip": false,
      "normalized": false,
      "special": true
    },
    {
      "id": 3,
      "content": "<pad>",
      "single_word": false,
      "lstrip": false,
      "rstrip": false,
      "normalized": false,
      "special": true
    },
    {
      "id": 4,
      "content": "<|system|>",
      "single_word": false,
      "lstrip": false,
      "rstrip": false,
      "normalized": false,
      "special": true
    },
    {
      "id": 5,
      "content": "<|user|>",
      "single_word": false,
      "lstrip": false,
      "rstrip": false,
      "normalized": false,
      "special": true
    },
    {
      "id": 6,
      "content": "<|assistant|>",
      "single_word": false,
      "lstrip": false,
      "rstrip": false,
      "normalized": false,
      "special": true
    },
    {
      "id": 7,
      "content": "<|end|>",
      "single_word": false,
      "lstrip": false,
      "rstrip": false,
      "normalized": false,
      "special": true
    },
    {
      "id": 8,
      "content": "<|code|>",
      "single_word": false,
      "lstrip": false,
      "rstrip": false,
      "normalized": false,
      "special": true
    }
  ],
  "normalizer": null,
  "pre_tokenizer": {
    "type": "ByteLevel",
    "add_prefix_space": false,
    "trim_offsets": true,
    "use_regex": true
  },
  "post_processor": {
    "type": "ByteLevel",
    "add_prefix_space": true,
    "trim_offsets": false,
    "use_regex": true
  },
  "decoder": {
    "type": "ByteLevel",
    "add_prefix_space": true,
    "trim_offsets": true,
    "use_regex": true
  },
  "model": {
    "type": "BPE",
    "dropout": null,
    "unk_token": "<unk>",
    "continuing_subword_prefix": null,
    "end_of_word_suffix": null,
    "fuse_unk": false,
    "byte_fallback": false,
    "ignore_merges": false,
    "vocab": {
      "<unk>": 0,
      "<s>": 1,
      "</s>": 2,
      "<pad>": 3,
      "<|system|>": 4,
      "<|user|>": 5,
      "<|assistant|>": 6,
      "<|end|>": 7,
      "<|code|>": 8,
      "!": 9,
      "\"": 10,
      "#": 11,
      "$": 12,
      "%": 13,
      "&": 14,
      "'": 15,
      "(": 16,
      ")": 17,
      "*": 18,
      "+": 19,
      ",": 20,
      "-": 21,
      ".": 22,
      "/": 23,
      "0": 24,
      "1": 25,
      "2": 26,
      "3": 27,
      "4": 28,
      "5": 29,
      "6": 30,
      "7": 31,
      "8": 32,
      "9": 33,
      ":": 34,
      ";": 35,
      "<": 36,
      "=": 37,
      ">": 38,
      "?": 39,
      "@": 40,
      "A": 41,
      "B": 42,
      "C": 43,
      "D": 44,
      "E": 45,
      "F": 46,
      "G": 47,
      "H": 48,
      "I": 49,
      "J": 50,
      "K": 51,
      "L": 52,
      "M": 53,
      "N": 54,
      "O": 55,
      "P": 56,
      "Q": 57,
      "R": 58,
      "S": 59,
      "T": 60,
      "U": 61,
      "V": 62,
      "W": 63,
      "X": 64,
      "Y": 65,
      "Z": 66,
      "[": 67,
      "\\": 68,
      "]": 69,
      "^": 70,
      "_": 71,
      "`": 72,
      "a": 73,
      "b": 74,
      "c": 75,
      "d": 76,
      "e": 77,
      "f": 78,
      "g": 79,
      "h": 80,
      "i": 81,
      "j": 82,
      "k": 83,
      "l": 84,
      "m": 85,
      "n": 86,
      "o": 87,
      "p": 88,
      "q": 89,
      "r": 90,
      "s": 91,
      "t": 92,
      "u": 93,
      "v": 94,
      "w": 95,
      "x": 96,
      "y": 97,
      "z": 98,
      "{": 99,
      "|": 100,
      "}": 101,
      "~": 102,
      "¡": 103,
      "¢": 104,
      "£": 105,
      "¤": 106,
      "¥": 107,
      "¦": 108,
      "§": 109,
      "¨": 110,
      "©": 111,
      "ª": 112,
      "«": 113,
      "¬": 114,
      "®": 115,
      "¯": 116,
      "°": 117,
      "±": 118,
      "²": 119,
      "³": 120,
      "´": 121,
      "µ": 122,
      "¶": 123,
      "·": 124,
      "¸": 125,
      "¹": 126,
      "º": 127,
      "»": 128,
      "¼": 129,
      "½": 130,
      "¾": 131,
      "¿": 132,
      "À": 133,
      "Á": 134,
      "Â": 135,
      "Ã": 136,
      "Ä": 137,
      "Å": 138,
      "Æ": 139,
      "Ç": 140,
      "È": 141,
      "É": 142,
      "Ê": 143,
      "Ë": 144,
      "Ì": 145,
      "Í": 146,
      "Î": 147,
      "Ï": 148,
      "Ð": 149,
      "Ñ": 150,
      "Ò": 151,
      "Ó": 152,
      "Ô": 153,
      "Õ": 154,
      "Ö": 155,
      "×": 156,
      "Ø": 157,
      "Ù": 158,
      "Ú": 159,
      "Û": 160,
      "Ü": 161,
      "Ý": 162,
      "Þ": 163,
      "ß": 164,
      "à": 165,
      "á": 166,
      "â": 167,
      "ã": 168,
      "ä": 169,
      "å": 170,
      "æ": 171,
      "ç": 172,
      "è": 173,
      "é": 174,
      "ê": 175,
      "ë": 176,
      "ì": 177,
      "í": 178,
      "î": 179,
      "ï": 180,
      "ð": 181,
      "ñ": 182,
      "ò": 183,
      "ó": 184,
      "ô": 185,
      "õ": 186,
      "ö": 187,
      "÷": 188,
      "ø": 189,
      "ù": 190,
      "ú": 191,
      "û": 192,
      "ü": 193,
      "ý": 194,
      "þ": 195,
      "ÿ": 196,
      "Ā": 197,
      "ā": 198,
      "Ă": 199,
      "ă": 200,
      "Ą": 201,
      "ą": 202,
      "Ć": 203,
      "ć": 204,
      "Ĉ": 205,
      "ĉ": 206,
      "Ċ": 207,
      "ċ": 208,
      "Č": 209,
      "č": 210,
      "Ď": 211,
      "ď": 212,
      "Đ": 213,
      "đ": 214,
      "Ē": 215,
      "ē": 216,
      "Ĕ": 217,
      "ĕ": 218,
      "Ė": 219,
      "ė": 220,
      "Ę": 221,
      "ę": 222,
      "Ě": 223,
      "ě": 224,
      "Ĝ": 225,
      "ĝ": 226,
      "Ğ": 227,
      "ğ": 228,
      "Ġ": 229,
      "ġ": 230,
      "Ģ": 231,
      "ģ": 232,
      "Ĥ": 233,
      "ĥ": 234,
      "Ħ": 235,
      "ħ": 236,
      "Ĩ": 237,
      "ĩ": 238,
      "Ī": 239,
      "ī": 240,
      "Ĭ": 241,
      "ĭ": 242,
      "Į": 243,
      "į": 244,
      "İ": 245,
      "ı": 246,
      "Ĳ": 247,
      "ĳ": 248,
      "Ĵ": 249,
      "ĵ": 250,
      "Ķ": 251,
      "ķ": 252,
      "ĸ": 253,
      "Ĺ": 254,
      "ĺ": 255,
      "Ļ": 256,
      "ļ": 257,
      "Ľ": 258,
      "ľ": 259,
      "Ŀ": 260,
      "ŀ": 261,
      "Ł": 262,
      "ł": 263,
      "Ń": 264,
      "Ġa": 265,
      "<|": 266,
      "|>": 267,
      "is": 268,
      "nd": 269,
      "on": 270,
      "in": 271,
      "er": 272,
      "Ä±": 273,
      "an": 274,
      "Ġc": 275,
      "end": 276,
      "ĠĊ": 277,
      "|>:": 278,
      "ti": 279,
      "Ġp": 280,
      "Ġs": 281,
      "ing": 282,
      "Ġt": 283,
      "Ġpr": 284,
      "ss": 285,
      "ist": 286,
      "re": 287,
      "Ġb": 288,
      "Ġcon": 289,
      "ant": 290,
      "ou": 291,
      "od": 292,
      "al": 293,
      "istant": 294,
      "ssistant": 295,
      "ish": 296,
      "en": 297,
      "ra": 298,
      "el": 299,
      "Ġk": 300,
      "tion": 301,
      "Ġn": 302,
      "te": 303,
      "ul": 304,
      "Ġh": 305,
      "Ã¼": 306,
      "us": 307,
      "ce": 308,
      "ver": 309,
      "ĠE": 310,
      "le": 311,
      "or": 312,
      "me": 313,
      "Ġy": 314,
      "sa": 315,
      "ar": 316,
      "Ġi": 317,
      "ur": 318,
      "Ġand": 319,
      "Ġd": 320,
      "ir": 321,
      "ĠD": 322,
      "gl": 323,
      "ÅŁ": 324,
      "ot": 325,
      "Ã§": 326,
      "user": 327,
      "assistant": 328,
      "og": 329,
      "mm": 330,
      "cis": 331,
      "ĠT": 332,
      "Ġconcis": 333,
      "tem": 334,
      "ĠY": 335,
      "Ġare": 336,
      "ys": 337,
      "Ġw": 338,
      "ĠEn": 339,
      "Ġhel": 340,
      "Ġhelp": 341,
      "Ġnot": 342,
      "ful": 343,
      "ogra": 344,
      "ĠDo": 345,
      "versa": 346,
      "uce": 347,
      "versation": 348,
      "Ġconversation": 349,
      "mming": 350,
      "ĠYou": 351,
      "ystem": 352,
      "Ġprogra": 353,
      "Ġprod": 354,
      "urk": 355,
      "ode": 356,
      "Ġcode": 357,
      "Ġhelpful": 358,
      "Ġassistant": 359,
      "Ġconcise": 360,
      "glish": 361,
      "ĠEnglish": 362,
      "Ġproduce": 363,
      "Ġprogramming": 364,
      "Ġconversational": 365,
      "urkish": 366,
      "ĠTurkish": 367,
      "system": 368,
      "ve": 369,
      "ay": 370,
      "ak": 371,
      "it": 372,
      "Ġto": 373,
      "il": 374,
      "et": 375,
      "dÄ±": 376,
      "Ġf": 377,
      "la": 378,
      "Ġth": 379,
      "Ġm": 380,
      "Ä±n": 381,
      "Ġ1": 382,
      "es": 383,
      "um": 384,
      "Ġg": 385,
      "ac": 386,
      "Ġo": 387,
      "ÄŁ": 388,
      "Ġe": 389,
      "Ġyou": 390,
      "ĠS": 391,
      "iz": 392,
      "ĠB": 393,
      "un": 394,
      "Ã¶": 395,
      "ug": 396,
      "Ġay": 397,
      "Ġbir": 398,
      "ab": 399,
      "ith": 400,
      "Ġwith": 401,
      "Ä±r": 402,
      "Ġve": 403,
      "Ġin": 404,
      "da": 405,
      "one": 406,
      "am": 407,
      "at": 408,
      "Ġ2": 409,
      "Ġst": 410,
      "nde": 411,
      "estion": 412,
      "ĠiÃ§": 413,
      "out": 414,
      "lan": 415,
      "ĠA": 416,
      "ri": 417,
      "Ġso": 418,
      "Ġbe": 419,
      "ĠiÃ§in": 420,
      "Ġre": 421,
      "ah": 422,
      "Ġad": 423,
      "Ã¼n": 424,
      "ĠÃ¶": 425,
      "Ġya": 426,
      "Ġan": 427,
      "ki": 428,
      "li": 429,
      "ort": 430,
      "ĠayÄ±r": 431,
      "Ġadet": 432,
      "Ġthe": 433,
      "ple": 434,
      "ĠayÄ±rdÄ±": 435,
      "Ġsh": 436,
      "Ġz": 437,
      "im": 438,
      "tic": 439,
      "ilir": 440,
      "Ġyour": 441,
      "ner": 442,
      "ĠkÄ±": 443,
      "dÄ±m": 444,
      "ĠkÄ±sa": 445,
      "ĠG": 446,
      "Ġu": 447,
      "ĠadÄ±m": 448,
      "as": 449,
      "ly": 450,
      "lar": 451,
      "Ġsome": 452,
      "wo": 453,
      "ive": 454,
      "Ġnum": 455,
      "ĠSc": 456,
      "Ġfor": 457,
      "Ġtwo": 458,
      "Ġ3": 459,
      "Ġshort": 460,
      "Ġme": 461,
      "ari": 462,
      "aÅŁ": 463,
      "Ä±nÄ±": 464,
      "abilir": 465,
      "ine": 466,
      "estions": 467,
      "Ġprac": 468,
      "Ġsomeone": 469,
      "tical": 470,
      "ya": 471,
      "Ġstr": 472,
      "ugg": 473,
      "enti": 474,
      "ep": 475,
      "Ġsugg": 476,
      "gling": 477,
      "uggling": 478,
      "ĠGive": 479,
      "Ġstruggling": 480,
      "ario": 481,
      "enario": 482,
      "Ġpractical": 483,
      "Ġsuggestions": 484,
      "ĠScenario": 485,
      "ara": 486,
      "ed": 487,
      "ĠgÃ¼n": 488,
      "ĠbaÅŁ": 489,
      "mek": 490,
      "ic": 491,
      "ĠM": 492,
      "Ġmo": 493,
      "lam": 494,
      "ef": 495,
      "Ã¼k": 496,
      "Ġkenti": 497,
      "Ġkentinde": 498,
      "Ġile": 499,
      "Ġuy": 500,
      "Ġday": 501,
      "ent": 502,
      "Ġon": 503,
      "very": 504,
      "ey": 505,
      "alÄ±": 506,
      "Ġevery": 507,
      "st": 508,
      "Ä°": 509,
      "ec": 510,
      "ek": 511,
      "ĠL": 512,
      "ad": 513,
      "Ġne": 514,
      "ĠÄ°": 515,
      "ut": 516,
      "ayÄ±": 517,
      "Ġis": 518,
      "nda": 519,
      "Ġol": 520,
      "qu": 521,
      "ow": 522,
      "ation": 523,
      "yi": 524,
      "Ġver": 525,
      "Ġde": 526,
      "lk": 527,
      "Ġkon": 528,
      "Ġor": 529,
      "Ġit": 530,
      "med": 531,
      "lÄ±": 532,
      "sÄ±": 533,
      "Ġyap": 534,
      "Ġuyg": 535,
      "unu": 536,
      "mak": 537,
      "iÅŁ": 538,
      "Ġof": 539,
      "ĠÃ¶ner": 540,
      "em": 541,
      "Ġka": 542,
      "uÅŁ": 543,
      "urum": 544,
      "ĠO": 545,
      "iniz": 546,
      "'s": 547,
      "ler": 548,
      "acak": 549,
      "Ġti": 550,
      "Ġqu": 551,
      "Ġab": 552,
      "Ã¼Ã§": 553,
      "ĠÄ°lk": 554,
      "Ġzor": 555,
      "Ġsim": 556,
      "Ġabout": 557,
      "ĠÃ¶neri": 558,
      "Ġiki": 559,
      "Ġres": 560,
      "Ġco": 561,
      "ĠP": 562,
      "Ġuygul": 563,
      "aman": 564,
      "Ã¼Ã§Ã¼k": 565,
      "ĠÃ§": 566,
      "ĠBu": 567,
      "Ġbul": 568,
      "yor": 569,
      "aha": 570,
      "ely": 571,
      "usu": 572,
      "ĠC": 573,
      "Ġnumara": 574,
      "tir": 575,
      "ĠkaÃ§": 576,
      "Ġwh": 577,
      "Ġzaman": 578,
      "Ġtime": 579,
      "Ġsimple": 580,
      "ĠkÃ¼Ã§Ã¼k": 581,
      "ĠnumarasÄ±": 582,
      "ĠDurum": 583,
      "Ġen": 584,
      "mir": 585,
      "ĠgÃ¼nÃ¼": 586,
      "Ġ4": 587,
      "th": 588,
      "wer": 589,
      "Ġdaha": 590,
      "Ġone": 591,
      "Ġkonusu": 592,
      "rief": 593,
      "Ġzorlan": 594,
      "swer": 595,
      "Ġuygulan": 596,
      "Ġch": 597,
      "ĠayÄ±n": 598,
      "Ġmeet": 599,
      "Ġuygulanabilir": 600,
      "Ġkonusunda": 601,
      "aya": 602,
      "gin": 603,
      "Ġnumar": 604,
      "Ġ\"": 605,
      "ĠI": 606,
      "**": 607,
      "ĠnumaralÄ±": 608,
      "ning": 609,
      "Ġquestion": 610,
      "Ġzorlanan": 611,
      "Ġbegin": 612,
      "Ġanswer": 613,
      "Ġbirine": 614,
      "riefly": 615,
      "Ä±m": 616,
      "day": 617,
      "ok": 618,
      "ayÄ±t": 619,
      "Ã¼m": 620,
      "lat": 621,
      "ĠdeÄŁ": 622,
      "xam": 623,
      "Ġwithout": 624,
      "xample": 625,
      "ĠkayÄ±t": 626,
      "Ġbeginner": 627,
      "id": 628,
      "ĠbuluÅŁ": 629,
      "ik": 630,
      "Ġeveryday": 631,
      "ĠBriefly": 632,
      "ĠExample": 633,
      "Ã¼z": 634,
      "Ġr": 635,
      "ĠbuluÅŁacak": 636,
      "Ġkentindeki": 637,
      "ter": 638,
      "Ä±z": 639,
      "ĠgÃ¼nÃ¼nde": 640,
      "tiv": 641,
      "ĠR": 642,
      "eniz": 643,
      "Ġle": 644,
      "lo": 645,
      "Ġ5": 646,
      "Ġyaz": 647,
      "Ġdo": 648,
      "Ġv": 649,
      "ĠSon": 650,
      "Ġ(": 651,
      "ang": 652,
      "'d": 653,
      "Ġac": 654,
      "ĠH": 655,
      "ill": 656,
      "yorum": 657,
      "ĠbaÅŁlat": 658,
      "ate": 659,
      "ĠAn": 660,
      "ore": 661,
      "Ġisti": 662,
      "larda": 663,
      "sun": 664,
      "Ġj": 665,
      "lik": 666,
      "Ġanlam": 667,
      "iÅŁtir": 668,
      "ĠOn": 669,
      "ag": 670,
      "inu": 671,
      "Ġolsun": 672,
      "ĠcÃ¼m": 673,
      "meden": 674,
      "ack": 675,
      "ĠadÄ±mla": 676,
      "leyi": 677,
      "ĠBunu": 678,
      "ĠbaÅŁlatabilir": 679,
      "Ġistiyorum": 680,
      "inute": 681,
      "Ġwill": 682,
      "Ġzamanlarda": 683,
      "ĠadÄ±mÄ±m": 684,
      "ĠbaÅŁlatabiliriz": 685,
      "Ä±nÄ±z": 686,
      "ĠdeÄŁiÅŁtir": 687,
      "se": 688,
      "Ġman": 689,
      "Ġbu": 690,
      "lif": 691,
      "gh": 692,
      "Ġplan": 693,
      "ap": 694,
      "Ġsp": 695,
      "ĠanlamÄ±nÄ±": 696,
      "ĠcÃ¼mleyi": 697,
      "fore": 698,
      "ĠdeÄŁiÅŁtirmeden": 699,
      "Ġbefore": 700,
      "Ġby": 701,
      "ĠN": 702,
      "ĠZ": 703,
      "ĠAr": 704,
      "abit": 705,
      "ĠMer": 706,
      "lay": 707,
      "Ġat": 708,
      "ĠMaya": 709,
      "ĠMert": 710,
      "ĠElif": 711,
      "eyn": 712,
      "ĠCan": 713,
      "ĠEce": 714,
      "ĠNo": 715,
      "ĠZeyn": 716,
      "ask": 717,
      "Ġveya": 718,
      "ĠZeynep": 719,
      "ĠAda": 720,
      "art": 721,
      "ĠEmir": 722,
      "ĠNoah": 723,
      "om": 724,
      "mal": 725,
      "Ġ6": 726,
      "ina": 727,
      "ece": 728,
      "Ġchang": 729,
      "ĠLina": 730,
      "erve": 731,
      "Ġmore": 732,
      "Ġhabit": 733,
      "Ġreserve": 734,
      "Ġl": 735,
      "ĠÃ¶n": 736,
      "Ġsa": 737,
      "Ã¼r": 738,
      "Ġtask": 739,
      "Ġse": 740,
      "Ġ9": 741,
      "Ġ7": 742,
      "ust": 743,
      "reak": 744,
      "ĠArda": 745,
      "ĠDeniz": 746,
      "Ġ8": 747,
      "ew": 748,
      "Ġthis": 749,
      "if": 750,
      "Ġsmal": 751,
      "ends": 752,
      "de": 753,
      "Ġim": 754,
      "Ġthat": 755,
      "Ġra": 756,
      "leep": 757,
      "Ġthan": 758,
      "Ġyapmak": 759,
      "ue": 760,
      "ol": 761,
      "rak": 762,
      "Ġmean": 763,
      "ip": 764,
      "Ġola": 765,
      "ch": 766,
      "Ġfe": 767,
      "oc": 768,
      "ĠÃ": 769,
      "ren": 770,
      "rite": 771,
      "ond": 772,
      "Ġvar": 773,
      "Ġsmall": 774,
      "ake": 775,
      "Ġmeaning": 776,
      "Ġits": 777,
      "Ġlear": 778,
      "Ġsleep": 779,
      "Ġgo": 780,
      "ght": 781,
      "Ġye": 782,
      "Ġchanging": 783,
      "ĠÅŁ": 784,
      "like": 785,
      "ĠRew": 786,
      "Ġconcisely": 787,
      "ĠRewrite": 788,
      "utu": 789,
      "Ġha": 790,
      "Ġfeel": 791,
      "Ġal": 792,
      "ule": 793,
      "Ġbo": 794,
      "Ã¼ÅŁ": 795,
      "Ġint": 796,
      "ocus": 797,
      "ĠPra": 798,
      "ĠÃ¶ÄŁ": 799,
      "ev": 800,
      "Ġev": 801,
      "Ġ**": 802,
      "dÄ±r": 803,
      "ĠgÃ¶": 804,
      "ther": 805,
      "Ġmanag": 806,
      "ini": 807,
      "Ġrather": 808,
      "Ġkal": 809,
      "Ġmotiv": 810,
      "eni": 811,
      "Ġtr": 812,
      "Ġkutu": 813,
      "Ġminute": 814,
      "ne": 815,
      "ma": 816,
      "ment": 817,
      "Ġfri": 818,
      "ach": 819,
      "Ġjust": 820,
      "lÄ±k": 821,
      "ting": 822,
      "ers": 823,
      "ain": 824,
      "Ġtra": 825,
      "ell": 826,
      "Ġar": 827,
      "Ġminutes": 828,
      "vi": 829,
      "Ġinto": 830,
      "Ġda": 831,
      "Ã¼y": 832,
      "ĠU": 833,
      "Ġcomm": 834,
      "Ġrout": 835,
      "Ġkutuda": 836,
      "ĠÃĸ": 837,
      "Ġlearning": 838,
      "able": 839,
      "arÄ±": 840,
      "vel": 841,
      "ĠÃ¶ÄŁren": 842,
      "Ġroutine": 843,
      "Ġtop": 844,
      "ca": 845,
      "iti": 846,
      "lin": 847,
      "king": 848,
      "Ġreserved": 849,
      "ĠeÅŁ": 850,
      "Ġas": 851,
      "Ä±k": 852,
      "hip": 853,
      "Ġbed": 854,
      "ilg": 855,
      "ome": 856,
      "uy": 857,
      "oto": 858,
      "Ġcan": 859,
      "medi": 860,
      "tal": 861,
      "ard": 862,
      "our": 863,
      "thing": 864,
      "endship": 865,
      "Ġbel": 866,
      "ile": 867,
      "tÄ±r": 868,
      "ĠBer": 869,
      "ĠBerlin": 870,
      "slo": 871,
      "ĠOslo": 872,
      "na": 873,
      "Ġ10": 874,
      "Ġson": 875,
      "kara": 876,
      "Ġex": 877,
      "inizi": 878,
      "stan": 879,
      "bul": 880,
      "ĠAnkara": 881,
      "ĠeÅŁya": 882,
      "ĠdÃ¼z": 883,
      "Ġ15": 884,
      "Ġimmedi": 885,
      "ĠLond": 886,
      "ye": 887,
      "stanbul": 888,
      "Ġwor": 889,
      "ĠyÃ¼r": 890,
      "Ġtravel": 891,
      "gan": 892,
      "ĠÃ¶nce": 893,
      "gue": 894,
      "ĠLondon": 895,
      "talya": 896,
      "zmir": 897,
      "iny": 898,
      "ĠAntalya": 899,
      "ific": 900,
      "bon": 901,
      "ganiz": 902,
      "ĠLis": 903,
      "ĠK": 904,
      "Ġover": 905,
      "Ġdak": 906,
      "ĠLisbon": 907,
      "Ġtiny": 908,
      "ib": 909,
      "ien": 910,
      "Ġtasks": 911,
      "10": 912,
      "Ġdakik": 913,
      "Ġspec": 914,
      "Ġorganiz": 915,
      "ication": 916,
      "erek": 917,
      "Ġolarak": 918,
      "Ġyer": 919,
      "Ġfocus": 920,
      "Ġhabits": 921,
      "30": 922,
      "up": 923,
      "raf": 924,
      "20": 925,
      "Ġlike": 926,
      "larÄ±": 927,
      "her": 928,
      "ĠUse": 929,
      "Ġspecific": 930,
      "Ġ25": 931,
      "Ġiyi": 932,
      "Ġcom": 933,
      "Ġbelir": 934,
      "Ġkit": 935,
      "otoÄŁ": 936,
      "otoÄŁraf": 937,
      "lÃ¼k": 938,
      "eep": 939,
      "ĠV": 940,
      "ĠPrague": 941,
      "Ġplanning": 942,
      "oga": 943,
      "lang": 944,
      "ĠIzmir": 945,
      "ying": 946,
      "unication": 947,
      "Ġ20": 948,
      "ure": 949,
      "Ġhome": 950,
      "adece": 951,
      "ud": 952,
      "Ġwell": 953,
      "ienna": 954,
      "ĠVienna": 955,
      "Ġfriendship": 956,
      "be": 957,
      "Ä±ÅŁ": 958,
      "ps": 959,
      "Ġeach": 960,
      "ĠyÃ¼z": 961,
      "Ġwe": 962,
      "edule": 963,
      "ste": 964,
      "Ġsor": 965,
      "ĠyÃ¼rÃ¼y": 966,
      "'t": 967,
      "Ġlist": 968,
      "ĠfotoÄŁraf": 969,
      "ĠAy": 970,
      "Ġyoga": 971,
      "ilgi": 972,
      "ĠbaÅŁlay": 973,
      "est": 974,
      "ley": 975,
      "Ġmotivation": 976,
      "Ġwhat": 977,
      "Ġbreak": 978,
      "28": 979,
      "Ġph": 980,
      "lg": 981,
      "ka": 982,
      "ĠHow": 983,
      "ately": 984,
      "stead": 985,
      "Ġimmediately": 986,
      "ĠIstanbul": 987,
      "ement": 988,
      "bilir": 989,
      "being": 990,
      "Ġok": 991,
      "Ġbah": 992,
      "tick": 993,
      "anÄ±z": 994,
      "Ġcommunication": 995,
      "ind": 996,
      "ĠSt": 997,
      "ening": 998,
      "ĠyÃ¼rÃ¼yÃ¼ÅŁ": 999,
      "Ġdil": 1000,
      "Ġmanagement": 1001,
      "Ġtoplam": 1002,
      "Ġinstead": 1003,
      "Ġstart": 1004,
      "Ġitem": 1005,
      "abah": 1006,
      "Ġgoal": 1007,
      "ĠvardÄ±r": 1008,
      "Ġste": 1009,
      "ĠHer": 1010,
      "ild": 1011,
      "Ġot": 1012,
      "cel": 1013,
      "80": 1014,
      "ig": 1015,
      "cak": 1016,
      "Ġkitap": 1017,
      "Ġorganization": 1018,
      "Ġno": 1019,
      "11": 1020,
      "Ġilg": 1021,
      "Ġsadece": 1022,
      "ĠgÃ¼nlÃ¼k": 1023,
      "ĠbahÃ§": 1024,
      "reate": 1025,
      "Ġtut": 1026,
      "Ġet": 1027,
      "ĠBreak": 1028,
      "uÄŁ": 1029,
      "inde": 1030,
      "Ġkend": 1031,
      "minute": 1032,
      "ĠÃ§ek": 1033,
      "unuz": 1034,
      "Ġ30": 1035,
      "Ġus": 1036,
      "Ġher": 1037,
      "Ġsonra": 1038,
      "Ġyemek": 1039,
      "ress": 1040,
      "oid": 1041,
      "32": 1042,
      "ity": 1043,
      "avi": 1044,
      "void": 1045,
      "ĠseÃ§": 1046,
      "tions": 1047,
      "siniz": 1048,
      "Ġcle": 1049,
      "ick": 1050,
      "Ġbook": 1051,
      "sist": 1052,
      "edef": 1053,
      "Ġweek": 1054,
      "Ġkalem": 1055,
      "Ġmany": 1056,
      "aking": 1057,
      "ily": 1058,
      "12": 1059,
      "ĠF": 1060,
      "ĠStart": 1061,
      "Ġup": 1062,
      "Ġset": 1063,
      "Ġmeets": 1064,
      "nal": 1065,
      "ally": 1066,
      "88": 1067,
      "Ġcomple": 1068,
      "Ä±nÄ±zÄ±": 1069,
      "Ġsilgi": 1070,
      "ĠyÃ¶": 1071,
      "iÄŁ": 1072,
      "den": 1073,
      "sel": 1074,
      "Ġkul": 1075,
      "ten": 1076,
      "Ġ19": 1077,
      "Ġ14": 1078,
      "Ġ24": 1079,
      "asÄ±": 1080,
      "Ġ16": 1081,
      "Ġ17": 1082,
      "34": 1083,
      "ĠpiÅŁ": 1084,
      "Ġinter": 1085,
      "Ġtrying": 1086,
      "port": 1087,
      "reen": 1088,
      "loc": 1089,
      "Ġun": 1090,
      "Ġilgil": 1091,
      "Ġwhen": 1092,
      "Ġthem": 1093,
      "Ġhedef": 1094,
      "Ġwork": 1095,
      "ĠdÃ¼zeni": 1096,
      "Ġokum": 1097,
      "ĠalÄ±": 1098,
      "Ġkullan": 1099,
      "alÄ±ÅŁ": 1100,
      "arak": 1101,
      "Ġactiv": 1102,
      "Ġ26": 1103,
      "Ġconsist": 1104,
      "ÅŁam": 1105,
      "ings": 1106,
      "Ġ27": 1107,
      "14": 1108,
      "Ġte": 1109,
      "Ġdakika": 1110,
      "Ġresim": 1111,
      "ndan": 1112,
      "light": 1113,
      "33": 1114,
      "ord": 1115,
      "Ġfr": 1116,
      "Ġdaily": 1117,
      "Ġed": 1118,
      "Ã¼re": 1119,
      "ĠiÅŁ": 1120,
      "Ä±nda": 1121,
      "ÄŁin": 1122,
      "asy": 1123,
      "Ġout": 1124,
      "ere": 1125,
      "Ġeven": 1126,
      "Ġ18": 1127,
      "Ġitems": 1128,
      "Ġhour": 1129,
      "Ġif": 1130,
      "Ġback": 1131,
      "Ġ12": 1132,
      "Ġcev": 1133,
      "Ġdid": 1134,
      "15": 1135,
      "Ġbas": 1136,
      "00": 1137,
      "irst": 1138,
      "own": 1139,
      "Ġmoment": 1140,
      "Ġbuild": 1141,
      "Ġod": 1142,
      "Ġthen": 1143,
      "Ä±rm": 1144,
      "op": 1145,
      "ving": 1146,
      "Ġclear": 1147,
      "ecord": 1148,
      "ĠÃ§alÄ±ÅŁ": 1149,
      "ĠRecord": 1150,
      "ken": 1151,
      "are": 1152,
      "Ä±zÄ±": 1153,
      "ĠdoÄŁ": 1154,
      "Ġsaat": 1155,
      "Ġcevap": 1156,
      "leri": 1157,
      "Ġsteps": 1158,
      "nder": 1159,
      "kan": 1160,
      "ci": 1161,
      "Ġ=": 1162,
      "Ġfirst": 1163,
      "tiÅŁ": 1164,
      "and": 1165,
      "age": 1166,
      "ĠpiÅŁir": 1167,
      "tive": 1168,
      "langÄ±": 1169,
      "Ġtem": 1170,
      "tice": 1171,
      "22": 1172,
      "leyin": 1173,
      "ĠÃĸn": 1174,
      "Ġfrom": 1175,
      "ĠÃ¶ÄŁrenmek": 1176,
      "Ġconsistent": 1177,
      "yaz": 1178,
      "16": 1179,
      "wh": 1180,
      "Ġsu": 1181,
      "Ġneed": 1182,
      "Ġ28": 1183,
      "36": 1184,
      "Ġread": 1185,
      "ff": 1186,
      "laÅŁ": 1187,
      "Ä±rmÄ±zÄ±": 1188,
      "ÅŁil": 1189,
      "rne": 1190,
      "Ġmavi": 1191,
      "35": 1192,
      "Ġonce": 1193,
      "ĠyeÅŁil": 1194,
      "ĠkÄ±rmÄ±zÄ±": 1195,
      "si": 1196,
      "17": 1197,
      "Ġge": 1198,
      "ÄŁÄ±": 1199,
      "rneÄŁin": 1200,
      "eler": 1201,
      "ĠgÃ¶re": 1202,
      "yle": 1203,
      "37": 1204,
      "oriti": 1205,
      "tiÅŁim": 1206,
      "Ġget": 1207,
      "celik": 1208,
      "Ġred": 1209,
      "ĠSch": 1210,
      "ĠSchedule": 1211,
      "Ġoverwh": 1212,
      "Ġoverwhel": 1213,
      "Ġ22": 1214,
      "Ġilk": 1215,
      "Ġbeyaz": 1216,
      "Ġko": 1217,
      "ĠÃ§ok": 1218,
      "ku": 1219,
      "nÄ±z": 1220,
      "ze": 1221,
      "Ġaz": 1222,
      "ro": 1223,
      "ingle": 1224,
      "Ġsingle": 1225,
      "Ġwal": 1226,
      "ĠalÄ±ÅŁ": 1227,
      "ĠbahÃ§ey": 1228,
      "Ġkeep": 1229,
      "Ġhem": 1230,
      "ĠsarÄ±": 1231,
      "ĠsÃ¼re": 1232,
      "alnÄ±z": 1233,
      "rar": 1234,
      "ĠPick": 1235,
      "mi": 1236,
      "Ġsc": 1237,
      "maya": 1238,
      "langÄ±Ã§": 1239,
      "ĠÃ§ekmek": 1240,
      "ilece": 1241,
      "ecek": 1242,
      "Ġdown": 1243,
      "ree": 1244,
      "Ġbasit": 1245,
      "ÄŁi": 1246,
      "Ġden": 1247,
      "daÅŁ": 1248,
      "Ġokumak": 1249,
      "self": 1250,
      "Ġodak": 1251,
      "duÄŁ": 1252,
      "Ġel": 1253,
      "Ä±na": 1254,
      "Ġavoid": 1255,
      "Ġyourself": 1256,
      "Ġdoing": 1257,
      "anÄ±": 1258,
      "Ġkay": 1259,
      "cle": 1260,
      "aki": 1261,
      "kadaÅŁ": 1262,
      "ĠÅŁey": 1263,
      "Ġnew": 1264,
      "uyu": 1265,
      "lu": 1266,
      "ect": 1267,
      "reat": 1268,
      "ĠbahÃ§eyle": 1269,
      "alnÄ±zca": 1270,
      "Ġmanage": 1271,
      "Ġbi": 1272,
      "ark": 1273,
      "82": 1274,
      "ĠBir": 1275,
      "ĠYalnÄ±zca": 1276,
      "ĠCreate": 1277,
      "Ġyeni": 1278,
      "ook": 1279,
      "84": 1280,
      "ĠiletiÅŁim": 1281,
      "ted": 1282,
      "Ġonly": 1283,
      "amer": 1284,
      "Ġtutmak": 1285,
      "mayÄ±": 1286,
      "low": 1287,
      "ta": 1288,
      "Ġexp": 1289,
      "ace": 1290,
      "Ġeverything": 1291,
      "ion": 1292,
      "Ġsabah": 1293,
      "Ġdurum": 1294,
      "ĠalÄ±ÅŁkan": 1295,
      "90": 1296,
      "asyon": 1297,
      "ni": 1298,
      "ĠpiÅŁirmek": 1299,
      "Ġyerine": 1300,
      "ĠsaÄŁ": 1301,
      "ĠSet": 1302,
      "tÄ±": 1303,
      "Ġilgilen": 1304,
      "Ġnote": 1305,
      "nderst": 1306,
      "tain": 1307,
      "oritize": 1308,
      "ĠAyÄ±n": 1309,
      "ycle": 1310,
      "Ġist": 1311,
      "elef": 1312,
      "ibi": 1313,
      "Ġgoals": 1314,
      "Ġsay": 1315,
      "Ġtack": 1316,
      "Ġuyku": 1317,
      "Ġtek": 1318,
      "ide": 1319,
      "utter": 1320,
      "ĠbaÅŁlam": 1321,
      "tan": 1322,
      "lutter": 1323,
      "ge": 1324,
      "Ġara": 1325,
      "Ġother": 1326,
      "Ġilgilenmek": 1327,
      "celikle": 1328,
      "Ġmanageable": 1329,
      "Ġscreen": 1330,
      "ĠyÃ¼zmek": 1331,
      "Ġlistening": 1332,
      "Ġak": 1333,
      "Ġodaklan": 1334,
      "Ġpro": 1335,
      "cÄ±": 1336,
      "Ġuygun": 1337,
      "Ġgibi": 1338,
      "24": 1339,
      "Ġreg": 1340,
      "rou": 1341,
      "Ġthey": 1342,
      "ĠÃ¶ÄŁrenme": 1343,
      "elefon": 1344,
      "Ġsch": 1345,
      "ct": 1346,
      "Ġdeep": 1347,
      "ĠbaÅŁlangÄ±Ã§": 1348,
      "13": 1349,
      "Ġreading": 1350,
      "ticket": 1351,
      "Ġticket": 1352,
      "ĠarkadaÅŁ": 1353,
      "Ġpers": 1354,
      "ĠW": 1355,
      "Ġmomentum": 1356,
      "lant": 1357,
      "Ġyol": 1358,
      "inin": 1359,
      "ech": 1360,
      "ible": 1361,
      "ĠgeÃ§": 1362,
      "Ġsomething": 1363,
      "Ġunderst": 1364,
      "hat": 1365,
      "ven": 1366,
      "Ġany": 1367,
      "ks": 1368,
      "ĠyaÅŁam": 1369,
      "Ġchec": 1370,
      "book": 1371,
      "Ġrule": 1372,
      "Ġwake": 1373,
      "pp": 1374,
      "Ġhe": 1375,
      "Ġ35": 1376,
      "Ġsiz": 1377,
      "Ġpo": 1378,
      "85": 1379,
      "Ġ37": 1380,
      "ĠolduÄŁ": 1381,
      "rac": 1382,
      "lem": 1383,
      "Ġ36": 1384,
      "Ġdur": 1385,
      "ahat": 1386,
      "niqu": 1387,
      "echniqu": 1388,
      "Ġ34": 1389,
      "Ġdist": 1390,
      "eyahat": 1391,
      "Ġlow": 1392,
      "ular": 1393,
      "Ġ13": 1394,
      "Ġlam": 1395,
      "Ġusing": 1396,
      "Ġtea": 1397,
      "87": 1398,
      "86": 1399,
      "dan": 1400,
      "Ġ23": 1401,
      "ĠKeep": 1402,
      "ctice": 1403,
      "ĠPractice": 1404,
      "ite": 1405,
      "eri": 1406,
      "ĠgÃ¼": 1407,
      "Ġplant": 1408,
      "xt": 1409,
      "ary": 1410,
      "inize": 1411,
      "ĠdoÄŁr": 1412,
      "Ġgen": 1413,
      "Ġsess": 1414,
      "ire": 1415,
      "Ġnotebook": 1416,
      "adan": 1417,
      "25": 1418,
      "Ġkur": 1419,
      "Ġ+": 1420,
      "ĠyÃ¶ne": 1421,
      "Ġweekends": 1422,
      "Ġer": 1423,
      "pack": 1424,
      "ĠalÄ±ÅŁkanlÄ±k": 1425,
      "Ã¶rneÄŁin": 1426,
      "Ġ21": 1427,
      "Ġri": 1428,
      "Ġbic": 1429,
      "Ġoff": 1430,
      "Ġmotivasyon": 1431,
      "Ġunderstand": 1432,
      "Ġbicycle": 1433,
      "timi": 1434,
      "Ġresp": 1435,
      "Ġsame": 1436,
      "Ġmost": 1437,
      "Ġbackpack": 1438,
      "Ġfive": 1439,
      "ĠdÃ¼ÅŁ": 1440,
      "Ġ29": 1441,
      "Ġbl": 1442,
      "Ġjack": 1443,
      "alÄ±k": 1444,
      "Ġbet": 1445,
      "leme": 1446,
      "Ġjacket": 1447,
      "Ġ11": 1448,
      "Ġgerek": 1449,
      "Ġscreens": 1450,
      "enc": 1451,
      "26": 1452,
      "manÄ±z": 1453,
      "Ġ39": 1454,
      "bilece": 1455,
      "89": 1456,
      "Ġtheir": 1457,
      "Ġperson": 1458,
      "Ġprev": 1459,
      "az": 1460,
      "Ġ40": 1461,
      "rioritize": 1462,
      "echnique": 1463,
      "ose": 1464,
      "27": 1465,
      "Ä±p": 1466,
      "Ġtam": 1467,
      "rn": 1468,
      "Ġsw": 1469,
      "use": 1470,
      "ĠyÃ¶netimi": 1471,
      "Ġrest": 1472,
      "ong": 1473,
      "Ġprevent": 1474,
      "angi": 1475,
      "Ġschedule": 1476,
      "abilirsiniz": 1477,
      "Ġmain": 1478,
      "ĠPrioritize": 1479,
      "uage": 1480,
      "Ġlang": 1481,
      "Ġlanguage": 1482,
      "Ġtri": 1483,
      "ati": 1484,
      "aÄŁ": 1485,
      "Ġdon": 1486,
      "Ġseyahat": 1487,
      "dÄ±ndan": 1488,
      "akk": 1489,
      "ich": 1490,
      "29": 1491,
      "Ġdes": 1492,
      "act": 1493,
      "40": 1494,
      "Ġtelefon": 1495,
      "ph": 1496,
      "orning": 1497,
      "Ġener": 1498,
      "Ġmorning": 1499,
      "len": 1500,
      "Ġgel": 1501,
      "Ġkolay": 1502,
      "Ġmat": 1503,
      "Ġkar": 1504,
      "Ġdeney": 1505,
      "ĠkonuÅŁ": 1506,
      "leÅŁ": 1507,
      "fter": 1508,
      "Ġiler": 1509,
      "Ġmake": 1510,
      "Ġimport": 1511,
      "Ġspe": 1512,
      "Ġjour": 1513,
      "Ġblue": 1514,
      "Ġcamer": 1515,
      "Ġcal": 1516,
      "83": 1517,
      "ody": 1518,
      "tur": 1519,
      "Ġwhich": 1520,
      "ĠarkadaÅŁlÄ±k": 1521,
      "Ġhakk": 1522,
      "Ġtackle": 1523,
      "akes": 1524,
      "ĠFocus": 1525,
      "Ġbody": 1526,
      "Ġedin": 1527,
      "ry": 1528,
      "ĠplanÄ±": 1529,
      "Ġafter": 1530,
      "Ġthree": 1531,
      "ĠPa": 1532,
      "ĠSabah": 1533,
      "anÄ±t": 1534,
      "Ġrep": 1535,
      ":**": 1536,
      "Ä±l": 1537,
      "Ġhemen": 1538,
      "ĠhakkÄ±nda": 1539,
      "Ġall": 1540,
      "Ġkad": 1541,
      "Ġpri": 1542,
      "Ġdistrac": 1543,
      "Ġhaf": 1544,
      "ĠGÃ¼n": 1545,
      "Ġhis": 1546,
      "ight": 1547,
      "Ġfeeling": 1548,
      "Ġactivity": 1549,
      "Ġsession": 1550,
      "ĠalÄ±ÅŁkanlÄ±klar": 1551,
      "Ġek": 1552,
      "ĠyÃ¶n": 1553,
      "Ġyapacak": 1554,
      "lemek": 1555,
      "oro": 1556,
      "odoro": 1557,
      "ces": 1558,
      "omodoro": 1559,
      "Ġbur": 1560,
      "Ġkadar": 1561,
      "ĠdÃ¼zen": 1562,
      "Ġop": 1563,
      "ast": 1564,
      "ĠaÃ§": 1565,
      "ĠyanÄ±t": 1566,
      "ĠÃ§Ä±k": 1567,
      "reath": 1568,
      "Ġjournal": 1569,
      "Ġactive": 1570,
      "kil": 1571,
      "Ã¶z": 1572,
      "Ġbreath": 1573,
      "als": 1574,
      "ĠgÃ¶r": 1575,
      "Ġphone": 1576,
      "Ġnext": 1577,
      "ward": 1578,
      "bilirsiniz": 1579,
      "ts": 1580,
      "ĠadÄ±mÄ±nÄ±z": 1581,
      "Ġwhere": 1582,
      "Ġmaintain": 1583,
      "ination": 1584,
      "ĠTh": 1585,
      "ating": 1586,
      "81": 1587,
      "layÄ±n": 1588,
      "rnek": 1589,
      "ated": 1590,
      "ede": 1591,
      "ound": 1592,
      "Ġreduce": 1593,
      "time": 1594,
      "Ġoften": 1595,
      "60": 1596,
      "Ġacc": 1597,
      "kin": 1598,
      "Ġcook": 1599,
      "ÄŁÄ±nÄ±z": 1600,
      "ĠgÃ¼nÃ¼n": 1601,
      "Ġright": 1602,
      "Ġpain": 1603,
      "Ġimportant": 1604,
      "Ġnef": 1605,
      "for": 1606,
      "Ġhow": 1607,
      "ayÄ±n": 1608,
      "Ġthings": 1609,
      "Ġro": 1610,
      "meye": 1611,
      "Ġwalk": 1612,
      "31": 1613,
      "Ġstud": 1614,
      "Ġcomplete": 1615,
      "til": 1616,
      "Ġlearn": 1617,
      "rol": 1618,
      "ĠhÄ±z": 1619,
      "ĠbaÅŁlayan": 1620,
      "iner": 1621,
      "Ġolan": 1622,
      "Ġper": 1623,
      "Ġolacak": 1624,
      "Ġuse": 1625,
      "Ġolm": 1626,
      "Ġgard": 1627,
      "49": 1628,
      "50": 1629,
      "ance": 1630,
      "Ġsoruyu": 1631,
      "Ġsora": 1632,
      "Ġtamam": 1633,
      "Ġalan": 1634,
      "Ġitiner": 1635,
      "Ġtake": 1636,
      "ĠbÃ¶": 1637,
      "Ġyarar": 1638,
      "Ġnefes": 1639,
      "Ġclutter": 1640,
      "set": 1641,
      "Ġoverwhelmed": 1642,
      "ĠÃ¶z": 1643,
      "Ġla": 1644,
      "ĠyapÄ±n": 1645,
      "70": 1646,
      "omm": 1647,
      "Ġbirinin": 1648,
      "Ġaction": 1649,
      "Ġstre": 1650,
      "Ġbelirleyin": 1651,
      "Ġaw": 1652,
      "Ġapp": 1653,
      "Ġbreaks": 1654,
      "uz": 1655,
      "ays": 1656,
      "Ġens": 1657,
      "Ġtemel": 1658,
      "ĠgÃ¼ven": 1659,
      "Ġmoving": 1660,
      "Ġbig": 1661,
      "lerinizi": 1662,
      "Ã§im": 1663,
      "emli": 1664,
      "ĠiÃ§inde": 1665,
      "Ġlamp": 1666,
      "Ġroom": 1667,
      "wn": 1668,
      "bileceÄŁi": 1669,
      "dir": 1670,
      "ĠÄ±ÅŁ": 1671,
      "hi": 1672,
      "Ġcheck": 1673,
      "ĠÅŁek": 1674,
      "Ġduring": 1675,
      "Ġlight": 1676,
      "ĠoluÅŁ": 1677,
      "ÅŁÄ±": 1678,
      "23": 1679,
      "Ġpe": 1680,
      "saj": 1681,
      "Ġgardening": 1682,
      "ĠbiÃ§im": 1683,
      "Ġshare": 1684,
      "ĠÃĸrnek": 1685,
      "Ġtechnique": 1686,
      "Ġeas": 1687,
      "ĠÃĸncelikle": 1688,
      "Ġthing": 1689,
      "ĠbaÅŁlamak": 1690,
      "madan": 1691,
      "ĠyararlÄ±": 1692,
      "ĠyanÄ±tla": 1693,
      "rek": 1694,
      "mo": 1695,
      "ĠbiÃ§imde": 1696,
      "ĠsorabileceÄŁi": 1697,
      "Ġflight": 1698,
      "ĠÃĸnce": 1699,
      "ĠardÄ±ndan": 1700,
      "larÄ±nÄ±": 1701,
      "Ġcreate": 1702,
      "Ġharek": 1703,
      "ĠsÄ±": 1704,
      "21": 1705,
      "Ġitinerary": 1706,
      "ĠStick": 1707,
      "Ġgood": 1708,
      "Ġoverwhelm": 1709,
      "Ġlo": 1710,
      "Ġfin": 1711,
      "Ġdistractions": 1712,
      "Ġconn": 1713,
      "tely": 1714,
      "Ġfocused": 1715,
      "Ġdi": 1716,
      "Ġhave": 1717,
      "Ġbox": 1718,
      "trol": 1719,
      "ess": 1720,
      "ĠÃ¶nemli": 1721,
      "ĠdeÄŁil": 1722,
      "tu": 1723,
      "lock": 1724,
      "Ġspace": 1725,
      "ĠÅŁu": 1726,
      "Ġdet": 1727,
      "Ġachi": 1728,
      "ĠdÃ¼ÅŁÃ¼n": 1729,
      "ĠtÃ¼r": 1730,
      "Ġcommit": 1731,
      "ĠbaÅŁlayÄ±n": 1732,
      "Ġmaking": 1733,
      "cess": 1734,
      "lace": 1735,
      "Ġcompletely": 1736,
      "press": 1737,
      "Ġkendi": 1738,
      "Ġcooking": 1739,
      "Ġwant": 1740,
      "ÄŁer": 1741,
      "ĠTake": 1742,
      "Ġwhile": 1743,
      "ediÄŁ": 1744,
      "uc": 1745,
      "Ġnet": 1746,
      "Ġuz": 1747,
      "ĠkarÅŁÄ±": 1748,
      "Ġhangi": 1749,
      "meyi": 1750,
      "eli": 1751,
      "ÄŁÄ±nÄ±": 1752,
      "yun": 1753,
      "Ġjournaling": 1754,
      "Ġpainting": 1755,
      "Ġfol": 1756,
      "rup": 1757,
      "Ġsorun": 1758,
      "Ġsig": 1759,
      "ĠÃ¼z": 1760,
      "rough": 1761,
      "Ġcamera": 1762,
      "rain": 1763,
      "edic": 1764,
      "Ã¼yÃ¼k": 1765,
      "Ġthrough": 1766,
      "Ġwat": 1767,
      "iler": 1768,
      "Ġuygulam": 1769,
      "Ġleast": 1770,
      "alar": 1771,
      "Ġhi": 1772,
      "lex": 1773,
      "ĠsayÄ±": 1774,
      "ĠPomodoro": 1775,
      "Ġdest": 1776,
      "Ġaway": 1777,
      "Ġrespond": 1778,
      "rin": 1779,
      "Ġkap": 1780,
      "ether": 1781,
      "Ġstri": 1782,
      "Ġarea": 1783,
      "Ġstudy": 1784,
      "ower": 1785,
      "Ġgreen": 1786,
      "ities": 1787,
      "lish": 1788,
      "Ġflex": 1789,
      "iting": 1790,
      "mes": 1791,
      "ÄŁiniz": 1792,
      "ents": 1793,
      "Ġdestination": 1794,
      "ĠistediÄŁ": 1795,
      "ĠÅŁekil": 1796,
      "Ġtimes": 1797,
      "ople": 1798,
      "ellik": 1799,
      ").": 1800,
      "oy": 1801,
      "Ġpeople": 1802,
      "Ġdin": 1803,
      "Ġayda": 1804,
      "Ġstrict": 1805,
      "Ġconnec": 1806,
      "Ġetkil": 1807,
      "asÄ±nÄ±": 1808,
      "meniz": 1809,
      "ĠMo": 1810,
      "Ġfinish": 1811,
      "Ġhaz": 1812,
      "Ġwhite": 1813,
      "yors": 1814,
      "Ġregular": 1815,
      "sh": 1816,
      "ils": 1817,
      "av": 1818,
      "Ġhours": 1819,
      "gy": 1820,
      "Ġfollow": 1821,
      "Ġmind": 1822,
      "Ġquestions": 1823,
      "Ġeff": 1824,
      "Ġbest": 1825,
      "Ġyak": 1826,
      "ĠAvoid": 1827,
      "Ġort": 1828,
      "we": 1829,
      "ĠgÃ¶z": 1830,
      "Ġnat": 1831,
      "Ġdedic": 1832,
      "ellow": 1833,
      "Ġama": 1834,
      "Ġyellow": 1835,
      "Ġhelps": 1836,
      "ous": 1837,
      "ix": 1838,
      "ffe": 1839,
      "ĠÅŁekilde": 1840,
      "Ġlong": 1841,
      "Ġ*": 1842,
      "erin": 1843,
      "ĠoluÅŁtur": 1844,
      "Ġyar": 1845,
      "ĠSonra": 1846,
      "ĠEÄŁer": 1847,
      "otogra": 1848,
      "Ġenti": 1849,
      "Ġentire": 1850,
      "ysic": 1851,
      "form": 1852,
      "Ġensure": 1853,
      "ylece": 1854,
      "lerini": 1855,
      "Ä±nÄ±n": 1856,
      "ĠyÃ¶ntem": 1857,
      "Ġsup": 1858,
      "ĠIn": 1859,
      "Ġkontrol": 1860,
      "Ġphysic": 1861,
      "Ġchange": 1862,
      "Ġdark": 1863,
      "Ġhareket": 1864,
      "ĠhazÄ±r": 1865,
      "eÅŁ": 1866,
      "ass": 1867,
      "ĠMotiv": 1868,
      "Ġetkili": 1869,
      "line": 1870,
      "Ä±rak": 1871,
      "Ġess": 1872,
      "luk": 1873,
      "ĠolacaktÄ±r": 1874,
      "ĠyapÄ±": 1875,
      "Ġwalking": 1876,
      "Ġerken": 1877,
      "Ġwho": 1878,
      "Ġessenti": 1879,
      "Ġrec": 1880,
      "cut": 1881,
      "kinci": 1882,
      "ency": 1883,
      "Ġphotogra": 1884,
      "ins": 1885,
      "get": 1886,
      "ush": 1887,
      "ĠbÄ±rak": 1888,
      "Ġphotograph": 1889,
      "ĠCh": 1890,
      "pressure": 1891,
      "Ġsignal": 1892,
      "Ġdis": 1893,
      "Ġtod": 1894,
      "Ġyat": 1895,
      "Ġburn": 1896,
      "rÄ±": 1897,
      "Ġstarting": 1898,
      "ellikle": 1899,
      "Ġresponding": 1900,
      "Ġimp": 1901,
      "ĠakÅŁam": 1902,
      "ĠhÄ±zlÄ±": 1903,
      "di": 1904,
      "Ġtoday": 1905,
      "ĠWhat": 1906,
      "oth": 1907,
      "Ġmesaj": 1908,
      "iff": 1909,
      "44": 1910,
      "ves": 1911,
      "Ġfeels": 1912,
      "Ġphotography": 1913,
      "ĠIt": 1914,
      "udan": 1915,
      "room": 1916,
      "read": 1917,
      "Ġcool": 1918,
      "Ġvis": 1919,
      "ween": 1920,
      "likte": 1921,
      "Ġbetween": 1922,
      "Ġchun": 1923,
      "Ġduy": 1924,
      "Ġdiff": 1925,
      "Ġflexible": 1926,
      "Ġolur": 1927,
      "Ġburnout": 1928,
      "Ġilgili": 1929,
      "diÄŁ": 1930,
      "man": 1931,
      "Ġenergy": 1932,
      "Ġwater": 1933,
      "Ġtry": 1934,
      "ĠdakikalÄ±k": 1935,
      "inizde": 1936,
      "Ġfeelings": 1937,
      "Ġmatter": 1938,
      "ĠÃ¼zer": 1939,
      "ize": 1940,
      "Ġuntil": 1941,
      "denti": 1942,
      "ching": 1943,
      "pec": 1944,
      "Ġhedefler": 1945,
      "ens": 1946,
      "Ġunderstanding": 1947,
      "dentif": 1948,
      "now": 1949,
      "unda": 1950,
      "Ġtemiz": 1951,
      "ogether": 1952,
      "Ġstress": 1953,
      "lend": 1954,
      "Ġelse": 1955,
      "layÄ±": 1956,
      "Ġchunks": 1957,
      "Ġbrain": 1958,
      "Ġless": 1959,
      "Ġayar": 1960,
      "ans": 1961,
      "Ġtogether": 1962,
      "Ġactivities": 1963,
      "Ġbek": 1964,
      "..": 1965,
      "Ġmess": 1966,
      "ĠGo": 1967,
      "Ġur": 1968,
      "ling": 1969,
      "lama": 1970,
      "ĠMotivation": 1971,
      "oose": 1972,
      "Ġbut": 1973,
      "Ġbedroom": 1974,
      "Ġgid": 1975,
      "imi": 1976,
      "Ġstay": 1977,
      "Ġinc": 1978,
      "ĠyardÄ±m": 1979,
      "Ã¼c": 1980,
      "ĠBaÅŁ": 1981,
      "mer": 1982,
      "ual": 1983,
      "Ġyet": 1984,
      "ĠgÃ¼venli": 1985,
      "imming": 1986,
      "ear": 1987,
      "aster": 1988,
      "sÄ±nÄ±z": 1989,
      "Ġswimming": 1990,
      "Ġbilg": 1991,
      "ĠTry": 1992,
      "land": 1993,
      "Ġasking": 1994,
      "Ġspeaking": 1995,
      "Ġolabilir": 1996,
      "ĠbaÅŁlayabilirsiniz": 1997,
      "mÄ±ÅŁ": 1998,
      "Ġeasi": 1999,
      "Ġphysical": 2000,
      "app": 2001,
      "ĠFri": 2002,
      "uyun": 2003,
      "leÅŁtir": 2004,
      "rate": 2005,
      "ĠkiÅŁ": 2006,
      "uk": 2007,
      "Ġimmediate": 2008,
      "ways": 2009,
      "asÄ±l": 2010,
      "Ġanything": 2011,
      "pt": 2012,
      "ĠÄ°stanbul": 2013,
      "Ġgoing": 2014,
      "ĠÃ§alÄ±ÅŁÄ±n": 2015,
      "Ġtrip": 2016,
      "Ã¼nde": 2017,
      "Ġtekrar": 2018,
      "Ġsonraki": 2019,
      "Ġnow": 2020,
      "Ġcont": 2021,
      "Ġrela": 2022,
      "Ġmove": 2023,
      "Ġbak": 2024,
      "Ġdec": 2025,
      "ĠbÃ¼yÃ¼k": 2026,
      "Ġtickets": 2027,
      "Ġsize": 2028,
      "Ġment": 2029,
      "Ġbr": 2030,
      "Ġhisset": 2031,
      "Ġnight": 2032,
      "Ġiz": 2033,
      "'re": 2034,
      "vir": 2035,
      "Ġhigh": 2036,
      "Ġboyun": 2037,
      "Ã§ek": 2038,
      ".\"": 2039,
      "Ġbedtime": 2040,
      "Ġboyunca": 2041,
      "Ġhav": 2042,
      "onment": 2043,
      "vironment": 2044,
      "Ġrepe": 2045,
      "isi": 2046,
      "Ġpress": 2047,
      "Ġfriend": 2048,
      "Ġmu": 2049,
      "Ġmev": 2050,
      "Ġenj": 2051,
      "Ġdeneyin": 2052,
      "Ġeasier": 2053,
      "Ġnatur": 2054,
      "Ã¼t": 2055,
      "ence": 2056,
      "ĠÄ°kinci": 2057,
      "ĠÃ§Ã¶z": 2058,
      "Ġrahat": 2059,
      "Ġstep": 2060,
      "ĠPair": 2061,
      "atik": 2062,
      "Ġconf": 2063,
      "Ġenvironment": 2064,
      "Ġpressure": 2065,
      "ĠdoÄŁrudan": 2066,
      "45": 2067,
      "Ġactu": 2068,
      "ffee": 2069,
      "hers": 2070,
      "Ġachiev": 2071,
      "min": 2072,
      "ele": 2073,
      "Ġbetter": 2074,
      "Ġwa": 2075,
      "Ġothers": 2076,
      "Ġlar": 2077,
      "ĠadÄ±mÄ±": 2078,
      "âĢ": 2079,
      "Ġloc": 2080,
      "Ġfix": 2081,
      "Ġmevcut": 2082,
      "lara": 2083,
      "ĠgÃ¶rev": 2084,
      "unuzu": 2085,
      "ld": 2086,
      "Ġbud": 2087,
      "Ġcoffee": 2088,
      "leyerek": 2089,
      "Ġflights": 2090,
      "19": 2091,
      "cek": 2092,
      "Ġmental": 2093,
      "Ġazal": 2094,
      "Ġfocusing": 2095,
      "Ġfollowed": 2096,
      "hti": 2097,
      "Ġknow": 2098,
      "eki": 2099,
      "iy": 2100,
      "Ġopen": 2101,
      "kÃ¼": 2102,
      "dentify": 2103,
      "inden": 2104,
      "Ġful": 2105,
      "ĠÃ¶ncelikle": 2106,
      "oun": 2107,
      "ĠÃĩ": 2108,
      "ugÃ¼n": 2109,
      "Ġbirlikte": 2110,
      "kaÃ§": 2111,
      "ĠyardÄ±mcÄ±": 2112,
      "Ġenjoy": 2113,
      "ĠComm": 2114,
      "enin": 2115,
      "ĠadÄ±mlar": 2116,
      "ĠseÃ§mek": 2117,
      "Ġbilgi": 2118,
      "Ġnok": 2119,
      "yla": 2120,
      "rÄ±ca": 2121,
      "Ġyapmaya": 2122,
      "Ġthou": 2123,
      "Ġway": 2124,
      "Ġactually": 2125,
      "Ġsuch": 2126,
      "Ã§e": 2127,
      "Ġsessions": 2128,
      "Ġeasy": 2129,
      "aps": 2130,
      "Ġachievable": 2131,
      "Ġbeh": 2132,
      "eleri": 2133,
      "atem": 2134,
      "Ġurg": 2135,
      "lamak": 2136,
      "lendir": 2137,
      "ail": 2138,
      "ger": 2139,
      "ĠsÄ±k": 2140,
      "46": 2141,
      "Ġbloc": 2142,
      "Ġnon": 2143,
      "Ġthought": 2144,
      "ĠPause": 2145,
      "come": 2146,
      "Ġihti": 2147,
      "ĠAyrÄ±ca": 2148,
      "Ġown": 2149,
      "ital": 2150,
      "ĠseÃ§in": 2151,
      "?\"": 2152,
      "Ġpractice": 2153,
      "ĠFriendship": 2154,
      "Ġbudget": 2155,
      "Ġmaster": 2156,
      "Ġhat": 2157,
      "mayÄ±n": 2158,
      "econd": 2159,
      "ablish": 2160,
      "Ġtaking": 2161,
      "Ġhafif": 2162,
      "Ġsaatler": 2163,
      "daki": 2164,
      "ough": 2165,
      "eden": 2166,
      "ĠÃĹ": 2167,
      "Ġtan": 2168,
      "Ġhal": 2169,
      "ĠnasÄ±l": 2170,
      "39": 2171,
      "Ġhard": 2172,
      "Ġsupport": 2173,
      "Ġstatem": 2174,
      "aries": 2175,
      "Ġbound": 2176,
      "Ġstick": 2177,
      "Ġdedicated": 2178,
      "ogress": 2179,
      "sts": 2180,
      "ations": 2181,
      "Ġput": 2182,
      "Ġprogress": 2183,
      "Ġfark": 2184,
      "ssible": 2185,
      "aring": 2186,
      "ĠÅŁun": 2187,
      "ĠKend": 2188,
      "Ġlet": 2189,
      "Ġyok": 2190,
      "Ġise": 2191,
      "Ġsimp": 2192,
      "Ġdef": 2193,
      "Ġsetting": 2194,
      "Ġreset": 2195,
      "Ġetmek": 2196,
      "Ġshow": 2197,
      "Ġtimer": 2198,
      "rix": 2199,
      "isen": 2200,
      "Ġtak": 2201,
      "hower": 2202,
      "isenhower": 2203,
      "Ġreward": 2204,
      "Ġtal": 2205,
      "Ġlea": 2206,
      "maktÄ±r": 2207,
      "Ġinternal": 2208,
      "os": 2209,
      "Ġgrou": 2210,
      "47": 2211,
      "siz": 2212,
      "Ġkalk": 2213,
      "ĠdoÄŁru": 2214,
      "nÄ±": 2215,
      "ran": 2216,
      "ĠChoose": 2217,
      "Ġpratik": 2218,
      "ĠadÄ±mÄ±nÄ±zÄ±": 2219,
      "ĠÄ±ÅŁÄ±k": 2220,
      "avior": 2221,
      "Ġstop": 2222,
      "ck": 2223,
      "Ġquick": 2224,
      "Ġbehavior": 2225,
      "Ġmis": 2226,
      "Ġair": 2227,
      "Ġactively": 2228,
      "Ġsun": 2229,
      "ĠMat": 2230,
      "load": 2231,
      "Ġkah": 2232,
      "Ġfre": 2233,
      "Ġsevi": 2234,
      "sin": 2235,
      "all": 2236,
      "ĠDay": 2237,
      "Ġkendinize": 2238,
      "Åŀ": 2239,
      "Ġderin": 2240,
      "enizi": 2241,
      "ĠÃ¶nceki": 2242,
      "Ġbooks": 2243,
      "Ġcomp": 2244,
      "ĠMatrix": 2245,
      "Ġear": 2246,
      "Ġsayede": 2247,
      "Ġchecking": 2248,
      "ora": 2249,
      "07": 2250,
      "ĠsayÄ±sÄ±": 2251,
      "Ġbit": 2252,
      "ĠUy": 2253,
      "Ġboxes": 2254,
      "Ġbunu": 2255,
      "azla": 2256,
      "Ġworking": 2257,
      "luÄŁ": 2258,
      "Ġdrin": 2259,
      "Ġcalm": 2260,
      "una": 2261,
      "ĠbaÅŁarÄ±": 2262,
      "Ġkendine": 2263,
      "ness": 2264,
      "Ġrut": 2265,
      "Ġul": 2266,
      "ĠÅŁeyi": 2267,
      "Ġmakes": 2268,
      "Ġpenc": 2269,
      "Ġfazla": 2270,
      "Ġsimply": 2271,
      "ĠIdentify": 2272,
      "Ġshared": 2273,
      "Ġtrust": 2274,
      "ĠtÃ¼m": 2275,
      "Ġconnection": 2276,
      "ĠbÃ¶ylece": 2277,
      "Ġkonu": 2278,
      "miÅŁ": 2279,
      "erli": 2280,
      "Ġclar": 2281,
      "Ġger": 2282,
      "ates": 2283,
      "Ġcur": 2284,
      "ĠmÄ±": 2285,
      "Ġlif": 2286,
      "ject": 2287,
      "Ġclean": 2288,
      "Ġoverwhelming": 2289,
      "Ġpar": 2290,
      "Ġhapp": 2291,
      "ĠaÃ§Ä±k": 2292,
      "Ġgenellikle": 2293,
      "ds": 2294,
      "Ġsan": 2295,
      "Ġhay": 2296,
      "ĠSadece": 2297,
      "ready": 2298,
      "ĠolduÄŁu": 2299,
      "Ġli": 2300,
      "acaÄŁ": 2301,
      "ĠulaÅŁ": 2302,
      "Ġyor": 2303,
      "Ġfew": 2304,
      "Ġsystem": 2305,
      "ĠsÄ±cak": 2306,
      "Ġenerj": 2307,
      "Ġkayd": 2308,
      "ĠEisenhower": 2309,
      "Ġspeak": 2310,
      "Ġspot": 2311,
      "Ġag": 2312,
      "ĠbaÄŁ": 2313,
      "Ġalready": 2314,
      "Ġinterrup": 2315,
      "09": 2316,
      "Ġval": 2317,
      "Ġadd": 2318,
      "Ġtrans": 2319,
      "formation": 2320,
      "Ġala": 2321,
      "Ġfind": 2322,
      "masÄ±": 2323,
      "Ġwaiting": 2324,
      "Ġperf": 2325,
      "Ġinformation": 2326,
      "abilece": 2327,
      "laÅŁtÄ±r": 2328,
      "04": 2329,
      "int": 2330,
      "06": 2331,
      "Ġunut": 2332,
      "elim": 2333,
      "ĠbirkaÃ§": 2334,
      "Ġjackets": 2335,
      "row": 2336,
      "side": 2337,
      "Ġdays": 2338,
      "Ġstatements": 2339,
      "mey": 2340,
      "Ġaktiv": 2341,
      "Ġlarge": 2342,
      "iye": 2343,
      "itiate": 2344,
      "Ġfriends": 2345,
      "Ġdu": 2346,
      "ikk": 2347,
      "yÄ±": 2348,
      "Ġlisten": 2349,
      "layÄ±p": 2350,
      "sk": 2351,
      "Ġter": 2352,
      "Ã¼nÃ¼": 2353,
      "Ġinterest": 2354,
      "unun": 2355,
      "Ġrelax": 2356,
      "Ġbeing": 2357,
      "ĠMake": 2358,
      "Ġgetting": 2359,
      "ĠsaÄŁlar": 2360,
      "yon": 2361,
      "ign": 2362,
      "Ġbooking": 2363,
      "05": 2364,
      "Ġseviy": 2365,
      "Ġdoable": 2366,
      "other": 2367,
      "Ġwind": 2368,
      "Ġbad": 2369,
      "af": 2370,
      "Ġolmak": 2371,
      "Ġancak": 2372,
      "Ġstres": 2373,
      "Ġwaking": 2374,
      "Ġplants": 2375,
      "ended": 2376,
      "ÄŁini": 2377,
      "bet": 2378,
      "do": 2379,
      "Ġstret": 2380,
      "Ġexpress": 2381,
      "yorsanÄ±z": 2382,
      "hy": 2383,
      "tik": 2384,
      "larÄ±nÄ±z": 2385,
      "akin": 2386,
      "ĠartÄ±r": 2387,
      "Ġboth": 2388,
      "Ġwithin": 2389,
      "Ġkamer": 2390,
      "Ã¼l": 2391,
      "dÄ±ÄŁÄ±nÄ±z": 2392,
      "Ġboundaries": 2393,
      "Ġsets": 2394,
      "Ġpencils": 2395,
      "ense": 2396,
      "Ġmuch": 2397,
      "Ġlife": 2398,
      "Ġprogram": 2399,
      "ĠÃĸrneÄŁin": 2400,
      "ones": 2401,
      "Ġtamamen": 2402,
      "lÄ±ÄŁÄ±": 2403,
      "Ġallow": 2404,
      "Ġdurumu": 2405,
      "endar": 2406,
      "ĠgeÃ§ir": 2407,
      "Ġtrig": 2408,
      "Ġeras": 2409,
      "Ġuzun": 2410,
      "ex": 2411,
      "ĠgerÃ§ek": 2412,
      "ult": 2413,
      "Ġeffort": 2414,
      "Ġusu": 2415,
      "Ġerasers": 2416,
      "Ġtelefonunuz": 2417,
      "raz": 2418,
      "less": 2419,
      "ĠÅŁeyler": 2420,
      "Ġanother": 2421,
      "Ġdra": 2422,
      "Ġthoughts": 2423,
      "Ġnotebooks": 2424,
      "Ġkapat": 2425,
      "Ġsur": 2426,
      "esi": 2427,
      "Ġtur": 2428,
      "ĠdÄ±ÅŁ": 2429,
      "ulate": 2430,
      "Ġbelirlemek": 2431,
      "Ġgenu": 2432,
      "Ġreal": 2433,
      "Ġcontact": 2434,
      "Ġgra": 2435,
      "Ġpack": 2436,
      "ĠolduÄŁunu": 2437,
      "Ġbackpacks": 2438,
      "ĠAsk": 2439,
      "mor": 2440,
      "Ġsee": 2441,
      "Ġbicycles": 2442,
      "deki": 2443,
      "Ġho": 2444,
      "Ġthere": 2445,
      "bir": 2446,
      "Ġclock": 2447,
      "ĠÄ±ÅŁÄ±": 2448,
      ".,": 2449,
      "Ġaut": 2450,
      "Ġtakes": 2451,
      "Ġearly": 2452,
      "Ġsizi": 2453,
      "Ġnokt": 2454,
      "stant": 2455,
      "âĢĶ": 2456,
      "Ġdetay": 2457,
      "Ġpay": 2458,
      "Ġcalendar": 2459,
      "Ã¼nkÃ¼": 2460,
      "Ġneeds": 2461,
      "tes": 2462,
      "ebilir": 2463,
      "ulti": 2464,
      "Ġlocal": 2465,
      "ĠdÃ¶": 2466,
      "ĠseÃ§en": 2467,
      "Ġconversations": 2468,
      "sp": 2469,
      "Ġdri": 2470,
      "Ġbulun": 2471,
      "erv": 2472,
      "Ġlamps": 2473,
      "Ä±lÄ±": 2474,
      "Ġexact": 2475,
      "ĠsaÄŁlay": 2476,
      "Ġtackling": 2477,
      "Ãĸ": 2478,
      "tif": 2479,
      "Ġblocks": 2480,
      "Ġunex": 2481,
      "Ġkey": 2482,
      "larÄ±n": 2483,
      "Ġmulti": 2484,
      "pected": 2485,
      "ĠalÄ±p": 2486,
      "Ġmessage": 2487,
      "ĠThe": 2488,
      "Ġunexpected": 2489,
      "ama": 2490,
      "Ġnaturally": 2491,
      "Ġenough": 2492,
      "go": 2493,
      "Ġadv": 2494,
      "ĠdeÄŁer": 2495,
      "94": 2496,
      "Ġhar": 2497,
      "Ġhot": 2498,
      "ĠInitiate": 2499,
      "Ġthin": 2500,
      "ikkat": 2501,
      "ase": 2502,
      "abil": 2503,
      "ĠÃĸÄŁ": 2504,
      "Ġwords": 2505,
      "ĠEv": 2506,
      "Ġthose": 2507,
      "Ġzorluk": 2508,
      "ĠaynÄ±": 2509,
      "Ġconce": 2510,
      "Ġdeclutter": 2511,
      "ause": 2512,
      "ies": 2513,
      "ersiz": 2514,
      "96": 2515,
      "elf": 2516,
      "ĠyÃ¼k": 2517,
      "ushing": 2518,
      "sÄ±nÄ±": 2519,
      "ĠDown": 2520,
      "Ġessential": 2521,
      "Ġask": 2522,
      "plement": 2523,
      "Ġide": 2524,
      "iet": 2525,
      "alth": 2526,
      "rarak": 2527,
      "ĠÅŀ": 2528,
      "Ġhas": 2529,
      "ĠDownload": 2530,
      "Ġentirely": 2531,
      "Ġsuyun": 2532,
      "Ġbiri": 2533,
      "ĠyÃ¼zme": 2534,
      "95": 2535,
      "onn": 2536,
      "Ġincel": 2537,
      "Ġproduc": 2538,
      "ĠIm": 2539,
      "ayan": 2540,
      "ez": 2541,
      "Ã§a": 2542,
      "ĠolmalÄ±": 2543,
      "Ġdesk": 2544,
      "orage": 2545,
      "Ġurgent": 2546,
      "ĠodaklanÄ±n": 2547,
      "Ġimpro": 2548,
      "Ġautom": 2549,
      "uly": 2550,
      "Ġgece": 2551,
      "Ġgl": 2552,
      "Ġdisc": 2553,
      "Ġtruly": 2554,
      "ĠKÃ¼Ã§Ã¼k": 2555,
      "Ġcare": 2556,
      "Ġhotel": 2557,
      "Ġexist": 2558,
      "Ġstorage": 2559,
      "ost": 2560,
      "64": 2561,
      "Ġlast": 2562,
      "Ġdiffer": 2563,
      "ĠAl": 2564,
      "ĠAd": 2565,
      "ime": 2566,
      "eyi": 2567,
      "stablish": 2568,
      "Ġtoo": 2569,
      "Ġgive": 2570,
      "ĠÃ¼zerine": 2571,
      "Ġadvance": 2572,
      "Ġusually": 2573,
      "Ġhealth": 2574,
      "Ġdig": 2575,
      "54": 2576,
      "74": 2577,
      "Ġbecome": 2578,
      "Ġdrinking": 2579,
      "Ġses": 2580,
      "**:": 2581,
      "ĠÃ¶zel": 2582,
      "Ġaside": 2583,
      "ĠYes": 2584,
      "ĠÃ§Ã¼nkÃ¼": 2585,
      "Ġchanges": 2586,
      "ĠyakÄ±n": 2587,
      "Ġoutside": 2588,
      "ĠEstablish": 2589,
      "gun": 2590,
      "Ã¼nÃ¼z": 2591,
      "Ġeg": 2592,
      "lerin": 2593,
      "eleb": 2594,
      "ĠÅŁunlar": 2595,
      "Ġremo": 2596,
      "lud": 2597,
      "lere": 2598,
      "ĠalÄ±n": 2599,
      "cial": 2600,
      "ould": 2601,
      "Ġdrawer": 2602,
      "iyor": 2603,
      "Ġap": 2604,
      "Ġmaps": 2605,
      "ently": 2606,
      "alarÄ±": 2607,
      "Ġrequ": 2608,
      "Ġexisting": 2609,
      "Ġuyum": 2610,
      "Ġyeterli": 2611,
      "eye": 2612,
      "ĠgÃ¶st": 2613,
      "ĠGÃ¼nlÃ¼k": 2614,
      "08": 2615,
      "idir": 2616,
      "Ġmatters": 2617,
      "Ġoffline": 2618,
      "Ġglass": 2619,
      "Ġdel": 2620,
      "Ġyan": 2621,
      "oplam": 2622,
      "Ġorganize": 2623,
      "Ġautoma": 2624,
      "Ġeye": 2625,
      "ĠbaÅŁla": 2626,
      "Ġeng": 2627,
      "thod": 2628,
      "Ġpart": 2629,
      "Ġmethod": 2630,
      "Ġass": 2631,
      "Ġdoes": 2632,
      "Ġalways": 2633,
      "malÄ±": 2634,
      "ĠDaha": 2635,
      "Ġegz": 2636,
      "dÄ±n": 2637,
      "Ġsharing": 2638,
      "ĠImplement": 2639,
      "mesi": 2640,
      "ĠpaylaÅŁ": 2641,
      "Ġsecond": 2642,
      "Ä±nÄ±za": 2643,
      "Ġneden": 2644,
      "ndaki": 2645,
      "omp": 2646,
      "Ġclo": 2647,
      "Ġkor": 2648,
      "56": 2649,
      "Ġtopic": 2650,
      "Ġplace": 2651,
      "vam": 2652,
      "Ã¶r": 2653,
      "Ġclearly": 2654,
      "Ġsaying": 2655,
      "Ġprocess": 2656,
      "97": 2657,
      "ber": 2658,
      "tention": 2659,
      "),": 2660,
      "tin": 2661,
      "ather": 2662,
      "face": 2663,
      "Ġma": 2664,
      "Ġlat": 2665,
      "ĠdoÄŁal": 2666,
      "Ġinclud": 2667,
      "Ġilgi": 2668,
      "ĠiÅŁe": 2669,
      "onnect": 2670,
      "Ġbile": 2671,
      "Ġgir": 2672,
      "Ġsol": 2673,
      "Ġrutin": 2674,
      "Ġx": 2675,
      "ilen": 2676,
      "vaÅŁ": 2677,
      "Ġones": 2678,
      "99": 2679,
      "Ġkeli": 2680,
      "Ġcameras": 2681,
      "Ġsonu": 2682,
      "ĠÃ§eki": 2683,
      "Ġdikkat": 2684,
      "su": 2685,
      "larÄ±nÄ±zÄ±": 2686,
      "ĠThis": 2687,
      "Ġmi": 2688,
      "Ġemo": 2689,
      "Ġegzersiz": 2690,
      "red": 2691,
      "Ġceleb": 2692,
      "ĠvÃ¼c": 2693,
      "Ġavoiding": 2694,
      "Ġdifferent": 2695,
      "Ġdigital": 2696,
      "Ġend": 2697,
      "onin": 2698,
      "ilt": 2699,
      "Ġzi": 2700,
      "03": 2701,
      "eve": 2702,
      "ĠkullanÄ±n": 2703,
      "leye": 2704,
      "76": 2705,
      "ĠĠ": 2706,
      "ĠÄ±": 2707,
      "Ġsizin": 2708,
      "ÅŁa": 2709,
      "Ġlater": 2710,
      "lÃ¼": 2711,
      "ood": 2712,
      "ĠyÃ¼rÃ¼yÃ¼ÅŁe": 2713,
      "ĠTechnique": 2714,
      "Ġalmak": 2715,
      "Ġdevam": 2716,
      "ĠbugÃ¼n": 2717,
      "Ġregulate": 2718,
      "Ġkendinizi": 2719,
      "ĠvÃ¼cud": 2720,
      "Ġcomes": 2721,
      "ĠÃ§iz": 2722,
      "ments": 2723,
      "Ġkayn": 2724,
      "bb": 2725,
      "ici": 2726,
      "Ġproject": 2727,
      "Ġolun": 2728,
      "55": 2729,
      "Ġmel": 2730,
      "anÄ±n": 2731,
      "Ġhayat": 2732,
      "Ġconsistently": 2733,
      "ercis": 2734,
      "Ġ44": 2735,
      "Ġwr": 2736,
      "Ġhand": 2737,
      "icro": 2738,
      "Ġpossible": 2739,
      "ĠÃ§Ã¶zÃ¼m": 2740,
      "Ġsort": 2741,
      "ĠkayÄ±ta": 2742,
      "Ġprioritize": 2743,
      "75": 2744,
      "ĠyÃ¼zecek": 2745,
      "Ġmus": 2746,
      "Ġessentials": 2747,
      "gor": 2748,
      "Ġbil": 2749,
      "irim": 2750,
      "Ġinterv": 2751,
      "Ġsurface": 2752,
      "Ġob": 2753,
      "sÄ±nda": 2754,
      "Ġreach": 2755,
      "Ġdeta": 2756,
      "Ġwhole": 2757,
      "Ġsk": 2758,
      "Ġgi": 2759,
      "Ġmelat": 2760,
      "Ġotur": 2761,
      "Ġheard": 2762,
      "ĠÃĸÄŁren": 2763,
      "Ġ33": 2764,
      "ommod": 2765,
      "Ġortam": 2766,
      "Ġform": 2767,
      "Ä±cÄ±": 2768,
      "Ġkitab": 2769,
      "reating": 2770,
      "Ġmelatonin": 2771,
      "ogle": 2772,
      "ĠRes": 2773,
      "leyip": 2774,
      "anÄ±zÄ±": 2775,
      "Ġregard": 2776,
      "\":": 2777,
      "goti": 2778,
      "ĠyavaÅŁ": 2779,
      "Ġkaz": 2780,
      "inizin": 2781,
      "Ġgelecek": 2782,
      "Ġfull": 2783,
      "Ġaccommod": 2784,
      "Ġswim": 2785,
      "59": 2786,
      "Ġsocial": 2787,
      "lying": 2788,
      "negoti": 2789,
      "Ġmateri": 2790,
      "Ġprices": 2791,
      "ĠÅŁunlardÄ±r": 2792,
      "Ġcoun": 2793,
      "Ġkahve": 2794,
      "ĠList": 2795,
      "ĠeÄŁ": 2796,
      "67": 2797,
      "Ä±la": 2798,
      "Ġekran": 2799,
      "iden": 2800,
      "01": 2801,
      "ĠgÃ¼Ã§": 2802,
      "ĠLear": 2803,
      "Ġdiffic": 2804,
      "Ġintervals": 2805,
      "no": 2806,
      "Ġevening": 2807,
      "65": 2808,
      "Ġputting": 2809,
      "Ġskill": 2810,
      "negotiable": 2811,
      "02": 2812,
      "ÄŁÄ±nÄ±zÄ±": 2813,
      "Ġkullanarak": 2814,
      "opt": 2815,
      "Ġdifficult": 2816,
      "ĠĠĊ": 2817,
      "Ġoffer": 2818,
      "Ġcelebrate": 2819,
      "lÄ±ÅŁ": 2820,
      "Ġsabit": 2821,
      "Ġsense": 2822,
      "66": 2823,
      "izing": 2824,
      "57": 2825,
      "tim": 2826,
      "landÄ±": 2827,
      "'ve": 2828,
      ",\"": 2829,
      "val": 2830,
      "Ġes": 2831,
      "tek": 2832,
      "Ġprioriti": 2833,
      "Ġstretching": 2834,
      "down": 2835,
      "Ġbuilds": 2836,
      "Ġbursts": 2837,
      "Ġverin": 2838,
      "Ġexactly": 2839,
      "Ä±ndan": 2840,
      "77": 2841,
      "Ġbreathing": 2842,
      "ha": 2843,
      "Ġpres": 2844,
      "69": 2845,
      "...\"": 2846,
      "cing": 2847,
      "ĠTo": 2848,
      "Ġbiraz": 2849,
      "ĠadÄ±mlarÄ±": 2850,
      "lerden": 2851,
      "ĠyaptÄ±": 2852,
      "ĠCommunication": 2853,
      "to": 2854,
      "79": 2855,
      "layarak": 2856,
      "Ġapps": 2857,
      "Ġfree": 2858,
      "Ġactions": 2859,
      "ouse": 2860,
      "ĠiÃ§er": 2861,
      "Ġexercis": 2862,
      "ĠgÃ¶nder": 2863,
      "und": 2864,
      "Ġfixed": 2865,
      "Ġaround": 2866,
      "Ġkonuyu": 2867,
      "Ġimprove": 2868,
      "Ġ31": 2869,
      "fort": 2870,
      "Ġhouse": 2871,
      "Ġregularly": 2872,
      "ĠaraÃ§": 2873,
      "Ġsoru": 2874,
      "cih": 2875,
      "ĠseÃ§enek": 2876,
      "Ġdates": 2877,
      "ĠbahÃ§e": 2878,
      "Ġsab": 2879,
      "Ġki": 2880,
      "Ġifad": 2881,
      "irm": 2882,
      "esini": 2883,
      "Ä±mÄ±": 2884,
      "mam": 2885,
      "Ġagain": 2886,
      "Ġthroughout": 2887,
      "Ġconcept": 2888,
      "Ġrequire": 2889,
      "ĠArdÄ±ndan": 2890,
      "Ġsmaller": 2891,
      "Ġrespon": 2892,
      "Ġyoksa": 2893,
      "Ġmaterial": 2894,
      "Ġlevel": 2895,
      "Ġtercih": 2896,
      "Ġsaid": 2897,
      "Ġkeeping": 2898,
      "Ġbriefly": 2899,
      "Ġkat": 2900,
      "Ġazalt": 2901,
      "inizden": 2902,
      "sanÄ±z": 2903,
      "Ġhik": 2904,
      "ĠAdopt": 2905,
      "Ġquickly": 2906,
      "Ġbat": 2907,
      "Ġkez": 2908,
      "Ġsoh": 2909,
      "lardan": 2910,
      "Ġdone": 2911,
      "Ġcontain": 2912,
      "ĠkolaylaÅŁtÄ±r": 2913,
      "ategor": 2914,
      "Ġyeme": 2915,
      "Ġbreaking": 2916,
      "ĠJ": 2917,
      "ĠgÃ¶rÃ¼n": 2918,
      "ĠAralÄ±k": 2919,
      "Ġprob": 2920,
      "Ġten": 2921,
      "Ġyara": 2922,
      "arken": 2923,
      "ĠdeÄŁiÅŁ": 2924,
      "Ġpla": 2925,
      "ration": 2926,
      "ĠHaf": 2927,
      "Ġtrack": 2928,
      "sini": 2929,
      "Ġreduces": 2930,
      "ĠSiz": 2931,
      "manÄ±zÄ±": 2932,
      "ĠyapmayÄ±": 2933,
      "Ġsam": 2934,
      "ĠgÃ¼neÅŁ": 2935,
      "ĠhatÄ±r": 2936,
      "larm": 2937,
      "Ġyorgun": 2938,
      "Ġede": 2939,
      "mektir": 2940,
      "Ġalarm": 2941,
      "Ġachieve": 2942,
      "Ġuzak": 2943,
      "arm": 2944,
      "itive": 2945,
      "ĠBaÅŁlangÄ±Ã§": 2946,
      "ĠistediÄŁinizi": 2947,
      "Ġlook": 2948,
      "Ġconsistency": 2949,
      "eth": 2950,
      "Ġhafta": 2951,
      "stantly": 2952,
      "each": 2953,
      "Ġcategor": 2954,
      "Ġclarif": 2955,
      "Ġrit": 2956,
      "Ġ60": 2957,
      "Ġmed": 2958,
      "locking": 2959,
      "Ġtekn": 2960,
      "Ġcurren": 2961,
      "Ġgroup": 2962,
      "Ġaktivit": 2963,
      "ĠsÃ¶": 2964,
      "yac": 2965,
      "Ä±nÄ±zda": 2966,
      "Ġiy": 2967,
      "sÄ±z": 2968,
      "Ġplans": 2969,
      "Ġmultiple": 2970,
      "Ġseconds": 2971,
      "Ġgerekir": 2972,
      "ebilirsiniz": 2973,
      "ove": 2974,
      "Ġregardless": 2975,
      "yorsunuz": 2976,
      "kli": 2977,
      "Ġsamimi": 2978,
      "Bu": 2979,
      "Ġpoz": 2980,
      "lemeyi": 2981,
      "Ġproblem": 2982,
      "kÃ¼n": 2983,
      "sÄ±n": 2984,
      "Ġdestek": 2985,
      "rast": 2986,
      "Ġdire": 2987,
      "ually": 2988,
      "led": 2989,
      "Ä±lan": 2990,
      "diÄŁiniz": 2991,
      "Ġrepeating": 2992,
      "Ġold": 2993,
      "ĠdÃ¶n": 2994,
      "Pomodoro": 2995,
      "Ġmut": 2996,
      "ÄŁÄ±na": 2997,
      "Ġuyan": 2998,
      "ĠBel": 2999,
      "sed": 3000,
      "Ġanlat": 3001,
      "tire": 3002,
      "Ġdiye": 3003,
      "ending": 3004,
      "Ġclearing": 3005,
      "Ġtari": 3006,
      "Ġfati": 3007,
      "oÄŁ": 3008,
      "eh": 3009,
      "ĠCon": 3010,
      "Ġgenuine": 3011,
      "Ġteeth": 3012,
      "Ġfatigue": 3013,
      "Ġgiving": 3014,
      "ĠListen": 3015,
      "Ġinterac": 3016,
      "Ġkamera": 3017,
      "Ġkalan": 3018,
      "luÄŁu": 3019,
      "48": 3020,
      "edul": 3021,
      "aba": 3022,
      "Ġiniti": 3023,
      "ĠGoogle": 3024,
      "Ġkind": 3025,
      "Ġphoto": 3026,
      "ĠyaklaÅŁ": 3027,
      "Ġfresh": 3028,
      "ise": 3029,
      "Ġcurrent": 3030,
      "ĠÃ¶ncelik": 3031,
      "ocrast": 3032,
      "Ġtid": 3033,
      "Ġattention": 3034,
      "Ġblock": 3035,
      "imin": 3036,
      "Ġprocrast": 3037,
      "laming": 3038,
      "irecek": 3039,
      "ining": 3040,
      "Ġgetir": 3041,
      "ĠdÄ±ÅŁarÄ±": 3042,
      "space": 3043,
      "Ġpass": 3044,
      "Ġblaming": 3045,
      "Ġduv": 3046,
      "Ġnever": 3047,
      "emove": 3048,
      "Ġweather": 3049,
      "masÄ±nÄ±": 3050,
      "tional": 3051,
      "Ġbrief": 3052,
      "lest": 3053,
      "Ġyaparak": 3054,
      "Ġquiet": 3055,
      "Ġleave": 3056,
      "Ġautomatic": 3057,
      "ĠyÃ¼rÃ¼": 3058,
      "nÄ±n": 3059,
      "Ġihtiyac": 3060,
      "Ġbins": 3061,
      "Ġsmallest": 3062,
      "chang": 3063,
      "vice": 3064,
      "liÄŁi": 3065,
      "ĠbahÃ§eniz": 3066,
      "Ġbeca": 3067,
      "tane": 3068,
      "ĠLearning": 3069,
      "ĠBÃ¶": 3070,
      "Ġschedul": 3071,
      "Ġbecause": 3072,
      "ĠEach": 3073,
      "Ġyolu": 3074,
      "Ġaccomp": 3075,
      "Ġtalk": 3076,
      "Ġtrigger": 3077,
      "Ġ38": 3078,
      "Ġaccomplish": 3079,
      "yaÃ§": 3080,
      "Ġduyg": 3081,
      "Ġilerlem": 3082,
      "fet": 3083,
      "meyin": 3084,
      "43": 3085,
      "Ġvisual": 3086,
      "ĠnoktasÄ±": 3087,
      "ĠÄ°zmir": 3088,
      "Ġsohbet": 3089,
      "ĠConsist": 3090,
      "Ġcycle": 3091,
      "Ġeffec": 3092,
      "tar": 3093,
      "cision": 3094,
      "Ġkelim": 3095,
      "Ġbrushing": 3096,
      "ĠRemove": 3097,
      "Ġmovement": 3098,
      "ĠCommit": 3099,
      "ileri": 3100,
      "Ġcompleting": 3101,
      "Ġhobb": 3102,
      "its": 3103,
      "Ġperfect": 3104,
      "Ġtav": 3105,
      "mem": 3106,
      "Ġoptions": 3107,
      "ĠAlways": 3108,
      "Ã¼ne": 3109,
      "Ã¼mkÃ¼n": 3110,
      "sion": 3111,
      "Ġsaatlerinde": 3112,
      "ĠÃ¶neriler": 3113,
      "ĠRep": 3114,
      "ĠistediÄŁiniz": 3115,
      "ÄŁinizi": 3116,
      "Ġexchang": 3117,
      "Ġexper": 3118,
      "ĠgÃ¶ster": 3119,
      "ana": 3120,
      "Ġsah": 3121,
      "Ġmemor": 3122,
      "Ġyerel": 3123,
      "ĠfarklÄ±": 3124,
      "Ġemin": 3125,
      "ĠAncak": 3126,
      "Ġconfirm": 3127,
      "Ġcar": 3128,
      "Ġsit": 3129,
      "inizdeki": 3130,
      "mez": 3131,
      "ilar": 3132,
      "ĠApp": 3133,
      "Ġsev": 3134,
      "42": 3135,
      "Ġworkspace": 3136,
      "Ġkayded": 3137,
      "blocking": 3138,
      "sing": 3139,
      "asÄ±na": 3140,
      "Ġcluttered": 3141,
      "Ġrelaxing": 3142,
      "ĠUyku": 3143,
      "oring": 3144,
      "Ġsimilar": 3145,
      "Ġema": 3146,
      "Ġdecision": 3147,
      "Ġ32": 3148,
      "ĠseÃ§ip": 3149,
      "Ġpos": 3150,
      "abileceÄŁiniz": 3151,
      "Ġbitir": 3152,
      "18": 3153,
      "ĠTelefon": 3154,
      "ĠsonuÃ§": 3155,
      "Ġsil": 3156,
      "Ġdene": 3157,
      "Ġbal": 3158,
      "uring": 3159,
      "ĠTime": 3160,
      "ĠGet": 3161,
      "Ġgereken": 3162,
      "Ã¼cre": 3163,
      "ĠkiÅŁi": 3164,
      "bel": 3165,
      "Ġsep": 3166,
      "Ġca": 3167,
      "Ġwarm": 3168,
      "ĠYat": 3169,
      "larla": 3170,
      "Ġeasily": 3171,
      "Ġinterests": 3172,
      "men": 3173,
      "otal": 3174,
      "Ġzone": 3175,
      "ĠbÄ±rakÄ±n": 3176,
      "ĠBÃ¶ylece": 3177,
      "Ġpositive": 3178,
      "Ġdesire": 3179,
      "Ġpresent": 3180,
      "Ġlim": 3181,
      "Ġdoesn": 3182,
      "Ġind": 3183,
      "Ġonu": 3184,
      "Ġsaatte": 3185,
      "ffer": 3186,
      "ĠsÃ¼rec": 3187,
      "ĠApply": 3188,
      "Ġgit": 3189,
      "Ġgets": 3190,
      "izce": 3191,
      "Ġgidecek": 3192,
      "view": 3193,
      "Ġbased": 3194,
      "Ġresponse": 3195,
      "mesini": 3196,
      "ĠihtiyaÃ§": 3197,
      "Ġmakin": 3198,
      "Ġenerji": 3199,
      "ĠKon": 3200,
      "Ġlevels": 3201,
      "ĠiÅŁlem": 3202,
      "Ġfully": 3203,
      "ĠÃĸÄŁrenme": 3204,
      "Ġcl": 3205,
      "Ġexperien": 3206,
      "Ġwin": 3207,
      "lÄ±ÄŁÄ±nÄ±": 3208,
      "ĠRule": 3209,
      "ously": 3210,
      "two": 3211,
      "Ġbuilding": 3212,
      "landÄ±r": 3213,
      "Ġelimin": 3214,
      "ĠKendi": 3215,
      "yn": 3216,
      "Ġgu": 3217,
      "eyin": 3218,
      "ĠAnswer": 3219,
      "Ġdakikada": 3220,
      "ĠReplace": 3221,
      "Ġreplace": 3222,
      "Ġinterrupting": 3223,
      "larÄ±na": 3224,
      "ĠbÃ¶l": 3225,
      "taki": 3226,
      "ĠToplam": 3227,
      "Ġcomfort": 3228,
      "Ġmin": 3229,
      "Ã¼s": 3230,
      "ĠPack": 3231,
      "earch": 3232,
      "Ġshould": 3233,
      "bu": 3234,
      "ĠÃ¼cre": 3235,
      "tiÄŁiniz": 3236,
      "**.": 3237,
      "Ġlower": 3238,
      "Ġpoint": 3239,
      "Ġtransport": 3240,
      "ĠkeÅŁ": 3241,
      "41": 3242,
      "ĠsÄ±ra": 3243,
      "ĠArkadaÅŁ": 3244,
      "ÄŁÄ±nda": 3245,
      "ection": 3246,
      "Ġsorting": 3247,
      "Ġreview": 3248,
      "Ġbackup": 3249,
      "ĠSizin": 3250,
      "ĠMe": 3251,
      "Ġkara": 3252,
      "Ġkoy": 3253,
      "Ġteknik": 3254,
      "tsiz": 3255,
      "cul": 3256,
      "Ġprocrastination": 3257,
      "Ġbecomes": 3258,
      "Ġreli": 3259,
      "imdi": 3260,
      "Ġprevents": 3261,
      "dur": 3262,
      "let": 3263,
      "ÄŁÄ±n": 3264,
      "istem": 3265,
      "ĠyaÅŁ": 3266,
      "Ġext": 3267,
      "Ġfinishing": 3268,
      "Ġhava": 3269,
      "ĠZaman": 3270,
      "Ġkaynak": 3271,
      "umara": 3272,
      "Ġturning": 3273,
      "urken": 3274,
      "Ġsonunda": 3275,
      "Ġbelirli": 3276,
      "san": 3277,
      "aret": 3278,
      "Ġgenel": 3279,
      "ĠboÅŁ": 3280,
      "Ġexercise": 3281,
      "ĠÄ°n": 3282,
      "chor": 3283,
      "Ġgeri": 3284,
      "alÄ±m": 3285,
      "ĠgÃ¶rÃ¼ÅŁ": 3286,
      "ĠunutmayÄ±n": 3287,
      "letiÅŁim": 3288,
      "aÅŁÄ±k": 3289,
      "iÄŁer": 3290,
      "Ġdesign": 3291,
      "free": 3292,
      "Ġmet": 3293,
      "Ġwins": 3294,
      "kanlÄ±k": 3295,
      "ĠkayÄ±tta": 3296,
      "uzur": 3297,
      "Ġmusic": 3298,
      "ĠsaÄŁlÄ±k": 3299,
      "ĠdÃ¼ÅŁÃ¼nÃ¼n": 3300,
      "Ġcleaning": 3301,
      "Ġcas": 3302,
      "ĠmÃ¼mkÃ¼n": 3303,
      "gil": 3304,
      "hen": 3305,
      "mel": 3306,
      "Ġref": 3307,
      "fe": 3308,
      "Ä±rken": 3309,
      "Ġensuring": 3310,
      "ĠadÄ±mda": 3311,
      "Ġuyk": 3312,
      "lerle": 3313,
      "Ġkural": 3314,
      "Ġkab": 3315,
      "lines": 3316,
      "Ġtutun": 3317,
      "Ġbilgiler": 3318,
      "Ġshelf": 3319,
      "Ġprioritiz": 3320,
      "Ġta": 3321,
      "ĠayÄ±rÄ±n": 3322,
      "tification": 3323,
      "Ġfik": 3324,
      "thm": 3325,
      "ages": 3326,
      "hythm": 3327,
      "ality": 3328,
      "isay": 3329,
      "Ġder": 3330,
      "arika": 3331,
      "Ġmood": 3332,
      "Ġrhythm": 3333,
      "ĠÃ§Ä±kacak": 3334,
      "ĠkonuÅŁma": 3335,
      "Ġolma": 3336,
      "Ġaccess": 3337,
      "Ġtakip": 3338,
      "Ġsuyu": 3339,
      "Ġalt": 3340,
      "Ġatt": 3341,
      "ĠÃ¼cretsiz": 3342,
      "Ġyere": 3343,
      "Ġlabel": 3344,
      "Ġyen": 3345,
      "ĠbaÅŁlangÄ±": 3346,
      "Ġdeneyim": 3347,
      ".)": 3348,
      "Ġpush": 3349,
      "Ġbus": 3350,
      "Ġmicro": 3351,
      "Ġinv": 3352,
      "Ġsumm": 3353,
      "Ġkut": 3354,
      "Ġareas": 3355,
      "dÄ±ÄŁÄ±nÄ±": 3356,
      "Ġokuma": 3357,
      "ĠkoÅŁ": 3358,
      "Ġdinlen": 3359,
      "Ġanda": 3360,
      "Ġmal": 3361,
      "ĠaydÄ±n": 3362,
      "lerde": 3363,
      "Ġinten": 3364,
      "Ġsent": 3365,
      "ĠThen": 3366,
      "ĠBe": 3367,
      "ĠPlan": 3368,
      "ĠGÃ¼nÃ¼n": 3369,
      "ĠIf": 3370,
      "Ġsuc": 3371,
      "ll": 3372,
      "ĠÃ¶neriyi": 3373,
      "Ġvide": 3374,
      "udg": 3375,
      "ĠpiÅŁirecek": 3376,
      "Ġdelays": 3377,
      "Ġnedenle": 3378,
      "gÃ¼n": 3379,
      "ÅŁaÄŁÄ±": 3380,
      "ĠDon": 3381,
      "maktan": 3382,
      "Ã¼ÄŁ": 3383,
      "Ġdestinations": 3384,
      "Ġwriting": 3385,
      "Ġmutu": 3386,
      "Ġadding": 3387,
      "iÄŁi": 3388,
      "ĠÃ§Ä±kar": 3389,
      "93": 3390,
      "Ġdep": 3391,
      "Ġrelying": 3392,
      "yarak": 3393,
      "Ġdead": 3394,
      "Ġincludes": 3395,
      "Ġleaving": 3396,
      "ĠNumara": 3397,
      "Ġmutual": 3398,
      "ĠÃ¶neririm": 3399,
      "Ġthinking": 3400,
      "Ġoffering": 3401,
      "Ġcreating": 3402,
      "Ġbulmak": 3403,
      "Ġcall": 3404,
      "just": 3405,
      "Ġsistem": 3406,
      "ĠbÃ¼t": 3407,
      "Ġconc": 3408,
      "Ġkol": 3409,
      "ĠdiÄŁer": 3410,
      "'ll": 3411,
      "ĠaÄŁ": 3412,
      "Ġfail": 3413,
      "Ġproduction": 3414,
      "yal": 3415,
      "ĠbaÅŁlayÄ±p": 3416,
      "Ġkitch": 3417,
      "Ġweekly": 3418,
      "Ġam": 3419,
      "ĠiÃ§ine": 3420,
      "ĠÄ°letiÅŁim": 3421,
      "ĠÃ¶ÄŁle": 3422,
      "Ġnatural": 3423,
      "ret": 3424,
      "Ġdirect": 3425,
      "gers": 3426,
      "Ġnotification": 3427,
      "ĠkarÅŁÄ±laÅŁ": 3428,
      "Ġkarar": 3429,
      "Ġsat": 3430,
      "Ġkitchen": 3431,
      "Ġpur": 3432,
      "itap": 3433,
      "92": 3434,
      "Ġlead": 3435,
      "cum": 3436,
      "38": 3437,
      "Ä±nÄ±r": 3438,
      "Ġvarsa": 3439,
      "ĠsaÄŁlayÄ±n": 3440,
      "Ä±lmÄ±ÅŁ": 3441,
      "ĠayÄ±": 3442,
      "Ġmaintaining": 3443,
      "Ġdrive": 3444,
      "Ġanchor": 3445,
      "Ġswit": 3446,
      "bil": 3447,
      "stakes": 3448,
      "Ġfrequ": 3449,
      "Ġsave": 3450,
      "ram": 3451,
      "izi": 3452,
      "ĠÃ§ev": 3453,
      "ĠHabit": 3454,
      "Ġkonuda": 3455,
      "Ġcloth": 3456,
      "Ġyeniden": 3457,
      "Ġvak": 3458,
      "Ġhikay": 3459,
      "hangi": 3460,
      "he": 3461,
      "Ġjudg": 3462,
      "ĠMesaj": 3463,
      "Ġders": 3464,
      "Ġneeding": 3465,
      "ron": 3466,
      "Ġasleep": 3467,
      "Ġeveryone": 3468,
      "Ġboost": 3469,
      "Ġairport": 3470,
      "Ġizin": 3471,
      "Ġhotels": 3472,
      "Ġslow": 3473,
      "ĠÃ§alÄ±ÅŁma": 3474,
      "Ġideas": 3475,
      "Ġkazan": 3476,
      "ason": 3477,
      "iv": 3478,
      "Ġsummar": 3479,
      "seniz": 3480,
      "ĠiÅŁi": 3481,
      "air": 3482,
      "rink": 3483,
      "Ġpop": 3484,
      "Ġpark": 3485,
      "Ġrou": 3486,
      "gÄ±": 3487,
      "lak": 3488,
      "menizi": 3489,
      "Ġneeded": 3490,
      "Ġkarm": 3491,
      "Ġsho": 3492,
      "Ġmindful": 3493,
      "hing": 3494,
      "list": 3495,
      "Ġbreathe": 3496,
      "Ġclarifying": 3497,
      "Ġcir": 3498,
      "eck": 3499,
      "Ġvery": 3500,
      "Ġperfection": 3501,
      "Ġziya": 3502,
      "Ġav": 3503,
      "Ġnotifications": 3504,
      "Ġdocum": 3505,
      "ĠeÅŁy": 3506,
      "Ġcounter": 3507,
      "ĠadÄ±mlarla": 3508,
      "Ġminim": 3509,
      "Ġtidy": 3510,
      "Ġpause": 3511,
      "Ġlights": 3512,
      "98": 3513,
      "atch": 3514,
      "ĠbaÅŁlar": 3515,
      "Ġaktiviteler": 3516,
      "ehir": 3517,
      "so": 3518,
      "isayar": 3519,
      "Ġfall": 3520,
      "ossible": 3521,
      "Ġrealis": 3522,
      "ese": 3523,
      "Ã¼rk": 3524,
      "tively": 3525,
      "Ġtutacak": 3526,
      "Ġreconnect": 3527,
      "ĠbaÅŁlangÄ±Ã§tÄ±r": 3528,
      "Ġmant": 3529,
      "Ġdisrup": 3530,
      "pective": 3531,
      "Ġbitkil": 3532,
      "53": 3533,
      "haba": 3534,
      "Ġperspective": 3535,
      "Ġmod": 3536,
      "ĠsÃ¼reÃ§": 3537,
      "Ġisters": 3538,
      "Ġmon": 3539,
      "ice": 3540,
      "Ġgent": 3541,
      "Ġtoprak": 3542,
      "Ġaccommodation": 3543,
      "Ġgentle": 3544,
      "Ġbuilt": 3545,
      "Ġcri": 3546,
      "efer": 3547,
      "Ġperi": 3548,
      "Ġprioritizing": 3549,
      "ĠBook": 3550,
      "73": 3551,
      "malar": 3552,
      "Ġdecluttering": 3553,
      "ĠÄ°yi": 3554,
      "Ġquality": 3555,
      "ĠReach": 3556,
      "dÄ±ÄŁÄ±": 3557,
      "maz": 3558,
      "Ġimpossible": 3559,
      "gilizce": 3560,
      "68": 3561,
      "ping": 3562,
      "Ġren": 3563,
      "Ġuya": 3564,
      "Ġallowing": 3565,
      "ida": 3566,
      "ĠTr": 3567,
      "unuza": 3568,
      "You": 3569,
      "liÅŁ": 3570,
      "ĠzorluÄŁu": 3571,
      "Ġevde": 3572,
      "Ġvb": 3573,
      "Ġkes": 3574,
      "imli": 3575,
      "Ġcomplex": 3576,
      "52": 3577,
      "63": 3578,
      "Ġhuzur": 3579,
      "ĠDrink": 3580,
      "ĠSÃ¼re": 3581,
      "Ġexpla": 3582,
      "uyor": 3583,
      "tÄ±ra": 3584,
      "Ġbath": 3585,
      "Ġindir": 3586,
      "Ġtotal": 3587,
      "inizle": 3588,
      "manÄ±n": 3589,
      "Ġtavsi": 3590,
      "91": 3591,
      "Ġnerv": 3592,
      "Ġbond": 3593,
      "Ġstar": 3594,
      "Ġhaving": 3595,
      "ability": 3596,
      "ih": 3597,
      "ĠSayÄ±n": 3598,
      "Ġnervous": 3599,
      "Ġrom": 3600,
      "ĠcÃ¼ml": 3601,
      "ction": 3602,
      "Ġprojects": 3603,
      "ory": 3604,
      "ĠcÃ¼mle": 3605,
      "Ġbelirleyerek": 3606,
      "ork": 3607,
      "using": 3608,
      "Ġnotes": 3609,
      "Ġritual": 3610,
      "ĠkaÄŁÄ±": 3611,
      "oud": 3612,
      "Ġvalida": 3613,
      "Ġaim": 3614,
      "ĠfÄ±r": 3615,
      "lic": 3616,
      "ĠÄ±ÅŁÄ±ÄŁÄ±": 3617,
      "isini": 3618,
      "ĠgÃ¶zlem": 3619,
      "ĠHangi": 3620,
      "ĠÃĸner": 3621,
      "ave": 3622,
      "Ġreac": 3623,
      "tivity": 3624,
      "Ġalter": 3625,
      "Ġmesa": 3626,
      "Ġact": 3627,
      "Ġavail": 3628,
      "Ġuyand": 3629,
      "ĠdakikayÄ±": 3630,
      "Minute": 3631,
      "Ġwas": 3632,
      "Ġonun": 3633,
      "Ġmeans": 3634,
      "ĠHem": 3635,
      "uyla": 3636,
      "Ġhavuz": 3637,
      "Ġverir": 3638,
      "ĠgÃ¶zden": 3639,
      "Ġfikir": 3640,
      "Ġbilgiyi": 3641,
      "Ġsolely": 3642,
      "rying": 3643,
      "ecting": 3644,
      "Ġkullanmak": 3645,
      "Ġperiod": 3646,
      "oint": 3647,
      "ĠAlÄ±ÅŁ": 3648,
      "Ä±ktan": 3649,
      "net": 3650,
      "72": 3651,
      "Ġretur": 3652,
      "ĠÃ¼zerinde": 3653,
      "elik": 3654,
      "Ġbelirle": 3655,
      "Ġsin": 3656,
      "Ä±nÄ±zÄ±n": 3657,
      "Ġbag": 3658,
      "ĠhiÃ§": 3659,
      "Two": 3660,
      "Ġchat": 3661,
      "iled": 3662,
      "Ġstore": 3663,
      "Ġarri": 3664,
      "Ġengag": 3665,
      "ĠsÃ¼r": 3666,
      "Ã¼nd": 3667,
      "Ġground": 3668,
      "ĠÄ°ngilizce": 3669,
      "ete": 3670,
      "Ġtool": 3671,
      "ilik": 3672,
      "Ġmik": 3673,
      "ĠEli": 3674,
      "Ġkayna": 3675,
      "Ġstudying": 3676,
      "Ġhappens": 3677,
      "Ä±ntÄ±": 3678,
      "Ġbalance": 3679,
      "imp": 3680,
      "enize": 3681,
      "Ġmedit": 3682,
      "Ġkas": 3683,
      "Ġtemp": 3684,
      "Ġalarak": 3685,
      "ĠBelir": 3686,
      "ĠzamanÄ±": 3687,
      "unuzun": 3688,
      "jor": 3689,
      "ĠyÃ¼zden": 3690,
      "Ġsessiz": 3691,
      "ĠtanÄ±ÅŁ": 3692,
      "Ġsaniye": 3693,
      "muÅŁ": 3694,
      "menin": 3695,
      "sap": 3696,
      "ĠkayÄ±ttaki": 3697,
      "Ġokumaya": 3698,
      "ĠamaÃ§": 3699,
      "Ġmajor": 3700,
      "ĠArkadaÅŁlÄ±k": 3701,
      "Ġtoward": 3702,
      "Ġ43": 3703,
      "Ġeder": 3704,
      "Ġmeals": 3705,
      "Ġvideo": 3706,
      "Ġthink": 3707,
      "Ġproblems": 3708,
      "udy": 3709,
      "Ġpaint": 3710,
      "Ġmedi": 3711,
      "Ġtes": 3712,
      "Ġbreaths": 3713,
      "ĠtanÄ±m": 3714,
      "Ġeliminate": 3715,
      "ĠÅŀu": 3716,
      "Ġdetailed": 3717,
      "Ġexperiences": 3718,
      "78": 3719,
      "Ġmust": 3720,
      "Ġ90": 3721,
      "Ġrecall": 3722,
      "Ġstarted": 3723,
      "Ġbun": 3724,
      "62": 3725,
      "Ġused": 3726,
      "tÄ±ÄŁÄ±nÄ±z": 3727,
      "Ġstrictly": 3728,
      "here": 3729,
      "ĠsabahlarÄ±": 3730,
      "Ġdedicate": 3731,
      "Ġaraya": 3732,
      "ĠWhen": 3733,
      "Ġfav": 3734,
      "ĠSeyahat": 3735,
      "ritik": 3736,
      "ĠolduÄŁunuz": 3737,
      "ĠÃ¶zet": 3738,
      "ĠparÃ§": 3739,
      "ĠkaÃ§Ä±nÄ±n": 3740,
      "ternal": 3741,
      "Ġbite": 3742,
      "ĠoluÅŁturun": 3743,
      "ĠgÃ¼nde": 3744,
      "Ã¼rkÃ§e": 3745,
      "ulating": 3746,
      "Ġheav": 3747,
      "Ġrespect": 3748,
      "malÄ±sÄ±nÄ±z": 3749,
      "ority": 3750,
      "Ġanki": 3751,
      "Ġforward": 3752,
      "Ġ120": 3753,
      "leyebilirsiniz": 3754,
      "Ġbar": 3755,
      "Ġsayf": 3756,
      "Ġfavor": 3757,
      "lemeye": 3758,
      "Ġtar": 3759,
      "Ġben": 3760,
      "Ġ41": 3761,
      "Ġurgency": 3762,
      "Ġtriggers": 3763,
      "Ġexternal": 3764,
      "Ġtoplamda": 3765,
      "Ġweeks": 3766,
      "Ġsakin": 3767,
      "Ġhedeflerinizi": 3768,
      "Ġremove": 3769,
      "Ġtalking": 3770,
      "sized": 3771,
      "ĠConsistency": 3772,
      "ĠSp": 3773,
      "58": 3774,
      "Ġbask": 3775,
      "Ġbirini": 3776,
      "Ġsuccess": 3777,
      "task": 3778,
      "Ġbla": 3779,
      "Ġadjust": 3780,
      "ĠGÃ¼nde": 3781,
      "Ġhandle": 3782,
      "Ġ114": 3783,
      "eclutter": 3784,
      "Ġtara": 3785,
      "abilirsin": 3786,
      ".**": 3787,
      "51": 3788,
      "Ġbuffer": 3789,
      "Ġbilgisayar": 3790,
      "Ġhobby": 3791,
      "Ġbusy": 3792,
      "ĠaÅŁaÄŁÄ±": 3793,
      "ĠÃ§alÄ±ÅŁmak": 3794,
      "Ġaktivite": 3795,
      "Ġtarih": 3796,
      "ĠkÄ±s": 3797,
      "Ġorganizing": 3798,
      "Ġhale": 3799,
      "Ġreliable": 3800,
      "Ġcasual": 3801,
      "Ġdocuments": 3802,
      "ĠyazÄ±lÄ±": 3803,
      "ĠSleep": 3804,
      "haul": 3805,
      "ues": 3806,
      "Ġona": 3807,
      "Ġlost": 3808,
      "Ġkritik": 3809,
      "ĠSor": 3810,
      "Ġmedia": 3811,
      "isyon": 3812,
      "Ä±yor": 3813,
      "Ġorganized": 3814,
      "Ġdiy": 3815,
      "morrow": 3816,
      "Ġtopics": 3817,
      "Ġduvar": 3818,
      "ada": 3819,
      "Ġtomorrow": 3820,
      "ĠbaÅŁlayarak": 3821,
      "Ġsummarizing": 3822,
      "Ġheavy": 3823,
      "Ġtrain": 3824,
      "Ġprote": 3825,
      "Ġsight": 3826,
      "Ġeffectively": 3827,
      "ĠsÃ¼reci": 3828,
      "ĠkaydÄ±": 3829,
      "Ġdistraction": 3830,
      "ata": 3831,
      "Ġ210": 3832,
      "arÄ±ÅŁ": 3833,
      "Ġsahip": 3834,
      "establish": 3835,
      "term": 3836,
      "ĠplanlayÄ±n": 3837,
      "Ã¼ph": 3838,
      "Ġ128": 3839,
      "ĠkarmaÅŁÄ±k": 3840,
      "Ġoverhaul": 3841,
      "Ġortak": 3842,
      "ĠartÄ±rÄ±r": 3843,
      "Ġcontainers": 3844,
      "61": 3845,
      "ĠÃĩok": 3846,
      "ĠAlÄ±ÅŁkanlÄ±k": 3847,
      "Ġbelki": 3848,
      "Ġworrying": 3849,
      "Ġyolcul": 3850,
      "ĠGood": 3851,
      "ĠiÃ§mek": 3852,
      "Ġdav": 3853,
      "tle": 3854,
      "ĠÃ¶d": 3855,
      "Ġaren": 3856,
      "Ġthese": 3857,
      "Ã¶rn": 3858,
      "ĠsÃ¼reli": 3859,
      "Ġconfid": 3860,
      "Ġrewards": 3861,
      "Ġroman": 3862,
      "ĠiÃ§indeki": 3863,
      "71": 3864,
      "Ġcor": 3865,
      "Ġpacking": 3866,
      "Ġcommun": 3867,
      "Ġmoments": 3868,
      "ĠnetleÅŁtir": 3869,
      "Ġrealistic": 3870,
      "Ġner": 3871,
      "Ġ130": 3872,
      "Ġ180": 3873,
      "ĠCle": 3874,
      "Ġbelirlem": 3875,
      "ĠteÅŁ": 3876,
      "Ġhissi": 3877,
      "Ġifade": 3878,
      "Ġdakikalar": 3879,
      "ĠdÃ¼zenli": 3880,
      "ĠarasÄ±nda": 3881,
      "ints": 3882,
      "Ġadvice": 3883,
      "Ġchore": 3884,
      "minate": 3885,
      "Ġphones": 3886,
      "Ġgere": 3887,
      "Ġokuy": 3888,
      "ĠbÃ¶lg": 3889,
      "Ġstil": 3890,
      "Ġimportance": 3891,
      "Ġextra": 3892,
      "Ġcase": 3893,
      "ularÄ±": 3894,
      "Ġdate": 3895,
      "isiniz": 3896,
      "Ġstarts": 3897,
      "ĠsaÄŁlayacak": 3898,
      "Ġalterna": 3899,
      "Ġ136": 3900,
      "adi": 3901,
      "Ġodaklanmak": 3902,
      "Ġlove": 3903,
      "Ġsaatlerde": 3904,
      "Ġser": 3905,
      "lig": 3906,
      "Ġkurun": 3907,
      "ĠduyduÄŁ": 3908,
      "Ġspeaker": 3909,
      "Ä±klÄ±": 3910,
      "Ġfavorite": 3911,
      "ever": 3912,
      "mind": 3913,
      "ĠPut": 3914,
      "Ä±zlÄ±": 3915,
      "Ġready": 3916,
      "ĠdeÄŁerlendir": 3917,
      "ffeine": 3918,
      "Ġcompare": 3919,
      "Ġestablish": 3920,
      "tanÄ±n": 3921,
      "Ġiyisi": 3922,
      "Ġcaffeine": 3923,
      "ding": 3924,
      "sine": 3925,
      "ĠsÄ±nÄ±r": 3926,
      "Ġ135": 3927,
      "Ġappoint": 3928,
      "ĠkalÄ±": 3929,
      "Ġ137": 3930,
      "ĠÃ¶nceden": 3931,
      "Ġdeng": 3932,
      "Ġreturn": 3933,
      "Ġ110": 3934,
      "Ġgrow": 3935,
      "Ġstaying": 3936,
      "Ġmonth": 3937,
      "Ã¼ler": 3938,
      "Ġ134": 3939,
      "Ġinstantly": 3940,
      "Ġ116": 3941,
      "Ġenc": 3942,
      "Ġdefter": 3943,
      "Ġdavran": 3944,
      "ft": 3945,
      "Ġkav": 3946,
      "Ġcreates": 3947,
      "Ġemotions": 3948,
      "Ġsepara": 3949,
      "Ġcho": 3950,
      "ĠsÄ±kÄ±ntÄ±": 3951,
      "Ġletting": 3952,
      "zem": 3953,
      "Ġeating": 3954,
      "arge": 3955,
      "ĠanlaÅŁ": 3956,
      "Ġrepeti": 3957,
      "ĠStudy": 3958,
      "Ġspecifically": 3959,
      "Ġodaklanma": 3960,
      "oin": 3961,
      "inely": 3962,
      "Ġtext": 3963,
      "Ġreply": 3964,
      "Ġgenuinely": 3965,
      "ĠgÃ¼Ã§lendir": 3966,
      "Ġwrite": 3967,
      "ĠgÃ¼nÃ¼nÃ¼z": 3968,
      "ĠuygulamasÄ±": 3969,
      "Ġyatmadan": 3970,
      "Ġdetails": 3971,
      "Ġpat": 3972,
      "ors": 3973,
      "ildir": 3974,
      "lanmÄ±ÅŁ": 3975,
      "ĠiÅŁleri": 3976,
      "Ġchecklist": 3977,
      "impact": 3978,
      "ility": 3979,
      "Ġuygulay": 3980,
      "ĠResearch": 3981,
      "ĠJust": 3982,
      "Ġinvol": 3983,
      "Ġsal": 3984,
      "ĠTÃ¼rkÃ§e": 3985,
      "oura": 3986,
      "amak": 3987,
      "Ġekleyin": 3988,
      "Ä±labilir": 3989,
      "ults": 3990,
      "ĠyarÄ±": 3991,
      "Ġbin": 3992,
      "Ġ115": 3993,
      "oney": 3994,
      "Ġshif": 3995,
      "Ġspend": 3996,
      "Ġnature": 3997,
      "Ġkonum": 3998,
      "Ġ50": 3999,
      "Ġ-": 4000,
      "Ġsec": 4001,
      "ĠsÃ¶z": 4002,
      "Ġgelen": 4003,
      "Ġ117": 4004,
      "ĠyaklaÅŁÄ±m": 4005,
      "jital": 4006,
      "ticing": 4007,
      "Ġgerekti": 4008,
      "Ġweb": 4009,
      "Ġdurumunu": 4010,
      "Ġbring": 4011,
      "ĠHedef": 4012,
      "ĠolmasÄ±": 4013,
      "inter": 4014,
      "Ġplat": 4015,
      "Ġsos": 4016,
      "Ġetmeye": 4017,
      "ĠWhy": 4018,
      "Ġpoints": 4019,
      "Ġdeeply": 4020,
      "Ġyarat": 4021,
      "ĠYatmadan": 4022,
      "ili": 4023,
      "Ġforce": 4024,
      "Ġjoy": 4025,
      "ub": 4026,
      "Ġyapma": 4027,
      "Ġvakit": 4028,
      "Ġiste": 4029,
      "Ġmoney": 4030,
      "Ġmindfulness": 4031,
      "Ġsl": 4032,
      "ross": 4033,
      "\")": 4034,
      "Ġremind": 4035,
      "ibly": 4036,
      "pose": 4037,
      "Ġpick": 4038,
      "ĠDeclutter": 4039,
      "ĠÃ¶ÄŁrenmeye": 4040,
      "Ġhear": 4041,
      "sek": 4042,
      "tically": 4043,
      "Ġkelime": 4044,
      "Ġ310": 4045,
      "Ġbelirt": 4046,
      "Ġunderstood": 4047,
      "ĠkitabÄ±": 4048,
      "Ġfood": 4049,
      "ĠalÄ±ÅŁkanlÄ±ÄŁÄ±": 4050,
      "ĠsabÄ±r": 4051,
      "Ġcritical": 4052,
      "Ġait": 4053,
      "ĠkarÄ±ÅŁ": 4054,
      "ĠGÃ¶": 4055,
      "Ġ380": 4056,
      "ĠbaÅŁka": 4057,
      "Ġexpos": 4058,
      "Ġseb": 4059,
      "leyen": 4060,
      "Ġconnections": 4061,
      "Ġturn": 4062,
      "Ġgrad": 4063,
      "ĠEliminate": 4064,
      "Ġanx": 4065,
      "ange": 4066,
      "\",": 4067,
      "Ġ236": 4068,
      "Ġ230": 4069,
      "Ġ42": 4070,
      "Ġfrequently": 4071,
      "ĠZor": 4072,
      "Ġfrust": 4073,
      "Ġstrong": 4074,
      "ĠÃĩalÄ±ÅŁ": 4075,
      "Ġblocking": 4076,
      "Ġmessages": 4077,
      "âĢĵ": 4078,
      "Ġ214": 4079,
      "Ġ336": 4080,
      "Ġkeeps": 4081,
      "Ġharit": 4082,
      "Ġexposure": 4083,
      "Ġpara": 4084,
      "cisi": 4085,
      "dÄ±k": 4086,
      "Ġ320": 4087,
      "yap": 4088,
      "Ġassum": 4089,
      "Ġmalzem": 4090,
      "Ġ324": 4091,
      "vices": 4092,
      "udur": 4093,
      "Ġhealthy": 4094,
      "Ġ325": 4095,
      "Ġcontinu": 4096,
      "ĠEl": 4097,
      "ĠSÄ±": 4098,
      "Ġ280": 4099,
      "ures": 4100,
      "Ġ327": 4101,
      "Ġedip": 4102,
      "Ġ234": 4103,
      "Ġ385": 4104,
      "Ġcosts": 4105,
      "Ġzih": 4106,
      "ĠsÃ¶y": 4107,
      "Ġplatform": 4108,
      "ĠyapmanÄ±z": 4109,
      "Ġ400": 4110,
      "Ġ328": 4111,
      "Ġ316": 4112,
      "Ġchoose": 4113,
      "Ġsunlight": 4114,
      "Ġcomfortable": 4115,
      "ĠTrue": 4116,
      "ĠbaÅŁÄ±na": 4117,
      "Ġexpect": 4118,
      "Ġbrings": 4119,
      "Ġdeadlines": 4120,
      "ĠÅŁehir": 4121,
      "Ġsorular": 4122,
      "Ġ217": 4123,
      "Ġ314": 4124,
      "ĠistiyorsanÄ±z": 4125,
      "mand": 4126,
      "ĠInstead": 4127,
      "Ã¼tÃ¼ph": 4128,
      "Ġnothing": 4129,
      "Ġ326": 4130,
      "Ġverimli": 4131,
      "ĠyapÄ±la": 4132,
      "Ġremoving": 4133,
      "Ġclothes": 4134,
      "uish": 4135,
      "Ġmotivated": 4136,
      "Ġpurpose": 4137,
      "Ġfay": 4138,
      "116": 4139,
      "Ġmastering": 4140,
      "Ġgradually": 4141,
      "Ã¼tÃ¼phan": 4142,
      "inguish": 4143,
      "Ġ237": 4144,
      "Ġkoyun": 4145,
      "Ġdistinguish": 4146,
      "ĠgeliÅŁtir": 4147,
      "Ġ387": 4148,
      "Ġsear": 4149,
      "329": 4150,
      "ĠkeÅŁfet": 4151,
      "tri": 4152,
      "Ġcons": 4153,
      "ĠkÃ¶": 4154,
      "Ġ216": 4155,
      "Ġdemand": 4156,
      "Ġemotional": 4157,
      "Ġ235": 4158,
      "Ġstic": 4159,
      "Ġ315": 4160,
      "Ġ45": 4161,
      "ĠiÅŁler": 4162,
      "ĠbahÃ§enizin": 4163,
      "ĠaydÄ±nlat": 4164,
      "ihaz": 4165,
      "Ġpic": 4166,
      "Ġ188": 4167,
      "Ġ330": 4168,
      "Ġplanlama": 4169,
      "Ġlisting": 4170,
      "Ġinternet": 4171,
      "Ġnefesinizi": 4172,
      "Ġhappen": 4173,
      "Ãĸn": 4174,
      "Ġ334": 4175,
      "uck": 4176,
      "ĠpiÅŁirme": 4177,
      "ĠkalkÄ±p": 4178,
      "Ġdesignated": 4179,
      "Ġ220": 4180,
      "Ġbeen": 4181,
      "ĠUz": 4182,
      "325": 4183,
      "Ġexchanging": 4184,
      "Ġkabul": 4185,
      "ĠsÃ¼": 4186,
      "Ġolmayan": 4187,
      "Ġbilgiye": 4188,
      "Ġclarity": 4189,
      "Ġtechniqu": 4190,
      "Ġ384": 4191,
      "Ġresults": 4192,
      "ĠHay": 4193,
      "Ġbelirtin": 4194,
      "ucu": 4195,
      "Ġslot": 4196,
      "Ġtechniques": 4197,
      "Ġ228": 4198,
      "Ġmeaningful": 4199,
      "Ġincre": 4200,
      "Ġcommunic": 4201,
      "Ã¼st": 4202,
      "Ġexample": 4203,
      "Ġ215": 4204,
      "Ġsorunu": 4205,
      "Ġhesap": 4206,
      "Ġhardest": 4207,
      "Ġsticking": 4208,
      "Ġ335": 4209,
      "Ġonline": 4210,
      "ĠÃ¼zere": 4211,
      "Ġtaraf": 4212,
      "Ġisn": 4213,
      "114": 4214,
      "115": 4215,
      "ĠiÅŁle": 4216,
      "ges": 4217,
      "ences": 4218,
      "327": 4219,
      "Ġyerde": 4220,
      "324": 4221,
      "Ġvalue": 4222,
      "Ġmiktar": 4223,
      "Ġencoura": 4224,
      "Ġrepetition": 4225,
      "326": 4226,
      "125": 4227,
      "Ġhissed": 4228,
      "Ġstrate": 4229,
      "olu": 4230,
      "larÄ±nda": 4231,
      "ĠazÄ±ndan": 4232,
      "Ġcra": 4233,
      "Ä±lÄ±r": 4234,
      "Ġarka": 4235,
      "Ġhead": 4236,
      "sar": 4237,
      "ĠoluÅŁturmak": 4238,
      "ĠGetting": 4239,
      "Ã§i": 4240,
      "129": 4241,
      "ura": 4242,
      "allen": 4243,
      "Ġpracticing": 4244,
      "charge": 4245,
      "underst": 4246,
      "ĠÄ°ÅŁ": 4247,
      "Ġtired": 4248,
      "ount": 4249,
      "Ġlooking": 4250,
      "ĠÃ¶dÃ¼l": 4251,
      "Ġ386": 4252,
      "ĠHave": 4253,
      "Ġdair": 4254,
      "124": 4255,
      "Ġsenin": 4256,
      "ĠWrite": 4257,
      "Ġmisunderst": 4258,
      "Ġcirc": 4259,
      "ĠEx": 4260,
      "117": 4261,
      "Ġodaklanarak": 4262,
      "Ġdecide": 4263,
      "ĠÅŁunlarÄ±": 4264,
      "Ġjudgment": 4265,
      "ĠÃ¶l": 4266,
      "ĠGece": 4267,
      "Ġ317": 4268,
      "Ġ337": 4269,
      "ĠkullanmayÄ±": 4270,
      "pping": 4271,
      "ĠgÃ¶revleri": 4272,
      "Ġwindow": 4273,
      "Ġdirectly": 4274,
      "post": 4275,
      "Ġuyuyun": 4276,
      "ĠFotoÄŁraf": 4277,
      "Ġteach": 4278,
      "Ġederek": 4279,
      "Ä±ldÄ±": 4280,
      "ĠHemen": 4281,
      "aat": 4282,
      "126": 4283,
      "ĠodaklanmayÄ±": 4284,
      "Ġinteractions": 4285,
      "Ġconfidence": 4286,
      "mekten": 4287,
      "Ġkendini": 4288,
      "Ġharc": 4289,
      "Ġyeterlidir": 4290,
      "Ġemail": 4291,
      "usal": 4292,
      "ĠDes": 4293,
      "ĠdÃ¼zel": 4294,
      "adian": 4295,
      "lamayÄ±": 4296,
      "ĠStop": 4297,
      "ĠbaÅŁlangÄ±cÄ±": 4298,
      "ĠpopÃ¼ler": 4299,
      "erken": 4300,
      "Ä±sa": 4301,
      "ĠyoÄŁ": 4302,
      "ĠyapÄ±p": 4303,
      "Ġ410": 4304,
      "ĠbaÄŁlÄ±": 4305,
      "Ġrequires": 4306,
      "Ġcol": 4307,
      "Ġcircadian": 4308,
      "dÃ¼r": 4309,
      "lul": 4310,
      "ink": 4311,
      "ĠiliÅŁ": 4312,
      "Ġnear": 4313,
      "Ġsaati": 4314,
      "336": 4315,
      "ĠaÃ§Ä±": 4316,
      "times": 4317,
      "ĠyapÄ±lan": 4318,
      "Ġlarger": 4319,
      "Ã¼nÃ¼zÃ¼": 4320,
      "Ġincluding": 4321,
      "Ġrecharge": 4322,
      "ĠyemeÄŁi": 4323,
      "ifik": 4324,
      "gi": 4325,
      "ĠadÄ±": 4326,
      "Ġzama": 4327,
      "337": 4328,
      "ĠcÃ¼mleler": 4329,
      "Ġekleyerek": 4330,
      "taneously": 4331,
      "Ġpile": 4332,
      "ĠTV": 4333,
      "esifik": 4334,
      "ĠatÄ±n": 4335,
      "335": 4336,
      "Ġuygulamalar": 4337,
      "Ġcihaz": 4338,
      "ĠBuild": 4339,
      "Ã¼zel": 4340,
      "Ġspesifik": 4341,
      "ĠarasÄ±": 4342,
      "ĠdetaylÄ±": 4343,
      "Ġpozisyon": 4344,
      "eti": 4345,
      "909": 4346,
      "Ġpersonal": 4347,
      "ĠmantÄ±klÄ±": 4348,
      "Ġem": 4349,
      "Ġyaparken": 4350,
      "layÄ±cÄ±": 4351,
      "rend": 4352,
      "ĠkaÃ§Ä±n": 4353,
      "ĠayarlayÄ±n": 4354,
      "Ġ329": 4355,
      "Ġversion": 4356,
      "Ġspon": 4357,
      "127": 4358,
      "Ġsaatlik": 4359,
      "Ġdiyerek": 4360,
      ")**": 4361,
      "Ä°lk": 4362,
      "Ġpushes": 4363,
      "der": 4364,
      "ĠanÄ±nda": 4365,
      "Ġzorunda": 4366,
      "ibility": 4367,
      "Ġgener": 4368,
      "ĠkolaylaÅŁ": 4369,
      "ĠkonuÅŁmak": 4370,
      "ial": 4371,
      "Ġ319": 4372,
      "Ġsimul": 4373,
      "Ġchallen": 4374,
      "ĠÃ¼Ã§": 4375,
      "Ġmer": 4376,
      "lanan": 4377,
      "Ġmeeting": 4378,
      "Ġkayb": 4379,
      "Ġherhangi": 4380,
      "ĠkiÅŁiye": 4381,
      "Ġmap": 4382,
      "Ġstuck": 4383,
      "Ġalong": 4384,
      "Ġotel": 4385,
      "Ġsaatini": 4386,
      "Ġlock": 4387,
      "Ġpre": 4388,
      "ĠdÃ¼ÅŁÃ¼r": 4389,
      "ĠÃ¶lÃ§": 4390,
      "reading": 4391,
      "Ġkaydet": 4392,
      "iety": 4393,
      "Ġattrac": 4394,
      "Ġsimultaneously": 4395,
      "ty": 4396,
      "Ġru": 4397,
      "ĠHarika": 4398,
      "Ġbelirleyip": 4399,
      "Ġstretch": 4400,
      "ĠkolaylaÅŁtÄ±rÄ±r": 4401,
      "Ġ288": 4402,
      "avig": 4403,
      "ru": 4404,
      "Ġyum": 4405,
      "Ġfact": 4406,
      "Ġmight": 4407,
      "Ġsilence": 4408,
      "Ġanxiety": 4409,
      "Ġwhenever": 4410,
      "ĠsÄ±caklÄ±ÄŁÄ±nÄ±": 4411,
      "Ġent": 4412,
      "tiri": 4413,
      "unuzda": 4414,
      "Ġprof": 4415,
      "Ġinteraction": 4416,
      "ging": 4417,
      "iÃ§ek": 4418,
      "ÄŁa": 4419,
      "Ġlonger": 4420,
      "Ġrahatlat": 4421,
      "ĠhafifÃ§e": 4422,
      "ĠprogramÄ±": 4423,
      "ĠgeÃ§irin": 4424,
      "ĠbÃ¼tÃ§": 4425,
      "Ġspontane": 4426,
      "Ġunder": 4427,
      "Ġ339": 4428,
      "ĠdÃ¼zenleme": 4429,
      "Ġsosyal": 4430,
      "Ġbiti": 4431,
      "Ġconstantly": 4432,
      "Ġnavig": 4433,
      "tionship": 4434,
      "Ġcalming": 4435,
      "Ġedebilirsiniz": 4436,
      "Ġhy": 4437,
      "Ġdevices": 4438,
      "Ġ65": 4439,
      "Ġrelationship": 4440,
      "Ġtransit": 4441,
      "Ġsurfaces": 4442,
      "Ġzamanda": 4443,
      "miÅŁtir": 4444,
      "Ġkaybet": 4445,
      "Ġyatak": 4446,
      "Ġmemory": 4447,
      "ĠaÅŁ": 4448,
      "ines": 4449,
      "Ġmak": 4450,
      "Ġ389": 4451,
      "Ġsolve": 4452,
      "St": 4453,
      "fÄ±r": 4454,
      "Ġcue": 4455,
      "elen": 4456,
      "sÄ±t": 4457,
      "Ġevdeki": 4458,
      "Ġguilt": 4459,
      "Ġaiming": 4460,
      "ĠyapmaktÄ±r": 4461,
      "ĠFor": 4462,
      "ĠiÅŁaret": 4463,
      "ĠsaÄŁlam": 4464,
      "Ġsleeping": 4465,
      "uÄŁu": 4466,
      "power": 4467,
      "ĠBÃ¼yÃ¼k": 4468,
      "Ġbec": 4469,
      "Ġatmak": 4470,
      "Ġbelirtil": 4471,
      "Ġhedefe": 4472,
      "ĠkapatÄ±n": 4473,
      "back": 4474,
      "Ġsefer": 4475,
      "Ġ388": 4476,
      "uggage": 4477,
      "Ġfriction": 4478,
      "ĠBaÅŁarÄ±": 4479,
      "sÄ±na": 4480,
      "uel": 4481,
      "ĠhafÄ±z": 4482,
      "ĠdeÄŁiÅŁik": 4483,
      "ĠbÃ¶lÃ¼m": 4484,
      "Ġ80": 4485,
      "209": 4486,
      "906": 4487,
      "ĠalanÄ±": 4488,
      "Ġlate": 4489,
      "Ġenjoyable": 4490,
      "Ġplanla": 4491,
      "Ġalma": 4492,
      "905": 4493,
      "ĠhatÄ±rlat": 4494,
      "Ġprotect": 4495,
      "ney": 4496,
      "lerine": 4497,
      "Ġluggage": 4498,
      "Ġboz": 4499,
      "ĠbaÅŁlamanÄ±z": 4500,
      "Ġdimming": 4501,
      "Ġhang": 4502,
      "904": 4503,
      "ĠihtiyacÄ±nÄ±z": 4504,
      "Ġton": 4505,
      "112": 4506,
      "Ġhedefinizi": 4507,
      "Ġileride": 4508,
      "Ġcarry": 4509,
      "kip": 4510,
      "Ġyerden": 4511,
      "Ġgives": 4512,
      "ĠuygulayÄ±n": 4513,
      "323": 4514,
      "Ġuninter": 4515,
      "907": 4516,
      "Ġilerlemeyi": 4517,
      "ĠhÄ±zlÄ±ca": 4518,
      "Ġtemizlik": 4519,
      "Ġideal": 4520,
      "ledge": 4521,
      "Ġdesired": 4522,
      "Ġprom": 4523,
      "ĠÃ¶rneÄŁin": 4524,
      "Ġcommon": 4525,
      "Ġetkin": 4526,
      "Ġaray": 4527,
      "Ġcatch": 4528,
      "Ġana": 4529,
      "Ġabs": 4530,
      "ĠÃ§ay": 4531,
      "113": 4532,
      "Ġscheduling": 4533,
      "Ġshoot": 4534,
      "Ġattem": 4535,
      "Ġkalite": 4536,
      "dÄ±ÄŁÄ±nÄ±zda": 4537,
      "Ġallows": 4538,
      "Ġdisconnect": 4539,
      "Ġaccommodations": 4540,
      "edi": 4541,
      "321": 4542,
      "Ġconnect": 4543,
      "ĠsÃ¶yle": 4544,
      "ĠyoÄŁun": 4545,
      "Ġpreventing": 4546,
      "Ġperform": 4547,
      "aÄŁÄ±": 4548,
      "Ġtable": 4549,
      "Ġresist": 4550,
      "ĠalmayÄ±": 4551,
      "Ġincred": 4552,
      "Ġblack": 4553,
      "ola": 4554,
      "talÄ±k": 4555,
      "Ġshel": 4556,
      "Ġbulund": 4557,
      "ĠyazÄ±n": 4558,
      "Ġdili": 4559,
      "ĠdÃ¼zeninizi": 4560,
      "Ġincredibly": 4561,
      "Ġbunun": 4562,
      "ĠNe": 4563,
      "ĠGÃ¼neÅŁ": 4564,
      "rupted": 4565,
      "Ġkindness": 4566,
      "Ġkurmak": 4567,
      "Ġgerekli": 4568,
      "Ġsignals": 4569,
      "ĠÃ¼zerinden": 4570,
      "Ġlabeled": 4571,
      "ĠkoÅŁul": 4572,
      "Ġstill": 4573,
      "Ġuninterrupted": 4574,
      "Ġilerlemek": 4575,
      "Ġmisunderstand": 4576,
      "sik": 4577,
      "Ġquit": 4578,
      "Ġanlamak": 4579,
      "322": 4580,
      "ba": 4581,
      "ĠSaat": 4582,
      "ket": 4583,
      "Ġty": 4584,
      "Ġcontrol": 4585,
      "Ġtools": 4586,
      "Ġbarri": 4587,
      "ĠClear": 4588,
      "Ġtelefonunuzun": 4589,
      "Ġpartner": 4590,
      "build": 4591,
      "Ġmesaf": 4592,
      "Ġyapabilirsiniz": 4593,
      "ĠÅŁimdi": 4594,
      "ĠJoin": 4595,
      "111": 4596,
      "Ġscrol": 4597,
      "ĠkÄ±sm": 4598,
      "Ġalternative": 4599,
      "Ġcommunicate": 4600,
      "vet": 4601,
      "ĠÃ¶ÄŁrenin": 4602,
      "309": 4603,
      "Ġvisit": 4604,
      "Ġrushing": 4605,
      "layan": 4606,
      "ĠbahÃ§ede": 4607,
      "Ġexpecting": 4608,
      "Ġurge": 4609,
      "Ã¼ven": 4610,
      "ĠÃ§alÄ±ÅŁmaya": 4611,
      "ĠÃ§ekiyor": 4612,
      "member": 4613,
      "ties": 4614,
      "kim": 4615,
      "Ġintens": 4616,
      "Ġupon": 4617,
      "round": 4618,
      "ĠkonuÅŁmayÄ±": 4619,
      "Ġfayd": 4620,
      "123": 4621,
      "Ġuyuy": 4622,
      "Ġwait": 4623,
      "Ġkork": 4624,
      "valtÄ±": 4625,
      "ĠgÃ¶revi": 4626,
      "tirecek": 4627,
      "Ġdepart": 4628,
      "Ġperiods": 4629,
      "ble": 4630,
      "Â°": 4631,
      "ĠÃ§iÃ§ek": 4632,
      "ague": 4633,
      "Ġcommitting": 4634,
      "Ġtane": 4635,
      "Ġrebuild": 4636,
      "ĠÃ¶ncel": 4637,
      "ĠKitap": 4638,
      "where": 4639,
      "Ġsn": 4640,
      "109": 4641,
      "ĠkapatÄ±p": 4642,
      "Ġkelimeler": 4643,
      "Ġmid": 4644,
      "Ġforcing": 4645,
      "Ġevent": 4646,
      "iÄŁiniz": 4647,
      "Ġvisible": 4648,
      "Ġhaftada": 4649,
      "Ġemails": 4650,
      "200": 4651,
      "121": 4652,
      "Ġcorner": 4653,
      "Ġshelves": 4654,
      "ĠÃ§eker": 4655,
      "333": 4656,
      "Ġsign": 4657,
      "acaÄŁÄ±nÄ±z": 4658,
      "Ġtreating": 4659,
      "Ġfinding": 4660,
      "Ġanal": 4661,
      "loj": 4662,
      "phones": 4663,
      "Ġmeditation": 4664,
      "Ġnerede": 4665,
      "posta": 4666,
      "ĠDesign": 4667,
      "aÃ§": 4668,
      "nin": 4669,
      "abilirim": 4670,
      "131": 4671,
      "Ġincele": 4672,
      "Ġsesli": 4673,
      "ĠaydÄ±r": 4674,
      "asÄ±nda": 4675,
      "331": 4676,
      "ĠakÄ±ÅŁ": 4677,
      "ĠuygulamasÄ±nÄ±": 4678,
      "menize": 4679,
      "Ġtasar": 4680,
      "Ġtyp": 4681,
      "ĠTek": 4682,
      "esinde": 4683,
      "300": 4684,
      "bilecek": 4685,
      "yonel": 4686,
      "Ġintention": 4687,
      "BugÃ¼n": 4688,
      "Ã¶n": 4689,
      "ĠHÄ±zlÄ±": 4690,
      "ĠbaÅŁlatÄ±n": 4691,
      "ĠEr": 4692,
      "Ã§Ä±": 4693,
      "Ġstate": 4694,
      "ĠanlÄ±k": 4695,
      "903": 4696,
      "ĠsÃ¼ren": 4697,
      "Ġmad": 4698,
      "Ġspecial": 4699,
      "Ġroute": 4700,
      "must": 4701,
      "Ġned": 4702,
      "imit": 4703,
      "Ġwhether": 4704,
      "ĠyaptÄ±ÄŁÄ±nÄ±z": 4705,
      "ĠtanÄ±ÅŁacak": 4706,
      "Ġtat": 4707,
      "Ġtell": 4708,
      "rated": 4709,
      "Ġeden": 4710,
      "ĠsoÄŁ": 4711,
      "ĠgeÃ§in": 4712,
      "manÄ±za": 4713,
      "leyebilir": 4714,
      "908": 4715,
      "Ġcloset": 4716,
      "Ġattractions": 4717,
      "sleep": 4718,
      "ĠduÅŁ": 4719,
      "Ġayak": 4720,
      "Ġister": 4721,
      "Ġharekete": 4722,
      "Ġself": 4723,
      "Ġfuel": 4724,
      "Ġmeal": 4725,
      "Ġseem": 4726,
      "901": 4727,
      "ĠdÃ¼zenini": 4728,
      "Ġharder": 4729,
      "melisiniz": 4730,
      "Ġcramming": 4731,
      "Ġboring": 4732,
      "349": 4733,
      "Ġtelefonunuzu": 4734,
      "Ġclose": 4735,
      "iraz": 4736,
      "ĠdeÄŁildir": 4737,
      "Ġbelong": 4738,
      "ĠkullanÄ±m": 4739,
      "902": 4740,
      "Ġdrain": 4741,
      "ĠGÃ¶z": 4742,
      "122": 4743,
      "Ġkullanmaya": 4744,
      "Ġrid": 4745,
      "ĠazaltÄ±r": 4746,
      "Toplam": 4747,
      "vik": 4748,
      "Ġsaatleri": 4749,
      "ĠSabahlarÄ±": 4750,
      "Ġmisiniz": 4751,
      "ĠResim": 4752,
      "ĠdavranÄ±ÅŁ": 4753,
      "ets": 4754,
      "ÄŁim": 4755,
      "Ġcover": 4756,
      "Ġlit": 4757,
      "Ġproj": 4758,
      "Ġprov": 4759,
      "ĠgÃ¶rsel": 4760,
      "Ġtavsiye": 4761,
      "Ġshift": 4762,
      "Ġassuming": 4763,
      "Ġprofes": 4764,
      "900": 4765,
      "Ġsolu": 4766,
      "Ġremember": 4767,
      "Ġvad": 4768,
      "Ġacross": 4769,
      "Ġplanner": 4770,
      "ĠÅŁeyleri": 4771,
      "Ġkurg": 4772,
      "diÄŁi": 4773,
      "Ġaccomplishment": 4774,
      "100": 4775,
      "ĠaraÅŁ": 4776,
      "ĠbaÅŁlamaktÄ±r": 4777,
      "Ġwatching": 4778,
      "Ġbitki": 4779,
      "landÄ±ÄŁÄ±nÄ±z": 4780,
      "Ġayr": 4781,
      "ardan": 4782,
      "Ġetki": 4783,
      "Ġilerleme": 4784,
      "ĠaltÄ±nda": 4785,
      "ĠtaÅŁ": 4786,
      "ats": 4787,
      "Ġzek": 4788,
      "Ġ322": 4789,
      "Ġcore": 4790,
      "ĠkaldÄ±r": 4791,
      "Ġbahset": 4792,
      "Ġuygulama": 4793,
      "Ġortamda": 4794,
      "Ġanla": 4795,
      "Ġnumber": 4796,
      "280": 4797,
      "Ġdilin": 4798,
      "Ġsub": 4799,
      "Ġexchange": 4800,
      "Ġinvolves": 4801,
      "Ġ222": 4802,
      "ĠplanÄ±nÄ±zÄ±": 4803,
      "304": 4804,
      "ĠiyileÅŁtir": 4805,
      "Ġdeneyebilirsiniz": 4806,
      "Ġairline": 4807,
      "pri": 4808,
      "tÃ¼r": 4809,
      "isel": 4810,
      "Ġrein": 4811,
      "Ġkonfor": 4812,
      "bo": 4813,
      "fen": 4814,
      "Ġpap": 4815,
      "ĠkÃ¼tÃ¼phan": 4816,
      "ĠCheck": 4817,
      "Ġdrink": 4818,
      "Ġcurtain": 4819,
      "Ġscrolling": 4820,
      "ĠLimit": 4821,
      "ĠMerhaba": 4822,
      "Ġexpens": 4823,
      "ĠgerÃ§ekten": 4824,
      "Ġavailability": 4825,
      "ĠteÅŁvik": 4826,
      "zet": 4827,
      "Ġalone": 4828,
      "206": 4829,
      "285": 4830,
      "ĠsÃ¼rekli": 4831,
      "Ġbilet": 4832,
      "urarak": 4833,
      "ĠtanÄ±": 4834,
      "Ġfil": 4835,
      "Ġrez": 4836,
      "Ġvague": 4837,
      "305": 4838,
      "Ġelect": 4839,
      "Ġwebsi": 4840,
      "Ġcues": 4841,
      "ulan": 4842,
      "Ġhon": 4843,
      "Ġstand": 4844,
      "efore": 4845,
      "207": 4846,
      "286": 4847,
      "ĠsaÄŁlÄ±klÄ±": 4848,
      "ively": 4849,
      "Ġreinfor": 4850,
      "ilmiÅŁ": 4851,
      "ĠgeÃ§mek": 4852,
      "apping": 4853,
      "ronic": 4854,
      "980": 4855,
      "cast": 4856,
      "Ġ'": 4857,
      "ĠbirleÅŁ": 4858,
      "Ġyapt": 4859,
      "Ġgoes": 4860,
      "ĠdaÄŁÄ±": 4861,
      "306": 4862,
      "205": 4863,
      "284": 4864,
      "ĠhazÄ±rlayÄ±n": 4865,
      "Ġrepeat": 4866,
      "yin": 4867,
      "ĠAÄŁ": 4868,
      "ĠÃ¶ÄŁrend": 4869,
      "204": 4870,
      "ĠyavaÅŁÃ§a": 4871,
      "Ġrezerv": 4872,
      "Ġidentif": 4873,
      "Ġspending": 4874,
      "Ġsnack": 4875,
      "KÃ¼Ã§Ã¼k": 4876,
      "may": 4877,
      "pts": 4878,
      "bileceÄŁiniz": 4879,
      "Ġsentence": 4880,
      "Ġprep": 4881,
      "vite": 4882,
      "307": 4883,
      "287": 4884,
      "Ã¼tfen": 4885,
      "Ġsentences": 4886,
      "ullan": 4887,
      "ĠÃ§im": 4888,
      "Ġfeed": 4889,
      "Ġexpressing": 4890,
      "ĠÄ±lÄ±k": 4891,
      "Ġada": 4892,
      "ĠtÃ¼k": 4893,
      "Ġdim": 4894,
      "104": 4895,
      "108": 4896,
      "203": 4897,
      "pting": 4898,
      "Ġfit": 4899,
      "iness": 4900,
      "201": 4901,
      "ĠalÄ±ÅŁkanlÄ±": 4902,
      "ĠsorunlarÄ±": 4903,
      "ensi": 4904,
      "Ġexc": 4905,
      "ificant": 4906,
      "ĠkullanÄ±lan": 4907,
      "Ġkayda": 4908,
      "Ġdijital": 4909,
      "Ġsupp": 4910,
      "Ġinceley": 4911,
      "Ġseparate": 4912,
      "Ġsecure": 4913,
      "Ġdemanding": 4914,
      "Ġprofesyonel": 4915,
      "by": 4916,
      "Ġsound": 4917,
      "ÄŁe": 4918,
      "Ġvermek": 4919,
      "Ġwillpower": 4920,
      "208": 4921,
      "ĠÃ¶nemlidir": 4922,
      "Ġelectronic": 4923,
      "106": 4924,
      "308": 4925,
      "Ġilerleyin": 4926,
      "ĠgÃ¶nderin": 4927,
      "hand": 4928,
      "105": 4929,
      "281": 4930,
      "ĠgeliÅŁ": 4931,
      "priority": 4932,
      "Ġmy": 4933,
      "kiyor": 4934,
      "Ġdold": 4935,
      "102": 4936,
      "107": 4937,
      "301": 4938,
      "283": 4939,
      "288": 4940,
      "ĠpiÅŁiriyor": 4941,
      "ĠsÃ¼rede": 4942,
      "ĠeÄŁiti": 4943,
      "Ġswitch": 4944,
      "ĠÃĩalÄ±ÅŁma": 4945,
      "nece": 4946,
      "Ġfiz": 4947,
      "Ġfun": 4948,
      "Ġfill": 4949,
      "Ġyeten": 4950,
      "head": 4951,
      "101": 4952,
      "303": 4953,
      "Ä±ÅŁtÄ±r": 4954,
      "Ġshowing": 4955,
      "ĠDesignate": 4956,
      "Ġsite": 4957,
      "202": 4958,
      "ĠÃ§ekecek": 4959,
      "Ġmisunderstandings": 4960,
      "necess": 4961,
      "Ġmode": 4962,
      "Ġunnecess": 4963,
      "ĠdÃ¶nÃ¼ÅŁ": 4964,
      "Ġinitial": 4965,
      "Ġcurtains": 4966,
      "leriniz": 4967,
      "iber": 4968,
      "lemesine": 4969,
      "Ġaccus": 4970,
      "iyet": 4971,
      "Ġseviyenizi": 4972,
      "ĠÄ±ÅŁÄ±ÄŁÄ±na": 4973,
      "Ġgerekiyor": 4974,
      "ns": 4975,
      "yes": 4976,
      "Ġgest": 4977,
      "289": 4978,
      "Ġreacting": 4979,
      "Ġzorlu": 4980,
      "Ġcomb": 4981,
      "lanÄ±r": 4982,
      "Ġbeforehand": 4983,
      "103": 4984,
      "302": 4985,
      "ĠseÃ§im": 4986,
      "ĠolduÄŁun": 4987,
      "Ġbilgileri": 4988,
      "ĠulaÅŁÄ±labilir": 4989,
      "sues": 4990,
      "imd": 4991,
      "Ġolup": 4992,
      "Ġris": 4993,
      "282": 4994,
      "iÄŁini": 4995,
      "Ġhedefi": 4996,
      "ĠtÃ¼rÃ¼": 4997,
      "ĠyumuÅŁ": 4998,
      "Ġrezervasyon": 4999,
      "mayan": 5000,
      "ops": 5001,
      "phra": 5002,
      "ĠseÃ§mektir": 5003,
      "Ġswitching": 5004,
      "Ġteaching": 5005,
      "180": 5006,
      "Ġeks": 5007,
      "ature": 5008,
      "ĠbÄ±rakÄ±p": 5009,
      "ĠUzun": 5010,
      "Start": 5011,
      "880": 5012,
      "Ġtest": 5013,
      "Ġupda": 5014,
      "gid": 5015,
      "ĠadÄ±mÄ±n": 5016,
      "ĠMart": 5017,
      "ĠÃ¶ÄŁre": 5018,
      "Ġgider": 5019,
      "gen": 5020,
      "alara": 5021,
      "Ġken": 5022,
      "Ġzones": 5023,
      "ĠkullanmaktÄ±r": 5024,
      "ĠsatÄ±n": 5025,
      "second": 5026,
      "ĠbaÅŁar": 5027,
      "Ġactionable": 5028,
      "Ġahead": 5029,
      "ĠsÄ±r": 5030,
      "Ã¼p": 5031,
      "Ġissues": 5032,
      "ackle": 5033,
      "ĠseÃ§imi": 5034,
      "Ġproductivity": 5035,
      "Ġhonest": 5036,
      "Ġisterseniz": 5037,
      "Ġpi": 5038,
      "ĠyÃ¼rÃ¼yerek": 5039,
      "Ġolabilirim": 5040,
      "Ġbalanced": 5041,
      "Ġblackout": 5042,
      "Ġidentifying": 5043,
      "ĠbaÅŁtan": 5044,
      "Ġchar": 5045,
      "149": 5046,
      "ĠbaÅŁlangÄ±Ã§ta": 5047,
      "ĠgeniÅŁ": 5048,
      "Bir": 5049,
      "Ġtreat": 5050,
      "Ġlearned": 5051,
      "Ġbitkiler": 5052,
      "sunuz": 5053,
      "Ġsen": 5054,
      "Ġ382": 5055,
      "Ġyapay": 5056,
      "Ġyapmadan": 5057,
      "acaÄŁÄ±nÄ±zÄ±": 5058,
      "ĠBaÅŁlangÄ±Ã§ta": 5059,
      "Ġexplaining": 5060,
      "Ġkaf": 5061,
      "ĠyÃ¶net": 5062,
      "ĠolmalÄ±dÄ±r": 5063,
      "sim": 5064,
      "usunu": 5065,
      "lÄ±klÄ±": 5066,
      "Ġsonucu": 5067,
      "Ġuykuya": 5068,
      "Ġdefensi": 5069,
      "Ġautomatically": 5070,
      "Ġoturup": 5071,
      "Ġsignificant": 5072,
      "ĠbaÅŁlÄ±": 5073,
      "ĠolmanÄ±z": 5074,
      "Ġunnecessary": 5075,
      "Ġdurumda": 5076,
      "Ġinceleyin": 5077,
      "988": 5078,
      "iyorum": 5079,
      "Ġ\\": 5080,
      "Ġfaster": 5081,
      "ĠayÄ±rdÄ±ÄŁÄ±": 5082,
      "ĠMaps": 5083,
      "Ġplanlam": 5084,
      "Ġspor": 5085,
      "Ġaccum": 5086,
      "Ġboundary": 5087,
      "Ġbilim": 5088,
      "Mer": 5089,
      "Ġnecess": 5090,
      "iksel": 5091,
      "ĠÃ§Ã¶zmek": 5092,
      "ĠseÃ§ene": 5093,
      "ĠyÃ¼rÃ¼me": 5094,
      "ĠÃ§evir": 5095,
      "ses": 5096,
      "way": 5097,
      "Ġib": 5098,
      "Ġrates": 5099,
      "ĠyÃ¼rÃ¼m": 5100,
      "Ġslowly": 5101,
      "Ġintensity": 5102,
      "fak": 5103,
      "Ġaler": 5104,
      "Ġconstant": 5105,
      "Ġdemek": 5106,
      "Ġevents": 5107,
      "larÄ±ndan": 5108,
      "Ġappro": 5109,
      "Ġspots": 5110,
      "Ġtransportation": 5111,
      "ĠaraÅŁtÄ±r": 5112,
      "Ġflexibility": 5113,
      "Ġmakinesi": 5114,
      "ĠdeÄŁiÅŁiklik": 5115,
      "680": 5116,
      "ĠyapÄ±yor": 5117,
      "ĠdetaylarÄ±": 5118,
      "Ġdrives": 5119,
      "Ġconcepts": 5120,
      "Ġpicking": 5121,
      "over": 5122,
      "ĠÃ¶rnek": 5123,
      "ĠoluÅŁtu": 5124,
      "Ġbeyn": 5125,
      "ĠayÄ±rd": 5126,
      "ĠÃ§ekin": 5127,
      "veness": 5128,
      "rev": 5129,
      "Ġwon": 5130,
      "ĠbaÅŁa": 5131,
      "ĠyazÄ±": 5132,
      "Ġsafe": 5133,
      "Ġengel": 5134,
      "Ġduygular": 5135,
      "380": 5136,
      "ĠaÅŁam": 5137,
      "ĠDil": 5138,
      "Ġhedefleyin": 5139,
      "ĠÃ§Ä±kÄ±p": 5140,
      "Ġbekleme": 5141,
      "Ġmultitask": 5142,
      "Ġkelimeleri": 5143,
      "ĠBiraz": 5144,
      "Ġmeetings": 5145,
      "Ġrun": 5146,
      "ĠÃ¶nÃ¼nde": 5147,
      "Ġyeri": 5148,
      "Ġcompleted": 5149,
      "ĠFriends": 5150,
      "Ġhayal": 5151,
      "ĠartÄ±rÄ±n": 5152,
      "ĠbaÅŁÄ±nda": 5153,
      "Ġparties": 5154,
      "Ġaraz": 5155,
      "Ġschedules": 5156,
      "Ġfeedback": 5157,
      "400": 5158,
      "Ġtw": 5159,
      "Ġspark": 5160,
      "ĠÃ¶ne": 5161,
      "Ġrigid": 5162,
      "ĠgiriÅŁ": 5163,
      "Ġlimit": 5164,
      "Ġattempting": 5165,
      "Ġeksik": 5166,
      "Ġdefensiveness": 5167,
      "Ġblok": 5168,
      "Ġlistener": 5169,
      "ĠsÃ¼reÃ§te": 5170,
      "ĠyapÄ±lacak": 5171,
      "ĠyetiÅŁ": 5172,
      "Ġart": 5173,
      "Ġbelirti": 5174,
      "Ġphra": 5175,
      "indeki": 5176,
      "ĠbakÄ±n": 5177,
      "ĠeÄŁlen": 5178,
      "ĠdoÄŁrusu": 5179,
      "ĠChange": 5180,
      "Ġplacing": 5181,
      "600": 5182,
      "Ġban": 5183,
      "ĠkayÄ±": 5184,
      "Ġloud": 5185,
      "Ġseason": 5186,
      "Ġboy": 5187,
      "GÃ¼n": 5188,
      "iyi": 5189,
      "Ã¼le": 5190,
      "Ġdata": 5191,
      "ĠuÄŁ": 5192,
      "Ġdeals": 5193,
      "Ġtraveling": 5194,
      "Ġyerinizi": 5195,
      "ĠBirlikte": 5196,
      "Ġbekle": 5197,
      "Ġinterruptions": 5198,
      "700": 5199,
      "ative": 5200,
      "Ġtone": 5201,
      "Ġkod": 5202,
      "ĠBunun": 5203,
      "Ġkalit": 5204,
      "ĠyerleÅŁtir": 5205,
      "ĠzorluklarÄ±": 5206,
      "Ġmasa": 5207,
      "Ġkaydedin": 5208,
      "Ġkesin": 5209,
      "Ġtemper": 5210,
      "Ġanaliz": 5211,
      "micro": 5212,
      "urg": 5213,
      "Ġinsan": 5214,
      "iding": 5215,
      "ĠbuluÅŁma": 5216,
      "Ġedecek": 5217,
      "ĠyazÄ±lÄ±m": 5218,
      "480": 5219,
      "ĠTackle": 5220,
      "ĠYoga": 5221,
      "Ġins": 5222,
      "Ġmetin": 5223,
      "ĠayÄ±rarak": 5224,
      "780": 5225,
      "ĠodaklÄ±": 5226,
      "Ġgelir": 5227,
      "ĠkonuÅŁmaya": 5228,
      "Ġphysically": 5229,
      "Ġlocation": 5230,
      "ĠyanlÄ±ÅŁ": 5231,
      "Ġwrong": 5232,
      "ĠHaftanÄ±n": 5233,
      "tÃ¼": 5234,
      "text": 5235,
      "ĠyÃ¼ksek": 5236,
      "ĠgÃ¼Ã§lÃ¼": 5237,
      "Ben": 5238,
      "ĠYap": 5239,
      "ÄŁine": 5240,
      "Ġsuya": 5241,
      "Ġtamamla": 5242,
      "meyen": 5243,
      "ĠÃ§izim": 5244,
      "gÃ¼nlÃ¼k": 5245,
      "Ġziyade": 5246,
      "Ġtesting": 5247,
      "Ġtarz": 5248,
      "Ġharika": 5249,
      "831": 5250,
      "Ġeffective": 5251,
      "Ġleads": 5252,
      "Ġruh": 5253,
      "ĠbahÃ§eye": 5254,
      "Ġil": 5255,
      "lerinize": 5256,
      "laÅŁma": 5257,
      "Ġsaniy": 5258,
      "ĠHabits": 5259,
      "arp": 5260,
      "Ġidentify": 5261,
      "ĠuÃ§": 5262,
      "Ġjum": 5263,
      "Ġsitu": 5264,
      "dece": 5265,
      "Ã¢": 5266,
      "Ġvalu": 5267,
      "Ġzeka": 5268,
      "ĠbaÅŁk": 5269,
      "ĠgÃ¼nÃ¼nÃ¼": 5270,
      "Ġkelimeyi": 5271,
      "Ġmutlak": 5272,
      "Ġdinlenme": 5273,
      "Ġdoldur": 5274,
      "cc": 5275,
      "know": 5276,
      "abin": 5277,
      "asit": 5278,
      "ĠyÃ¼zmeye": 5279,
      "Ġgez": 5280,
      "ĠgerÃ§ekÃ§i": 5281,
      "Ġcalls": 5282,
      "922": 5283,
      "hoto": 5284,
      "liÄŁini": 5285,
      "ĠolduÄŁundan": 5286,
      "ĠNumarasÄ±": 5287,
      "Ġencourage": 5288,
      "188": 5289,
      "ĠBirkaÃ§": 5290,
      "Ġrelaxation": 5291,
      "kend": 5292,
      "Ġemer": 5293,
      "ĠOk": 5294,
      "Ġdonate": 5295,
      "iyat": 5296,
      "Ġarrive": 5297,
      "ĠaÅŁaÄŁÄ±daki": 5298,
      "500": 5299,
      "Ġocc": 5300,
      "ĠgeÃ§iÅŁ": 5301,
      "Ġtelefonunuzda": 5302,
      "Ġpriorities": 5303,
      "ĠfaydalÄ±": 5304,
      "Ġibaret": 5305,
      "fer": 5306,
      "Ġstabil": 5307,
      "Ġokuyun": 5308,
      "Ġalacak": 5309,
      "Ġapproach": 5310,
      "bi": 5311,
      "inking": 5312,
      "Ġtough": 5313,
      "Ġhedefle": 5314,
      "Ġnoktal": 5315,
      "Ġspontaneous": 5316,
      "Ġdeparture": 5317,
      "sadece": 5318,
      "alÄ±sÄ±nÄ±z": 5319,
      "Ġresistance": 5320,
      "ĠuÄŁra": 5321,
      "Ġtemperature": 5322,
      "Ġmutlaka": 5323,
      "Ġlay": 5324,
      "ravel": 5325,
      "Ġflow": 5326,
      "ĠiletiÅŁimi": 5327,
      "ĠhÄ±zlandÄ±r": 5328,
      "ĠyÃ¼ksel": 5329,
      "Ä±lacak": 5330,
      "ĠazaltÄ±n": 5331,
      "ĠkaÄŁÄ±t": 5332,
      "Ġchores": 5333,
      "uyarak": 5334,
      "Ġcabin": 5335,
      "Ġsure": 5336,
      "Ġyiy": 5337,
      "Ġreason": 5338,
      "ĠgÃ¼nkÃ¼": 5339,
      "sal": 5340,
      "ĠÃ§alÄ±ÅŁmayÄ±": 5341,
      "ĠkiÅŁisel": 5342,
      "Ġhikaye": 5343,
      "ĠYaz": 5344,
      "Ġafterward": 5345,
      "luluk": 5346,
      "Ä±yorum": 5347,
      "Ġpati": 5348,
      "enty": 5349,
      "Ġvererek": 5350,
      "Ġorder": 5351,
      "Ã¼zen": 5352,
      "ĠSpend": 5353,
      "ĠkalÄ±cÄ±": 5354,
      "Ġparaphra": 5355,
      "inci": 5356,
      "Ä±yorsanÄ±z": 5357,
      "Ġ426": 5358,
      "Ġsonuna": 5359,
      "ĠseÃ§erek": 5360,
      "Ġplaces": 5361,
      "Ġexplain": 5362,
      "580": 5363,
      "Ġbulup": 5364,
      "Ġbookings": 5365,
      "ĠaÃ§Ä±n": 5366,
      "ĠulaÅŁÄ±m": 5367,
      "gest": 5368,
      "ĠAc": 5369,
      "Ġroutines": 5370,
      "Ġtutarak": 5371,
      "Ġitineraries": 5372,
      "ĠgÃ¶revlerinizi": 5373,
      "Ġcomput": 5374,
      "Ġcategory": 5375,
      "822": 5376,
      "Ġgently": 5377,
      "Ġsoon": 5378,
      "Ġrece": 5379,
      "Ġ415": 5380,
      "**,": 5381,
      "larÄ±nÄ±zÄ±n": 5382,
      "work": 5383,
      "Ġwhy": 5384,
      "Ġacknow": 5385,
      "Ä±nÄ±zla": 5386,
      "andÄ±r": 5387,
      "Ġjourney": 5388,
      "Ġkonuya": 5389,
      "Ġminimize": 5390,
      "Ġrenk": 5391,
      "Ġpiece": 5392,
      "ser": 5393,
      "Ġtab": 5394,
      "dÄ±ÄŁÄ±nÄ±zÄ±": 5395,
      "ÄŁÄ±m": 5396,
      "acaktÄ±r": 5397,
      "ĠyÃ¼ze": 5398,
      "Ġoutcome": 5399,
      "anÄ±p": 5400,
      "ĠyÃ¶ntemi": 5401,
      "Ġgitmek": 5402,
      "ĠKonuÅŁ": 5403,
      "Ġroutes": 5404,
      "rop": 5405,
      "Ġvers": 5406,
      "ĠkaynaÄŁÄ±": 5407,
      "veriÅŁ": 5408,
      "ĠalanlarÄ±": 5409,
      "ĠKendinize": 5410,
      "Ġaccessible": 5411,
      "688": 5412,
      "ĠMayÄ±": 5413,
      "Ġ435": 5414,
      "ĠnumaranÄ±z": 5415,
      "Ġdefining": 5416,
      "Ġhobbies": 5417,
      "388": 5418,
      "Ġforget": 5419,
      "Ġ416": 5420,
      "Ġelinizdeki": 5421,
      "Ġbelirlemektir": 5422,
      "Ġslots": 5423,
      "Ġpower": 5424,
      "Ġokay": 5425,
      "ĠkullanÄ±mÄ±": 5426,
      "tÄ±rarak": 5427,
      "Ġcategories": 5428,
      "Ġbarrier": 5429,
      "Ġfiziksel": 5430,
      "Ġgather": 5431,
      "Ġ436": 5432,
      "Ġtrash": 5433,
      "Ġreinforce": 5434,
      "emm": 5435,
      "Ġcontext": 5436,
      "met": 5437,
      "ĠÃ¶de": 5438,
      "Ġjo": 5439,
      "ĠaÃ§Ä±p": 5440,
      "ĠÃ¶zen": 5441,
      "ĠkeÅŁf": 5442,
      "788": 5443,
      "ral": 5444,
      "Ġseti": 5445,
      "Ġoverall": 5446,
      "Ġoturum": 5447,
      "849": 5448,
      "Ġversus": 5449,
      "ĠYeni": 5450,
      "Ġeat": 5451,
      "829": 5452,
      "ĠBelki": 5453,
      "ĠuyandÄ±ktan": 5454,
      "uss": 5455,
      "Ġcity": 5456,
      "Ġnod": 5457,
      "ayla": 5458,
      "Ġ424": 5459,
      "Ġkitaplar": 5460,
      "ĠGÃ¼ne": 5461,
      "Ġziyaret": 5462,
      "tÄ±racak": 5463,
      "Ġyolculuk": 5464,
      "arlÄ±": 5465,
      "Ġgreat": 5466,
      "ential": 5467,
      "see": 5468,
      "825": 5469,
      "ĠulaÅŁmak": 5470,
      "Ġnecessary": 5471,
      "488": 5472,
      "ĠBefore": 5473,
      "Ġ427": 5474,
      "Ġcevab": 5475,
      "Ġskills": 5476,
      "ĠkolayÄ±": 5477,
      "ĠfÄ±rsa": 5478,
      "ĠyalnÄ±z": 5479,
      "Ġora": 5480,
      "atory": 5481,
      "idden": 5482,
      "Ġworry": 5483,
      "823": 5484,
      "824": 5485,
      "Ġbakarak": 5486,
      "Ġizleyin": 5487,
      "Ġdiscuss": 5488,
      "ĠgÃ¶sterin": 5489,
      "Ġexpectations": 5490,
      "Use": 5491,
      "yet": 5492,
      "Ġsm": 5493,
      "Ġnaz": 5494,
      "ĠÄ°ki": 5495,
      "Ġworks": 5496,
      "821": 5497,
      "ĠKendinizi": 5498,
      "ĠpaylaÅŁÄ±n": 5499,
      "Ġstabilize": 5500,
      "mut": 5501,
      "Ġbild": 5502,
      "Ġ414": 5503,
      "Ġtemizleyin": 5504,
      "Ġpair": 5505,
      "Ġretention": 5506,
      "icul": 5507,
      "Ġverilen": 5508,
      "Ġ437": 5509,
      "Ġ425": 5510,
      "ĠdÃ¼ÅŁÃ¼nd": 5511,
      "most": 5512,
      "ĠÄ±sÄ±": 5513,
      "Ġhyd": 5514,
      "Ġridicul": 5515,
      "Ġsli": 5516,
      "Ġrema": 5517,
      "826": 5518,
      "Ġsending": 5519,
      "ĠTeach": 5520,
      "Ġreh": 5521,
      "ĠÃ¶nerim": 5522,
      "uture": 5523,
      "827": 5524,
      "lantÄ±": 5525,
      "Ġrepeated": 5526,
      "ĠÃ¶ncelikli": 5527,
      "gage": 5528,
      "fully": 5529,
      "Ã¼rÃ¼n": 5530,
      "Ġdeeper": 5531,
      "ĠtamamlayÄ±n": 5532,
      "Ġduration": 5533,
      "ĠhiÃ§bir": 5534,
      "Ġsebz": 5535,
      "ĠMayÄ±s": 5536,
      "vÄ±": 5537,
      "usted": 5538,
      "Ġyola": 5539,
      "Ġ111": 5540,
      "ĠÃ¶nerilir": 5541,
      "Ġ417": 5542,
      "Ġsormak": 5543,
      "Ġegzersizi": 5544,
      "meli": 5545,
      "nden": 5546,
      "ons": 5547,
      "cept": 5548,
      "ĠEkim": 5549,
      "Ġfuture": 5550,
      "Ġ419": 5551,
      "ĠbaÅŁlamadan": 5552,
      "kincisi": 5553,
      "Ġcuri": 5554,
      "Ġcount": 5555,
      "eak": 5556,
      "les": 5557,
      "unting": 5558,
      "ined": 5559,
      "ĠbaÅŁlÄ±k": 5560,
      "Ġ429": 5561,
      "ides": 5562,
      "ĠOnce": 5563,
      "ĠistediÄŁin": 5564,
      "Ġetmektir": 5565,
      "Ġlimits": 5566,
      "ĠaÄŁaÃ§": 5567,
      "lus": 5568,
      "uct": 5569,
      "vest": 5570,
      "Ġeyle": 5571,
      "Ġstra": 5572,
      "ĠkalÄ±n": 5573,
      "elerden": 5574,
      "ĠÃ¶zg": 5575,
      "Ġstratej": 5576,
      "Ġstim": 5577,
      "evap": 5578,
      "ĠeÅŁyadÄ±r": 5579,
      "Ġhalinde": 5580,
      "ebilirim": 5581,
      "588": 5582,
      "Can": 5583,
      "Ġstops": 5584,
      "Ġintense": 5585,
      "uyg": 5586,
      "Ġstepping": 5587,
      "ĠBelirli": 5588,
      "Ġgestures": 5589,
      "anlÄ±k": 5590,
      "Ġ100": 5591,
      "Ġbirbir": 5592,
      "Ġ211": 5593,
      "ĠMay": 5594,
      "lamaya": 5595,
      "Ġyazmak": 5596,
      "Ġbiggest": 5597,
      "ĠyorgunluÄŁ": 5598,
      "ĠbunlarÄ±": 5599,
      "Ġlittle": 5600,
      "Ġyapar": 5601,
      "Ġlez": 5602,
      "ards": 5603,
      "ĠalÄ±ÅŁveriÅŁ": 5604,
      "Ġdrawers": 5605,
      "Ġappointment": 5606,
      "ĠiÃ§i": 5607,
      "check": 5608,
      "Ġhaven": 5609,
      "Ġkutudaki": 5610,
      "ĠKÄ±sa": 5611,
      "ĠkahvaltÄ±": 5612,
      "Ġridiculously": 5613,
      "ĠbeÅŁ": 5614,
      "ĠÄ°Ã§": 5615,
      "Ġbulunan": 5616,
      "ĠOne": 5617,
      "Ġfriendships": 5618,
      "ĠvÃ¼cudunuzun": 5619,
      "Ġmapping": 5620,
      "ĠadÄ±mdÄ±r": 5621,
      "Ġ434": 5622,
      "Ġbecer": 5623,
      "Ġexpenses": 5624,
      "Ġnazik": 5625,
      "ben": 5626,
      "com": 5627,
      "ĠiÃ§erek": 5628,
      "lim": 5629,
      "olog": 5630,
      "Ġfees": 5631,
      "ĠÃ¶ncesi": 5632,
      "ĠyÃ¶nelik": 5633,
      "Ġsince": 5634,
      "Ġjumping": 5635,
      "622": 5636,
      "not": 5637,
      "inle": 5638,
      "ĠBugÃ¼n": 5639,
      "ĠanÄ±": 5640,
      "Ġ445": 5641,
      "ikten": 5642,
      "ucing": 5643,
      "What": 5644,
      "kward": 5645,
      "Ġlik": 5646,
      "ĠÃ¼re": 5647,
      "larÄ±nÄ±n": 5648,
      "Ġdaunting": 5649,
      "ĠÃĸz": 5650,
      "ĠKullan": 5651,
      "Ġgereksiz": 5652,
      "ĠyaÅŁayan": 5653,
      "722": 5654,
      "Ġbes": 5655,
      "ĠyapabileceÄŁiniz": 5656,
      "oling": 5657,
      "Ġlistel": 5658,
      "Ġoblig": 5659,
      "alt": 5660,
      "uma": 5661,
      "ÄŁinde": 5662,
      "Ġkons": 5663,
      "Ġlowers": 5664,
      "409": 5665,
      "Ġaccusing": 5666,
      "ĠÃ¶zellikle": 5667,
      "Ġawkward": 5668,
      "ĠazalÄ±r": 5669,
      "Ġstatement": 5670,
      "isidir": 5671,
      "Ġplay": 5672,
      "Ġetme": 5673,
      "ĠolduÄŁunuzu": 5674,
      "Ġpeak": 5675,
      "Ġbelirlemeniz": 5676,
      "Ġcontinue": 5677,
      "Avoid": 5678,
      "Ġprati": 5679,
      "irken": 5680,
      "Ġ444": 5681,
      "ider": 5682,
      "ĠyÃ¼zer": 5683,
      "Ġhareketleri": 5684,
      "ĠsÃ¼rdÃ¼r": 5685,
      "ially": 5686,
      "Ġbaz": 5687,
      "Ġyes": 5688,
      "Ġalana": 5689,
      "pecially": 5690,
      "ĠÃ§ekim": 5691,
      "tÄ±ÄŁÄ±nÄ±zda": 5692,
      "Ġpaper": 5693,
      "ĠAÄŁust": 5694,
      "Ġatarak": 5695,
      "Ġunutma": 5696,
      "ĠolmadÄ±ÄŁÄ±nÄ±": 5697,
      "ĠeÅŁyalar": 5698,
      "Ġappointments": 5699,
      "uoling": 5700,
      "ĠplanlÄ±": 5701,
      "old": 5702,
      "Ġcancel": 5703,
      "ĠgeÃ§miÅŁ": 5704,
      "Ġcommitments": 5705,
      "Ġbekl": 5706,
      "Ġbekleyin": 5707,
      "Ġdelay": 5708,
      "Ġentry": 5709,
      "uolingo": 5710,
      "Ġstating": 5711,
      "Ġzorun": 5712,
      "Ġ439": 5713,
      "Ġ150": 5714,
      "Ġweekend": 5715,
      "ĠÃ¶ÄŁrenmeyi": 5716,
      "Ġespecially": 5717,
      "ĠayÄ±nda": 5718,
      "leyecek": 5719,
      "leyici": 5720,
      "Ġetti": 5721,
      "ĠokumayÄ±": 5722,
      "uzu": 5723,
      "Ġmiss": 5724,
      "ĠaydÄ±rdÄ±": 5725,
      "522": 5726,
      "Ġalig": 5727,
      "ĠTravel": 5728,
      "ĠzamanÄ±nÄ±zÄ±": 5729,
      "layacak": 5730,
      "509": 5731,
      "Ġhissetti": 5732,
      "acaÄŁÄ±m": 5733,
      "Ġdikkatli": 5734,
      "mamak": 5735,
      "Ġpa": 5736,
      "Ġkil": 5737,
      "Ã¼yor": 5738,
      "ĠsÃ¼resini": 5739,
      "Ġyorgunluk": 5740,
      "422": 5741,
      "ame": 5742,
      "Ġnor": 5743,
      "ĠEat": 5744,
      "acÄ±": 5745,
      "Ġsoft": 5746,
      "Ġalmost": 5747,
      "Ġetmeyi": 5748,
      "ĠGÃ¶rev": 5749,
      "Ġdal": 5750,
      "Ġjar": 5751,
      "ĠKayÄ±t": 5752,
      "ĠsaÄŁlamak": 5753,
      "ĠkatÄ±l": 5754,
      "Ġvalidating": 5755,
      "Ġpiles": 5756,
      "Ãĩ": 5757,
      "Ġslight": 5758,
      "Ġhidden": 5759,
      "Ġdok": 5760,
      "Ġmar": 5761,
      "ĠbaÅŁlayabilir": 5762,
      "Ġintentional": 5763,
      "Ġconcent": 5764,
      "ÅŁe": 5765,
      "ĠgÃ¼zel": 5766,
      "ĠyerleÅŁ": 5767,
      "ĠbÃ¶lÃ¼n": 5768,
      "ĠsÄ±rasÄ±nda": 5769,
      "Ġincrease": 5770,
      "Ġmultitasking": 5771,
      "pr": 5772,
      "rog": 5773,
      "Ġkan": 5774,
      "Ġkonular": 5775,
      "Ġ446": 5776,
      "Ġwilling": 5777,
      "ĠWork": 5778,
      "Ġmotivasyonu": 5779,
      "lenen": 5780,
      "Ġcategorize": 5781,
      "ĠÃĸneri": 5782,
      "Ġpast": 5783,
      "Ġgrate": 5784,
      "Ġbeats": 5785,
      "ĠyapÄ±l": 5786,
      "Ġseviyesini": 5787,
      "ĠHafta": 5788,
      "Ġavailable": 5789,
      "Ġsolutions": 5790,
      "Ġvadeli": 5791,
      "Ġgrateful": 5792,
      "eet": 5793,
      "Ġbri": 5794,
      "Ġyay": 5795,
      "ĠBah": 5796,
      "ĠyaÅŁa": 5797,
      "Ġrush": 5798,
      "Ġvi": 5799,
      "Ġkoyarak": 5800,
      "Ġstoring": 5801,
      "bilirsin": 5802,
      "rack": 5803,
      "ĠÃĸnceki": 5804,
      "Ġairlines": 5805,
      "Ġtavsiy": 5806,
      "elere": 5807,
      "ĠayÄ±rt": 5808,
      "ĠgÃ¼nler": 5809,
      "Ġtempt": 5810,
      "elerin": 5811,
      "aÄŁa": 5812,
      "Ġrefle": 5813,
      "Ã¼ÄŁÃ¼nÃ¼z": 5814,
      "Ġindirin": 5815,
      "Ġstruct": 5816,
      "shop": 5817,
      "ĠyapÄ±sÄ±nÄ±": 5818,
      "Ġderinlemesine": 5819,
      "acaÄŁÄ±nÄ±": 5820,
      "Ġkaynat": 5821,
      "ĠmÃ¼mkÃ¼nse": 5822,
      "titu": 5823,
      "ĠbeÄŁ": 5824,
      "ĠaracÄ±": 5825,
      "Ġspaced": 5826,
      "Ġduygusal": 5827,
      "ĠharitasÄ±": 5828,
      "Sadece": 5829,
      "lict": 5830,
      "ĠbaÅŁÄ±nÄ±za": 5831,
      "Ġmovi": 5832,
      "Ġkonak": 5833,
      "ĠbaÅŁlayabilirsin": 5834,
      "709": 5835,
      "Ġsuppress": 5836,
      "lÃ¼ÄŁ": 5837,
      "Ġpatter": 5838,
      "Create": 5839,
      "yse": 5840,
      "Ġyazar": 5841,
      "Ġkolayca": 5842,
      "Ġprice": 5843,
      "Ġdisrupts": 5844,
      "ĠSÃ¼rekli": 5845,
      "ĠAÄŁustos": 5846,
      "Ġslightly": 5847,
      "960": 5848,
      "bal": 5849,
      "elerini": 5850,
      "Ġmuh": 5851,
      "Ġconflict": 5852,
      "Ġrutini": 5853,
      "abilecek": 5854,
      "Ġproductive": 5855,
      "ĠHayat": 5856,
      "Ġnormal": 5857,
      "ĠFind": 5858,
      "Ġhareketler": 5859,
      "Ġdeciding": 5860,
      "Ġilerlemenizi": 5861,
      "Ġdah": 5862,
      "ysanÄ±z": 5863,
      "Ġaktif": 5864,
      "Ġilerle": 5865,
      "Ġhappy": 5866,
      "Ġengaged": 5867,
      "alan": 5868,
      "oci": 5869,
      "ilebilir": 5870,
      "Ġ200": 5871,
      "Ġ160": 5872,
      "ĠkullanÄ±l": 5873,
      "Ġuygulamaya": 5874,
      "Ġgetirin": 5875,
      "Ġfrustrated": 5876,
      "Ġsul": 5877,
      "Ġikinci": 5878,
      "Ġ133": 5879,
      "405": 5880,
      "704": 5881,
      "Ġreaching": 5882,
      "ĠsÃ¼recini": 5883,
      "ĠolduÄŁunca": 5884,
      "ĠÃ¶nerileri": 5885,
      "Ġlog": 5886,
      "Ġ106": 5887,
      "Ġ190": 5888,
      "408": 5889,
      "Ġconfus": 5890,
      "ĠErken": 5891,
      "Ġsignificantly": 5892,
      "Ġnodding": 5893,
      ".'": 5894,
      "dil": 5895,
      "xim": 5896,
      "Ġsust": 5897,
      "Ġeyes": 5898,
      "celi": 5899,
      "ĠyÃ¶ntemdir": 5900,
      "ĠsÄ±caklÄ±": 5901,
      "Ġassoci": 5902,
      "ĠiÃ§eren": 5903,
      "ĠbaÅŁlangÄ±c": 5904,
      "Go": 5905,
      "gÄ±n": 5906,
      "ĠPM": 5907,
      "Ġseven": 5908,
      "404": 5909,
      "406": 5910,
      "ĠhaftalÄ±k": 5911,
      "ĠkitabÄ±n": 5912,
      "Ġswims": 5913,
      "Ġsitting": 5914,
      "top": 5915,
      "endir": 5916,
      "Ã¼kemm": 5917,
      "Ġ70": 5918,
      "Ġoverth": 5919,
      "tadÄ±r": 5920,
      "407": 5921,
      "504": 5922,
      "ĠnetleÅŁtirin": 5923,
      "reci": 5924,
      "lerken": 5925,
      "mÄ±ÅŁtÄ±r": 5926,
      "Ġshows": 5927,
      "Ġobject": 5928,
      "Ġbitirin": 5929,
      "Ġsearch": 5930,
      "gon": 5931,
      "veya": 5932,
      "Ġresearch": 5933,
      "Ġgerektir": 5934,
      "Ġstopping": 5935,
      "ĠaraÃ§larÄ±": 5936,
      "Ġtarif": 5937,
      "Ġnearby": 5938,
      "hotoshop": 5939,
      "gre": 5940,
      "linde": 5941,
      "ĠadÄ±mÄ±nÄ±": 5942,
      "malarÄ±": 5943,
      "Ġappreci": 5944,
      "licit": 5945,
      "Set": 5946,
      "esine": 5947,
      "Ġkurul": 5948,
      "508": 5949,
      "Ġcommitment": 5950,
      "ĠkapalÄ±": 5951,
      "ĠkolaylaÅŁtÄ±rmak": 5952,
      "oloj": 5953,
      "Ġkum": 5954,
      "Ġkalp": 5955,
      "Ġdille": 5956,
      "401": 5957,
      "506": 5958,
      "ĠtÃ¼rden": 5959,
      "Ġbulunur": 5960,
      "ĠÃ¶ÄŁleden": 5961,
      "Ġsearching": 5962,
      "ĠyumuÅŁak": 5963,
      "resh": 5964,
      "ilere": 5965,
      "ĠgÃ¼nlerde": 5966,
      "Ġolaca": 5967,
      "Ġfear": 5968,
      "Ġetmeniz": 5969,
      "Ġkendiniz": 5970,
      "ĠkonuÅŁmalar": 5971,
      "702": 5972,
      "Ġtakv": 5973,
      "ĠsaÄŁlayan": 5974,
      "Ġsubject": 5975,
      "habit": 5976,
      "Ġfam": 5977,
      "ĠzorluÄŁ": 5978,
      "Ġ105": 5979,
      "Ġgarden": 5980,
      "Ġformulating": 5981,
      "Ġkavram": 5982,
      "ĠkeÅŁfed": 5983,
      "Ġmix": 5984,
      "Ġ48": 5985,
      "elerinizi": 5986,
      "403": 5987,
      "505": 5988,
      "705": 5989,
      "alarÄ±nÄ±": 5990,
      "ĠInvite": 5991,
      "cu": 5992,
      "ndle": 5993,
      "rete": 5994,
      "ĠEvet": 5995,
      "Ġdiz": 5996,
      "Ġ57": 5997,
      "Ġyazarak": 5998,
      "402": 5999,
      "503": 6000,
      "703": 6001,
      "ĠdÃ¼ÅŁÃ¼nce": 6002,
      "Ġyatmak": 6003,
      "Ġbehaviors": 6004,
      "Ġengaging": 6005,
      "ĠSpeak": 6006,
      "ĠkÄ±sÄ±t": 6007,
      "Ġtrusted": 6008,
      "siyon": 6009,
      "Ġgerekecek": 6010,
      "507": 6011,
      "Ġensures": 6012,
      "ĠtemizliÄŁi": 6013,
      "Ġgidip": 6014,
      "...\")": 6015,
      "Ġhuzurlu": 6016,
      "ned": 6017,
      "Ġrele": 6018,
      "Ġreally": 6019,
      "ĠÄ°kincisi": 6020,
      "ayÄ±m": 6021,
      "ĠÃ¶nerisi": 6022,
      "Ġ156": 6023,
      "Ġnoise": 6024,
      "Ġ187": 6025,
      "Ġunderstands": 6026,
      "Ġekleyip": 6027,
      "501": 6028,
      "706": 6029,
      "Ġimpul": 6030,
      "Ġiyisidir": 6031,
      "ĠdÃ¼zelt": 6032,
      "wake": 6033,
      "Ġtuz": 6034,
      "lanacak": 6035,
      "mekle": 6036,
      "ersiniz": 6037,
      "Ġ147": 6038,
      "ĠÃĸncelik": 6039,
      "ĠolanÄ±": 6040,
      "502": 6041,
      "701": 6042,
      "708": 6043,
      "Ġtelefonunuza": 6044,
      "Ä±ndaki": 6045,
      "Ġfore": 6046,
      "Ġ311": 6047,
      "Ġettir": 6048,
      "Ġopini": 6049,
      "Ġhayatta": 6050,
      "Ġprefer": 6051,
      "ĠGÃ¶r": 6052,
      "unuzdan": 6053,
      "Ġbasic": 6054,
      "ĠbaÅŁlamayÄ±": 6055,
      "707": 6056,
      "ĠsÄ±fÄ±r": 6057,
      "ĠparÃ§alara": 6058,
      "Ġmalzemeleri": 6059,
      "ĠiÅŁlemi": 6060,
      "Ġkafa": 6061,
      "Ġlikely": 6062,
      "Ġstructure": 6063,
      "isf": 6064,
      "umlu": 6065,
      "Ã¶yle": 6066,
      "Ġ154": 6067,
      "Ġarada": 6068,
      "Ġmekan": 6069,
      "ĠfotoÄŁrafÃ§Ä±": 6070,
      "Ġtrips": 6071,
      "Ġaccount": 6072,
      "Ġlose": 6073,
      "ĠoluÅŁturur": 6074,
      "ĠÄ±s": 6075,
      "Ġtidying": 6076,
      "olute": 6077,
      "Ġabsolute": 6078,
      "Ġdraining": 6079,
      "Ġbis": 6080,
      "Ġmask": 6081,
      "ept": 6082,
      "Ġ54": 6083,
      "Ġ140": 6084,
      "ĠdoÄŁrul": 6085,
      "Ġtension": 6086,
      "ĠÃ¶nceliklendir": 6087,
      "Ġsatisf": 6088,
      "Eat": 6089,
      "mis": 6090,
      "tionally": 6091,
      "Ġmist": 6092,
      "Ġ112": 6093,
      "Ġshower": 6094,
      "Ġneg": 6095,
      "Ġ447": 6096,
      "ters": 6097,
      "evcut": 6098,
      "Ġ109": 6099,
      "ĠolmasÄ±nÄ±": 6100,
      "ĠDÃ¼zen": 6101,
      "ĠTrack": 6102,
      "Ġfar": 6103,
      "lasik": 6104,
      "uge": 6105,
      "Ġark": 6106,
      "ĠFrog": 6107,
      "Ġcompletion": 6108,
      "Ġelde": 6109,
      "Ġmissing": 6110,
      "Ġmaxim": 6111,
      "Ġazaltmak": 6112,
      "Ġmedya": 6113,
      "Ġport": 6114,
      "Ġtu": 6115,
      "Ġ422": 6116,
      "Ġworkout": 6117,
      "ĠuygulamalarÄ±": 6118,
      "osing": 6119,
      "Ġaddress": 6120,
      "Ġclarify": 6121,
      "ĠConsistent": 6122,
      "Ġconcrete": 6123,
      "Ġonunla": 6124,
      "Ġparaphrasing": 6125,
      "Ġbildirim": 6126,
      "Ġjargon": 6127,
      "pit": 6128,
      "tile": 6129,
      "orm": 6130,
      "Ġbey": 6131,
      "ĠGÃ¼ven": 6132,
      "Ġ47": 6133,
      "Ġ127": 6134,
      "249": 6135,
      "ĠvÃ¼cudun": 6136,
      "erti": 6137,
      "ĠBun": 6138,
      "Ä±rÄ±": 6139,
      "eceÄŁiniz": 6140,
      "Ġovercome": 6141,
      "Ġhedefinize": 6142,
      "ĠdÃ¼ÅŁÃ¼k": 6143,
      "Ġhaline": 6144,
      "ĠgeÃ§irmek": 6145,
      "ĠeÅŁyalarÄ±": 6146,
      "Ġindirip": 6147,
      "racak": 6148,
      "Ġfour": 6149,
      "Ġveren": 6150,
      "Ġ46": 6151,
      "Ġ49": 6152,
      "Ġ56": 6153,
      "ĠyÃ¼zey": 6154,
      "Ġhissini": 6155,
      "ĠUyk": 6156,
      "ĠtÃ¼ket": 6157,
      "aten": 6158,
      "ĠgÃ¼ne": 6159,
      "ĠHav": 6160,
      "otob": 6161,
      "ĠkaydÄ±n": 6162,
      "ions": 6163,
      "night": 6164,
      "lenmiÅŁ": 6165,
      "ĠMotivasyon": 6166,
      "ĠamaÃ§la": 6167,
      "Ġupdates": 6168,
      "Do": 6169,
      "cri": 6170,
      "du": 6171,
      "gth": 6172,
      "kÃ¼r": 6173,
      "Ġpil": 6174,
      "Ġneut": 6175,
      "sÄ±yla": 6176,
      "Ġcome": 6177,
      "Ġistiyor": 6178,
      "ĠsÃ¼reyi": 6179,
      "ĠÅŁeyin": 6180,
      "Ġmessy": 6181,
      "larÄ±nÄ±za": 6182,
      "Ã¼kemmel": 6183,
      "tuÄŁ": 6184,
      "Ġ212": 6185,
      "Ġ411": 6186,
      "ĠÅŁudur": 6187,
      "Ġelinizde": 6188,
      "ĠolduÄŁuna": 6189,
      "Ġpriority": 6190,
      "Ġawake": 6191,
      "Ġinitially": 6192,
      "Ġhit": 6193,
      "Ġvs": 6194,
      "ĠyÃ¼rÃ¼yÃ¼ÅŁÃ¼": 6195,
      "areket": 6196,
      "Ġtelefonun": 6197,
      "phone": 6198,
      "ĠgÃ¶zlemleyin": 6199,
      "Merhaba": 6200,
      "One": 6201,
      "va": 6202,
      "Ġ$": 6203,
      "ism": 6204,
      "Ġclu": 6205,
      "Ġfla": 6206,
      "Ġsomut": 6207,
      "Ġ59": 6208,
      "ĠÃ¶ÄŁrenmenin": 6209,
      "Ġ206": 6210,
      "ĠyÃ¼rÃ¼yÃ¼n": 6211,
      "Ġ170": 6212,
      "Ġ124": 6213,
      "larÄ±nÄ±zla": 6214,
      "Ġdeadline": 6215,
      "ĠyaygÄ±n": 6216,
      "urance": 6217,
      "Ġanlamaya": 6218,
      "ĠgÃ¶ÄŁ": 6219,
      "Ġotom": 6220,
      "Ġ175": 6221,
      "ĠÃ§alÄ±ÅŁarak": 6222,
      "ĠÅŀimdi": 6223,
      "Ġtespit": 6224,
      "Ġtype": 6225,
      "Ġneutral": 6226,
      "How": 6227,
      "anti": 6228,
      "ĠSÄ±k": 6229,
      "Ġplanlamak": 6230,
      "uduÄŁ": 6231,
      "Ġnotice": 6232,
      "Ġ177": 6233,
      "Ġsaatlerinizi": 6234,
      "Ġexpand": 6235,
      "Ġyoldur": 6236,
      "Ġortadan": 6237,
      "ĠbahÃ§enize": 6238,
      "Ġamount": 6239,
      "Ġistersiniz": 6240,
      "ĠgerektiÄŁini": 6241,
      "Ġlezzet": 6242,
      "Ġclub": 6243,
      "Durum": 6244,
      "Ġnut": 6245,
      "temelen": 6246,
      "Ġinerti": 6247,
      "ĠayÄ±rdÄ±ÄŁÄ±nÄ±": 6248,
      "ĠGen": 6249,
      "ekkÃ¼r": 6250,
      "ĠdeÄŁerli": 6251,
      "Ġ185": 6252,
      "Ġsaatlerini": 6253,
      "ĠkarÅŁÄ±laÅŁacak": 6254,
      "Ġyetenek": 6255,
      "Ġbisik": 6256,
      "Ġinertia": 6257,
      "masÄ±na": 6258,
      "ayÄ±f": 6259,
      "oken": 6260,
      "Ġlun": 6261,
      "Ġ167": 6262,
      "Ġ125": 6263,
      "609": 6264,
      "Ġpassively": 6265,
      "Ġvalidate": 6266,
      "iliar": 6267,
      "Ġdahil": 6268,
      "veni": 6269,
      "Ġ89": 6270,
      "Ġ126": 6271,
      "ĠgerÃ§ekleÅŁ": 6272,
      "gÃ¶r": 6273,
      "oz": 6274,
      "suz": 6275,
      "you": 6276,
      "Ġspread": 6277,
      "Ġ157": 6278,
      "ification": 6279,
      "Ġworkday": 6280,
      "cies": 6281,
      "tedir": 6282,
      "Ġenerjinizi": 6283,
      "Ġglasses": 6284,
      "Ġchoosing": 6285,
      "Ġnedeni": 6286,
      "break": 6287,
      "ulara": 6288,
      "Ġbulmaya": 6289,
      "ĠÃ¶nem": 6290,
      "Ġ196": 6291,
      "Ġ189": 6292,
      "ĠbaÅŁlamanÄ±zÄ±": 6293,
      "ĠdÃ¼zenleyin": 6294,
      "Ġhata": 6295,
      "ĠsÃ¶yleyin": 6296,
      "cting": 6297,
      "ale": 6298,
      "Ġmas": 6299,
      "active": 6300,
      "ĠeriÅŁ": 6301,
      "608": 6302,
      "Ãĸner": 6303,
      "Ġhiking": 6304,
      "Ġrefresh": 6305,
      "Ġbelirtilen": 6306,
      "App": 6307,
      "alama": 6308,
      "ĠuyanÄ±p": 6309,
      "Ġtip": 6310,
      "Ġanswers": 6311,
      "Ġ107": 6312,
      "ups": 6313,
      "Ġlists": 6314,
      "Ġeklemek": 6315,
      "Ġrewarding": 6316,
      "ĠyaptÄ±ÄŁÄ±nÄ±zÄ±": 6317,
      "Ġpopular": 6318,
      "Ġdisrupt": 6319,
      "Ġdefteri": 6320,
      "ĠuÄŁraÅŁ": 6321,
      "Ġ176": 6322,
      "Ġinteres": 6323,
      "Ġ186": 6324,
      "607": 6325,
      "ĠbÄ±rakmak": 6326,
      "diÄŁini": 6327,
      "Ġhissetmeye": 6328,
      "Ġcompli": 6329,
      "ĠkiÅŁiyle": 6330,
      "Ġmakinesini": 6331,
      "Ġcombat": 6332,
      "Ġtuval": 6333,
      "lation": 6334,
      "enizin": 6335,
      "Ġ155": 6336,
      "Ġ184": 6337,
      "ĠayarlarÄ±nÄ±": 6338,
      "Ġizlemek": 6339,
      "titude": 6340,
      "Ġple": 6341,
      "Ġ113": 6342,
      "Ġgiy": 6343,
      "ĠBasit": 6344,
      "Ġstren": 6345,
      "ĠanlÄ±": 6346,
      "asÄ±n": 6347,
      "mall": 6348,
      "Ġkullanabilirsiniz": 6349,
      "Ġsuda": 6350,
      "Ġdeneyerek": 6351,
      "Ġinterrupt": 6352,
      "ĠbÃ¼tÃ§enizi": 6353,
      "ĠÃ¶dev": 6354,
      "Ġneler": 6355,
      "ĠkÄ±ya": 6356,
      "Ġevinizdeki": 6357,
      "celer": 6358,
      "Ġ199": 6359,
      "Ġ145": 6360,
      "ĠgeÃ§en": 6361,
      "Ġkurt": 6362,
      "ĠgÃ¶rÃ¼nÃ¼": 6363,
      "604": 6364,
      "Ġsorunun": 6365,
      "Ġgrand": 6366,
      "Ġelectronics": 6367,
      "Ġsites": 6368,
      "ĠAccept": 6369,
      "kÃ¼Ã§Ã¼k": 6370,
      "ĠÃ¼rÃ¼n": 6371,
      "Ġreducing": 6372,
      "605": 6373,
      "Ġconnected": 6374,
      "Ġjudging": 6375,
      "Ġcolor": 6376,
      "can": 6377,
      "vis": 6378,
      "ĠÃ¶neriye": 6379,
      "ĠÃ§Ã¶": 6380,
      "Ġ104": 6381,
      "ĠfotoÄŁrafÄ±": 6382,
      "Ġ144": 6383,
      "Ġ165": 6384,
      "602": 6385,
      "ĠsÄ±vÄ±": 6386,
      "Ġimproves": 6387,
      "Ġclothing": 6388,
      "Ġconsider": 6389,
      "Ġfiyat": 6390,
      "Ä±rsÄ±nÄ±z": 6391,
      "ĠyaÄŁ": 6392,
      "Ġ76": 6393,
      "Ã¼ÅŁÃ¼n": 6394,
      "ĠÃ¶ÄŁÃ¼n": 6395,
      "Ġworri": 6396,
      "Ġ146": 6397,
      "ĠbaÅŁlamalÄ±sÄ±nÄ±z": 6398,
      "ĠdÃ¼zenlemek": 6399,
      "603": 6400,
      "ĠÅŁeklinde": 6401,
      "diÄŁin": 6402,
      "Ġclarification": 6403,
      "ĠsaÄŁlayarak": 6404,
      "ĠTelefonu": 6405,
      "Ġrehber": 6406,
      "ises": 6407,
      "Ġsunu": 6408,
      "ouch": 6409,
      "Ġklasik": 6410,
      "Ġ197": 6411,
      "Ġ360": 6412,
      "601": 6413,
      "606": 6414,
      "Ġtamamlamak": 6415,
      "ĠgÃ¶revler": 6416,
      "Ġmemorize": 6417,
      "Ġarrival": 6418,
      "Ġtarget": 6419,
      "Ġslip": 6420,
      "Ġconcentration": 6421,
      "Ġmovie": 6422,
      "Ġotob": 6423,
      "Ġblo": 6424,
      "Ġdele": 6425,
      "acaÄŁÄ±": 6426,
      "start": 6427,
      "Ġ250": 6428,
      "Ġ149": 6429,
      "ĠodaklanÄ±p": 6430,
      "Ġhareketi": 6431,
      "ĠtÃ¼rÃ¼nÃ¼": 6432,
      "Ġderinlik": 6433,
      "ĠuyanÄ±ÅŁ": 6434,
      "Ġinitiating": 6435,
      "Ġnutri": 6436,
      "sen": 6437,
      "inÃ§": 6438,
      "Ã¼cut": 6439,
      "usuna": 6440,
      "ÄŁinize": 6441,
      "ĠÃ§ab": 6442,
      "ĠÃ¶nÃ¼ne": 6443,
      "Ġ75": 6444,
      "Ġ179": 6445,
      "ĠbaÅŁarÄ±lar": 6446,
      "ĠhoÅŁ": 6447,
      "ebilirsin": 6448,
      "bbing": 6449,
      "Ġpassive": 6450,
      "Ġkutular": 6451,
      "Ġetkinlik": 6452,
      "Ġpod": 6453,
      "ases": 6454,
      "Ġ194": 6455,
      "Ġ129": 6456,
      "Ġtelefonla": 6457,
      "essential": 6458,
      "Ġbeklemek": 6459,
      "Ġfailure": 6460,
      "ĠanlaÅŁÄ±lÄ±r": 6461,
      "Ġcabinet": 6462,
      "gency": 6463,
      "anÄ±ÅŁ": 6464,
      "Ġsuy": 6465,
      "ĠSur": 6466,
      "Ġ233": 6467,
      "Ġbuy": 6468,
      "Ġkalma": 6469,
      "Ġexplicit": 6470,
      "ĠhazÄ±rlamak": 6471,
      "ĠÄ±ÅŁÄ±ÄŁÄ±nÄ±": 6472,
      "Ġidea": 6473,
      "soli": 6474,
      "Ġnavigate": 6475,
      "Zaman": 6476,
      "oice": 6477,
      "ĠkonularÄ±": 6478,
      "ĠatÄ±ÅŁ": 6479,
      "Ġ166": 6480,
      "ĠiÅŁin": 6481,
      "ĠiÃ§erik": 6482,
      "Ġexperience": 6483,
      "mini": 6484,
      "ounda": 6485,
      "ĠkÄ±r": 6486,
      "Ġig": 6487,
      "Ġfounda": 6488,
      "Ġresmi": 6489,
      "ĠÃ¶nlemek": 6490,
      "Ġyerlere": 6491,
      "Ġ209": 6492,
      "Ġ139": 6493,
      "ĠKendine": 6494,
      "Ġalanda": 6495,
      "ĠduyduÄŁunuz": 6496,
      "Ġmonths": 6497,
      "ĠsoÄŁuk": 6498,
      "Ġmuhtemelen": 6499,
      "Ġpodcast": 6500,
      "roc": 6501,
      "Ġdizi": 6502,
      "Ġface": 6503,
      "lated": 6504,
      "Ġ333": 6505,
      "ĠfotoÄŁraflarÄ±": 6506,
      "Ġyakal": 6507,
      "Ġolursa": 6508,
      "Ġshoes": 6509,
      "Ġspreadsh": 6510,
      "ĠSurround": 6511,
      "Cevap": 6512,
      "Not": 6513,
      "Ä±ÄŁÄ±": 6514,
      "ceed": 6515,
      "ĠKal": 6516,
      "ĠÃ§ekmeye": 6517,
      "ĠsabahÄ±": 6518,
      "ĠkonuÅŁacak": 6519,
      "Ġsunar": 6520,
      "Ġtelefonunuzdaki": 6521,
      "Ġassign": 6522,
      "ĠHafif": 6523,
      "Ġconcer": 6524,
      "Ġharcam": 6525,
      "Ġmerk": 6526,
      "Ġwebsite": 6527,
      "eÃ§": 6528,
      "yÄ±m": 6529,
      "ĠÃ¼st": 6530,
      "Ġolsa": 6531,
      "ĠplanÄ±nÄ±": 6532,
      "Ġ74": 6533,
      "Ġistek": 6534,
      "ĠkonuÅŁun": 6535,
      "Ġdinlemek": 6536,
      "ĠboÅŁluk": 6537,
      "Ġlunch": 6538,
      "Ġign": 6539,
      "ĠBatch": 6540,
      "ored": 6541,
      "elerle": 6542,
      "Ġdenem": 6543,
      "Ġsana": 6544,
      "Ġenerjiyi": 6545,
      "Ġsinir": 6546,
      "Ġkaybol": 6547,
      "Ġtwenty": 6548,
      "Ġoverthinking": 6549,
      "Ġstrength": 6550,
      "pause": 6551,
      "tÄ±ktan": 6552,
      "yan": 6553,
      "Ġ290": 6554,
      "Ġisim": 6555,
      "ĠbuluÅŁuyor": 6556,
      "ĠbaÅŁlatmak": 6557,
      "ĠbaÅŁlatabilirsiniz": 6558,
      "Ġ159": 6559,
      "lights": 6560,
      "Ġeffici": 6561,
      "Ġaktiviteleri": 6562,
      "ĠbaskÄ±": 6563,
      "Ġacknowledge": 6564,
      "Ġkonaklama": 6565,
      "yÃ¼z": 6566,
      "Ġour": 6567,
      "Ġbol": 6568,
      "Ġbahsed": 6569,
      "Ġ195": 6570,
      "ĠolduÄŁunda": 6571,
      "Ġdurmak": 6572,
      "ĠSabahÄ±n": 6573,
      "Ġbigger": 6574,
      "Ġduvara": 6575,
      "yoga": 6576,
      "Ġ132": 6577,
      "Ġekip": 6578,
      "lies": 6579,
      "ĠyazÄ±p": 6580,
      "Ġanlama": 6581,
      "Ġ87": 6582,
      "Ġ207": 6583,
      "Ġ174": 6584,
      "portun": 6585,
      "ĠaÃ§mak": 6586,
      "ĠÃ¶zellik": 6587,
      "Ġspaces": 6588,
      "Ġchallenges": 6589,
      "Ġsenary": 6590,
      "uses": 6591,
      "Ġdish": 6592,
      "ĠayrÄ±": 6593,
      "Ġ79": 6594,
      "Ġduruma": 6595,
      "Ġ119": 6596,
      "Ġopportun": 6597,
      "Ġvisually": 6598,
      "osity": 6599,
      "Ġinsurance": 6600,
      "Ġsustain": 6601,
      "insel": 6602,
      "related": 6603,
      "urn": 6604,
      "Ġonay": 6605,
      "ĠLÃ¼tfen": 6606,
      "Ġdedicating": 6607,
      "ĠLearn": 6608,
      "ĠuyandÄ±": 6609,
      "Ġkalitesini": 6610,
      "Ġcomputers": 6611,
      "Ġkilit": 6612,
      "ĠgÃ¶rÃ¼nÃ¼yor": 6613,
      "kes": 6614,
      "ÄŁinden": 6615,
      "ict": 6616,
      "usuz": 6617,
      "Ġche": 6618,
      "Ġ55": 6619,
      "Ä±nÄ±zdan": 6620,
      "Ġdownload": 6621,
      "Ġmindset": 6622,
      "Ġparal": 6623,
      "Ġliving": 6624,
      "Ġsnacks": 6625,
      "Ġkaliteli": 6626,
      "Pair": 6627,
      "isine": 6628,
      "Ġfits": 6629,
      "Ġadedi": 6630,
      "lid": 6631,
      "ading": 6632,
      "Ġvoice": 6633,
      "ĠAyda": 6634,
      "manÄ±zdÄ±r": 6635,
      "Ġtelefonunu": 6636,
      "Ġgrabbing": 6637,
      "Ġkeyif": 6638,
      "fety": 6639,
      "ĠiliÅŁkil": 6640,
      "Ġgeneral": 6641,
      "Ġfacts": 6642,
      "GÃ¼nlÃ¼k": 6643,
      "inct": 6644,
      "urun": 6645,
      "ĠDef": 6646,
      "Ġsolid": 6647,
      "ĠbaÅŁta": 6648,
      "Ġcha": 6649,
      "ĠdeÄŁiÅŁtirmek": 6650,
      "ĠaldÄ±": 6651,
      "tiÅŁime": 6652,
      "Ġdurun": 6653,
      "ĠsayÄ±sÄ±nÄ±": 6654,
      "mesine": 6655,
      "Ġbilgisi": 6656,
      "Ġgratitude": 6657,
      "ĠÃ§imen": 6658,
      "Ġcuriosity": 6659,
      "onu": 6660,
      "Ġhiz": 6661,
      "str": 6662,
      "ĠvÃ¼cut": 6663,
      "Ġ300": 6664,
      "Ġ270": 6665,
      "ĠdoÄŁa": 6666,
      "Ġrepla": 6667,
      "ĠuygulamayÄ±": 6668,
      "Ġdinner": 6669,
      "yorsan": 6670,
      "undry": 6671,
      "ĠuzaklaÅŁ": 6672,
      "Ġdeneme": 6673,
      "Ġyu": 6674,
      "Ġstays": 6675,
      "Ġbura": 6676,
      "Ã¼yÃ¼": 6677,
      "Ġ164": 6678,
      "ĠkaygÄ±": 6679,
      "tÄ±cÄ±": 6680,
      "Ġ370": 6681,
      "ĠhaftanÄ±n": 6682,
      "Ã¶zellikle": 6683,
      "abileceÄŁin": 6684,
      "Ġphotos": 6685,
      "Ġhavada": 6686,
      "Google": 6687,
      "ham": 6688,
      "oot": 6689,
      "Ġconve": 6690,
      "ories": 6691,
      "Ġdile": 6692,
      "Ġwould": 6693,
      "imle": 6694,
      "ĠÄ°lg": 6695,
      "Ġliste": 6696,
      "Ġlistesi": 6697,
      "ĠfotoÄŁrafÄ±nÄ±zÄ±": 6698,
      "ĠsorunlarÄ±nÄ±": 6699,
      "Ġdinleyin": 6700,
      "Ġconnectivity": 6701,
      "Ġsanat": 6702,
      "Ġinterruption": 6703,
      "Ġfrustration": 6704,
      "Ġinceleyerek": 6705,
      "imdilik": 6706,
      "sApp": 6707,
      "Ġ86": 6708,
      "ĠKah": 6709,
      "anÄ±zda": 6710,
      "Ġ350": 6711,
      "Ġlaundry": 6712,
      "ĠhazÄ±rlan": 6713,
      "Ġmesajlar": 6714,
      "Ġrelated": 6715,
      "ĠsevdiÄŁiniz": 6716,
      "ĠkurallarÄ±nÄ±": 6717,
      "ĠgÃ¼nÃ¼nÃ¼zÃ¼": 6718,
      "ĠTVs": 6719,
      "kt": 6720,
      "ote": 6721,
      "Ġversa": 6722,
      "rep": 6723,
      "yseniz": 6724,
      "Ã¼nc": 6725,
      "Ġ390": 6726,
      "ecause": 6727,
      "ade": 6728,
      "amanÄ±z": 6729,
      "eynman": 6730,
      "Ġ85": 6731,
      "Ġtopra": 6732,
      "Ġ204": 6733,
      "Ġ260": 6734,
      "ĠsÄ±kÄ±cÄ±": 6735,
      "ĠbaÄŁlam": 6736,
      "ĠpaylaÅŁmak": 6737,
      "oÄŁu": 6738,
      "Ġdepends": 6739,
      "Ġmesafe": 6740,
      "ĠsaÄŁlayacaktÄ±r": 6741,
      "ĠgÃ¼Ã§lendirmek": 6742,
      "Ġsituation": 6743,
      "ĠBundle": 6744,
      "ĠettiÄŁiniz": 6745,
      "azÄ±r": 6746,
      "ÃĸrneÄŁin": 6747,
      "Ġdiscard": 6748,
      "isin": 6749,
      "Ġcent": 6750,
      "res": 6751,
      "Ġstrugg": 6752,
      "ĠMevcut": 6753,
      "ĠÄ°ste": 6754,
      "Ġboo": 6755,
      "Ġyerinde": 6756,
      "Ġyerleri": 6757,
      "ĠFin": 6758,
      "Ġ340": 6759,
      "Ġolmadan": 6760,
      "Ġloop": 6761,
      "ĠdÃ¼ÅŁÃ¼nmek": 6762,
      "landÄ±rm": 6763,
      "Ġhalf": 6764,
      "ĠbaÅŁarÄ±yÄ±": 6765,
      "Ġtotaling": 6766,
      "Ġaccusations": 6767,
      "Ġalerts": 6768,
      "ĠmÃ¼kemmel": 6769,
      "Ġgaps": 6770,
      "mede": 6771,
      "ĠCÃ¼m": 6772,
      "Ġsays": 6773,
      "Ġdakikadan": 6774,
      "Ġbelirtir": 6775,
      "ĠkitaplarÄ±": 6776,
      "Ġdurumun": 6777,
      "Ġkuru": 6778,
      "ĠkalkÄ±n": 6779,
      "Ġsanki": 6780,
      "Ġmodel": 6781,
      "Ġederim": 6782,
      "Ġmaruz": 6783,
      "Ġotomatik": 6784,
      "In": 6785,
      "Pause": 6786,
      "Ġsens": 6787,
      "around": 6788,
      "ĠTreat": 6789,
      "stac": 6790,
      "Ġsafety": 6791,
      "Ġ169": 6792,
      "Ġknowledge": 6793,
      "ĠiyileÅŁtirmek": 6794,
      "ĠoluÅŁtura": 6795,
      "ĠBahÃ§": 6796,
      "Ġaff": 6797,
      "late": 6798,
      "layabilirsiniz": 6799,
      "ĠÃľ": 6800,
      "Ġalso": 6801,
      "Ġ240": 6802,
      "ĠiÅŁinizi": 6803,
      "Ġstresi": 6804,
      "ĠBaÅŁka": 6805,
      "Ġhappiness": 6806,
      "Ġobstac": 6807,
      "ĠaÄŁÄ±r": 6808,
      "Ġparkta": 6809,
      "lilik": 6810,
      "Ġtenc": 6811,
      "Ġbard": 6812,
      "Ġneyi": 6813,
      "urt": 6814,
      "Ġequ": 6815,
      "ĠMain": 6816,
      "Ġ95": 6817,
      "ĠÃ§alÄ±ÅŁan": 6818,
      "Ġdurumunuzu": 6819,
      "ounts": 6820,
      "Ġlabels": 6821,
      "Ġbitkileri": 6822,
      "Ġbenz": 6823,
      "ĠkÄ±yafet": 6824,
      "ĠMaintain": 6825,
      "gul": 6826,
      "yer": 6827,
      "rame": 6828,
      "ĠyanÄ±": 6829,
      "ĠYÃ¼z": 6830,
      "ĠkÄ±sÄ±": 6831,
      "Ġrot": 6832,
      "Ġ64": 6833,
      "Ġyapmaktan": 6834,
      "Ġ205": 6835,
      "Ġgerekebilir": 6836,
      "ĠdÃ¼ÅŁÃ¼nerek": 6837,
      "Ġobs": 6838,
      "Ġseems": 6839,
      "Ġsuppor": 6840,
      "Ġboosts": 6841,
      "ero": 6842,
      "Ġevinizin": 6843,
      "portant": 6844,
      "Ġdeneyimi": 6845,
      "ĠistediÄŁini": 6846,
      "ĠdÄ±ÅŁarÄ±da": 6847,
      "ĠyolculuÄŁ": 6848,
      "Ġrisk": 6849,
      "ĠfÄ±rsat": 6850,
      "\").": 6851,
      "ms": 6852,
      "telefon": 6853,
      "ĠEt": 6854,
      "Ġice": 6855,
      "ĠSecond": 6856,
      "asÄ±nÄ±n": 6857,
      "Ġ420": 6858,
      "Ġdiler": 6859,
      "ĠalÄ±ÅŁtÄ±r": 6860,
      "ensive": 6861,
      "Ġuyumlu": 6862,
      "Ġexercises": 6863,
      "Ġsamimiyet": 6864,
      "ĠSoru": 6865,
      "ĠkarÄ±ÅŁtÄ±r": 6866,
      "ĠyetiÅŁtir": 6867,
      "Ġflash": 6868,
      "Ġreplacing": 6869,
      "Ġnes": 6870,
      "asing": 6871,
      "Ġyapabilir": 6872,
      "ĠnumarasÄ±nÄ±": 6873,
      "Ġanswering": 6874,
      "Ġ97": 6875,
      "chedule": 6876,
      "ĠaralÄ±k": 6877,
      "Ġdiving": 6878,
      "Ġegzersizleri": 6879,
      "Ġsayfa": 6880,
      "Ġuygulayarak": 6881,
      "Ġsebze": 6882,
      "Ġemergency": 6883,
      "ules": 6884,
      "sam": 6885,
      "Ġnotlar": 6886,
      "ĠSab": 6887,
      "ndeki": 6888,
      "Ġrely": 6889,
      "ective": 6890,
      "Ġyaprak": 6891,
      "Ġyapmam": 6892,
      "**'": 6893,
      "Ġevin": 6894,
      "Ġedil": 6895,
      "Ġusual": 6896,
      "kendi": 6897,
      "Ġspreadsheet": 6898,
      "Ġversatile": 6899,
      "Ġpan": 6900,
      "Ġke": 6901,
      "Ġhorm": 6902,
      "sak": 6903,
      "ugh": 6904,
      "Ġstack": 6905,
      "ĠiÃ§inden": 6906,
      "ical": 6907,
      "emiz": 6908,
      "the": 6909,
      "Ġistey": 6910,
      "Ġtrivi": 6911,
      "ĠkaranlÄ±k": 6912,
      "ĠseÃ§mekten": 6913,
      "Ġeliminating": 6914,
      "Ġrental": 6915,
      "Ġmistakes": 6916,
      "Ãĸneri": 6917,
      "Ġmerkez": 6918,
      "Ġbardak": 6919,
      "fic": 6920,
      "Ã§Ä±k": 6921,
      "Ġflo": 6922,
      "Ã¼ny": 6923,
      "Ġveriler": 6924,
      "ike": 6925,
      "Ġbeli": 6926,
      "Ġodaklanmaya": 6927,
      "Ġbiriyle": 6928,
      "ĠgÃ¶ndererek": 6929,
      "ĠsonuÃ§lar": 6930,
      "Ä±lmÄ±ÅŁtÄ±r": 6931,
      "ĠtarafÄ±ndan": 6932,
      "sue": 6933,
      "rating": 6934,
      "Ġ69": 6935,
      "Ġ77": 6936,
      "Ġstead": 6937,
      "Ġland": 6938,
      "ĠyÃ¶ntemle": 6939,
      "Ġeylem": 6940,
      "Ġnedeniyle": 6941,
      "iyle": 6942,
      "rod": 6943,
      "Ġkick": 6944,
      "teki": 6945,
      "Ġmen": 6946,
      "Ġ213": 6947,
      "Ġ313": 6948,
      "ĠgÃ¼ncel": 6949,
      "Ġrules": 6950,
      "Ġ66": 6951,
      "Ġ96": 6952,
      "Ġintent": 6953,
      "Ġ**\"": 6954,
      "Ġ102": 6955,
      "ĠAyÄ±": 6956,
      "Ġyolda": 6957,
      "Ġ405": 6958,
      "ĠalanÄ±nÄ±zÄ±": 6959,
      "Ġmutlu": 6960,
      "Ġnavigation": 6961,
      "ĠkÄ±smÄ±nÄ±": 6962,
      "ĠeÄŁlenceli": 6963,
      "Ġconfusion": 6964,
      "Ġbisiklet": 6965,
      "of": 6966,
      "pass": 6967,
      "ranÄ±": 6968,
      "wor": 6969,
      "ĠzayÄ±f": 6970,
      "mektedir": 6971,
      "ĠiletiÅŁime": 6972,
      "Ġbuying": 6973,
      "Ġ153": 6974,
      "igning": 6975,
      "ĠyÃ¶nel": 6976,
      "Ġteknikleri": 6977,
      "ĠtasarÄ±m": 6978,
      "Ã¼lebilir": 6979,
      "kisi": 6980,
      "aling": 6981,
      "Ġdikk": 6982,
      "Ġdevice": 6983,
      "Ġistiyorsunuz": 6984,
      "lÄ±kla": 6985,
      "geÃ§": 6986,
      "Ġdinlendir": 6987,
      "menizdir": 6988,
      "ĠSÄ±ra": 6989,
      "Ãĸnce": 6990,
      "Ġidealdir": 6991,
      "ĠotobÃ¼s": 6992,
      "Ġtrivial": 6993,
      "plan": 6994,
      "Ġ07": 6995,
      "ĠBecause": 6996,
      "Ä±rsanÄ±z": 6997,
      "ĠNot": 6998,
      "Ġ108": 6999,
      "Ġ256": 7000,
      "Ġ276": 7001,
      "Ġuzman": 7002,
      "ĠnoktasÄ±nÄ±": 7003,
      "Ġyani": 7004,
      "ĠkalÄ±p": 7005,
      "ĠeÄŁitimi": 7006,
      "Focus": 7007,
      "alling": 7008,
      "ĠadÄ±mdan": 7009,
      "ĠÄ°liÅŁ": 7010,
      "Ġquanti": 7011,
      "Ġ428": 7012,
      "Ġ440": 7013,
      "Ġdos": 7014,
      "Ġaloud": 7015,
      "Ġ246": 7016,
      "Ġdistinct": 7017,
      "ĠgÃ¶rmek": 7018,
      "ĠInvest": 7019,
      "ĠmesajÄ±": 7020,
      "ĠhissettiÄŁiniz": 7021,
      "ĠuyanÄ±k": 7022,
      "Ġperfectly": 7023,
      "Ġstronger": 7024,
      "Ġseferinde": 7025,
      "ĠetkileÅŁ": 7026,
      "yo": 7027,
      "Ġpace": 7028,
      "Ġsuyla": 7029,
      "Ġtips": 7030,
      "ĠkalmayÄ±": 7031,
      "Ġ255": 7032,
      "ĠHerhangi": 7033,
      "ĠsabahÄ±n": 7034,
      "ÄŁÄ±nÄ±zda": 7035,
      "Ġbakmak": 7036,
      "Ġmetre": 7037,
      "Ġkurgu": 7038,
      "ĠFinally": 7039,
      "ices": 7040,
      "ince": 7041,
      "Ġpsik": 7042,
      "Ġtour": 7043,
      "Ġdeniz": 7044,
      "ĠDuolingo": 7045,
      "ĠTÃ¼m": 7046,
      "Ġyast": 7047,
      "Ġolay": 7048,
      "ĠÃ§ub": 7049,
      "Ġsprin": 7050,
      "Ġ94": 7051,
      "Ġlistesini": 7052,
      "ĠsonrasÄ±": 7053,
      "Ġvisa": 7054,
      "Ġassigning": 7055,
      "Ġdecisions": 7056,
      "Ġempt": 7057,
      "Ġmadd": 7058,
      "ĠbirleÅŁecek": 7059,
      "Ġpleas": 7060,
      "ĠEÄŁ": 7061,
      "Ġ323": 7062,
      "Ġyapman": 7063,
      "Ã¼zik": 7064,
      "Ġ67": 7065,
      "ĠÅŁÄ±k": 7066,
      "Ġ396": 7067,
      "ĠkazandÄ±r": 7068,
      "landÄ±rma": 7069,
      "Ġokuyacak": 7070,
      "ĠZorluk": 7071,
      "Ġstraight": 7072,
      "Ġzero": 7073,
      "ource": 7074,
      "Ġ257": 7075,
      "Ġ267": 7076,
      "Ġ296": 7077,
      "Ġlives": 7078,
      "Ã¼nden": 7079,
      "Ġmaximize": 7080,
      "ĠDefine": 7081,
      "Ġmark": 7082,
      "Ġalmaya": 7083,
      "erseniz": 7084,
      "ĠfotoÄŁraflar": 7085,
      "bilirim": 7086,
      "Ġdilde": 7087,
      "Ġ295": 7088,
      "ĠkiÅŁinin": 7089,
      "Ġhissetmek": 7090,
      "Ġpresence": 7091,
      "Ġmutfak": 7092,
      "ĠgÃ¶rÃ¼ÅŁecek": 7093,
      "ĠaltÄ±na": 7094,
      "Ġwashing": 7095,
      "ĠsÄ±ral": 7096,
      "Ġbeklenti": 7097,
      "Ġfoundation": 7098,
      "ysis": 7099,
      "ĠbaÅŁÄ±nÄ±zÄ±": 7100,
      "sÄ±ndan": 7101,
      "Ġ84": 7102,
      "ĠFeynman": 7103,
      "Ġ193": 7104,
      "Ġ225": 7105,
      "Ġcluttering": 7106,
      "Ġimpact": 7107,
      "uktan": 7108,
      "Ġearli": 7109,
      "Ġmetab": 7110,
      "ĠsÄ±caklÄ±ÄŁÄ±na": 7111,
      "Break": 7112,
      "BÃ¼yÃ¼k": 7113,
      "nasÄ±l": 7114,
      "syon": 7115,
      "Ġdrop": 7116,
      "Ġ383": 7117,
      "Ġ103": 7118,
      "ĠsorularÄ±": 7119,
      "Ġ121": 7120,
      "ĠÃĸnemli": 7121,
      "Ġhafifle": 7122,
      "Ġengage": 7123,
      "Ġoturmak": 7124,
      "Ġplanda": 7125,
      "ĠkayÄ±da": 7126,
      "Ġnegative": 7127,
      "Eisenhower": 7128,
      "dak": 7129,
      "Ġ331": 7130,
      "Ġzorlam": 7131,
      "Ġcond": 7132,
      "oms": 7133,
      "ĠiyileÅŁ": 7134,
      "Ġ357": 7135,
      "Ġ346": 7136,
      "Ġmatch": 7137,
      "ĠhazÄ±rla": 7138,
      "Ġhedeflerinize": 7139,
      "ĠyÃ¼rÃ¼mek": 7140,
      "Ġreviewing": 7141,
      "Ġsistemi": 7142,
      "ĠExp": 7143,
      "ĠbelirtilmiÅŁtir": 7144,
      "Ġincelemek": 7145,
      "Ġopportunities": 7146,
      "Her": 7147,
      "baÅŁ": 7148,
      "iyorsunuz": 7149,
      "keep": 7150,
      "tesi": 7151,
      "Ġways": 7152,
      "Ġsharp": 7153,
      "Ġ430": 7154,
      "Ġimkan": 7155,
      "why": 7156,
      "Ġyoldan": 7157,
      "Ġpost": 7158,
      "Ġride": 7159,
      "ĠrahatÃ§a": 7160,
      "ĠkaÄŁÄ±da": 7161,
      "Ġcheap": 7162,
      "kitap": 7163,
      "erilen": 7164,
      "Ġgev": 7165,
      "Ġveril": 7166,
      "Ġkonuyla": 7167,
      "Ġtrac": 7168,
      "Ġdurdur": 7169,
      "Ġkurmaya": 7170,
      "lenme": 7171,
      "ĠyÃ¶nlendir": 7172,
      "Ġcloser": 7173,
      "tirip": 7174,
      "Ġnedir": 7175,
      "Ġwebsites": 7176,
      "Ġquantity": 7177,
      "bah": 7178,
      "var": 7179,
      "Ġgec": 7180,
      "amaz": 7181,
      "Ġzamanla": 7182,
      "tÄ±p": 7183,
      "Ġ374": 7184,
      "Ġ297": 7185,
      "Ġtamamlan": 7186,
      "Ġfinished": 7187,
      "ĠkalkÄ±ÅŁ": 7188,
      "Ġmusunuz": 7189,
      "ĠÃ§Ä±karÄ±n": 7190,
      "Ġblame": 7191,
      "Ä±nd": 7192,
      "ogn": 7193,
      "uÅŁtur": 7194,
      "Ġyazma": 7195,
      "Ġdolu": 7196,
      "ify": 7197,
      "ĠalmanÄ±z": 7198,
      "Ġ254": 7199,
      "anÄ±za": 7200,
      "Ġ306": 7201,
      "Ġwalks": 7202,
      "Ġolmam": 7203,
      "ĠÃ§ekip": 7204,
      "Ġsepet": 7205,
      "dÄ±ktan": 7206,
      "Ġaccumulating": 7207,
      "Ġibarettir": 7208,
      "Ġkonsept": 7209,
      "Ġ%": 7210,
      "incisi": 7211,
      "Ġsend": 7212,
      "Ġfa": 7213,
      "ÄŁÄ±nÄ±n": 7214,
      "ĠSmall": 7215,
      "ĠÃ¶neriyle": 7216,
      "Ġbegins": 7217,
      "ikay": 7218,
      "Ġ99": 7219,
      "ildi": 7220,
      "ĠÃ§ektirecek": 7221,
      "ĠFirst": 7222,
      "Ġ265": 7223,
      "Ġ285": 7224,
      "ĠsÃ¼resi": 7225,
      "Ġnokta": 7226,
      "Ġsilent": 7227,
      "Ġrefer": 7228,
      "ĠMesajÄ±nÄ±zÄ±": 7229,
      "Ġreminders": 7230,
      "box": 7231,
      "Ġphrases": 7232,
      "Ġzorunlu": 7233,
      "Ġview": 7234,
      "Ġkeys": 7235,
      "Ġtel": 7236,
      "Ġoyun": 7237,
      "Ġbirer": 7238,
      "eyle": 7239,
      "Ġ52": 7240,
      "Ġ(\"": 7241,
      "Ġitself": 7242,
      "eniyor": 7243,
      "Ġunf": 7244,
      "Ġ266": 7245,
      "Ġtetik": 7246,
      "Ġ123": 7247,
      "Ġ224": 7248,
      "Ġ406": 7249,
      "ĠyÃ¶ntemler": 7250,
      "ĠkiÅŁiler": 7251,
      "Ġhissettir": 7252,
      "Ġbehind": 7253,
      "ĠaydÄ±nlÄ±k": 7254,
      "Ġpath": 7255,
      "tries": 7256,
      "Ġstimulating": 7257,
      "Ġempty": 7258,
      "Schedule": 7259,
      "cal": 7260,
      "kÄ±": 7261,
      "Ġhelping": 7262,
      "Ġmey": 7263,
      "mediÄŁiniz": 7264,
      "Ġ304": 7265,
      "Ġnews": 7266,
      "Ġ354": 7267,
      "ĠgÃ¶rd": 7268,
      "ĠkarÅŁÄ±lÄ±klÄ±": 7269,
      "Ġkapak": 7270,
      "Ġrecent": 7271,
      "Ġknowing": 7272,
      "Ġeser": 7273,
      "Ġbilgilerle": 7274,
      "Ġairports": 7275,
      "ĠcÃ¼mleleri": 7276,
      "Ġchoice": 7277,
      "Ġoccur": 7278,
      "Ġtakvim": 7279,
      "tiÄŁi": 7280,
      "Ġskip": 7281,
      "Ġbana": 7282,
      "ayacak": 7283,
      "Ã¶ÄŁ": 7284,
      "ĠOffer": 7285,
      "Ġsaving": 7286,
      "Ġ305": 7287,
      "Ġarama": 7288,
      "ĠdÃ¼zenlem": 7289,
      "Ġlosing": 7290,
      "Ġfinal": 7291,
      "Ġvalues": 7292,
      "larÄ±nÄ±zda": 7293,
      "tÄ±rabilirsiniz": 7294,
      "Ġrelationships": 7295,
      "mission": 7296,
      "Ġmetabol": 7297,
      "kal": 7298,
      "meler": 7299,
      "ture": 7300,
      "Ġcrow": 7301,
      "Ġbacak": 7302,
      "ĠYe": 7303,
      "Ġyazmaya": 7304,
      "ĠseÃ§ebilirsiniz": 7305,
      "Ġ275": 7306,
      "road": 7307,
      "Ġ366": 7308,
      "ĠgÃ¼l": 7309,
      "Ġ404": 7310,
      "ĠartÄ±rmak": 7311,
      "Ġmerak": 7312,
      "ĠseÃ§eneÄŁi": 7313,
      "ĠnazikÃ§e": 7314,
      "Ġparalysis": 7315,
      "pect": 7316,
      "¸ı": 7317,
      "ï¸ı": 7318,
      "ĠayÄ±rÄ±p": 7319,
      "ĠayÄ±rdÄ±r": 7320,
      "ĠadÄ±ma": 7321,
      "Ġcost": 7322,
      "ocuk": 7323,
      "Ġcannot": 7324,
      "Ġbelirleme": 7325,
      "Ġ148": 7326,
      "Ġ245": 7327,
      "Ġ247": 7328,
      "Ġ279": 7329,
      "Ġ226": 7330,
      "Ġdinleme": 7331,
      "Ġdenemek": 7332,
      "Ġcorre": 7333,
      "IM": 7334,
      "Ġtutu": 7335,
      "ator": 7336,
      "Ġ332": 7337,
      "arat": 7338,
      "ĠuyanÄ±n": 7339,
      "ected": 7340,
      "Ġtrains": 7341,
      "ources": 7342,
      "Ġ143": 7343,
      "Ġ274": 7344,
      "amera": 7345,
      "roup": 7346,
      "Ġ376": 7347,
      "ĠekranÄ±": 7348,
      "Ġsabr": 7349,
      "ĠHaftalÄ±k": 7350,
      "Ġuygulayabilirsiniz": 7351,
      "Ġfactors": 7352,
      "ĠdaÄŁÄ±t": 7353,
      "ĠduygularÄ±nÄ±zÄ±": 7354,
      "Ġforecast": 7355,
      "Ġexplicitly": 7356,
      "Ġekipman": 7357,
      "Ġsteady": 7358,
      "Ġearlier": 7359,
      "Ġcondi": 7360,
      "sÄ±nÄ±n": 7361,
      "vely": 7362,
      "Ġcup": 7363,
      "Ġdik": 7364,
      "Ġthrow": 7365,
      "ĠiÃ§ip": 7366,
      "Ġ312": 7367,
      "Ġresult": 7368,
      "Ġsong": 7369,
      "Ġ286": 7370,
      "leÅŁtirin": 7371,
      "Ġsupporting": 7372,
      "Ã¼lt": 7373,
      "ĠyanÄ±na": 7374,
      "Ġsizinle": 7375,
      "Ġpassport": 7376,
      "Ġtaze": 7377,
      "Ġconsci": 7378,
      "An": 7379,
      "nable": 7380,
      "akt": 7381,
      "dÄ±ÄŁÄ±nda": 7382,
      "Ġ321": 7383,
      "Ġtim": 7384,
      "Ġreserv": 7385,
      "Ġovernight": 7386,
      "Ġ284": 7387,
      "ĠÅŁeyden": 7388,
      "Ġexplo": 7389,
      "Ġ377": 7390,
      "ĠmesajlaÅŁma": 7391,
      "Ġservice": 7392,
      "Ġprovide": 7393,
      "Ġsuppresses": 7394,
      "Ġdeleg": 7395,
      "Ġflashc": 7396,
      "Ġpsikoloj": 7397,
      "bugÃ¼n": 7398,
      "pam": 7399,
      "ĠThat": 7400,
      "lab": 7401,
      "Ä°kinci": 7402,
      "ĠatÄ±p": 7403,
      "Ġ72": 7404,
      "Ġarg": 7405,
      "Ġ192": 7406,
      "Ġ183": 7407,
      "Ġodada": 7408,
      "Ġ395": 7409,
      "Ġdiet": 7410,
      "ĠdeÄŁilse": 7411,
      "Ġbeklen": 7412,
      "Ġolmaktan": 7413,
      "Ġstresli": 7414,
      "Ġfrequent": 7415,
      "minizi": 7416,
      "ski": 7417,
      "uff": 7418,
      "Ġwere": 7419,
      "Ġ58": 7420,
      "ĠlÃ¼tfen": 7421,
      "Ġartar": 7422,
      "Ġ259": 7423,
      "Ġnoon": 7424,
      "Ġ142": 7425,
      "Ġ264": 7426,
      "ĠiÅŁini": 7427,
      "Ġ287": 7428,
      "Ġ355": 7429,
      "Ġ364": 7430,
      "ĠkurmayÄ±": 7431,
      "Ġ407": 7432,
      "Ġhiss": 7433,
      "Ġlocations": 7434,
      "sizlik": 7435,
      "Ġwinnable": 7436,
      "Ġminimal": 7437,
      "Ġsupplies": 7438,
      "ĠnoktalarÄ±": 7439,
      "Ġdikkate": 7440,
      "iren": 7441,
      "lÄ±n": 7442,
      "tiÄŁini": 7443,
      "ÅŁu": 7444,
      "ĠSlow": 7445,
      "Ġsok": 7446,
      "Ġverme": 7447,
      "Ġiyidir": 7448,
      "iÄŁinizi": 7449,
      "Ġkullanmadan": 7450,
      "Ġ181": 7451,
      "ĠÃ§alÄ±ÅŁtÄ±": 7452,
      "ĠdoÄŁum": 7453,
      "ĠduruÅŁ": 7454,
      "Ġpermission": 7455,
      "ĠyapÄ±sÄ±": 7456,
      "ĠWhatsApp": 7457,
      "ĠsÄ±kÄ±l": 7458,
      "Ġsunabilirim": 7459,
      "Ġkorum": 7460,
      "Ġsoruda": 7461,
      "Ġilerlemeler": 7462,
      "Ġsucceed": 7463,
      "Ġpatient": 7464,
      "ĠpratiÄŁi": 7465,
      "ðŁ": 7466,
      "itch": 7467,
      "eting": 7468,
      "lanma": 7469,
      "ayÄ±p": 7470,
      "ĠyapÄ±ÅŁtÄ±r": 7471,
      "lerinizden": 7472,
      "ĠadÄ±mlara": 7473,
      "Ġ269": 7474,
      "andÄ±": 7475,
      "Ġ227": 7476,
      "Ġ375": 7477,
      "Ġ347": 7478,
      "Ġ294": 7479,
      "Ġ394": 7480,
      "ĠdÃ¼ÅŁÃ¼nceler": 7481,
      "ĠbaÄŁlantÄ±": 7482,
      "Ġsurround": 7483,
      "Ġmuscle": 7484,
      "Ġregarding": 7485,
      "Ġtemptation": 7486,
      "Kend": 7487,
      "Ġtep": 7488,
      "Ġku": 7489,
      "Ġfalling": 7490,
      "ĠGroup": 7491,
      "ĠÃ¶nerebilirim": 7492,
      "ĠanlamÄ±": 7493,
      "Ġ152": 7494,
      "steps": 7495,
      "Ġ244": 7496,
      "Ġ172": 7497,
      "Ġ173": 7498,
      "Ġ277": 7499,
      "ĠbaÅŁlamaya": 7500,
      "ĠakÄ±cÄ±": 7501,
      "ĠÃ§Ä±kÄ±n": 7502,
      "ĠgÃ¼venilir": 7503,
      "ĠsÄ±caklÄ±ÄŁÄ±": 7504,
      "Ġkapatmak": 7505,
      "ĠyanÄ±nda": 7506,
      "Ġkorun": 7507,
      "Ġcurrently": 7508,
      "Ġdergi": 7509,
      "ivid": 7510,
      "Ġfueled": 7511,
      "Ġpausing": 7512,
      "struc": 7513,
      "Ġconvey": 7514,
      "EÄŁer": 7515,
      "Keep": 7516,
      "Ġinf": 7517,
      "Ġ232": 7518,
      "orth": 7519,
      "Ġ381": 7520,
      "ganize": 7521,
      "Ġ369": 7522,
      "Ġ397": 7523,
      "ĠkontrolÃ¼": 7524,
      "Ġolursunuz": 7525,
      "Ġhayata": 7526,
      "ĠsÄ±rayla": 7527,
      "letmek": 7528,
      "ĠgeliÅŁtirmek": 7529,
      "Ġtatmin": 7530,
      "Ġaccusatory": 7531,
      "Ġvalued": 7532,
      "sinde": 7533,
      "Ġgrup": 7534,
      "Ġinsp": 7535,
      "ĠPhotoshop": 7536,
      "Ġdopam": 7537,
      "Ġolabilirsiniz": 7538,
      "care": 7539,
      "udum": 7540,
      "Ġtutmaya": 7541,
      "Ġ162": 7542,
      "ilecek": 7543,
      "Ġ367": 7544,
      "Ġ239": 7545,
      "ĠgÃ¼c": 7546,
      "Ġdinle": 7547,
      "Ġeski": 7548,
      "Ġrequirements": 7549,
      "Ġscheduled": 7550,
      "ĠnoktasÄ±dÄ±r": 7551,
      "dle": 7552,
      "fast": 7553,
      "alim": 7554,
      "ĠTell": 7555,
      "Ġforces": 7556,
      "Ġdayan": 7557,
      "lerek": 7558,
      "eceÄŁinizi": 7559,
      "Ġyear": 7560,
      "Ġalloc": 7561,
      "Ġ163": 7562,
      "Ġwall": 7563,
      "Ġ345": 7564,
      "Ä±lmasÄ±": 7565,
      "tikten": 7566,
      "Ġdeliber": 7567,
      "ĠSizinle": 7568,
      "ĠkaynaÄŁÄ±nÄ±": 7569,
      "Ġadapt": 7570,
      "Ġseasons": 7571,
      "Ġrecei": 7572,
      "Ġopinion": 7573,
      "184": 7574,
      "ptions": 7575,
      "Ġtelef": 7576,
      "ĠDerin": 7577,
      "Ġever": 7578,
      "Ġinitiate": 7579,
      "imiz": 7580,
      "Ġkalab": 7581,
      "Ġ158": 7582,
      "Ġbreakfast": 7583,
      "Ġokuyarak": 7584,
      "Ġ178": 7585,
      "ĠdÃ¼zeniyle": 7586,
      "Ġlearns": 7587,
      "Ġtemelini": 7588,
      "Ġdetail": 7589,
      "ĠyatÄ±n": 7590,
      "Ġtranslation": 7591,
      "Ġeffortless": 7592,
      "Ġhands": 7593,
      "Ġworried": 7594,
      "repare": 7595,
      "'m": 7596,
      "comm": 7597,
      "Ġsmo": 7598,
      "Ġhuge": 7599,
      "daha": 7600,
      "Ġ412": 7601,
      "Ġ307": 7602,
      "tÄ±l": 7603,
      "ĠÃ§Ä±kmak": 7604,
      "Ġolanak": 7605,
      "Ġortaya": 7606,
      "Ġmissed": 7607,
      "Ġkaydede": 7608,
      "Ġalabilirsiniz": 7609,
      "Ġuyumak": 7610,
      "Ġreviews": 7611,
      "Ġchoices": 7612,
      "Ġzihn": 7613,
      "Ġquitting": 7614,
      "Ġmade": 7615,
      "Ġpreparing": 7616,
      "ĠHaftada": 7617,
      "Ġkurtul": 7618,
      "pat": 7619,
      "ĠDuyg": 7620,
      "ĠBilg": 7621,
      "amik": 7622,
      "Ġstuff": 7623,
      "Ġevden": 7624,
      "Ġ299": 7625,
      "shoot": 7626,
      "ditionally": 7627,
      "ĠkalkmayÄ±": 7628,
      "bette": 7629,
      "dÄ±ÄŁÄ±nÄ±zdan": 7630,
      "ĠgerÃ§ekleÅŁtir": 7631,
      "ĠaraÃ§lar": 7632,
      "ĠkurallarÄ±": 7633,
      "Ġcircle": 7634,
      "Ġcontinuing": 7635,
      "ĠeÄŁitim": 7636,
      "Ġobstacles": 7637,
      "ften": 7638,
      "Ġfund": 7639,
      "liyor": 7640,
      "ĠÃ¶ÄŁlen": 7641,
      "ĠÃ§ekme": 7642,
      "Ġ289": 7643,
      "ĠWa": 7644,
      "ĠgeÃ§ire": 7645,
      "Ġ365": 7646,
      "ĠÃ¶zelliÄŁini": 7647,
      "Ġbitirmek": 7648,
      "ynam": 7649,
      "Ġguide": 7650,
      "Ġmoder": 7651,
      "ĠteÅŁekkÃ¼r": 7652,
      "ĠiliÅŁki": 7653,
      "Ġdilerim": 7654,
      "ysa": 7655,
      "ilim": 7656,
      "Ã¼ksek": 7657,
      "ĠHareket": 7658,
      "Ġ208": 7659,
      "step": 7660,
      "ĠiÅŁlerinizi": 7661,
      "ĠÃ§alÄ±ÅŁÄ±rken": 7662,
      "Ġ229": 7663,
      "Ġ359": 7664,
      "Ġ349": 7665,
      "tuk": 7666,
      "ĠyÃ¼kÃ¼": 7667,
      "eyebilirsiniz": 7668,
      "noon": 7669,
      "Ġphotoshoot": 7670,
      "Ġvisualize": 7671,
      "Ġbunlar": 7672,
      "yapÄ±": 7673,
      "Ġstrategy": 7674,
      "ĠanlÄ±yorum": 7675,
      "ĠkÄ±sÄ±m": 7676,
      "traf": 7677,
      "ani": 7678,
      "Ġcard": 7679,
      "Ġcop": 7680,
      "ĠkayÄ±tlarda": 7681,
      "eceÄŁim": 7682,
      "Ġ101": 7683,
      "Ġ203": 7684,
      "Ġdilden": 7685,
      "ĠbahÃ§enin": 7686,
      "mited": 7687,
      "Ġ356": 7688,
      "ĠkonuÅŁurken": 7689,
      "ĠtamamÄ±nÄ±": 7690,
      "ĠyaratÄ±r": 7691,
      "ĠkoÅŁu": 7692,
      "Ġfloor": 7693,
      "Ġsak": 7694,
      "ĠGec": 7695,
      "eyim": 7696,
      "Ġrere": 7697,
      "Ä±za": 7698,
      "Ġ63": 7699,
      "Ġ249": 7700,
      "Ġ168": 7701,
      "duÄŁu": 7702,
      "Ġ344": 7703,
      "ĠbakÄ±m": 7704,
      "ĠdÄ±ÅŁÄ±nda": 7705,
      "ĠAlso": 7706,
      "ĠtadÄ±": 7707,
      "Ġbaggage": 7708,
      "ĠClean": 7709,
      "ĠkeÅŁfetmek": 7710,
      "Ġalign": 7711,
      "Ġbright": 7712,
      "ĠGenellikle": 7713,
      "traffic": 7714,
      "Ġrereading": 7715,
      "meni": 7716,
      "yl": 7717,
      "ansi": 7718,
      "Ġbike": 7719,
      "ene": 7720,
      "ract": 7721,
      "Ġ433": 7722,
      "Ġ53": 7723,
      "Ġevi": 7724,
      "Ġsettle": 7725,
      "ĠpiÅŁirin": 7726,
      "Ġgear": 7727,
      "Ġgiderek": 7728,
      "Ġdriven": 7729,
      "Ġcarefully": 7730,
      "ĠAdditionally": 7731,
      "noloj": 7732,
      "Ġcontainer": 7733,
      "Ġilham": 7734,
      "Ġflashcards": 7735,
      "Total": 7736,
      "ulation": 7737,
      "important": 7738,
      "lerinden": 7739,
      "ĠzorlandÄ±": 7740,
      "Ġ98": 7741,
      "olding": 7742,
      "Ġtrue": 7743,
      "ĠodanÄ±zÄ±": 7744,
      "Ġ219": 7745,
      "Ġ118": 7746,
      "Ġswap": 7747,
      "ĠkolaydÄ±r": 7748,
      "Ġhighest": 7749,
      "Ġgroups": 7750,
      "Ġharf": 7751,
      "Ġtekniklerini": 7752,
      "ĠsakinleÅŁ": 7753,
      "ublic": 7754,
      "Ãĸncelikle": 7755,
      "ĠaÅŁmak": 7756,
      "imdiden": 7757,
      "Ġvaluable": 7758,
      "134": 7759,
      "Ne": 7760,
      "ances": 7761,
      "Ġcould": 7762,
      "Ġcram": 7763,
      "lerinde": 7764,
      "ĠdeÄŁiÅŁtirin": 7765,
      "eceÄŁi": 7766,
      "Ġ93": 7767,
      "Ġhedeflerin": 7768,
      "Ãĸz": 7769,
      "ĠvÃ¼cudunu": 7770,
      "ront": 7771,
      "Ġalternatif": 7772,
      "ĠkarÄ±ÅŁÄ±k": 7773,
      "Ġsaatinde": 7774,
      "ĠtaÅŁÄ±": 7775,
      "ute": 7776,
      "Ġtouch": 7777,
      "Ã§ok": 7778,
      "Ġsometimes": 7779,
      "Ġonlara": 7780,
      "ĠÃ§alÄ±": 7781,
      "Ġ182": 7782,
      "Ġ379": 7783,
      "Ġmentally": 7784,
      "icial": 7785,
      "tirebilirsiniz": 7786,
      "ĠTrans": 7787,
      "ĠyarÄ±sÄ±nÄ±": 7788,
      "urable": 7789,
      "ĠuÃ§uÅŁ": 7790,
      "itting": 7791,
      "Ġtoile": 7792,
      "Ġfel": 7793,
      "ĠSess": 7794,
      "ized": 7795,
      "ĠBlock": 7796,
      "lamasÄ±": 7797,
      "ĠzorlanÄ±yorsanÄ±z": 7798,
      "ĠbaÅŁlayacak": 7799,
      "Ġ309": 7800,
      "ĠiÅŁlerin": 7801,
      "Ġ399": 7802,
      "Ġafternoon": 7803,
      "Ġihtimal": 7804,
      "Ġbags": 7805,
      "Ġprepare": 7806,
      "gra": 7807,
      "manÄ±": 7808,
      "Ġpublic": 7809,
      "ĠTid": 7810,
      "Ġinside": 7811,
      "lamalar": 7812,
      "ĠPrepare": 7813,
      "ĠplanlayÄ±p": 7814,
      "malara": 7815,
      "ĠyÃ¶netim": 7816,
      "Ġ409": 7817,
      "ĠdÃ¼ÅŁÃ¼nÃ¼": 7818,
      "Ġtemizlemek": 7819,
      "layÄ±sÄ±yla": 7820,
      "Ġgidin": 7821,
      "Ġizleyerek": 7822,
      "Ġyoktur": 7823,
      "malÄ±sÄ±n": 7824,
      "Ġlimiting": 7825,
      "ĠbÃ¼tÃ§e": 7826,
      "Ġhavuzu": 7827,
      "Ġsessizlik": 7828,
      "ĠaydÄ±nlatma": 7829,
      "ĠHayÄ±r": 7830,
      "Ġchallenge": 7831,
      "ĠfotoÄŁrafÃ§Ä±lÄ±k": 7832,
      "Ġdishes": 7833,
      "front": 7834,
      "iyorsanÄ±z": 7835,
      "Ġpage": 7836,
      "ĠSay": 7837,
      "Ġ92": 7838,
      "Ġbelirley": 7839,
      "Ġ191": 7840,
      "ĠÃ§alÄ±ÅŁmayÄ±n": 7841,
      "Ġhearing": 7842,
      "Ġilerleyebilirsiniz": 7843,
      "Ġoption": 7844,
      "ĠbÄ±rakarak": 7845,
      "ĠBaÅŁlamak": 7846,
      "ĠsÄ±kÄ±ÅŁ": 7847,
      "Ġleaves": 7848,
      "Ġlimited": 7849,
      "ĠdÃ¶k": 7850,
      "ĠeÄŁit": 7851,
      "ĠyemeÄŁini": 7852,
      "Ġuyanmak": 7853,
      "ĠolduÄŁunuzda": 7854,
      "Ġbarda": 7855,
      "Ġbozul": 7856,
      "Ġrepeatedly": 7857,
      "Ġsunuyorum": 7858,
      "Ġsurroundings": 7859,
      "Ġdopamine": 7860,
      "Make": 7861,
      "how": 7862,
      "Ġkim": 7863,
      "ĠBana": 7864,
      "ĠAt": 7865,
      "Ġmotive": 7866,
      "ĠzamanÄ±nÄ±": 7867,
      "Ġlink": 7868,
      "Ġ83": 7869,
      "ĠÅŁunu": 7870,
      "Ġsorunuz": 7871,
      "800": 7872,
      "Ġtutma": 7873,
      "miyor": 7874,
      "Ġdurumunuz": 7875,
      "Ġheart": 7876,
      "Ġ138": 7877,
      "ĠSabahÄ±": 7878,
      "ĠÃ§Ä±kÄ±ÅŁ": 7879,
      "diÄŁinizde": 7880,
      "ĠayardÄ±": 7881,
      "Ġayarla": 7882,
      "ĠaÃ§Ä±kÃ§a": 7883,
      "Ġgrab": 7884,
      "ĠiÃ§erir": 7885,
      "ĠgÃ¶sterir": 7886,
      "ĠadÄ±na": 7887,
      "ĠtatlÄ±": 7888,
      "Ġexclus": 7889,
      "Ġsounding": 7890,
      "Yap": 7891,
      "lil": 7892,
      "Ġkomp": 7893,
      "Ġhold": 7894,
      "used": 7895,
      "ĠEski": 7896,
      "Ġfly": 7897,
      "Ġga": 7898,
      "ĠBen": 7899,
      "ĠOr": 7900,
      "usunda": 7901,
      "Ġbeginners": 7902,
      "Ġplanlar": 7903,
      "Ġ68": 7904,
      "ĠyÃ¼rÃ¼r": 7905,
      "Ġunrelated": 7906,
      "ĠÃĩev": 7907,
      "Ġaggre": 7908,
      "Ġefforts": 7909,
      "ĠyaklaÅŁÄ±k": 7910,
      "ĠyaptÄ±m": 7911,
      "Ġbeceriler": 7912,
      "Ġpatterns": 7913,
      "Ġaggreg": 7914,
      "Ã¼me": 7915,
      "Ġizmir": 7916,
      "Ġmay": 7917,
      "Ġspir": 7918,
      "Ġsaves": 7919,
      "Ġ73": 7920,
      "Ġ81": 7921,
      "Ġ82": 7922,
      "Ġarm": 7923,
      "Ġtutar": 7924,
      "ĠkullandÄ±ÄŁÄ±nÄ±z": 7925,
      "ĠÃĸncel": 7926,
      "Ä±nav": 7927,
      "ractice": 7928,
      "Ġsessizce": 7929,
      "Ġsorarak": 7930,
      "edicate": 7931,
      "Ġyatarken": 7932,
      "ukarÄ±": 7933,
      "meyecek": 7934,
      "Ġhob": 7935,
      "Ġuyumaya": 7936,
      "ĠyarÄ±sÄ±": 7937,
      "Ġmiktarda": 7938,
      "Ġfamily": 7939,
      "ĠDÃ¼zenli": 7940,
      "put": 7941,
      "sc": 7942,
      "ube": 7943,
      "teÅŁ": 7944,
      "verbal": 7945,
      "itab": 7946,
      "Ġfi": 7947,
      "Ġ432": 7948,
      "ĠÃ¶nler": 7949,
      "Ġ88": 7950,
      "Ġbelirlen": 7951,
      "Ġ202": 7952,
      "Ġ141": 7953,
      "Ġtelefonu": 7954,
      "ĠalanÄ±nÄ±za": 7955,
      "ĠkapÄ±": 7956,
      "Ġstresini": 7957,
      "Ġformat": 7958,
      "ĠyavaÅŁlat": 7959,
      "ĠseÃ§enekler": 7960,
      "Ġcausing": 7961,
      "ĠhatÄ±rlatÄ±n": 7962,
      "Ġalert": 7963,
      "Ġbank": 7964,
      "tiniz": 7965,
      "Ġpot": 7966,
      "ĠtÄ±k": 7967,
      "Ġbuna": 7968,
      "Ġdistant": 7969,
      "ĠYÃ¼r": 7970,
      "ĠeÄŁer": 7971,
      "ĠiÃ§ecek": 7972,
      "Ġups": 7973,
      "ĠonlarÄ±": 7974,
      "ĠOften": 7975,
      "Ġsever": 7976,
      "Ġexci": 7977,
      "Ġyerini": 7978,
      "ĠWell": 7979,
      "ĠWhere": 7980,
      "ĠgeÃ§ici": 7981,
      "ĠbÃ¶lerek": 7982,
      "lendire": 7983,
      "ĠÄ±sÄ±t": 7984,
      "ĠÃĸnerim": 7985,
      "Ġadap": 7986,
      "Ġpatience": 7987,
      "Ġefficiently": 7988,
      "Ġexclusively": 7989,
      "Practice": 7990,
      "asa": 7991,
      "bri": 7992,
      "ĠðŁ": 7993,
      "ĠtanÄ±t": 7994,
      "aris": 7995,
      "ĠDedicate": 7996,
      "ayken": 7997,
      "aber": 7998,
      "ĠanlamÄ±na": 7999,
      "arÄ±nda": 8000,
      "Ġ122": 8001,
      "ĠkonuÅŁarak": 8002,
      "Ġgiden": 8003,
      "Ġenjo": 8004,
      "Ġparlak": 8005,
      "doÄŁ": 8006,
      "mayacak": 8007,
      "ĠplanlÄ±yor": 8008,
      "ĠkeÅŁfedin": 8009,
      "KÄ±sa": 8010,
      "Ġbildir": 8011,
      "Ġileri": 8012,
      "ĠAdÄ±m": 8013,
      "Ġvere": 8014,
      "Ġ51": 8015,
      "Ġmanz": 8016,
      "Ġ78": 8017,
      "Ġ151": 8018,
      "ĠÃ§Ä±karÄ±": 8019,
      "Ġpeace": 8020,
      "Ġstressful": 8021,
      "Ã¼cad": 8022,
      "Ġseeing": 8023,
      "Ġdiscover": 8024,
      "ĠkalanlarÄ±": 8025,
      "ĠgÃ¶stermek": 8026,
      "Ġbaskets": 8027,
      "Ġloved": 8028,
      "ĠsÄ±nÄ±rlÄ±": 8029,
      "Ġwindows": 8030,
      "Ay": 8031,
      "po": 8032,
      "per": 8033,
      "Ġkaba": 8034,
      "iring": 8035,
      "ayarak": 8036,
      "aktan": 8037,
      "amam": 8038,
      "nded": 8039,
      "ĠAra": 8040,
      "ĠAÅŁ": 8041,
      "ĠayÄ±rmak": 8042,
      "ĠyapÄ±mÄ±": 8043,
      "Ġkafe": 8044,
      "Ġspoken": 8045,
      "Ġtraff": 8046,
      "iÄŁin": 8047,
      "Ġsaatine": 8048,
      "ĠalÄ±ÅŁkanlÄ±klarÄ±": 8049,
      "ĠkarÅŁÄ±lÄ±k": 8050,
      "Ġdarkness": 8051,
      "ĠbaÅŁarÄ±lÄ±": 8052,
      "ĠaÃ§Ä±klayÄ±n": 8053,
      "ĠuyumayÄ±": 8054,
      "ĠkatÄ±lacak": 8055,
      "Ġtonunu": 8056,
      "Ġbilimsel": 8057,
      "ĠÃĸzellikle": 8058,
      "Ġkanal": 8059,
      "Ġtraffic": 8060,
      "Ġsar": 8061,
      "Ġila": 8062,
      "ĠdanÄ±ÅŁ": 8063,
      "ĠkÄ±la": 8064,
      "Ġvict": 8065,
      "layabilir": 8066,
      "Ġboard": 8067,
      "ĠPrag": 8068,
      "ĠkaldÄ±": 8069,
      "ĠtoplamÄ±": 8070,
      "ĠkaydÄ±r": 8071,
      "lemeniz": 8072,
      "Ġkurma": 8073,
      "Ġdescri": 8074,
      "Ġhaft": 8075,
      "ĠmÄ±sÄ±nÄ±z": 8076,
      "Ġdetaylar": 8077,
      "Ä±lÄ±m": 8078,
      "ĠÃ§ekici": 8079,
      "Ġsabitleyin": 8080,
      "Ġmutluluk": 8081,
      "ĠUykuya": 8082,
      "melisin": 8083,
      "Ġheading": 8084,
      "Ġcenter": 8085,
      "ï¸ıâ": 8086,
      "Ġsel": 8087,
      "Ġkok": 8088,
      "medik": 8089,
      "maktadÄ±r": 8090,
      "Ġplanlayarak": 8091,
      "806": 8092,
      "sively": 8093,
      "Ġdetour": 8094,
      "ĠakÅŁamlarÄ±": 8095,
      "Ġachieving": 8096,
      "ĠbaÅŁarÄ±larÄ±": 8097,
      "Ġgirmeden": 8098,
      "ĠekranÄ±nÄ±": 8099,
      "ĠbaÅŁlarsÄ±nÄ±z": 8100,
      "Ġgrounding": 8101,
      "Ġgerektiren": 8102,
      "Ġzihinsel": 8103,
      "ĠkaÃ§Ä±nmak": 8104,
      "Ġpromise": 8105,
      "Ġoccas": 8106,
      "ĠgÃ¶ÄŁÃ¼s": 8107,
      "Ġname": 8108,
      "uru": 8109,
      "Ġdue": 8110,
      "nerek": 8111,
      "Ġuyar": 8112,
      "Ġolumlu": 8113,
      "ĠkaÃ§Ä±nÄ±": 8114,
      "Ġbelirleyebilirsiniz": 8115,
      "Ġuns": 8116,
      "Ġelinize": 8117,
      "ĠyaÅŁamÄ±": 8118,
      "Ġdisag": 8119,
      "Ġeasiest": 8120,
      "ĠbaÅŁarÄ±sÄ±z": 8121,
      "Ġreminder": 8122,
      "ĠElbette": 8123,
      "Ġrelease": 8124,
      "mb": 8125,
      "Ġcell": 8126,
      "Ġpl": 8127,
      "Ġsind": 8128,
      "ural": 8129,
      "ilmesi": 8130,
      "action": 8131,
      "amiliar": 8132,
      "ĠAk": 8133,
      "Ġdoor": 8134,
      "ĠdolaÅŁ": 8135,
      "ardaki": 8136,
      "biliriz": 8137,
      "anÄ±zÄ±n": 8138,
      "Ġoda": 8139,
      "weight": 8140,
      "Ġkalkmak": 8141,
      "Ġkelimesini": 8142,
      "Ġperfectionism": 8143,
      "ĠSÄ±cak": 8144,
      "ĠkÃ¶ÅŁ": 8145,
      "Ġpromote": 8146,
      "ĠdÃ¶nÃ¼ÅŁtÃ¼r": 8147,
      "Ġtuvalet": 8148,
      "Ġunfamiliar": 8149,
      "ĠTranslate": 8150,
      "Sabah": 8151,
      "ĠTurn": 8152,
      "Ġfig": 8153,
      "ĠmÃ¼": 8154,
      "Ġmile": 8155,
      "ĠnumarayÄ±": 8156,
      "terek": 8157,
      "Ġexha": 8158,
      "anÄ±zdaki": 8159,
      "Ġ198": 8160,
      "Ġ171": 8161,
      "duÄŁunuz": 8162,
      "ĠdoÄŁrult": 8163,
      "Ġdistracted": 8164,
      "ĠmesajÄ±nÄ±zÄ±": 8165,
      "Ġenerjisini": 8166,
      "ĠbilgisayarÄ±nÄ±zda": 8167,
      "Ġgrows": 8168,
      "Ġcolle": 8169,
      "ĠkullanÄ±mÄ±nÄ±": 8170,
      "Ġyetene": 8171,
      "Ġnoktalar": 8172,
      "ï¸ıâĥ": 8173,
      "\".": 8174,
      "Ġcam": 8175,
      "Ġbiber": 8176,
      "Ġkart": 8177,
      "Ġfakt": 8178,
      "ĠuyarÄ±": 8179,
      "ems": 8180,
      "ĠnumarasÄ±nÄ±z": 8181,
      "805": 8182,
      "808": 8183,
      "ĠseÃ§melisiniz": 8184,
      "Ġupfront": 8185,
      "Ġedici": 8186,
      "Ġelinizi": 8187,
      "Ġ131": 8188,
      "Åŀu": 8189,
      "Ġargum": 8190,
      "ï¸ıâĥ£": 8191,
      "Ġprop": 8192,
      "oru": 8193,
      "ayÄ±r": 8194,
      "Ġez": 8195,
      "ĠAM": 8196,
      "Ġdemektir": 8197,
      "Ġ61": 8198,
      "udaki": 8199,
      "ĠkullanmanÄ±z": 8200,
      "ĠiÅŁinize": 8201,
      "Ġsaatinizi": 8202,
      "ĠÃ§Ä±kara": 8203,
      "ĠÅŁeker": 8204,
      "ĠkarÅŁÄ±laÅŁtÄ±r": 8205,
      "Ġderail": 8206,
      "Ġengagement": 8207,
      "ĠgereÄŁi": 8208,
      "ĠdavranÄ±ÅŁÄ±": 8209,
      "ĠÃ§eviri": 8210,
      "Ġappreciation": 8211,
      "Ġenjoying": 8212,
      "esap": 8213,
      "any": 8214,
      "Ġcut": 8215,
      "Ġcities": 8216,
      "Ġsix": 8217,
      "Ġprim": 8218,
      "ouble": 8219,
      "ĠEff": 8220,
      "Ġ71": 8221,
      "Ġfeet": 8222,
      "809": 8223,
      "ĠÃ§ekmeyi": 8224,
      "Ġistem": 8225,
      "Ġrooms": 8226,
      "Ġrecip": 8227,
      "ĠmesajlarÄ±": 8228,
      "earching": 8229,
      "Ġcontent": 8230,
      "Ġenvironmental": 8231,
      "ĠsÃ¼recin": 8232,
      "Ġmalze": 8233,
      "Ġpurch": 8234,
      "bilmek": 8235,
      "Ġseninle": 8236,
      "ĠrahatlatÄ±cÄ±": 8237,
      "Ġbeklemeyin": 8238,
      "Ġimpulsively": 8239,
      "Ġportre": 8240,
      "Ġinteresting": 8241,
      "Ġsprints": 8242,
      "Ġdetours": 8243,
      "ĠdoÄŁrultusunda": 8244,
      "bilg": 8245,
      "eple": 8246,
      "focus": 8247,
      "Ġhop": 8248,
      "Ġworth": 8249,
      "Ġthir": 8250,
      "Ġmail": 8251,
      "Ġmola": 8252,
      "lerinizin": 8253,
      "Ġresearching": 8254,
      "ĠÃ¶ÄŁret": 8255,
      "Ġasist": 8256,
      "802": 8257,
      "803": 8258,
      "804": 8259,
      "Ġhedefleyerek": 8260,
      "Ġyoludur": 8261,
      "ĠdÃ¼zenlemeye": 8262,
      "ĠgÃ¶rÃ¼": 8263,
      "ĠalanÄ±nÄ±": 8264,
      "ansÃ¶r": 8265,
      "Ġactual": 8266,
      "Ġdefa": 8267,
      "Ãĸrn": 8268,
      "Ġalarms": 8269,
      "Ġbelongs": 8270,
      "Ġfilm": 8271,
      "Ġstruggle": 8272,
      "Ä±ra": 8273,
      "Ġtech": 8274,
      "aket": 8275,
      "Ġfare": 8276,
      "Ġanlar": 8277,
      "ĠÃ§arp": 8278,
      "Ġ413": 8279,
      "Ġleg": 8280,
      "ondan": 8281,
      "Ġ201": 8282,
      "Ġ161": 8283,
      "ĠÃ§alÄ±ÅŁÄ±r": 8284,
      "Ġdistracting": 8285,
      "Ġtamamlayarak": 8286,
      "Ġhareketlerle": 8287,
      "ĠbakÄ±ÅŁ": 8288,
      "Ġuykuyu": 8289,
      "ology": 8290,
      "Ġbazen": 8291,
      "Ġnutriti": 8292,
      "ĠEffective": 8293,
      "Tube": 8294,
      "io": 8295,
      "ĠinÅŁa": 8296,
      "ginÃ§": 8297,
      "omb": 8298,
      "ĠDenizle": 8299,
      "karak": 8300,
      "Ġediyor": 8301,
      "000": 8302,
      "ĠBirincisi": 8303,
      "Ġgeliyor": 8304,
      "ĠÃ§Ä±kan": 8305,
      "Ġenerjisi": 8306,
      "Ġtelefonunuzdan": 8307,
      "ĠÃĸÄŁrenmeyi": 8308,
      "ÅŁaÄŁÄ±daki": 8309,
      "ĠAlÄ±ÅŁkanlÄ±klar": 8310,
      "ĠtarafÄ±n": 8311,
      "ĠiÅŁlev": 8312,
      "ĠmantÄ±klÄ±sÄ±": 8313,
      "Ġoccasion": 8314,
      "ĠfaktÃ¶r": 8315,
      "Ġnutritious": 8316,
      "Ġ[": 8317,
      "Ä±ÄŁÄ±nÄ±": 8318,
      "elisiniz": 8319,
      "ulu": 8320,
      "Ã§alÄ±ÅŁ": 8321,
      "Ġmeas": 8322,
      "Ġcomment": 8323,
      "Ġyerin": 8324,
      "Ġbelirgin": 8325,
      "Ġinterfer": 8326,
      "Ġedilen": 8327,
      "ĠbaÅŁlayanlar": 8328,
      "Ġtalep": 8329,
      "ĠbaÅŁarÄ±ya": 8330,
      "Ġagainst": 8331,
      "ĠkiÅŁiyi": 8332,
      "ĠsabÄ±rlÄ±": 8333,
      "ĠExpress": 8334,
      "Ġobligation": 8335,
      "Ġprimary": 8336,
      "tarÄ±": 8337,
      "ont": 8338,
      "inc": 8339,
      "Ä±yorsunuz": 8340,
      "tiren": 8341,
      "ĠDoÄŁ": 8342,
      "ĠmÃ¼zik": 8343,
      "unk": 8344,
      "Ġsona": 8345,
      "884": 8346,
      "selves": 8347,
      "tÄ±ÄŁÄ±": 8348,
      "Ġortalama": 8349,
      "ĠsÄ±kÄ±": 8350,
      "Ġagend": 8351,
      "ĠsaÄŁlayabilirsiniz": 8352,
      "Ġkaydederek": 8353,
      "Ġdesignate": 8354,
      "Ġsounds": 8355,
      "ĠhedeflediÄŁiniz": 8356,
      "Ġkonularda": 8357,
      "Ġstacking": 8358,
      "Ar": 8359,
      "cÃ¼k": 8360,
      "dim": 8361,
      "ious": 8362,
      "Ġski": 8363,
      "ants": 8364,
      "ĠBaz": 8365,
      "ĠGreat": 8366,
      "ased": 8367,
      "ĠÃ¶neriniz": 8368,
      "Ġkare": 8369,
      "Ġ423": 8370,
      "Ġvurg": 8371,
      "ĠartÄ±rarak": 8372,
      "807": 8373,
      "Ġsuit": 8374,
      "zeti": 8375,
      "ecektir": 8376,
      "Ġertesi": 8377,
      "Ġgereksin": 8378,
      "ĠgÃ¶zlerinizi": 8379,
      "Ġrecord": 8380,
      "ĠsÄ±caklÄ±k": 8381,
      "ĠpaylaÅŁarak": 8382,
      "Ġsoruya": 8383,
      "ĠanlaÅŁÄ±l": 8384,
      "ĠSÄ±fÄ±r": 8385,
      "Ġpicture": 8386,
      "Ġconscious": 8387,
      "Hedef": 8388,
      "dik": 8389,
      "isc": 8390,
      "sab": 8391,
      "Ġinstant": 8392,
      "Ġissue": 8393,
      "Ġkonunun": 8394,
      "Ġori": 8395,
      "ĠHang": 8396,
      "Ġbuz": 8397,
      "801": 8398,
      "886": 8399,
      "Ġoutdo": 8400,
      "Ġrestore": 8401,
      "ĠThey": 8402,
      "Ġlighting": 8403,
      "Ġlightweight": 8404,
      "diÄŁinde": 8405,
      "Ġstressed": 8406,
      "Ġelsewhere": 8407,
      "Ġlesson": 8408,
      "Ġkahves": 8409,
      "Ġrutinler": 8410,
      "ĠÃ§izmek": 8411,
      "ĠÃ§izgi": 8412,
      "Ġcycles": 8413,
      "Ġreplacement": 8414,
      "Ġvakti": 8415,
      "Ġspontaneity": 8416,
      "ĠaÅŁÄ±rÄ±": 8417,
      "Ġsituations": 8418,
      "Ġtracking": 8419,
      "case": 8420,
      "Ġaud": 8421,
      "Ġcap": 8422,
      "Ġfer": 8423,
      "Ġfile": 8424,
      "rip": 8425,
      "ĠanlarÄ±": 8426,
      "lerinin": 8427,
      "Ġrare": 8428,
      "ĠÅŁef": 8429,
      "beti": 8430,
      "881": 8431,
      "885": 8432,
      "Ġhedefiniz": 8433,
      "Ġesn": 8434,
      "ĠsÃ¼recinde": 8435,
      "Ġsalat": 8436,
      "dikten": 8437,
      "hour": 8438,
      "Ġ0": 8439,
      "Ġpages": 8440,
      "Ġdam": 8441,
      "ĠverdiÄŁiniz": 8442,
      "Ġleft": 8443,
      "Ġword": 8444,
      "ĠdakikasÄ±": 8445,
      "ĠFlights": 8446,
      "888": 8447,
      "ĠdÃ¼zeninde": 8448,
      "Ġopening": 8449,
      "Ġload": 8450,
      "Ġfixing": 8451,
      "ĠÅŀehir": 8452,
      "ĠvÃ¼cudunuza": 8453,
      "Ġindivid": 8454,
      "Ġkoyup": 8455,
      "Ġempat": 8456,
      "ĠarayÄ±n": 8457,
      "Ġobserv": 8458,
      "Ġtoiletries": 8459,
      "Ġtechn": 8460,
      "nation": 8461,
      "Ġsyn": 8462,
      "Ġdenize": 8463,
      "ĠdakikasÄ±nÄ±": 8464,
      "Ġkendisi": 8465,
      "883": 8466,
      "ĠkullanÄ±p": 8467,
      "224": 8468,
      "225": 8469,
      "ĠÃ¶ÄŁrenmektir": 8470,
      "ĠistediÄŁinize": 8471,
      "oughly": 8472,
      "Ġestim": 8473,
      "tirebilir": 8474,
      "ĠAlÄ±ÅŁkanlÄ±klarÄ±": 8475,
      "Ġbitire": 8476,
      "ĠBaÅŁarÄ±lÄ±": 8477,
      "Ġtablet": 8478,
      "ĠcevabÄ±": 8479,
      "solida": 8480,
      "Ġsenaryo": 8481,
      "Ġagenda": 8482,
      "uÃ§": 8483,
      "Ġcross": 8484,
      "ĠyukarÄ±": 8485,
      "ĠgÃ¼r": 8486,
      "Ġbeginning": 8487,
      "Ġsaate": 8488,
      "882": 8489,
      "887": 8490,
      "226": 8491,
      "Ġkurs": 8492,
      "Ġalanlarda": 8493,
      "diÄŁinizi": 8494,
      "Ã¼nÃ¼zde": 8495,
      "Ġmethods": 8496,
      "Ġsalata": 8497,
      "Ġbununla": 8498,
      "Ġtwice": 8499,
      "Ġyiyecek": 8500,
      "gÃ¶": 8501,
      "igh": 8502,
      "Ġaile": 8503,
      "Ġpir": 8504,
      "anta": 8505,
      "ello": 8506,
      "tep": 8507,
      "aklaÅŁ": 8508,
      "Ġmara": 8509,
      "ĠSh": 8510,
      "ĠSend": 8511,
      "ĠyapmanÄ±zÄ±": 8512,
      "Ġ62": 8513,
      "ĠKaf": 8514,
      "ĠsuÃ§": 8515,
      "Ġelb": 8516,
      "Ġdurup": 8517,
      "ĠalanÄ±na": 8518,
      "ĠsorunlarÄ±nÄ±z": 8519,
      "Ġhissetme": 8520,
      "ĠEvde": 8521,
      "Ġlasting": 8522,
      "Ġoturun": 8523,
      "ĠÃ§evre": 8524,
      "ĠfÄ±rÄ±n": 8525,
      "ĠÄ°ÅŁte": 8526,
      "ĠaÃ§Ä±sÄ±ndan": 8527,
      "Ġenter": 8528,
      "Ġhydration": 8529,
      "Ġchaos": 8530,
      "Ġyuvar": 8531,
      "ĠSessiz": 8532,
      "tra": 8533,
      "ĠkÃ¼Ã§": 8534,
      "itely": 8535,
      "lerseniz": 8536,
      "ĠplanlamayÄ±": 8537,
      "ĠZeyneple": 8538,
      "eceÄŁini": 8539,
      "deep": 8540,
      "Ġsorusunu": 8541,
      "Ġlistele": 8542,
      "Ġdilini": 8543,
      "ildiÄŁi": 8544,
      "221": 8545,
      "229": 8546,
      "ĠhÄ±zlandÄ±": 8547,
      "Ġease": 8548,
      "Ġconnecting": 8549,
      "Ġknows": 8550,
      "Ġagree": 8551,
      "ĠprogramÄ±nÄ±": 8552,
      "Ġachievement": 8553,
      "Ġuykudan": 8554,
      "ĠÃ§evren": 8555,
      "ĠkolaylaÅŁtÄ±racak": 8556,
      "Ġsulama": 8557,
      "Ġbelirtirseniz": 8558,
      "ĠgÃ¼lÃ¼m": 8559,
      "ĠkalabalÄ±k": 8560,
      "ynamic": 8561,
      "Ġmarath": 8562,
      "hazÄ±r": 8563,
      "yim": 8564,
      "ĠsÄ±nÄ±": 8565,
      "Ġkop": 8566,
      "Ġdynamic": 8567,
      "Ġinvite": 8568,
      "Ġzorlayan": 8569,
      "ĠanlamlÄ±": 8570,
      "Ġbypass": 8571,
      "Ġseek": 8572,
      "222": 8573,
      "Ġsorununu": 8574,
      "ĠoluÅŁturmaya": 8575,
      "ĠakÅŁamÄ±": 8576,
      "Ġpencer": 8577,
      "Ġrequest": 8578,
      "Ġ318": 8579,
      "ĠihtiyacÄ±": 8580,
      "Ġkaydedip": 8581,
      "ĠkarmaÅŁ": 8582,
      "ĠbaÅŁlarsanÄ±z": 8583,
      "ĠkaÄŁÄ±dÄ±": 8584,
      "ĠkolaylaÅŁÄ±r": 8585,
      "Ġaccountability": 8586,
      "Ġkeyifli": 8587,
      "Pick": 8588,
      "fotoÄŁraf": 8589,
      "jour": 8590,
      "van": 8591,
      "ĠkaÅŁ": 8592,
      "Ġkurarak": 8593,
      "tecek": 8594,
      "Ġyudum": 8595,
      "adaki": 8596,
      "Ġkate": 8597,
      "ĠzamanÄ±n": 8598,
      "Ġsleepy": 8599,
      "Ġintended": 8600,
      "ĠgÃ¶lg": 8601,
      "ĠsÃ¼reler": 8602,
      "edeki": 8603,
      "ĠtÃ¼rÃ¼ne": 8604,
      "Ġpressured": 8605,
      "Ġterms": 8606,
      "ĠkamerayÄ±": 8607,
      "Ġobj": 8608,
      "ĠRespect": 8609,
      "Ġsohbeti": 8610,
      "Ġlooks": 8611,
      "Ġgrouping": 8612,
      "Ġgetirmek": 8613,
      "Ġmemorizing": 8614,
      "ĠKonuyu": 8615,
      "Ġuykusuz": 8616,
      "ĠgÃ¼Ã§lendirir": 8617,
      "Ġboyut": 8618,
      "Ġreflecting": 8619,
      "kalem": 8620,
      "Ġexplore": 8621,
      "ctions": 8622,
      "Ġneyin": 8623,
      "ĠDolayÄ±sÄ±yla": 8624,
      "ved": 8625,
      "Ġfur": 8626,
      "Ġanah": 8627,
      "lardÄ±r": 8628,
      "Ġdom": 8629,
      "suna": 8630,
      "Ġokur": 8631,
      "223": 8632,
      "227": 8633,
      "clear": 8634,
      "ĠodaklanmaktÄ±r": 8635,
      "Ġ298": 8636,
      "Ġapply": 8637,
      "ĠbÄ±rakmayÄ±n": 8638,
      "Ġvisits": 8639,
      "ĠihtiyacÄ±n": 8640,
      "Ġkazanmak": 8641,
      "Ġsummarize": 8642,
      "Ġchats": 8643,
      "Ġmakine": 8644,
      "Ġkategor": 8645,
      "ied": 8646,
      "Ġbot": 8647,
      "alog": 8648,
      "orba": 8649,
      "ĠDikkat": 8650,
      "dÄ±ÄŁÄ±n": 8651,
      "atter": 8652,
      "Ġuyul": 8653,
      "Ġbelirten": 8654,
      "Ġ303": 8655,
      "Ġyolunu": 8656,
      "ĠkarÅŁÄ±sÄ±nda": 8657,
      "ĠyarÄ±m": 8658,
      "Ġunexpectedly": 8659,
      "ĠdÃ¼ÅŁÃ¼rÃ¼r": 8660,
      "Ġtypes": 8661,
      "Ġsolution": 8662,
      "gencies": 8663,
      "Ġemergencies": 8664,
      "ĠhÄ±zlandÄ±rÄ±r": 8665,
      "Ġsuyunu": 8666,
      "Ġburada": 8667,
      "Ġcorrect": 8668,
      "Ġfurther": 8669,
      "The": 8670,
      "Ġhep": 8671,
      "Ġhaber": 8672,
      "lations": 8673,
      "Ġbirim": 8674,
      "Ã¼nÃ¼n": 8675,
      "Ġzem": 8676,
      "ĠyapmayÄ±n": 8677,
      "ĠyazdÄ±ÄŁÄ±nÄ±z": 8678,
      "ĠalÄ±rken": 8679,
      "Ġkalb": 8680,
      "ĠaralÄ±": 8681,
      "ĠseÃ§erken": 8682,
      "Ġhedefini": 8683,
      "arakter": 8684,
      "Ġedersiniz": 8685,
      "ĠkuralÄ±": 8686,
      "Ġspeech": 8687,
      "Ġayarlamak": 8688,
      "Ġmisin": 8689,
      "ĠbaÄŁÄ±m": 8690,
      "Ġseviyeniz": 8691,
      "ĠkazanÄ±m": 8692,
      "Ġcountertop": 8693,
      "Ġassumptions": 8694,
      "Ġdikkatlice": 8695,
      "gÃ¶z": 8696,
      "Ġbored": 8697,
      "Ġmass": 8698,
      "Ġuyurken": 8699,
      "lerinizle": 8700,
      "ĠzorlaÅŁtÄ±r": 8701,
      "ĠplanlanmÄ±ÅŁ": 8702,
      "Ġrap": 8703,
      "ĠtutarlÄ±": 8704,
      "Ġunhe": 8705,
      "Ġilerleyen": 8706,
      "ĠgÃ¶revlerin": 8707,
      "Ġrealistically": 8708,
      "ĠSleeping": 8709,
      "Ġdefterine": 8710,
      "Ġforced": 8711,
      "olume": 8712,
      "Ġprovides": 8713,
      "ĠyÃ¶netmek": 8714,
      "ĠbaÅŁlÄ±yorsanÄ±z": 8715,
      "visit": 8716,
      "ĠÄ°stediÄŁiniz": 8717,
      "Ġsupportive": 8718,
      "hum": 8719,
      "nun": 8720,
      "rat": 8721,
      "ĠyÄ±l": 8722,
      "Ġfoto": 8723,
      "Ġgems": 8724,
      "ĠBilgi": 8725,
      "ably": 8726,
      "Ġzaten": 8727,
      "lÄ±nda": 8728,
      "Ġbeden": 8729,
      "Ġetmenizi": 8730,
      "ĠseÃ§tiÄŁiniz": 8731,
      "Ġhedefleri": 8732,
      "ĠkarÅŁ": 8733,
      "Ä±lma": 8734,
      "ĠalanlarÄ±nÄ±": 8735,
      "Ġnefesini": 8736,
      "Ġrecomm": 8737,
      "Ġgidiyor": 8738,
      "ĠendiÅŁ": 8739,
      "Ġsistemini": 8740,
      "ĠoluÅŁturarak": 8741,
      "Ġtelev": 8742,
      "Uy": 8743,
      "dge": 8744,
      "isk": 8745,
      "reement": 8746,
      "ĠkaÅŁÄ±k": 8747,
      "Ġhitap": 8748,
      "ĠEyl": 8749,
      "lediÄŁiniz": 8750,
      "ĠdediÄŁ": 8751,
      "ĠEngage": 8752,
      "ither": 8753,
      "Ġadim": 8754,
      "larken": 8755,
      "edir": 8756,
      "ĠdayalÄ±": 8757,
      "ĠdeÄŁeri": 8758,
      "ĠdeÄŁiÅŁtirerek": 8759,
      "Ġ91": 8760,
      "Ġintrod": 8761,
      "Ġmanaging": 8762,
      "Ġdaire": 8763,
      "ĠÃ§alÄ±ÅŁmaktÄ±r": 8764,
      "Ġ362": 8765,
      "Ġhedeflere": 8766,
      "Ġendless": 8767,
      "ĠortamÄ±": 8768,
      "ĠkolaylaÅŁtÄ±rÄ±n": 8769,
      "tÄ±rabilir": 8770,
      "ĠduyduÄŁun": 8771,
      "ĠsÃ¶zlÃ¼k": 8772,
      "Ġincreasing": 8773,
      "Ġharcamak": 8774,
      "ĠuygulamalarÄ±nÄ±": 8775,
      "Ġbarriers": 8776,
      "Ġkenar": 8777,
      "Ġlayers": 8778,
      "ĠGÃ¶revlerinizi": 8779,
      "Ġpiling": 8780,
      "ozisyon": 8781,
      "ĠBazen": 8782,
      "ĠEylÃ¼l": 8783,
      "neden": 8784,
      "onda": 8785,
      "oda": 8786,
      "izyon": 8787,
      "Ġstories": 8788,
      "ĠRe": 8789,
      "Ġkalmaya": 8790,
      "Ġtransi": 8791,
      "ĠasansÃ¶r": 8792,
      "Ġsorul": 8793,
      "Ġoturarak": 8794,
      "ĠkullanÄ±rken": 8795,
      "Ġ282": 8796,
      "ĠBirinci": 8797,
      "Ġdurumlarda": 8798,
      "ĠodaklanmÄ±ÅŁ": 8799,
      "Ġreplying": 8800,
      "ĠolanlarÄ±": 8801,
      "value": 8802,
      "ĠseÃ§enektir": 8803,
      "ĠgÃ¶rÃ¼nÃ¼r": 8804,
      "ĠElinizde": 8805,
      "ĠHava": 8806,
      "Ġpanic": 8807,
      "ĠÃ§ubuk": 8808,
      "Ġfails": 8809,
      "Ġmetaboliz": 8810,
      "ĠYemek": 8811,
      "ĠWait": 8812,
      "Ġmilest": 8813,
      "Ġmassive": 8814,
      "Siz": 8815,
      "Ġpure": 8816,
      "ala": 8817,
      "ÅŁek": 8818,
      "ĠYouTube": 8819,
      "amÄ±yorum": 8820,
      "ĠGer": 8821,
      "Ġmoves": 8822,
      "Ġnem": 8823,
      "think": 8824,
      "ĠartÄ±racak": 8825,
      "ĠAynÄ±": 8826,
      "asÄ±ndan": 8827,
      "Ġanyone": 8828,
      "ĠalÄ±ÅŁkanlÄ±klarÄ±nÄ±zÄ±": 8829,
      "Ġuzat": 8830,
      "Ġdefensive": 8831,
      "ebiliriz": 8832,
      "Ġprocrastin": 8833,
      "ĠtanÄ±mlayÄ±n": 8834,
      "Ġencourages": 8835,
      "Ġkaydetmek": 8836,
      "ĠÃ¶ÄŁrenerek": 8837,
      "ĠbaÅŁkalar": 8838,
      "Ġdelayed": 8839,
      "Ġrushed": 8840,
      "Ġpattern": 8841,
      "Ġrefreshed": 8842,
      "Ġcompliments": 8843,
      "Ġsmooth": 8844,
      "Ġsindirim": 8845,
      "Ġrarely": 8846,
      "ring": 8847,
      "rang": 8848,
      "yken": 8849,
      "Ġ/": 8850,
      "ssing": 8851,
      "itation": 8852,
      "ĠbirleÅŁtir": 8853,
      "larÄ±m": 8854,
      "lÄ±ÄŁÄ±nÄ±z": 8855,
      "Ġ421": 8856,
      "ĠyazdÄ±r": 8857,
      "ĠAyÅŁe": 8858,
      "Ġthemselves": 8859,
      "Ġkullanmaktan": 8860,
      "Ġ273": 8861,
      "Ã¼rekli": 8862,
      "ĠsÃ¼rece": 8863,
      "Ġscatter": 8864,
      "Ġteknoloj": 8865,
      "ĠWi": 8866,
      "Ġ342": 8867,
      "Ġroad": 8868,
      "ĠnetleÅŁ": 8869,
      "Ġizleme": 8870,
      "Ġspeaks": 8871,
      "Ġincelem": 8872,
      "ĠkaynaklarÄ±": 8873,
      "ĠayÄ±ra": 8874,
      "Ġmeditasyon": 8875,
      "ĠKonuÅŁma": 8876,
      "Ġcountry": 8877,
      "Ġlisteleyin": 8878,
      "ĠkavramlarÄ±": 8879,
      "Ġtencer": 8880,
      "814": 8881,
      "DoÄŁ": 8882,
      "Fi": 8883,
      "HÄ±zlÄ±": 8884,
      "iÃ§": 8885,
      "istic": 8886,
      "Ġkarakter": 8887,
      "ĠdÃ¼ny": 8888,
      "Ġinner": 8889,
      "ades": 8890,
      "amanÄ±zÄ±": 8891,
      "velop": 8892,
      "ĠdÃ¼zgÃ¼n": 8893,
      "ĠbahÃ§enizi": 8894,
      "Ġyemekler": 8895,
      "ĠalÄ±m": 8896,
      "Ġaramak": 8897,
      "Ġmotivasyonunuzu": 8898,
      "Ġ392": 8899,
      "Ġlaugh": 8900,
      "ĠdÃ¼ÅŁÃ¼nme": 8901,
      "Ġendor": 8902,
      "ĠdeÄŁiÅŁir": 8903,
      "Ġedebilir": 8904,
      "Ġdirekt": 8905,
      "ĠdÃ¶nem": 8906,
      "Ġsohbetler": 8907,
      "ĠSÃ¼reÃ§": 8908,
      "ĠkÃ¶k": 8909,
      "Ä±ldÄ±ÄŁÄ±nda": 8910,
      "Ġsaniyelik": 8911,
      "ox": 8912,
      "rit": 8913,
      "Ġidi": 8914,
      "lamanÄ±z": 8915,
      "lÄ±ÄŁÄ±n": 8916,
      "Ġbulabilirsiniz": 8917,
      "Ġjok": 8918,
      "Ġoku": 8919,
      "Ġokun": 8920,
      "Ġ243": 8921,
      "Ġ263": 8922,
      "Ġedit": 8923,
      "ĠiÅŁlerini": 8924,
      "Ġ352": 8925,
      "akkab": 8926,
      "ĠgÃ¼nÃ¼ne": 8927,
      "Ġdialog": 8928,
      "ĠÄ°stanbullu": 8929,
      "Ġkelimesi": 8930,
      "ĠvÃ¼cudunuz": 8931,
      "Ä±larak": 8932,
      "ĠgÃ¶ndermek": 8933,
      "ĠgÃ¶steren": 8934,
      "trip": 8935,
      "Ġchargers": 8936,
      "Ġlisteley": 8937,
      "Ġkickstart": 8938,
      "Ġdialogue": 8939,
      "834": 8940,
      "Ġkura": 8941,
      "ĠYour": 8942,
      "Ġfight": 8943,
      "Ä°ÅŁ": 8944,
      "Ġvermeden": 8945,
      "ĠzorlandÄ±ÄŁÄ±nÄ±z": 8946,
      "Ġrested": 8947,
      "Ġdost": 8948,
      "ĠElifle": 8949,
      "ĠalÄ±r": 8950,
      "Ġkalmak": 8951,
      "Ġ253": 8952,
      "Ġdilinizi": 8953,
      "Ġ242": 8954,
      "ĠsÃ¼recek": 8955,
      "arklÄ±": 8956,
      "Ġdurumunuza": 8957,
      "Ġ293": 8958,
      "Ġ393": 8959,
      "Ġ402": 8960,
      "Ġ403": 8961,
      "Ġspeed": 8962,
      "Ġizleyebilirsiniz": 8963,
      "Ġbudgeting": 8964,
      "ĠÄ±ÅŁÄ±ÄŁÄ±nda": 8965,
      "ĠanlatÄ±m": 8966,
      "Ġderece": 8967,
      "ĠsabÄ±rsÄ±z": 8968,
      "ĠakÄ±ÅŁÄ±nÄ±": 8969,
      "ĠyÃ¼rÃ¼menizi": 8970,
      "Ġconcerns": 8971,
      "Ġdeliberate": 8972,
      "Ġspirit": 8973,
      "Ġproper": 8974,
      "journey": 8975,
      "?)": 8976,
      "bile": 8977,
      "yÄ±n": 8978,
      "Ġclim": 8979,
      "ĠTaking": 8980,
      "ĠayarÄ±": 8981,
      "Ġbiridir": 8982,
      "Ġstory": 8983,
      "liÄŁinde": 8984,
      "ĠbaÅŁÄ±nÄ±": 8985,
      "Ġverip": 8986,
      "ĠRut": 8987,
      "Ã¼yle": 8988,
      "Ġoversp": 8989,
      "Ġsorusuna": 8990,
      "Ġkendisini": 8991,
      "ĠgÃ¼veni": 8992,
      "Ġlaz": 8993,
      "ĠoluÅŁturup": 8994,
      "Ġmesajda": 8995,
      "Ġhissetmeniz": 8996,
      "Ġsunmak": 8997,
      "ĠUyan": 8998,
      "Ġcleanup": 8999,
      "Ã¼nÃ¼zÃ¼n": 9000,
      "ĠgÃ¶rÃ¼nÃ¼m": 9001,
      "Ġgetirir": 9002,
      "Ġgetirerek": 9003,
      "mezsiniz": 9004,
      "ĠcÃ¼mlede": 9005,
      "Ġbringing": 9006,
      "habits": 9007,
      "Ġconditions": 9008,
      "ĠtadÄ±nÄ±": 9009,
      "Ã¼cadele": 9010,
      "wind": 9011,
      "Ġmiy": 9012,
      "Ġince": 9013,
      "ĠÃ¶rne": 9014,
      "ĠayÄ±rma": 9015,
      "Ġ431": 9016,
[...]
