{
  "version": "1.0",
  "truncation": null,
  "padding": null,
  "added_tokens": [
    {
      "id": 0,
      "content": "<unk>",
      "single_word": false,
      "lstrip": false,
      "rstrip": false,
      "normalized": false,
      "special": true
    },
    {
      "id": 1,
      "content": "<s>",
      "single_word": false,
      "lstrip": false,
      "rstrip": false,
      "normalized": false,
      "special": true
    },
    {
      "id": 2,
      "content": "</s>",
      "single_word": false,
      "lstrip": false,
      "rstrip": false,
      "normalized": false,
      "special": true
    },
    {
      "id": 3,
      "content": "<pad>",
      "single_word": false,
      "lstrip": false,
      "rstrip": false,
      "normalized": false,
      "special": true
    },
    {
      "id": 4,
      "content": "<|system|>",
      "single_word": false,
      "lstrip": false,
      "rstrip": false,
      "normalized": false,
      "special": true
    },
    {
      "id": 5,
      "content": "<|user|>",
      "single_word": false,
      "lstrip": false,
      "rstrip": false,
      "normalized": false,
      "special": true
    },
    {
      "id": 6,
      "content": "<|assistant|>",
      "single_word": false,
      "lstrip": false,
      "rstrip": false,
      "normalized": false,
      "special": true
    },
    {
      "id": 7,
      "content": "<|end|>",
      "single_word": false,
      "lstrip": false,
      "rstrip": false,
      "normalized": false,
      "special": true
    },
    {
      "id": 8,
      "content": "<|code|>",
      "single_word": false,
      "lstrip": false,
      "rstrip": false,
      "normalized": false,
      "special": true
    }
  ],
  "normalizer": null,
  "pre_tokenizer": {
    "type": "Sequence",
    "pretokenizers": [
      {
        "type": "Split",
        "pattern": {
          "Regex": "'(?i:[sdmt]|ll|ve|re)|[^\\r\\n\\p{L}\\p{N}]?+\\p{L}++|\\p{N}{1,3}+| ?[^\\s\\p{L}\\p{N}]++[\\r\\n]*+|\\s*[\\r\\n]|\\s+(?!\\S)|\\s+"
        },
        "behavior": "Isolated",
        "invert": false
      },
      {
        "type": "ByteLevel",
        "add_prefix_space": false,
        "trim_offsets": true,
        "use_regex": false
      }
    ]
  },
  "post_processor": {
    "type": "ByteLevel",
    "add_prefix_space": true,
    "trim_offsets": false,
    "use_regex": true
  },
  "decoder": {
    "type": "ByteLevel",
    "add_prefix_space": true,
    "trim_offsets": true,
    "use_regex": true
  },
  "model": {
    "type": "BPE",
    "dropout": null,
    "unk_token": "<unk>",
    "continuing_subword_prefix": null,
    "end_of_word_suffix": null,
    "fuse_unk": false,
    "byte_fallback": false,
    "ignore_merges": false,
    "vocab": {
      "<unk>": 0,
      "<s>": 1,
      "</s>": 2,
      "<pad>": 3,
      "<|system|>": 4,
      "<|user|>": 5,
      "<|assistant|>": 6,
      "<|end|>": 7,
      "<|code|>": 8,
      "!": 9,
      "\"": 10,
      "#": 11,
      "$": 12,
      "%": 13,
      "&": 14,
      "'": 15,
      "(": 16,
      ")": 17,
      "*": 18,
      "+": 19,
      ",": 20,
      "-": 21,
      ".": 22,
      "/": 23,
      "0": 24,
      "1": 25,
      "2": 26,
      "3": 27,
      "4": 28,
      "5": 29,
      "6": 30,
      "7": 31,
      "8": 32,
      "9": 33,
      ":": 34,
      ";": 35,
      "<": 36,
      "=": 37,
      ">": 38,
      "?": 39,
      "@": 40,
      "A": 41,
      "B": 42,
      "C": 43,
      "D": 44,
      "E": 45,
      "F": 46,
      "G": 47,
      "H": 48,
      "I": 49,
      "J": 50,
      "K": 51,
      "L": 52,
      "M": 53,
      "N": 54,
      "O": 55,
      "P": 56,
      "Q": 57,
      "R": 58,
      "S": 59,
      "T": 60,
      "U": 61,
      "V": 62,
      "W": 63,
      "X": 64,
      "Y": 65,
      "Z": 66,
      "[": 67,
      "\\": 68,
      "]": 69,
      "^": 70,
      "_": 71,
      "`": 72,
      "a": 73,
      "b": 74,
      "c": 75,
      "d": 76,
      "e": 77,
      "f": 78,
      "g": 79,
      "h": 80,
      "i": 81,
      "j": 82,
      "k": 83,
      "l": 84,
      "m": 85,
      "n": 86,
      "o": 87,
      "p": 88,
      "q": 89,
      "r": 90,
      "s": 91,
      "t": 92,
      "u": 93,
      "v": 94,
      "w": 95,
      "x": 96,
      "y": 97,
      "z": 98,
      "{": 99,
      "|": 100,
      "}": 101,
      "~": 102,
      "¡": 103,
      "¢": 104,
      "£": 105,
      "¤": 106,
      "¥": 107,
      "¦": 108,
      "§": 109,
      "¨": 110,
      "©": 111,
      "ª": 112,
      "«": 113,
      "¬": 114,
      "®": 115,
      "¯": 116,
      "°": 117,
      "±": 118,
      "²": 119,
      "³": 120,
      "´": 121,
      "µ": 122,
      "¶": 123,
      "·": 124,
      "¸": 125,
      "¹": 126,
      "º": 127,
      "»": 128,
      "¼": 129,
      "½": 130,
      "¾": 131,
      "¿": 132,
      "À": 133,
      "Á": 134,
      "Â": 135,
      "Ã": 136,
      "Ä": 137,
      "Å": 138,
      "Æ": 139,
      "Ç": 140,
      "È": 141,
      "É": 142,
      "Ê": 143,
      "Ë": 144,
      "Ì": 145,
      "Í": 146,
      "Î": 147,
      "Ï": 148,
      "Ð": 149,
      "Ñ": 150,
      "Ò": 151,
      "Ó": 152,
      "Ô": 153,
      "Õ": 154,
      "Ö": 155,
      "×": 156,
      "Ø": 157,
      "Ù": 158,
      "Ú": 159,
      "Û": 160,
      "Ü": 161,
      "Ý": 162,
      "Þ": 163,
      "ß": 164,
      "à": 165,
      "á": 166,
      "â": 167,
      "ã": 168,
      "ä": 169,
      "å": 170,
      "æ": 171,
      "ç": 172,
      "è": 173,
      "é": 174,
      "ê": 175,
      "ë": 176,
      "ì": 177,
      "í": 178,
      "î": 179,
      "ï": 180,
      "ð": 181,
      "ñ": 182,
      "ò": 183,
      "ó": 184,
      "ô": 185,
      "õ": 186,
      "ö": 187,
      "÷": 188,
      "ø": 189,
      "ù": 190,
      "ú": 191,
      "û": 192,
      "ü": 193,
      "ý": 194,
      "þ": 195,
      "ÿ": 196,
      "Ā": 197,
      "ā": 198,
      "Ă": 199,
      "ă": 200,
      "Ą": 201,
      "ą": 202,
      "Ć": 203,
      "ć": 204,
      "Ĉ": 205,
      "ĉ": 206,
      "Ċ": 207,
      "ċ": 208,
      "Č": 209,
      "č": 210,
      "Ď": 211,
      "ď": 212,
      "Đ": 213,
      "đ": 214,
      "Ē": 215,
      "ē": 216,
      "Ĕ": 217,
      "ĕ": 218,
      "Ė": 219,
      "ė": 220,
      "Ę": 221,
      "ę": 222,
      "Ě": 223,
      "ě": 224,
      "Ĝ": 225,
      "ĝ": 226,
      "Ğ": 227,
      "ğ": 228,
      "Ġ": 229,
      "ġ": 230,
      "Ģ": 231,
      "ģ": 232,
      "Ĥ": 233,
      "ĥ": 234,
      "Ħ": 235,
      "ħ": 236,
      "Ĩ": 237,
      "ĩ": 238,
      "Ī": 239,
      "ī": 240,
      "Ĭ": 241,
      "ĭ": 242,
      "Į": 243,
      "į": 244,
      "İ": 245,
      "ı": 246,
      "Ĳ": 247,
      "ĳ": 248,
      "Ĵ": 249,
      "ĵ": 250,
      "Ķ": 251,
      "ķ": 252,
      "ĸ": 253,
      "Ĺ": 254,
      "ĺ": 255,
      "Ļ": 256,
      "ļ": 257,
      "Ľ": 258,
      "ľ": 259,
      "Ŀ": 260,
      "ŀ": 261,
      "Ł": 262,
      "ł": 263,
      "Ń": 264,
      "Ġa": 265,
      "<|": 266,
      "|>": 267,
      "Ä±": 268,
      "is": 269,
      "nd": 270,
      "on": 271,
      "in": 272,
      "er": 273,
      "an": 274,
      "Ġc": 275,
      "end": 276,
      "ĠĊ": 277,
      "|>:": 278,
      "|>Ċ": 279,
      "ti": 280,
      "Ġp": 281,
      "Ġb": 282,
      "ra": 283,
      "de": 284,
      "Ġk": 285,
      "ist": 286,
      "ss": 287,
      "Ġs": 288,
      "ant": 289,
      "ro": 290,
      "istant": 291,
      "ssistant": 292,
      "Ġcon": 293,
      "Ã¼": 294,
      "Ġpro": 295,
      "ish": 296,
      "ing": 297,
      "re": 298,
      "Ġt": 299,
      "al": 300,
      "Ġn": 301,
      "ce": 302,
      "ou": 303,
      "ul": 304,
      "ir": 305,
      "el": 306,
      "ÅŁ": 307,
      "Ġi": 308,
      "Ġh": 309,
      "la": 310,
      "us": 311,
      "te": 312,
      "le": 313,
      "ĠE": 314,
      "sa": 315,
      "Ã§": 316,
      "tion": 317,
      "Ġy": 318,
      "ver": 319,
      "me": 320,
      "ur": 321,
      "ĠD": 322,
      "da": 323,
      "Ġand": 324,
      "or": 325,
      "en": 326,
      "gl": 327,
      "ma": 328,
      "ot": 329,
      "user": 330,
      "assistant": 331,
      "Ġco": 332,
      "du": 333,
      "ĠT": 334,
      "ĠY": 335,
      "mm": 336,
      "cis": 337,
      "tem": 338,
      "dÄ±": 339,
      "Ġconcis": 340,
      "sy": 341,
      "yÄ±": 342,
      "ĠEn": 343,
      "Ġare": 344,
      "gra": 345,
      "Ġnot": 346,
      "Ġhel": 347,
      "Ġhelp": 348,
      "ful": 349,
      "ĠDo": 350,
      "versa": 351,
      "duce": 352,
      "versation": 353,
      "Ġconversation": 354,
      "mming": 355,
      "Ġprogra": 356,
      "ĠYou": 357,
      "stem": 358,
      "urk": 359,
      "Ġcode": 360,
      "glish": 361,
      "ĠEnglish": 362,
      "Ġassistant": 363,
      "Ġhelpful": 364,
      "Ġconcise": 365,
      "Ġproduce": 366,
      "Ġprogramming": 367,
      "urkish": 368,
      "Ġconversational": 369,
      "ĠTurkish": 370,
      "system": 371,
      "ve": 372,
      "il": 373,
      "ÄŁ": 374,
      "ar": 375,
      "Ġg": 376,
      "Ã¶": 377,
      "Ġbir": 378,
      "Ġw": 379,
      "Ġo": 380,
      "iz": 381,
      "un": 382,
      "ĠayÄ±": 383,
      "Ġve": 384,
      "it": 385,
      "Ä±n": 386,
      "ya": 387,
      "ĠB": 388,
      "Ġto": 389,
      "ki": 390,
      "Ġf": 391,
      "Ġe": 392,
      "ab": 393,
      "nde": 394,
      "ĠiÃ§": 395,
      "Ġya": 396,
      "Ġka": 397,
      "ĠiÃ§in": 398,
      "Ġba": 399,
      "Ġd": 400,
      "ĠS": 401,
      "rdÄ±": 402,
      "lan": 403,
      "Ġda": 404,
      "Ã¼n": 405,
      "ĠÃ¶": 406,
      "det": 407,
      "Ġth": 408,
      "ak": 409,
      "ĠkÄ±": 410,
      "Ġadet": 411,
      "ĠayÄ±rdÄ±": 412,
      "es": 413,
      "uma": 414,
      "ĠA": 415,
      "lÄ±": 416,
      "Ġz": 417,
      "ilir": 418,
      "um": 419,
      "dÄ±m": 420,
      "ĠkÄ±sa": 421,
      "ĠadÄ±m": 422,
      "Ġm": 423,
      "li": 424,
      "am": 425,
      "umara": 426,
      "Ġnumara": 427,
      "lar": 428,
      "Ġyou": 429,
      "ug": 430,
      "Ä±nÄ±": 431,
      "Ġu": 432,
      "ĠÃ¶n": 433,
      "ac": 434,
      "abilir": 435,
      "et": 436,
      "ith": 437,
      "Ġwith": 438,
      "Ġan": 439,
      "ĠgÃ¼n": 440,
      "ĠbaÅŁ": 441,
      "eri": 442,
      "at": 443,
      "mek": 444,
      "enti": 445,
      "Ġde": 446,
      "Ġin": 447,
      "ine": 448,
      "mak": 449,
      "Ã¼k": 450,
      "Ġkenti": 451,
      "Ġkentinde": 452,
      "im": 453,
      "one": 454,
      "Ġile": 455,
      "Ġuy": 456,
      "sÄ±": 457,
      "Ġst": 458,
      "Ġbe": 459,
      "Ä°": 460,
      "ri": 461,
      "yi": 462,
      "Ġso": 463,
      "nda": 464,
      "Ġre": 465,
      "ĠÄ°": 466,
      "estion": 467,
      "ut": 468,
      "ne": 469,
      "Ġol": 470,
      "Ġver": 471,
      "lk": 472,
      "Ġkon": 473,
      "ĠbaÅŁla": 474,
      "ĠM": 475,
      "Ġne": 476,
      ".Ċ": 477,
      "ort": 478,
      "lam": 479,
      "Ġyap": 480,
      "Ġuyg": 481,
      "iÅŁ": 482,
      "cti": 483,
      "unu": 484,
      "out": 485,
      "uÅŁ": 486,
      "ek": 487,
      "den": 488,
      "urum": 489,
      "iniz": 490,
      "Ġthe": 491,
      "ha": 492,
      "ĠG": 493,
      "ĠL": 494,
      "ple": 495,
      "Ã¼Ã§": 496,
      "ĠÄ°lk": 497,
      "ĠÃ¶neri": 498,
      "Ġzor": 499,
      "Ġis": 500,
      "Ġyour": 501,
      "Ġiki": 502,
      "Ġme": 503,
      "acak": 504,
      "Ġsh": 505,
      "Ġuygul": 506,
      "Ã¼Ã§Ã¼k": 507,
      "aman": 508,
      "ĠÃ§": 509,
      "Ġbul": 510,
      "st": 511,
      "yor": 512,
      "ĠBu": 513,
      "unda": 514,
      "tir": 515,
      "ly": 516,
      "ĠkaÃ§": 517,
      "Ġzaman": 518,
      "Ġsome": 519,
      "ĠkÃ¼Ã§Ã¼k": 520,
      "wo": 521,
      "ĠnumarasÄ±": 522,
      "ĠDurum": 523,
      "racti": 524,
      "Ġsa": 525,
      "cal": 526,
      "ive": 527,
      "ĠgÃ¼nÃ¼": 528,
      "Ġfor": 529,
      "Ġdaha": 530,
      "Ġtwo": 531,
      "ari": 532,
      "Ġshort": 533,
      "ka": 534,
      "Ġkonus": 535,
      "ey": 536,
      "Ġzorlan": 537,
      "Ġuygulan": 538,
      "ĠayÄ±n": 539,
      "Ġkonusunda": 540,
      "Ġuygulanabilir": 541,
      "estions": 542,
      "ĠnumaralÄ±": 543,
      "Ġpracti": 544,
      "Ġsomeone": 545,
      "Ġzorlanan": 546,
      "Ġbirine": 547,
      "Ä±m": 548,
      "yÄ±t": 549,
      "ĠdeÄŁ": 550,
      "Ġstr": 551,
      "Ã¼m": 552,
      "ĠkayÄ±t": 553,
      "cen": 554,
      "ugg": 555,
      "Ġmo": 556,
      "**": 557,
      "ĠbuluÅŁ": 558,
      "Ġsugg": 559,
      "gling": 560,
      "uggling": 561,
      "ĠGive": 562,
      "ario": 563,
      "Ġstruggling": 564,
      "cenario": 565,
      "Ġpractical": 566,
      "Ġsuggestions": 567,
      "ĠScenario": 568,
      "Ã¼z": 569,
      "ler": 570,
      "ah": 571,
      "ĠbuluÅŁacak": 572,
      "Ġkentindeki": 573,
      "Ä±z": 574,
      "ĠgÃ¼nÃ¼nde": 575,
      "Ġyaz": 576,
      "Ġen": 577,
      "mir": 578,
      "ic": 579,
      "ĠSon": 580,
      "'d": 581,
      "nt": 582,
      "Ġon": 583,
      "Ġday": 584,
      "yorum": 585,
      "ĠbaÅŁlat": 586,
      "rak": 587,
      "larda": 588,
      "Ġisti": 589,
      "sun": 590,
      "lo": 591,
      "iÅŁtir": 592,
      "leyi": 593,
      "Ġolsun": 594,
      "ĠcÃ¼m": 595,
      "meden": 596,
      "ĠadÄ±mla": 597,
      "ĠBunu": 598,
      "ĠbaÅŁlatabilir": 599,
      "Ġistiyorum": 600,
      "very": 601,
      "ĠC": 602,
      "Ġevery": 603,
      "Ġzamanlarda": 604,
      "Ä±r": 605,
      "ĠadÄ±mÄ±m": 606,
      "ĠO": 607,
      "Ġanlam": 608,
      "ĠbaÅŁlatabiliriz": 609,
      "ĠdeÄŁiÅŁtir": 610,
      "Ġv": 611,
      "Ä±nÄ±z": 612,
      "ok": 613,
      "ĠanlamÄ±nÄ±": 614,
      "ĠcÃ¼mleyi": 615,
      "ĠdeÄŁiÅŁtirmeden": 616,
      "lik": 617,
      "em": 618,
      "Ġ\"": 619,
      "Ġti": 620,
      "Ġse": 621,
      "qu": 622,
      "Ġ(": 623,
      "va": 624,
      "Ġres": 625,
      "ĠP": 626,
      "gi": 627,
      "ĠI": 628,
      "Ġor": 629,
      "ef": 630,
      "Ġveya": 631,
      "aya": 632,
      "ed": 633,
      "Ġit": 634,
      "Ġdo": 635,
      "ĠH": 636,
      "eniz": 637,
      "ina": 638,
      "Ġof": 639,
      "Ã¼r": 640,
      "ĠN": 641,
      "ĠZ": 642,
      "'s": 643,
      "lif": 644,
      "ec": 645,
      "10": 646,
      "ep": 647,
      "Ġbu": 648,
      "Ġqu": 649,
      "Ġab": 650,
      "ĠMer": 651,
      "Ġyapmak": 652,
      "wer": 653,
      "Ġsim": 654,
      "ĠMaya": 655,
      "Ġabout": 656,
      "ĠNo": 657,
      "as": 658,
      "ĠMert": 659,
      "Ġola": 660,
      "eyne": 661,
      "ĠElif": 662,
      "ĠZeyne": 663,
      "ĠCan": 664,
      "ĠEce": 665,
      "ĠNoah": 666,
      "ĠZeynep": 667,
      "ĠAda": 668,
      "ĠÃ": 669,
      "Ä±ÅŁ": 670,
      "ĠLina": 671,
      "Ġvar": 672,
      "ĠEmir": 673,
      "Ġye": 674,
      "ely": 675,
      "Ġwh": 676,
      "ĠAr": 677,
      "th": 678,
      "Ġtime": 679,
      "Ġsimple": 680,
      "ĠÅŁ": 681,
      "day": 682,
      "ner": 683,
      "ĠDeniz": 684,
      "Ġplan": 685,
      "ren": 686,
      "15": 687,
      "ck": 688,
      "Ã¼ÅŁ": 689,
      "ge": 690,
      "gin": 691,
      "utu": 692,
      "Ġone": 693,
      "ĠArda": 694,
      "swer": 695,
      "rief": 696,
      "Ġkal": 697,
      "ye": 698,
      "Ġmeet": 699,
      "Ä±k": 700,
      "lÄ±k": 701,
      "ĠÃ¶ÄŁ": 702,
      "Ġch": 703,
      "yÄ±n": 704,
      "ning": 705,
      "30": 706,
      "20": 707,
      "Ġquestion": 708,
      "ĠgÃ¶": 709,
      "Ġbegin": 710,
      "Ġanswer": 711,
      "Ġha": 712,
      "riefly": 713,
      "eni": 714,
      "ini": 715,
      "ĠEx": 716,
      "Ġwithout": 717,
      "ample": 718,
      "ĠÃ¶nce": 719,
      "Ġkutu": 720,
      "Ġbeginner": 721,
      "Ġ**": 722,
      "Ġeveryday": 723,
      "di": 724,
      "ĠBriefly": 725,
      "ĠExample": 726,
      "Ġma": 727,
      "ca": 728,
      "Ġyo": 729,
      "ĠR": 730,
      "Ġhe": 731,
      "Ġj": 732,
      "vi": 733,
      "Ġle": 734,
      "mal": 735,
      "Ġkutuda": 736,
      "ter": 737,
      "Ġbo": 738,
      "13": 739,
      "12": 740,
      "ment": 741,
      "dÄ±r": 742,
      "oto": 743,
      "ĠÃĸ": 744,
      "Ã¼y": 745,
      "bilir": 746,
      "se": 747,
      "ch": 748,
      "ĠÃ¶ÄŁren": 749,
      "ill": 750,
      "ĠeÅŁ": 751,
      "14": 752,
      "ute": 753,
      "arÄ±": 754,
      "ore": 755,
      "ue": 756,
      "tÄ±r": 757,
      "Ġat": 758,
      "ĠOn": 759,
      "ond": 760,
      "ation": 761,
      "dece": 762,
      "16": 763,
      "ad": 764,
      "inute": 765,
      "Ġwill": 766,
      "ĠeÅŁya": 767,
      "Ġbel": 768,
      "Ġtop": 769,
      "Ġson": 770,
      "inizi": 771,
      "Ġsp": 772,
      "Ġman": 773,
      "17": 774,
      "ĠdÃ¼z": 775,
      "ate": 776,
      "men": 777,
      "ĠyÃ¼r": 778,
      "ay": 779,
      "raf": 780,
      "dan": 781,
      "abit": 782,
      "ap": 783,
      "fore": 784,
      "Ġbefore": 785,
      "Ġby": 786,
      "Ġdaki": 787,
      "Ġolarak": 788,
      "ack": 789,
      "25": 790,
      "larÄ±": 791,
      "erek": 792,
      "ĠAn": 793,
      "erl": 794,
      "id": 795,
      "ta": 796,
      "tiva": 797,
      "Ġiyi": 798,
      "Ġbelir": 799,
      "otoÄŁ": 800,
      "age": 801,
      "lÃ¼k": 802,
      "otoÄŁraf": 803,
      "ile": 804,
      "cak": 805,
      "art": 806,
      "Ġal": 807,
      "ven": 808,
      "si": 809,
      "ntal": 810,
      "28": 811,
      "23": 812,
      "Ġyer": 813,
      "18": 814,
      "ow": 815,
      "if": 816,
      "Ġkit": 817,
      "yin": 818,
      "ĠyÃ¼z": 819,
      "na": 820,
      "ga": 821,
      "Ġsor": 822,
      "ĠfotoÄŁraf": 823,
      "gh": 824,
      "ilgi": 825,
      "ask": 826,
      "ĠyÃ¼rÃ¼y": 827,
      "Ġra": 828,
      "Ġchan": 829,
      "24": 830,
      "erlin": 831,
      "ĠBerlin": 832,
      "rne": 833,
      "erve": 834,
      "Ġmore": 835,
      "slo": 836,
      "ĠOslo": 837,
      "Ġhabit": 838,
      "kara": 839,
      "Ġreserve": 840,
      "stan": 841,
      "ĠAnkara": 842,
      "Ġtask": 843,
      "Ġil": 844,
      "bul": 845,
      "ĠLond": 846,
      "stanbul": 847,
      "ĠLondon": 848,
      "zmir": 849,
      "ntalya": 850,
      "ĠAntalya": 851,
      "ust": 852,
      "bon": 853,
      "Ġro": 854,
      "ĠLis": 855,
      "reak": 856,
      "Ġmotiva": 857,
      "Ġbah": 858,
      "ĠLisbon": 859,
      "gue": 860,
      "len": 861,
      "ĠyÃ¼rÃ¼yÃ¼ÅŁ": 862,
      "ew": 863,
      "anÄ±z": 864,
      "uy": 865,
      "Ġdil": 866,
      "Ġthis": 867,
      "Ġok": 868,
      "Ġsmal": 869,
      "ends": 870,
      "ĠK": 871,
      "Ġim": 872,
      "Ġtoplam": 873,
      "abah": 874,
      "ĠvardÄ±r": 875,
      "ĠHer": 876,
      "ip": 877,
      "26": 878,
      "ging": 879,
      "Ġthat": 880,
      "leep": 881,
      "Ġthan": 882,
      "27": 883,
      "Ġkitap": 884,
      "33": 885,
      "Ġar": 886,
      "ĠPra": 887,
      "siniz": 888,
      "ĠV": 889,
      "Ġmean": 890,
      "Ġsadece": 891,
      "ĠPrague": 892,
      "ĠgÃ¼nlÃ¼k": 893,
      "ĠbahÃ§": 894,
      "ien": 895,
      "Ġay": 896,
      "Ġtut": 897,
      "ĠIzmir": 898,
      "Ġet": 899,
      "lang": 900,
      "lu": 901,
      "19": 902,
      "Ġkend": 903,
      "Ġfe": 904,
      "Ġyoga": 905,
      "Ġsonra": 906,
      "ik": 907,
      "rite": 908,
      "Ġyemek": 909,
      "ĠÃ§ek": 910,
      "ienna": 911,
      "ĠVienna": 912,
      "Ġher": 913,
      "Ġdakika": 914,
      "ĠseÃ§": 915,
      "29": 916,
      "Ġsmall": 917,
      "Ġmeaning": 918,
      "Ġits": 919,
      "def": 920,
      "Ġlear": 921,
      "Ġkalem": 922,
      "Ġsleep": 923,
      "Ġgo": 924,
      "ght": 925,
      "Ġchanging": 926,
      "like": 927,
      "Ġl": 928,
      "ĠRew": 929,
      "cus": 930,
      "Ġconcisely": 931,
      "ĠRewrite": 932,
      "hat": 933,
      "Ġfeel": 934,
      "ÄŁi": 935,
      "ers": 936,
      "isten": 937,
      "Ġsilgi": 938,
      "ib": 939,
      "ĠyÃ¶": 940,
      "Ä±nÄ±zÄ±": 941,
      "Ġkul": 942,
      "to": 943,
      "ule": 944,
      "ĠU": 945,
      "unuz": 946,
      "ĠalÄ±": 947,
      "ÄŁin": 948,
      "leri": 949,
      "ocus": 950,
      "Ġge": 951,
      "ĠpiÅŁ": 952,
      "Ġhedef": 953,
      "ĠIstanbul": 954,
      "maya": 955,
      "ĠdÃ¼zeni": 956,
      "34": 957,
      "ther": 958,
      "Ġkullan": 959,
      "alÄ±ÅŁ": 960,
      "Ġrather": 961,
      "Ġmanage": 962,
      "nce": 963,
      "Ġko": 964,
      "likle": 965,
      "Ġtr": 966,
      "Ġminute": 967,
      "cek": 968,
      "Ġokuma": 969,
      "ting": 970,
      "Ä±nda": 971,
      "Ġbi": 972,
      "Ġresim": 973,
      "ndan": 974,
      "11": 975,
      "35": 976,
      "Ġfri": 977,
      "up": 978,
      "Ã¼re": 979,
      "36": 980,
      "Ġjust": 981,
      "ĠiÅŁ": 982,
      "ach": 983,
      "Ġce": 984,
      "37": 985,
      "vap": 986,
      "Ġbelirle": 987,
      "Ġtra": 988,
      "Ġminutes": 989,
      "ÅŁam": 990,
      "Ä±zÄ±": 991,
      "hip": 992,
      "Ġinto": 993,
      "ken": 994,
      "Ġbas": 995,
      "tiÅŁ": 996,
      "ĠÃ§alÄ±ÅŁ": 997,
      "ĠdoÄŁ": 998,
      "Ġsaat": 999,
      "Ġcevap": 1000,
      "Ġrout": 1001,
      ":Ċ": 1002,
      "Ġcomm": 1003,
      "Ġlearning": 1004,
      "ama": 1005,
      "tÄ±": 1006,
      "vel": 1007,
      "rar": 1008,
      "ĠpiÅŁir": 1009,
      "kan": 1010,
      "langÄ±": 1011,
      "medi": 1012,
      "Ġroutine": 1013,
      "ĠkÄ±r": 1014,
      "ci": 1015,
      "ĠÃ¶ÄŁrenmek": 1016,
      "ten": 1017,
      "'t": 1018,
      "yaz": 1019,
      "yle": 1020,
      "ake": 1021,
      "Ġreserved": 1022,
      "mÄ±zÄ±": 1023,
      "Ġilgi": 1024,
      "Ġho": 1025,
      "ÅŁil": 1026,
      "laÅŁ": 1027,
      "Ġmavi": 1028,
      "Ġoda": 1029,
      "40": 1030,
      "Ġr": 1031,
      "ku": 1032,
      "ĠyeÅŁil": 1033,
      "ĠÃĸnce": 1034,
      "able": 1035,
      "ĠkÄ±rmÄ±zÄ±": 1036,
      "Ġ=": 1037,
      "ste": 1038,
      "mayÄ±": 1039,
      "rneÄŁin": 1040,
      "ÄŁÄ±": 1041,
      "ĠgÃ¶re": 1042,
      "Ġcan": 1043,
      "Ġbed": 1044,
      "mi": 1045,
      "Ġex": 1046,
      "tiÅŁim": 1047,
      "Ġev": 1048,
      "bilirsiniz": 1049,
      "Ġyeni": 1050,
      "Ġno": 1051,
      "Ġilk": 1052,
      "Ġbeyaz": 1053,
      "thing": 1054,
      "endship": 1055,
      "ĠÃ§ok": 1056,
      "nÄ±z": 1057,
      "Ġaz": 1058,
      "Ġas": 1059,
      "gan": 1060,
      "ĠalÄ±ÅŁ": 1061,
      "our": 1062,
      "ying": 1063,
      "Ġte": 1064,
      "ĠsÃ¼re": 1065,
      "ĠsarÄ±": 1066,
      "duÄŁ": 1067,
      "alnÄ±z": 1068,
      "ganiz": 1069,
      "Ġac": 1070,
      "38": 1071,
      "Ġtem": 1072,
      "Ġimmedi": 1073,
      "ĠbahÃ§ey": 1074,
      "Ġwor": 1075,
      "iny": 1076,
      "Ġtravel": 1077,
      "langÄ±Ã§": 1078,
      "ĠÃ§ekmek": 1079,
      "Ä±na": 1080,
      "syon": 1081,
      "ication": 1082,
      "Ġorganiz": 1083,
      "ere": 1084,
      "ps": 1085,
      "Ġbasit": 1086,
      "Ġover": 1087,
      "od": 1088,
      "Ġtiny": 1089,
      "Ġtasks": 1090,
      "ell": 1091,
      "daÅŁ": 1092,
      "ili": 1093,
      "om": 1094,
      "Ġokumak": 1095,
      "Ġodak": 1096,
      "Ġspec": 1097,
      "low": 1098,
      "anÄ±": 1099,
      "Ġfocus": 1100,
      "kadaÅŁ": 1101,
      "Ġhabits": 1102,
      "Ġbook": 1103,
      "Ġed": 1104,
      "ched": 1105,
      "-b": 1106,
      "Ġkay": 1107,
      "ĠbahÃ§eyle": 1108,
      "Ġset": 1109,
      "alnÄ±zca": 1110,
      "Ġlike": 1111,
      "uyu": 1112,
      "22": 1113,
      "lay": 1114,
      "ĠUse": 1115,
      "Ġspecif": 1116,
      "ĠBir": 1117,
      "ĠYalnÄ±zca": 1118,
      "Ġcom": 1119,
      "Ġacti": 1120,
      "ÄŁiniz": 1121,
      "king": 1122,
      "ĠiletiÅŁim": 1123,
      "Ġot": 1124,
      "Ġara": 1125,
      "eep": 1126,
      "Ġtutmak": 1127,
      "Ġplanning": 1128,
      "her": 1129,
      "Ġsabah": 1130,
      "ure": 1131,
      "inde": 1132,
      "unication": 1133,
      "Ġmak": 1134,
      "ĠalÄ±ÅŁkan": 1135,
      "Ġhome": 1136,
      "ress": 1137,
      "Ġilgilen": 1138,
      "Ġspecific": 1139,
      "Ġwe": 1140,
      "ĠpiÅŁirmek": 1141,
      "Ġyerine": 1142,
      "cÄ±": 1143,
      "Ġwell": 1144,
      "ĠsaÄŁ": 1145,
      "Ġfriendship": 1146,
      "Ġeach": 1147,
      "Ġuyku": 1148,
      "chedule": 1149,
      "ĠAyÄ±n": 1150,
      "elef": 1151,
      "sel": 1152,
      "Ġdurum": 1153,
      "Ġtek": 1154,
      "Ġist": 1155,
      "ibi": 1156,
      "ilece": 1157,
      "Ġilgilenmek": 1158,
      "Ġbreak": 1159,
      "ĠyÃ¼zmek": 1160,
      "Ġmotivation": 1161,
      "Ġwhat": 1162,
      "Ġus": 1163,
      "Ġodaklan": 1164,
      "Ġback": 1165,
      "Ġph": 1166,
      "Ġak": 1167,
      "eing": 1168,
      "Ġuygun": 1169,
      "Ġgibi": 1170,
      "manÄ±z": 1171,
      "Ġdene": 1172,
      "ĠÃ¶ÄŁrenme": 1173,
      "tions": 1174,
      "elefon": 1175,
      "ĠHow": 1176,
      "ately": 1177,
      "stead": 1178,
      "ĠbaÅŁlangÄ±Ã§": 1179,
      "Ġimmediately": 1180,
      "ĠarkadaÅŁ": 1181,
      "-being": 1182,
      "Ġcommunication": 1183,
      "inin": 1184,
      "ĠgeÃ§": 1185,
      "tan": 1186,
      "yan": 1187,
      "ĠAy": 1188,
      "ild": 1189,
      "Ġmanagement": 1190,
      "Ġstart": 1191,
      "Ġinstead": 1192,
      "Ġun": 1193,
      "Ġitem": 1194,
      "ĠolduÄŁ": 1195,
      "Ġsiz": 1196,
      "Ġgoal": 1197,
      "iti": 1198,
      "Ġste": 1199,
      "39": 1200,
      "ol": 1201,
      "yahat": 1202,
      "ĠSt": 1203,
      "ĠF": 1204,
      "Ġorganization": 1205,
      "21": 1206,
      "ru": 1207,
      "wn": 1208,
      "ĠyaÅŁam": 1209,
      "timi": 1210,
      "ĠgÃ¼": 1211,
      "aÅŁ": 1212,
      "00": 1213,
      "reate": 1214,
      "Ġeven": 1215,
      "arak": 1216,
      "-m": 1217,
      "Ġkar": 1218,
      "ĠyÃ¶ne": 1219,
      "Ġsu": 1220,
      "ĠBreak": 1221,
      "ĠalÄ±ÅŁkanlÄ±k": 1222,
      "cle": 1223,
      "Ã¶rneÄŁin": 1224,
      "-minute": 1225,
      "vo": 1226,
      "Ġmotivasyon": 1227,
      "ity": 1228,
      "bilece": 1229,
      "Ġdi": 1230,
      "ĠdÃ¼ÅŁ": 1231,
      "ook": 1232,
      "ind": 1233,
      "void": 1234,
      "Ġcle": 1235,
      "Ġ+": 1236,
      "ick": 1237,
      "Ġgerek": 1238,
      "sisten": 1239,
      "leme": 1240,
      "Ġweek": 1241,
      "ily": 1242,
      "Ġmany": 1243,
      "Ġdu": 1244,
      "ĠStart": 1245,
      "Ġup": 1246,
      "Ġnote": 1247,
      "nal": 1248,
      "ĠÅŁey": 1249,
      "angi": 1250,
      "ĠyÃ¶netimi": 1251,
      "Ġmeets": 1252,
      "inize": 1253,
      "lant": 1254,
      "ycle": 1255,
      "80": 1256,
      "Ġcomple": 1257,
      "Ġif": 1258,
      "49": 1259,
      "eler": 1260,
      "Ġinter": 1261,
      "Ġel": 1262,
      "ard": 1263,
      "era": 1264,
      "Ä±p": 1265,
      "Ġseyahat": 1266,
      "Ġgen": 1267,
      "rdÄ±ndan": 1268,
      "Ġek": 1269,
      "cre": 1270,
      "Ġtelefon": 1271,
      "ÄŁÄ±nÄ±z": 1272,
      "meniz": 1273,
      "leÅŁ": 1274,
      "Ġgel": 1275,
      "Ġkolay": 1276,
      "dy": 1277,
      "Ġlam": 1278,
      "kÄ±nda": 1279,
      "ĠkonuÅŁ": 1280,
      "nder": 1281,
      "port": 1282,
      "Ġhak": 1283,
      "uz": 1284,
      "Ġtrying": 1285,
      "book": 1286,
      "Ġyol": 1287,
      "Ġthem": 1288,
      "Ġwhen": 1289,
      "cket": 1290,
      "Ġwork": 1291,
      "89": 1292,
      "ĠarkadaÅŁlÄ±k": 1293,
      "ecek": 1294,
      "Ġtea": 1295,
      "Ġedin": 1296,
      "ĠplanÄ±": 1297,
      "Ġticket": 1298,
      "ĠSabah": 1299,
      "ĠhakkÄ±nda": 1300,
      "anÄ±t": 1301,
      "Ġhemen": 1302,
      "32": 1303,
      "Ġconsisten": 1304,
      "ts": 1305,
      "dar": 1306,
      "Ġplant": 1307,
      "ings": 1308,
      "Ġhaf": 1309,
      ":**": 1310,
      "madan": 1311,
      "ĠGÃ¼n": 1312,
      "Ġhis": 1313,
      "Ġnotebook": 1314,
      "op": 1315,
      "kal": 1316,
      "ĠdoÄŁru": 1317,
      "ĠbaÅŁlaya": 1318,
      "Ġbic": 1319,
      "light": 1320,
      "Ġkadar": 1321,
      "Ġbicycle": 1322,
      "ĠalÄ±ÅŁkanlÄ±klar": 1323,
      "Ġyapacak": 1324,
      "dir": 1325,
      "ord": 1326,
      "pack": 1327,
      "Ġdaily": 1328,
      "ĠyÃ¶n": 1329,
      "Ġout": 1330,
      "ĠdÃ¼zen": 1331,
      "ze": 1332,
      "ĠaÃ§": 1333,
      "ĠyanÄ±t": 1334,
      "Ġbackpack": 1335,
      "meye": 1336,
      "Ġitems": 1337,
      "Ġpa": 1338,
      "Ġhour": 1339,
      "leyin": 1340,
      "Ġkur": 1341,
      "Ġdid": 1342,
      "layÄ±n": 1343,
      "ving": 1344,
      "irst": 1345,
      "Ã¶z": 1346,
      "Ġmoment": 1347,
      "tur": 1348,
      "ĠgÃ¶r": 1349,
      "88": 1350,
      "Ġjack": 1351,
      "ĠadÄ±mÄ±nÄ±z": 1352,
      "rior": 1353,
      "Ġiler": 1354,
      "Ġbuild": 1355,
      "Ġjacket": 1356,
      "Ġthen": 1357,
      "ÄŁer": 1358,
      "Ã¶yle": 1359,
      "rnek": 1360,
      "Ġer": 1361,
      "wh": 1362,
      "rek": 1363,
      "Ġclear": 1364,
      "ecord": 1365,
      "ĠRecord": 1366,
      "sÄ±nÄ±": 1367,
      "pp": 1368,
      "Ġcam": 1369,
      "rom": 1370,
      "Ġsteps": 1371,
      "tik": 1372,
      "Ġlo": 1373,
      "Ġfirst": 1374,
      "kin": 1375,
      "ĠgÃ¼nÃ¼n": 1376,
      "ĠÃ§Ä±k": 1377,
      "fes": 1378,
      "res": 1379,
      "60": 1380,
      "and": 1381,
      "ĠhÄ±z": 1382,
      "ĠbaÅŁlayan": 1383,
      "Ġolan": 1384,
      "lama": 1385,
      "Ġolacak": 1386,
      "Ġfrom": 1387,
      "Ġlisten": 1388,
      "Ġconsistent": 1389,
      "Ġsora": 1390,
      "Ġsoruyu": 1391,
      "Ġdur": 1392,
      "Ġtama": 1393,
      "Ġalan": 1394,
      "ÅŁÄ±": 1395,
      "Ġyarar": 1396,
      "Ġnefes": 1397,
      "Ġread": 1398,
      "31": 1399,
      "ular": 1400,
      "ĠÃ¶z": 1401,
      "ĠyapÄ±n": 1402,
      "lerinizi": 1403,
      "Ġbirinin": 1404,
      "Ġonce": 1405,
      "ĠsÄ±": 1406,
      "Ġbelirleyin": 1407,
      "ff": 1408,
      "iler": 1409,
      "Ġfa": 1410,
      "ct": 1411,
      "Ġtemel": 1412,
      "rioriti": 1413,
      "ĠgÃ¼ven": 1414,
      "Ġget": 1415,
      "ĠiÃ§inde": 1416,
      "bileceÄŁi": 1417,
      "ura": 1418,
      "Ã§im": 1419,
      "man": 1420,
      "ĠSchedule": 1421,
      "ni": 1422,
      "Ġoverwh": 1423,
      "Ġoverwhel": 1424,
      "ĠÃ¶nem": 1425,
      "Ġlamp": 1426,
      "Ġbil": 1427,
      "ĠyanÄ±tla": 1428,
      "ĠÄ±ÅŁ": 1429,
      "ĠÅŁu": 1430,
      "ĠÅŁek": 1431,
      "ĠoluÅŁ": 1432,
      "50": 1433,
      "Ġta": 1434,
      "laya": 1435,
      "saj": 1436,
      "ÄŁÄ±nÄ±": 1437,
      "Ġpo": 1438,
      "ingle": 1439,
      "ĠbiÃ§im": 1440,
      "edi": 1441,
      "ĠÃĸrnek": 1442,
      "ĠÃĸncelikle": 1443,
      "Ġwal": 1444,
      "Ġsingle": 1445,
      "ĠbaÅŁlamak": 1446,
      "larÄ±nÄ±": 1447,
      "ĠyararlÄ±": 1448,
      "ĠbiÃ§imde": 1449,
      "Ġkeep": 1450,
      "ĠsorabileceÄŁi": 1451,
      "ĠardÄ±ndan": 1452,
      "Ġharek": 1453,
      "ual": 1454,
      "ĠPick": 1455,
      "ens": 1456,
      "est": 1457,
      "ree": 1458,
      "ted": 1459,
      "Ġneed": 1460,
      "Ġdown": 1461,
      "asÄ±": 1462,
      "rol": 1463,
      "ĠdeÄŁil": 1464,
      "ĠÃ¶nemli": 1465,
      "self": 1466,
      "ĠÃ¶ner": 1467,
      "rÄ±": 1468,
      "Ġyourself": 1469,
      "Ġdakikal": 1470,
      "Ġdoing": 1471,
      "lem": 1472,
      "ĠdÃ¼ÅŁÃ¼n": 1473,
      "ĠtÃ¼r": 1474,
      "Ġavoid": 1475,
      "ĠbaÅŁlayÄ±n": 1476,
      "Ġnew": 1477,
      "yerek": 1478,
      "malÄ±": 1479,
      "Ġkendi": 1480,
      "reat": 1481,
      "set": 1482,
      "meyi": 1483,
      "ĠyapÄ±": 1484,
      "Ġuz": 1485,
      "44": 1486,
      "ĠCreate": 1487,
      "ĠkarÅŁÄ±": 1488,
      "yun": 1489,
      "70": 1490,
      "Ġhangi": 1491,
      "ĠSa": 1492,
      "Ġnet": 1493,
      "aking": 1494,
      "Ġener": 1495,
      "Ġonly": 1496,
      "Ġsorun": 1497,
      "ĠÃ¼z": 1498,
      "sanÄ±z": 1499,
      "Ġexp": 1500,
      "Ġcamera": 1501,
      "Ã¼yÃ¼k": 1502,
      "trol": 1503,
      "Ġeverything": 1504,
      "ion": 1505,
      "ĠsayÄ±": 1506,
      "tain": 1507,
      "Ġactiv": 1508,
      "Ġkap": 1509,
      "Ġama": 1510,
      "ĠSet": 1511,
      "Ġpre": 1512,
      "ark": 1513,
      "Ġistedi": 1514,
      "lock": 1515,
      "mes": 1516,
      "nderst": 1517,
      "Ġetk": 1518,
      "Ġsess": 1519,
      "rioritize": 1520,
      "tick": 1521,
      "zÄ±r": 1522,
      "Ġgoals": 1523,
      "90": 1524,
      "Ġayda": 1525,
      "Ġtack": 1526,
      "ĠÅŁekil": 1527,
      "ĠayÄ±r": 1528,
      "utter": 1529,
      "ĠW": 1530,
      "lutter": 1531,
      "way": 1532,
      "ace": 1533,
      "ent": 1534,
      "Ġscre": 1535,
      "Ġother": 1536,
      "Ġmanageable": 1537,
      "84": 1538,
      "Ġlistening": 1539,
      "Ġlist": 1540,
      "lemek": 1541,
      "cu": 1542,
      "Ġilg": 1543,
      "Ġort": 1544,
      "85": 1545,
      "ĠgÃ¶z": 1546,
      "ĠÅŁekilde": 1547,
      "Ġthey": 1548,
      "Ġdeep": 1549,
      "lerini": 1550,
      "Ġzorlu": 1551,
      "eli": 1552,
      "Ġyar": 1553,
      "Ġreading": 1554,
      "deki": 1555,
      "ĠSonra": 1556,
      "Ġpers": 1557,
      "ĠEÄŁer": 1558,
      "Ġmomentum": 1559,
      "Ġad": 1560,
      "ĠyÃ¶ntem": 1561,
      "ĠoluÅŁtur": 1562,
      "Ġkontrol": 1563,
      "ech": 1564,
      "Ġdin": 1565,
      "Ġhareket": 1566,
      "eyi": 1567,
      "ĠhazÄ±r": 1568,
      "Ġreg": 1569,
      "Ġetkili": 1570,
      "Ġsomething": 1571,
      "Ã¶ylece": 1572,
      "Ġunderst": 1573,
      "eÅŁ": 1574,
      "ĠolacaktÄ±r": 1575,
      "Ġerken": 1576,
      "ev": 1577,
      "87": 1578,
      "Ġany": 1579,
      "kinci": 1580,
      "Ġchec": 1581,
      "86": 1582,
      "Ġgi": 1583,
      "ĠbÄ±": 1584,
      "ible": 1585,
      "cut": 1586,
      "Ġrule": 1587,
      "Ġwake": 1588,
      "Ä±nÄ±n": 1589,
      "erin": 1590,
      "ellikle": 1591,
      "Ġhi": 1592,
      "masÄ±": 1593,
      "ĠhÄ±zlÄ±": 1594,
      "mÄ±ÅŁ": 1595,
      "Ġmesaj": 1596,
      "ractice": 1597,
      "ĠakÅŁam": 1598,
      "echni": 1599,
      "get": 1600,
      "echniqu": 1601,
      "Ġdist": 1602,
      "likte": 1603,
      "Ġolur": 1604,
      "Ġusing": 1605,
      "Ġilgili": 1606,
      "ary": 1607,
      "ĠdakikalÄ±k": 1608,
      "ph": 1609,
      "ĠKeep": 1610,
      "ite": 1611,
      "Ġla": 1612,
      "sÄ±nÄ±z": 1613,
      "ĠPractice": 1614,
      "Ġyak": 1615,
      "Ġhem": 1616,
      "Ġri": 1617,
      "Ġhedefler": 1618,
      "Ġtemiz": 1619,
      "ĠbÄ±rak": 1620,
      "Ġ*": 1621,
      "fter": 1622,
      "Ġayar": 1623,
      "lamak": 1624,
      "xt": 1625,
      "Ġbek": 1626,
      "Ġweekends": 1627,
      "Ġduy": 1628,
      "Ġlea": 1629,
      "lat": 1630,
      "Ġoff": 1631,
      "ÄŁini": 1632,
      "Ġunderstand": 1633,
      "ressure": 1634,
      "Ġdet": 1635,
      "ĠBaÅŁ": 1636,
      "ĠgÃ¼venli": 1637,
      "Ġresp": 1638,
      "Ġsame": 1639,
      "Ġmost": 1640,
      "imi": 1641,
      "Ġfive": 1642,
      "ĠyardÄ±m": 1643,
      "leÅŁtir": 1644,
      "Ġolabilir": 1645,
      "ĠbaÅŁlayabilirsiniz": 1646,
      "Ġbet": 1647,
      "rac": 1648,
      "alar": 1649,
      "uyun": 1650,
      "ĠkiÅŁ": 1651,
      "Ġscreens": 1652,
      "land": 1653,
      "ĠÄ°stanbul": 1654,
      "Ġperson": 1655,
      "Ã¼nde": 1656,
      "ĠÃ§alÄ±ÅŁÄ±n": 1657,
      "Ġtekrar": 1658,
      "Ġrest": 1659,
      "Ġsonraki": 1660,
      "ret": 1661,
      "Ġtheir": 1662,
      "Ġbilg": 1663,
      "ose": 1664,
      "tif": 1665,
      "echnique": 1666,
      "til": 1667,
      "Ġsw": 1668,
      "endir": 1669,
      "ĠbÃ¼yÃ¼k": 1670,
      "Ġhisset": 1671,
      "Ġpreven": 1672,
      "Ä±l": 1673,
      "for": 1674,
      "Ġdon": 1675,
      "yla": 1676,
      "use": 1677,
      "Ġiz": 1678,
      "yunca": 1679,
      "Ã§ek": 1680,
      "Ġschedule": 1681,
      "ÄŁinizi": 1682,
      "Ġboyunca": 1683,
      "Ġsize": 1684,
      "uage": 1685,
      "Ġmain": 1686,
      "ĠPrioritize": 1687,
      "isi": 1688,
      "Ġlang": 1689,
      "ig": 1690,
      "Ġlanguage": 1691,
      "Ġtri": 1692,
      "ong": 1693,
      "Ġmev": 1694,
      "Ġdeneyin": 1695,
      "ĠPa": 1696,
      "ran": 1697,
      "ich": 1698,
      "Ã¼t": 1699,
      "ry": 1700,
      "ĠÄ°kinci": 1701,
      "Ġmat": 1702,
      "Ġrahat": 1703,
      "Ġpra": 1704,
      "orning": 1705,
      "eki": 1706,
      "ĠÃ§Ã¶z": 1707,
      "45": 1708,
      "Ġmorning": 1709,
      "ĠdoÄŁrudan": 1710,
      "Ġstu": 1711,
      "Ġbl": 1712,
      "-p": 1713,
      "Ġmake": 1714,
      "Ġimport": 1715,
      "Ġspe": 1716,
      "Ġblue": 1717,
      "Ġcal": 1718,
      "oro": 1719,
      "ĠadÄ±mÄ±": 1720,
      "Ġwhich": 1721,
      "Ġmevcut": 1722,
      "ĠgÃ¶rev": 1723,
      "Ġbilgi": 1724,
      "lara": 1725,
      "ster": 1726,
      "Ġtackle": 1727,
      "ĠFocus": 1728,
      "Ġbody": 1729,
      "Ġazal": 1730,
      "Ġyat": 1731,
      "Ġafter": 1732,
      "hti": 1733,
      "ĠHa": 1734,
      "asÄ±l": 1735,
      "kÃ¼": 1736,
      "Ġthree": 1737,
      "ho": 1738,
      "Ġrep": 1739,
      "mayÄ±n": 1740,
      "odoro": 1741,
      "ĠÃ¶ncelikle": 1742,
      "ĠÃĩ": 1743,
      "kaÃ§": 1744,
      "endi": 1745,
      "ugÃ¼n": 1746,
      "Ġbirlikte": 1747,
      "Ġdistrac": 1748,
      "Ġall": 1749,
      "omodoro": 1750,
      "ĠyardÄ±mcÄ±": 1751,
      "co": 1752,
      "Ã§e": 1753,
      "Ġtamam": 1754,
      "ĠseÃ§mek": 1755,
      "Ġyapmaya": 1756,
      "ight": 1757,
      "Ġnok": 1758,
      "rÄ±ca": 1759,
      "Ġactivity": 1760,
      "Ġfeeling": 1761,
      "Ġsession": 1762,
      "layÄ±": 1763,
      "act": 1764,
      "Ġop": 1765,
      "ĠadÄ±mlar": 1766,
      "med": 1767,
      "eleri": 1768,
      "unuzu": 1769,
      "yede": 1770,
      "Ġbur": 1771,
      "ournal": 1772,
      "daki": 1773,
      "reath": 1774,
      "ĠsÄ±k": 1775,
      "Ġem": 1776,
      "Ġihti": 1777,
      "Ġjournal": 1778,
      "ĠAyrÄ±ca": 1779,
      "ĠseÃ§in": 1780,
      "Ġactive": 1781,
      "Ġlow": 1782,
      "stina": 1783,
      "maktÄ±r": 1784,
      "ural": 1785,
      "ually": 1786,
      "Ġbreath": 1787,
      "Ġhat": 1788,
      "und": 1789,
      "Ġhafif": 1790,
      "Ġkonu": 1791,
      "ÄŁu": 1792,
      "Ġphone": 1793,
      "ĠnasÄ±l": 1794,
      "als": 1795,
      "Ġwalk": 1796,
      "ĠTh": 1797,
      "Ġolma": 1798,
      "Ġnext": 1799,
      "ward": 1800,
      "nden": 1801,
      "Ġwhere": 1802,
      "Ġmaintain": 1803,
      "ĠÅŁun": 1804,
      "ffe": 1805,
      "Ã¶r": 1806,
      "Ġyok": 1807,
      "Ġise": 1808,
      "ating": 1809,
      "Ġbak": 1810,
      "Ġetmek": 1811,
      "Ġreduce": 1812,
      "Ġoften": 1813,
      "Ġgar": 1814,
      "ments": 1815,
      "Ġcook": 1816,
      "ces": 1817,
      "Ġright": 1818,
      "Ġpain": 1819,
      "sin": 1820,
      "ĠÃĹ": 1821,
      "Ġimportant": 1822,
      "Ġper": 1823,
      "Ġhow": 1824,
      "Ġyet": 1825,
      "Ġkalk": 1826,
      "Ġthings": 1827,
      "nÄ±": 1828,
      "Ġtan": 1829,
      "Ġhal": 1830,
      "ĠadÄ±mÄ±nÄ±zÄ±": 1831,
      "Ġcomplete": 1832,
      "Ġpratik": 1833,
      "iner": 1834,
      "ĠÄ±ÅŁÄ±k": 1835,
      "83": 1836,
      "Ġuse": 1837,
      "ect": 1838,
      "Ġihtiya": 1839,
      "Ġgarden": 1840,
      "Ä±lÄ±": 1841,
      "82": 1842,
      "Ġsevi": 1843,
      "Ġfark": 1844,
      "Ġkah": 1845,
      "dur": 1846,
      "Ġkendinize": 1847,
      "Åŀ": 1848,
      "Ġitiner": 1849,
      "Ġderin": 1850,
      "Ġtake": 1851,
      "ĠÃ¶nceki": 1852,
      "Ġsay": 1853,
      "46": 1854,
      "Ġuygulama": 1855,
      "Ġsayede": 1856,
      "Ġala": 1857,
      "Ġphoto": 1858,
      "Ġclutter": 1859,
      "Ġoverwhelmed": 1860,
      "zla": 1861,
      "Ġsen": 1862,
      "ĠsayÄ±sÄ±": 1863,
      "ize": 1864,
      "Ġbunu": 1865,
      "Ġaction": 1866,
      "aki": 1867,
      "Ġapp": 1868,
      "ĠbaÅŁarÄ±": 1869,
      "erÃ§ek": 1870,
      "erli": 1871,
      "Ġkendine": 1872,
      "cess": 1873,
      "ĠÅŁeyi": 1874,
      "ance": 1875,
      "ĠbÃ¶": 1876,
      "Ġbreaks": 1877,
      "Ġfazla": 1878,
      "Ġrut": 1879,
      "Ġens": 1880,
      "miÅŁ": 1881,
      "ire": 1882,
      "ĠtÃ¼m": 1883,
      "ĠbÃ¶ylece": 1884,
      "una": 1885,
      "Ġmoving": 1886,
      "Ġbig": 1887,
      "ĠmÄ±": 1888,
      "Ġul": 1889,
      "Ġcheck": 1890,
      "Ġsha": 1891,
      "Ġroom": 1892,
      "ĠaÃ§Ä±k": 1893,
      "Ġgenellikle": 1894,
      "-up": 1895,
      "ugh": 1896,
      "sk": 1897,
      "ĠSadece": 1898,
      "enc": 1899,
      "ĠolduÄŁu": 1900,
      "Ġyor": 1901,
      "Ġsan": 1902,
      "ĠsÄ±cak": 1903,
      "ĠulaÅŁ": 1904,
      "Ġenerj": 1905,
      "Ġduring": 1906,
      "Ġlight": 1907,
      "ara": 1908,
      "47": 1909,
      "Ġgardening": 1910,
      "sÄ±nda": 1911,
      "iye": 1912,
      "Ġtechnique": 1913,
      "ges": 1914,
      "unun": 1915,
      "Ġeas": 1916,
      "Ġtak": 1917,
      "ĠbaÄŁ": 1918,
      "time": 1919,
      "Ġthing": 1920,
      "81": 1921,
      "alÄ±": 1922,
      "ction": 1923,
      "Ġfin": 1924,
      "Ġflight": 1925,
      "Ġlearn": 1926,
      "Ġhar": 1927,
      "Ġcreate": 1928,
      "Ġstres": 1929,
      "Ġunut": 1930,
      "ĠbirkaÃ§": 1931,
      "tely": 1932,
      "Ġpe": 1933,
      "Ġbit": 1934,
      "red": 1935,
      "Ġitinerary": 1936,
      "ĠStick": 1937,
      "Ġgood": 1938,
      "Ã¼l": 1939,
      "Ġoverwhelm": 1940,
      "Ġsonu": 1941,
      "leyerek": 1942,
      "Ġakti": 1943,
      "Ġprevent": 1944,
      "Ġdistractions": 1945,
      "Ġconne": 1946,
      "laÅŁtÄ±r": 1947,
      "dic": 1948,
      "Ġfocused": 1949,
      "Ġhave": 1950,
      "?\"": 1951,
      "Ġbox": 1952,
      "Ã¼nÃ¼": 1953,
      "uk": 1954,
      "rin": 1955,
      "ĠsaÄŁlar": 1956,
      "rup": 1957,
      "Ġdik": 1958,
      "Ġolmak": 1959,
      "Ġkam": 1960,
      "Ġancak": 1961,
      "Ġspace": 1962,
      "Ġach": 1963,
      "Ġachi": 1964,
      "ÄŁÄ±nÄ±zÄ±": 1965,
      "ĠUy": 1966,
      "Ġthro": 1967,
      "56": 1968,
      "ĠMo": 1969,
      "09": 1970,
      "bet": 1971,
      "yorsanÄ±z": 1972,
      "Ġcommit": 1973,
      "ÅŁa": 1974,
      "rk": 1975,
      "larÄ±nÄ±z": 1976,
      "ĠÃ¶zel": 1977,
      "Ġmaking": 1978,
      "lace": 1979,
      "Ġcompletely": 1980,
      "Ġcooking": 1981,
      "lÄ±ÄŁÄ±": 1982,
      "Ġwant": 1983,
      "ated": 1984,
      "Ġmi": 1985,
      "ĠTake": 1986,
      "ĠÃĸrneÄŁin": 1987,
      "Ġdurumu": 1988,
      "Ġtamamen": 1989,
      "ĠgeÃ§ir": 1990,
      "Ġuzun": 1991,
      "aha": 1992,
      "Ġwhile": 1993,
      "ĠgerÃ§ek": 1994,
      "Ġprogram": 1995,
      "ĠbÃ¶l": 1996,
      "Ġtelefonunuz": 1997,
      "ade": 1998,
      "raz": 1999,
      "ĠÅŁeyler": 2000,
      "Ġkapat": 2001,
      "ĠdÄ±": 2002,
      "ĠartÄ±r": 2003,
      "Ġbelirlemek": 2004,
      "ĠbahÃ§e": 2005,
      "59": 2006,
      "ĠolduÄŁunu": 2007,
      "tin": 2008,
      "kat": 2009,
      "Ġjournaling": 2010,
      "Ġfol": 2011,
      "Ġpainting": 2012,
      "76": 2013,
      "Ġneden": 2014,
      "side": 2015,
      "dÄ±ÄŁÄ±nÄ±z": 2016,
      "Ġsig": 2017,
      "Ġdestina": 2018,
      "Ġince": 2019,
      "bir": 2020,
      "siz": 2021,
      "ĠÄ±ÅŁÄ±": 2022,
      "rain": 2023,
      "Ġsizi": 2024,
      "Ġthrough": 2025,
      "Ġwat": 2026,
      "ĠPomodoro": 2027,
      "lex": 2028,
      "Ġleast": 2029,
      "Ã¼nkÃ¼": 2030,
      "Ġgre": 2031,
      "Ġblock": 2032,
      "leye": 2033,
      "ties": 2034,
      "Ġdetay": 2035,
      "Ġaway": 2036,
      "ĠseÃ§en": 2037,
      "Ġyel": 2038,
      "Ġrespond": 2039,
      "Ġgece": 2040,
      "larÄ±n": 2041,
      "Ġseviy": 2042,
      "Ãĸ": 2043,
      "Ã§a": 2044,
      "Ġbulun": 2045,
      "Ġstri": 2046,
      "fer": 2047,
      "gy": 2048,
      "mesi": 2049,
      "Ġarea": 2050,
      "elim": 2051,
      "ĠdÄ±ÅŁ": 2052,
      "abilirsiniz": 2053,
      "ĠalÄ±p": 2054,
      "Ġses": 2055,
      "ĠMotiva": 2056,
      "Ġstudy": 2057,
      "lish": 2058,
      "Ġred": 2059,
      "Ġgreen": 2060,
      "ĠdÃ¶": 2061,
      "ks": 2062,
      "ĠGo": 2063,
      "ĠkayÄ±tta": 2064,
      "ĠvÃ¼": 2065,
      "ssenti": 2066,
      "erine": 2067,
      "Ġflex": 2068,
      "line": 2069,
      "iting": 2070,
      "rdÄ±r": 2071,
      "ĠÃĸÄŁ": 2072,
      "lendir": 2073,
      "Ġmu": 2074,
      "Ġzorluk": 2075,
      "ĠEv": 2076,
      "Ġfi": 2077,
      "ĠaynÄ±": 2078,
      "57": 2079,
      ").": 2080,
      "ĠyÃ¼rÃ¼": 2081,
      "ople": 2082,
      "Ġtimes": 2083,
      "ĠyÃ¼k": 2084,
      "ersiz": 2085,
      "Ġpeople": 2086,
      "lere": 2087,
      "tive": 2088,
      "96": 2089,
      "Ġstrict": 2090,
      "Ġact": 2091,
      "Ġfinish": 2092,
      "ĠÅŀ": 2093,
      "Ġwhite": 2094,
      "Ġbiri": 2095,
      "Ġsuyun": 2096,
      "Ġregular": 2097,
      "'n": 2098,
      "Ġpay": 2099,
      "Ġhours": 2100,
      "Ġfollow": 2101,
      "Ġter": 2102,
      "tes": 2103,
      "Ġbest": 2104,
      "Ġmind": 2105,
      "Ġquestions": 2106,
      "we": 2107,
      "ĠolmalÄ±": 2108,
      "ĠAvoid": 2109,
      "ĠodaklanÄ±n": 2110,
      "ils": 2111,
      "sunuz": 2112,
      "Ġnat": 2113,
      "ĠyÃ¼zme": 2114,
      "Ġdedic": 2115,
      "lerin": 2116,
      "Ġyan": 2117,
      "ĠKÃ¼Ã§Ã¼k": 2118,
      "Ġsun": 2119,
      "dun": 2120,
      "Ġyellow": 2121,
      "ines": 2122,
      "Ġhelps": 2123,
      "ÄŁa": 2124,
      "48": 2125,
      "ez": 2126,
      "sical": 2127,
      "lerde": 2128,
      "diÄŁiniz": 2129,
      "ĠWhat": 2130,
      "..": 2131,
      "Ġlong": 2132,
      "55": 2133,
      "ves": 2134,
      "ĠÃ¼zerine": 2135,
      "ans": 2136,
      "Ġenti": 2137,
      "ous": 2138,
      "ĠIn": 2139,
      "Ġentire": 2140,
      "ysical": 2141,
      "Ġensure": 2142,
      "Ġsup": 2143,
      "layarak": 2144,
      "ileri": 2145,
      "ĠÃ§Ã¼nkÃ¼": 2146,
      "ĠyakÄ±n": 2147,
      "Ġchange": 2148,
      "Ġphysical": 2149,
      "Ġkeli": 2150,
      "graph": 2151,
      "Ġdark": 2152,
      "Ġimp": 2153,
      "Ġdis": 2154,
      "Ã¼nÃ¼z": 2155,
      ".\"": 2156,
      "gun": 2157,
      "Ġeg": 2158,
      "ins": 2159,
      "Ġsaatleri": 2160,
      "Ġwalking": 2161,
      "Ġpar": 2162,
      "lardÄ±r": 2163,
      "urg": 2164,
      "Ġwho": 2165,
      "Ġessenti": 2166,
      "Ġyeterli": 2167,
      "ital": 2168,
      "Ġstarting": 2169,
      "ush": 2170,
      "ĠGÃ¼nlÃ¼k": 2171,
      "Ġhaya": 2172,
      "inizde": 2173,
      "Ġphotograph": 2174,
      "-pressure": 2175,
      "Ġstay": 2176,
      "manÄ±zÄ±": 2177,
      "Ġsignal": 2178,
      "ĠDaha": 2179,
      "Ġegz": 2180,
      "79": 2181,
      "uya": 2182,
      "Ġburn": 2183,
      "Ġresponding": 2184,
      "ĠpaylaÅŁ": 2185,
      "room": 2186,
      "Ġtoday": 2187,
      "Ġbile": 2188,
      "vaÅŁ": 2189,
      "dÄ±n": 2190,
      "Ġkor": 2191,
      "menizi": 2192,
      "oth": 2193,
      "75": 2194,
      "liÄŁi": 2195,
      "vam": 2196,
      "ĠÃ§eki": 2197,
      "oy": 2198,
      "are": 2199,
      "Ġfeels": 2200,
      "ĠIt": 2201,
      "Ġphotography": 2202,
      "'in": 2203,
      "now": 2204,
      "Ġgro": 2205,
      "ĠdoÄŁal": 2206,
      "Ġcool": 2207,
      "read": 2208,
      "66": 2209,
      "ĠiÅŁe": 2210,
      "ween": 2211,
      "Ġbetween": 2212,
      "Ġgir": 2213,
      "Ġdif": 2214,
      "Ġchun": 2215,
      "Ġflexible": 2216,
      "Ġburnout": 2217,
      "Ġvis": 2218,
      "Ġenergy": 2219,
      "Ġtry": 2220,
      "Ġwater": 2221,
      "Ä±cÄ±": 2222,
      "decek": 2223,
      "oplam": 2224,
      "Ġfeelings": 2225,
      "Ġmatter": 2226,
      "fe": 2227,
      "larÄ±nÄ±zÄ±": 2228,
      "leyip": 2229,
      "ded": 2230,
      "ayÄ±": 2231,
      "Ġdikkat": 2232,
      "Ġrutin": 2233,
      "ching": 2234,
      "Ġuntil": 2235,
      "Ġbut": 2236,
      "Ġegzersiz": 2237,
      "ling": 2238,
      "dentif": 2239,
      "Ġunderstanding": 2240,
      "alarÄ±": 2241,
      "Ġzi": 2242,
      "gether": 2243,
      "07": 2244,
      "Ġstress": 2245,
      "san": 2246,
      "ĠÄ±": 2247,
      "ĠkullanÄ±n": 2248,
      "ound": 2249,
      "luk": 2250,
      "ally": 2251,
      "Ġelse": 2252,
      "vities": 2253,
      "ĠalÄ±n": 2254,
      "Ġsizin": 2255,
      "Ġchunks": 2256,
      "Ġx": 2257,
      "Ġless": 2258,
      "Ġbrain": 2259,
      "Ġactivities": 2260,
      "Ġtogether": 2261,
      "ĠyÃ¼rÃ¼yÃ¼ÅŁe": 2262,
      "ĠvÃ¼cu": 2263,
      "val": 2264,
      "Ġmess": 2265,
      "65": 2266,
      "Ġalmak": 2267,
      "ece": 2268,
      "Ġdevam": 2269,
      "ĠbugÃ¼n": 2270,
      "Ġkendinizi": 2271,
      "ĠMotivation": 2272,
      "idir": 2273,
      "Ġnokta": 2274,
      "bil": 2275,
      "ear": 2276,
      "ĠAra": 2277,
      "99": 2278,
      "ĠÃ§iz": 2279,
      "Ġstick": 2280,
      "az": 2281,
      "Ġolun": 2282,
      "Ġbedroom": 2283,
      "aca": 2284,
      "Ġdeney": 2285,
      "Ġden": 2286,
      "ĠkayÄ±ta": 2287,
      "ĠÃ§Ã¶zÃ¼m": 2288,
      "mo": 2289,
      "ĠĠ": 2290,
      "imming": 2291,
      "ĠyÃ¼zecek": 2292,
      "tic": 2293,
      "irim": 2294,
      "Ġotur": 2295,
      "Ġswimming": 2296,
      "77": 2297,
      "Ġmis": 2298,
      "ĠTry": 2299,
      "Ġstate": 2300,
      "Ġasking": 2301,
      "Ġortam": 2302,
      "Ġspeaking": 2303,
      "ĠÃĸÄŁren": 2304,
      "Ġkitab": 2305,
      "Ġeasi": 2306,
      "pt": 2307,
      "ĠFri": 2308,
      "Ġki": 2309,
      "ĠistediÄŁiniz": 2310,
      "lerden": 2311,
      "Ä±nÄ±za": 2312,
      "Ġekran": 2313,
      "Ġkahve": 2314,
      "ĠÃ¼": 2315,
      "Ġkaz": 2316,
      "Ġimmediate": 2317,
      "ways": 2318,
      "ĠyavaÅŁ": 2319,
      "Ġgelecek": 2320,
      "Ġanything": 2321,
      "Ġkayn": 2322,
      "Ġtrip": 2323,
      "ĠÅŁunlardÄ±r": 2324,
      "Ġgoing": 2325,
      "Ġede": 2326,
      "lim": 2327,
      "sÄ±n": 2328,
      "âĢ": 2329,
      "Ġnow": 2330,
      "ĠgÃ¼Ã§": 2331,
      "Ġuyan": 2332,
      "landÄ±": 2333,
      "Ġrela": 2334,
      "Ġedi": 2335,
      "Ġmove": 2336,
      "Ġkullanarak": 2337,
      "ĠHe": 2338,
      "kip": 2339,
      "lÄ±ÅŁ": 2340,
      "69": 2341,
      "vir": 2342,
      "rate": 2343,
      "Ġtickets": 2344,
      "Ġsabit": 2345,
      "erinde": 2346,
      "Ġkamera": 2347,
      "Ġnight": 2348,
      "Ġmental": 2349,
      "lÃ¼": 2350,
      "'re": 2351,
      "Ġhigh": 2352,
      "inizin": 2353,
      "Ġilerle": 2354,
      "Ġverin": 2355,
      "06": 2356,
      "Ġrepe": 2357,
      "viron": 2358,
      "Ġfriend": 2359,
      "Ġway": 2360,
      "Ä±mÄ±": 2361,
      "masÄ±nÄ±": 2362,
      "ÄŁÄ±na": 2363,
      "Ġbiraz": 2364,
      "ĠadÄ±mlarÄ±": 2365,
      "Ġenj": 2366,
      "Ġopen": 2367,
      "tire": 2368,
      "ĠyaptÄ±": 2369,
      "ele": 2370,
      "Ġbedtime": 2371,
      "54": 2372,
      "Ġeasier": 2373,
      "'i": 2374,
      "74": 2375,
      "Ġnatural": 2376,
      "Ġwa": 2377,
      "08": 2378,
      "Ġhava": 2379,
      "mer": 2380,
      "lardan": 2381,
      "Ġstep": 2382,
      "ĠPair": 2383,
      "vironment": 2384,
      "Ġkonuyu": 2385,
      "sÄ±na": 2386,
      "Ġpressure": 2387,
      "ĠaraÃ§": 2388,
      "Ġconf": 2389,
      "05": 2390,
      "cih": 2391,
      "Ġyolu": 2392,
      "Ġbr": 2393,
      "os": 2394,
      "ffee": 2395,
      "ĠseÃ§enek": 2396,
      "ĠsÄ±ra": 2397,
      "hers": 2398,
      "ĠvÃ¼cudun": 2399,
      "Ġsab": 2400,
      "04": 2401,
      "Ġbetter": 2402,
      "Ġknow": 2403,
      "Ġothers": 2404,
      "Ġlar": 2405,
      "ĠArdÄ±ndan": 2406,
      "Ġyeme": 2407,
      "Ġyoksa": 2408,
      "Ġtercih": 2409,
      "Ġfix": 2410,
      "Ġenvironment": 2411,
      "Ġcoffee": 2412,
      "ĠbahÃ§eniz": 2413,
      "Ġifade": 2414,
      "Ġhafta": 2415,
      "Ġkez": 2416,
      "Ġsoh": 2417,
      "Ġyara": 2418,
      "Ġflights": 2419,
      "yon": 2420,
      "ĠgÃ¶rÃ¼n": 2421,
      "vit": 2422,
      "Ġfocusing": 2423,
      "ĠAralÄ±k": 2424,
      "Ġfollowed": 2425,
      "landÄ±r": 2426,
      "Ä±ndan": 2427,
      "ĠkolaylaÅŁtÄ±r": 2428,
      "64": 2429,
      "kli": 2430,
      "omm": 2431,
      "arken": 2432,
      "izin": 2433,
      "ĠdeÄŁiÅŁ": 2434,
      "dentify": 2435,
      "Ġtal": 2436,
      "iyor": 2437,
      "sini": 2438,
      "Ġdiye": 2439,
      "**:": 2440,
      "Ġdestination": 2441,
      "ĠHaf": 2442,
      "yen": 2443,
      "Ġdeste": 2444,
      "ĠKend": 2445,
      "Ġful": 2446,
      "izi": 2447,
      "ĠComm": 2448,
      "asy": 2449,
      "95": 2450,
      "ĠyapmayÄ±": 2451,
      "ĠgÃ¼neÅŁ": 2452,
      "Ġsam": 2453,
      "sÄ±z": 2454,
      "eye": 2455,
      "Ġyorgun": 2456,
      "do": 2457,
      "Ġuzak": 2458,
      "tÄ±ra": 2459,
      "ĠhatÄ±r": 2460,
      "ĠBaÅŁlangÄ±Ã§": 2461,
      "ide": 2462,
      "ĠistediÄŁinizi": 2463,
      "yÄ±p": 2464,
      "67": 2465,
      "Ġthou": 2466,
      "Ġactually": 2467,
      "Ġsuch": 2468,
      "ount": 2469,
      "sts": 2470,
      "Ġsessions": 2471,
      "Ġeasy": 2472,
      "Ġbud": 2473,
      "evable": 2474,
      "ĠgÃ¶nder": 2475,
      "Ġgerekir": 2476,
      "Ġachievable": 2477,
      "ger": 2478,
      "Ġiy": 2479,
      "Ġsamimi": 2480,
      "og": 2481,
      "Ġproj": 2482,
      "Ġdef": 2483,
      "Ġurg": 2484,
      "ld": 2485,
      "kÃ¼n": 2486,
      "Ġpoz": 2487,
      "Ġnon": 2488,
      "Ġthought": 2489,
      "'ya": 2490,
      "Ġhayat": 2491,
      "ĠPause": 2492,
      "Ġaktivit": 2493,
      "Ġown": 2494,
      "Ġmut": 2495,
      "Ġmaster": 2496,
      "Bu": 2497,
      "imdi": 2498,
      "ĠFriendship": 2499,
      "Ġbudget": 2500,
      "Ġanla": 2501,
      "aba": 2502,
      "97": 2503,
      "ĠBel": 2504,
      "ĠSe": 2505,
      "cy": 2506,
      "Ġtari": 2507,
      "tention": 2508,
      "Ġpractice": 2509,
      "gress": 2510,
      "ablish": 2511,
      "Ġtaking": 2512,
      "Ġgra": 2513,
      "ĠUyku": 2514,
      "Ä±nÄ±zda": 2515,
      "Ġhav": 2516,
      "tim": 2517,
      "Ġkalan": 2518,
      "Ġsoru": 2519,
      "Ä±la": 2520,
      "Ġpenc": 2521,
      "ĠyaklaÅŁ": 2522,
      "Ġsupport": 2523,
      "tar": 2524,
      "Ġtekn": 2525,
      "eh": 2526,
      "stablish": 2527,
      "Ġazalt": 2528,
      "ĠÃ¶ncelik": 2529,
      "Ġbound": 2530,
      "Ġdedicated": 2531,
      "'Ä±n": 2532,
      "cing": 2533,
      "aries": 2534,
      "Ġput": 2535,
      "ora": 2536,
      "Ġsy": 2537,
      "lemeyi": 2538,
      "Ġprogress": 2539,
      "ÄŁÄ±n": 2540,
      "Ġgetir": 2541,
      "ĠdÄ±ÅŁarÄ±": 2542,
      "ĠyaÅŁ": 2543,
      "ssible": 2544,
      "sp": 2545,
      "Ġlet": 2546,
      "hoose": 2547,
      "isen": 2548,
      "aring": 2549,
      "Ġyaparak": 2550,
      "hower": 2551,
      "Ġdestek": 2552,
      "Ġsimp": 2553,
      "bilirsin": 2554,
      "Ġtam": 2555,
      "94": 2556,
      "meyin": 2557,
      "Ġsetting": 2558,
      "Ġreset": 2559,
      "isenhower": 2560,
      "Ġacc": 2561,
      "Ġshow": 2562,
      "Ġtimer": 2563,
      "rix": 2564,
      "yorsunuz": 2565,
      "Ġduyg": 2566,
      "Ã¼ne": 2567,
      "Ġreward": 2568,
      "mektir": 2569,
      "Ġsohbet": 2570,
      "seniz": 2571,
      "ĠkiÅŁi": 2572,
      "ĠÄ°zmir": 2573,
      "Ġinternal": 2574,
      "Ä±lan": 2575,
      "ĠChoose": 2576,
      "Ġeff": 2577,
      "Ã¼mkÃ¼n": 2578,
      "ness": 2579,
      "Ġuygula": 2580,
      "Ġsaatlerinde": 2581,
      "ĠMat": 2582,
      "havi": 2583,
      "ĠsaÄŁlaya": 2584,
      "ĠkonuÅŁma": 2585,
      "Ġyerel": 2586,
      "Ġstop": 2587,
      "Ġquick": 2588,
      "ĠfarklÄ±": 2589,
      "Ġbehavi": 2590,
      "enizi": 2591,
      "Ġemin": 2592,
      "Ġair": 2593,
      "Ġactively": 2594,
      "ogle": 2595,
      "Ġbooks": 2596,
      "larla": 2597,
      "ĠAncak": 2598,
      "Ġbehavior": 2599,
      "ĠDay": 2600,
      ").Ċ": 2601,
      "Ġide": 2602,
      "inizdeki": 2603,
      "Ġcomp": 2604,
      "ĠMatrix": 2605,
      "Ġear": 2606,
      "ding": 2607,
      "'nÄ±n": 2608,
      "mez": 2609,
      "inizden": 2610,
      "210": 2611,
      "mation": 2612,
      "Ġchecking": 2613,
      "ĠseÃ§ip": 2614,
      "),": 2615,
      "su": 2616,
      "alÄ±k": 2617,
      "ĠTelefon": 2618,
      "Ġbitir": 2619,
      "layÄ±p": 2620,
      "ĠsonuÃ§": 2621,
      "110": 2622,
      "load": 2623,
      "ber": 2624,
      "Ġsev": 2625,
      "ÄŁÄ±nda": 2626,
      "Ġboxes": 2627,
      "Ġgereken": 2628,
      "ough": 2629,
      "tiÄŁiniz": 2630,
      "ost": 2631,
      "Ġsec": 2632,
      "Ġworking": 2633,
      "Ġdrin": 2634,
      "ĠnoktasÄ±": 2635,
      "mel": 2636,
      "ĠYat": 2637,
      "Ġcalm": 2638,
      "ĠbÄ±rakÄ±n": 2639,
      "int": 2640,
      "ĠBÃ¶ylece": 2641,
      "lÄ±ÄŁÄ±nÄ±": 2642,
      "menin": 2643,
      "Ġgit": 2644,
      "mesini": 2645,
      "Ġdec": 2646,
      "Ġonu": 2647,
      "Ġsaatte": 2648,
      "Ġenerji": 2649,
      "43": 2650,
      "izce": 2651,
      "Ġmakes": 2652,
      "130": 2653,
      "Ġsimply": 2654,
      "fa": 2655,
      "ĠIdentify": 2656,
      "Ġshared": 2657,
      "Ġtrust": 2658,
      "Ġsonunda": 2659,
      "ĠihtiyaÃ§": 2660,
      "Ġyapma": 2661,
      "Ġgidecek": 2662,
      "Ġconnection": 2663,
      "var": 2664,
      "malÄ±sÄ±nÄ±z": 2665,
      "ult": 2666,
      "ĠKon": 2667,
      "manÄ±n": 2668,
      "Ġclar": 2669,
      "Ġlif": 2670,
      "pe": 2671,
      "ĠÃĸÄŁrenme": 2672,
      "Ġcur": 2673,
      "abilece": 2674,
      "Ġclean": 2675,
      "Ġgid": 2676,
      "larÄ±na": 2677,
      "Ġoverwhelming": 2678,
      "Ġtrans": 2679,
      "Ġhapp": 2680,
      "ĠKendi": 2681,
      "ng": 2682,
      "sh": 2683,
      "Ġdakikada": 2684,
      "irecek": 2685,
      "ĠiÅŁlem": 2686,
      "lerle": 2687,
      "crets": 2688,
      "113": 2689,
      "round": 2690,
      "Ġtur": 2691,
      "ĠToplam": 2692,
      "ready": 2693,
      "68": 2694,
      "Ġgeri": 2695,
      "Ġdesi": 2696,
      "ĠEisenhower": 2697,
      "ÅŁÄ±k": 2698,
      "42": 2699,
      "Ġfew": 2700,
      "Ġspeak": 2701,
      "ĠkeÅŁ": 2702,
      "Ġspot": 2703,
      "112": 2704,
      "Ġalready": 2705,
      "Ġkelim": 2706,
      "Ġinterrup": 2707,
      "ĠArkadaÅŁ": 2708,
      "Ġval": 2709,
      "'e": 2710,
      "Ġsystem": 2711,
      "Ġinfor": 2712,
      "Ġpri": 2713,
      "Ã¼s": 2714,
      "ĠdoÄŁr": 2715,
      "ĠÃ¶neriler": 2716,
      "ds": 2717,
      "ĠSizin": 2718,
      "fet": 2719,
      "ĠunutmayÄ±n": 2720,
      "Ġteknik": 2721,
      "ĠMe": 2722,
      "Ġfind": 2723,
      "cretsiz": 2724,
      "Ġwaiting": 2725,
      "maktan": 2726,
      "ctive": 2727,
      "Ġperf": 2728,
      "ĠgÃ¶ster": 2729,
      "Ġinformation": 2730,
      "114": 2731,
      "Ġtav": 2732,
      "Ġjackets": 2733,
      "ĠZaman": 2734,
      "itiate": 2735,
      "Ġkaynak": 2736,
      "urken": 2737,
      "Ġbelirli": 2738,
      "58": 2739,
      "Ġdays": 2740,
      "Ġgenel": 2741,
      "Ġstatements": 2742,
      "ime": 2743,
      "ĠboÅŁ": 2744,
      "-in": 2745,
      "kanlÄ±k": 2746,
      "ĠgÃ¶rÃ¼ÅŁ": 2747,
      "Ġalt": 2748,
      "Ġlarge": 2749,
      "Ġfriends": 2750,
      "Ġenjoy": 2751,
      "letiÅŁim": 2752,
      "Ġuygulam": 2753,
      "malar": 2754,
      "Ġihtiyac": 2755,
      "istem": 2756,
      "Ġkab": 2757,
      "uzur": 2758,
      "Ġrelax": 2759,
      "usu": 2760,
      "ĠdÃ¼ÅŁÃ¼nÃ¼n": 2761,
      "Ġdeneyim": 2762,
      "ĠMake": 2763,
      "ĠmÃ¼mkÃ¼n": 2764,
      "Ġbeing": 2765,
      "arika": 2766,
      "ĠsaÄŁlÄ±k": 2767,
      "Ġgetting": 2768,
      "ĠadÄ±mda": 2769,
      "ĠRes": 2770,
      "Ġkazan": 2771,
      "Ġbooking": 2772,
      "120": 2773,
      "Ġnokt": 2774,
      "cul": 2775,
      "other": 2776,
      "Ġdoable": 2777,
      "vite": 2778,
      "Ġcont": 2779,
      "Ġtutun": 2780,
      "ected": 2781,
      "98": 2782,
      "Ġwind": 2783,
      "erim": 2784,
      "ĠayÄ±rÄ±n": 2785,
      "maz": 2786,
      "Ġbad": 2787,
      "Ġplants": 2788,
      "Ġfik": 2789,
      ".,": 2790,
      "ba": 2791,
      "Ġwaking": 2792,
      "Ġbilgiler": 2793,
      "ĠÃ§Ä±kacak": 2794,
      "ended": 2795,
      "Ġkarar": 2796,
      "go": 2797,
      "Ġkoy": 2798,
      "Ġstret": 2799,
      "310": 2800,
      "Ġind": 2801,
      "ĠÃ¼cretsiz": 2802,
      "Ġexpress": 2803,
      "Ġsuyu": 2804,
      "Ġyere": 2805,
      "Ġtakip": 2806,
      "hy": 2807,
      "Ġkut": 2808,
      "ĠbaÅŁlangÄ±": 2809,
      "ĠÃ§Ä±kar": 2810,
      "endar": 2811,
      "ĠkoÅŁ": 2812,
      "Ġanda": 2813,
      "ĠaydÄ±n": 2814,
      "Ġmal": 2815,
      "esi": 2816,
      "Ġboth": 2817,
      "Ġwithin": 2818,
      "ĠNumara": 2819,
      "ĠGÃ¼nÃ¼n": 2820,
      "Ġbitk": 2821,
      "Ġboundaries": 2822,
      "ex": 2823,
      "Ġsets": 2824,
      "Ġpencils": 2825,
      "Ġlife": 2826,
      "ĠÃ¶neriyi": 2827,
      "ĠpiÅŁirecek": 2828,
      "Ġnedenle": 2829,
      "Ġmuch": 2830,
      "ana": 2831,
      "ĠeÄŁ": 2832,
      "diÄŁi": 2833,
      "ÅŁaÄŁÄ±": 2834,
      "Ġallow": 2835,
      "ones": 2836,
      "Ġtrig": 2837,
      "gÃ¼n": 2838,
      "Ġeras": 2839,
      "230": 2840,
      "fic": 2841,
      "Ġeffort": 2842,
      "78": 2843,
      "213": 2844,
      "less": 2845,
      "Ã¼ÄŁ": 2846,
      "bileceÄŁiniz": 2847,
      "Ġerasers": 2848,
      "ulate": 2849,
      "Ġnotebooks": 2850,
      "ĠÃ¶ÄŁle": 2851,
      "Ġlocal": 2852,
      "Ġdra": 2853,
      ".)": 2854,
      "Ġsur": 2855,
      "Ġanother": 2856,
      "Ġthoughts": 2857,
      "isay": 2858,
      "Ġsak": 2859,
      "Ġaraya": 2860,
      "Ġbicycles": 2861,
      "212": 2862,
      "Ġkural": 2863,
      "Ġreal": 2864,
      "ilecek": 2865,
      "Ġgenu": 2866,
      "Ġbackpacks": 2867,
      "ĠAsk": 2868,
      "Ġshare": 2869,
      "Ġclock": 2870,
      "dÄ±ÄŁÄ±nÄ±": 2871,
      "ĠÃ¶neririm": 2872,
      "Ġbulmak": 2873,
      "ĠkarÅŁÄ±laÅŁ": 2874,
      "mor": 2875,
      "ĠbÃ¼t": 2876,
      "Ä±nÄ±r": 2877,
      "sik": 2878,
      "ĠÃ§alÄ±ÅŁma": 2879,
      "ĠsÃ¶yle": 2880,
      "ĠbaÅŁlayÄ±p": 2881,
      "be": 2882,
      "ĠiÃ§ine": 2883,
      "Ġthere": 2884,
      "ĠÄ°letiÅŁim": 2885,
      "ilen": 2886,
      "Ġaut": 2887,
      "ĠAl": 2888,
      "ĠsÃ¼reci": 2889,
      "ĠsaÄŁlayÄ±n": 2890,
      "Ġtakes": 2891,
      "itap": 2892,
      "Ġearly": 2893,
      "âĢĶ": 2894,
      "con": 2895,
      "Ġkonuda": 2896,
      "Ġpack": 2897,
      "Ġkey": 2898,
      "stant": 2899,
      "exp": 2900,
      "Ġvarsa": 2901,
      "313": 2902,
      "Ġcalendar": 2903,
      "anÄ±zÄ±": 2904,
      "Ġneeds": 2905,
      "Ġuya": 2906,
      "ulti": 2907,
      "Ġyeniden": 2908,
      "330": 2909,
      "ebilir": 2910,
      "Ġconversations": 2911,
      "Ġvak": 2912,
      "Ġhika": 2913,
      "Ġpla": 2914,
      "Ġdri": 2915,
      "hangi": 2916,
      "yet": 2917,
      "Ġsistem": 2918,
      "Ġlamps": 2919,
      "gn": 2920,
      "Ġexact": 2921,
      "Ġizin": 2922,
      "Ġblocks": 2923,
      "bi": 2924,
      "Ġtackling": 2925,
      "ĠMesaj": 2926,
      "ĠThe": 2927,
      "Ġmulti": 2928,
      "Ġmessage": 2929,
      "expected": 2930,
      "Ġunexpected": 2931,
      "Ġkarma": 2932,
      "ĠdeÄŁerl": 2933,
      "Ġhot": 2934,
      "Ġnaturally": 2935,
      "comm": 2936,
      "Ġenough": 2937,
      "Ġtarih": 2938,
      "**.": 2939,
      "ĠiÅŁi": 2940,
      "Ġorganize": 2941,
      "ĠdÃ¶n": 2942,
      "ĠInitiate": 2943,
      "Ġthin": 2944,
      "ĠsÃ¼rec": 2945,
      "isayar": 2946,
      "ble": 2947,
      "Ġmakines": 2948,
      "Ġhard": 2949,
      "Ġwords": 2950,
      "116": 2951,
      "uyor": 2952,
      "Ġcontact": 2953,
      "Ġthose": 2954,
      "Ġconce": 2955,
      "Ġziya": 2956,
      "ĠadÄ±mlarla": 2957,
      "Ġdeclutter": 2958,
      "eras": 2959,
      "ushing": 2960,
      "ĠDown": 2961,
      "Ġessential": 2962,
      "Ġask": 2963,
      "Ġend": 2964,
      "Ġmet": 2965,
      "Ġarka": 2966,
      "ehir": 2967,
      "yal": 2968,
      "Ġmus": 2969,
      "alth": 2970,
      "elf": 2971,
      "Ġanlat": 2972,
      "ĠbaÅŁlar": 2973,
      "uyla": 2974,
      "ĠGoogle": 2975,
      ".g": 2976,
      "iet": 2977,
      "Ġprodu": 2978,
      "Ġhas": 2979,
      "plement": 2980,
      "312": 2981,
      "onin": 2982,
      "117": 2983,
      "kÃ§e": 2984,
      "ĠaÅŁ": 2985,
      "ĠAd": 2986,
      "ngil": 2987,
      "Ġtutacak": 2988,
      "let": 2989,
      "ĠbaÅŁlangÄ±Ã§tÄ±r": 2990,
      "ĠDownload": 2991,
      "oma": 2992,
      "Ġentirely": 2993,
      "ĠÃ§ev": 2994,
      "haba": 2995,
      "Ġap": 2996,
      "Ġmant": 2997,
      "ĠcÃ¼mle": 2998,
      "ĠsÃ¼reÃ§": 2999,
      "Ġaktiviteler": 3000,
      "Ġdesk": 3001,
      "115": 3002,
      "Ġmel": 3003,
      "'inde": 3004,
      "Ġdeta": 3005,
      "mem": 3006,
      "Ġtoprak": 3007,
      "gital": 3008,
      "Ġinc": 3009,
      "Ġkayna": 3010,
      "Ġadv": 3011,
      "Ġcas": 3012,
      "Ġurgent": 3013,
      "Ġevde": 3014,
      "orage": 3015,
      "uly": 3016,
      "ĠÄ°yi": 3017,
      "ĠdeÄŁer": 3018,
      "Ġimpro": 3019,
      "Ġhotel": 3020,
      "Ġautoma": 3021,
      "ngilizce": 3022,
      "-ended": 3023,
      "karak": 3024,
      "Ġtruly": 3025,
      "liÅŁ": 3026,
      "Ġsee": 3027,
      "Ġmed": 3028,
      "Ġes": 3029,
      "Ġstorage": 3030,
      "Ġkes": 3031,
      "Ġvb": 3032,
      "ĠSayÄ±n": 3033,
      "ĠzorluÄŁu": 3034,
      "Ġindir": 3035,
      "189": 3036,
      "Ġduvar": 3037,
      "ĠĠĊ": 3038,
      "imli": 3039,
      "Ġlast": 3040,
      "Ġexist": 3041,
      "Ġdiffer": 3042,
      "Ġhuzur": 3043,
      "ĠTÃ¼r": 3044,
      "lass": 3045,
      "ĠSÃ¼re": 3046,
      "ĠÃ§i": 3047,
      "Ġtavsi": 3048,
      "gÄ±": 3049,
      "Ġgive": 3050,
      "Ġtoo": 3051,
      "Ġadvance": 3052,
      "Ġusually": 3053,
      "tle": 3054,
      "Ġhealth": 3055,
      "ĠIm": 3056,
      "209": 3057,
      "Ġkayded": 3058,
      "layan": 3059,
      "Ġbeco": 3060,
      "Ġdinlen": 3061,
      "Ġdrinking": 3062,
      "Ġmelat": 3063,
      "muÅŁ": 3064,
      "inizle": 3065,
      "Ġaside": 3066,
      "esini": 3067,
      "Ġbelirleyerek": 3068,
      "Ġsaniye": 3069,
      "ĠkatÄ±": 3070,
      "ĠYes": 3071,
      "Ġchanges": 3072,
      "cial": 3073,
      "ĠkaÄŁÄ±": 3074,
      "Ġuyuma": 3075,
      "Ġoutside": 3076,
      "ĠEstablish": 3077,
      "ĠcÃ¼ml": 3078,
      "Ġvide": 3079,
      "Ġmelatonin": 3080,
      "ĠfÄ±r": 3081,
      "eleb": 3082,
      "214": 3083,
      "Ġuyk": 3084,
      "Ġremo": 3085,
      "Ġrit": 3086,
      "ĠdiÄŁer": 3087,
      "ould": 3088,
      "ĠvÃ¼cudunuz": 3089,
      "oda": 3090,
      "isini": 3091,
      "ĠHangi": 3092,
      "ĠgÃ¶zlem": 3093,
      "Ġdrawer": 3094,
      "ĠarasÄ±nda": 3095,
      "ĠÄ±ÅŁÄ±ÄŁÄ±": 3096,
      "Ġinclu": 3097,
      "gor": 3098,
      "Ġmaps": 3099,
      "Ġaya": 3100,
      "Ġmesa": 3101,
      "Ġsol": 3102,
      "Ġuyand": 3103,
      "Ġrequ": 3104,
      "conne": 3105,
      "Ġexisting": 3106,
      "Ġpart": 3107,
      "ilt": 3108,
      "ĠdakikayÄ±": 3109,
      "Ġpark": 3110,
      "ilik": 3111,
      "Ġonun": 3112,
      "Ġplanlama": 3113,
      "Ġhavuz": 3114,
      "314": 3115,
      "Ġverir": 3116,
      "ĠgÃ¶zden": 3117,
      "Ġfikir": 3118,
      "Ġbilgiyi": 3119,
      "Ġmatters": 3120,
      "Ġglass": 3121,
      "Ġoffline": 3122,
      "Ġkullanmak": 3123,
      "Ġeye": 3124,
      "?Ċ": 3125,
      "ĠAlÄ±ÅŁ": 3126,
      "Ä±ktan": 3127,
      "thod": 3128,
      "Ġders": 3129,
      "Ġmethod": 3130,
      "ĠÃ¼zerinde": 3131,
      "Ġass": 3132,
      "dÄ±ÄŁÄ±": 3133,
      "Ġdoes": 3134,
      "Ġalways": 3135,
      "Ġcare": 3136,
      "ĠolduÄŁunuz": 3137,
      "ĠhiÃ§": 3138,
      "Ġsharing": 3139,
      "ĠImplement": 3140,
      "Ġuyum": 3141,
      "ĠsÃ¼r": 3142,
      "ĠÄ°ngilizce": 3143,
      "Ġdeneye": 3144,
      "Ġsecond": 3145,
      "Ġmik": 3146,
      "gel": 3147,
      "ĠadÄ±": 3148,
      "icro": 3149,
      "Ġplanla": 3150,
      "Ġclo": 3151,
      "Ġdigital": 3152,
      "323": 3153,
      "Ä±ntÄ±": 3154,
      "Ġtopic": 3155,
      "Ġplace": 3156,
      "Ġokumaya": 3157,
      "Ġalarak": 3158,
      "ĠBelir": 3159,
      "Ġclearly": 3160,
      "Ġprocess": 3161,
      "Ġsaying": 3162,
      "328": 3163,
      "Ä±yor": 3164,
      "ĠzamanÄ±": 3165,
      "ĠyÃ¼zden": 3166,
      "Ġsessiz": 3167,
      "ĠtanÄ±ÅŁ": 3168,
      "melis": 3169,
      "bu": 3170,
      "erken": 3171,
      "ather": 3172,
      "ÄŁÄ±nÄ±zda": 3173,
      "face": 3174,
      "sap": 3175,
      "inden": 3176,
      "ĠkayÄ±ttaki": 3177,
      "ĠgÃ¼nde": 3178,
      "ĠamaÃ§": 3179,
      "ĠArkadaÅŁlÄ±k": 3180,
      "223": 3181,
      "eve": 3182,
      "yn": 3183,
      "ĠbaÅŁka": 3184,
      "Ġob": 3185,
      "Ġsat": 3186,
      "vely": 3187,
      "Ġones": 3188,
      "Ġdifferent": 3189,
      "ĠÅŀu": 3190,
      "Ġcameras": 3191,
      "form": 3192,
      "ĠsabahlarÄ±": 3193,
      "228": 3194,
      "Ġemo": 3195,
      "Ġbun": 3196,
      "ĠÃ¶zet": 3197,
      "Ġregulate": 3198,
      "ĠThis": 3199,
      "ĠSeyahat": 3200,
      "ĠkaÃ§Ä±nÄ±n": 3201,
      "ĠoluÅŁturun": 3202,
      "Ġhareke": 3203,
      "Ġceleb": 3204,
      "Ġanki": 3205,
      "ritik": 3206,
      "Ġavoiding": 3207,
      "Ġclarif": 3208,
      "oga": 3209,
      "tu": 3210,
      "Ġtoplamda": 3211,
      "216": 3212,
      "tiÄŁi": 3213,
      "ĠyazÄ±lÄ±": 3214,
      "Ġhedeflerinizi": 3215,
      "Ġbilgisayar": 3216,
      "Ġsakin": 3217,
      "inate": 3218,
      "316": 3219,
      "Ġlater": 3220,
      "larÄ±nda": 3221,
      "ĠTechnique": 3222,
      "Ġbirini": 3223,
      "ĠGÃ¼nde": 3224,
      "Ä±nÄ±zÄ±n": 3225,
      "Ġhob": 3226,
      "lemeye": 3227,
      "ĠartÄ±rÄ±r": 3228,
      ",\"": 3229,
      "Ġona": 3230,
      "ĠÃ¶ÄŁre": 3231,
      "Ġtrack": 3232,
      "ĠparÃ§": 3233,
      "217": 3234,
      "rarak": 3235,
      "ĠSor": 3236,
      "resh": 3237,
      "Ġcomes": 3238,
      "ĠkaydÄ±": 3239,
      "329": 3240,
      "ĠaÅŁaÄŁÄ±": 3241,
      "Ġileri": 3242,
      "ĠÃ§alÄ±ÅŁmak": 3243,
      "229": 3244,
      "no": 3245,
      "Ġhissi": 3246,
      "Ġhale": 3247,
      "ĠGece": 3248,
      "tiri": 3249,
      "ercis": 3250,
      "ĠPlan": 3251,
      "Ġconsistently": 3252,
      "215": 3253,
      "109": 3254,
      "Ġform": 3255,
      "315": 3256,
      "duÄŁunuz": 3257,
      "...\"": 3258,
      "isyon": 3259,
      "Ġpop": 3260,
      "Ġwr": 3261,
      "Ġaktivite": 3262,
      "Ġhand": 3263,
      "ĠkÄ±s": 3264,
      "menize": 3265,
      "ĠbaÅŁlayarak": 3266,
      "Ġpossible": 3267,
      "Ġprioritize": 3268,
      "Ġsort": 3269,
      "320": 3270,
      "elik": 3271,
      "Ġkritik": 3272,
      "ĠplanlayÄ±n": 3273,
      "own": 3274,
      "Ġsahip": 3275,
      "Ġessentials": 3276,
      "connect": 3277,
      "Ġsurface": 3278,
      "abil": 3279,
      "cally": 3280,
      "Ã¼ph": 3281,
      "ĠiÅŁleri": 3282,
      "ĠkarmaÅŁÄ±k": 3283,
      "Ġsk": 3284,
      "Ġbar": 3285,
      "Ġreach": 3286,
      "Ġortak": 3287,
      "Ġwhole": 3288,
      "ĠÃĩok": 3289,
      "ĠAlÄ±ÅŁkanlÄ±k": 3290,
      "ĠLear": 3291,
      "Ġheard": 3292,
      "Ġbelki": 3293,
      "Ġyolcul": 3294,
      "\":": 3295,
      "ĠiÃ§mek": 3296,
      "Ġroman": 3297,
      "commoda": 3298,
      "ÄŁim": 3299,
      "ÄŁÄ±m": 3300,
      "Ġdav": 3301,
      "omp": 3302,
      "Ã¶rn": 3303,
      "all": 3304,
      "317": 3305,
      "reating": 3306,
      "vals": 3307,
      "gain": 3308,
      "ĠiÃ§indeki": 3309,
      "ĠsÃ¼reli": 3310,
      "Ġodaklanma": 3311,
      "ĠnetleÅŁtir": 3312,
      "Ġregard": 3313,
      "sed": 3314,
      "ĠteÅŁ": 3315,
      "Ġdakikalar": 3316,
      "goti": 3317,
      "ĠdÃ¼zenli": 3318,
      "-ne": 3319,
      "Ä±rken": 3320,
      "Ġgroup": 3321,
      "Ġfull": 3322,
      "po": 3323,
      "Ġaccommoda": 3324,
      "Ġswim": 3325,
      "Ġsocial": 3326,
      "Ġgere": 3327,
      "lying": 3328,
      "Ġmateri": 3329,
      "Ġprices": 3330,
      "Ġcount": 3331,
      "ÄŁun": 3332,
      "ĠiÃ§er": 3333,
      "Ġokuya": 3334,
      "Ġiste": 3335,
      "ĠsaÄŁlayacak": 3336,
      "-negoti": 3337,
      "des": 3338,
      "ularÄ±": 3339,
      "Ġsaatlerde": 3340,
      "Ġintervals": 3341,
      "leyebilirsiniz": 3342,
      "Ġdiffic": 3343,
      "ood": 3344,
      "Ġodaklanmak": 3345,
      "Ġskill": 3346,
      "Ġputting": 3347,
      "180": 3348,
      "Ġkurun": 3349,
      "220": 3350,
      "opt": 3351,
      "Ġdifficult": 3352,
      "Ġoffer": 3353,
      "Ä±zlÄ±": 3354,
      "Ä±klÄ±": 3355,
      "ĠdeÄŁerlendir": 3356,
      "-negotiable": 3357,
      ".**": 3358,
      "izing": 3359,
      "Ġben": 3360,
      "Ġiyisi": 3361,
      "Ġsense": 3362,
      "ĠTÃ¼rkÃ§e": 3363,
      "Ġevening": 3364,
      "ĠÃ¶nceden": 3365,
      "ĠTo": 3366,
      "larm": 3367,
      "min": 3368,
      "lacak": 3369,
      "Ġlower": 3370,
      "249": 3371,
      "down": 3372,
      "mÄ±ÅŁtÄ±r": 3373,
      "Ġcelebrate": 3374,
      "ĠyemeÄŁi": 3375,
      "Ġdavran": 3376,
      "'ve": 3377,
      "Ġalarm": 3378,
      "Ġvideo": 3379,
      "Ġprioriti": 3380,
      "Ġstretching": 3381,
      "Ġbreathing": 3382,
      "ĠanlaÅŁ": 3383,
      "tanÄ±n": 3384,
      "ĠsÄ±kÄ±ntÄ±": 3385,
      "Ġci": 3386,
      "Ã¼ler": 3387,
      "Ġkav": 3388,
      "Ġbuilds": 3389,
      "Ġbursts": 3390,
      "Ġexactly": 3391,
      "Ġpres": 3392,
      "ici": 3393,
      "Ġca": 3394,
      "ildir": 3395,
      "Ġinteres": 3396,
      "ĠgÃ¼Ã§lendir": 3397,
      "-s": 3398,
      "ĠÃ¶d": 3399,
      "ĠgÃ¼nÃ¼nÃ¼z": 3400,
      "Ġyatmadan": 3401,
      "Ġten": 3402,
      "Ġetmeye": 3403,
      "ise": 3404,
      "sine": 3405,
      "ĠCommunication": 3406,
      "Ġekleyin": 3407,
      "Ġapps": 3408,
      "ĠyarÄ±": 3409,
      "ations": 3410,
      "cra": 3411,
      "ĠJ": 3412,
      "ouse": 3413,
      "Ġactions": 3414,
      "ĠsÃ¶z": 3415,
      "Ġgelen": 3416,
      "129": 3417,
      "'Ã¼nde": 3418,
      "Ġexercis": 3419,
      "Ġkelime": 3420,
      "jital": 3421,
      "Ġfixed": 3422,
      "Ġaround": 3423,
      "fort": 3424,
      "Ġimprove": 3425,
      "ĠsÄ±nÄ±r": 3426,
      "erinden": 3427,
      "Ġdurumunu": 3428,
      "ĠolmasÄ±": 3429,
      "lerine": 3430,
      "ĠeÅŁy": 3431,
      "ĠHedef": 3432,
      "ĠyaklaÅŁÄ±m": 3433,
      "Ġhouse": 3434,
      "Ġregularly": 3435,
      "neri": 3436,
      "136": 3437,
      "mar": 3438,
      "erseniz": 3439,
      "Ġblo": 3440,
      "Ġister": 3441,
      "Ġprob": 3442,
      "enin": 3443,
      "Ġfree": 3444,
      "Ġsal": 3445,
      "Ġcho": 3446,
      "ĠYatmadan": 3447,
      "Ġdates": 3448,
      "ĠiÅŁle": 3449,
      "zem": 3450,
      "ĠkarÄ±ÅŁ": 3451,
      "Ġconcept": 3452,
      "sek": 3453,
      "187": 3454,
      "Ġvakit": 3455,
      "ati": 3456,
      "Ġsit": 3457,
      "'nde": 3458,
      "Ġagain": 3459,
      "ĠSÄ±": 3460,
      "Pomodoro": 3461,
      "he": 3462,
      "Ġthroughout": 3463,
      "Ä±labilir": 3464,
      "Ġlevel": 3465,
      "tra": 3466,
      "ĠÃ¶ÄŁrenmeye": 3467,
      "Ġproblem": 3468,
      "Ġsmaller": 3469,
      "Ġrespon": 3470,
      "ĠtanÄ±m": 3471,
      "Ġmaterial": 3472,
      "abileceÄŁiniz": 3473,
      "Ġsaid": 3474,
      "Ġkeeping": 3475,
      "Ġbriefly": 3476,
      "net": 3477,
      "137": 3478,
      "top": 3479,
      "ĠalÄ±ÅŁkanlÄ±ÄŁÄ±": 3480,
      "Ġbekle": 3481,
      "149": 3482,
      "ĠAdopt": 3483,
      "135": 3484,
      "Ġbelirt": 3485,
      "ĠkitabÄ±": 3486,
      "Ġquickly": 3487,
      "Ġait": 3488,
      "ĠGÃ¶": 3489,
      "410": 3490,
      "Ġcontain": 3491,
      "Ġdone": 3492,
      "Ġuygulaya": 3493,
      "Ġseb": 3494,
      "ĠsabÄ±r": 3495,
      "zer": 3496,
      "ence": 3497,
      "-f": 3498,
      "Ġbreaking": 3499,
      "ĠiÃ§eri": 3500,
      "Ġharit": 3501,
      "ategor": 3502,
      "ĠEl": 3503,
      "ĠZor": 3504,
      "Ġ-": 3505,
      "ĠCon": 3506,
      "ĠÃĩalÄ±ÅŁ": 3507,
      "Ġser": 3508,
      "Ġsorular": 3509,
      "ove": 3510,
      "cisi": 3511,
      "yap": 3512,
      "unuza": 3513,
      "Ġyarat": 3514,
      "ĠListen": 3515,
      "haz": 3516,
      "185": 3517,
      "Ġedip": 3518,
      "Ġreduces": 3519,
      "\",": 3520,
      "Ġzih": 3521,
      "186": 3522,
      "syal": 3523,
      "ĠyapmanÄ±z": 3524,
      "tiÄŁini": 3525,
      "ĠbaÅŁÄ±na": 3526,
      "Ġbal": 3527,
      "locking": 3528,
      "ĠÅŁehir": 3529,
      "ĠistiyorsanÄ±z": 3530,
      "Ġachieve": 3531,
      "Ã¼tÃ¼ph": 3532,
      "Ġverimli": 3533,
      "Ġayak": 3534,
      "Ã¼tÃ¼phan": 3535,
      "Ġlook": 3536,
      "Ġfay": 3537,
      "ĠpiÅŁirme": 3538,
      "Ġconsistency": 3539,
      "Ġkoyun": 3540,
      "stantly": 3541,
      "eth": 3542,
      "Ġcategor": 3543,
      "dÄ±k": 3544,
      "ĠkeÅŁfet": 3545,
      "Ġuygulamalar": 3546,
      "cel": 3547,
      "each": 3548,
      "ĠkÃ¶": 3549,
      "Ġder": 3550,
      "'u": 3551,
      "Ġtar": 3552,
      "ĠbahÃ§enizin": 3553,
      "Ã§i": 3554,
      "Ġplans": 3555,
      "urarak": 3556,
      "Ġmultiple": 3557,
      "Ġseconds": 3558,
      "ÄŁine": 3559,
      "ĠgeliÅŁtir": 3560,
      "Ġnefesinizi": 3561,
      "Ġkonum": 3562,
      "Ġregardless": 3563,
      "325": 3564,
      "ĠkalkÄ±p": 3565,
      "bilecek": 3566,
      "ĠUz": 3567,
      "Ġkabul": 3568,
      "Ġdelay": 3569,
      "327": 3570,
      "Ġyerde": 3571,
      "Ġbilgiye": 3572,
      "Ġolmayan": 3573,
      "225": 3574,
      "anÄ±n": 3575,
      "Ġbelirtin": 3576,
      "Ġmalzem": 3577,
      "Ġmiktar": 3578,
      "kÄ±": 3579,
      "ĠgÃ¶revleri": 3580,
      "ĠsÃ¼": 3581,
      "Ġzama": 3582,
      "Ġzorunda": 3583,
      "ĠÅŁimdi": 3584,
      "Ġhesap": 3585,
      "Ġsorunu": 3586,
      "erede": 3587,
      "Ġtaraf": 3588,
      "ĠuygulamasÄ±": 3589,
      "ĠÃ¼zere": 3590,
      "326": 3591,
      "184": 3592,
      "ĠayrÄ±": 3593,
      "Ġrepeating": 3594,
      "Ġkas": 3595,
      "ining": 3596,
      "134": 3597,
      "bel": 3598,
      "ĠazÄ±ndan": 3599,
      "Ġlim": 3600,
      "-down": 3601,
      "Ġmin": 3602,
      "236": 3603,
      "ending": 3604,
      "ĠoluÅŁturmak": 3605,
      "Ġclearing": 3606,
      "dÃ¼r": 3607,
      "Ġfati": 3608,
      "Ġalma": 3609,
      "ĠÃ¶dÃ¼l": 3610,
      "224": 3611,
      "ency": 3612,
      "Ġgenuine": 3613,
      "ĠtanÄ±": 3614,
      "Ġteeth": 3615,
      "Ġposi": 3616,
      "Ġfatigue": 3617,
      "324": 3618,
      "Ġdair": 3619,
      "ron": 3620,
      "akes": 3621,
      "Ġsho": 3622,
      "Ã¼zel": 3623,
      "asÄ±nÄ±": 3624,
      "Ġinterac": 3625,
      "Ġgiving": 3626,
      "usal": 3627,
      "ies": 3628,
      "Ġsenin": 3629,
      "309": 3630,
      "sar": 3631,
      "ĠÄ°ÅŁ": 3632,
      "Ġodaklanarak": 3633,
      "ĠÅŁunlarÄ±": 3634,
      "rent": 3635,
      "ĠÃ¶l": 3636,
      "ĠkullanmayÄ±": 3637,
      "chedul": 3638,
      "ĠLearning": 3639,
      "Ġuyuyun": 3640,
      "Ġederek": 3641,
      "ĠFotoÄŁraf": 3642,
      "ĠHemen": 3643,
      "Ġcurrent": 3644,
      "Ġkind": 3645,
      "Ġfresh": 3646,
      "ĠodaklanmayÄ±": 3647,
      "sing": 3648,
      "ĠgÃ¶st": 3649,
      "Ġkendini": 3650,
      "Ġyeterlidir": 3651,
      "space": 3652,
      "irm": 3653,
      "chan": 3654,
      "Ġattention": 3655,
      "ĠdÃ¼zel": 3656,
      "ĠyapÄ±p": 3657,
      "ĠbaÄŁlÄ±": 3658,
      "ĠpopÃ¼ler": 3659,
      "row": 3660,
      "Ġprocra": 3661,
      "laming": 3662,
      "ĠiliÅŁ": 3663,
      "ĠaÃ§Ä±": 3664,
      "ĠdÃ¼ÅŁÃ¼nce": 3665,
      "ĠyapÄ±lan": 3666,
      "ĠÄ±sÄ±": 3667,
      "melisiniz": 3668,
      "235": 3669,
      "ila": 3670,
      "Ã¼nÃ¼zÃ¼": 3671,
      "Ġblaming": 3672,
      "Ġpass": 3673,
      "lul": 3674,
      "Ġnever": 3675,
      "Ġsaati": 3676,
      "emove": 3677,
      "Ġweather": 3678,
      "Ġiniti": 3679,
      "Ġnuma": 3680,
      "vice": 3681,
      "Ġbrief": 3682,
      "lest": 3683,
      "Ġquiet": 3684,
      "Ġleave": 3685,
      "Ġautomatic": 3686,
      "ÄŁe": 3687,
      "layÄ±cÄ±": 3688,
      "226": 3689,
      "237": 3690,
      "Ġbins": 3691,
      "Ġbeca": 3692,
      "Ġsmallest": 3693,
      "lanmÄ±ÅŁ": 3694,
      "mekten": 3695,
      "Ġeder": 3696,
      "Ġekleyerek": 3697,
      "ĠdÃ¼zenleme": 3698,
      "ĠbaÅŁlangÄ±cÄ±": 3699,
      "so": 3700,
      "Ġbecause": 3701,
      "Ġoto": 3702,
      "esif": 3703,
      "ĠatÄ±n": 3704,
      "ĠkolaylaÅŁ": 3705,
      "esifik": 3706,
      "Ġschedul": 3707,
      "ĠEach": 3708,
      "200": 3709,
      "Ġspesifik": 3710,
      "336": 3711,
      "ĠdetaylÄ±": 3712,
      "Ġpozisyon": 3713,
      "olo": 3714,
      "Ã¼nd": 3715,
      "Ġaccomp": 3716,
      "Ġcihaz": 3717,
      "Ġscreen": 3718,
      "Ġtalk": 3719,
      "Ġtrigger": 3720,
      "ĠanÄ±nda": 3721,
      "ĠmantÄ±klÄ±": 3722,
      "Ġaccomplish": 3723,
      ")**": 3724,
      "Ġtes": 3725,
      "Ġyaparken": 3726,
      "100": 3727,
      "Ġvisual": 3728,
      "ram": 3729,
      "ĠayarlayÄ±n": 3730,
      "349": 3731,
      "Ġsaatlik": 3732,
      "Ġdiyerek": 3733,
      "sion": 3734,
      "Ġcycle": 3735,
      "Ġeffe": 3736,
      "Ġincre": 3737,
      "Ä°lk": 3738,
      "Ġelim": 3739,
      "ĠcÃ¼mleler": 3740,
      "ĠConsisten": 3741,
      "cision": 3742,
      "tane": 3743,
      "227": 3744,
      "Ġbrushing": 3745,
      "Ġbitkiler": 3746,
      "ĠRemove": 3747,
      "aret": 3748,
      "lanan": 3749,
      "ĠkonuÅŁmak": 3750,
      "Ġmovement": 3751,
      "ĠCommit": 3752,
      "Ġcompleting": 3753,
      "409": 3754,
      "-post": 3755,
      "ĠÃ¼Ã§": 3756,
      "ĠApp": 3757,
      "ects": 3758,
      "Ġherhangi": 3759,
      "ĠkiÅŁiye": 3760,
      "Ġperfect": 3761,
      "view": 3762,
      "Ġsaatini": 3763,
      "Ġotel": 3764,
      "Ġoptions": 3765,
      "ĠAlways": 3766,
      "by": 3767,
      "ĠaÄŁ": 3768,
      "ĠRep": 3769,
      "ĠdÃ¼ÅŁÃ¼r": 3770,
      "ĠÃ¶lÃ§": 3771,
      "335": 3772,
      "Ġkaydet": 3773,
      "Ġsep": 3774,
      "ĠHarika": 3775,
      "Ġbelirleyip": 3776,
      "ĠiÅŁler": 3777,
      "Ġexchan": 3778,
      "ĠkolaylaÅŁtÄ±rÄ±r": 3779,
      "Ġmemor": 3780,
      "iyle": 3781,
      "arm": 3782,
      "Ġzamanda": 3783,
      "Ġmer": 3784,
      "ĠsÄ±caklÄ±ÄŁÄ±nÄ±": 3785,
      "its": 3786,
      "ebilirsiniz": 3787,
      "Ġema": 3788,
      "Ġcar": 3789,
      "ĠKa": 3790,
      "ĠhafifÃ§e": 3791,
      "ĠgeÃ§irin": 3792,
      "-blocking": 3793,
      "ilar": 3794,
      "Ġsosyal": 3795,
      "ĠprogramÄ±": 3796,
      "Ġsimilar": 3797,
      "Ġworkspace": 3798,
      "Ġedebilirsiniz": 3799,
      "119": 3800,
      "alÄ±m": 3801,
      "188": 3802,
      "Ġcluttered": 3803,
      "Ġconnec": 3804,
      "Ġrelaxing": 3805,
      "miÅŁtir": 3806,
      "Ġyum": 3807,
      "ĠkÄ±sÄ±": 3808,
      "Ġkaybet": 3809,
      "manÄ±za": 3810,
      "Ġyatak": 3811,
      "ĠbÃ¼tÃ§": 3812,
      "otal": 3813,
      "ĠBe": 3814,
      "Ġdecision": 3815,
      "ĠiÅŁaret": 3816,
      "Ġevdeki": 3817,
      "dying": 3818,
      "fÄ±r": 3819,
      "ĠyaÅŁa": 3820,
      "ĠyapmaktÄ±r": 3821,
      "ĠTime": 3822,
      "337": 3823,
      "rect": 3824,
      "Ġbelirtil": 3825,
      "Ġpositive": 3826,
      "ĠGet": 3827,
      "ĠBÃ¼yÃ¼k": 3828,
      "Ġatmak": 3829,
      "234": 3830,
      "Ġhedefe": 3831,
      "ĠkapatÄ±n": 3832,
      "Ġren": 3833,
      "ĠBaÅŁarÄ±": 3834,
      "Ġinterests": 3835,
      "Ġpara": 3836,
      "Ġprocrastina": 3837,
      "Ġwarm": 3838,
      "Ġpoint": 3839,
      "led": 3840,
      "289": 3841,
      "ĠhafÄ±z": 3842,
      "Ġeasily": 3843,
      "ĠbÃ¶lÃ¼m": 3844,
      "ĠdeÄŁiÅŁik": 3845,
      "Ġzone": 3846,
      "uring": 3847,
      "kim": 3848,
      "412": 3849,
      "Ġboz": 3850,
      "Ġetki": 3851,
      "Ġpresent": 3852,
      "ffer": 3853,
      "ĠihtiyacÄ±nÄ±z": 3854,
      "oring": 3855,
      "Ġdoesn": 3856,
      "ud": 3857,
      "Ġhedefinizi": 3858,
      "ĠApply": 3859,
      "Ġbased": 3860,
      "-st": 3861,
      "Ġyerden": 3862,
      "Ġgets": 3863,
      "ĠhÄ±zlÄ±ca": 3864,
      "ĠuygulayÄ±n": 3865,
      "Ġexperi": 3866,
      "Ġana": 3867,
      "Ġilerlemeyi": 3868,
      "Ġtemizlik": 3869,
      "tirecek": 3870,
      "Ġplat": 3871,
      "Ġresponse": 3872,
      "ĠÃ¶rneÄŁin": 3873,
      "Ġetkin": 3874,
      "Ġlevels": 3875,
      "ĠNe": 3876,
      "Ġkalite": 3877,
      "Ġmode": 3878,
      "Ġcl": 3879,
      "Ġfully": 3880,
      "Ġli": 3881,
      "ĠyoÄŁun": 3882,
      "talÄ±k": 3883,
      "Ġsin": 3884,
      "Ġyapaca": 3885,
      "ĠRule": 3886,
      "dedi": 3887,
      "Ġfre": 3888,
      "bilirim": 3889,
      "ĠalmayÄ±": 3890,
      "389": 3891,
      "Ġtavsiye": 3892,
      "Ä±sa": 3893,
      "Ġwin": 3894,
      "Ġbulund": 3895,
      "ĠyazÄ±n": 3896,
      "ĠdÃ¼zeninizi": 3897,
      "two": 3898,
      "Ġgu": 3899,
      "Ġbuilding": 3900,
      "Ġbunun": 3901,
      "tÄ±cÄ±": 3902,
      "Ġkayb": 3903,
      "ĠGÃ¼neÅŁ": 3904,
      "ously": 3905,
      "ĠAnswer": 3906,
      "Ġgerekli": 3907,
      "Ġkurmak": 3908,
      "ĠÃ¼zerinden": 3909,
      "ĠkoÅŁul": 3910,
      "111": 3911,
      "cer": 3912,
      "Ġhedefle": 3913,
      "Ġilerlemek": 3914,
      "ĠaltÄ±nda": 3915,
      "ĠReplace": 3916,
      "vet": 3917,
      "Ġreplace": 3918,
      "Ġinterrupting": 3919,
      "yarak": 3920,
      "Ġanlamak": 3921,
      "terna": 3922,
      "ĠalanÄ±": 3923,
      "earch": 3924,
      "Ġtransport": 3925,
      "Ġcomfort": 3926,
      "Ġner": 3927,
      "Ġshould": 3928,
      "ĠPack": 3929,
      "ĠSaat": 3930,
      "'a": 3931,
      "Ã¼p": 3932,
      "Ġtelefonunuzun": 3933,
      "Ġnerede": 3934,
      "Ġyapabilirsiniz": 3935,
      "Ġkol": 3936,
      "Sa": 3937,
      "Ġconfirm": 3938,
      "rken": 3939,
      "ĠÃ§ekiyor": 3940,
      "ĠkÄ±sm": 3941,
      "Ġnumar": 3942,
      "ĠÃ¶ÄŁrenin": 3943,
      "ĠÃ§alÄ±ÅŁmaya": 3944,
      "valtÄ±": 3945,
      "dik": 3946,
      "Ġsorting": 3947,
      "Ã¼ven": 3948,
      "ĠbaÅŁlamanÄ±z": 3949,
      "ĠWh": 3950,
      "Ġreview": 3951,
      "334": 3952,
      "Ġbackup": 3953,
      "ĠkonuÅŁmayÄ±": 3954,
      "Ġbeklen": 3955,
      "Ġadd": 3956,
      "ĠgÃ¶revi": 3957,
      "Ġfayd": 3958,
      "tence": 3959,
      "Ġprocrastination": 3960,
      "ĠKitap": 3961,
      "Ġtane": 3962,
      "Ãĸnce": 3963,
      "ĠÃ§iÃ§ek": 3964,
      "ping": 3965,
      "ĠÃ§eker": 3966,
      "Ġgidi": 3967,
      "Ġbecomes": 3968,
      "ĠkapatÄ±p": 3969,
      "Ġkork": 3970,
      "Ġreli": 3971,
      "Ġprevents": 3972,
      "Ġtamamla": 3973,
      "Ġhaftada": 3974,
      "Ġilerleme": 3975,
      "Ġfinishing": 3976,
      "Ġideal": 3977,
      "Ġdili": 3978,
      "Ġturning": 3979,
      "Ġdol": 3980,
      "lemeler": 3981,
      "yÄ±m": 3982,
      "Ġexercise": 3983,
      "Ġplatform": 3984,
      "ration": 3985,
      "chor": 3986,
      "luÄŁ": 3987,
      "Ġsesli": 3988,
      "ĠakÄ±ÅŁ": 3989,
      "ĠuygulamasÄ±nÄ±": 3990,
      "dÄ±ÄŁÄ±nÄ±zda": 3991,
      "Ġkelimeler": 3992,
      "03": 3993,
      "Ġinten": 3994,
      "106": 3995,
      "Ġminim": 3996,
      "ĠTek": 3997,
      "Ġyete": 3998,
      "BugÃ¼n": 3999,
      "ĠbaÅŁlatÄ±n": 4000,
      "ĠHÄ±zlÄ±": 4001,
      "ĠanlÄ±k": 4002,
      "Ġwins": 4003,
      "lines": 4004,
      "Ġmusic": 4005,
      "Ġton": 4006,
      "ĠartÄ±ra": 4007,
      "ĠtanÄ±ÅŁacak": 4008,
      "ĠsÃ¼ren": 4009,
      "Ġcleaning": 4010,
      "Ġtat": 4011,
      "Ġkullanmaya": 4012,
      "ĠgeÃ§in": 4013,
      "Ġtasar": 4014,
      "-posta": 4015,
      "vik": 4016,
      "Ġensuring": 4017,
      "Ġharekete": 4018,
      "Ġodan": 4019,
      "ĠdÃ¼zenini": 4020,
      "pping": 4021,
      "Ä±lÄ±r": 4022,
      "Ġprofe": 4023,
      "Ġtelefonunuzu": 4024,
      "Ġshelf": 4025,
      "ality": 4026,
      "ĠeÄŁi": 4027,
      "Ã¼ke": 4028,
      "ĠdeÄŁildir": 4029,
      "Ġprioritiz": 4030,
      "tification": 4031,
      "ĠGÃ¶z": 4032,
      "105": 4033,
      "thm": 4034,
      "ĠÅŁeyleri": 4035,
      "ĠazaltÄ±r": 4036,
      "hythm": 4037,
      "-do": 4038,
      "der": 4039,
      "Ġstrate": 4040,
      "Toplam": 4041,
      "meli": 4042,
      "ĠSabahlarÄ±": 4043,
      "Ġsayf": 4044,
      "Ġmisiniz": 4045,
      "ĠResim": 4046,
      "ĠdavranÄ±ÅŁ": 4047,
      "Ġrhythm": 4048,
      "Ġmood": 4049,
      "ĠgÃ¶rsel": 4050,
      "ĠbahÃ§ede": 4051,
      "Ġmicro": 4052,
      "206": 4053,
      "Ġaccess": 4054,
      "leriniz": 4055,
      "ĠaraÅŁ": 4056,
      "ĠbaÅŁlamaktÄ±r": 4057,
      "Ġbitki": 4058,
      "ll": 4059,
      "Ġru": 4060,
      "tÃ¼r": 4061,
      "ĠtaÅŁ": 4062,
      "Ġeden": 4063,
      "ĠbaÅŁÄ±nda": 4064,
      "yat": 4065,
      "Ġzek": 4066,
      "ĠÃ§ay": 4067,
      "Ġlabel": 4068,
      "Ġbahset": 4069,
      "Ġdilin": 4070,
      "Ġortamda": 4071,
      "Ġpush": 4072,
      "nem": 4073,
      "Ġbus": 4074,
      "Ġvade": 4075,
      "ĠplanÄ±nÄ±zÄ±": 4076,
      "127": 4077,
      "ĠiyileÅŁtir": 4078,
      "syonel": 4079,
      "Ġkurg": 4080,
      "Ġdeneyebilirsiniz": 4081,
      "Ġareas": 4082,
      "isel": 4083,
      "ĠkÃ¼tÃ¼phan": 4084,
      "riti": 4085,
      "Ġkonfor": 4086,
      "ĠoluÅŁt": 4087,
      "fen": 4088,
      "Ġsum": 4089,
      "Ġanal": 4090,
      "ĠaydÄ±": 4091,
      "Ġinternet": 4092,
      "Ġdep": 4093,
      "ĠThen": 4094,
      "zet": 4095,
      "ĠMerhaba": 4096,
      "ĠgerÃ§ekten": 4097,
      "ĠteÅŁvik": 4098,
      "ĠIf": 4099,
      "ĠsÃ¼rekli": 4100,
      "ĠarasÄ±": 4101,
      "Ġsuc": 4102,
      "Ġdelays": 4103,
      "ulan": 4104,
      "Ġatt": 4105,
      "Ġbilet": 4106,
      "gers": 4107,
      "ĠDon": 4108,
      "ĠbirleÅŁ": 4109,
      "Ġrezer": 4110,
      "ĠduÅŁ": 4111,
      "ĠhazÄ±rlayÄ±n": 4112,
      "ĠsaÄŁlÄ±klÄ±": 4113,
      "ilmiÅŁ": 4114,
      "ĠgeÃ§mek": 4115,
      "Ġdestinations": 4116,
      "Ġwriting": 4117,
      "125": 4118,
      "ĠdaÄŁÄ±": 4119,
      "Ġmutu": 4120,
      "Ġyapt": 4121,
      "ĠÃ¶ÄŁr": 4122,
      "Ġadding": 4123,
      "-free": 4124,
      "\")": 4125,
      "Ġdead": 4126,
      "ĠkaÃ§Ä±n": 4127,
      "ĠCh": 4128,
      "ĠyavaÅŁÃ§a": 4129,
      "300": 4130,
      "Ġrelying": 4131,
      "Ġsentence": 4132,
      "KÃ¼Ã§Ã¼k": 4133,
      "Ġold": 4134,
      "Ġincludes": 4135,
      "Ġleaving": 4136,
      "Ã¼tfen": 4137,
      "ection": 4138,
      "Ġdesign": 4139,
      "Ġmedit": 4140,
      "ullan": 4141,
      "ĠAÄŁ": 4142,
      "tÄ±p": 4143,
      "ĠgeliÅŁ": 4144,
      "ĠÄ±lÄ±k": 4145,
      "times": 4146,
      "ĠBook": 4147,
      "lÄ±yor": 4148,
      "ĠhÄ±zlandÄ±r": 4149,
      "Ġcall": 4150,
      "ĠaydÄ±nlat": 4151,
      "Ġmutual": 4152,
      "'ll": 4153,
      "Ġinsan": 4154,
      "ason": 4155,
      "Ġjud": 4156,
      "Ġthinking": 4157,
      "Ġoffering": 4158,
      "Ġcreating": 4159,
      "lence": 4160,
      "ĠkullanÄ±m": 4161,
      "Ġkayda": 4162,
      "Ġprofesyonel": 4163,
      "just": 4164,
      "ĠkullanÄ±lan": 4165,
      "ĠpiÅŁiriyor": 4166,
      "ĠalÄ±ÅŁkanlÄ±": 4167,
      "Ġdijital": 4168,
      "Ġfail": 4169,
      "ĠtÃ¼rÃ¼": 4170,
      "Ġproduction": 4171,
      "Ã§Ä±": 4172,
      "Ġvermek": 4173,
      "ĠkaldÄ±r": 4174,
      "ĠsÃ¼rede": 4175,
      "ĠÃ¶nemlidir": 4176,
      "ĠsorunlarÄ±": 4177,
      "319": 4178,
      "chen": 4179,
      "Ġweekly": 4180,
      "Ġilerleyin": 4181,
      "ĠyapÄ±l": 4182,
      "ĠgÃ¶nderin": 4183,
      "lebilir": 4184,
      "107": 4185,
      "Ġnotification": 4186,
      "'le": 4187,
      "iden": 4188,
      "Ġpur": 4189,
      "kiyor": 4190,
      "quent": 4191,
      "Ġkitchen": 4192,
      "Ġhikaye": 4193,
      "ĠÃĩalÄ±ÅŁma": 4194,
      "ndaki": 4195,
      "Ġdirect": 4196,
      "Ġbilgileri": 4197,
      "av": 4198,
      "Ġlead": 4199,
      "Ġengel": 4200,
      "ĠÃ§ekecek": 4201,
      "ĠseÃ§im": 4202,
      "ĠbaÅŁlangÄ±Ã§ta": 4203,
      "Ġileride": 4204,
      "elen": 4205,
      "ĠdÃ¶nÃ¼ÅŁ": 4206,
      "ĠHabit": 4207,
      "Ġmaintaining": 4208,
      "Ġdrive": 4209,
      "Ġmek": 4210,
      "Ġken": 4211,
      "Ġfiz": 4212,
      "Ġanchor": 4213,
      "Ġswit": 4214,
      "ĠÄ±ÅŁÄ±ÄŁÄ±na": 4215,
      "Ġseviyenizi": 4216,
      "Ġgerekiyor": 4217,
      "Ġinterest": 4218,
      "ign": 4219,
      "ences": 4220,
      "vasyon": 4221,
      "lemesine": 4222,
      "Ġsave": 4223,
      "-stakes": 4224,
      "lanÄ±r": 4225,
      "lÄ±klÄ±": 4226,
      "207": 4227,
      "Ġcloth": 4228,
      "Ġyetene": 4229,
      "280": 4230,
      "ĠolduÄŁun": 4231,
      "ĠulaÅŁÄ±labilir": 4232,
      "Ġolup": 4233,
      "ĠyumuÅŁ": 4234,
      "Ġrezervasyon": 4235,
      "Ġstil": 4236,
      "tÃ¼": 4237,
      "alara": 4238,
      "ĠseÃ§mektir": 4239,
      "ned": 4240,
      "eded": 4241,
      "ĠbaÅŁar": 4242,
      "ĠbÄ±rakÄ±p": 4243,
      "Ġsonucu": 4244,
      "ĠUzun": 4245,
      "Ġperi": 4246,
      "met": 4247,
      "erleri": 4248,
      "Ġhedefi": 4249,
      "ĠyÃ¼rÃ¼me": 4250,
      "Ġneeding": 4251,
      "ork": 4252,
      "ĠadÄ±mÄ±n": 4253,
      "ĠMart": 4254,
      "larÄ±ndan": 4255,
      "Ġhotels": 4256,
      "126": 4257,
      "Ġasleep": 4258,
      "ese": 4259,
      "Ġeveryone": 4260,
      "eck": 4261,
      "Ġboost": 4262,
      "Ġalterna": 4263,
      "ĠkullanmaktÄ±r": 4264,
      "Ġkamer": 4265,
      "Ġairport": 4266,
      "ĠsatÄ±n": 4267,
      "matik": 4268,
      "ĠÃ§evir": 4269,
      "400": 4270,
      "Ġideas": 4271,
      "ĠseÃ§imi": 4272,
      "Ġisterseniz": 4273,
      "oloj": 4274,
      "lak": 4275,
      "ĠBaÅŁlangÄ±Ã§ta": 4276,
      "-out": 4277,
      "ang": 4278,
      "ĠyÃ¼rÃ¼yerek": 4279,
      "Ġbekleme": 4280,
      "Ġolabilirim": 4281,
      "Ġsummar": 4282,
      "iraz": 4283,
      "ĠbaÅŁtan": 4284,
      "biliriz": 4285,
      "ayan": 4286,
      "ĠgeniÅŁ": 4287,
      "rink": 4288,
      "Ġmon": 4289,
      "Bir": 4290,
      "ĠbaÅŁa": 4291,
      "adan": 4292,
      "219": 4293,
      "Ġroute": 4294,
      "fak": 4295,
      "Ġyapmadan": 4296,
      "380": 4297,
      "Ġgider": 4298,
      "Ġneeded": 4299,
      "132": 4300,
      "Ġmindful": 4301,
      "list": 4302,
      "Ġcir": 4303,
      "Ġyapay": 4304,
      "205": 4305,
      "ĠÃ¶ncesi": 4306,
      "ĠsaÄŁlam": 4307,
      "ĠolmalÄ±dÄ±r": 4308,
      "Ġbreathe": 4309,
      "Ġclarifying": 4310,
      "Ġvery": 4311,
      "Ġdocu": 4312,
      "133": 4313,
      "Ġpause": 4314,
      "Ġperfection": 4315,
      "mayan": 4316,
      "131": 4317,
      "Ġuykuya": 4318,
      "Ġbilim": 4319,
      "Ġoturup": 4320,
      "Ġnotifications": 4321,
      "ĠolmanÄ±z": 4322,
      "ice": 4323,
      "Ġtidy": 4324,
      "vaila": 4325,
      "Ġyeri": 4326,
      "dak": 4327,
      "ĠyapÄ±yor": 4328,
      "Ġlights": 4329,
      "Ġinceleyin": 4330,
      "uÄŁ": 4331,
      "ĠayÄ±rdÄ±ÄŁÄ±": 4332,
      "ĠseÃ§ene": 4333,
      "ida": 4334,
      "Ġspor": 4335,
      "Ġfall": 4336,
      "liÄŁini": 4337,
      "ĠÃ§Ã¶zmek": 4338,
      "Ġrealis": 4339,
      "iksel": 4340,
      "Ġkelimeleri": 4341,
      "You": 4342,
      "duk": 4343,
      "Ġdemek": 4344,
      "Ġreconnect": 4345,
      "Ġrahatla": 4346,
      "Ġunutma": 4347,
      "Ġdisrup": 4348,
      "Mer": 4349,
      "teri": 4350,
      "atch": 4351,
      "Ġperspe": 4352,
      "Ġweb": 4353,
      "ĠyÃ¶net": 4354,
      "ĠdetaylarÄ±": 4355,
      "Ġritual": 4356,
      "ĠÃ¶rnek": 4357,
      "linde": 4358,
      "Ġimpo": 4359,
      "ĠhatÄ±rlat": 4360,
      "hing": 4361,
      "sal": 4362,
      "Ġgentle": 4363,
      "ĠyazÄ±": 4364,
      "108": 4365,
      "ĠÃ§ekin": 4366,
      "Ġduygular": 4367,
      "128": 4368,
      "Ġaccommodation": 4369,
      "esinde": 4370,
      "Ġbeyn": 4371,
      "Ġkonular": 4372,
      "Ġbuilt": 4373,
      "Ġdurumda": 4374,
      "ĠdeÄŁiÅŁiklik": 4375,
      "tiren": 4376,
      "Ġtotal": 4377,
      "Ġhedefleyin": 4378,
      "ĠÃ§Ä±kÄ±p": 4379,
      "Ġprioritizing": 4380,
      "Ġfrequent": 4381,
      "Ġsile": 4382,
      "ĠBiraz": 4383,
      "ĠÃ¶nÃ¼nde": 4384,
      "Ġquality": 4385,
      "Ġhayal": 4386,
      "ĠReach": 4387,
      "ĠartÄ±rÄ±n": 4388,
      "ĠyaptÄ±ÄŁÄ±nÄ±z": 4389,
      "Ġdecluttering": 4390,
      "Ġslow": 4391,
      "Ġharika": 4392,
      "ĠaraÅŁtÄ±r": 4393,
      "Ġimpossible": 4394,
      "aps": 4395,
      "Ġallowing": 4396,
      "Ġaraz": 4397,
      "landÄ±ÄŁÄ±nÄ±z": 4398,
      "-on": 4399,
      "rev": 4400,
      "ĠÃ¶ne": 4401,
      "ĠgiriÅŁ": 4402,
      "iyet": 4403,
      "ĠDil": 4404,
      "Ġanlama": 4405,
      "tÄ±ÄŁÄ±nÄ±z": 4406,
      "ĠyapÄ±lacak": 4407,
      "Ġdinle": 4408,
      "ĠsÃ¼reÃ§te": 4409,
      "124": 4410,
      "Ġcomplex": 4411,
      "abilirim": 4412,
      "lerinize": 4413,
      "ĠbakÄ±n": 4414,
      "Ġharca": 4415,
      "211": 4416,
      "ĠyetiÅŁ": 4417,
      "ĠDrink": 4418,
      "Ġbelirti": 4419,
      "Ġbite": 4420,
      "Ġexpla": 4421,
      "Ġbath": 4422,
      "Ġintention": 4423,
      "ory": 4424,
      "ĠbuluÅŁma": 4425,
      "vous": 4426,
      "GÃ¼n": 4427,
      "Ġsc": 4428,
      "ĠÃ¶de": 4429,
      "ĠuÄŁ": 4430,
      "Ġstar": 4431,
      "Ä±ÅŁtÄ±r": 4432,
      "Ġyerinizi": 4433,
      "ĠBirlikte": 4434,
      "Ġhikay": 4435,
      "Ġhaving": 4436,
      "Ġbond": 4437,
      "-M": 4438,
      "ĠBunun": 4439,
      "Ġmasa": 4440,
      "laÅŁma": 4441,
      "ĠkonuÅŁmaya": 4442,
      "Ġkesin": 4443,
      "Ġkaydedin": 4444,
      "Ġnervous": 4445,
      "Ġanaliz": 4446,
      "tly": 4447,
      "Ġpat": 4448,
      "ĠYoga": 4449,
      "ĠyÃ¼zmeye": 4450,
      "ĠayÄ±rd": 4451,
      "ĠÃ§izim": 4452,
      "ĠyazÄ±lÄ±m": 4453,
      "Ġprojects": 4454,
      "ĠayÄ±rarak": 4455,
      "Ġmetin": 4456,
      "Ġnotes": 4457,
      "509": 4458,
      "Ä±lmÄ±ÅŁ": 4459,
      "ĠdoÄŁrusu": 4460,
      "Ġmakinesi": 4461,
      "Ġblok": 4462,
      "385": 4463,
      "Ġgelir": 4464,
      "709": 4465,
      "ĠyanlÄ±ÅŁ": 4466,
      "ĠgÃ¼Ã§lÃ¼": 4467,
      "ĠHaftanÄ±n": 4468,
      "vity": 4469,
      "306": 4470,
      "ĠodaklÄ±": 4471,
      "ĠyÃ¼ksek": 4472,
      "Ġvalida": 4473,
      "ĠYap": 4474,
      "sÄ±l": 4475,
      "unuzun": 4476,
      "ĠÃ¶nerileri": 4477,
      "Ġruh": 4478,
      "305": 4479,
      "Ben": 4480,
      "Ġaim": 4481,
      "Ġsuya": 4482,
      "gÃ¼nlÃ¼k": 4483,
      "Ġziyade": 4484,
      "Ġtarz": 4485,
      "104": 4486,
      "405": 4487,
      "Ġiba": 4488,
      "Ġedecek": 4489,
      "Ġperspective": 4490,
      "pa": 4491,
      "iy": 4492,
      "Ġreac": 4493,
      "Ġchat": 4494,
      "208": 4495,
      "ĠyerleÅŁtir": 4496,
      "ĠbahÃ§eye": 4497,
      "Ġemotion": 4498,
      "econd": 4499,
      "285": 4500,
      "Ġzeka": 4501,
      "809": 4502,
      "Ġavaila": 4503,
      "Ġdinlenme": 4504,
      "Ġmedi": 4505,
      "cessary": 4506,
      "rying": 4507,
      "Ã¢": 4508,
      "Ġkura": 4509,
      "Ġyu": 4510,
      "232": 4511,
      "Ġmeans": 4512,
      "ĠzorluklarÄ±": 4513,
      "hoto": 4514,
      "mut": 4515,
      "Ġ\\": 4516,
      "tarak": 4517,
      "ĠgÃ¼nÃ¼nÃ¼": 4518,
      "609": 4519,
      "Ġkelimeyi": 4520,
      "Ġcounter": 4521,
      "-Minute": 4522,
      "Ġart": 4523,
      "Ġsolely": 4524,
      "meyen": 4525,
      "286": 4526,
      "Ġaccus": 4527,
      "ĠgerÃ§ekÃ§i": 4528,
      "Ġdoldur": 4529,
      "meler": 4530,
      "ase": 4531,
      "ĠÃĸneri": 4532,
      "ĠolduÄŁundan": 4533,
      "ĠNumarasÄ±": 4534,
      "yÃ¼z": 4535,
      "Ġretur": 4536,
      "Ġgez": 4537,
      "ĠBirkaÃ§": 4538,
      "gen": 4539,
      "Ġtool": 4540,
      "307": 4541,
      "Ġtelefonunuzda": 4542,
      "ĠaÅŁaÄŁÄ±daki": 4543,
      "ĠuÄŁra": 4544,
      "iled": 4545,
      "laka": 4546,
      "Ġonline": 4547,
      "ĠgeÃ§iÅŁ": 4548,
      "ĠduyduÄŁ": 4549,
      "Ġibaret": 4550,
      "Two": 4551,
      "Ġbag": 4552,
      "Ġinv": 4553,
      "Ġstore": 4554,
      "Ġokuyun": 4555,
      "Ġarri": 4556,
      "Ġalacak": 4557,
      "ĠfaydalÄ±": 4558,
      "Ġperiod": 4559,
      "Ġrecal": 4560,
      "387": 4561,
      "Ġground": 4562,
      "Ġsupp": 4563,
      "'ye": 4564,
      "sadece": 4565,
      "dÄ±ÄŁÄ±nÄ±zÄ±": 4566,
      "Ġref": 4567,
      "eyin": 4568,
      "caÄŁÄ±nÄ±z": 4569,
      "Ġcev": 4570,
      "Ġstudying": 4571,
      "Ġmutlaka": 4572,
      "Ġhappens": 4573,
      "Ġbalance": 4574,
      "ĠiletiÅŁimi": 4575,
      "ĠyÃ¼ksel": 4576,
      "âĢĵ": 4577,
      "ĠazaltÄ±n": 4578,
      "ĠkaÄŁÄ±t": 4579,
      "Ġbin": 4580,
      "Ġna": 4581,
      "ĠgÃ¼nkÃ¼": 4582,
      "Ġuyuya": 4583,
      "Ġeksik": 4584,
      "jor": 4585,
      "ĠÃ§alÄ±ÅŁmayÄ±": 4586,
      "ĠkiÅŁisel": 4587,
      "204": 4588,
      "ĠYaz": 4589,
      "luluk": 4590,
      "287": 4591,
      "Ġvererek": 4592,
      "ctively": 4593,
      "ĠkalÄ±cÄ±": 4594,
      "Ġmajor": 4595,
      "Ä±ndaki": 4596,
      "Ġtoward": 4597,
      "Ġmeals": 4598,
      "Ä±yorsanÄ±z": 4599,
      "Ġistiyor": 4600,
      "Ġsonuna": 4601,
      "ĠseÃ§erek": 4602,
      "ĠkullanÄ±mÄ±": 4603,
      "Ġris": 4604,
      "407": 4605,
      "Ġthink": 4606,
      "Ġproblems": 4607,
      "task": 4608,
      "ĠDÃ¼z": 4609,
      "Ġbulup": 4610,
      "asit": 4611,
      "Ġsorus": 4612,
      "ĠaÃ§Ä±n": 4613,
      "Ġpaint": 4614,
      "ĠulaÅŁÄ±m": 4615,
      "vor": 4616,
      "Ġprote": 4617,
      "231": 4618,
      "ft": 4619,
      "imp": 4620,
      "Ġtutarak": 4621,
      "ĠgÃ¶revlerinizi": 4622,
      "larÄ±nÄ±zÄ±n": 4623,
      "Ġmust": 4624,
      "Ġbreaths": 4625,
      "Ġeliminate": 4626,
      "sÄ±nÄ±n": 4627,
      "Ġveril": 4628,
      "Ġdetailed": 4629,
      "Ġexperiences": 4630,
      "Ġfavor": 4631,
      "Ġstarted": 4632,
      "Ġrecall": 4633,
      "406": 4634,
      "Ġused": 4635,
      "Ġkonuya": 4636,
      "Ġrenk": 4637,
      "udy": 4638,
      "Ġstrictly": 4639,
      "rada": 4640,
      "ĠYeni": 4641,
      "Ġkat": 4642,
      "anÄ±p": 4643,
      "Ġdedicate": 4644,
      "Ġgitmek": 4645,
      "ĠKonuÅŁ": 4646,
      "ĠkaynaÄŁÄ±": 4647,
      "01": 4648,
      "resi": 4649,
      "uzu": 4650,
      "ĠWhen": 4651,
      "ically": 4652,
      "331": 4653,
      "riority": 4654,
      "veriÅŁ": 4655,
      "ternal": 4656,
      "'nin": 4657,
      "ĠKendinize": 4658,
      "ages": 4659,
      "vÄ±": 4660,
      "ulating": 4661,
      "ĠMayÄ±": 4662,
      "Ġheav": 4663,
      "386": 4664,
      "ĠnumaranÄ±z": 4665,
      "Ġforward": 4666,
      "icate": 4667,
      "iyi": 4668,
      "Ġelinizdeki": 4669,
      "menizdir": 4670,
      "ĠalanlarÄ±": 4671,
      "Ġbelirlemektir": 4672,
      "Ġ'": 4673,
      "Ä±nÄ±zla": 4674,
      "Ġfiziksel": 4675,
      "Ġhobby": 4676,
      "ĠuÃ§": 4677,
      "Ġkalma": 4678,
      "ĠyÃ¼ze": 4679,
      "Ġurgency": 4680,
      "ĠeÄŁlence": 4681,
      "Ġtriggers": 4682,
      "332": 4683,
      "Ġexternal": 4684,
      "Ġweeks": 4685,
      "gage": 4686,
      "Ä±yorum": 4687,
      "ulama": 4688,
      "ĠkullanÄ±l": 4689,
      "ĠaÃ§Ä±p": 4690,
      "ĠÃ¶zen": 4691,
      "Ġtalking": 4692,
      "Ġremove": 4693,
      "Ġjoy": 4694,
      "sized": 4695,
      "ĠConsistency": 4696,
      "Ġseti": 4697,
      "233": 4698,
      "Ġyolculuk": 4699,
      "Ġsuccess": 4700,
      "Ġbla": 4701,
      "ĠkonuÅŁmalar": 4702,
      "ĠGÃ¼ne": 4703,
      "Ġadjust": 4704,
      "ÄŁaÃ§": 4705,
      "ĠBelki": 4706,
      "ĠuyandÄ±ktan": 4707,
      "Ġhandle": 4708,
      "-sized": 4709,
      "ues": 4710,
      "oud": 4711,
      "Ġwas": 4712,
      "Ġziyaret": 4713,
      "Ġrespect": 4714,
      "02": 4715,
      "Ġbuffer": 4716,
      "ĠulaÅŁmak": 4717,
      "Ġbusy": 4718,
      "Ġcevab": 4719,
      "ĠGood": 4720,
      "Ġcriti": 4721,
      "lamayÄ±": 4722,
      "arlÄ±": 4723,
      "ĠkolayÄ±": 4724,
      "andÄ±r": 4725,
      "ĠfÄ±rsa": 4726,
      "118": 4727,
      "Ġorganizing": 4728,
      "Ġcasual": 4729,
      "Ġreliable": 4730,
      "Ġdocuments": 4731,
      "Ġmedia": 4732,
      "ĠyalnÄ±z": 4733,
      "Ġbakarak": 4734,
      "ĠSleep": 4735,
      "Ġizleyin": 4736,
      "ĠgÃ¶sterin": 4737,
      "haul": 4738,
      "Ġnaz": 4739,
      "ĠÄ°ki": 4740,
      "304": 4741,
      "caktÄ±r": 4742,
      "Ġkitaplar": 4743,
      "Ġlost": 4744,
      "ĠpaylaÅŁÄ±n": 4745,
      "ĠKendinizi": 4746,
      "lendi": 4747,
      "Ġtest": 4748,
      "Ġverilen": 4749,
      "333": 4750,
      "Ġtemizleyin": 4751,
      "Ġorganized": 4752,
      "Ġtopics": 4753,
      "Ġtomor": 4754,
      "ĠdÃ¼ÅŁÃ¼nd": 4755,
      "ĠkatÄ±l": 4756,
      "Ġsummarizing": 4757,
      "Ġheavy": 4758,
      "Ġtomorrow": 4759,
      "Ġtrain": 4760,
      "per": 4761,
      "Ġsight": 4762,
      "unuzda": 4763,
      "ĠistediÄŁin": 4764,
      "Ġmesafe": 4765,
      "Ġeffectively": 4766,
      "ĠaydÄ±rdÄ±": 4767,
      "Ġdistraction": 4768,
      "ÅŁe": 4769,
      "yÄ±r": 4770,
      "ĠÃ¶nerim": 4771,
      "lantÄ±": 4772,
      "ĠtamamlayÄ±n": 4773,
      "ĠÅŀimdi": 4774,
      "ĠÃ¶ncelikli": 4775,
      "oint": 4776,
      "Ġhappen": 4777,
      "term": 4778,
      "Ġetme": 4779,
      "Ġoturum": 4780,
      "Ġhalinde": 4781,
      "ĠhiÃ§bir": 4782,
      "ĠMayÄ±s": 4783,
      "yg": 4784,
      "sÄ±yla": 4785,
      "Ġsormak": 4786,
      "Ġoverhaul": 4787,
      "ĠÃ¶nerilir": 4788,
      "Ġcontainers": 4789,
      "-term": 4790,
      "Ġthese": 4791,
      "ben": 4792,
      "ĠEkim": 4793,
      "ĠbaÅŁlamadan": 4794,
      "Ã¼rÃ¼n": 4795,
      "Ġyola": 4796,
      "Ġworrying": 4797,
      "kincisi": 4798,
      "Ġhareketleri": 4799,
      "Ġrequire": 4800,
      "ĠaÄŁaÃ§": 4801,
      "Ġcor": 4802,
      "Ġdefter": 4803,
      "**,": 4804,
      "Ġetmektir": 4805,
      "Ġconfiden": 4806,
      "Ġaren": 4807,
      "'nda": 4808,
      "Ġeyle": 4809,
      "ĠbaÅŁlÄ±k": 4810,
      "Ġrewards": 4811,
      "Ġstratej": 4812,
      "308": 4813,
      "evap": 4814,
      "leyici": 4815,
      "ĠeÅŁyadÄ±r": 4816,
      "Ġmoments": 4817,
      "ĠÃ¶zg": 4818,
      "Ġpacking": 4819,
      "Ġcommun": 4820,
      "Ġrealistic": 4821,
      "ĠCle": 4822,
      "Ġegzersizi": 4823,
      "ĠBelirli": 4824,
      "yim": 4825,
      "ints": 4826,
      "ĠiliÅŁk": 4827,
      "Ġchore": 4828,
      "Ġadvice": 4829,
      "Ġbirbir": 4830,
      "Ġyazmak": 4831,
      "Ġphones": 4832,
      "ĠkahvaltÄ±": 4833,
      "ĠbunlarÄ±": 4834,
      "mand": 4835,
      "147": 4836,
      "ayÄ±n": 4837,
      "dÄ±ÄŁÄ±nda": 4838,
      "Ġyapar": 4839,
      "Ġlez": 4840,
      "ĠalÄ±ÅŁveriÅŁ": 4841,
      "Ġimportance": 4842,
      "Ġenjo": 4843,
      "Ġextra": 4844,
      "'unda": 4845,
      "Ġdate": 4846,
      "Ġkutudaki": 4847,
      "ĠKÄ±sa": 4848,
      "Ġhissed": 4849,
      "Ġincelemek": 4850,
      "Ġcase": 4851,
      "Ġstarts": 4852,
      "ĠbeÅŁ": 4853,
      "ĠÄ°Ã§": 4854,
      "ecting": 4855,
      "Ġbulunan": 4856,
      "Ġlove": 4857,
      "Ġspeaker": 4858,
      "lmÄ±ÅŁ": 4859,
      "ĠÃ¶nere": 4860,
      "ĠvÃ¼cudunuzun": 4861,
      "-imp": 4862,
      "ĠadÄ±mdÄ±r": 4863,
      "ĠOk": 4864,
      "145": 4865,
      "Ġbelirleye": 4866,
      "384": 4867,
      "Ġmesaf": 4868,
      "ĠeÅŁyalar": 4869,
      "Ġnazik": 4870,
      "ĠPut": 4871,
      "Ġfavorite": 4872,
      "ĠiÃ§erek": 4873,
      "larÄ±nÄ±n": 4874,
      "ĠyapabileceÄŁiniz": 4875,
      "ift": 4876,
      "ĠyÃ¶nelik": 4877,
      "Ġready": 4878,
      "liminate": 4879,
      "Ġtab": 4880,
      "ffeine": 4881,
      "ĠBugÃ¼n": 4882,
      "Ġestablish": 4883,
      "ĠbaÅŁlÄ±": 4884,
      "ctivity": 4885,
      "Ġcaffeine": 4886,
      "pose": 4887,
      "ub": 4888,
      "Ġappoint": 4889,
      "ĠÃ¼re": 4890,
      "ĠKullan": 4891,
      "Ġgereksiz": 4892,
      "ĠyaÅŁayan": 4893,
      "Ġbask": 4894,
      "Ġstaying": 4895,
      "Ġgrow": 4896,
      "Ġmonth": 4897,
      "dÃ¼ÄŁ": 4898,
      "Ġaw": 4899,
      "Ã¼yor": 4900,
      "lamaya": 4901,
      "ĠgÃ¼zel": 4902,
      "lic": 4903,
      "Ġinstantly": 4904,
      "diÄŁini": 4905,
      "ĠÃĸz": 4906,
      "284": 4907,
      "Ġam": 4908,
      "ink": 4909,
      "ĠÃ¶zellikle": 4910,
      "ĠazalÄ±r": 4911,
      "gment": 4912,
      "Ġreh": 4913,
      "eclutter": 4914,
      "404": 4915,
      "Ġrepeti": 4916,
      "Ġsepara": 4917,
      "isidir": 4918,
      "luÄŁu": 4919,
      "ĠolduÄŁunuzu": 4920,
      "Ġcreates": 4921,
      "Ġemotions": 4922,
      "Ġag": 4923,
      "Ġletting": 4924,
      "hil": 4925,
      "irken": 4926,
      "ilg": 4927,
      "arge": 4928,
      "ĠayÄ±nda": 4929,
      "Ġeating": 4930,
      "ĠiÃ§i": 4931,
      "ĠanÄ±": 4932,
      "ĠkalÄ±n": 4933,
      "288": 4934,
      "ĠsÃ¼rdÃ¼r": 4935,
      "-to": 4936,
      "Ġbaz": 4937,
      "Ġalana": 4938,
      "ĠHafta": 4939,
      "ever": 4940,
      "uol": 4941,
      "ĠStudy": 4942,
      "anlÄ±k": 4943,
      "Ġneler": 4944,
      "ĠayÄ±rÄ±": 4945,
      "Ġenc": 4946,
      "Ġatarak": 4947,
      "Ġspecifically": 4948,
      "ĠolmadÄ±ÄŁÄ±nÄ±": 4949,
      "ĠbÃ¶lg": 4950,
      "ĠkolaylaÅŁtÄ±ra": 4951,
      "inely": 4952,
      "inter": 4953,
      "Ġbes": 4954,
      "Ġreply": 4955,
      "Ġgenuinely": 4956,
      "Ġdetails": 4957,
      "Ġreturn": 4958,
      "Ġwrite": 4959,
      "Ġkons": 4960,
      "ĠyerleÅŁ": 4961,
      "ĠyÃ¼zer": 4962,
      "408": 4963,
      "ĠgeÃ§miÅŁ": 4964,
      "layacak": 4965,
      "Ġbekleyin": 4966,
      "Ġrutini": 4967,
      "ĠAÄŁust": 4968,
      "ingo": 4969,
      "Ġchecklist": 4970,
      "-impact": 4971,
      "Ġdal": 4972,
      "Ġzorun": 4973,
      "malarÄ±": 4974,
      "ĠBirin": 4975,
      "ĠÃ¶ÄŁrenmeyi": 4976,
      "ĠResearch": 4977,
      "ĠJust": 4978,
      "Ġinvol": 4979,
      "uolingo": 4980,
      "oney": 4981,
      "Ġboy": 4982,
      "siyon": 4983,
      "ĠokumayÄ±": 4984,
      "come": 4985,
      "Ġhayatta": 4986,
      "Ġsl": 4987,
      "oura": 4988,
      "dually": 4989,
      "ults": 4990,
      "ĠzamanÄ±nÄ±zÄ±": 4991,
      "tÄ±ÄŁÄ±nÄ±zda": 4992,
      "909": 4993,
      "Ġdikkatli": 4994,
      "Do": 4995,
      "Ġspend": 4996,
      "Ġnature": 4997,
      "ourne": 4998,
      "ĠÃ§o": 4999,
      "ĠsÃ¼resini": 5000,
      "Ġyorgunluk": 5001,
      "ourney": 5002,
      "Ġtable": 5003,
      "dum": 5004,
      "ĠHaya": 5005,
      "Ġetmeyi": 5006,
      "ĠGÃ¶rev": 5007,
      "388": 5008,
      "rust": 5009,
      "diÄŁin": 5010,
      "ĠsaÄŁlamak": 5011,
      "Ġbring": 5012,
      "ĠKayÄ±t": 5013,
      "oin": 5014,
      "429": 5015,
      "Ãĩ": 5016,
      "nerek": 5017,
      "Ġoku": 5018,
      "Ġlistel": 5019,
      "ĠyÃ¶ntemi": 5020,
      "ĠsÄ±rasÄ±nda": 5021,
      "masÄ±na": 5022,
      "Ġdok": 5023,
      "ĠdoÄŁa": 5024,
      "Ġpoints": 5025,
      "436": 5026,
      "ĠWhy": 5027,
      "Ġkan": 5028,
      "Ġyazar": 5029,
      "146": 5030,
      "Ġmotivasyonu": 5031,
      "Ġdeeply": 5032,
      "311": 5033,
      "ross": 5034,
      "Ġforce": 5035,
      "Ġblocking": 5036,
      "Ã¶y": 5037,
      "ildirim": 5038,
      "Ġseviyesini": 5039,
      "Ġvadeli": 5040,
      "Ġremi": 5041,
      "ĠBah": 5042,
      "Ġbecer": 5043,
      "ĠbaÅŁlay": 5044,
      "Ġkoyarak": 5045,
      "ĠÃ§ekim": 5046,
      "ĠaÅŁama": 5047,
      "Ġmindfulness": 5048,
      "-one": 5049,
      "Ġfil": 5050,
      "Ġmoney": 5051,
      "140": 5052,
      "Ġkil": 5053,
      "ĠÃĸnceki": 5054,
      "ĠayÄ±rt": 5055,
      "156": 5056,
      "'Ã¼": 5057,
      "Ġpick": 5058,
      "ĠDeclutter": 5059,
      "Ġproject": 5060,
      "Ġindirin": 5061,
      "ĠharitasÄ±": 5062,
      "Ġhear": 5063,
      "416": 5064,
      "Ã¼st": 5065,
      "Ġsaatler": 5066,
      "ĠyapÄ±sÄ±nÄ±": 5067,
      "Ġderinlemesine": 5068,
      "Ġkaynat": 5069,
      "ĠmÃ¼mkÃ¼nse": 5070,
      "ĠbaÅŁlangÄ±c": 5071,
      "ĠTra": 5072,
      "Ġfood": 5073,
      "Ġunderstood": 5074,
      "ĠaracÄ±": 5075,
      "Ġduygusal": 5076,
      "Ġcritical": 5077,
      "Ġlock": 5078,
      "Ġexpos": 5079,
      "ĠbaÅŁÄ±nÄ±za": 5080,
      "ĠbeÄŁ": 5081,
      "Ġkonak": 5082,
      "ĠbaÅŁlayabilirsin": 5083,
      "ĠbÃ¶lÃ¼n": 5084,
      "Ġsebz": 5085,
      "Sadece": 5086,
      "ĠEliminate": 5087,
      "ĠTV": 5088,
      "Ġconnections": 5089,
      "ors": 5090,
      "Ġanx": 5091,
      "lerken": 5092,
      "Ġkolayca": 5093,
      "lÃ¼ÄŁ": 5094,
      "ĠkeÅŁf": 5095,
      "ĠSÃ¼rekli": 5096,
      "ĠAÄŁustos": 5097,
      "Ġenga": 5098,
      "435": 5099,
      "alt": 5100,
      "ility": 5101,
      "Ġfrequently": 5102,
      "Ġfrust": 5103,
      "183": 5104,
      "shop": 5105,
      "dil": 5106,
      "tically": 5107,
      "Ġcontin": 5108,
      "ĠÃ§Ä±": 5109,
      "Ġstrong": 5110,
      "enize": 5111,
      "ĠÃ¶nceli": 5112,
      "uyg": 5113,
      "Ġilerlemenizi": 5114,
      "Ġuygulamaya": 5115,
      "-time": 5116,
      "181": 5117,
      "Ġmessages": 5118,
      "Ġexposure": 5119,
      "437": 5120,
      "150": 5121,
      "ĠKal": 5122,
      "Ġaktif": 5123,
      "Ġkeeps": 5124,
      "ĠsÄ±caklÄ±": 5125,
      "434": 5126,
      "Ġcra": 5127,
      "asyon": 5128,
      "manÄ±": 5129,
      "Ġikinci": 5130,
      "vices": 5131,
      "196": 5132,
      "Ġgetirin": 5133,
      "Ġassum": 5134,
      "Ġcons": 5135,
      "Ġhealthy": 5136,
      "ĠsÃ¼recini": 5137,
      "ĠolduÄŁunca": 5138,
      "Ġslot": 5139,
      "417": 5140,
      "ess": 5141,
      "Ġbecome": 5142,
      "rue": 5143,
      "Ġban": 5144,
      "ĠErken": 5145,
      "ilere": 5146,
      "lanacak": 5147,
      "Ġyapabilir": 5148,
      "Ġsite": 5149,
      "Ġcosts": 5150,
      "Ġloca": 5151,
      "Ġuyu": 5152,
      "ures": 5153,
      "ĠyÃ¶ntemdir": 5154,
      "Ġmedya": 5155,
      "ĠiÃ§eren": 5156,
      "ĠTrue": 5157,
      "Ġsunlight": 5158,
      "Ġchoose": 5159,
      "Ġcomfortable": 5160,
      "'Ä±": 5161,
      "lg": 5162,
      "ns": 5163,
      "Ġrec": 5164,
      "ĠhaftalÄ±k": 5165,
      "ĠtemizliÄŁi": 5166,
      "ĠkitabÄ±n": 5167,
      "Ġbrings": 5168,
      "Ġcompare": 5169,
      "Ġdeadlines": 5170,
      "ires": 5171,
      "yo": 5172,
      "ĠnetleÅŁtirin": 5173,
      "Ã¼kemm": 5174,
      "ingu": 5175,
      "139": 5176,
      "ĠInstead": 5177,
      "Ġnothing": 5178,
      "Ġbitirin": 5179,
      "Ġremoving": 5180,
      "Ġsalat": 5181,
      "ĠiÅŁlemi": 5182,
      "ĠoluÅŁtura": 5183,
      "Ġclothes": 5184,
      ".'": 5185,
      "Ġmotivated": 5186,
      "Ġpurpose": 5187,
      "veya": 5188,
      "Ġsefer": 5189,
      "Ġgerektir": 5190,
      "Ġmastering": 5191,
      "Ġgradually": 5192,
      "hotoshop": 5193,
      "ĠDes": 5194,
      "Ġsear": 5195,
      "Ġdistingu": 5196,
      "Ġdistinguish": 5197,
      "ĠadÄ±mÄ±nÄ±": 5198,
      "caÄŁÄ±nÄ±": 5199,
      "Ġedil": 5200,
      "ÄŁuk": 5201,
      "ĠaraÃ§larÄ±": 5202,
      "Ġtarif": 5203,
      "Ġdemand": 5204,
      "Ġemotional": 5205,
      "ial": 5206,
      "uÄŁu": 5207,
      "ÄŁru": 5208,
      "ĠkapalÄ±": 5209,
      "ĠkolaylaÅŁtÄ±rmak": 5210,
      "Ġpic": 5211,
      "Ġnum": 5212,
      "190": 5213,
      "Ġexpect": 5214,
      "182": 5215,
      "lenen": 5216,
      "Ġdille": 5217,
      "ĠtÃ¼rden": 5218,
      "Ġlisting": 5219,
      "Ġbulunur": 5220,
      "ĠÃ¶ÄŁleden": 5221,
      "ĠyumuÅŁak": 5222,
      "cÃ¼": 5223,
      "ĠAyÄ±": 5224,
      "ĠgÃ¼nlerde": 5225,
      "Ġkalp": 5226,
      "Ġkendiniz": 5227,
      "ĠsaÄŁlayan": 5228,
      "tri": 5229,
      "Ġbeen": 5230,
      "160": 5231,
      "Ġdesignated": 5232,
      "tirip": 5233,
      "Ġkavram": 5234,
      "Ġexchanging": 5235,
      "Ġada": 5236,
      "Ġclarity": 5237,
      "dest": 5238,
      "Ġtechniqu": 5239,
      "Ġdeci": 5240,
      "Ġresults": 5241,
      "Ġtext": 5242,
      "Ġkurul": 5243,
      "alarÄ±nÄ±": 5244,
      "Ġtakv": 5245,
      "Ġtechniques": 5246,
      "Ġmeaningful": 5247,
      "Ġrepetition": 5248,
      "ĠEvet": 5249,
      "Ġyazarak": 5250,
      "Ġexample": 5251,
      "ĠduyduÄŁunuz": 5252,
      "Ġyatmak": 5253,
      "Ġhardest": 5254,
      "Ġmuh": 5255,
      "Ġsticking": 5256,
      "Ġisn": 5257,
      "lenmiÅŁ": 5258,
      "Ġgerekecek": 5259,
      "Ġvalue": 5260,
      "Ġhuzurlu": 5261,
      "ĠkÄ±sÄ±t": 5262,
      "Ġgidip": 5263,
      "allen": 5264,
      "Ġyakal": 5265,
      "lanma": 5266,
      "ĠÄ°kincisi": 5267,
      "lerinde": 5268,
      "Ġekleyip": 5269,
      "ĠÃ¶nerisi": 5270,
      "Ġhareketler": 5271,
      "Ġiyisidir": 5272,
      "Ġmalzemeleri": 5273,
      "ĠdÃ¼zelt": 5274,
      "Ġencoura": 5275,
      "ses": 5276,
      ".\"Ċ": 5277,
      "415": 5278,
      "Ġtuz": 5279,
      "umlu": 5280,
      "asÄ±na": 5281,
      "Ġmad": 5282,
      "199": 5283,
      "ĠolanÄ±": 5284,
      "Ġtelefonunuza": 5285,
      "ĠÃ¶ÄŁrene": 5286,
      "sen": 5287,
      "ulara": 5288,
      "Ġettir": 5289,
      "sim": 5290,
      "ĠGetting": 5291,
      "bo": 5292,
      "Ġkafa": 5293,
      "ĠbaÅŁlamayÄ±": 5294,
      "ĠGÃ¶r": 5295,
      "mayacak": 5296,
      "leyecek": 5297,
      "Ġkutular": 5298,
      "ĠparÃ§alara": 5299,
      "Ġemail": 5300,
      "Ġpracticing": 5301,
      "charge": 5302,
      "underst": 5303,
      "mam": 5304,
      "Ġtired": 5305,
      "ĠÃĸncelik": 5306,
      "Ġarada": 5307,
      "ĠsÄ±fÄ±r": 5308,
      "ĠgeÃ§irmek": 5309,
      "Ġlooking": 5310,
      "121": 5311,
      "ĠHave": 5312,
      "Ġeri": 5313,
      "sÄ±ndan": 5314,
      "144": 5315,
      "ĠoluÅŁturur": 5316,
      "Ġconfidence": 5317,
      "179": 5318,
      "ĠWrite": 5319,
      "Ġmisunderst": 5320,
      "suz": 5321,
      "Ġconte": 5322,
      "102": 5323,
      "ĠÃ¶nceliklendir": 5324,
      "Ġwindow": 5325,
      "Ġjudgment": 5326,
      "Ġdecide": 5327,
      "dian": 5328,
      "175": 5329,
      "Ġdirectly": 5330,
      "Ġbis": 5331,
      "ĠtÃ¼k": 5332,
      "ĠkÄ±ya": 5333,
      "Ġteach": 5334,
      "evcut": 5335,
      "ĠolmasÄ±nÄ±": 5336,
      "Ġinteractions": 5337,
      "uel": 5338,
      "lasik": 5339,
      "Ä±nca": 5340,
      "lÄ±m": 5341,
      "Ġetmeniz": 5342,
      "Ġelde": 5343,
      "Ġazaltmak": 5344,
      "ĠDÃ¼zen": 5345,
      "ĠkeÅŁfed": 5346,
      "Ġtu": 5347,
      "Ġnear": 5348,
      "cadian": 5349,
      "Ġbildirim": 5350,
      "Ġcol": 5351,
      "176": 5352,
      "meni": 5353,
      "ĠuygulamalarÄ±": 5354,
      "Ġonunla": 5355,
      "Ġsilence": 5356,
      "ygÄ±n": 5357,
      "177": 5358,
      "195": 5359,
      "Ġrequires": 5360,
      "Ġcircadian": 5361,
      "Ġcha": 5362,
      "ĠStop": 5363,
      "ĠGÃ¼ven": 5364,
      "Ġmalzemeler": 5365,
      "arp": 5366,
      "Can": 5367,
      "ĠBun": 5368,
      "ĠmÃ¼": 5369,
      "caÄŁÄ±nÄ±zÄ±": 5370,
      "167": 5371,
      "Ġhedefinize": 5372,
      "ĠdÃ¼ÅŁÃ¼k": 5373,
      "endiÄŁiniz": 5374,
      "Ġhaline": 5375,
      "Ġlarger": 5376,
      "Ġindirip": 5377,
      "ĠeÅŁyalarÄ±": 5378,
      "Ġincluding": 5379,
      "pit": 5380,
      "Ġrecharge": 5381,
      "Ġveren": 5382,
      "Ġhead": 5383,
      "197": 5384,
      "Ġhissini": 5385,
      "Ã¼kemmel": 5386,
      "yse": 5387,
      "ĠgÃ¼ne": 5388,
      "ĠkaydÄ±n": 5389,
      "Ġelinizde": 5390,
      "larÄ±nÄ±za": 5391,
      "ĠMotivasyon": 5392,
      "ĠamaÃ§la": 5393,
      "taneously": 5394,
      "com": 5395,
      "kÃ¼r": 5396,
      "Ġpile": 5397,
      "ceÄŁiniz": 5398,
      "ĠsÃ¼reyi": 5399,
      "ĠÅŁeyin": 5400,
      "Ġanlamaya": 5401,
      "ser": 5402,
      "ether": 5403,
      "ĠBuild": 5404,
      "165": 5405,
      "lecek": 5406,
      "tadÄ±r": 5407,
      "ĠyÃ¼rÃ¼yÃ¼ÅŁÃ¼": 5408,
      "ĠolduÄŁuna": 5409,
      "ĠÅŁudur": 5410,
      "Ġpersonal": 5411,
      "Ġhissetmeye": 5412,
      "Ġtelefonun": 5413,
      "Ġdefteri": 5414,
      "ĠgÃ¶zlemleyin": 5415,
      "Merhaba": 5416,
      "-w": 5417,
      "lene": 5418,
      "Ġsomut": 5419,
      "Ġversion": 5420,
      "ĠÃ¶ÄŁrenmenin": 5421,
      "Ġspon": 5422,
      "ĠyÃ¼rÃ¼yÃ¼n": 5423,
      "reket": 5424,
      "larÄ±nÄ±zla": 5425,
      "kay": 5426,
      "Ġchallen": 5427,
      "Ġpushes": 5428,
      "aÄŁ": 5429,
      "ĠyaygÄ±n": 5430,
      "mekle": 5431,
      "Ä±rÄ±": 5432,
      "ĠgÃ¶ÄŁ": 5433,
      "ĠÃ§alÄ±ÅŁarak": 5434,
      "Ġtespit": 5435,
      "Ġmeeting": 5436,
      "reading": 5437,
      "ĠSÄ±k": 5438,
      "Ġsimul": 5439,
      "Ġplanlamak": 5440,
      "Ġsaatlerinizi": 5441,
      "ĠgerektiÄŁini": 5442,
      "Ġyoldur": 5443,
      "Ġortadan": 5444,
      "ĠbahÃ§enize": 5445,
      "Ġtavsiy": 5446,
      "Ġistersiniz": 5447,
      "Ġlezzet": 5448,
      "Go": 5449,
      "Durum": 5450,
      "temelen": 5451,
      "Ġyata": 5452,
      "ĠkayÄ±": 5453,
      "ĠayÄ±rdÄ±ÄŁÄ±nÄ±": 5454,
      "ekkÃ¼r": 5455,
      "ĠdeÄŁerli": 5456,
      "Ġmap": 5457,
      "aten": 5458,
      "Ġsaatlerini": 5459,
      "Ġkonsep": 5460,
      "Ġbisik": 5461,
      "Ġalong": 5462,
      "Ġstuck": 5463,
      "ĠkarÅŁÄ±laÅŁacak": 5464,
      "mekte": 5465,
      "ĠÃ§Ã¶": 5466,
      "155": 5467,
      "157": 5468,
      "Ġsanat": 5469,
      "ĠbÃ¶lge": 5470,
      "ĠuyandÄ±": 5471,
      "ĠHayat": 5472,
      "Â°": 5473,
      "159": 5474,
      "240": 5475,
      "ĠFor": 5476,
      "iety": 5477,
      "Ġsimultaneously": 5478,
      "radan": 5479,
      "tesi": 5480,
      "148": 5481,
      "Ġliste": 5482,
      "Ġhata": 5483,
      "ĠgerÃ§ekleÅŁ": 5484,
      "nemli": 5485,
      "vig": 5486,
      "'yla": 5487,
      "426": 5488,
      "ldÄ±": 5489,
      "Ġbat": 5490,
      "Ġmight": 5491,
      "246": 5492,
      "Ġhiss": 5493,
      "Ġenerjinizi": 5494,
      "Ġanxiety": 5495,
      "ged": 5496,
      "Ġwhenever": 5497,
      "Ġinteraction": 5498,
      "ĠbaÅŁlamanÄ±zÄ±": 5499,
      "Ġbulmaya": 5500,
      "Ġokum": 5501,
      "Ġbelirlemeniz": 5502,
      "ĠdÃ¼zenleyin": 5503,
      "ĠsÃ¶yleyin": 5504,
      "Ġstretch": 5505,
      "Ġobj": 5506,
      "Ġilerlemeler": 5507,
      "Ġlonger": 5508,
      "ayÄ±f": 5509,
      "ĠyorgunluÄŁ": 5510,
      "Ġbelirtilen": 5511,
      "Ġspontane": 5512,
      "Ġconstantly": 5513,
      "Ġunder": 5514,
      "ĠuyanÄ±p": 5515,
      "tionship": 5516,
      "Ġsuda": 5517,
      "Ġeklemek": 5518,
      "ĠyaptÄ±ÄŁÄ±nÄ±zÄ±": 5519,
      "Ġcalming": 5520,
      "Ġtransit": 5521,
      "ĠuÄŁraÅŁ": 5522,
      "Ġhy": 5523,
      "Ġdiz": 5524,
      "Ġdevices": 5525,
      "Ġrelationship": 5526,
      "Ġsurfaces": 5527,
      "Ġnavig": 5528,
      "Ġdahil": 5529,
      "245": 5530,
      "ĠbaÅŁlayabilir": 5531,
      "ĠbÄ±rakmak": 5532,
      "ĠkiÅŁiyle": 5533,
      "Ġmakinesini": 5534,
      "Ġmemory": 5535,
      "Ġtuval": 5536,
      "ange": 5537,
      "Ġsolve": 5538,
      "322": 5539,
      "Ġcue": 5540,
      "iteli": 5541,
      "Ġsah": 5542,
      "ĠayarlarÄ±nÄ±": 5543,
      "Ġizlemek": 5544,
      "Ġguilt": 5545,
      "Ġaiming": 5546,
      "ĠtÃ¼ket": 5547,
      "card": 5548,
      "ĠBasit": 5549,
      "ĠÃ§ekmeye": 5550,
      "Ġsleeping": 5551,
      "Ġkullanabilirsiniz": 5552,
      "Ġdeneyerek": 5553,
      "Ġsebze": 5554,
      "Ġyetenek": 5555,
      "ĠÃ¶dev": 5556,
      "Ġstand": 5557,
      "247": 5558,
      "power": 5559,
      "ysanÄ±z": 5560,
      "ĠGen": 5561,
      "103": 5562,
      "Ġevinizdeki": 5563,
      "ĠgeÃ§en": 5564,
      "Ġsorunun": 5565,
      "ĠbÃ¼tÃ§enizi": 5566,
      "bly": 5567,
      "yable": 5568,
      "uggage": 5569,
      "Ġlit": 5570,
      "Ġfriction": 5571,
      "back": 5572,
      "gÃ¶r": 5573,
      "kÃ¼Ã§Ã¼k": 5574,
      "ĠÃ¼rÃ¼n": 5575,
      "urge": 5576,
      "Ã¶n": 5577,
      "170": 5578,
      "ĠgÃ¶rÃ¼nÃ¼": 5579,
      "Ġlate": 5580,
      "Ġturn": 5581,
      "Ġenjoyable": 5582,
      "ĠÃ¶neriye": 5583,
      "ĠfotoÄŁrafÄ±": 5584,
      "ĠsÄ±vÄ±": 5585,
      "bility": 5586,
      "123": 5587,
      "Ġluggage": 5588,
      "Ġdimming": 5589,
      "yoga": 5590,
      "ĠyaÄŁ": 5591,
      "ĠbaÅŁlamalÄ±sÄ±nÄ±z": 5592,
      "Ġabs": 5593,
      "ĠÃ¶ÄŁÃ¼n": 5594,
      "Ġkom": 5595,
      "ĠiÅŁin": 5596,
      "ĠsaÄŁlayarak": 5597,
      "ĠdÃ¼zenlemek": 5598,
      "ĠÅŁeklinde": 5599,
      "ĠzorluÄŁ": 5600,
      "Ġattrac": 5601,
      "101": 5602,
      "Ġcarry": 5603,
      "Ġklasik": 5604,
      "Ġsunu": 5605,
      "Ã¼ÅŁÃ¼n": 5606,
      "ĠfotoÄŁrafÃ§Ä±": 5607,
      "Ġcommon": 5608,
      "Ġtamamlamak": 5609,
      "Ġsayfa": 5610,
      "Ġgives": 5611,
      "ledge": 5612,
      "Ġuninter": 5613,
      "Ġdesired": 5614,
      "ibility": 5615,
      "ĠodaklanÄ±p": 5616,
      "ĠtÃ¼rÃ¼nÃ¼": 5617,
      "leyebilir": 5618,
      "Ã¼nÃ¼zde": 5619,
      "ĠuyanÄ±ÅŁ": 5620,
      "Ġaktiviteleri": 5621,
      "Ġhareketi": 5622,
      "Ġzihn": 5623,
      "Ġshoot": 5624,
      "Ġotob": 5625,
      "Ġcatch": 5626,
      "346": 5627,
      "009": 5628,
      "Ġscheduling": 5629,
      "inÃ§": 5630,
      "Ġyi": 5631,
      "mamak": 5632,
      "ĠÃ¶nÃ¼ne": 5633,
      "Ġint": 5634,
      "Ġattem": 5635,
      "166": 5636,
      "ĠhoÅŁ": 5637,
      "Ġkayde": 5638,
      "ĠbaÅŁarÄ±lar": 5639,
      "Ġdisconnect": 5640,
      "ĠTelefonu": 5641,
      "Ġallows": 5642,
      "Ġaccommodations": 5643,
      "ĠeriÅŁ": 5644,
      "ets": 5645,
      "He": 5646,
      "Ġtelefonla": 5647,
      "Ġbeklemek": 5648,
      "Ġpreventing": 5649,
      "Ġresist": 5650,
      "dibly": 5651,
      "169": 5652,
      "Ġpartner": 5653,
      "Ġstill": 5654,
      "Ġblack": 5655,
      "427": 5656,
      "ty": 5657,
      "Ġpi": 5658,
      "ĠgÃ¼nler": 5659,
      "Ġshel": 5660,
      "ĠhazÄ±rlamak": 5661,
      "Ġalanda": 5662,
      "ĠÄ±ÅŁÄ±ÄŁÄ±nÄ±": 5663,
      "ĠanlaÅŁÄ±lÄ±r": 5664,
      "Ġincredibly": 5665,
      "rupted": 5666,
      "Ġkindness": 5667,
      "App": 5668,
      "Zaman": 5669,
      "tiÄŁinizi": 5670,
      "ĠkonularÄ±": 5671,
      "Ġresmi": 5672,
      "ĠatÄ±ÅŁ": 5673,
      "Ġduva": 5674,
      "Ġkuru": 5675,
      "Ġsignals": 5676,
      "Ġlabeled": 5677,
      "Ġuninterrupted": 5678,
      "41": 5679,
      "Ġmisunderstand": 5680,
      "Ġdizi": 5681,
      "ĠÃ¶nlemek": 5682,
      "ĠsoÄŁuk": 5683,
      "Ġquit": 5684,
      "Ġyerlere": 5685,
      "360": 5686,
      "ĠolduÄŁunda": 5687,
      "Ġderinlik": 5688,
      "ĠÄ±s": 5689,
      "ĠKendine": 5690,
      "Ġmuhtemelen": 5691,
      "Ġsn": 5692,
      "Ġdepart": 5693,
      "Ġprotect": 5694,
      "Ġcommunicate": 5695,
      "Ġcontrol": 5696,
      "Ġty": 5697,
      "imd": 5698,
      "ĠÃ§ab": 5699,
      "Ġekle": 5700,
      "ĠkonuÅŁacak": 5701,
      "Ġolursa": 5702,
      "Ġbarri": 5703,
      "ĠiÃ§erik": 5704,
      "Ġtools": 5705,
      "ĠClear": 5706,
      "Cevap": 5707,
      "ĠsabahÄ±": 5708,
      "Ġtelefonunuzdaki": 5709,
      "Ġsunar": 5710,
      "Ġdeng": 5711,
      "ĠHafif": 5712,
      "ĠJoin": 5713,
      "Ġmerk": 5714,
      "Ġalternative": 5715,
      "Ġkonaklama": 5716,
      "Ġmadde": 5717,
      "Not": 5718,
      "ain": 5719,
      "203": 5720,
      "Ġscrol": 5721,
      "430": 5722,
      "Ã§Ä±k": 5723,
      "ĠbaÅŁkal": 5724,
      "Ġolsa": 5725,
      "Ä±za": 5726,
      "ĠplanÄ±nÄ±": 5727,
      "ĠfotoÄŁraflarÄ±": 5728,
      "Ġistek": 5729,
      "ĠkonuÅŁun": 5730,
      "Ġdinlemek": 5731,
      "Ġvisit": 5732,
      "ĠboÅŁluk": 5733,
      "pting": 5734,
      "Ġsus": 5735,
      "Ġurge": 5736,
      "Ġrushing": 5737,
      "Ġkaydedi": 5738,
      "Ġexpecting": 5739,
      "Ġsana": 5740,
      "ĠÃ¼st": 5741,
      "Ġenerjiyi": 5742,
      "Ġsinir": 5743,
      "member": 5744,
      "Ġisim": 5745,
      "ĠbuluÅŁuyor": 5746,
      "Ġonay": 5747,
      "ĠbaÅŁlatmak": 5748,
      "ĠbaÅŁlatabilirsiniz": 5749,
      "256": 5750,
      "Ġupon": 5751,
      "Ġetkinlik": 5752,
      "Ġintens": 5753,
      "414": 5754,
      "255": 5755,
      "Pa": 5756,
      "Ã¼nya": 5757,
      "Ã¼yÃ¼": 5758,
      "ĠbaskÄ±": 5759,
      "manÄ±zdÄ±r": 5760,
      "Ġdeneme": 5761,
      "ĠSabahÄ±n": 5762,
      "Ġdurmak": 5763,
      "Ġfiyat": 5764,
      "Ġwait": 5765,
      "build": 5766,
      "Ġduvara": 5767,
      "Ġperiods": 5768,
      "tÄ±ktan": 5769,
      "Ġyerinde": 5770,
      "Ġekip": 5771,
      "ĠyazÄ±p": 5772,
      "202": 5773,
      "ĠaÃ§mak": 5774,
      "Ġsenary": 5775,
      "Ġcommitting": 5776,
      "ĠÃ¶zellik": 5777,
      "Ġdenge": 5778,
      "Ġrebuild": 5779,
      "ific": 5780,
      "347": 5781,
      "where": 5782,
      "Ġbol": 5783,
      "ĠettiÄŁiniz": 5784,
      "Ġkurt": 5785,
      "Ġduruma": 5786,
      "eyif": 5787,
      "Ġforcing": 5788,
      "257": 5789,
      "Ġevent": 5790,
      "Ġvisible": 5791,
      "Ġemails": 5792,
      "Ġcorner": 5793,
      "insel": 5794,
      "Ġsuy": 5795,
      "Ġfar": 5796,
      "ĠLÃ¼tfen": 5797,
      "Ġva": 5798,
      "201": 5799,
      "Ġkalitesini": 5800,
      "Ġkaybol": 5801,
      "Ġkilit": 5802,
      "ĠgÃ¶rÃ¼nÃ¼yor": 5803,
      "Ġshelves": 5804,
      "ĠDesign": 5805,
      "Ġnumber": 5806,
      "Ġadedi": 5807,
      "Ġtreating": 5808,
      "ĠbaÅŁta": 5809,
      "Ġkaliteli": 5810,
      "Ġfinding": 5811,
      "Ġparkta": 5812,
      "Ġmeditation": 5813,
      "250": 5814,
      "phones": 5815,
      "Ġappro": 5816,
      "Ġkeyif": 5817,
      "lÄ±yorum": 5818,
      "ĠAyda": 5819,
      "Ġtelefonunu": 5820,
      "mesine": 5821,
      "Ġortal": 5822,
      "ĠsevdiÄŁiniz": 5823,
      "GÃ¼nlÃ¼k": 5824,
      "Ġrehber": 5825,
      "Ġsef": 5826,
      "tiÅŁime": 5827,
      "Ġdurun": 5828,
      "ĠsayÄ±sÄ±nÄ±": 5829,
      "Ġbilgisi": 5830,
      "Ġharc": 5831,
      "ĠdÃ¼ÅŁÃ¼ndÃ¼ÄŁ": 5832,
      "St": 5833,
      "Ġconnect": 5834,
      "ĠÃ§imen": 5835,
      "Ġnor": 5836,
      "Ġhiz": 5837,
      "imit": 5838,
      "ĠdeÄŁiÅŁtirmek": 5839,
      "ĠyÃ¼zey": 5840,
      "345": 5841,
      "ĠgÃ¶revler": 5842,
      "ĠuygulamayÄ±": 5843,
      "ĠvÃ¼cut": 5844,
      "Ġhavada": 5845,
      "Ġport": 5846,
      "Ġself": 5847,
      "Ġspecial": 5848,
      "ham": 5849,
      "pts": 5850,
      "erilen": 5851,
      "Ġwhether": 5852,
      "340": 5853,
      "ĠkaygÄ±": 5854,
      "ĠhaftanÄ±n": 5855,
      "Ã¶zellikle": 5856,
      "ĠuzaklaÅŁ": 5857,
      "isine": 5858,
      "ral": 5859,
      "Ġtell": 5860,
      "Ġhang": 5861,
      "296": 5862,
      "must": 5863,
      "urun": 5864,
      "ĠMaps": 5865,
      "lamanÄ±z": 5866,
      "Ġtopra": 5867,
      "ĠfotoÄŁrafÄ±nÄ±zÄ±": 5868,
      "ĠsorunlarÄ±nÄ±": 5869,
      "Ġlistesi": 5870,
      "Ġdinleyin": 5871,
      "ĠhazÄ±rlan": 5872,
      "ĠBaÅŁka": 5873,
      "Ġinceleyerek": 5874,
      "Ġcloset": 5875,
      "Google": 5876,
      "Ġattractions": 5877,
      "imdilik": 5878,
      "Ġdile": 5879,
      "Ġmeal": 5880,
      "elere": 5881,
      "Ġfuel": 5882,
      "Ġstresi": 5883,
      "Ġseem": 5884,
      "ĠKah": 5885,
      "Ġmesajlar": 5886,
      "Ġsaniy": 5887,
      "ĠkurallarÄ±nÄ±": 5888,
      "Ġharder": 5889,
      "ĠgÃ¼nÃ¼nÃ¼zÃ¼": 5890,
      "Ġcramming": 5891,
      "Ġboring": 5892,
      "rated": 5893,
      "Ġcover": 5894,
      "ĠYÃ¼z": 5895,
      "Ġfit": 5896,
      "Ġsolu": 5897,
      "396": 5898,
      "Ġclose": 5899,
      "sApp": 5900,
      "ĠsÄ±kÄ±cÄ±": 5901,
      "ĠpaylaÅŁmak": 5902,
      "ĠsaÄŁlayacaktÄ±r": 5903,
      "Ġprovi": 5904,
      "Ġdrain": 5905,
      "Ġ$": 5906,
      "ÃĸrneÄŁin": 5907,
      "ĠgÃ¼Ã§lendirmek": 5908,
      "Ġpap": 5909,
      "Ġshift": 5910,
      "ics": 5911,
      "Ġplanner": 5912,
      "iber": 5913,
      "Ġassuming": 5914,
      "Ġyerleri": 5915,
      "ĠmÃ¼kemmel": 5916,
      "ĠgÃ¼ncel": 5917,
      "Ġremember": 5918,
      "ĠÄ°ste": 5919,
      "Ġolmadan": 5920,
      "ĠMevcut": 5921,
      "Ġbelirtir": 5922,
      "ĠkitaplarÄ±": 5923,
      "Ġacross": 5924,
      "ĠdÃ¼ÅŁÃ¼nmek": 5925,
      "ĠbaÅŁarÄ±yÄ±": 5926,
      "Ġegzersizleri": 5927,
      "Ġbitkileri": 5928,
      "Ġuyumlu": 5929,
      "Ġaccomplishment": 5930,
      "yes": 5931,
      "Ġcore": 5932,
      "Ġsub": 5933,
      "Ġwatching": 5934,
      "ĠCÃ¼m": 5935,
      "Ġmaru": 5936,
      "Ġdakikadan": 5937,
      "Ġederim": 5938,
      "Ġdurumun": 5939,
      "Ġsanki": 5940,
      "Ġotomatik": 5941,
      "Ġremind": 5942,
      "Ġnormal": 5943,
      "Ġmaruz": 5944,
      "433": 5945,
      "onu": 5946,
      "ĠUyan": 5947,
      "ĠdoÄŁrul": 5948,
      "Ġexchange": 5949,
      "ĠiyileÅŁtirmek": 5950,
      "Ġinvolves": 5951,
      "Ġairline": 5952,
      "izlik": 5953,
      "Ġrein": 5954,
      "ĠÃľ": 5955,
      "ĠiÅŁinizi": 5956,
      "Ãĸneri": 5957,
      "Ġdrink": 5958,
      "dikten": 5959,
      "ĠLimit": 5960,
      "Ġrepeat": 5961,
      "Ġcurtain": 5962,
      "ĠCheck": 5963,
      "Ġscrolling": 5964,
      "Ne": 5965,
      "Ġtenc": 5966,
      "ÄŁÄ±nÄ±n": 5967,
      "Ġevi": 5968,
      "Ġneyi": 5969,
      "efore": 5970,
      "Ġalone": 5971,
      "ĠÃ§alÄ±ÅŁan": 5972,
      "Ġdurumunuzu": 5973,
      "Ġexpens": 5974,
      "Ġavailability": 5975,
      "ĠkÄ±yafet": 5976,
      "413": 5977,
      "mini": 5978,
      "Ġdim": 5979,
      "Ġmy": 5980,
      "Ġtip": 5981,
      "122": 5982,
      "318": 5983,
      "ĠsÃ¶y": 5984,
      "mat": 5985,
      "Ä±nÄ±zdan": 5986,
      "Ġyapmaktan": 5987,
      "259": 5988,
      "Ġgerekebilir": 5989,
      "Ġelect": 5990,
      "ĠdÃ¼ÅŁÃ¼nerek": 5991,
      "ĠbaÄŁlam": 5992,
      "Ġwebsi": 5993,
      "Ġvague": 5994,
      "ively": 5995,
      "Ġcues": 5996,
      "Ġhon": 5997,
      "using": 5998,
      "154": 5999,
      "Ġreinfor": 6000,
      "Ha": 6001,
      "telefon": 6002,
      "Ġik": 6003,
      "Ġbey": 6004,
      "Ġverebilir": 6005,
      "275": 6006,
      "ĠalÄ±r": 6007,
      "Ġevinizin": 6008,
      "ĠistediÄŁini": 6009,
      "Ġdeneyimi": 6010,
      "ĠdÄ±ÅŁarÄ±da": 6011,
      "Ġteknikleri": 6012,
      "ĠaÄŁÄ±r": 6013,
      "ĠeÄŁlenceli": 6014,
      "ĠfÄ±rsat": 6015,
      "ensi": 6016,
      "Ġgoes": 6017,
      "Ġsign": 6018,
      "kes": 6019,
      "kendi": 6020,
      "eyn": 6021,
      "Ġkod": 6022,
      "Ġevin": 6023,
      "layabilirsiniz": 6024,
      "ĠkazandÄ±r": 6025,
      "Ġsamimiyet": 6026,
      "ĠSoru": 6027,
      "ĠeÄŁitimi": 6028,
      "Ġsnack": 6029,
      "Ġidentif": 6030,
      "Ġvo": 6031,
      "Ġspending": 6032,
      "295": 6033,
      "506": 6034,
      "ysa": 6035,
      "ĠEt": 6036,
      "ĠnumarasÄ±nÄ±": 6037,
      "ĠsÃ¼resi": 6038,
      "Ġdesire": 6039,
      "Ġuygulayarak": 6040,
      "Ġmekan": 6041,
      "ĠBahÃ§": 6042,
      "Ġnes": 6043,
      "Ġfeed": 6044,
      "390": 6045,
      "Ġsentences": 6046,
      "iness": 6047,
      "lamalar": 6048,
      "Ġyaprak": 6049,
      "**'": 6050,
      "239": 6051,
      "ĠhissettiÄŁiniz": 6052,
      "Ġexpressing": 6053,
      "veni": 6054,
      "267": 6055,
      "yken": 6056,
      "yseniz": 6057,
      "graf": 6058,
      "ĠiÃ§inden": 6059,
      "imle": 6060,
      "ĠÃĸner": 6061,
      "ĠalÄ±ÅŁtÄ±r": 6062,
      "ĠkaranlÄ±k": 6063,
      "ĠseÃ§mekten": 6064,
      "Ġmerkez": 6065,
      "ĠSab": 6066,
      "Ġunne": 6067,
      "ities": 6068,
      "Ġsecure": 6069,
      "ĠyetiÅŁtir": 6070,
      "Ġseparate": 6071,
      "Ġdemanding": 6072,
      "ificant": 6073,
      "lilik": 6074,
      "Ġsound": 6075,
      "Ġnotlar": 6076,
      "hand": 6077,
      "ĠÃĸn": 6078,
      "Ġwillpower": 6079,
      "unuzdan": 6080,
      "Ġodaklanmaya": 6081,
      "Ġdikka": 6082,
      "Ġbiriyle": 6083,
      "ĠgÃ¶ndererek": 6084,
      "ĠsonuÃ§lar": 6085,
      "Ġbardak": 6086,
      "ĠtarafÄ±ndan": 6087,
      "ĠtaÅŁÄ±": 6088,
      "Ġelectron": 6089,
      "276": 6090,
      "607": 6091,
      "'Ã¼n": 6092,
      ")Ċ": 6093,
      "lenme": 6094,
      "cuk": 6095,
      "ĠyÃ¶ntemle": 6096,
      "Ġnedeniyle": 6097,
      "Ġmid": 6098,
      "248": 6099,
      "Ġswitch": 6100,
      "endik": 6101,
      "Ġfun": 6102,
      "Ġfill": 6103,
      "Ġstabil": 6104,
      "ĠaldÄ±": 6105,
      "806": 6106,
      "ĠalanÄ±nÄ±zÄ±": 6107,
      "ĠsÄ±kÄ±l": 6108,
      "Ġmutlu": 6109,
      "head": 6110,
      "ĠkÄ±smÄ±nÄ±": 6111,
      "Ġbisiklet": 6112,
      "mektedir": 6113,
      "-priority": 6114,
      "Ġshowing": 6115,
      "-sleep": 6116,
      "ĠDesignate": 6117,
      "Ã¼lebilir": 6118,
      "ĠzayÄ±f": 6119,
      "ĠiletiÅŁime": 6120,
      "geÃ§": 6121,
      "279": 6122,
      "350": 6123,
      "369": 6124,
      "395": 6125,
      "ĠyÃ¶nel": 6126,
      "ĠotobÃ¼s": 6127,
      "Ġmisunderstandings": 6128,
      "Ġali": 6129,
      "sak": 6130,
      "370": 6131,
      "805": 6132,
      "Ġinitial": 6133,
      "Ġcurtains": 6134,
      "Ä±ra": 6135,
      "teki": 6136,
      "Ġistiyorsunuz": 6137,
      "ĠkalÄ±p": 6138,
      "lÄ±kla": 6139,
      "606": 6140,
      "Ġdinlendir": 6141,
      "landÄ±rma": 6142,
      "ĠkarÄ±ÅŁtÄ±r": 6143,
      "Ġidealdir": 6144,
      "Ġsil": 6145,
      "260": 6146,
      "290": 6147,
      "504": 6148,
      "Ġreacting": 6149,
      "'yi": 6150,
      "Ġ**\"": 6151,
      "357": 6152,
      "Ġcomb": 6153,
      "Ġuzman": 6154,
      "Ġyani": 6155,
      "sues": 6156,
      "ĠnoktasÄ±nÄ±": 6157,
      "Ġeylem": 6158,
      "Ġbeforehand": 6159,
      "265": 6160,
      "269": 6161,
      "gre": 6162,
      "ndeki": 6163,
      "ĠadÄ±mdan": 6164,
      "ĠÄ°liÅŁ": 6165,
      "ĠmesajÄ±": 6166,
      "phra": 6167,
      "Ġmetre": 6168,
      "ĠetkileÅŁ": 6169,
      "Ġseferinde": 6170,
      "-reading": 6171,
      "Ġgest": 6172,
      "376": 6173,
      "Ġswitching": 6174,
      "Ġteaching": 6175,
      "Ġsuyla": 6176,
      "ĠSp": 6177,
      "Ã¼zik": 6178,
      "ĠkalmayÄ±": 6179,
      "ĠHerhangi": 6180,
      "ĠsabahÄ±n": 6181,
      "Ġgener": 6182,
      "Ġyolda": 6183,
      "605": 6184,
      "ĠhazÄ±rla": 6185,
      "Ġbakmak": 6186,
      "ĠuyanÄ±k": 6187,
      "Ġminimize": 6188,
      "Start": 6189,
      "Ġupda": 6190,
      "Ġpsik": 6191,
      "Ġyiye": 6192,
      "ĠTÃ¼m": 6193,
      "Ġyast": 6194,
      "ats": 6195,
      "Ġverme": 6196,
      "Ġveriler": 6197,
      "158": 6198,
      "Ġalmaya": 6199,
      "ĠgÃ¶rmek": 6200,
      "Ġlistesini": 6201,
      "ĠkalkÄ±n": 6202,
      "ĠhatÄ±rla": 6203,
      "Ġdergi": 6204,
      "Ġlimit": 6205,
      "ĠbirleÅŁecek": 6206,
      "ix": 6207,
      "Ġzones": 6208,
      "Ġyapman": 6209,
      "Ġissues": 6210,
      "Ġdolu": 6211,
      "297": 6212,
      "Ġactionable": 6213,
      "diÄŁinde": 6214,
      "tuÄŁ": 6215,
      "Ġokuyacak": 6216,
      "ĠZorluk": 6217,
      "218": 6218,
      "Ġahead": 6219,
      "ĠDuolingo": 6220,
      "ackle": 6221,
      "Ġproductivity": 6222,
      "Ġhonest": 6223,
      "alan": 6224,
      "abilecek": 6225,
      "amera": 6226,
      "ĠzorlandÄ±": 6227,
      "Ġdosy": 6228,
      "Ġdilde": 6229,
      "asÄ±nda": 6230,
      "Ġhafifle": 6231,
      "Ġplanda": 6232,
      "ĠtasarÄ±m": 6233,
      "359": 6234,
      "399": 6235,
      "507": 6236,
      "-second": 6237,
      "Ġbalanced": 6238,
      "Ġblackout": 6239,
      "Ġidentifying": 6240,
      "micro": 6241,
      "vis": 6242,
      "tiÄŁin": 6243,
      "leyen": 6244,
      "ĠÅŁÄ±k": 6245,
      "Ġchar": 6246,
      "ĠsonrasÄ±": 6247,
      "ĠaralÄ±k": 6248,
      "ĠkiÅŁinin": 6249,
      "Ġhissetmek": 6250,
      "ĠgÃ¶rÃ¼ÅŁecek": 6251,
      "ĠaltÄ±na": 6252,
      "Ġbeklenti": 6253,
      "Ġtreat": 6254,
      "270": 6255,
      "Ġlearned": 6256,
      "397": 6257,
      "Ġperform": 6258,
      "sam": 6259,
      "ĠYe": 6260,
      "abilirsin": 6261,
      "ĠbaÅŁÄ±nÄ±zÄ±": 6262,
      "Ġolmaya": 6263,
      "leÅŁtirin": 6264,
      "Ġphotos": 6265,
      "Ġmutfak": 6266,
      "ĠcÃ¼mleleri": 6267,
      "Ġexplaining": 6268,
      "ĠsÄ±caklÄ±ÄŁÄ±na": 6269,
      "cast": 6270,
      "266": 6271,
      "Ġencourage": 6272,
      "BÃ¼yÃ¼k": 6273,
      "Ġaler": 6274,
      "Ġseven": 6275,
      "ĠÃĸnemli": 6276,
      "nasÄ±l": 6277,
      "ĠsorularÄ±": 6278,
      "508": 6279,
      "Ġdinleme": 6280,
      "diÄŁinizde": 6281,
      "Ġoturmak": 6282,
      "Ġgrab": 6283,
      "ĠkayÄ±da": 6284,
      "Ġhik": 6285,
      "orm": 6286,
      "299": 6287,
      "Ġdefensi": 6288,
      "Ġautomatically": 6289,
      "Ġsignificant": 6290,
      "bah": 6291,
      "kitap": 6292,
      "Ġzamanla": 6293,
      "ĠiyileÅŁ": 6294,
      "duÄŁu": 6295,
      "808": 6296,
      "Ġhedeflerinize": 6297,
      "Ġsistemi": 6298,
      "ĠbelirtilmiÅŁtir": 6299,
      "Ġunnecessary": 6300,
      "Ġdeniz": 6301,
      "Ġrisk": 6302,
      "Her": 6303,
      "ature": 6304,
      "Ġyazma": 6305,
      "ĠfotoÄŁraflar": 6306,
      "Ġimkan": 6307,
      "mediÄŁiniz": 6308,
      "Ġyoldan": 6309,
      "608": 6310,
      "Ġfaster": 6311,
      "705": 6312,
      "ĠrahatÃ§a": 6313,
      "ĠyanÄ±nda": 6314,
      "Ġboundary": 6315,
      "Ġaccum": 6316,
      "ĠkaÄŁÄ±da": 6317,
      "Ġintensity": 6318,
      "baÅŁ": 6319,
      "enden": 6320,
      "Ġkonuyla": 6321,
      "Ġnedir": 6322,
      "acaktÄ±r": 6323,
      "281": 6324,
      "Ġrates": 6325,
      "194": 6326,
      "cektir": 6327,
      "366": 6328,
      "elerini": 6329,
      "ĠyÃ¶nlendir": 6330,
      "Ġkurmaya": 6331,
      "lamasÄ±": 6332,
      "Ġtransportation": 6333,
      "ĠseÃ§eneÄŁi": 6334,
      "Ġslowly": 6335,
      "Ġconstant": 6336,
      "acts": 6337,
      "gid": 6338,
      "355": 6339,
      "375": 6340,
      "Ġevents": 6341,
      "807": 6342,
      "505": 6343,
      "704": 6344,
      "Ġspots": 6345,
      "veness": 6346,
      "339": 6347,
      "Ġgev": 6348,
      "377": 6349,
      "Ġarama": 6350,
      "Ġdurdur": 6351,
      "Ġrahatlat": 6352,
      "ĠkalkÄ±ÅŁ": 6353,
      "Ġflexibility": 6354,
      "Ġmusunuz": 6355,
      "Ġzorunlu": 6356,
      "178": 6357,
      "Ġaccount": 6358,
      "Ġdrives": 6359,
      "Ġconcepts": 6360,
      "Ġpicking": 6361,
      "ranÄ±": 6362,
      "late": 6363,
      "ĠsoÄŁ": 6364,
      "ĠalmanÄ±z": 6365,
      "Ġtema": 6366,
      "706": 6367,
      "707": 6368,
      "ĠÃĩo": 6369,
      "ĠyÃ¼rÃ¼mek": 6370,
      "ĠÃ§ekip": 6371,
      "ĠÃ§Ä±karÄ±n": 6372,
      "Ġsepet": 6373,
      "Ġibarettir": 6374,
      "Ġkonsept": 6375,
      "ĠHem": 6376,
      "708": 6377,
      "ops": 6378,
      "Ġ%": 6379,
      "anÄ±ÅŁ": 6380,
      "Ġwon": 6381,
      "ĠÃ¶neriyle": 6382,
      "Ġsafe": 6383,
      "168": 6384,
      "ĠÃ§ektirecek": 6385,
      "larÄ±nÄ±zda": 6386,
      "ĠMesajÄ±nÄ±zÄ±": 6387,
      "Ġkurgu": 6388,
      "Ġtakvim": 6389,
      "Ġrun": 6390,
      "ĠFriends": 6391,
      "Ġmultitask": 6392,
      "Ġoyun": 6393,
      "Ġmeetings": 6394,
      "caÄŁÄ±m": 6395,
      "Ġtetik": 6396,
      "Ġphra": 6397,
      "Ġcompleted": 6398,
      "malÄ±sÄ±n": 6399,
      "Ġhissettir": 6400,
      "ĠaydÄ±nlÄ±k": 6401,
      "382": 6402,
      "Ġparties": 6403,
      "Ã¼me": 6404,
      "Ġbirer": 6405,
      "Ġmey": 6406,
      "379": 6407,
      "Ġtekni": 6408,
      "ĠkarÅŁÄ±lÄ±klÄ±": 6409,
      "Ġkapak": 6410,
      "ĠkiÅŁiler": 6411,
      "ĠpratiÄŁi": 6412,
      "Ġbilgilerle": 6413,
      "Ġschedules": 6414,
      "Ġfeedback": 6415,
      "Ġtw": 6416,
      "Ġspark": 6417,
      "367": 6418,
      "Ġrigid": 6419,
      "Ġattempting": 6420,
      "Ġdefensiveness": 6421,
      "Ġbana": 6422,
      "Ã¶ÄŁ": 6423,
      "ĠbaÅŁlama": 6424,
      "cknow": 6425,
      "Ġlistener": 6426,
      "604": 6427,
      "ĠChange": 6428,
      "not": 6429,
      "ulu": 6430,
      "ĠayÄ±ra": 6431,
      "Ġbacak": 6432,
      "Ġyapabilece": 6433,
      "lerinizden": 6434,
      "Ġyazmaya": 6435,
      "Ġhaval": 6436,
      "138": 6437,
      "ĠseÃ§ebilirsiniz": 6438,
      "ĠartÄ±rmak": 6439,
      "bilmek": 6440,
      "Ġplacing": 6441,
      "Ġmerak": 6442,
      "ĠnazikÃ§e": 6443,
      "Ġdata": 6444,
      "Ġseason": 6445,
      "277": 6446,
      "ĠayÄ±rdÄ±r": 6447,
      "Ġdeals": 6448,
      "ĠÃ§alÄ±ÅŁtÄ±": 6449,
      "Ġtraveling": 6450,
      "indeki": 6451,
      "ĠayÄ±rÄ±p": 6452,
      "ĠkontrolÃ¼": 6453,
      "Ġinterruptions": 6454,
      "ĠadÄ±ma": 6455,
      "Ġtone": 6456,
      "Ġtemper": 6457,
      "804": 6458,
      "Ġtutu": 6459,
      "esine": 6460,
      "Ġdenemek": 6461,
      "ĠgÃ¼l": 6462,
      "malÄ±dÄ±r": 6463,
      "ĠyapÄ±la": 6464,
      "Ġsabr": 6465,
      "ĠHaftalÄ±k": 6466,
      "Ġuygulayabilirsiniz": 6467,
      "ĠduygularÄ±nÄ±zÄ±": 6468,
      "Ġekipman": 6469,
      "ĠTackle": 6470,
      "ĠExp": 6471,
      "198": 6472,
      "Ġwrong": 6473,
      "lus": 6474,
      "ĠiÃ§ip": 6475,
      "Ġtaze": 6476,
      "ĠyanÄ±na": 6477,
      "Ġphysically": 6478,
      "Ġsizinle": 6479,
      "tirebilirsiniz": 6480,
      "ĠanlaÅŁÄ±l": 6481,
      "Ġlocation": 6482,
      "424": 6483,
      "Ġtel": 6484,
      "ĠHabits": 6485,
      "umu": 6486,
      "Ġveri": 6487,
      "yorsa": 6488,
      "282": 6489,
      "ĠÅŁeyden": 6490,
      "ĠmesajlaÅŁma": 6491,
      "Ġmodel": 6492,
      "Ġpsikoloj": 6493,
      "303": 6494,
      "222": 6495,
      "Ġtesting": 6496,
      "420": 6497,
      "bugÃ¼n": 6498,
      "lÄ±n": 6499,
      "Ä°kinci": 6500,
      "ĠbaÅŁlamaya": 6501,
      "ĠatÄ±p": 6502,
      "Ġartar": 6503,
      "Ġodada": 6504,
      "402": 6505,
      "ĠdeÄŁilse": 6506,
      "Ġstresli": 6507,
      "Ġolmaktan": 6508,
      "Ġeffective": 6509,
      "Ġleads": 6510,
      "Ġabsol": 6511,
      "rt": 6512,
      "Ġloud": 6513,
      "356": 6514,
      "ĠlÃ¼tfen": 6515,
      "ĠiÅŁini": 6516,
      "ĠkurmayÄ±": 6517,
      "ĠduruÅŁ": 6518,
      "acaÄŁÄ±nÄ±z": 6519,
      "ĠnoktalarÄ±": 6520,
      "dÄ±ktan": 6521,
      "Ġdikkate": 6522,
      "ski": 6523,
      "inking": 6524,
      "Ġple": 6525,
      "Ġidentify": 6526,
      "Ġjum": 6527,
      "221": 6528,
      "Ġsitu": 6529,
      "'li": 6530,
      "ince": 6531,
      "ÅŁu": 6532,
      "Ġuyuy": 6533,
      "Ġsok": 6534,
      "caÄŁÄ±": 6535,
      "Ġiyidir": 6536,
      "Ġtutmaya": 6537,
      "348": 6538,
      "Ġkullanmadan": 6539,
      "Ġemer": 6540,
      "Ġsunabilirim": 6541,
      "Ġvalu": 6542,
      "abin": 6543,
      "301": 6544,
      "lÄ±r": 6545,
      "ĠkayÄ±tlarda": 6546,
      "ĠadÄ±mlara": 6547,
      "Ġjourney": 6548,
      "ĠbaÄŁlantÄ±": 6549,
      "ĠyÃ¼kÃ¼": 6550,
      "ĠWhatsApp": 6551,
      "Ġsoruda": 6552,
      "Ġtatmin": 6553,
      "Ġcalls": 6554,
      "bing": 6555,
      "164": 6556,
      "365": 6557,
      "502": 6558,
      "cc": 6559,
      "tÃ¶r": 6560,
      "Ġtep": 6561,
      "ĠanlamÄ±": 6562,
      "Ä±narak": 6563,
      "ĠakÄ±cÄ±": 6564,
      "elerden": 6565,
      "ĠgÃ¼venilir": 6566,
      "ĠyapÄ±sÄ±": 6567,
      "ĠUyk": 6568,
      "Ġkapatmak": 6569,
      "Ġkorun": 6570,
      "Ġrelaxation": 6571,
      "Ġuykus": 6572,
      "ĠeÄŁitim": 6573,
      "duktan": 6574,
      "ĠÃ¶nerebilirim": 6575,
      "Ġdonate": 6576,
      "Ġpriorities": 6577,
      "Ġarrive": 6578,
      "Ġapproach": 6579,
      "yer": 6580,
      "ndÄ±r": 6581,
      "Ġocc": 6582,
      "lerek": 6583,
      "eci": 6584,
      "taki": 6585,
      "Ġolursunuz": 6586,
      "Ġhedeflerin": 6587,
      "Ġhayata": 6588,
      "landÄ±ra": 6589,
      "ĠsÄ±rayla": 6590,
      "Ġeski": 6591,
      "ĠgeliÅŁtirmek": 6592,
      "174": 6593,
      "283": 6594,
      "EÄŁer": 6595,
      "What": 6596,
      "minizi": 6597,
      "raya": 6598,
      "Ġsure": 6599,
      "Ġtough": 6600,
      "ĠYa": 6601,
      "Ġgrup": 6602,
      "ĠyapÄ±ÅŁtÄ±r": 6603,
      "ĠPhotoshop": 6604,
      "Ġolabilirsiniz": 6605,
      "Ġokuy": 6606,
      "888": 6607,
      "Ġtamamlan": 6608,
      "ĠnoktasÄ±dÄ±r": 6609,
      "Ġspontaneous": 6610,
      "Ġdeparture": 6611,
      "mis": 6612,
      "Ġresistance": 6613,
      "Ġtemperature": 6614,
      "gest": 6615,
      "Ġolay": 6616,
      "tikten": 6617,
      "ĠSizinle": 6618,
      "ĠkaynaÄŁÄ±nÄ±": 6619,
      "Ġchores": 6620,
      "sus": 6621,
      "ani": 6622,
      "Ġcabin": 6623,
      "Ġreason": 6624,
      "Ġpati": 6625,
      "603": 6626,
      "Ġprep": 6627,
      "Ġtelef": 6628,
      "ĠDerin": 6629,
      "ĠdÃ¼zeniyle": 6630,
      "Ġevden": 6631,
      "Ġtemelini": 6632,
      "ĠyatÄ±n": 6633,
      "ĠsÄ±caklÄ±ÄŁÄ±": 6634,
      "melisin": 6635,
      "Ġokuyarak": 6636,
      ".**Ċ": 6637,
      "rans": 6638,
      "Ġafterward": 6639,
      "hal": 6640,
      "Ġkim": 6641,
      "daha": 6642,
      "ĠÃ§im": 6643,
      "Ġorder": 6644,
      "Ġkalab": 6645,
      "ilebilir": 6646,
      "Ġtutma": 6647,
      "ĠÃ§alÄ±ÅŁÄ±r": 6648,
      "ĠÃ§Ä±kmak": 6649,
      "Ġolanak": 6650,
      "Ġortaya": 6651,
      "ĠyÃ¶ntemler": 6652,
      "Ġalabilirsiniz": 6653,
      "Ġuyumak": 6654,
      "Ġparaphra": 6655,
      "ĠHaftada": 6656,
      "ĠSpend": 6657,
      ":**Ċ": 6658,
      "Ġcomput": 6659,
      "Ġplaces": 6660,
      "Ġexplain": 6661,
      "ĠDuyg": 6662,
      "ilim": 6663,
      "Ġrece": 6664,
      "Ġdayan": 6665,
      "ĠNot": 6666,
      "ĠÃ§ekme": 6667,
      "403": 6668,
      "Ġbookings": 6669,
      "ÄŁinize": 6670,
      "885": 6671,
      "ĠkalkmayÄ±": 6672,
      "bette": 6673,
      "ĠgerÃ§ekleÅŁtir": 6674,
      "tÄ±rarak": 6675,
      "Ä±lacak": 6676,
      "ĠiliÅŁki": 6677,
      "Ġkaydede": 6678,
      "Ġengage": 6679,
      "check": 6680,
      "Ġroutines": 6681,
      "886": 6682,
      "Ġitineraries": 6683,
      "Ġcategory": 6684,
      "425": 6685,
      "tuk": 6686,
      "Ġlay": 6687,
      "amik": 6688,
      "Ġsoon": 6689,
      "302": 6690,
      "cade": 6691,
      "Ġdilerim": 6692,
      "elerin": 6693,
      "Ġgently": 6694,
      "ĠÃ¶zelliÄŁini": 6695,
      "Ġbitirmek": 6696,
      "Ġmalze": 6697,
      "ĠkurallarÄ±": 6698,
      "bies": 6699,
      "ĠteÅŁekkÃ¼r": 6700,
      "Ġacknow": 6701,
      "Ġwhy": 6702,
      "Ġhid": 6703,
      "liyor": 6704,
      "ĠanlÄ±yorum": 6705,
      "Ã¼ksek": 6706,
      "Ġbeden": 6707,
      "ĠkaldÄ±": 6708,
      "ĠiÅŁlerinizi": 6709,
      "ĠÃ§alÄ±ÅŁÄ±rken": 6710,
      "401": 6711,
      "ĠekranÄ±": 6712,
      "602": 6713,
      "ĠtadÄ±": 6714,
      "ĠHareket": 6715,
      "layÄ±sÄ±yla": 6716,
      "ĠyÃ¼rÃ¼ye": 6717,
      "ĠkoÅŁu": 6718,
      "Ġmetab": 6719,
      "yapÄ±": 6720,
      "ĠkÄ±sÄ±m": 6721,
      "Ġroutes": 6722,
      "Ġkurtul": 6723,
      "Ġpower": 6724,
      "-h": 6725,
      "-ste": 6726,
      "iten": 6727,
      "Ġdilden": 6728,
      "ĠbahÃ§enin": 6729,
      "ĠgeÃ§ire": 6730,
      "ĠkonuÅŁurken": 6731,
      "887": 6732,
      "ĠÃ§Ä±kÄ±n": 6733,
      "Ġgiy": 6734,
      "ĠtamamÄ±nÄ±": 6735,
      "Ġharf": 6736,
      "Ġkoruma": 6737,
      "ĠyaratÄ±r": 6738,
      "Ġbunlar": 6739,
      "Ġaccessible": 6740,
      "try": 6741,
      "uru": 6742,
      "383": 6743,
      "501": 6744,
      "Ġdefining": 6745,
      "Ġhobbies": 6746,
      "Ġslots": 6747,
      "428": 6748,
      "ĠBilg": 6749,
      "Ġkafe": 6750,
      "ĠÄ°lg": 6751,
      "ĠMay": 6752,
      "Ġforget": 6753,
      "ĠgÃ¶rÃ¼": 6754,
      "701": 6755,
      "ĠdÄ±ÅŁÄ±nda": 6756,
      "ĠmantÄ±": 6757,
      "ĠkeÅŁfetmek": 6758,
      "ĠdaÄŁÄ±t": 6759,
      "ĠGenellikle": 6760,
      "Ġokay": 6761,
      "Ġmen": 6762,
      "Ġcategories": 6763,
      "Ġbarrier": 6764,
      "rn": 6765,
      "ilmesi": 6766,
      "Ġgather": 6767,
      "Ġilham": 6768,
      "Ġtrash": 6769,
      "ĠpiÅŁirin": 6770,
      "Ġistey": 6771,
      "906": 6772,
      "ĠbakÄ±m": 6773,
      "Ġgiderek": 6774,
      "Ġreinforce": 6775,
      "cting": 6776,
      "Ġcity": 6777,
      "Ġhorm": 6778,
      "702": 6779,
      "703": 6780,
      "most": 6781,
      "Ġversus": 6782,
      "381": 6783,
      "Ġoverall": 6784,
      "000": 6785,
      "ĠkolaydÄ±r": 6786,
      "Ġtekniklerini": 6787,
      "ĠbÃ¼tÃ§e": 6788,
      "ĠaÅŁmak": 6789,
      "ĠsakinleÅŁ": 6790,
      "Ãĸncelikle": 6791,
      "ĠodanÄ±zÄ±": 6792,
      "ĠaydÄ±nlatma": 6793,
      "sc": 6794,
      "stru": 6795,
      "Ġmask": 6796,
      "803": 6797,
      "905": 6798,
      "sur": 6799,
      "ĠTem": 6800,
      "ĠdeÄŁiÅŁtirin": 6801,
      "344": 6802,
      "503": 6803,
      "ĠsÄ±kÄ±ÅŁ": 6804,
      "dÄ±ÄŁÄ±nÄ±zdan": 6805,
      "Ãĸz": 6806,
      "ĠkarÄ±ÅŁÄ±k": 6807,
      "Ġsaatinde": 6808,
      "Ġalternatif": 6809,
      "ĠuÃ§uÅŁ": 6810,
      "gram": 6811,
      "Ġgreat": 6812,
      "Ġnecessary": 6813,
      "802": 6814,
      "907": 6815,
      "Ġskills": 6816,
      "Ġkuma": 6817,
      "Ã§ok": 6818,
      "ĠBefore": 6819,
      "Ġkase": 6820,
      "Ġrema": 6821,
      "Ġonlara": 6822,
      "Ġmakin": 6823,
      "Ġhisse": 6824,
      "Ġhissetme": 6825,
      "ĠvÃ¼cudunu": 6826,
      "ĠyaÅŁama": 6827,
      "ĠyarÄ±sÄ±nÄ±": 6828,
      "244": 6829,
      "Ġworry": 6830,
      "Ġworks": 6831,
      "cuss": 6832,
      "Ġdiscuss": 6833,
      "Ġexpectations": 6834,
      "Ġstabilize": 6835,
      "Use": 6836,
      "ĠzorlanÄ±yorsanÄ±z": 6837,
      "Ã¼rÃ¼l": 6838,
      "malara": 6839,
      "ĠiÅŁlerin": 6840,
      "ĠbaÅŁlayacak": 6841,
      "Ġihtimal": 6842,
      "Ġbarda": 6843,
      "ĠkÃ¼tÃ¼phane": 6844,
      "ĠOkuma": 6845,
      "Ġsli": 6846,
      "itab": 6847,
      "Ġeat": 6848,
      "atory": 6849,
      "Ġpair": 6850,
      "ĠSess": 6851,
      "Ġamount": 6852,
      "423": 6853,
      "ika": 6854,
      "Ã¼nden": 6855,
      "Ġger": 6856,
      "Ġflow": 6857,
      "Ġretention": 6858,
      "Ġsepe": 6859,
      "ĠplanlayÄ±p": 6860,
      "Ġnod": 6861,
      "ĠbÄ±ra": 6862,
      "Ġridic": 6863,
      "Ġtemizlemek": 6864,
      "Ġayarla": 6865,
      "Ġizleyerek": 6866,
      "Ġyoktur": 6867,
      "Ġkoruya": 6868,
      "Ġgidin": 6869,
      "ĠdoÄŁrult": 6870,
      "Ġhyd": 6871,
      "ĠfotoÄŁrafÃ§Ä±lÄ±k": 6872,
      "Ġridicul": 6873,
      "-ins": 6874,
      "lig": 6875,
      "uture": 6876,
      "iÃ§": 6877,
      "Ġsending": 6878,
      "ĠTeach": 6879,
      "Ġbelirsiz": 6880,
      "ĠÃ§alÄ±ÅŁmayÄ±n": 6881,
      "Ġkurma": 6882,
      "Ġilerleyebilirsiniz": 6883,
      "ĠBaÅŁlamak": 6884,
      "Ġizle": 6885,
      "'inle": 6886,
      "Ġuyanmak": 6887,
      "Ġrepeated": 6888,
      "ĠyemeÄŁini": 6889,
      "Ġuyumaya": 6890,
      "ĠolduÄŁunuzda": 6891,
      "Ġbozul": 6892,
      "Ġsunuyorum": 6893,
      "ĠbÄ±rakarak": 6894,
      "321": 6895,
      "usted": 6896,
      "fully": 6897,
      "raffic": 6898,
      "Ġduration": 6899,
      "Ġdeeper": 6900,
      "Ġmetabol": 6901,
      "dim": 6902,
      "tiniz": 6903,
      "ĠsÄ±nÄ±": 6904,
      "usunu": 6905,
      "ĠBana": 6906,
      "Ġdele": 6907,
      "Ġrefer": 6908,
      "ĠzamanÄ±nÄ±": 6909,
      "ĠÅŁunu": 6910,
      "Ġsorunuz": 6911,
      "ikkat": 6912,
      "ÄŁinden": 6913,
      "Ġdurumunuz": 6914,
      "ĠSabahÄ±": 6915,
      "ĠÃ§Ä±kÄ±ÅŁ": 6916,
      "ĠayardÄ±": 6917,
      "ĠHayÄ±r": 6918,
      "Ġhafiflet": 6919,
      "ĠaÃ§Ä±kÃ§a": 6920,
      "ĠdÃ¶k": 6921,
      "ĠgÃ¶sterir": 6922,
      "ĠadÄ±na": 6923,
      "ĠiÃ§erir": 6924,
      "cept": 6925,
      "Ġfuture": 6926,
      "ined": 6927,
      "Ġcuri": 6928,
      "-se": 6929,
      "Yap": 6930,
      "rat": 6931,
      "usunda": 6932,
      "ĠEski": 6933,
      "ĠTrans": 6934,
      "unting": 6935,
      "maktadÄ±r": 6936,
      "Ġstra": 6937,
      "Ġvere": 6938,
      "ĠOnce": 6939,
      "ĠyÃ¼rÃ¼r": 6940,
      "298": 6941,
      "ĠyaklaÅŁÄ±k": 6942,
      "Ġlimits": 6943,
      "ĠtatlÄ±": 6944,
      "ĠyaptÄ±m": 6945,
      "Ġhissedi": 6946,
      "Ġstim": 6947,
      "vest": 6948,
      "ĠBen": 6949,
      "Ġmotive": 6950,
      "Ġbelong": 6951,
      "'Ä±nda": 6952,
      "Ġkaba": 6953,
      "Ġizmir": 6954,
      "ĠEÄŁ": 6955,
      "Ġfoto": 6956,
      "uÅŁtur": 6957,
      "ĠÃ§alÄ±": 6958,
      "ĠplanlÄ±yor": 6959,
      "illeri": 6960,
      "arÄ±nda": 6961,
      "Ġbahsed": 6962,
      "Ġtutar": 6963,
      "bileceÄŁin": 6964,
      "Ġsorarak": 6965,
      "ĠkapÄ±": 6966,
      "Ġsessizce": 6967,
      "Ġyatarken": 6968,
      "ĠÃĩev": 6969,
      "ukarÄ±": 6970,
      "ĠeÄŁit": 6971,
      "ĠyarÄ±sÄ±": 6972,
      "Ġmiktarda": 6973,
      "ĠDÃ¼zenli": 6974,
      "ĠÃĸnerim": 6975,
      "Ġstops": 6976,
      "Ġstepping": 6977,
      "Ġpast": 6978,
      "Ġintense": 6979,
      "Ġgestures": 6980,
      "ih": 6981,
      "Ġbildir": 6982,
      "les": 6983,
      "ĠÃ¶nler": 6984,
      "Ä±rt": 6985,
      "Ġplanlar": 6986,
      "diÄŁinizi": 6987,
      "ĠyÃ¶netim": 6988,
      "ĠalanÄ±nÄ±za": 6989,
      "ĠkarÅŁÄ±sÄ±nda": 6990,
      "ĠaÃ§Ä±klayÄ±n": 6991,
      "Ġstresini": 6992,
      "ĠaraÃ§lar": 6993,
      "Ġhavuzu": 6994,
      "ĠhatÄ±rlatÄ±n": 6995,
      "Ġbeceriler": 6996,
      "ĠbaÅŁkalar": 6997,
      "¸ı": 6998,
      "ï¸ı": 6999,
      "801": 7000,
      "601": 7001,
      "Ġbiggest": 7002,
      "Ġlittle": 7003,
      "Ġbuna": 7004,
      "teÅŁ": 7005,
      "ĠYÃ¼r": 7006,
      "ĠiÃ§ecek": 7007,
      "ĠyapÄ±mÄ±": 7008,
      "eyle": 7009,
      "ĠonlarÄ±": 7010,
      "ĠOne": 7011,
      "Ġyerini": 7012,
      "ĠgeÃ§ici": 7013,
      "ĠdÃ¼zenle": 7014,
      "cture": 7015,
      "ĠbÃ¶lerek": 7016,
      "Ġseviyeniz": 7017,
      "ĠyansÄ±": 7018,
      "Ġdrawers": 7019,
      "Ġappointment": 7020,
      "Ġhaven": 7021,
      "Ġridiculously": 7022,
      "ĠanlamÄ±na": 7023,
      "ĠÃ¶ÄŁlen": 7024,
      "Ġmapping": 7025,
      "Ä±nav": 7026,
      "ĠkonuÅŁarak": 7027,
      "Ġparlak": 7028,
      "Ġcontext": 7029,
      "ĠkeÅŁfedin": 7030,
      "Ġpod": 7031,
      "Ġfriendships": 7032,
      "884": 7033,
      "KÄ±sa": 7034,
      "ĠeÄŁer": 7035,
      "ĠAdÄ±m": 7036,
      "ĠverdiÄŁiniz": 7037,
      "Ġvi": 7038,
      "Ġburada": 7039,
      "Ġmanz": 7040,
      "ĠdÃ¼ÅŁÃ¼nÃ¼": 7041,
      "ĠseÃ§enekler": 7042,
      "ĠkalanlarÄ±": 7043,
      "ĠgÃ¶stermek": 7044,
      "Ġesne": 7045,
      "ĠsÄ±nÄ±rlÄ±": 7046,
      "Ġkanal": 7047,
      "Ġexpenses": 7048,
      "258": 7049,
      "Ġfees": 7050,
      "Ġsince": 7051,
      "Ġjumping": 7052,
      "kar": 7053,
      "Ġlik": 7054,
      "ndi": 7055,
      "ĠtÄ±k": 7056,
      "arg": 7057,
      "Ġuyar": 7058,
      "Ġsaatine": 7059,
      "Ġhaft": 7060,
      "ĠÃ§Ä±karÄ±": 7061,
      "ĠkarÅŁÄ±lÄ±k": 7062,
      "ĠayÄ±rmak": 7063,
      "ĠWork": 7064,
      "Ġgiden": 7065,
      "ĠbaÅŁarÄ±lÄ±": 7066,
      "Ġdenges": 7067,
      "ĠkatÄ±lacak": 7068,
      "ĠuyumayÄ±": 7069,
      "Ġtonunu": 7070,
      "Ġbilimsel": 7071,
      "ĠÃĸzellikle": 7072,
      "ĠÃ§Ä±kara": 7073,
      "kward": 7074,
      "Ġdaunting": 7075,
      "Ġvs": 7076,
      "cÃ¼k": 7077,
      "yelim": 7078,
      "Ġila": 7079,
      "ĠdanÄ±ÅŁ": 7080,
      "ĠtoplamÄ±": 7081,
      "ĠmÄ±sÄ±nÄ±z": 7082,
      "ĠÃ§ekici": 7083,
      "Ġsabitleyin": 7084,
      "Ġmutluluk": 7085,
      "ĠUykuya": 7086,
      "Ġortalama": 7087,
      "Ġstatement": 7088,
      "Ġoblig": 7089,
      "Ġlowers": 7090,
      "Ġaccusing": 7091,
      "Ġawkward": 7092,
      "Ġpaper": 7093,
      "mÄ±": 7094,
      "urt": 7095,
      "oru": 7096,
      "Ġolumlu": 7097,
      "Ġplanlayarak": 7098,
      "Ġgerektiren": 7099,
      "882": 7100,
      "ĠbaÅŁarÄ±larÄ±": 7101,
      "Ġpeak": 7102,
      "Ġgirmeden": 7103,
      "ĠekranÄ±nÄ±": 7104,
      "ĠbaÅŁlarsÄ±nÄ±z": 7105,
      "Ġsessizlik": 7106,
      "Ġzihinsel": 7107,
      "ĠkaÃ§Ä±nmak": 7108,
      "Ġcontinue": 7109,
      "ĠgÃ¶ÄŁÃ¼s": 7110,
      "432": 7111,
      "Avoid": 7112,
      "work": 7113,
      "Ġhaz": 7114,
      "368": 7115,
      "tinde": 7116,
      "ĠtanÄ±t": 7117,
      "ĠtÃ¼ke": 7118,
      "Ġyes": 7119,
      "ĠkaÃ§Ä±nÄ±": 7120,
      "ĠyaÅŁamÄ±": 7121,
      "ĠalÄ±ÅŁkanlÄ±klarÄ±": 7122,
      "Ġelinize": 7123,
      "ĠakÅŁamlarÄ±": 7124,
      "ĠbaÅŁarÄ±sÄ±z": 7125,
      "Ġdetaylar": 7126,
      "ĠElbette": 7127,
      "ĠyapacaÄŁÄ±nÄ±z": 7128,
      "Ġbelirleyebilirsiniz": 7129,
      "ecially": 7130,
      "lab": 7131,
      "445": 7132,
      "Ġappointments": 7133,
      "'un": 7134,
      "An": 7135,
      "lili": 7136,
      "van": 7137,
      "anti": 7138,
      "Ġku": 7139,
      "Ġkok": 7140,
      "Ġsind": 7141,
      "ĠnumarayÄ±": 7142,
      "Ġstating": 7143,
      "Ġreco": 7144,
      "ĠsayÄ±n": 7145,
      "lerinizin": 7146,
      "Ġentry": 7147,
      "ĠdolaÅŁ": 7148,
      "ĠkalÄ±r": 7149,
      "sinde": 7150,
      "lenir": 7151,
      "Ġkalkmak": 7152,
      "Ġcommitments": 7153,
      "Ġkelimesini": 7154,
      "ĠYatak": 7155,
      "ĠSÄ±cak": 7156,
      "ĠdÃ¶nÃ¼ÅŁtÃ¼r": 7157,
      "ducing": 7158,
      "Ġesp": 7159,
      "ates": 7160,
      "Ġweekend": 7161,
      "446": 7162,
      "Ġespecially": 7163,
      "Sabah": 7164,
      "bal": 7165,
      "ube": 7166,
      "ĠyanÄ±": 7167,
      "Ġfak": 7168,
      "ĠuyarÄ±": 7169,
      "Ġuygulaman": 7170,
      "emi": 7171,
      "908": 7172,
      "masÄ±dÄ±r": 7173,
      "ĠmesajÄ±nÄ±zÄ±": 7174,
      "Ġenerjisini": 7175,
      "ĠÃ§izgi": 7176,
      "Ġmiss": 7177,
      "âĢĶto": 7178,
      "ĠbilgisayarÄ±nÄ±zda": 7179,
      "ĠhedeflediÄŁiniz": 7180,
      "ĠkullanÄ±mÄ±nÄ±": 7181,
      "ĠTravel": 7182,
      "378": 7183,
      "Ġhold": 7184,
      "za": 7185,
      "ĠnumarasÄ±nÄ±z": 7186,
      "terek": 7187,
      "ĠseÃ§melisiniz": 7188,
      "erece": 7189,
      "Ġedici": 7190,
      "Ġelinizi": 7191,
      "Åŀu": 7192,
      "Ġkelimesi": 7193,
      "Ġtuvalet": 7194,
      "ons": 7195,
      "ĠEat": 7196,
      "Ġalmost": 7197,
      "411": 7198,
      "lmÄ±ÅŁtÄ±r": 7199,
      "ula": 7200,
      "lation": 7201,
      "aber": 7202,
      "Ġdemektir": 7203,
      "icien": 7204,
      "ĠÃ¶ÄŁret": 7205,
      "ĠkullanmanÄ±z": 7206,
      "ĠiÅŁinize": 7207,
      "Ġsaatinizi": 7208,
      "tÄ±lmÄ±ÅŁ": 7209,
      "ĠÅŁeker": 7210,
      "ĠÅŁunlar": 7211,
      "ĠgereÄŁi": 7212,
      "ĠdavranÄ±ÅŁÄ±": 7213,
      "Ġvalidating": 7214,
      "Ġrefle": 7215,
      "Ġboyut": 7216,
      "Ġpiles": 7217,
      "ĠTranslate": 7218,
      "eet": 7219,
      "Ġslight": 7220,
      "Ġconcen": 7221,
      "Ġsoft": 7222,
      "Ġhidden": 7223,
      "816": 7224,
      "Ġez": 7225,
      "ĠAk": 7226,
      "Ä±zda": 7227,
      "ĠÃ§ekmeyi": 7228,
      "ĠkullandÄ±ÄŁÄ±nÄ±z": 7229,
      "ĠkaydÄ±r": 7230,
      "Ġgeliyor": 7231,
      "Ġtaki": 7232,
      "Ġlistele": 7233,
      "Ġedebi": 7234,
      "ĠsÃ¼recin": 7235,
      "yalÄ±m": 7236,
      "Ġseninle": 7237,
      "Ġincrease": 7238,
      "ĠÃ§eviri": 7239,
      "Ġbeklemeyin": 7240,
      "ĠrahatlatÄ±cÄ±": 7241,
      "Ġintentional": 7242,
      "Ġmultitasking": 7243,
      "ĠdoÄŁrultusunda": 7244,
      "Ġsar": 7245,
      "Ġwilling": 7246,
      "Ġcategorize": 7247,
      "Ġbri": 7248,
      "teful": 7249,
      "Ġbeats": 7250,
      "Ġmola": 7251,
      "Ġhedefleyerek": 7252,
      "Ġasist": 7253,
      "ĠdÃ¼zenlemeye": 7254,
      "881": 7255,
      "ĠalanÄ±nÄ±": 7256,
      "ĠmesajlarÄ±": 7257,
      "Ãĸrn": 7258,
      "ansÃ¶r": 7259,
      "bilg": 7260,
      "Ġyoludur": 7261,
      "Ġgrateful": 7262,
      "Ġavailable": 7263,
      "Ġsolutions": 7264,
      "810": 7265,
      "rog": 7266,
      "Ġrush": 7267,
      "izde": 7268,
      "yak": 7269,
      "aket": 7270,
      "Ġstoring": 7271,
      "Ġstru": 7272,
      "ondan": 7273,
      "lerinden": 7274,
      "Ġhareketlerle": 7275,
      "Ġtamamlayarak": 7276,
      "ĠbakÄ±ÅŁ": 7277,
      "Ġairlines": 7278,
      "Ġuykuyu": 7279,
      "Ġpatter": 7280,
      "Ġbazen": 7281,
      "Ġtempt": 7282,
      "Create": 7283,
      "meleri": 7284,
      "ucu": 7285,
      "Ġga": 7286,
      "ĠinÅŁa": 7287,
      "ĠDenizle": 7288,
      "ginÃ§": 7289,
      "iliyor": 7290,
      "bileceÄŁinizi": 7291,
      "ĠÃ§Ä±kan": 7292,
      "Ġalanlarda": 7293,
      "Ġkapa": 7294,
      "904": 7295,
      "Ġenerjisi": 7296,
      "Ġtelefonunuzdan": 7297,
      "ĠÃĸÄŁrenmeyi": 7298,
      "ÅŁaÄŁÄ±daki": 7299,
      "ĠiÅŁlev": 7300,
      "ĠtarafÄ±n": 7301,
      "ĠmantÄ±klÄ±sÄ±": 7302,
      "ĠBirincisi": 7303,
      "Ġpodcast": 7304,
      "Ġmanzara": 7305,
      "ĠfaktÃ¶r": 7306,
      "iding": 7307,
      "883": 7308,
      "447": 7309,
      "Ġspaced": 7310,
      "Ġbiber": 7311,
      "lash": 7312,
      "Ã§alÄ±ÅŁ": 7313,
      "ĠdÃ¼nya": 7314,
      "ĠmÃ¼zik": 7315,
      "ĠÃ§arp": 7316,
      "Ġmovi": 7317,
      "ĠbuluÅŁaca": 7318,
      "Ġbelirgin": 7319,
      "Ġyerin": 7320,
      "ĠPrag": 7321,
      "medik": 7322,
      "ĠHava": 7323,
      "ĠbaÅŁarÄ±ya": 7324,
      "Ġtalep": 7325,
      "ĠkiÅŁiyi": 7326,
      "Ġprice": 7327,
      "ĠsabÄ±rlÄ±": 7328,
      "Ġsuppress": 7329,
      "lendire": 7330,
      "Ġfilm": 7331,
      "Tube": 7332,
      "Ġdisrupts": 7333,
      "Ġslightly": 7334,
      "419": 7335,
      "tarÄ±": 7336,
      "ĠAÅŁ": 7337,
      "lerinin": 7338,
      "lerinizle": 7339,
      "Ġkalmaya": 7340,
      "Ġsona": 7341,
      "miyor": 7342,
      "Ġkayd": 7343,
      "ĠgÃ¶rdÃ¼ÄŁ": 7344,
      "Ġlog": 7345,
      "ĠbaÅŁlayanlar": 7346,
      "ĠsÄ±kÄ±": 7347,
      "Ġedilen": 7348,
      "ĠsaÄŁlayabilirsiniz": 7349,
      "Ġproductive": 7350,
      "Ġkaydederek": 7351,
      "ĠÄ±sÄ±t": 7352,
      "Ġkonularda": 7353,
      "ubuk": 7354,
      "anta": 7355,
      "mates": 7356,
      "rik": 7357,
      "ĠFind": 7358,
      "Ġdeciding": 7359,
      "'la": 7360,
      "oci": 7361,
      "ĠyÄ±l": 7362,
      "ĠBaz": 7363,
      "Ġvurg": 7364,
      "Ġjo": 7365,
      "Ġsoruya": 7366,
      "Ġkullanma": 7367,
      "tÄ±ÄŁÄ±": 7368,
      "Ġgereksin": 7369,
      "Ġertesi": 7370,
      "andÄ±": 7371,
      "ĠÃ¶neriniz": 7372,
      "ĠgÃ¶zlerinizi": 7373,
      "ĠsÄ±caklÄ±k": 7374,
      "ĠpaylaÅŁarak": 7375,
      "tirebilir": 7376,
      "Ġhappy": 7377,
      "ĠSÄ±fÄ±r": 7378,
      "ront": 7379,
      "ĠartÄ±rarak": 7380,
      "Ġengaged": 7381,
      "tice": 7382,
      "354": 7383,
      "Ġefficien": 7384,
      "Ġfrustrated": 7385,
      "inating": 7386,
      "sab": 7387,
      "ĠSpe": 7388,
      "Ġkonunun": 7389,
      "zeti": 7390,
      "ĠkarÅŁÄ±laÅŁtÄ±r": 7391,
      "Ä±lma": 7392,
      "Ġincele": 7393,
      "ĠdÃ¶ne": 7394,
      "ĠÃ§izmek": 7395,
      "Ġconfus": 7396,
      "ĠaÅŁÄ±rÄ±": 7397,
      "Ġreaching": 7398,
      "ĠAlÄ±ÅŁkanlÄ±klar": 7399,
      "ĠyolculuÄŁ": 7400,
      "ĠkÃ¶ÅŁ": 7401,
      "Hedef": 7402,
      "Ġsenaryo": 7403,
      "Ġsignificantly": 7404,
      "Ġnodding": 7405,
      "Ġeyes": 7406,
      "ĠÅŁef": 7407,
      "Ġhedefiniz": 7408,
      "ĠarayÄ±n": 7409,
      "Ġdenize": 7410,
      "beti": 7411,
      "ĠsÃ¼recinde": 7412,
      "Ġassoci": 7413,
      "Ġpan": 7414,
      "Ġrecen": 7415,
      "ĠPM": 7416,
      "278": 7417,
      "Ġswims": 7418,
      "Ġsitting": 7419,
      "Ġguide": 7420,
      "Ġnearby": 7421,
      "-task": 7422,
      "440": 7423,
      "Set": 7424,
      "yl": 7425,
      "Ġsulama": 7426,
      "reci": 7427,
      "Ġkaliten": 7428,
      "ĠdÃ¼zeninde": 7429,
      "Ġoverth": 7430,
      "Ġkurs": 7431,
      "ĠihtiyacÄ±": 7432,
      "ĠÅŀehir": 7433,
      "Ġkoyup": 7434,
      "ĠvÃ¼cudunuza": 7435,
      "ĠÃ¶nceliÄŁiniz": 7436,
      "439": 7437,
      "358": 7438,
      "Ġshows": 7439,
      "No": 7440,
      "eb": 7441,
      "uÃ§": 7442,
      "tegor": 7443,
      "ilendir": 7444,
      "Ġanlar": 7445,
      "ĠMÃ¼": 7446,
      "Ġsaate": 7447,
      "Ġresearch": 7448,
      "238": 7449,
      "ĠaranÄ±z": 7450,
      "Ġkendisi": 7451,
      "ĠdakikasÄ±nÄ±": 7452,
      "ĠkullanÄ±p": 7453,
      "ĠÃ¶ÄŁrenmektir": 7454,
      "ĠgÃ¼c": 7455,
      "Ġorta": 7456,
      "ĠistediÄŁinize": 7457,
      "Ġstopping": 7458,
      "ĠkaÄŁÄ±dÄ±": 7459,
      "ĠAlÄ±ÅŁkanlÄ±klarÄ±": 7460,
      "ĠBaÅŁarÄ±lÄ±": 7461,
      "ĠcevabÄ±": 7462,
      "licit": 7463,
      "Ġsalata": 7464,
      "Ġsearch": 7465,
      "titu": 7466,
      "Ġmoder": 7467,
      "Ġappreci": 7468,
      "Ġsubj": 7469,
      "gÃ¶": 7470,
      "xim": 7471,
      "Ġaile": 7472,
      "Ä±yorsunuz": 7473,
      "ĠyukarÄ±": 7474,
      "ĠanlarÄ±": 7475,
      "ĠkaÃ§Ä±r": 7476,
      "ĠHang": 7477,
      "diÄŁim": 7478,
      "Ġhedefleri": 7479,
      "Ġcommitment": 7480,
      "Ġbununla": 7481,
      "Ġyudum": 7482,
      "ĠKonuÅŁma": 7483,
      "Ġyiyecek": 7484,
      "argon": 7485,
      "ĠSay": 7486,
      "phone": 7487,
      "Ġsearching": 7488,
      "Â°F": 7489,
      "lamadan": 7490,
      "Ġfact": 7491,
      "Ġrele": 7492,
      "ĠyapmanÄ±zÄ±": 7493,
      "Ġformat": 7494,
      "Ä±rsÄ±nÄ±z": 7495,
      "Ġfear": 7496,
      "Ġexc": 7497,
      "ĠsuÃ§": 7498,
      "Ġelb": 7499,
      "Ġdurup": 7500,
      "ĠalanÄ±na": 7501,
      "ĠsorunlarÄ±nÄ±z": 7502,
      "ĠoluÅŁturma": 7503,
      "ĠEvde": 7504,
      "Ġoturun": 7505,
      "Ġeser": 7506,
      "ĠfÄ±rÄ±n": 7507,
      "Ġshower": 7508,
      "ĠÄ°ÅŁte": 7509,
      "ĠaÃ§Ä±sÄ±ndan": 7510,
      "ĠBirinci": 7511,
      "cadele": 7512,
      "ndle": 7513,
      "Ġcome": 7514,
      "Ġfam": 7515,
      "ters": 7516,
      "ider": 7517,
      "268": 7518,
      "Ġmix": 7519,
      "Ġcompli": 7520,
      "Ġformulating": 7521,
      "Ġconcentra": 7522,
      "ĠkÃ¼Ã§": 7523,
      "izden": 7524,
      "hazÄ±r": 7525,
      "Ġzorlayan": 7526,
      "lerseniz": 7527,
      "ĠZeyneple": 7528,
      "ĠplanlÄ±": 7529,
      "Ġdilini": 7530,
      "Ġuykudan": 7531,
      "ĠprogramÄ±nÄ±": 7532,
      "ĠInvite": 7533,
      "Ġilerlemeniz": 7534,
      "ĠaydÄ±nla": 7535,
      "ĠplanlamayÄ±": 7536,
      "...\")": 7537,
      "poz": 7538,
      "Ġyuvar": 7539,
      "Ġsorusunu": 7540,
      "Ġbelirtirseniz": 7541,
      "ĠgÃ¼lÃ¼m": 7542,
      "ĠkalabalÄ±k": 7543,
      "IM": 7544,
      "Ġdefa": 7545,
      "Ġbehaviors": 7546,
      "âĢĶlike": 7547,
      "Ġengaging": 7548,
      "ĠSpeak": 7549,
      "510": 7550,
      "534": 7551,
      "Ġpir": 7552,
      "Ġod": 7553,
      "ĠanlamlÄ±": 7554,
      "264": 7555,
      "luÄŁa": 7556,
      "Ġtrusted": 7557,
      "Ġext": 7558,
      "Ġsorununu": 7559,
      "ĠoluÅŁturmaya": 7560,
      "ĠakÅŁamÄ±": 7561,
      "Ġensures": 7562,
      "Ġrutinler": 7563,
      "ĠbaÅŁlarsanÄ±z": 7564,
      "ĠkolaylaÅŁÄ±r": 7565,
      "Ġkaydedip": 7566,
      "Ġkeyifli": 7567,
      "500": 7568,
      "gu": 7569,
      "pr": 7570,
      "Ġreally": 7571,
      "Ġnoise": 7572,
      "Ġunderstands": 7573,
      "Ġimpul": 7574,
      "ï¸ıâ": 7575,
      "fotoÄŁraf": 7576,
      "Ġkurarak": 7577,
      "ceÄŁi": 7578,
      "lek": 7579,
      "ĠyÄ±": 7580,
      "Ġderece": 7581,
      "ĠkÄ±la": 7582,
      "Ġanah": 7583,
      "ĠzamanÄ±n": 7584,
      "ĠdeÄŁeri": 7585,
      "Ġbelirten": 7586,
      "lenmesi": 7587,
      "Ġbelirleme": 7588,
      "ĠtÃ¼rÃ¼ne": 7589,
      "ĠbÄ±rakmayÄ±n": 7590,
      "ĠkamerayÄ±": 7591,
      "Ġsohbeti": 7592,
      "Ġgetirmek": 7593,
      "ĠKonuyu": 7594,
      "ĠgÃ¼Ã§lendirir": 7595,
      "Ġkenar": 7596,
      "814": 7597,
      "Ġfore": 7598,
      "903": 7599,
      "Ġopini": 7600,
      "Ġstructure": 7601,
      "ete": 7602,
      "kab": 7603,
      "Ġcard": 7604,
      "ĠDolayÄ±sÄ±yla": 7605,
      "Ġkategor": 7606,
      "Ġneyin": 7607,
      "suna": 7608,
      "254": 7609,
      "Ġokur": 7610,
      "274": 7611,
      "ĠseÃ§tiÄŁiniz": 7612,
      "Ġkop": 7613,
      "Ġmakine": 7614,
      "Ġdurumlarda": 7615,
      "ĠodaklanmaktÄ±r": 7616,
      "Ġduya": 7617,
      "ĠdÃ¼ÅŁÃ¼nme": 7618,
      "Ġprefer": 7619,
      "Ġgide": 7620,
      "ĠihtiyacÄ±n": 7621,
      "Ġkazanmak": 7622,
      "ĠetkinliÄŁi": 7623,
      "Ġportre": 7624,
      "Ġuykusuz": 7625,
      "Ġlikely": 7626,
      "isf": 7627,
      "Ġdeli": 7628,
      "374": 7629,
      "Ġoutcome": 7630,
      "ĠTrack": 7631,
      "-e": 7632,
      "530": 7633,
      "How": 7634,
      "lated": 7635,
      "ĠDikkat": 7636,
      "orba": 7637,
      "ene": 7638,
      "ĠBilgi": 7639,
      "Ġza": 7640,
      "larken": 7641,
      "neden": 7642,
      "Ġtidying": 7643,
      "Ġbuz": 7644,
      "ĠsÃ¼reler": 7645,
      "Ġyolunu": 7646,
      "kalem": 7647,
      "ĠgÃ¶rÃ¼l": 7648,
      "Ġlose": 7649,
      "ĠfarkÄ±": 7650,
      "ĠsÃ¶yleye": 7651,
      "Ġtension": 7652,
      "ĠdÃ¼ÅŁÃ¼rÃ¼r": 7653,
      "ĠÃ¶ÄŁrendiÄŁiniz": 7654,
      "ĠhÄ±zlandÄ±rÄ±r": 7655,
      "Ġsuyunu": 7656,
      "Ġdraining": 7657,
      "Ġabsolute": 7658,
      "ðŁ": 7659,
      "Ġworkout": 7660,
      "Ġtrips": 7661,
      "Ġsatisf": 7662,
      "ï¸ıâĥ": 7663,
      "Eat": 7664,
      "tmek": 7665,
      "vuz": 7666,
      "Ġhep": 7667,
      "Ġbirim": 7668,
      "Ġdro": 7669,
      "lÄ±ÄŁÄ±nÄ±z": 7670,
      "Ġzem": 7671,
      "Ġmist": 7672,
      "uge": 7673,
      "ĠyapmayÄ±n": 7674,
      "**.Ċ": 7675,
      "ĠyazdÄ±ÄŁÄ±nÄ±z": 7676,
      "Ġmaxim": 7677,
      "338": 7678,
      "ĠseÃ§erken": 7679,
      "ĠalÄ±rken": 7680,
      "Ġhedefini": 7681,
      "Ġcancel": 7682,
      "Ġcompletion": 7683,
      "902": 7684,
      "Ġayarlamak": 7685,
      "ĠgÃ¶revlerin": 7686,
      "Ġkahves": 7687,
      "ĠbaÄŁÄ±m": 7688,
      "Ġmisin": 7689,
      "melidir": 7690,
      "ĠÃ§evren": 7691,
      "Ġedersiniz": 7692,
      "ĠkuralÄ±": 7693,
      "Ġdikkatlice": 7694,
      "ĠÄ°stediÄŁiniz": 7695,
      "Ġalign": 7696,
      "ï¸ıâĥ£": 7697,
      "Ġjargon": 7698,
      "ĠFrog": 7699,
      "901": 7700,
      "Ġmissing": 7701,
      "418": 7702,
      "gÃ¶z": 7703,
      "erti": 7704,
      "Ġconcre": 7705,
      "Ġuyurken": 7706,
      "ĠplanlanmÄ±ÅŁ": 7707,
      "ĠKar": 7708,
      "ĠtutarlÄ±": 7709,
      "ĠdakikasÄ±": 7710,
      "398": 7711,
      "Ġdirek": 7712,
      "Ġilerleyen": 7713,
      "osing": 7714,
      "Ġclarify": 7715,
      "ability": 7716,
      "ĠConsistent": 7717,
      "Ġaddress": 7718,
      "ĠyÃ¶netmek": 7719,
      "Ġdefterine": 7720,
      "ĠbaÅŁlÄ±yorsanÄ±z": 7721,
      "Ġparaphrasing": 7722,
      "Ġconcrete": 7723,
      "535": 7724,
      "Ġprom": 7725,
      "lÄ±nda": 7726,
      "Ġzaten": 7727,
      "Ġ(\"": 7728,
      "Ġetmenizi": 7729,
      "layalÄ±m": 7730,
      "ĠalanlarÄ±nÄ±": 7731,
      "Ġnefesini": 7732,
      "ĠyarÄ±m": 7733,
      "ĠaÃ§Ä±klama": 7734,
      "ĠparÃ§a": 7735,
      "Ġsistemini": 7736,
      "ĠendiÅŁ": 7737,
      "ĠoluÅŁturarak": 7738,
      "ĠÃ¶ÄŁrendik": 7739,
      "735": 7740,
      "onda": 7741,
      "Ġfour": 7742,
      "lub": 7743,
      "night": 7744,
      "diniz": 7745,
      "Ġkart": 7746,
      "Ġhitap": 7747,
      "ĠEyl": 7748,
      "ĠkaÅŁÄ±k": 7749,
      "ĠAc": 7750,
      "utral": 7751,
      "ĠdayalÄ±": 7752,
      "ĠdeÄŁiÅŁtirerek": 7753,
      "Ġkalb": 7754,
      "ĠÃ§alÄ±ÅŁmaktÄ±r": 7755,
      "Ġhedeflere": 7756,
      "Ġizleme": 7757,
      "ĠUyg": 7758,
      "acaÄŁÄ±nÄ±zÄ±": 7759,
      "ĠortamÄ±": 7760,
      "ĠkolaylaÅŁtÄ±rÄ±n": 7761,
      "ĠkazanÄ±m": 7762,
      "ĠsÃ¶zlÃ¼k": 7763,
      "ĠElinizde": 7764,
      "ĠuygulamalarÄ±nÄ±": 7765,
      "ĠduyduÄŁun": 7766,
      "ĠGÃ¶revlerinizi": 7767,
      "Ġkompoz": 7768,
      "Ġupdates": 7769,
      "ĠBazen": 7770,
      "ĠEylÃ¼l": 7771,
      "-t": 7772,
      "714": 7773,
      "815": 7774,
      "Ġpriority": 7775,
      "ĠTur": 7776,
      "Ġmessy": 7777,
      "Ġdeadline": 7778,
      "515": 7779,
      "Son": 7780,
      "tile": 7781,
      "dÄ±ÄŁÄ±n": 7782,
      "ĠgÃ¼rÃ¼l": 7783,
      "izyon": 7784,
      "Ġkare": 7785,
      "Ã¼nÃ¼n": 7786,
      "Ġneutral": 7787,
      "ĠzorlaÅŁtÄ±r": 7788,
      "ĠÃ§ubuk": 7789,
      "ĠkullanÄ±rken": 7790,
      "ĠdoÄŁum": 7791,
      "ĠasansÃ¶r": 7792,
      "Ġoturarak": 7793,
      "ĠodaklanmÄ±ÅŁ": 7794,
      "Ġtelefonu": 7795,
      "ĠaÃ§Ä±lÄ±": 7796,
      "ĠolanlarÄ±": 7797,
      "Ġsani": 7798,
      "ĠseÃ§enektir": 7799,
      "ĠgÃ¶rÃ¼nÃ¼r": 7800,
      "ĠbÃ¼tÃ¼n": 7801,
      "ĠtanÄ±mlayÄ±n": 7802,
      "Ġinitially": 7803,
      "Ġgidiyor": 7804,
      "Ġawake": 7805,
      "Ġtablet": 7806,
      "Ġmetaboliz": 7807,
      "549": 7808,
      "One": 7809,
      "Ġclub": 7810,
      "Ġcontinu": 7811,
      "Ġpiece": 7812,
      "837": 7813,
      "Ay": 7814,
      "rayÄ±": 7815,
      "Ġkum": 7816,
      "ÅŁek": 7817,
      "Ã¶nce": 7818,
      "Ġfer": 7819,
      "Ġnem": 7820,
      "Ġhay": 7821,
      "ĠAynÄ±": 7822,
      "ĠalÄ±ÅŁkanlÄ±klarÄ±nÄ±zÄ±": 7823,
      "Ġuzat": 7824,
      "ĠvÃ¼cudu": 7825,
      "ĠÃ¶ÄŁrenerek": 7826,
      "Ġkaydetmek": 7827,
      "Ã¼ÅŁÃ¼nce": 7828,
      "Ġsindirim": 7829,
      "600": 7830,
      "Ġtype": 7831,
      "-see": 7832,
      "-essenti": 7833,
      "615": 7834,
      "ndÄ±": 7835,
      "Ġhaber": 7836,
      "Ġkarak": 7837,
      "ĠyazdÄ±r": 7838,
      "lenin": 7839,
      "Ġkullanmaktan": 7840,
      "Ã¼rekli": 7841,
      "364": 7842,
      "Ġhobi": 7843,
      "ĠAyÅŁe": 7844,
      "ĠgÃ¼veni": 7845,
      "ĠbaÅŁlayabileceÄŁiniz": 7846,
      "ĠnetleÅŁ": 7847,
      "Ġexpand": 7848,
      "Ġadim": 7849,
      "htiya": 7850,
      "Ġteknoloj": 7851,
      "ĠkaynaklarÄ±": 7852,
      "ĠkÃ¶k": 7853,
      "Ġmeditasyon": 7854,
      "Ġlisteleyin": 7855,
      "ĠkavramlarÄ±": 7856,
      "517": 7857,
      "Ġnut": 7858,
      "Ġhit": 7859,
      "ĠYouTube": 7860,
      "Ġinerti": 7861,
      "Ġlun": 7862,
      "cies": 7863,
      "Ġnotice": 7864,
      "Ġworkday": 7865,
      "Ġinertia": 7866,
      "-c": 7867,
      "715": 7868,
      "HÄ±zlÄ±": 7869,
      "amak": 7870,
      "you": 7871,
      "ceÄŁinizi": 7872,
      "ulmuÅŁ": 7873,
      "lÄ±ÄŁÄ±n": 7874,
      "eyim": 7875,
      "ĠdÃ¼zgÃ¼n": 7876,
      "iliar": 7877,
      "Ġaramak": 7878,
      "Ġmotivasyonunuzu": 7879,
      "ĠÄ±ÅŁÄ±ÄŁÄ±nda": 7880,
      "Ġedebilir": 7881,
      "ĠbahÃ§enizi": 7882,
      "ĠdeÄŁiÅŁir": 7883,
      "Ġsohbetler": 7884,
      "ĠSÃ¼reÃ§": 7885,
      "Ġpassively": 7886,
      "Ġvalidate": 7887,
      "Ġtablo": 7888,
      "Ġsaniyelik": 7889,
      "ĠYemek": 7890,
      "Ġdirekt": 7891,
      "516": 7892,
      "536": 7893,
      "630": 7894,
      "812": 7895,
      "ism": 7896,
      "ceri": 7897,
      "inle": 7898,
      "tek": 7899,
      "Ġbulabilirsiniz": 7900,
      "Ġspread": 7901,
      "Ġokun": 7902,
      "ĠayarÄ±": 7903,
      "ĠiÅŁlerini": 7904,
      "ĠgÃ¼nÃ¼ne": 7905,
      "ĠayÄ±rma": 7906,
      "Ġediyor": 7907,
      "ĠgÃ¶ndermek": 7908,
      "ĠgÃ¶steren": 7909,
      "Ġglasses": 7910,
      "Ġchoosing": 7911,
      "52": 7912,
      "ĠDef": 7913,
      "Ġtelev": 7914,
      "449": 7915,
      "In": 7916,
      "Ġ/": 7917,
      "ĠbirleÅŁtir": 7918,
      "active": 7919,
      "Ġvermeden": 7920,
      "Ġdost": 7921,
      "ĠElifle": 7922,
      "Ġkalmak": 7923,
      "143": 7924,
      "Ġdilinizi": 7925,
      "Ġyemekler": 7926,
      "ĠsÃ¼recek": 7927,
      "Ġdurumunuza": 7928,
      "arklÄ±": 7929,
      "ĠÄ°stanbullu": 7930,
      "Ġizleyebilirsiniz": 7931,
      "ĠhatasÄ±": 7932,
      "ĠyÃ¼rÃ¼menizi": 7933,
      "Ġparka": 7934,
      "mezsiniz": 7935,
      "ĠakÄ±ÅŁÄ±nÄ±": 7936,
      "-wake": 7937,
      "Ġhiking": 7938,
      "729": 7939,
      "836": 7940,
      "eti": 7941,
      "Ġsens": 7942,
      "Ġanswers": 7943,
      "Ġlists": 7944,
      "Ġrewarding": 7945,
      "Ġpopular": 7946,
      "Ġdisrupt": 7947,
      "Ġrefresh": 7948,
      "titude": 7949,
      "514": 7950,
      "614": 7951,
      "616": 7952,
      "ulacak": 7953,
      "Ġbiridir": 7954,
      "ĠÃ¶rne": 7955,
      "ĠbaÅŁÄ±nÄ±": 7956,
      "Ġverip": 7957,
      "ĠRut": 7958,
      "mall": 7959,
      "Ã¼yle": 7960,
      "Ġrota": 7961,
      "Ġkendisini": 7962,
      "Ġovercome": 7963,
      "394": 7964,
      "ĠoluÅŁturup": 7965,
      "Ġmesajda": 7966,
      "Ġhissetmeniz": 7967,
      "Ġtamamlama": 7968,
      "Ġsunmak": 7969,
      "Ã¼nÃ¼zÃ¼n": 7970,
      "ĠgÃ¶rÃ¼nÃ¼m": 7971,
      "Ġgetirir": 7972,
      "Ġgetirerek": 7973,
      "ĠcÃ¼mlede": 7974,
      "ĠsabÄ±rsÄ±z": 7975,
      "Ġsorusuna": 7976,
      "ĠKahvaltÄ±": 7977,
      "Ġcombat": 7978,
      "ĠtadÄ±nÄ±": 7979,
      "749": 7980,
      "834": 7981,
      "ata": 7982,
      "710": 7983,
      "zor": 7984,
      "ĠyatÄ±p": 7985,
      "Ġdaire": 7986,
      "Ġinte": 7987,
      "Ġstren": 7988,
      "sta": 7989,
      "ĠkullanÄ±la": 7990,
      "ereden": 7991,
      "Ġekra": 7992,
      "ions": 7993,
      "Ġseviye": 7994,
      "Ġinterrupt": 7995,
      "ĠanlatÄ±m": 7996,
      "ĠÃ¼zerindeki": 7997,
      "ĠaÃ§Ä±dan": 7998,
      "Ġbulundurarak": 7999,
      "Ġsebzeler": 8000,
      "830": 8001,
      "142": 8002,
      "008": 8003,
      "Ġcolor": 8004,
      "Ġelectronics": 8005,
      "ĠAccept": 8006,
      "489": 8007,
      "eÃ§": 8008,
      "hum": 8009,
      "Ġseni": 8010,
      "Ġterim": 8011,
      "Ġflo": 8012,
      "Ġreducing": 8013,
      "lamanÄ±zÄ±": 8014,
      "ĠbulmanÄ±z": 8015,
      "Ġhedeflerini": 8016,
      "ĠsÃ¼rece": 8017,
      "Ġekleme": 8018,
      "resim": 8019,
      "ĠhÄ±zlandÄ±ra": 8020,
      "layabilir": 8021,
      "ĠbakÄ±p": 8022,
      "Ġrutine": 8023,
      "ĠgeÃ§irmeye": 8024,
      "ĠuyanÄ±nca": 8025,
      "Ġgrand": 8026,
      "ĠaltyapÄ±": 8027,
      "Ġclarification": 8028,
      "Ġtarget": 8029,
      "Ġconnected": 8030,
      "ĠTekrar": 8031,
      "Ġjudging": 8032,
      "ĠalÄ±ÅŁkanlÄ±ÄŁÄ±nÄ±zÄ±": 8033,
      "Ġdengeyi": 8034,
      "Ġverebilirim": 8035,
      "Ġkompozisyon": 8036,
      "journey": 8037,
      "Ġflash": 8038,
      "Ġbuy": 8039,
      "Ġimproves": 8040,
      "Ġclothing": 8041,
      "Ġconsider": 8042,
      "438": 8043,
      "mÃ¼ÅŁ": 8044,
      "lÄ±ÄŁÄ±nÄ±zÄ±": 8045,
      "larÄ±m": 8046,
      "Ġuc": 8047,
      "Ä°ki": 8048,
      "Ġvaz": 8049,
      "Ġtutan": 8050,
      "ĠkullandÄ±": 8051,
      "ĠiÅŁten": 8052,
      "Ġworri": 8053,
      "inyal": 8054,
      "Ġerk": 8055,
      "lemeleri": 8056,
      "ĠortasÄ±nda": 8057,
      "ĠbÄ±rakma": 8058,
      "ĠÃĸÄŁle": 8059,
      "ĠEvinizin": 8060,
      "ĠgÃ¶rÃ¼ntÃ¼": 8061,
      "Ġduygu": 8062,
      "ĠdeÄŁerlendirin": 8063,
      "Ġhesaplama": 8064,
      "ĠbaÅŁlangÄ±cÄ±nÄ±": 8065,
      "617": 8066,
      "817": 8067,
      "Ġmemorize": 8068,
      "Ġarrival": 8069,
      "Ġslip": 8070,
      "Ġmovie": 8071,
      "Ġconcentration": 8072,
      "789": 8073,
      "ada": 8074,
      "of": 8075,
      "ture": 8076,
      "ĠÄ±z": 8077,
      "ceÄŁim": 8078,
      "dÄ±ÄŁÄ±m": 8079,
      "ĠDoÄŁru": 8080,
      "lÄ±ÄŁa": 8081,
      "ĠGel": 8082,
      "Ġmodu": 8083,
      "ĠMayayla": 8084,
      "ĠCanva": 8085,
      "ĠfotoÄŁrafÄ±nÄ±": 8086,
      "Ġhedefin": 8087,
      "Ġedit": 8088,
      "ĠkarÅŁ": 8089,
      "Ġdurak": 8090,
      "Ġelinde": 8091,
      "Ġalanlara": 8092,
      "ĠdÃ¼ÅŁÃ¼nmeye": 8093,
      "ĠsÄ±kÃ§a": 8094,
      "Ġkonudaki": 8095,
      "Ġvakti": 8096,
      "Ġtarihi": 8097,
      "ĠdeÄŁerini": 8098,
      "Ġhavuzun": 8099,
      "ĠSorun": 8100,
      "Ġinitiating": 8101,
      "soli": 8102,
      "Ġvadede": 8103,
      "ĠyataÄŁa": 8104,
      "ĠbardaÄŁÄ±": 8105,
      "736": 8106,
      "din": 8107,
      "Ġpassive": 8108,
      "Ġfailure": 8109,
      "GÃ¶r": 8110,
      "yu": 8111,
      "zaman": 8112,
      "ĠbÃ¶yle": 8113,
      "memiÅŁ": 8114,
      "ĠSur": 8115,
      "Ġverecek": 8116,
      "Ġdomates": 8117,
      "ĠHuzur": 8118,
      "enizin": 8119,
      "ĠÅŁeh": 8120,
      "Ġkalkarak": 8121,
      "ĠyÃ¼rÃ¼yÃ¼ÅŁler": 8122,
      "ÄŁinde": 8123,
      "ceksiniz": 8124,
      "amaz": 8125,
      "ĠdÃ¼zenlemeyi": 8126,
      "Ġexplicit": 8127,
      "Ġdinamik": 8128,
      "Ġtemizle": 8129,
      "ĠkiÅŁilere": 8130,
      "ĠÅŁeylerden": 8131,
      "Ġexperience": 8132,
      "pause": 8133,
      "Ġcabinet": 8134,
      "537": 8135,
      "915": 8136,
      "gth": 8137,
      "gency": 8138,
      "Ġidea": 8139,
      "Ġnavigate": 8140,
      "Ġhormon": 8141,
      "829": 8142,
      "inci": 8143,
      "Ġtou": 8144,
      "dÄ±nÄ±z": 8145,
      "Ġfel": 8146,
      "Ä°ÅŁ": 8147,
      "Ġolduk": 8148,
      "Ġreser": 8149,
      "Ġkendinizle": 8150,
      "294": 8151,
      "ĠdoÄŁuÅŁ": 8152,
      "Ġyollar": 8153,
      "ĠyollarÄ±": 8154,
      "ĠgÃ¶rÃ¼nen": 8155,
      "Ġbitkilerin": 8156,
      "Ġkoltuk": 8157,
      "ĠfÄ±rsatÄ±": 8158,
      "713": 8159,
      "Ġconcer": 8160,
      "ounda": 8161,
      "vey": 8162,
      "Ġfounda": 8163,
      "Ġshoes": 8164,
      "Ġmonths": 8165,
      "-light": 8166,
      "730": 8167,
      "Ġserin": 8168,
      "Ġsinyal": 8169,
      "ĠElinde": 8170,
      "ĠTah": 8171,
      "temel": 8172,
      "ĠkaÅŁÄ±": 8173,
      "Ġbulur": 8174,
      "ĠayÄ±nÄ±n": 8175,
      "ĠgÃ¶k": 8176,
      "ĠeÅŁit": 8177,
      "Ġtoplanacak": 8178,
      "idjourney": 8179,
      "ĠgÃ¶rÃ¼r": 8180,
      "Ġayarlayarak": 8181,
      "Ġgirmek": 8182,
      "memiz": 8183,
      "tirici": 8184,
      "Ġbenz": 8185,
      "Ġkoruyarak": 8186,
      "Ġkahvesini": 8187,
      "Ġferah": 8188,
      "Ġspreadsh": 8189,
      "ĠSurround": 8190,
      "iling": 8191,
      "lights": 8192,
      "Ġoption": 8193,
      "Ġwebsite": 8194,
      "Daha": 8195,
      "istik": 8196,
      "Ġign": 8197,
      "tebilirsiniz": 8198,
      "saÄŁ": 8199,
      "yeti": 8200,
      "Ġevinizi": 8201,
      "ĠtemasÄ±": 8202,
      "ĠalÄ±ÅŁkanlÄ±ÄŁÄ±nÄ±": 8203,
      "Ġisteyin": 8204,
      "Ġdinlemeyi": 8205,
      "ĠduyarlÄ±": 8206,
      "Ä±lmasÄ±": 8207,
      "ĠrahatsÄ±z": 8208,
      "ĠyorgunluÄŁu": 8209,
      "tuÄŁu": 8210,
      "ĠLearn": 8211,
      "Ġayakkab": 8212,
      "ĠaÅŁamada": 8213,
      "ĠÄ°liÅŁk": 8214,
      "Ġgereksinim": 8215,
      "Ġlunch": 8216,
      "ĠBatch": 8217,
      "start": 8218,
      "enty": 8219,
      "Ġchallenges": 8220,
      "Ġtwenty": 8221,
      "Ġacknowledge": 8222,
      "Ġoverthinking": 8223,
      "Ġstrength": 8224,
      "480": 8225,
      "529": 8226,
      "612": 8227,
      "zar": 8228,
      "ĠYol": 8229,
      "ĠkayÄ±p": 8230,
      "ĠSo": 8231,
      "Ġneye": 8232,
      "Ġsorum": 8233,
      "Ġsormaktan": 8234,
      "ĠodasÄ±": 8235,
      "ĠarayÃ¼z": 8236,
      "ĠsaÄŁla": 8237,
      "007": 8238,
      "ĠdiÄŁ": 8239,
      "ĠdÃ¼ÅŁÃ¼nelim": 8240,
      "Ġdinlemeye": 8241,
      "Ġseviyede": 8242,
      "Ġmetni": 8243,
      "ĠgÃ¶stere": 8244,
      "Ġkaybetmeden": 8245,
      "ĠBaÅŁarÄ±lar": 8246,
      "Ġtelevizyon": 8247,
      "512": 8248,
      "833": 8249,
      "849": 8250,
      "910": 8251,
      "Ġour": 8252,
      "Ġbigger": 8253,
      "800": 8254,
      "Tem": 8255,
      "tÄ±k": 8256,
      "Ġpila": 8257,
      "yÄ±z": 8258,
      "lanabilir": 8259,
      "lies": 8260,
      "Ġinsur": 8261,
      "Ġasla": 8262,
      "duÄŁunda": 8263,
      "001": 8264,
      "portun": 8265,
      "Ġduran": 8266,
      "ĠolursanÄ±z": 8267,
      "Åŀimdi": 8268,
      "Ġspaces": 8269,
      "Ġhayati": 8270,
      "Ġsabaha": 8271,
      "fety": 8272,
      "ĠgÃ¶rÃ¼ÅŁme": 8273,
      "ĠbaÅŁlarken": 8274,
      "ĠaÅŁaÄŁÄ±da": 8275,
      "ĠgÃ¼nÃ¼nÃ¼zÃ¼n": 8276,
      "ĠbelirtildiÄŁi": 8277,
      "Ġharcamak": 8278,
      "Ġdoldurun": 8279,
      "ĠÃ¶zgÃ¼ven": 8280,
      "-essential": 8281,
      "717": 8282,
      "Ġdish": 8283,
      "Ġface": 8284,
      "Ġopportun": 8285,
      "Ġvisually": 8286,
      "osity": 8287,
      "Ġsustain": 8288,
      "Ġinsurance": 8289,
      "533": 8290,
      "613": 8291,
      "737": 8292,
      "ctions": 8293,
      "sis": 8294,
      "ĠðŁ": 8295,
      "ersiniz": 8296,
      "related": 8297,
      "Ġorada": 8298,
      "abl": 8299,
      "Ġbasa": 8300,
      "ĠAma": 8301,
      "Ġuyul": 8302,
      "sÄ±k": 8303,
      "Ã¼zÃ¼n": 8304,
      "Ġbudur": 8305,
      "dition": 8306,
      "ĠRe": 8307,
      "ading": 8308,
      "ĠseÃ§meye": 8309,
      "Ġevinizde": 8310,
      "ĠaslÄ±nda": 8311,
      "Ġisters": 8312,
      "005": 8313,
      "Ġmotivasyonun": 8314,
      "Ġyararlan": 8315,
      "ĠgÃ¼venle": 8316,
      "Ä±lÄ±m": 8317,
      "Ġmindset": 8318,
      "Ġdedicating": 8319,
      "dunuz": 8320,
      "acaÄŁÄ±nÄ±": 8321,
      "Ã¼sÃ¼": 8322,
      "Ġliving": 8323,
      "ĠkÄ±smÄ±": 8324,
      "ĠHÄ±zlÄ±ca": 8325,
      "ĠkolaylaÅŁtÄ±racak": 8326,
      "Ġcomputers": 8327,
      "Ġreferans": 8328,
      "Ġerkenden": 8329,
      "635": 8330,
      "ceed": 8331,
      "ories": 8332,
      "Ġfacts": 8333,
      "Ġche": 8334,
      "Ġbeli": 8335,
      "006": 8336,
      "444": 8337,
      "Ġassig": 8338,
      "Ġsnacks": 8339,
      "636": 8340,
      "734": 8341,
      "835": 8342,
      "bÃ¼yÃ¼k": 8343,
      "Ġbirinde": 8344,
      "Ġfits": 8345,
      "ĠSah": 8346,
      "ĠÃ¶ngÃ¶r": 8347,
      "Ġzorlama": 8348,
      "ĠsadÄ±k": 8349,
      "**Ċ": 8350,
      "Ã¼yÃ¼ÅŁ": 8351,
      "Ġayr": 8352,
      "002": 8353,
      "004": 8354,
      "ĠamacÄ±": 8355,
      "ĠihtiyaÃ§larÄ±nÄ±": 8356,
      "ĠkaynaklanÄ±r": 8357,
      "Ġkutunun": 8358,
      "ĠÃ§evre": 8359,
      "ĠuyandÄ±r": 8360,
      "ĠSÄ±ra": 8361,
      "ĠÃ¶lÃ§Ã¼n": 8362,
      "Ġyatakta": 8363,
      "Ġsilent": 8364,
      "ĠyerleÅŁtirin": 8365,
      "Pair": 8366,
      "ĠCÃ¼mle": 8367,
      "Ġtencere": 8368,
      "Ġvoice": 8369,
      "Ġgeneral": 8370,
      "Ġgrabbing": 8371,
      "Ġsepete": 8372,
      "ĠpirinÃ§": 8373,
      "ĠvazgeÃ§": 8374,
      "72": 8375,
      "813": 8376,
      "Ġ[": 8377,
      "Ġant": 8378,
      "Ġsoli": 8379,
      "Ġgratitude": 8380,
      "Ġcuriosity": 8381,
      "Ġintent": 8382,
      "gerÃ§ek": 8383,
      "Ġtren": 8384,
      "Ã§ay": 8385,
      "ĠYÃ¼ksek": 8386,
      "ĠanÄ±nÄ±": 8387,
      "Ã¼rÃ¼st": 8388,
      "ĠgÃ¶nd": 8389,
      "dijital": 8390,
      "ike": 8391,
      "ĠakÄ±l": 8392,
      "003": 8393,
      "bileceÄŁini": 8394,
      "Ġdinner": 8395,
      "Ġazaltarak": 8396,
      "Ġrepla": 8397,
      "undry": 8398,
      "leyebilirsin": 8399,
      "Ġdetaylara": 8400,
      "Ġseviyenize": 8401,
      "ĠzorluklarÄ±nÄ±": 8402,
      "ĠEvdeki": 8403,
      "ĠÃ§ekimi": 8404,
      "ĠaraÃ§larÄ±nÄ±": 8405,
      "ĠseÃ§eneklerden": 8406,
      "ĠhayatÄ±nÄ±zda": 8407,
      "ĠsonuÃ§larÄ±": 8408,
      "malarÄ±nÄ±": 8409,
      "ĠvÃ¼cudunuzu": 8410,
      "Ġhavuzda": 8411,
      "duÄŁunuzda": 8412,
      "eynman": 8413,
      "Ġkalitenizi": 8414,
      "Ġkarakter": 8415,
      "ĠÄ±zga": 8416,
      "ĠoldukÃ§a": 8417,
      "589": 8418,
      "610": 8419,
      "889": 8420,
      "936": 8421,
      "ello": 8422,
      "ict": 8423,
      "Ġmark": 8424,
      "Ġstays": 8425,
      "Ġwould": 8426,
      "ĠBÃ¼t": 8427,
      "ĠiÃ§e": 8428,
      "ĠbaÅŁÄ±ndan": 8429,
      "yip": 8430,
      "ĠÄ°z": 8431,
      "ĠyazÄ±m": 8432,
      "eca": 8433,
      "Ġplana": 8434,
      "ours": 8435,
      "Ġpost": 8436,
      "ĠyÃ¶ntemlerden": 8437,
      "leÅŁtirme": 8438,
      "Ġhalde": 8439,
      "Ġconnectivity": 8440,
      "ĠHesap": 8441,
      "ĠseÃ§enekleri": 8442,
      "faf": 8443,
      "Ġinterruption": 8444,
      "ĠboÅŁalt": 8445,
      "ĠkeÅŁfetmeye": 8446,
      "ĠnumaranÄ±zÄ±": 8447,
      "ĠÃ¶zgÃ¼": 8448,
      "Ġfrustration": 8449,
      "ĠBunlar": 8450,
      "Ġtavsiyeler": 8451,
      "153": 8452,
      "Ġlaundry": 8453,
      "Ġrelated": 8454,
      "ĠTVs": 8455,
      "yna": 8456,
      "Ġversa": 8457,
      "ĠBil": 8458,
      "ĠadÄ±mlÄ±": 8459,
      "sÄ±cak": 8460,
      "ĠÄ°htiya": 8461,
      "Ġyapan": 8462,
      "ĠÅŁiÅŁ": 8463,
      "Ġetmen": 8464,
      "Ġherkes": 8465,
      "miyorum": 8466,
      "Ġkurtar": 8467,
      "Ġilerlemeye": 8468,
      "ĠÃ§Ä±kma": 8469,
      "ĠoluÅŁur": 8470,
      "ĠoluÅŁturmaktÄ±r": 8471,
      "Ġswap": 8472,
      "Ġetmekten": 8473,
      "Ġhalf": 8474,
      "ĠyavaÅŁlat": 8475,
      "ĠyaÅŁar": 8476,
      "Ġdepends": 8477,
      "ĠGÃ¼venli": 8478,
      "Ġsituation": 8479,
      "Ġucuz": 8480,
      "ecause": 8481,
      "\".": 8482,
      "431": 8483,
      "513": 8484,
      "532": 8485,
      "916": 8486,
      "Ġaff": 8487,
      "ĠBundle": 8488,
      "Ġmodern": 8489,
      "AÃ§Ä±k": 8490,
      "NasÄ±l": 8491,
      "Ġtohum": 8492,
      "ĠyaÅŁÄ±": 8493,
      "ĠkÄ±l": 8494,
      "liÄŁe": 8495,
      "ĠbaÅŁÄ±": 8496,
      "Ġdek": 8497,
      "Ġnef": 8498,
      "ĠgÃ¼nÃ¼m": 8499,
      "Ġstrugg": 8500,
      "lerdeki": 8501,
      "ĠyazmayÄ±": 8502,
      "Ġente": 8503,
      "Ġboo": 8504,
      "ĠfotoÄŁrafÃ§": 8505,
      "Ġkendinizden": 8506,
      "ĠÃ§ekerek": 8507,
      "Ġevinize": 8508,
      "duÄŁun": 8509,
      "ĠodaklanmanÄ±z": 8510,
      "ĠGÃ¼nÃ¼nde": 8511,
      "Ġkursuna": 8512,
      "Ġloop": 8513,
      "ĠhazÄ±rlayÄ±p": 8514,
      "Ġlaz": 8515,
      "ĠprogramÄ±na": 8516,
      "Ġseviyesinde": 8517,
      "ĠSeÃ§": 8518,
      "ĠSÄ±radan": 8519,
      "ĠyaratÄ±n": 8520,
      "ĠakÄ±ÅŁÄ±": 8521,
      "Ġtotaling": 8522,
      "Ġaccusations": 8523,
      "ĠuÃ§ak": 8524,
      "Ġmesafeyi": 8525,
      "ĠbazÄ±": 8526,
      "ĠkazandÄ±rÄ±r": 8527,
      "Ġalerts": 8528,
      "Ġezber": 8529,
      "Ġfoundation": 8530,
      "520": 8531,
      "913": 8532,
      "rame": 8533,
      "Ġgaps": 8534,
      "ĠFin": 8535,
      "Ġsays": 8536,
      "634": 8537,
      "Uy": 8538,
      "ala": 8539,
      "ÅŁi": 8540,
      "ĠTreat": 8541,
      "ĠSÃ¶z": 8542,
      "Ġolman": 8543,
      "lamalarÄ±": 8544,
      "stac": 8545,
      "undaki": 8546,
      "Ġsafety": 8547,
      "ĠilginÃ§": 8548,
      "ĠiÅŁte": 8549,
      "ĠsÃ¼releri": 8550,
      "ĠgÃ¶revin": 8551,
      "ĠadÄ±mlarÄ±nÄ±zÄ±": 8552,
      "ĠÄ±ÅŁÄ±klandÄ±rma": 8553,
      "ĠdÃ¶ng": 8554,
      "Ġknowledge": 8555,
      "Ġverirken": 8556,
      "ĠbeÄŁen": 8557,
      "Pause": 8558,
      "712": 8559,
      "935": 8560,
      "around": 8561,
      "ket": 8562,
      "tima": 8563,
      "Ġnega": 8564,
      "cks": 8565,
      "Ġalso": 8566,
      "Ġhappiness": 8567,
      "Ġobstac": 8568,
      "-day": 8569,
      "637": 8570,
      "912": 8571,
      "?)": 8572,
      "inct": 8573,
      "Ġtah": 8574,
      "Ġiti": 8575,
      "Ġequ": 8576,
      "ĠAÅŁaÄŁÄ±daki": 8577,
      "ĠbaÅŁlÄ±ÄŁÄ±": 8578,
      "ĠÄ°l": 8579,
      "ĠMain": 8580,
      "ayarak": 8581,
      "ĠOna": 8582,
      "ĠalmanÄ±zÄ±": 8583,
      "Ġdilim": 8584,
      "ĠbahÃ§eyi": 8585,
      "ĠkullanabileceÄŁiniz": 8586,
      "ĠÃ§alÄ±ÅŁtÄ±r": 8587,
      "laÅŁÄ±k": 8588,
      "syonu": 8589,
      "arkÄ±": 8590,
      "ĠayarlarÄ±": 8591,
      "ĠbaÄŁla": 8592,
      "ĠprogramÄ±nÄ±zÄ±": 8593,
      "Ġuyanma": 8594,
      "Ġanlatmak": 8595,
      "ĠbaÄŁlÄ±dÄ±r": 8596,
      "ĠyaÅŁamak": 8597,
      "Ġparaly": 8598,
      "Ġlabels": 8599,
      "Ġkonforlu": 8600,
      "Ġkenara": 8601,
      "ĠduyduÄŁu": 8602,
      "ĠÃ§ocuk": 8603,
      "ĠMaintain": 8604,
      "716": 8605,
      "733": 8606,
      "ms": 8607,
      "141": 8608,
      "Ġsuppor": 8609,
      "Ġseems": 8610,
      "Ġboosts": 8611,
      "-a": 8612,
      "930": 8613,
      "ÉĻ": 8614,
      "ero": 8615,
      "ĠSecond": 8616,
      "ĠgÃ¼nleri": 8617,
      "Ä±rsanÄ±z": 8618,
      "Ġkalmadan": 8619,
      "ĠbitiÅŁ": 8620,
      "portant": 8621,
      "ĠalanlarÄ±na": 8622,
      "ilerini": 8623,
      "ĠsorunlarÄ±na": 8624,
      "leÅŁtirilmiÅŁ": 8625,
      "ĠkalktÄ±ktan": 8626,
      "ĠtakÄ±l": 8627,
      "Ġsesini": 8628,
      "ĠÅŀimdilik": 8629,
      "Ġdiscard": 8630,
      "ĠhatÄ±rlayÄ±n": 8631,
      "ĠhayatÄ±nÄ±zÄ±": 8632,
      "Ġdesteklemek": 8633,
      "Ġromanlar": 8634,
      "Ġdinlene": 8635,
      "Ġsites": 8636,
      "Ġharcam": 8637,
      "Ġmeyve": 8638,
      "811": 8639,
      "inen": 8640,
      "Ġice": 8641,
      "ĠDi": 8642,
      "Ġstack": 8643,
      "the": 8644,
      "ensive": 8645,
      "Ġexercises": 8646,
      "Ġreplacing": 8647,
      "plan": 8648,
      "tÄ±m": 8649,
      "Ġcup": 8650,
      "ĠEk": 8651,
      "yacak": 8652,
      "Ġtoz": 8653,
      "Ġkade": 8654,
      "Ġbaha": 8655,
      "Ġdk": 8656,
      "ĠyapmanÄ±n": 8657,
      "ĠGerÃ§ek": 8658,
      "ĠzamanÄ±nÄ±z": 8659,
      "eyerek": 8660,
      "ĠgÃ¶l": 8661,
      "Ġanswering": 8662,
      "ĠÃ¶ÄŁrenmeniz": 8663,
      "ĠÃ§ektiÄŁiniz": 8664,
      "Ġdakikaya": 8665,
      "Ġdiving": 8666,
      "elerinizi": 8667,
      "Ġyoluyla": 8668,
      "Ġkursu": 8669,
      "lamasÄ±nÄ±": 8670,
      "Ġtava": 8671,
      "malÄ±yÄ±m": 8672,
      "Ġritim": 8673,
      "ĠazaltÄ±p": 8674,
      "ĠaÃ§Ä±klayÄ±cÄ±": 8675,
      "Ġinceleyebilirsiniz": 8676,
      "ĠdÃ¶kÃ¼": 8677,
      "ayÄ±p": 8678,
      "Ġyataktan": 8679,
      "ĠÃ§iÃ§ekler": 8680,
      "ĠalÄ±ÅŁkanlÄ±ÄŁÄ±n": 8681,
      "ĠÃ§ekinmeyin": 8682,
      "Ġemergency": 8683,
      "ĠÄ°lgili": 8684,
      "Ġesnek": 8685,
      "92": 8686,
      "Ġsm": 8687,
      "ules": 8688,
      "Ġrely": 8689,
      "Ġusual": 8690,
      "Ġspreadsheet": 8691,
      "Ġversatile": 8692,
      "629": 8693,
      "933": 8694,
      "Duolingo": 8695,
      "yiz": 8696,
      "Ġrental": 8697,
      "Ġverici": 8698,
      "Ġzamanlar": 8699,
      "ĠgÃ¶rebilirsiniz": 8700,
      "ĠdÃ¼zenleyerek": 8701,
      "Ġtrivi": 8702,
      "sÄ±ndaki": 8703,
      "Ġekranlardan": 8704,
      "Ġassign": 8705,
      "Ġobser": 8706,
      "tiÄŁinde": 8707,
      "Ġeliminating": 8708,
      "ĠaÄŁrÄ±": 8709,
      "ĠyumuÅŁat": 8710,
      "ĠKullanÄ±cÄ±": 8711,
      "ĠayÄ±rttÄ±": 8712,
      "ĠmÃ¼cadele": 8713,
      "ĠyorgunluÄŁunu": 8714,
      "ĠÃĩoÄŁu": 8715,
      "Ġmistakes": 8716,
      "649": 8717,
      "Mert": 8718,
      "Focus": 8719,
      "can": 8720,
      "cÄ±nÄ±n": 8721,
      "sue": 8722,
      "isiniz": 8723,
      "Ġkick": 8724,
      "ĠbaÅŁv": 8725,
      "ĠolmanÄ±zÄ±": 8726,
      "Ġyapabil": 8727,
      "ĠtoplayÄ±n": 8728,
      "Ġyerlerden": 8729,
      "Ġstead": 8730,
      "ĠhazÄ±rlÄ±k": 8731,
      "Ġland": 8732,
      "Ġtemizleyip": 8733,
      "ekiÅŁ": 8734,
      "Ġsesi": 8735,
      "ĠyaptÄ±ÄŁÄ±nÄ±": 8736,
      "Ã¼sÃ¼nÃ¼": 8737,
      "Ġbilgilerin": 8738,
      "ĠdeÄŁerlendi": 8739,
      "ĠduygularÄ±nÄ±": 8740,
      "Ġincelemektir": 8741,
      "Â°C": 8742,
      "Ġnesne": 8743,
      "ĠDuygusal": 8744,
      "ĠsÄ±nÄ±f": 8745,
      "ĠkÄ±lavuz": 8746,
      "Sonra": 8747,
      "Ġmem": 8748,
      "stra": 8749,
      "Ġsever": 8750,
      "ĠPro": 8751,
      "Ġrules": 8752,
      "Ġnavigation": 8753,
      "Ġconfusion": 8754,
      "917": 8755,
      "Duyg": 8756,
      "Photoshop": 8757,
      "TÃ¼r": 8758,
      "bilen": 8759,
      "rit": 8760,
      "Ã§ak": 8761,
      "Ġdevice": 8762,
      "ĠÄ°n": 8763,
      "ĠbaÅŁlayalÄ±m": 8764,
      "ĠOdak": 8765,
      "Ġbuying": 8766,
      "ĠÅŁÃ¶yle": 8767,
      "sinden": 8768,
      "ĠÃ§alÄ±ÅŁÄ±p": 8769,
      "Ġdurumunda": 8770,
      "Ġelek": 8771,
      "Ġlamba": 8772,
      "Ġdownload": 8773,
      "ĠSonraki": 8774,
      "ĠÄ±ÅŁÄ±klarÄ±": 8775,
      "Ġsayesinde": 8776,
      "ĠdÄ±ÅŁÄ±na": 8777,
      "ĠMesajÄ±nÄ±z": 8778,
      "hedef": 8779,
      "Ġzihni": 8780,
      "ĠyaÅŁadÄ±ÄŁÄ±nÄ±z": 8781,
      "ĠbÃ¶lgeye": 8782,
      "ĠyastÄ±": 8783,
      "ĠsayÄ±nÄ±n": 8784,
      "Ġaloud": 8785,
      "Ġtrivial": 8786,
      "):**": 8787,
      "832": 8788,
      "Th": 8789,
      "yeni": 8790,
      "Ġrak": 8791,
      "Ġside": 8792,
      "rep": 8793,
      "unlu": 8794,
      "ĠBecause": 8795,
      "ĠSize": 8796,
      "ĠSÄ±nÄ±r": 8797,
      "arih": 8798,
      "ĠbuluÅŁmasÄ±": 8799,
      "likten": 8800,
      "Ġresminizi": 8801,
      "ĠÅŁart": 8802,
      "Ġmas": 8803,
      "Ġsprin": 8804,
      "ĠyÃ¼zeyi": 8805,
      "Ġyemekleri": 8806,
      "Ġbitire": 8807,
      "tÄ±l": 8808,
      "ĠsÃ¼reyle": 8809,
      "Ġisterim": 8810,
      "ĠarkadaÅŁÄ±nÄ±zla": 8811,
      "ÄŁÄ±nÄ±zdan": 8812,
      "ĠaÃ§arak": 8813,
      "meyecek": 8814,
      "Ġhissetmeyin": 8815,
      "ĠÃ§izimi": 8816,
      "Ġpencer": 8817,
      "Ġaktiviteye": 8818,
      "pass": 8819,
      "ĠoluÅŁturabilirsiniz": 8820,
      "Ġseferde": 8821,
      "coming": 8822,
      "Ġhafifletmek": 8823,
      "Ġdengesini": 8824,
      "Ġkurar": 8825,
      "Ġsubject": 8826,
      "Ġtas": 8827,
      "Ġquanti": 8828,
      "193": 8829,
      "Ġdistinct": 8830,
      "ĠInvest": 8831,
      "Ġperfectly": 8832,
      "Ġstronger": 8833,
      "531": 8834,
      "934": 8835,
      "Eisenhower": 8836,
      "bre": 8837,
      "pam": 8838,
      "Ġisten": 8839,
      "isinin": 8840,
      "ĠsÄ±rt": 8841,
      "ĠTe": 8842,
      "izmet": 8843,
      "ĠkÄ±ÅŁ": 8844,
      "Ġinan": 8845,
      "Ġtips": 8846,
      "ĠalgÄ±": 8847,
      "Ġsorulara": 8848,
      "ĠLondra": 8849,
      "anÄ±za": 8850,
      "ĠiÅŁine": 8851,
      "ource": 8852,
      "ĠgeÃ§erek": 8853,
      "Ġpace": 8854,
      "Ġsorununuz": 8855,
      "mesidir": 8856,
      "Ġdeepen": 8857,
      "ĠayarlayÄ±p": 8858,
      "Ġifadeler": 8859,
      "ĠgÃ¶zlemlemek": 8860,
      "larÄ±ndaki": 8861,
      "ĠPlanlama": 8862,
      "Ġsiteleri": 8863,
      "ĠdeÄŁiÅŁiklikler": 8864,
      "ĠÃ§oÄŁu": 8865,
      "Ġdengeli": 8866,
      "Ġbeyne": 8867,
      "Ġpleas": 8868,
      "Ġdekora": 8869,
      "ĠFinally": 8870,
      "\"**": 8871,
      "/no": 8872,
      "485": 8873,
      "633": 8874,
      "949": 8875,
      "ices": 8876,
      "Ġempt": 8877,
      "Ġvisa": 8878,
      "Ġdecisions": 8879,
      "Ġassigning": 8880,
      "689": 8881,
      "Ka": 8882,
      "ĠsÃ¼t": 8883,
      "dÄ±ÄŁÄ±na": 8884,
      "nded": 8885,
      "ĠiÃ§meye": 8886,
      "amÄ±yorum": 8887,
      "Ġverim": 8888,
      "ĠyapÄ±ÅŁ": 8889,
      "ĠÃ¶neride": 8890,
      "ĠzamanlÄ±": 8891,
      "ĠdeÄŁiÅŁtirme": 8892,
      "ĠÃ¶nceliÄŁi": 8893,
      "Ġsorul": 8894,
      "Ġokuyu": 8895,
      "ĠpiÅŁecek": 8896,
      "ĠkullanmayÄ±n": 8897,
      "ĠsÃ¼redir": 8898,
      "Ġilgileniyor": 8899,
      "kalÄ±": 8900,
      "ĠoluÅŁturmanÄ±z": 8901,
      "Ġyatmaya": 8902,
      "ĠderinleÅŁtir": 8903,
      "ĠsaygÄ±": 8904,
      "larÄ±nÄ±zdan": 8905,
      "ĠyÃ¼rÃ¼men": 8906,
      "ĠyÃ¼kÃ¼nÃ¼": 8907,
      "ĠgÃ¼neÅŁe": 8908,
      "Ġkaynaklanan": 8909,
      "ĠanlatÄ±n": 8910,
      "Ġaktivitelerle": 8911,
      "Ġaktivitelerden": 8912,
      "ĠuygulayabileceÄŁiniz": 8913,
      "ĠyaptÄ±k": 8914,
      "Ġmaximize": 8915,
      "ĠeditÃ¶r": 8916,
      "Ġentegre": 8917,
      "Ġbaharat": 8918,
      "Ġrakam": 8919,
      "937": 8920,
      "Ġzero": 8921,
      "ĠFeynman": 8922,
      "Ġride": 8923,
      "Ġlives": 8924,
      "Ġminimal": 8925,
      "Ġstraight": 8926,
      "ĠDefine": 8927,
      "cil": 8928,
      "kon": 8929,
      "yol": 8930,
      "Ġhari": 8931,
      "Ġbeceri": 8932,
      "ĠÄ°s": 8933,
      "ĠbaÅŁladÄ±ÄŁÄ±nÄ±zda": 8934,
      "ĠÃ§a": 8935,
      "Ġkonusundaki": 8936,
      "ayken": 8937,
      "ĠKeli": 8938,
      "ĠtutmayÄ±": 8939,
      "192": 8940,
      "ĠÃ§eken": 8941,
      "ĠseÃ§ebilir": 8942,
      "lerim": 8943,
      "Ġkullanacak": 8944,
      "Ġedilir": 8945,
      "Ġisteye": 8946,
      "ĠsÄ±f": 8947,
      "ĠsayÄ±yÄ±": 8948,
      "alarÄ±n": 8949,
      "Ã¼lÃ¼": 8950,
      "ĠEvin": 8951,
      "dunu": 8952,
      "Ġhavlu": 8953,
      "Ġmaliyet": 8954,
      "Ġbenim": 8955,
      "Ġpresence": 8956,
      "ĠsÃ¶zcÃ¼k": 8957,
      "ĠElinizdeki": 8958,
      "ĠayrÄ±lmÄ±ÅŁ": 8959,
[...]
