{
  "version": "1.0",
  "truncation": null,
  "padding": null,
  "added_tokens": [
    {
      "id": 0,
      "content": "<unk>",
      "single_word": false,
      "lstrip": false,
      "rstrip": false,
      "normalized": false,
      "special": true
    },
    {
      "id": 1,
      "content": "<s>",
      "single_word": false,
      "lstrip": false,
      "rstrip": false,
      "normalized": false,
      "special": true
    },
    {
      "id": 2,
      "content": "</s>",
      "single_word": false,
      "lstrip": false,
      "rstrip": false,
      "normalized": false,
      "special": true
    },
    {
      "id": 3,
      "content": "<pad>",
      "single_word": false,
      "lstrip": false,
      "rstrip": false,
      "normalized": false,
      "special": true
    },
    {
      "id": 4,
      "content": "<|system|>",
      "single_word": false,
      "lstrip": false,
      "rstrip": false,
      "normalized": false,
      "special": true
    },
    {
      "id": 5,
      "content": "<|user|>",
      "single_word": false,
      "lstrip": false,
      "rstrip": false,
      "normalized": false,
      "special": true
    },
    {
      "id": 6,
      "content": "<|assistant|>",
      "single_word": false,
      "lstrip": false,
      "rstrip": false,
      "normalized": false,
      "special": true
    },
    {
      "id": 7,
      "content": "<|end|>",
      "single_word": false,
      "lstrip": false,
      "rstrip": false,
      "normalized": false,
      "special": true
    },
    {
      "id": 8,
      "content": "<|code|>",
      "single_word": false,
      "lstrip": false,
      "rstrip": false,
      "normalized": false,
      "special": true
    }
  ],
  "normalizer": null,
  "pre_tokenizer": {
    "type": "Sequence",
    "pretokenizers": [
      {
        "type": "Split",
        "pattern": {
          "Regex": "(?i:[’'](?:larımızdan|lerimizden|larımız|lerimiz|dan|den|tan|ten|dır|dir|dur|dür|tır|tir|tur|tür|nın|nin|nun|nün|yı|yi|yu|yü|ya|ye|da|de|ta|te|ın|in|un|ün|la|le|lı|li|lu|lü|a|e))|'(?i:[sdmt]|ll|ve|re)|[^\\r\\n\\p{L}\\p{N}]?+\\p{L}++|\\p{N}{1,3}+| ?[^\\s\\p{L}\\p{N}]++[\\r\\n]*+|\\s*[\\r\\n]|\\s+(?!\\S)|\\s+"
        },
        "behavior": "Isolated",
        "invert": false
      },
      {
        "type": "ByteLevel",
        "add_prefix_space": false,
        "trim_offsets": true,
        "use_regex": false
      }
    ]
  },
  "post_processor": {
    "type": "ByteLevel",
    "add_prefix_space": true,
    "trim_offsets": false,
    "use_regex": true
  },
  "decoder": {
    "type": "ByteLevel",
    "add_prefix_space": true,
    "trim_offsets": true,
    "use_regex": true
  },
  "model": {
    "type": "BPE",
    "dropout": null,
    "unk_token": "<unk>",
    "continuing_subword_prefix": null,
    "end_of_word_suffix": null,
    "fuse_unk": false,
    "byte_fallback": false,
    "ignore_merges": false,
    "vocab": {
      "<unk>": 0,
      "<s>": 1,
      "</s>": 2,
      "<pad>": 3,
      "<|system|>": 4,
      "<|user|>": 5,
      "<|assistant|>": 6,
      "<|end|>": 7,
      "<|code|>": 8,
      "!": 9,
      "\"": 10,
      "#": 11,
      "$": 12,
      "%": 13,
      "&": 14,
      "'": 15,
      "(": 16,
      ")": 17,
      "*": 18,
      "+": 19,
      ",": 20,
      "-": 21,
      ".": 22,
      "/": 23,
      "0": 24,
      "1": 25,
      "2": 26,
      "3": 27,
      "4": 28,
      "5": 29,
      "6": 30,
      "7": 31,
      "8": 32,
      "9": 33,
      ":": 34,
      ";": 35,
      "<": 36,
      "=": 37,
      ">": 38,
      "?": 39,
      "@": 40,
      "A": 41,
      "B": 42,
      "C": 43,
      "D": 44,
      "E": 45,
      "F": 46,
      "G": 47,
      "H": 48,
      "I": 49,
      "J": 50,
      "K": 51,
      "L": 52,
      "M": 53,
      "N": 54,
      "O": 55,
      "P": 56,
      "Q": 57,
      "R": 58,
      "S": 59,
      "T": 60,
      "U": 61,
      "V": 62,
      "W": 63,
      "X": 64,
      "Y": 65,
      "Z": 66,
      "[": 67,
      "\\": 68,
      "]": 69,
      "^": 70,
      "_": 71,
      "`": 72,
      "a": 73,
      "b": 74,
      "c": 75,
      "d": 76,
      "e": 77,
      "f": 78,
      "g": 79,
      "h": 80,
      "i": 81,
      "j": 82,
      "k": 83,
      "l": 84,
      "m": 85,
      "n": 86,
      "o": 87,
      "p": 88,
      "q": 89,
      "r": 90,
      "s": 91,
      "t": 92,
      "u": 93,
      "v": 94,
      "w": 95,
      "x": 96,
      "y": 97,
      "z": 98,
      "{": 99,
      "|": 100,
      "}": 101,
      "~": 102,
      "¡": 103,
      "¢": 104,
      "£": 105,
      "¤": 106,
      "¥": 107,
      "¦": 108,
      "§": 109,
      "¨": 110,
      "©": 111,
      "ª": 112,
      "«": 113,
      "¬": 114,
      "®": 115,
      "¯": 116,
      "°": 117,
      "±": 118,
      "²": 119,
      "³": 120,
      "´": 121,
      "µ": 122,
      "¶": 123,
      "·": 124,
      "¸": 125,
      "¹": 126,
      "º": 127,
      "»": 128,
      "¼": 129,
      "½": 130,
      "¾": 131,
      "¿": 132,
      "À": 133,
      "Á": 134,
      "Â": 135,
      "Ã": 136,
      "Ä": 137,
      "Å": 138,
      "Æ": 139,
      "Ç": 140,
      "È": 141,
      "É": 142,
      "Ê": 143,
      "Ë": 144,
      "Ì": 145,
      "Í": 146,
      "Î": 147,
      "Ï": 148,
      "Ð": 149,
      "Ñ": 150,
      "Ò": 151,
      "Ó": 152,
      "Ô": 153,
      "Õ": 154,
      "Ö": 155,
      "×": 156,
      "Ø": 157,
      "Ù": 158,
      "Ú": 159,
      "Û": 160,
      "Ü": 161,
      "Ý": 162,
      "Þ": 163,
      "ß": 164,
      "à": 165,
      "á": 166,
      "â": 167,
      "ã": 168,
      "ä": 169,
      "å": 170,
      "æ": 171,
      "ç": 172,
      "è": 173,
      "é": 174,
      "ê": 175,
      "ë": 176,
      "ì": 177,
      "í": 178,
      "î": 179,
      "ï": 180,
      "ð": 181,
      "ñ": 182,
      "ò": 183,
      "ó": 184,
      "ô": 185,
      "õ": 186,
      "ö": 187,
      "÷": 188,
      "ø": 189,
      "ù": 190,
      "ú": 191,
      "û": 192,
      "ü": 193,
      "ý": 194,
      "þ": 195,
      "ÿ": 196,
      "Ā": 197,
      "ā": 198,
      "Ă": 199,
      "ă": 200,
      "Ą": 201,
      "ą": 202,
      "Ć": 203,
      "ć": 204,
      "Ĉ": 205,
      "ĉ": 206,
      "Ċ": 207,
      "ċ": 208,
      "Č": 209,
      "č": 210,
      "Ď": 211,
      "ď": 212,
      "Đ": 213,
      "đ": 214,
      "Ē": 215,
      "ē": 216,
      "Ĕ": 217,
      "ĕ": 218,
      "Ė": 219,
      "ė": 220,
      "Ę": 221,
      "ę": 222,
      "Ě": 223,
      "ě": 224,
      "Ĝ": 225,
      "ĝ": 226,
      "Ğ": 227,
      "ğ": 228,
      "Ġ": 229,
      "ġ": 230,
      "Ģ": 231,
      "ģ": 232,
      "Ĥ": 233,
      "ĥ": 234,
      "Ħ": 235,
      "ħ": 236,
      "Ĩ": 237,
      "ĩ": 238,
      "Ī": 239,
      "ī": 240,
      "Ĭ": 241,
      "ĭ": 242,
      "Į": 243,
      "į": 244,
      "İ": 245,
      "ı": 246,
      "Ĳ": 247,
      "ĳ": 248,
      "Ĵ": 249,
      "ĵ": 250,
      "Ķ": 251,
      "ķ": 252,
      "ĸ": 253,
      "Ĺ": 254,
      "ĺ": 255,
      "Ļ": 256,
      "ļ": 257,
      "Ľ": 258,
      "ľ": 259,
      "Ŀ": 260,
      "ŀ": 261,
      "Ł": 262,
      "ł": 263,
      "Ń": 264,
      "Ġa": 265,
      "<|": 266,
      "|>": 267,
      "is": 268,
      "nd": 269,
      "on": 270,
      "in": 271,
      "er": 272,
      "Ä±": 273,
      "an": 274,
      "Ġc": 275,
      "end": 276,
      "ĠĊ": 277,
      "|>:": 278,
      "|>Ċ": 279,
      "ti": 280,
      "Ġp": 281,
      "Ġs": 282,
      "ing": 283,
      "Ġt": 284,
      "Ġpr": 285,
      "ss": 286,
      "ist": 287,
      "re": 288,
      "Ġb": 289,
      "Ġcon": 290,
      "ant": 291,
      "de": 292,
      "ou": 293,
      "al": 294,
      "istant": 295,
      "ssistant": 296,
      "Ġpro": 297,
      "ish": 298,
      "ra": 299,
      "ce": 300,
      "te": 301,
      "Ġk": 302,
      "tion": 303,
      "Ġn": 304,
      "he": 305,
      "le": 306,
      "me": 307,
      "Ã¼": 308,
      "ul": 309,
      "us": 310,
      "ver": 311,
      "ĠE": 312,
      "or": 313,
      "Ġy": 314,
      "sa": 315,
      "ar": 316,
      "Ġi": 317,
      "ur": 318,
      "Ġand": 319,
      "ir": 320,
      "ĠD": 321,
      "gl": 322,
      "ÅŁ": 323,
      "da": 324,
      "ot": 325,
      "Ġco": 326,
      "ve": 327,
      "du": 328,
      "Ã§": 329,
      "Ġhe": 330,
      "user": 331,
      "assistant": 332,
      "ise": 333,
      "mm": 334,
      "ĠT": 335,
      "cise": 336,
      "Ġconcise": 337,
      "tem": 338,
      "ĠY": 339,
      "Ġare": 340,
      "ys": 341,
      "Ġw": 342,
      "ĠEn": 343,
      "gra": 344,
      "lp": 345,
      "Ġhelp": 346,
      "Ġnot": 347,
      "ful": 348,
      "ĠDo": 349,
      "versa": 350,
      "duce": 351,
      "versation": 352,
      "Ġconversation": 353,
      "mming": 354,
      "ĠYou": 355,
      "ystem": 356,
      "Ġprogra": 357,
      "urk": 358,
      "Ġcode": 359,
      "Ġhelpful": 360,
      "Ġassistant": 361,
      "glish": 362,
      "ĠEnglish": 363,
      "Ġproduce": 364,
      "Ġprogramming": 365,
      "Ġconversational": 366,
      "urkish": 367,
      "ĠTurkish": 368,
      "system": 369,
      "en": 370,
      "la": 371,
      "Ġto": 372,
      "it": 373,
      "ma": 374,
      "dÄ±": 375,
      "il": 376,
      "yÄ±": 377,
      "Ġf": 378,
      "Ġe": 379,
      "Ġg": 380,
      "ac": 381,
      "Ġo": 382,
      "es": 383,
      "ÄŁ": 384,
      "ha": 385,
      "Ġyou": 386,
      "ĠS": 387,
      "iz": 388,
      "ĠB": 389,
      "un": 390,
      "Ã¶": 391,
      "ug": 392,
      "Ġbir": 393,
      "Ġm": 394,
      "Ġd": 395,
      "ith": 396,
      "Ġwith": 397,
      "ĠayÄ±": 398,
      "Ġda": 399,
      "Ġve": 400,
      "ya": 401,
      "um": 402,
      "Ä±n": 403,
      "Ġin": 404,
      "ak": 405,
      "one": 406,
      "Ġbe": 407,
      "ly": 408,
      "ki": 409,
      "li": 410,
      "Ġst": 411,
      "estion": 412,
      "ĠiÃ§": 413,
      "out": 414,
      "nde": 415,
      "ab": 416,
      "lan": 417,
      "ĠA": 418,
      "mp": 419,
      "ri": 420,
      "et": 421,
      "Ġso": 422,
      "Ġka": 423,
      "ĠiÃ§in": 424,
      "Ġthe": 425,
      "Ġre": 426,
      "Ġya": 427,
      "Ã¼n": 428,
      "det": 429,
      "ĠÃ¶": 430,
      "rdÄ±": 431,
      "Ġan": 432,
      "ort": 433,
      "ĠkÄ±": 434,
      "Ġba": 435,
      "Ġadet": 436,
      "ĠayÄ±rdÄ±": 437,
      "Ġz": 438,
      "tic": 439,
      "mple": 440,
      "ilir": 441,
      "Ġyour": 442,
      "ner": 443,
      "dÄ±m": 444,
      "Ġsh": 445,
      "ĠkÄ±sa": 446,
      "ĠG": 447,
      "Ġu": 448,
      "ĠadÄ±m": 449,
      "lar": 450,
      "Ġme": 451,
      "ive": 452,
      "Ġsome": 453,
      "wo": 454,
      ".Ċ": 455,
      "Ġfor": 456,
      "Ġde": 457,
      "Ġtwo": 458,
      "Ġshort": 459,
      "ari": 460,
      "Ä±nÄ±": 461,
      "ine": 462,
      "mak": 463,
      "estions": 464,
      "Ġprac": 465,
      "Ġsomeone": 466,
      "tical": 467,
      "Ġstr": 468,
      "ugg": 469,
      "cen": 470,
      "Ġsugg": 471,
      "gling": 472,
      "uggling": 473,
      "ĠGive": 474,
      "Ġstruggling": 475,
      "ario": 476,
      "cenario": 477,
      "Ġpractical": 478,
      "Ġsuggestions": 479,
      "ĠScenario": 480,
      "ep": 481,
      "abilir": 482,
      "st": 483,
      "enti": 484,
      "Ġh": 485,
      "Ġth": 486,
      "ĠgÃ¼n": 487,
      "ĠbaÅŁ": 488,
      "Ġmo": 489,
      "mek": 490,
      "ic": 491,
      "ĠM": 492,
      "am": 493,
      "el": 494,
      "Ã¼k": 495,
      "Ġkenti": 496,
      "Ġkentinde": 497,
      "Ġne": 498,
      "Ġile": 499,
      "Ġuy": 500,
      "Ġday": 501,
      "nt": 502,
      "Ġon": 503,
      "very": 504,
      "alÄ±": 505,
      "sÄ±": 506,
      "Ġevery": 507,
      "yi": 508,
      "Ä°": 509,
      "ĠL": 510,
      "Ġha": 511,
      "ek": 512,
      "ĠÄ°": 513,
      "ut": 514,
      "nda": 515,
      "Ġol": 516,
      "qu": 517,
      "ow": 518,
      "Ġver": 519,
      "Ġis": 520,
      "lk": 521,
      "Ġkon": 522,
      "ĠbaÅŁla": 523,
      "Ġor": 524,
      "ler": 525,
      "den": 526,
      "lÄ±": 527,
      "Ġit": 528,
      "ation": 529,
      "Ġsi": 530,
      "as": 531,
      "Ġyap": 532,
      "Ġuyg": 533,
      "Ġof": 534,
      "ĠÃ¶ner": 535,
      "unu": 536,
      "iÅŁ": 537,
      "ec": 538,
      "uÅŁ": 539,
      "ĠO": 540,
      "urum": 541,
      "iniz": 542,
      "hat": 543,
      "Ġsa": 544,
      "ey": 545,
      "'s": 546,
      "th": 547,
      "uma": 548,
      "acak": 549,
      "Ġti": 550,
      "lam": 551,
      "Ġqu": 552,
      "Ġab": 553,
      "Ã¼Ã§": 554,
      "ĠÄ°lk": 555,
      "ĠÃ¶neri": 556,
      "Ġzor": 557,
      "Ġabout": 558,
      "Ġiki": 559,
      "Ġres": 560,
      "ĠP": 561,
      "ate": 562,
      "Ġuygul": 563,
      "rasÄ±": 564,
      "Ã¼Ã§Ã¼k": 565,
      "aman": 566,
      "ĠÃ§": 567,
      "ka": 568,
      "ĠBu": 569,
      "Ġbul": 570,
      "yor": 571,
      "tir": 572,
      "usu": 573,
      "ĠC": 574,
      "Ġnuma": 575,
      "ĠkaÃ§": 576,
      "Ġzaman": 577,
      "Ġtime": 578,
      "Ġen": 579,
      "Ġsimple": 580,
      "ĠkÃ¼Ã§Ã¼k": 581,
      "ef": 582,
      "ĠnumarasÄ±": 583,
      "ĠDurum": 584,
      "mir": 585,
      "ĠgÃ¼nÃ¼": 586,
      "day": 587,
      "wer": 588,
      "im": 589,
      "Ġdaha": 590,
      "lik": 591,
      "ge": 592,
      "ning": 593,
      "ah": 594,
      "Ġnum": 595,
      "Ġone": 596,
      "Ġkonusu": 597,
      "rief": 598,
      "Ġzorlan": 599,
      "swer": 600,
      "Ġuygulan": 601,
      "ĠayÄ±n": 602,
      "Ġmeet": 603,
      "Ġkonusunda": 604,
      "Ġuygulanabilir": 605,
      "gin": 606,
      "Ġnumar": 607,
      "Ġ\"": 608,
      "ĠI": 609,
      "**": 610,
      "ĠnumaralÄ±": 611,
      "Ġquestion": 612,
      "Ġzorlanan": 613,
      "Ġbegin": 614,
      "Ġanswer": 615,
      "Ġbirine": 616,
      "riefly": 617,
      "ok": 618,
      "yÄ±t": 619,
      "ter": 620,
      "ĠdeÄŁ": 621,
      "xa": 622,
      "Ġwithout": 623,
      "xample": 624,
      "ĠkayÄ±t": 625,
      "Ã¼m": 626,
      "Ġbeginner": 627,
      "Ä±m": 628,
      "ĠbuluÅŁ": 629,
      "Ġeveryday": 630,
      "ĠBriefly": 631,
      "ĠExample": 632,
      "Ã¼z": 633,
      "Ġr": 634,
      "ĠbuluÅŁacak": 635,
      "Ġkentindeki": 636,
      "Ä±z": 637,
      "lo": 638,
      "ĠgÃ¼nÃ¼nde": 639,
      "ĠR": 640,
      "Ġle": 641,
      "ment": 642,
      "Ġyaz": 643,
      "se": 644,
      "Ġdo": 645,
      "Ġv": 646,
      "ĠSon": 647,
      "Ġ(": 648,
      "at": 649,
      "Ġac": 650,
      "ĠH": 651,
      "yorum": 652,
      "ĠbaÅŁlat": 653,
      "rak": 654,
      "tiv": 655,
      "ill": 656,
      "ore": 657,
      "larda": 658,
      "Ġisti": 659,
      "sun": 660,
      "Ġch": 661,
      "Ġj": 662,
      "di": 663,
      "ĠdeÄŁiÅŁ": 664,
      "ĠOn": 665,
      "Ã¼mle": 666,
      "tirme": 667,
      "ute": 668,
      "Ġolsun": 669,
      "ĠcÃ¼mle": 670,
      "ack": 671,
      "ĠadÄ±mla": 672,
      "ĠBunu": 673,
      "ĠbaÅŁlatabilir": 674,
      "Ġistiyorum": 675,
      "inute": 676,
      "Ġzamanlarda": 677,
      "ĠadÄ±mÄ±m": 678,
      "Ġanlam": 679,
      "ĠbaÅŁlatabiliriz": 680,
      "ne": 681,
      "Ä±r": 682,
      "Ġse": 683,
      "Ġwill": 684,
      "Ġman": 685,
      "Ä±nÄ±z": 686,
      "aya": 687,
      "ad": 688,
      "10": 689,
      "Ġbu": 690,
      "lif": 691,
      "nce": 692,
      "ĠdeÄŁiÅŁtirme": 693,
      "Ġplan": 694,
      "Ġsp": 695,
      "gh": 696,
      "ĠanlamÄ±nÄ±": 697,
      "ang": 698,
      "ĠcÃ¼mleyi": 699,
      "fore": 700,
      "ĠdeÄŁiÅŁtirmeden": 701,
      "Ġbefore": 702,
      "Ġby": 703,
      "eniz": 704,
      "ĠN": 705,
      "ĠZ": 706,
      "hi": 707,
      "ert": 708,
      "age": 709,
      "ĠMaya": 710,
      "20": 711,
      "Ġat": 712,
      "ĠMert": 713,
      "ĠElif": 714,
      "ĠCan": 715,
      "eyn": 716,
      "eynep": 717,
      "ĠEce": 718,
      "ĠNo": 719,
      "ĠAr": 720,
      "ĠZeynep": 721,
      "Ġveya": 722,
      "ĠAda": 723,
      "art": 724,
      "ĠEmir": 725,
      "ĠNoah": 726,
      "Ġma": 727,
      "mal": 728,
      "Ġbo": 729,
      "id": 730,
      "bit": 731,
      "ina": 732,
      "ed": 733,
      "ask": 734,
      "ĠLina": 735,
      "erve": 736,
      "Ġmore": 737,
      "Ġhabit": 738,
      "30": 739,
      "Ġreserve": 740,
      "Ã¼r": 741,
      "Ġtask": 742,
      "ap": 743,
      "Ġl": 744,
      "15": 745,
      "ust": 746,
      "reak": 747,
      "ĠArda": 748,
      "ĠDeniz": 749,
      "ew": 750,
      "Ġthis": 751,
      "Ġsmal": 752,
      "ends": 753,
      "ue": 754,
      "if": 755,
      "Ġthat": 756,
      "Ġte": 757,
      "leep": 758,
      "Ġthan": 759,
      "Ġyapmak": 760,
      "Ġra": 761,
      "25": 762,
      "Ġola": 763,
      "Ġchang": 764,
      "Ġmean": 765,
      "gi": 766,
      "om": 767,
      "28": 768,
      "Ġfe": 769,
      "ĠÃ": 770,
      "rite": 771,
      "ol": 772,
      "Ġye": 773,
      "Ġvar": 774,
      "Ġsmall": 775,
      "Ġmeaning": 776,
      "Ġits": 777,
      "Ġlear": 778,
      "ther": 779,
      "like": 780,
      "Ġsleep": 781,
      "Ġgo": 782,
      "Ġchanging": 783,
      "ght": 784,
      "ond": 785,
      "ĠÅŁ": 786,
      "oc": 787,
      "ĠRew": 788,
      "Ġconcisely": 789,
      "ĠRewrite": 790,
      "utu": 791,
      "Ġfeel": 792,
      "ren": 793,
      "isten": 794,
      "13": 795,
      "14": 796,
      "ye": 797,
      "24": 798,
      "Ã¼ÅŁ": 799,
      "Ġal": 800,
      "23": 801,
      "ocus": 802,
      "to": 803,
      "ĠPra": 804,
      "ĠÃ¶ÄŁ": 805,
      "yÄ±n": 806,
      "Ġ**": 807,
      "ĠgÃ¶": 808,
      "ini": 809,
      "oto": 810,
      "vi": 811,
      "Ġrather": 812,
      "Ġmotiv": 813,
      "Ġmanage": 814,
      "her": 815,
      "18": 816,
      "ay": 817,
      "16": 818,
      "dÄ±r": 819,
      "Ġkal": 820,
      "ĠÃ¶nce": 821,
      "Ġtr": 822,
      "Ġkutu": 823,
      "Ġminute": 824,
      "eni": 825,
      "17": 826,
      "'da": 827,
      "ta": 828,
      "Ġfri": 829,
      "Ġjust": 830,
      "lÄ±k": 831,
      "ca": 832,
      "ting": 833,
      "26": 834,
      "Ġtra": 835,
      "ach": 836,
      "27": 837,
      "Ġminutes": 838,
      "ntal": 839,
      "ell": 840,
      "Ġkutuda": 841,
      "Ġinto": 842,
      "ck": 843,
      "ĠAn": 844,
      "ku": 845,
      "ĠU": 846,
      "Ġrout": 847,
      "ĠÃĸ": 848,
      "Ã¼y": 849,
      "tÄ±r": 850,
      "Ġho": 851,
      "bilir": 852,
      "Ġcomm": 853,
      "Ġlearning": 854,
      "arÄ±": 855,
      "thing": 856,
      "hip": 857,
      "Ġroutine": 858,
      "lin": 859,
      "Ġtop": 860,
      "iti": 861,
      "ake": 862,
      "Ġreserved": 863,
      "vel": 864,
      "ĠÃ¶ÄŁren": 865,
      "ĠeÅŁ": 866,
      "Ġas": 867,
      "ga": 868,
      "able": 869,
      "Ġbed": 870,
      "medi": 871,
      "na": 872,
      "che": 873,
      "Ä±k": 874,
      "Ġcan": 875,
      "our": 876,
      "ers": 877,
      "endship": 878,
      "gue": 879,
      "dece": 880,
      "ĠBer": 881,
      "ĠBerlin": 882,
      "slo": 883,
      "ĠOslo": 884,
      "Ġbel": 885,
      "Ġim": 886,
      "Ġson": 887,
      "kara": 888,
      "Ġex": 889,
      "ĠeÅŁya": 890,
      "stan": 891,
      "inizi": 892,
      "ying": 893,
      "dan": 894,
      "bul": 895,
      "ĠAnkara": 896,
      "ĠdÃ¼z": 897,
      "mediate": 898,
      "Ġimmediate": 899,
      "ĠLond": 900,
      "stanbul": 901,
      "Ġwor": 902,
      "ĠyÃ¼r": 903,
      "gan": 904,
      "ĠLondon": 905,
      "ien": 906,
      "Ġtravel": 907,
      "od": 908,
      "zmir": 909,
      "ntalya": 910,
      "ĠAntalya": 911,
      "iny": 912,
      "em": 913,
      "ication": 914,
      "bon": 915,
      "ganiz": 916,
      "raf": 917,
      "ven": 918,
      "Ġsu": 919,
      "ĠLis": 920,
      "ĠK": 921,
      "Ġover": 922,
      "men": 923,
      "ĠLisbon": 924,
      "Ġtiny": 925,
      "Ġtasks": 926,
      "Ġdaki": 927,
      "ste": 928,
      "Ġspec": 929,
      "29": 930,
      "ific": 931,
      "Ġorganiz": 932,
      "Ġlike": 933,
      "Ġolarak": 934,
      "19": 935,
      "Ġyer": 936,
      "Ġfocus": 937,
      "Ġhabits": 938,
      "erek": 939,
      "-b": 940,
      "larÄ±": 941,
      "ĠUse": 942,
      "Ġyo": 943,
      "Ġspecific": 944,
      "bi": 945,
      "Ġar": 946,
      "ch": 947,
      "Ġiyi": 948,
      "len": 949,
      "Ġbelir": 950,
      "Ġkit": 951,
      "otoÄŁ": 952,
      "otoÄŁraf": 953,
      "lÃ¼k": 954,
      "eep": 955,
      "ĠV": 956,
      "dule": 957,
      "chedule": 958,
      "ev": 959,
      "ĠPrague": 960,
      "Ġplanning": 961,
      "ps": 962,
      "lang": 963,
      "ĠIzmir": 964,
      "unication": 965,
      "'de": 966,
      "Ġhome": 967,
      "Ġwell": 968,
      "ienna": 969,
      "ĠVienna": 970,
      "Ġfriendship": 971,
      "Ġeach": 972,
      "ĠyÃ¼z": 973,
      "Ġwe": 974,
      "33": 975,
      "Ġge": 976,
      "si": 977,
      "ley": 978,
      "Ġsor": 979,
      "ure": 980,
      "Ġyoga": 981,
      "ĠfotoÄŁraf": 982,
      "Ġbi": 983,
      "ilgi": 984,
      "ĠyÃ¼rÃ¼y": 985,
      "40": 986,
      "tick": 987,
      "Ġmotivation": 988,
      "Ġwhat": 989,
      "Ġbreak": 990,
      "ten": 991,
      "leri": 992,
      "Ġph": 993,
      "eing": 994,
      "ĠHow": 995,
      "stead": 996,
      "Ġimmediately": 997,
      "ĠIstanbul": 998,
      "lece": 999,
      "-being": 1000,
      "12": 1001,
      "Ġcommunication": 1002,
      "king": 1003,
      "Ġbah": 1004,
      "pp": 1005,
      "ĠyÃ¼rÃ¼yÃ¼ÅŁ": 1006,
      "Ġdil": 1007,
      "Ġmak": 1008,
      "anÄ±z": 1009,
      "Ġmanagement": 1010,
      "Ġinstead": 1011,
      "Ġstart": 1012,
      "Ġil": 1013,
      "Ġtoplam": 1014,
      "Ġitem": 1015,
      "abah": 1016,
      "Ġgoal": 1017,
      "ĠvardÄ±r": 1018,
      "Ġste": 1019,
      "ĠHer": 1020,
      "ĠSt": 1021,
      "Ä±ÅŁ": 1022,
      "Ġla": 1023,
      "cak": 1024,
      "Ġkitap": 1025,
      "Ġorganization": 1026,
      "Ġno": 1027,
      "hen": 1028,
      "tive": 1029,
      "tions": 1030,
      "-m": 1031,
      "Ġsadece": 1032,
      "reate": 1033,
      "35": 1034,
      "36": 1035,
      "ĠgÃ¼nlÃ¼k": 1036,
      "Ġay": 1037,
      "ĠbahÃ§": 1038,
      "ind": 1039,
      "Ġtut": 1040,
      "Ġet": 1041,
      "ĠBreak": 1042,
      "37": 1043,
      "11": 1044,
      "Ġkend": 1045,
      "34": 1046,
      "Ġus": 1047,
      "-minute": 1048,
      "Ġher": 1049,
      "38": 1050,
      "Ġyemek": 1051,
      "ild": 1052,
      "ĠÃ§ek": 1053,
      "ress": 1054,
      "up": 1055,
      "vo": 1056,
      "lu": 1057,
      "ity": 1058,
      "Ġot": 1059,
      "ĠseÃ§": 1060,
      "void": 1061,
      "siniz": 1062,
      "Ġsonra": 1063,
      "Ġcle": 1064,
      "22": 1065,
      "Ġdakika": 1066,
      "ick": 1067,
      "def": 1068,
      "Ġbook": 1069,
      "sisten": 1070,
      "Ġweek": 1071,
      "Ġkalem": 1072,
      "Ġmany": 1073,
      "ily": 1074,
      "ĠF": 1075,
      "ĠStart": 1076,
      "Ġup": 1077,
      "Ġset": 1078,
      "Ġmeets": 1079,
      "ik": 1080,
      "nal": 1081,
      "Ġcomple": 1082,
      "Ġsilgi": 1083,
      "ĠyÃ¶": 1084,
      "op": 1085,
      "Ä±nÄ±zÄ±": 1086,
      "ally": 1087,
      "Ġkul": 1088,
      "ard": 1089,
      "sel": 1090,
      "unuz": 1091,
      "ĠalÄ±": 1092,
      "ÄŁin": 1093,
      "Ġgi": 1094,
      "dy": 1095,
      "ĠpiÅŁ": 1096,
      "Ġinter": 1097,
      "Ġtrying": 1098,
      "reen": 1099,
      "Ġun": 1100,
      "'t": 1101,
      "Ġthem": 1102,
      "Ġhedef": 1103,
      "Ġwork": 1104,
      "ci": 1105,
      "ĠdÃ¼zeni": 1106,
      "Ġkullan": 1107,
      "alÄ±ÅŁ": 1108,
      "likle": 1109,
      "Ġconsisten": 1110,
      "ings": 1111,
      "ÄŁi": 1112,
      "hel": 1113,
      "Ġresim": 1114,
      "ndan": 1115,
      "Ġwhen": 1116,
      "light": 1117,
      "maya": 1118,
      "Ġfr": 1119,
      "Ġdaily": 1120,
      "Ã¼re": 1121,
      "tÄ±": 1122,
      "ord": 1123,
      "ĠiÅŁ": 1124,
      "Ġout": 1125,
      "80": 1126,
      "Ġeven": 1127,
      "asy": 1128,
      "21": 1129,
      "Ġitems": 1130,
      "Ġhour": 1131,
      "Ġif": 1132,
      "ÄŁÄ±": 1133,
      "Ġback": 1134,
      "leyin": 1135,
      "Ġcev": 1136,
      "Ġoku": 1137,
      "Ġdid": 1138,
      "irst": 1139,
      "ÅŁam": 1140,
      "Ä±zÄ±": 1141,
      "Ġmoment": 1142,
      "Ġother": 1143,
      "own": 1144,
      "Ġbuild": 1145,
      "ble": 1146,
      "Ġthen": 1147,
      "Ġpa": 1148,
      "ving": 1149,
      "ama": 1150,
      "Ġclear": 1151,
      "ken": 1152,
      "ecord": 1153,
      "ĠÃ§alÄ±ÅŁ": 1154,
      "kan": 1155,
      "ĠRecord": 1156,
      "ze": 1157,
      "ĠdoÄŁ": 1158,
      "nder": 1159,
      "Ġsaat": 1160,
      "Ġcevap": 1161,
      ":Ċ": 1162,
      "Ġsteps": 1163,
      "Ġ=": 1164,
      "Ġfirst": 1165,
      "ÅŁim": 1166,
      "rar": 1167,
      "Ġko": 1168,
      "Ġbas": 1169,
      "ro": 1170,
      "ĠpiÅŁir": 1171,
      "langÄ±": 1172,
      "tice": 1173,
      "Ġpre": 1174,
      "ĠkÄ±r": 1175,
      "Ġlisten": 1176,
      "Ġfrom": 1177,
      "ĠÃ¶ÄŁrenmek": 1178,
      "Ġconsistent": 1179,
      "yaz": 1180,
      "Ġwh": 1181,
      "mÄ±zÄ±": 1182,
      "Ġilgi": 1183,
      "Ġread": 1184,
      "ff": 1185,
      "Ġcomplete": 1186,
      "rne": 1187,
      "ÅŁil": 1188,
      "laÅŁ": 1189,
      "Ġmavi": 1190,
      "ssi": 1191,
      "Ġoda": 1192,
      "Ġonce": 1193,
      "ĠyeÅŁil": 1194,
      "ĠÃĸnce": 1195,
      "mi": 1196,
      "ĠkÄ±rmÄ±zÄ±": 1197,
      "mayÄ±": 1198,
      "rneÄŁin": 1199,
      "uy": 1200,
      "ĠgÃ¶re": 1201,
      "est": 1202,
      "Ġimp": 1203,
      "oriti": 1204,
      "39": 1205,
      "Ġev": 1206,
      "tiÅŁim": 1207,
      "Ġget": 1208,
      "lay": 1209,
      "bilirsiniz": 1210,
      "Ġoverw": 1211,
      "ĠSchedule": 1212,
      "Ġoverwhel": 1213,
      "Ġyeni": 1214,
      "88": 1215,
      "Ġilk": 1216,
      "Ġbeyaz": 1217,
      "ĠÃ§ok": 1218,
      "00": 1219,
      "nÄ±z": 1220,
      "Ġaz": 1221,
      "and": 1222,
      "ingle": 1223,
      "Ġsingle": 1224,
      "Ġwal": 1225,
      "ĠalÄ±ÅŁ": 1226,
      "Ġkeep": 1227,
      "anÄ±": 1228,
      "ĠsÃ¼re": 1229,
      "ĠsarÄ±": 1230,
      "duÄŁ": 1231,
      "Ġdi": 1232,
      "alnÄ±z": 1233,
      "ĠPick": 1234,
      "ĠbahÃ§ey": 1235,
      "ree": 1236,
      "langÄ±Ã§": 1237,
      "Ġactiv": 1238,
      "ent": 1239,
      "ili": 1240,
      "ĠÃ§ekmek": 1241,
      "Ġneed": 1242,
      "Ä±na": 1243,
      "Ġdown": 1244,
      "Ġsc": 1245,
      "Ġbasit": 1246,
      "daÅŁ": 1247,
      "Ġokumak": 1248,
      "self": 1249,
      "Ġodak": 1250,
      "Ġyourself": 1251,
      "Ġdoing": 1252,
      "ule": 1253,
      "Ġavoid": 1254,
      "cle": 1255,
      "kadaÅŁ": 1256,
      "Ġed": 1257,
      "Ġnew": 1258,
      "lock": 1259,
      "Ġkay": 1260,
      "leme": 1261,
      "ĠbahÃ§eyle": 1262,
      "aÅŁ": 1263,
      "alnÄ±zca": 1264,
      "ni": 1265,
      "ark": 1266,
      "inde": 1267,
      "ĠBir": 1268,
      "ĠYalnÄ±zca": 1269,
      "ÄŁiniz": 1270,
      "ĠCreate": 1271,
      "ĠiletiÅŁim": 1272,
      "aking": 1273,
      "Ġonly": 1274,
      "Ġtutmak": 1275,
      "low": 1276,
      "Ġexp": 1277,
      "ook": 1278,
      "Ä±nda": 1279,
      "Ġeverything": 1280,
      "Ġuyku": 1281,
      "Ġsabah": 1282,
      "cek": 1283,
      "ĠalÄ±ÅŁkan": 1284,
      "Ġwhi": 1285,
      "Ġilgilen": 1286,
      "ct": 1287,
      "ĠpiÅŁirmek": 1288,
      "Ġyerine": 1289,
      "asyon": 1290,
      "ĠsaÄŁ": 1291,
      "ĠSet": 1292,
      "ect": 1293,
      "Ġnote": 1294,
      "nderst": 1295,
      "ace": 1296,
      "tan": 1297,
      "ted": 1298,
      "oritize": 1299,
      "ĠAyÄ±n": 1300,
      "ycle": 1301,
      "lef": 1302,
      "Ġactive": 1303,
      "Ġgoals": 1304,
      "Ġdurum": 1305,
      "cÄ±": 1306,
      "Ġtack": 1307,
      "Ġtek": 1308,
      "Ġlo": 1309,
      "utter": 1310,
      "lutter": 1311,
      "heck": 1312,
      "Ġist": 1313,
      "ize": 1314,
      "tain": 1315,
      "Ġilgilenmek": 1316,
      "Ġmanageable": 1317,
      "Ġscreen": 1318,
      "ĠyÃ¼zmek": 1319,
      "ĠÃ¶ÄŁrenme": 1320,
      "Ġlistening": 1321,
      "Ġodaklan": 1322,
      "Ġak": 1323,
      "Ġuygun": 1324,
      "Ġgibi": 1325,
      "manÄ±z": 1326,
      "rou": 1327,
      "Ġthey": 1328,
      "lefon": 1329,
      "60": 1330,
      "Ġdeep": 1331,
      "ĠbaÅŁlangÄ±Ã§": 1332,
      "Ġreading": 1333,
      "ticket": 1334,
      "Ġticket": 1335,
      "Ġrule": 1336,
      "ĠarkadaÅŁ": 1337,
      "vent": 1338,
      "Ġpers": 1339,
      "ĠW": 1340,
      "Ġmomentum": 1341,
      "lant": 1342,
      "Ġyol": 1343,
      "Ġpo": 1344,
      "ech": 1345,
      "Ġreg": 1346,
      "yan": 1347,
      "ĠgeÃ§": 1348,
      "Ġdur": 1349,
      "Ġsomething": 1350,
      "Ġunderst": 1351,
      "inin": 1352,
      "ĠAy": 1353,
      "44": 1354,
      "Ġany": 1355,
      "co": 1356,
      "Ġcheck": 1357,
      "bilece": 1358,
      "arak": 1359,
      "Ġwake": 1360,
      "ular": 1361,
      "book": 1362,
      "ĠyÃ¶ne": 1363,
      "iler": 1364,
      "ĠolduÄŁ": 1365,
      "ctice": 1366,
      "get": 1367,
      "yahat": 1368,
      "niqu": 1369,
      "echniqu": 1370,
      "Ġdist": 1371,
      "uyu": 1372,
      "Ġlow": 1373,
      "Ġtea": 1374,
      "Ġusing": 1375,
      "Ġfa": 1376,
      "Ġad": 1377,
      "Ġschedule": 1378,
      "ĠKeep": 1379,
      "ĠPractice": 1380,
      "ĠyaÅŁam": 1381,
      "ating": 1382,
      "Ġplant": 1383,
      "ĠgÃ¼": 1384,
      "xt": 1385,
      "ĠdoÄŁr": 1386,
      "ary": 1387,
      "Ġgen": 1388,
      "Ġlamp": 1389,
      "50": 1390,
      "Ġwa": 1391,
      "Ġnotebook": 1392,
      "Ġdu": 1393,
      "Ġkur": 1394,
      "Ġ+": 1395,
      "fter": 1396,
      "Ġweekends": 1397,
      "Ġer": 1398,
      "Ġlea": 1399,
      "ĠalÄ±ÅŁkanlÄ±k": 1400,
      "pack": 1401,
      "Ã¶rneÄŁin": 1402,
      "tter": 1403,
      "Ġri": 1404,
      "Ġbic": 1405,
      "Ġoff": 1406,
      "yun": 1407,
      "Ġunderstand": 1408,
      "90": 1409,
      "Ġmotivasyon": 1410,
      "Ġbicycle": 1411,
      "84": 1412,
      "timi": 1413,
      "Ġresp": 1414,
      "rac": 1415,
      "Ġsame": 1416,
      "Ġmost": 1417,
      "Ġbackpack": 1418,
      "Ġfive": 1419,
      "ĠdÃ¼ÅŁ": 1420,
      "Ġjack": 1421,
      "alÄ±k": 1422,
      "Ġjacket": 1423,
      "Ġgerek": 1424,
      "Ġscreens": 1425,
      "Ġbl": 1426,
      "Ġtheir": 1427,
      "ose": 1428,
      "angi": 1429,
      "rioritize": 1430,
      "Ġperson": 1431,
      "echnique": 1432,
      "Ġsw": 1433,
      "Ġara": 1434,
      "rn": 1435,
      "ĠyÃ¶netimi": 1436,
      "use": 1437,
      "ĠÅŁey": 1438,
      "Ġrest": 1439,
      "Ġke": 1440,
      "ong": 1441,
      "inize": 1442,
      "Ġprevent": 1443,
      "era": 1444,
      "Ġel": 1445,
      "70": 1446,
      "ere": 1447,
      "Ġmain": 1448,
      "ĠPrioritize": 1449,
      "uage": 1450,
      "Ġlang": 1451,
      "here": 1452,
      "Ġlanguage": 1453,
      "lemek": 1454,
      "32": 1455,
      "Ġtri": 1456,
      "Ġdon": 1457,
      "Ġseyahat": 1458,
      "kk": 1459,
      "rdÄ±ndan": 1460,
      "Ġden": 1461,
      "ich": 1462,
      "Ġcam": 1463,
      "Ġek": 1464,
      "act": 1465,
      "mel": 1466,
      "Ġtelefon": 1467,
      "ÄŁÄ±nÄ±z": 1468,
      "orning": 1469,
      "isi": 1470,
      "Ġener": 1471,
      "Ġper": 1472,
      "Ġmorning": 1473,
      "Ġkar": 1474,
      "Ġkolay": 1475,
      "ssion": 1476,
      "ĠyanÄ±": 1477,
      "ĠPa": 1478,
      "ĠkonuÅŁ": 1479,
      "85": 1480,
      "uz": 1481,
      "Ġstu": 1482,
      "Ġmake": 1483,
      "Ġimport": 1484,
      "Ġspe": 1485,
      "Ġjour": 1486,
      "Ġblue": 1487,
      "ph": 1488,
      "Ġcal": 1489,
      "res": 1490,
      "tur": 1491,
      "Ġwhich": 1492,
      "ĠarkadaÅŁlÄ±k": 1493,
      "izi": 1494,
      "Ġhakk": 1495,
      "Ġtackle": 1496,
      "31": 1497,
      "ĠFocus": 1498,
      "Ġbody": 1499,
      "Ä±p": 1500,
      "ry": 1501,
      "ĠplanÄ±": 1502,
      "Ġrep": 1503,
      "Ġafter": 1504,
      "Ġedin": 1505,
      "Ġthree": 1506,
      "87": 1507,
      "86": 1508,
      "ĠSabah": 1509,
      "yle": 1510,
      ":**": 1511,
      "Ġpri": 1512,
      "Ġhemen": 1513,
      "ĠhakkÄ±nda": 1514,
      "leÅŁ": 1515,
      "dir": 1516,
      "89": 1517,
      "Ġall": 1518,
      "Ġlist": 1519,
      "Ġdistrac": 1520,
      "ret": 1521,
      "mes": 1522,
      "Ġhaf": 1523,
      "ĠGÃ¼n": 1524,
      "fes": 1525,
      "madan": 1526,
      "Ġhis": 1527,
      "49": 1528,
      "dar": 1529,
      "Ġfeeling": 1530,
      "ĠdoÄŁru": 1531,
      "Ġsession": 1532,
      "Ġactivity": 1533,
      "ĠalÄ±ÅŁkanlÄ±klar": 1534,
      "Ġhi": 1535,
      "oro": 1536,
      "Ġyapacak": 1537,
      "odoro": 1538,
      "omodoro": 1539,
      "Ġbur": 1540,
      "Ġkadar": 1541,
      "ĠdÃ¼zen": 1542,
      "ĠaÃ§": 1543,
      "ĠyanÄ±t": 1544,
      "stin": 1545,
      "Ġjournal": 1546,
      "tif": 1547,
      "Ġbre": 1548,
      "ÄŁer": 1549,
      "med": 1550,
      "als": 1551,
      "ĠgÃ¶r": 1552,
      "Ġphone": 1553,
      "lerinizi": 1554,
      "Ġwalk": 1555,
      "Ġnext": 1556,
      "Ã¶z": 1557,
      "ward": 1558,
      "ĠadÄ±mÄ±nÄ±z": 1559,
      "Ġwhere": 1560,
      "layÄ±n": 1561,
      "Ġmaintain": 1562,
      "Ġiler": 1563,
      "nem": 1564,
      "-p": 1565,
      "ance": 1566,
      "rnek": 1567,
      "rek": 1568,
      "ound": 1569,
      "Ġreduce": 1570,
      "Ġop": 1571,
      "Ġoften": 1572,
      "tik": 1573,
      "til": 1574,
      "kin": 1575,
      "ments": 1576,
      "Ġcook": 1577,
      "ĠgÃ¼nÃ¼n": 1578,
      "Ġright": 1579,
      "Ġpain": 1580,
      "ated": 1581,
      "ĠbaÅŁlaya": 1582,
      "ĠÃ§Ä±k": 1583,
      "lat": 1584,
      "stination": 1585,
      "Ġimportant": 1586,
      "ĠyÃ¶n": 1587,
      "for": 1588,
      "Ġhow": 1589,
      "Ġro": 1590,
      "Ġgar": 1591,
      "Ġthings": 1592,
      "ange": 1593,
      "ÅŁÄ±": 1594,
      "ster": 1595,
      "rol": 1596,
      "ĠbaÅŁlayan": 1597,
      "iner": 1598,
      "Ġolan": 1599,
      "ĠhÄ±z": 1600,
      "Ġolacak": 1601,
      "Ġuse": 1602,
      "Ġgarden": 1603,
      "Ġsoruyu": 1604,
      "Ġsora": 1605,
      "Ġtama": 1606,
      "Ġalan": 1607,
      "Ġitiner": 1608,
      "Ġtake": 1609,
      "ĠbÃ¶": 1610,
      "Ġyarar": 1611,
      "Ġnefes": 1612,
      "lama": 1613,
      "sÄ±nÄ±": 1614,
      "Ġclutter": 1615,
      "meye": 1616,
      "Ġoverwhelmed": 1617,
      "Ġphoto": 1618,
      "ĠyapÄ±n": 1619,
      "Ġbirinin": 1620,
      "Ġaction": 1621,
      "tu": 1622,
      "ĠÃ¶z": 1623,
      "Ġapp": 1624,
      "Ġbelirleyin": 1625,
      "Ġiste": 1626,
      "Ġaw": 1627,
      "Ġbreaks": 1628,
      "ces": 1629,
      "Ġens": 1630,
      "set": 1631,
      "xi": 1632,
      "Ġmoving": 1633,
      "Ġbig": 1634,
      "ight": 1635,
      "mo": 1636,
      "ĠiÃ§inde": 1637,
      "Ã§im": 1638,
      "ĠgÃ¼ven": 1639,
      "Ġsha": 1640,
      "bileceÄŁi": 1641,
      "Ġbil": 1642,
      "nemli": 1643,
      "Ġroom": 1644,
      "wn": 1645,
      "ĠÅŁu": 1646,
      "ĠyanÄ±tla": 1647,
      "ĠÄ±ÅŁ": 1648,
      "Ġdakik": 1649,
      "ĠÅŁek": 1650,
      "Ġduring": 1651,
      "ĠoluÅŁ": 1652,
      "Ġlight": 1653,
      "Ġpe": 1654,
      "saj": 1655,
      "ÄŁÄ±nÄ±": 1656,
      "Ġtak": 1657,
      "Ġgardening": 1658,
      "ĠbiÃ§im": 1659,
      "Ġtemel": 1660,
      "ĠÃĸrnek": 1661,
      "Ġtechnique": 1662,
      "Ġeas": 1663,
      "ĠÃĸncelikle": 1664,
      "Ġthing": 1665,
      "ĠbaÅŁlamak": 1666,
      "ĠyararlÄ±": 1667,
      "ĠbiÃ§imde": 1668,
      "ĠsorabileceÄŁi": 1669,
      "lim": 1670,
      "Ġflight": 1671,
      "ĠardÄ±ndan": 1672,
      "Ġlearn": 1673,
      "-up": 1674,
      "larÄ±nÄ±": 1675,
      "Ġcreate": 1676,
      "red": 1677,
      "ĠsÄ±": 1678,
      "Ġharek": 1679,
      "sk": 1680,
      "Ġitinerary": 1681,
      "ĠStick": 1682,
      "Ġgood": 1683,
      "Ġoverwhelm": 1684,
      "alar": 1685,
      "Ġfin": 1686,
      "Ġdistractions": 1687,
      "time": 1688,
      "Ġconn": 1689,
      "Ġfocused": 1690,
      "Ġhave": 1691,
      "Ġdeney": 1692,
      "Ġbox": 1693,
      "cu": 1694,
      "trol": 1695,
      "ĠdeÄŁil": 1696,
      "rÄ±": 1697,
      "tes": 1698,
      "ĠÃ¶nemli": 1699,
      "cess": 1700,
      "Ġspace": 1701,
      "Ġbrea": 1702,
      "Ġdet": 1703,
      "Ġachi": 1704,
      "ĠdÃ¼ÅŁÃ¼n": 1705,
      "dic": 1706,
      "ĠtÃ¼r": 1707,
      "83": 1708,
      "ĠbaÅŁlayÄ±n": 1709,
      "Ġcommit": 1710,
      "Ġmaking": 1711,
      "malÄ±": 1712,
      "lace": 1713,
      "Ġcompletely": 1714,
      "asÄ±": 1715,
      "Ġkendi": 1716,
      "Ġcooking": 1717,
      "Ġwant": 1718,
      "82": 1719,
      "ĠTake": 1720,
      "ĠSa": 1721,
      "Ġwhile": 1722,
      "81": 1723,
      "ĠyapÄ±": 1724,
      "Ġnet": 1725,
      "Ġuz": 1726,
      "ĠkarÅŁÄ±": 1727,
      "Ġhangi": 1728,
      "Ġjournaling": 1729,
      "Ġpainting": 1730,
      "Ġfol": 1731,
      "rup": 1732,
      "Ġsorun": 1733,
      "ĠÃ¼z": 1734,
      "Ġsig": 1735,
      "rough": 1736,
      "Ġcamera": 1737,
      "ecek": 1738,
      "rain": 1739,
      "Ã¼yÃ¼k": 1740,
      "Ġthrough": 1741,
      "enc": 1742,
      "Ġleast": 1743,
      "ip": 1744,
      "ĠsayÄ±": 1745,
      "ĠPomodoro": 1746,
      "Ġaway": 1747,
      "Ġsen": 1748,
      "Ġrespond": 1749,
      "rin": 1750,
      "Ġblock": 1751,
      "Ġistedi": 1752,
      "Ġkap": 1753,
      "lexi": 1754,
      "Ġama": 1755,
      "man": 1756,
      "Ġstri": 1757,
      "ks": 1758,
      "gy": 1759,
      "Ġarea": 1760,
      "lerini": 1761,
      "ities": 1762,
      "Ġstudy": 1763,
      "Ġetk": 1764,
      "ower": 1765,
      "Ġgreen": 1766,
      "lish": 1767,
      "ĠÅŁekil": 1768,
      "ĠayÄ±r": 1769,
      "ssenti": 1770,
      "zÄ±r": 1771,
      "Ġflexi": 1772,
      "ĠMo": 1773,
      "45": 1774,
      "iting": 1775,
      "Ġdestination": 1776,
      "Ġred": 1777,
      "Ġayda": 1778,
      "Ġtimes": 1779,
      "ople": 1780,
      "Ġpeople": 1781,
      "Ġdin": 1782,
      "eri": 1783,
      "Ġstrict": 1784,
      "Ġconnec": 1785,
      "Ġfinish": 1786,
      "mer": 1787,
      "yors": 1788,
      "Ġwhite": 1789,
      "Ġregular": 1790,
      "Ġfi": 1791,
      "ils": 1792,
      "Ġhours": 1793,
      "Ġzorlu": 1794,
      "Ġfollow": 1795,
      "Ġmind": 1796,
      "Ġquestions": 1797,
      "Ġeff": 1798,
      "Ġyak": 1799,
      "ĠAvoid": 1800,
      "Ġilg": 1801,
      "Ġort": 1802,
      "Ġbest": 1803,
      "we": 1804,
      "line": 1805,
      "ide": 1806,
      "Ġnat": 1807,
      "ĠgÃ¶z": 1808,
      "ĠÅŁekilde": 1809,
      "Ġdedic": 1810,
      "ellow": 1811,
      "Ġyellow": 1812,
      "Ġhelps": 1813,
      "ous": 1814,
      "ffe": 1815,
      "Ġlong": 1816,
      "miz": 1817,
      "Ġ*": 1818,
      "deki": 1819,
      "ĠoluÅŁtur": 1820,
      "Ġchange": 1821,
      "Ġyar": 1822,
      "ĠEÄŁer": 1823,
      "Ġenti": 1824,
      "ite": 1825,
      "ts": 1826,
      "Ġentire": 1827,
      "ysic": 1828,
      "Ġensure": 1829,
      "ylece": 1830,
      "ĠyÃ¶ntem": 1831,
      "sp": 1832,
      "Ġkontrol": 1833,
      "meyi": 1834,
      "Ġphysic": 1835,
      "Ġhareket": 1836,
      "Ġdark": 1837,
      "ĠhazÄ±r": 1838,
      "graph": 1839,
      "ĠMotiv": 1840,
      "Ġetkili": 1841,
      "ĠolacaktÄ±r": 1842,
      "siz": 1843,
      "Ġwalking": 1844,
      "Ġerken": 1845,
      "Ġwho": 1846,
      "Ġessenti": 1847,
      "Ġdec": 1848,
      "ĠIn": 1849,
      "kinci": 1850,
      "cut": 1851,
      "ĠSonra": 1852,
      "ĠbÄ±": 1853,
      "ins": 1854,
      "ressure": 1855,
      "Ġphotograph": 1856,
      "-pressure": 1857,
      "Ġsignal": 1858,
      "Ġstarting": 1859,
      "Ġok": 1860,
      "ellikle": 1861,
      "Ġresponding": 1862,
      "Ä±nÄ±n": 1863,
      "Ġburn": 1864,
      "masÄ±": 1865,
      "ĠhÄ±zlÄ±": 1866,
      "Ġsupp": 1867,
      "Ġtoday": 1868,
      "mÄ±ÅŁ": 1869,
      "ĠWhat": 1870,
      "Ġmesaj": 1871,
      "iff": 1872,
      "ĠakÅŁam": 1873,
      "Ġfeels": 1874,
      "ĠIt": 1875,
      "Ġphotography": 1876,
      "ays": 1877,
      "room": 1878,
      "likte": 1879,
      "Ġbet": 1880,
      "rate": 1881,
      "Ġcool": 1882,
      "ween": 1883,
      "Ġbetween": 1884,
      "Ġchun": 1885,
      "Ġdiff": 1886,
      "Ġflexible": 1887,
      "Ġwater": 1888,
      "ves": 1889,
      "Ġolur": 1890,
      "Ġburnout": 1891,
      "yla": 1892,
      "Ġta": 1893,
      "Ġilgili": 1894,
      "Ġenergy": 1895,
      "Ġsonu": 1896,
      "Ġtry": 1897,
      "ĠdakikalÄ±k": 1898,
      "Ġfeelings": 1899,
      "Ġdis": 1900,
      "Ġmatter": 1901,
      "read": 1902,
      "Ġduy": 1903,
      "Ġuntil": 1904,
      "ĠÃ¼zer": 1905,
      "ching": 1906,
      "lend": 1907,
      "hing": 1908,
      "gether": 1909,
      "dentif": 1910,
      "Ġunderstanding": 1911,
      "Ġhedefler": 1912,
      "eyi": 1913,
      "now": 1914,
      "sÄ±nÄ±z": 1915,
      "Ġhem": 1916,
      "ling": 1917,
      "Ġtemiz": 1918,
      "Ġstress": 1919,
      "ĠbÄ±rak": 1920,
      "Ġsay": 1921,
      "Ġelse": 1922,
      "Ġchunks": 1923,
      "Ġbrain": 1924,
      "Ġless": 1925,
      "Ġayar": 1926,
      "Ġtogether": 1927,
      "Ġactivities": 1928,
      "Ġbek": 1929,
      "46": 1930,
      "ĠGo": 1931,
      "Ġur": 1932,
      "..": 1933,
      "lamak": 1934,
      "ĠMotivation": 1935,
      "are": 1936,
      "Ġmess": 1937,
      "oose": 1938,
      "Ġbut": 1939,
      "Ġstick": 1940,
      "Ġbedroom": 1941,
      "erin": 1942,
      "leyerek": 1943,
      "Ġstay": 1944,
      "ÄŁini": 1945,
      "ĠBaÅŁ": 1946,
      "meniz": 1947,
      "ĠgÃ¼venli": 1948,
      "imming": 1949,
      "Ġswimming": 1950,
      "ĠTry": 1951,
      "Ġstate": 1952,
      "va": 1953,
      "Ġasking": 1954,
      "land": 1955,
      "ĠyardÄ±m": 1956,
      "Ġspeaking": 1957,
      "Ġolabilir": 1958,
      "ĠbaÅŁlayabilirsiniz": 1959,
      "Ġeasi": 1960,
      "oy": 1961,
      "Ġinc": 1962,
      "Ġphysical": 1963,
      "ĠFri": 1964,
      "laya": 1965,
      "ear": 1966,
      "ĠHa": 1967,
      "ĠkiÅŁ": 1968,
      "cal": 1969,
      "ways": 1970,
      "Ġanything": 1971,
      "ĠÄ°stanbul": 1972,
      "izin": 1973,
      "Ġbak": 1974,
      "Ġgoing": 1975,
      "ĠÃ§alÄ±ÅŁÄ±n": 1976,
      "Ġtrip": 1977,
      "Ġtekrar": 1978,
      "Ġsonraki": 1979,
      "ual": 1980,
      "Ġbilg": 1981,
      "Ġnow": 1982,
      "47": 1983,
      "miÅŁ": 1984,
      "Ġrela": 1985,
      "Ġmove": 1986,
      "aki": 1987,
      "ĠbÃ¼yÃ¼k": 1988,
      "Ġtickets": 1989,
      "Ġsize": 1990,
      "Ġbr": 1991,
      "yunca": 1992,
      "Ġdene": 1993,
      "Ġhisset": 1994,
      "Ġopen": 1995,
      "Ä±l": 1996,
      "Ġnight": 1997,
      "'re": 1998,
      "Ġiz": 1999,
      "Ġmental": 2000,
      "vir": 2001,
      "Ã§ek": 2002,
      ".\"": 2003,
      "ÄŁinizi": 2004,
      "Ġboyunca": 2005,
      "viron": 2006,
      "Ġrepe": 2007,
      "Ġfriend": 2008,
      "Ġpress": 2009,
      "Ġmu": 2010,
      "ssible": 2011,
      "Ġmev": 2012,
      "ĠCh": 2013,
      "Ġsab": 2014,
      "Ġenj": 2015,
      "Ġbedtime": 2016,
      "Ġpra": 2017,
      "Ġdeneyin": 2018,
      "Ġeasier": 2019,
      "gn": 2020,
      "Ġnatur": 2021,
      "Ã¼t": 2022,
      "ĠÄ°kinci": 2023,
      "Ġrahat": 2024,
      "Ġstep": 2025,
      "ĠPair": 2026,
      "vironment": 2027,
      "Ġconf": 2028,
      "Ġpressure": 2029,
      "Ġkeli": 2030,
      "pec": 2031,
      "ĠdoÄŁrudan": 2032,
      "Ġactu": 2033,
      "ffee": 2034,
      "ĠÃ§Ã¶z": 2035,
      "led": 2036,
      "Ġachiev": 2037,
      "ness": 2038,
      "ĠCo": 2039,
      "Ġbetter": 2040,
      "ire": 2041,
      "Ġothers": 2042,
      "Ġlar": 2043,
      "ĠadÄ±mÄ±": 2044,
      "âĢ": 2045,
      "Ġmevcut": 2046,
      "Ġenvironment": 2047,
      "ĠgÃ¶rev": 2048,
      "Ġcont": 2049,
      "Ã§e": 2050,
      "Ġfix": 2051,
      "Ġcoffee": 2052,
      "Ġbilgi": 2053,
      "lara": 2054,
      "Ġbud": 2055,
      "Ġflights": 2056,
      "Ġyat": 2057,
      "imi": 2058,
      "Ġfocusing": 2059,
      "Ġhigh": 2060,
      "Ġacco": 2061,
      "Ġfollowed": 2062,
      "hti": 2063,
      "Ġknow": 2064,
      "kÃ¼": 2065,
      "asÄ±l": 2066,
      "dentify": 2067,
      "ld": 2068,
      "mayÄ±n": 2069,
      "Ġful": 2070,
      "Ġbirlikte": 2071,
      "ĠÃ¶ncelikle": 2072,
      "ĠÃĩ": 2073,
      "kaÃ§": 2074,
      "ugÃ¼n": 2075,
      "ĠyardÄ±mcÄ±": 2076,
      "ĠComm": 2077,
      "'in": 2078,
      "65": 2079,
      "ĠadÄ±mlar": 2080,
      "ĠseÃ§mek": 2081,
      "Ġtamam": 2082,
      "Ġbreath": 2083,
      "Ġnok": 2084,
      "ÄŁu": 2085,
      "Ġyapmaya": 2086,
      "rÄ±ca": 2087,
      "gg": 2088,
      "Ġthou": 2089,
      "Ġactually": 2090,
      "Ġsuch": 2091,
      "Ġolma": 2092,
      "Ġway": 2093,
      "lendir": 2094,
      "sts": 2095,
      "Ġsessions": 2096,
      "Ġeasy": 2097,
      "Ġvis": 2098,
      "daki": 2099,
      "yÄ±p": 2100,
      "Ġachievable": 2101,
      "Ġyet": 2102,
      "ount": 2103,
      "Ġurg": 2104,
      "unuzu": 2105,
      "yede": 2106,
      "ran": 2107,
      "Ġnon": 2108,
      "ĠsÄ±k": 2109,
      "maktÄ±r": 2110,
      "Ġthought": 2111,
      "ĠPause": 2112,
      "Ġihti": 2113,
      "ĠAyrÄ±ca": 2114,
      "Ġown": 2115,
      "lem": 2116,
      "ital": 2117,
      "aca": 2118,
      "ĠseÃ§in": 2119,
      "?\"": 2120,
      "Ġpractice": 2121,
      "ĠFriendship": 2122,
      "Ġbudget": 2123,
      "Ġmaster": 2124,
      "Ġsto": 2125,
      "tention": 2126,
      "Ġkonu": 2127,
      "ablish": 2128,
      "Ġtaking": 2129,
      "Ġhafif": 2130,
      "econd": 2131,
      "Ġhar": 2132,
      "cy": 2133,
      "ough": 2134,
      "ĠÃĹ": 2135,
      "Ġhal": 2136,
      "ĠnasÄ±l": 2137,
      "Ġsupport": 2138,
      "aries": 2139,
      "stablish": 2140,
      "ĠolduÄŁu": 2141,
      "Ġbound": 2142,
      "gress": 2143,
      "Ġdedicated": 2144,
      "Ġput": 2145,
      "Ġprogress": 2146,
      "Ġise": 2147,
      "-d": 2148,
      "Ġfark": 2149,
      "leye": 2150,
      "ĠÅŁun": 2151,
      "ĠKend": 2152,
      "aring": 2153,
      "isen": 2154,
      "Ġyok": 2155,
      "Ġsimp": 2156,
      "bil": 2157,
      "Ġsetting": 2158,
      "Ġreset": 2159,
      "Ġetmek": 2160,
      "Ġshow": 2161,
      "Ġtimer": 2162,
      "hower": 2163,
      "rix": 2164,
      "75": 2165,
      "cep": 2166,
      "isenhower": 2167,
      "Ġtal": 2168,
      "Ġreward": 2169,
      "Ġlet": 2170,
      "Ġinternal": 2171,
      "Ġgrou": 2172,
      "ded": 2173,
      "Ġkalk": 2174,
      "nÄ±": 2175,
      "ĠChoose": 2176,
      "ding": 2177,
      "Ġtan": 2178,
      "Ġpratik": 2179,
      "ĠadÄ±mÄ±nÄ±zÄ±": 2180,
      "Ġgra": 2181,
      "vior": 2182,
      "rage": 2183,
      "havior": 2184,
      "ĠÄ±ÅŁÄ±k": 2185,
      "76": 2186,
      "tel": 2187,
      "Ġquick": 2188,
      "Ġokuma": 2189,
      "leÅŁtir": 2190,
      "Ġbehavior": 2191,
      "Ġmis": 2192,
      "Ġair": 2193,
      "Ġactively": 2194,
      "os": 2195,
      "Ġsevi": 2196,
      "Ġsun": 2197,
      "Ġazal": 2198,
      "ĠMat": 2199,
      "Ä±lÄ±": 2200,
      "Ġbooks": 2201,
      "esi": 2202,
      "Ġkah": 2203,
      "Ġtran": 2204,
      "95": 2205,
      "ĠDay": 2206,
      "Ġkendinize": 2207,
      "Åŀ": 2208,
      "Ġcomp": 2209,
      "Ġderin": 2210,
      "ĠÃ¶nceki": 2211,
      "ĠMatrix": 2212,
      "Ġear": 2213,
      "Ġsayede": 2214,
      "Ġuygulama": 2215,
      "sin": 2216,
      "Ġchecking": 2217,
      "ber": 2218,
      "zla": 2219,
      "mation": 2220,
      "ĠsayÄ±sÄ±": 2221,
      "ĠÃ¶n": 2222,
      "load": 2223,
      "Ġboxes": 2224,
      "Ġbunu": 2225,
      "Ġworking": 2226,
      "iye": 2227,
      "Ã¼nde": 2228,
      "Ġala": 2229,
      "Ġdrin": 2230,
      "ens": 2231,
      "Ġcalm": 2232,
      "ĠbaÅŁarÄ±": 2233,
      "ĠÅŁeyi": 2234,
      "96": 2235,
      "erÃ§ek": 2236,
      "Ġkendine": 2237,
      "Ġrut": 2238,
      "Ġmi": 2239,
      "Ġul": 2240,
      "lecek": 2241,
      "Ġmakes": 2242,
      "Ġpenc": 2243,
      "Ġfazla": 2244,
      "Ġsimply": 2245,
      "07": 2246,
      "ĠIdentify": 2247,
      "Ġshared": 2248,
      "Ġtrust": 2249,
      "48": 2250,
      "Ġconnection": 2251,
      "ĠtÃ¼m": 2252,
      "lerin": 2253,
      "ĠbÃ¶ylece": 2254,
      "41": 2255,
      "Ġclar": 2256,
      "eÅŁ": 2257,
      "Ġcur": 2258,
      "Ġbit": 2259,
      "ĠmÄ±": 2260,
      "Ġlif": 2261,
      "Ġclean": 2262,
      "ject": 2263,
      "Ġoverwhelming": 2264,
      "Ġpar": 2265,
      "56": 2266,
      "duc": 2267,
      "Ġhapp": 2268,
      "erli": 2269,
      "oth": 2270,
      "ĠaÃ§Ä±k": 2271,
      "Ġgenellikle": 2272,
      "Ġsan": 2273,
      "una": 2274,
      "int": 2275,
      "ĠSadece": 2276,
      "ready": 2277,
      "Ġdesi": 2278,
      "Ġyor": 2279,
      "ds": 2280,
      "Ġfew": 2281,
      "Ġsystem": 2282,
      "ĠsÄ±cak": 2283,
      "ĠulaÅŁ": 2284,
      "Ġenerj": 2285,
      "ĠEisenhower": 2286,
      "Ġspeak": 2287,
      "Ġspot": 2288,
      "Ġalready": 2289,
      "Ġinterrup": 2290,
      "09": 2291,
      "Ġinfor": 2292,
      "Ġval": 2293,
      "ial": 2294,
      "ĠbaÄŁ": 2295,
      ").": 2296,
      "43": 2297,
      "uk": 2298,
      "Ġfind": 2299,
      "Ġwaiting": 2300,
      "Ġperf": 2301,
      "Ġinformation": 2302,
      "Ġunut": 2303,
      "ĠbirkaÃ§": 2304,
      "Ġdurumu": 2305,
      "row": 2306,
      "Ġjackets": 2307,
      "itiate": 2308,
      "ĠThe": 2309,
      "hy": 2310,
      "Ġdays": 2311,
      "Ġstatements": 2312,
      "42": 2313,
      "yin": 2314,
      "79": 2315,
      "side": 2316,
      "55": 2317,
      "Ġstres": 2318,
      "lere": 2319,
      "laÅŁtÄ±r": 2320,
      "Ġlarge": 2321,
      "06": 2322,
      "Ġaktiv": 2323,
      "Ġfriends": 2324,
      "'ta": 2325,
      "-in": 2326,
      "Ġenjoy": 2327,
      "Ġinterest": 2328,
      "Ġrelax": 2329,
      "Ġbeing": 2330,
      "ĠMake": 2331,
      "Ġgetting": 2332,
      "ĠsaÄŁlar": 2333,
      "Ġter": 2334,
      "Ġbooking": 2335,
      "eler": 2336,
      "05": 2337,
      "Ã¼nÃ¼": 2338,
      "other": 2339,
      "Ġdoable": 2340,
      "min": 2341,
      "Ġdik": 2342,
      "Ġwind": 2343,
      "Ġolmak": 2344,
      "Ġancak": 2345,
      "Ġbad": 2346,
      "Ġwaking": 2347,
      "ÄŁÄ±nÄ±zÄ±": 2348,
      "Ġplants": 2349,
      "bet": 2350,
      "ended": 2351,
      "ĠUy": 2352,
      "unun": 2353,
      "Ġstret": 2354,
      "Ġexpress": 2355,
      "ulate": 2356,
      "yorsanÄ±z": 2357,
      "let": 2358,
      "lÄ±ÄŁÄ±": 2359,
      "ÅŁa": 2360,
      "77": 2361,
      "larÄ±nÄ±z": 2362,
      "Ġaktivite": 2363,
      "Ġwithin": 2364,
      "Ġboth": 2365,
      "59": 2366,
      "Ġboundaries": 2367,
      "Ã¼l": 2368,
      "Ġstop": 2369,
      "Ġsets": 2370,
      "Ġpencils": 2371,
      "66": 2372,
      "Ġmuch": 2373,
      "Ġlife": 2374,
      "Ġprogram": 2375,
      "liÅŁ": 2376,
      "ĠÃĸrneÄŁin": 2377,
      "ones": 2378,
      "Ġtamamen": 2379,
      "ba": 2380,
      "endar": 2381,
      "Ġallow": 2382,
      "ĠgeÃ§ir": 2383,
      "Ġtrigg": 2384,
      "Ġeras": 2385,
      "Ġuzun": 2386,
      "aha": 2387,
      "ex": 2388,
      "inden": 2389,
      "ĠgerÃ§ek": 2390,
      "less": 2391,
      "ult": 2392,
      "Ġeffort": 2393,
      "raz": 2394,
      "ass": 2395,
      "Ġusu": 2396,
      "ĠbahÃ§e": 2397,
      "Ġerasers": 2398,
      "ele": 2399,
      "ĠartÄ±r": 2400,
      "Ġtelefonunuz": 2401,
      "ĠÃ¶zel": 2402,
      "kat": 2403,
      "Ġanother": 2404,
      "Ġdra": 2405,
      "sed": 2406,
      "Ġthoughts": 2407,
      "uine": 2408,
      "Ġnotebooks": 2409,
      "ĠbÃ¶l": 2410,
      "Ġkapat": 2411,
      "Ġsur": 2412,
      "ĠdÄ±": 2413,
      "Ġtur": 2414,
      "Ġbelirlemek": 2415,
      "Ġgenuine": 2416,
      "Ġreal": 2417,
      "Ġkelime": 2418,
      "Ġcontact": 2419,
      "04": 2420,
      "ĠolduÄŁunu": 2421,
      "Ġbackpacks": 2422,
      "ĠAsk": 2423,
      "Ġshare": 2424,
      "Ġclock": 2425,
      "Ġbelirle": 2426,
      "mor": 2427,
      "Ġneden": 2428,
      "Ġbicycles": 2429,
      "ĠTe": 2430,
      "dÄ±ÄŁÄ±nÄ±z": 2431,
      "Ġthere": 2432,
      "ade": 2433,
      "Ġince": 2434,
      "bir": 2435,
      "ĠÄ±ÅŁÄ±": 2436,
      ".,": 2437,
      "Ġaut": 2438,
      "Ġtakes": 2439,
      "lerden": 2440,
      "Ġearly": 2441,
      "go": 2442,
      "ges": 2443,
      "Ġsizi": 2444,
      "stant": 2445,
      "âĢĶ": 2446,
      "Ġpack": 2447,
      "Ġcalendar": 2448,
      "Ã¼nkÃ¼": 2449,
      "Ġneeds": 2450,
      "Ġpay": 2451,
      "ulti": 2452,
      "Ġlocal": 2453,
      "ĠdÃ¶": 2454,
      "Ġcom": 2455,
      "Ġconversations": 2456,
      "99": 2457,
      "ĠseÃ§en": 2458,
      "08": 2459,
      "Ġdri": 2460,
      "Ġdetay": 2461,
      "Ġacc": 2462,
      "Ġgece": 2463,
      "Ġlamps": 2464,
      "erv": 2465,
      "Ġexact": 2466,
      "Ġbulun": 2467,
      "Ġtackling": 2468,
      "Ãĸ": 2469,
      "Ã§a": 2470,
      "Ġblocks": 2471,
      "Ġunex": 2472,
      "alarÄ±": 2473,
      "Ġmulti": 2474,
      "larÄ±n": 2475,
      "abilirsiniz": 2476,
      "pected": 2477,
      "Ġmessage": 2478,
      "ĠalÄ±p": 2479,
      "Ġseviy": 2480,
      "Ġunexpected": 2481,
      "ara": 2482,
      "con": 2483,
      "yip": 2484,
      "Ġnaturally": 2485,
      "Ġenough": 2486,
      "ĠdeÄŁer": 2487,
      "ĠvÃ¼": 2488,
      "ĠyÃ¼rÃ¼": 2489,
      "ĠyÃ¼zme": 2490,
      "ĠInitiate": 2491,
      "Ġthin": 2492,
      "ations": 2493,
      "limin": 2494,
      "Ġhard": 2495,
      "ĠÃĸÄŁ": 2496,
      "Ġwords": 2497,
      "Ġthose": 2498,
      "lerde": 2499,
      "Ġzorluk": 2500,
      "ĠEv": 2501,
      "dur": 2502,
      "val": 2503,
      "ĠaynÄ±": 2504,
      "Ġdeclutter": 2505,
      "Ġconcep": 2506,
      "rarak": 2507,
      "ĠyÃ¼k": 2508,
      "ushing": 2509,
      "ĠDown": 2510,
      "Ġessential": 2511,
      "Ġide": 2512,
      "Ġask": 2513,
      ".g": 2514,
      "ĠdÄ±ÅŁ": 2515,
      "oma": 2516,
      "alth": 2517,
      "diÄŁiniz": 2518,
      "Ġdeta": 2519,
      "mplement": 2520,
      "ĠÅŀ": 2521,
      "ĠDownload": 2522,
      "Ġentirely": 2523,
      "Ġbiri": 2524,
      "Ġsuyun": 2525,
      "Ġgive": 2526,
      "'n": 2527,
      "be": 2528,
      "Ġdesk": 2529,
      "57": 2530,
      "Ġhas": 2531,
      "Ġproduc": 2532,
      "Ġsim": 2533,
      "ĠAd": 2534,
      "Ġimpro": 2535,
      "Ġadv": 2536,
      "69": 2537,
      "Ġcas": 2538,
      "ĠolmalÄ±": 2539,
      "Ġurgent": 2540,
      "ĠodaklanÄ±n": 2541,
      "uly": 2542,
      "Ġautoma": 2543,
      "Ġgl": 2544,
      "-ended": 2545,
      "yu": 2546,
      "Ġtruly": 2547,
      "ĠKÃ¼Ã§Ã¼k": 2548,
      "dun": 2549,
      "Ġsee": 2550,
      "Ġhotel": 2551,
      "ÄŁa": 2552,
      "Ġstorage": 2553,
      "ĠTh": 2554,
      "Ġlast": 2555,
      "Ġexist": 2556,
      "Ġdiffer": 2557,
      "ĠAl": 2558,
      "Ġtoo": 2559,
      "ĠÃ¼zerine": 2560,
      "Ġadvance": 2561,
      "ĠÃ§e": 2562,
      "Ġusually": 2563,
      "67": 2564,
      "Ġhealth": 2565,
      "Ġbeco": 2566,
      "Ġdrinking": 2567,
      "gun": 2568,
      "Ġses": 2569,
      "Ġaside": 2570,
      "ĠYes": 2571,
      "ĠÃ§Ã¼nkÃ¼": 2572,
      "Ġchanges": 2573,
      "gital": 2574,
      "ĠyakÄ±n": 2575,
      "ime": 2576,
      "Ġoutside": 2577,
      "ĠEstablish": 2578,
      "Ġremo": 2579,
      "**:": 2580,
      "ĠÅŁunlar": 2581,
      "Ã¼nÃ¼z": 2582,
      "eleb": 2583,
      "cial": 2584,
      "ould": 2585,
      "Ġdef": 2586,
      "Ġdrawer": 2587,
      "Ġeg": 2588,
      "Ġsaatleri": 2589,
      "Ġinclu": 2590,
      "Ġmaps": 2591,
      "Ġrequ": 2592,
      "conn": 2593,
      "Ġexisting": 2594,
      "layarak": 2595,
      "Ġyeterli": 2596,
      "ĠGÃ¼nlÃ¼k": 2597,
      "yat": 2598,
      "inizde": 2599,
      "Ġmatters": 2600,
      "Ġoffline": 2601,
      "Ġglass": 2602,
      "97": 2603,
      "Ġorganize": 2604,
      "Ġeye": 2605,
      "thod": 2606,
      "Ġgel": 2607,
      "manÄ±zÄ±": 2608,
      "Ġpart": 2609,
      "meden": 2610,
      "Ġmethod": 2611,
      "Ġdoes": 2612,
      "Ġalways": 2613,
      "Ġcare": 2614,
      "ms": 2615,
      "Ġap": 2616,
      "ĠDaha": 2617,
      "Ġegz": 2618,
      "su": 2619,
      "Ġsharing": 2620,
      "ĠImplement": 2621,
      "vaÅŁ": 2622,
      "ĠpaylaÅŁ": 2623,
      "Ġsecond": 2624,
      "og": 2625,
      "dÄ±n": 2626,
      "Ġclo": 2627,
      "ost": 2628,
      "Ġkor": 2629,
      "Ġtopic": 2630,
      "Ġplace": 2631,
      "liÄŁi": 2632,
      "Ã¶r": 2633,
      "vam": 2634,
      "Ġclearly": 2635,
      "ĠÃ§eki": 2636,
      "Ġsaying": 2637,
      "Ġprocess": 2638,
      "ndaki": 2639,
      "eras": 2640,
      "ĠÅŁeyler": 2641,
      "),": 2642,
      "sh": 2643,
      "face": 2644,
      "lot": 2645,
      "ather": 2646,
      "ece": 2647,
      "ĠdoÄŁal": 2648,
      "ĠiÅŁe": 2649,
      "Ġgir": 2650,
      "Ġegzers": 2651,
      "yon": 2652,
      "Ġx": 2653,
      "Ġones": 2654,
      "Ġdifferent": 2655,
      "Ġeve": 2656,
      "oda": 2657,
      "Ġkey": 2658,
      "no": 2659,
      "its": 2660,
      "Ġcameras": 2661,
      "oplam": 2662,
      "larÄ±nÄ±zÄ±": 2663,
      "Ġilerleme": 2664,
      "Ġregulate": 2665,
      "Ġdikkat": 2666,
      "Ġrutin": 2667,
      "ĠThis": 2668,
      "decek": 2669,
      "Ġemo": 2670,
      "Ġceleb": 2671,
      "menizi": 2672,
      "liminate": 2673,
      "Ġavoiding": 2674,
      "Ġdigital": 2675,
      "Ġclarif": 2676,
      "Ġzi": 2677,
      "Ġend": 2678,
      "onin": 2679,
      "Ġshel": 2680,
      "Ġmater": 2681,
      "ilt": 2682,
      "eve": 2683,
      "ĠÄ±": 2684,
      "ĠkullanÄ±n": 2685,
      "ĠĠ": 2686,
      "ĠalÄ±n": 2687,
      "Ġsizin": 2688,
      "mesi": 2689,
      "ple": 2690,
      "des": 2691,
      "ĠyÃ¼rÃ¼yÃ¼ÅŁe": 2692,
      "Ġlater": 2693,
      "ĠvÃ¼cu": 2694,
      "ood": 2695,
      "ĠTechnique": 2696,
      "luk": 2697,
      "Ġalmak": 2698,
      "Ġdevam": 2699,
      "ĠbugÃ¼n": 2700,
      "Ġtrack": 2701,
      "Ġkendinizi": 2702,
      "Ġcomes": 2703,
      "Ġnokta": 2704,
      "Ġproject": 2705,
      "Ġolun": 2706,
      "Ġbilgiler": 2707,
      "Ġconsistently": 2708,
      "Ġwr": 2709,
      "icro": 2710,
      "Ġhand": 2711,
      "fe": 2712,
      "gor": 2713,
      "Ġpossible": 2714,
      "Ġsort": 2715,
      "ĠkayÄ±ta": 2716,
      "Ġprioritize": 2717,
      "ĠyÃ¼zecek": 2718,
      "Ġmus": 2719,
      "ĠÃ¶neriler": 2720,
      "connect": 2721,
      "Ġessentials": 2722,
      "irim": 2723,
      "Ġotur": 2724,
      "Ġkahve": 2725,
      "Ġsurface": 2726,
      "az": 2727,
      "Ġob": 2728,
      "ĠgÃ¶ster": 2729,
      "Ġsk": 2730,
      "Ġwhole": 2731,
      "lerle": 2732,
      "Ġmelat": 2733,
      "Ġheard": 2734,
      "mmoda": 2735,
      "Ġortam": 2736,
      "ĠÃĸÄŁren": 2737,
      "reating": 2738,
      "Ġkitab": 2739,
      "gain": 2740,
      "Ġmelatonin": 2741,
      "ogle": 2742,
      "ĠRes": 2743,
      "Ġregard": 2744,
      "vals": 2745,
      "Ä±nÄ±za": 2746,
      "ĠistediÄŁiniz": 2747,
      "\":": 2748,
      ").Ċ": 2749,
      "sanÄ±z": 2750,
      "ĠÃ¼": 2751,
      "goti": 2752,
      "'Ä±n": 2753,
      "-ne": 2754,
      "all": 2755,
      "Ġkaz": 2756,
      "ĠyavaÅŁ": 2757,
      "ĠÃ§Ã¶zÃ¼m": 2758,
      "Ġgelecek": 2759,
      "Ġfull": 2760,
      "Ġaccommoda": 2761,
      "Ġkayn": 2762,
      "Ġswim": 2763,
      "Ġsocial": 2764,
      "lying": 2765,
      "Ġprices": 2766,
      "ĠÅŁunlardÄ±r": 2767,
      "Ġpla": 2768,
      "Ġhav": 2769,
      "Ġcount": 2770,
      "03": 2771,
      "ĠHe": 2772,
      "sÄ±n": 2773,
      "ĠgÃ¼Ã§": 2774,
      "-negoti": 2775,
      "Ġuyan": 2776,
      "ĠLear": 2777,
      "Ġintervals": 2778,
      "Ġdiffic": 2779,
      "Ġevening": 2780,
      "Ġyan": 2781,
      "Ġputting": 2782,
      "Ġskill": 2783,
      "Ġedi": 2784,
      "Ġede": 2785,
      "Ġkullanarak": 2786,
      "ebilir": 2787,
      "ĠeÄŁ": 2788,
      "opt": 2789,
      "Ġdifficult": 2790,
      "ĠĠĊ": 2791,
      "Ġoffer": 2792,
      "120": 2793,
      "54": 2794,
      "-negotiable": 2795,
      "64": 2796,
      "lÄ±ÅŁ": 2797,
      "Ġmet": 2798,
      "Ġkam": 2799,
      "Ġsense": 2800,
      "landÄ±": 2801,
      "izing": 2802,
      "Ġsabit": 2803,
      "ĠÃ§iz": 2804,
      "Ġkamera": 2805,
      "abi": 2806,
      "Ġcelebrate": 2807,
      "pping": 2808,
      "'ve": 2809,
      ",\"": 2810,
      "cing": 2811,
      "lÃ¼": 2812,
      "layÄ±": 2813,
      "Ġekran": 2814,
      "Ġreach": 2815,
      "ective": 2816,
      "Ġprioriti": 2817,
      "Ġstretching": 2818,
      "inizin": 2819,
      "Ġfree": 2820,
      "Ġbuilds": 2821,
      "Ġbursts": 2822,
      "yal": 2823,
      "ercise": 2824,
      "ĠTo": 2825,
      "Ġverin": 2826,
      "Ġexactly": 2827,
      "idir": 2828,
      "Ġbreathing": 2829,
      "128": 2830,
      "210": 2831,
      "Ġca": 2832,
      "Ġpres": 2833,
      "Ä±mÄ±": 2834,
      "...\"": 2835,
      "74": 2836,
      "masÄ±nÄ±": 2837,
      "ÄŁÄ±na": 2838,
      "Ġbiraz": 2839,
      "Ġyolu": 2840,
      "ĠadÄ±mlarÄ±": 2841,
      "ĠyaptÄ±": 2842,
      "tÄ±n": 2843,
      "ĠgÃ¶nder": 2844,
      "Ġsoru": 2845,
      "ĠCommunication": 2846,
      "'i": 2847,
      "Ġapps": 2848,
      "yim": 2849,
      "130": 2850,
      "Ġactions": 2851,
      "Ġki": 2852,
      "Ġten": 2853,
      "ouse": 2854,
      "110": 2855,
      "hes": 2856,
      "Ġfixed": 2857,
      "Ġaround": 2858,
      "Ġkonuyu": 2859,
      "Ġimprove": 2860,
      "fort": 2861,
      "-s": 2862,
      "Ġhouse": 2863,
      "Ġregularly": 2864,
      "ĠaraÃ§": 2865,
      "ĠseÃ§enek": 2866,
      "02": 2867,
      "Ġdates": 2868,
      "ration": 2869,
      "cih": 2870,
      "ĠvÃ¼cudun": 2871,
      "Ġagain": 2872,
      "-f": 2873,
      "Ġyeme": 2874,
      "Ġthroughout": 2875,
      "Ġconcept": 2876,
      "ĠArdÄ±ndan": 2877,
      "Ġsmaller": 2878,
      "Ġrespon": 2879,
      "locking": 2880,
      "resh": 2881,
      "Ġyoksa": 2882,
      "Ġmaterial": 2883,
      "Ġsaid": 2884,
      "Ġlevel": 2885,
      "Ġkeeping": 2886,
      "Ġtercih": 2887,
      "Ġbriefly": 2888,
      "lest": 2889,
      "reat": 2890,
      "ĠAdopt": 2891,
      "ĠbahÃ§eniz": 2892,
      "Ġifade": 2893,
      "Ġquickly": 2894,
      "Ġhafta": 2895,
      "Ġsoh": 2896,
      "Ġkez": 2897,
      "ayÄ±": 2898,
      "Ġdone": 2899,
      "lardan": 2900,
      "Ġcontain": 2901,
      "ategor": 2902,
      "itive": 2903,
      "Ġbreaking": 2904,
      "landÄ±r": 2905,
      "ĠJ": 2906,
      "ĠgÃ¶rÃ¼n": 2907,
      "ĠarasÄ±": 2908,
      "arken": 2909,
      "ĠAralÄ±k": 2910,
      "ĠkolaylaÅŁtÄ±r": 2911,
      "ging": 2912,
      "Ġyara": 2913,
      "sÄ±z": 2914,
      "ĠCon": 2915,
      "Ġdiye": 2916,
      "94": 2917,
      "Ä±ndan": 2918,
      "ove": 2919,
      "ĠHaf": 2920,
      "Ġdeste": 2921,
      "Ġproble": 2922,
      "kli": 2923,
      "Ġhob": 2924,
      "ĠListen": 2925,
      "eye": 2926,
      "Ġreduces": 2927,
      "sÄ±na": 2928,
      "ĠyapmayÄ±": 2929,
      "ĠhatÄ±r": 2930,
      "Ġsam": 2931,
      "ĠgÃ¼neÅŁ": 2932,
      "ÅŁÄ±k": 2933,
      "Ġyorgun": 2934,
      "01": 2935,
      "Ġalar": 2936,
      "Ġbelirt": 2937,
      "Ġachieve": 2938,
      "Ġuzak": 2939,
      "ĠUyku": 2940,
      "ĠBaÅŁlangÄ±Ã§": 2941,
      "ĠistediÄŁinizi": 2942,
      "Ġlook": 2943,
      "Ġeng": 2944,
      "Ġconsistency": 2945,
      "stantly": 2946,
      "ĠSe": 2947,
      "eth": 2948,
      "Ġanla": 2949,
      "Ġcategor": 2950,
      "Ġexercise": 2951,
      "Ġrit": 2952,
      "310": 2953,
      "Ġgroup": 2954,
      "230": 2955,
      "ĠsÃ¶": 2956,
      "Ġgent": 2957,
      "Ġplans": 2958,
      "Ġmultiple": 2959,
      "Ġseconds": 2960,
      "Bu": 2961,
      "Ġgerekir": 2962,
      "yorsunuz": 2963,
      "Ġregardless": 2964,
      "Ġsamimi": 2965,
      "kiler": 2966,
      "nden": 2967,
      "kÃ¼n": 2968,
      "yac": 2969,
      "'te": 2970,
      "Ġpoz": 2971,
      "'ya": 2972,
      "Ġiy": 2973,
      "port": 2974,
      "320": 2975,
      "ision": 2976,
      "Ġrepeating": 2977,
      "unda": 2978,
      "Pomodoro": 2979,
      "Ġmut": 2980,
      "Ġmed": 2981,
      "-down": 2982,
      "tire": 2983,
      "ies": 2984,
      "Ġclearing": 2985,
      "ending": 2986,
      "Ġtari": 2987,
      "Ġfati": 2988,
      "ĠBel": 2989,
      "220": 2990,
      "ency": 2991,
      "ining": 2992,
      "Ġteeth": 2993,
      "Ġfatigue": 2994,
      "228": 2995,
      "cra": 2996,
      "Ġgiving": 2997,
      "Ä±nÄ±zda": 2998,
      "Ġpi": 2999,
      "san": 3000,
      "akes": 3001,
      "Ġinterac": 3002,
      "328": 3003,
      "ĠApp": 3004,
      "rent": 3005,
      "tar": 3006,
      "Ġkalan": 3007,
      "ĠyaklaÅŁ": 3008,
      "ĠGoogle": 3009,
      "Ġcurrent": 3010,
      "Ġkind": 3011,
      "Ä±la": 3012,
      "sing": 3013,
      "Ġattention": 3014,
      "ĠÃ¶ncelik": 3015,
      "ssiz": 3016,
      "330": 3017,
      "Ġprocra": 3018,
      "Ġkab": 3019,
      "laming": 3020,
      "ÄŁÄ±n": 3021,
      "ĠdÄ±ÅŁarÄ±": 3022,
      "ĠyaÅŁ": 3023,
      "space": 3024,
      "iet": 3025,
      "Ġblaming": 3026,
      "Ġnever": 3027,
      "emove": 3028,
      "Ġweather": 3029,
      "Ġiniti": 3030,
      "Ġbrief": 3031,
      "Ġyaparak": 3032,
      "Ġquiet": 3033,
      "Ġleave": 3034,
      "Ġautomatic": 3035,
      "Ġdestek": 3036,
      "68": 3037,
      "vice": 3038,
      "123": 3039,
      "Ġbins": 3040,
      "Ġsmallest": 3041,
      "Ġtam": 3042,
      "Ġbeca": 3043,
      "fet": 3044,
      "Ġuygula": 3045,
      "Ġconfir": 3046,
      "ĠLearning": 3047,
      "ĠBÃ¶": 3048,
      "Ġbecause": 3049,
      "ĠEach": 3050,
      "Ġihtiyac": 3051,
      "ger": 3052,
      "dÄ±ÄŁÄ±": 3053,
      "yaÃ§": 3054,
      "Ġaccomp": 3055,
      "fa": 3056,
      "Ġtalk": 3057,
      "Ġtrigger": 3058,
      "Ġfresh": 3059,
      "Ġaccomplish": 3060,
      "Ġduyg": 3061,
      "Ġvisual": 3062,
      "sitive": 3063,
      "ĠnoktasÄ±": 3064,
      "ĠÄ°zmir": 3065,
      "ĠkiÅŁi": 3066,
      "Ġsohbet": 3067,
      "Ġcycle": 3068,
      "Ġeffective": 3069,
      "Ġincre": 3070,
      "ĠConsisten": 3071,
      "Ä±cÄ±": 3072,
      "Ġbrushing": 3073,
      "ĠRemove": 3074,
      "tane": 3075,
      "Ġmovement": 3076,
      "ĠCommit": 3077,
      "Ġegzersiz": 3078,
      "Ġcompleting": 3079,
      "mektir": 3080,
      "Ä±lan": 3081,
      "irecek": 3082,
      "114": 3083,
      "Ġperfect": 3084,
      "Ġoptions": 3085,
      "ĠAlways": 3086,
      "Ã¼mkÃ¼n": 3087,
      "sion": 3088,
      "ĠsaÄŁlay": 3089,
      "ĠkonuÅŁma": 3090,
      "und": 3091,
      "Ġsaatlerinde": 3092,
      "eh": 3093,
      "ĠRep": 3094,
      "58": 3095,
      "Ġexch": 3096,
      "Ġhava": 3097,
      "Ġyerel": 3098,
      "Ġmemor": 3099,
      "Ġhayat": 3100,
      "ĠfarklÄ±": 3101,
      "bu": 3102,
      "Ġemin": 3103,
      "Ġpositive": 3104,
      "Ġtemp": 3105,
      "Ġcar": 3106,
      "view": 3107,
      "ĠAncak": 3108,
      "arm": 3109,
      "Ġass": 3110,
      "ilar": 3111,
      "Ġform": 3112,
      "inizdeki": 3113,
      "'nÄ±n": 3114,
      "Ġworkspace": 3115,
      "imdi": 3116,
      "Ġcluttered": 3117,
      "Ġrelaxing": 3118,
      "124": 3119,
      "nik": 3120,
      "Ã¼ne": 3121,
      "Ġlim": 3122,
      "oring": 3123,
      "tirin": 3124,
      "-blocking": 3125,
      "Ġsimilar": 3126,
      "113": 3127,
      "Ġema": 3128,
      "inizden": 3129,
      "Ġdecision": 3130,
      "ĠseÃ§ip": 3131,
      "Ġilerle": 3132,
      "dying": 3133,
      "esini": 3134,
      "by": 3135,
      "rect": 3136,
      "ĠsonuÃ§": 3137,
      "ĠTelefon": 3138,
      "Ġbal": 3139,
      "ĠTime": 3140,
      "ĠGet": 3141,
      "Ġalarm": 3142,
      "uring": 3143,
      "lence": 3144,
      "Ġgereken": 3145,
      "tim": 3146,
      "tiÄŁiniz": 3147,
      "Ġsep": 3148,
      "cret": 3149,
      "Ġsev": 3150,
      "Ġinterests": 3151,
      "ĠYat": 3152,
      "abil": 3153,
      "Ġyapma": 3154,
      "ĠRe": 3155,
      "Ġeasily": 3156,
      "Ġwarm": 3157,
      "form": 3158,
      "otal": 3159,
      "Ġzone": 3160,
      "larla": 3161,
      "ĠbÄ±rakÄ±n": 3162,
      "98": 3163,
      "ĠBÃ¶ylece": 3164,
      "Ġpresent": 3165,
      "'e": 3166,
      "Ġsaatte": 3167,
      "ffer": 3168,
      "Ġdoesn": 3169,
      "Ġind": 3170,
      "Ġonu": 3171,
      "ĠApply": 3172,
      "Ġenerji": 3173,
      "Ġgets": 3174,
      "-st": 3175,
      "Ġgit": 3176,
      "bility": 3177,
      "iyor": 3178,
      "Ġbased": 3179,
      "Ġresponse": 3180,
      "213": 3181,
      "ng": 3182,
      "ĠihtiyaÃ§": 3183,
      "Ġlevels": 3184,
      "var": 3185,
      "ĠKon": 3186,
      "enizi": 3187,
      "malÄ±sÄ±nÄ±z": 3188,
      "ebilirsiniz": 3189,
      "Ġgidecek": 3190,
      "Ġfully": 3191,
      "ĠÃĸÄŁrenme": 3192,
      "erien": 3193,
      "Ġwhe": 3194,
      "Ġexperien": 3195,
      "abilece": 3196,
      "Ġgid": 3197,
      "ĠiÅŁlem": 3198,
      "Ġwin": 3199,
      "lÄ±ÄŁÄ±nÄ±": 3200,
      "ĠRule": 3201,
      "ously": 3202,
      "two": 3203,
      "Ġbuilding": 3204,
      "187": 3205,
      "ĠKendi": 3206,
      "Ġgu": 3207,
      "ĠAnswer": 3208,
      "Ġdakikada": 3209,
      "sport": 3210,
      "ĠReplace": 3211,
      "Ġreplace": 3212,
      "Ġinterrupting": 3213,
      "taki": 3214,
      "larÄ±na": 3215,
      "ĠToplam": 3216,
      "kay": 3217,
      "Ġpass": 3218,
      "Ġcomfort": 3219,
      "manÄ±n": 3220,
      "ĠMe": 3221,
      "ĠPack": 3222,
      "earch": 3223,
      "Ġshould": 3224,
      "Ġgeri": 3225,
      "Ġlower": 3226,
      "Ġpoint": 3227,
      "Ġtransport": 3228,
      "ĠkeÅŁ": 3229,
      "ĠdÃ¼zenleme": 3230,
      "Ġtav": 3231,
      "Ġmin": 3232,
      "tirmek": 3233,
      "ĠArkadaÅŁ": 3234,
      "Ġsorting": 3235,
      "323": 3236,
      "ĠÃ¼cret": 3237,
      "223": 3238,
      "cul": 3239,
      "Ã¼s": 3240,
      "ĠSizin": 3241,
      "Ġreview": 3242,
      "maktan": 3243,
      "Ġnumara": 3244,
      "mesini": 3245,
      "Ġadd": 3246,
      "yarak": 3247,
      "Ġsonunda": 3248,
      "ĠunutmayÄ±n": 3249,
      "Ġteknik": 3250,
      "Ġconfirm": 3251,
      "ud": 3252,
      "Ġdela": 3253,
      "Ġprocrastination": 3254,
      "layÄ±p": 3255,
      "Ġmakin": 3256,
      "ĠiÃ§er": 3257,
      "ection": 3258,
      "Ġbecomes": 3259,
      "313": 3260,
      "Ġreli": 3261,
      "Ġprevents": 3262,
      "78": 3263,
      "malar": 3264,
      "menin": 3265,
      "tence": 3266,
      "Ġext": 3267,
      "Ġfinishing": 3268,
      "ĠZaman": 3269,
      "Ġkaynak": 3270,
      "Ġturning": 3271,
      "340": 3272,
      "letiÅŁim": 3273,
      "Ġbelirli": 3274,
      "urken": 3275,
      "ici": 3276,
      "meyin": 3277,
      "ĠboÅŁ": 3278,
      "Ġtrans": 3279,
      "chor": 3280,
      "ĠgÃ¶rÃ¼ÅŁ": 3281,
      "ĠBe": 3282,
      "lines": 3283,
      "kanlÄ±k": 3284,
      "Ġfre": 3285,
      "alÄ±m": 3286,
      "Ġbile": 3287,
      "185": 3288,
      "Ġuygulam": 3289,
      "Ġinten": 3290,
      "Ġgenel": 3291,
      "410": 3292,
      "186": 3293,
      "?Ċ": 3294,
      "sini": 3295,
      "214": 3296,
      "224": 3297,
      "istem": 3298,
      "Ġwins": 3299,
      "ĠkayÄ±tta": 3300,
      "Ġbar": 3301,
      "uzur": 3302,
      "Ġmusic": 3303,
      "127": 3304,
      "ĠadÄ±mda": 3305,
      "ĠdÃ¼ÅŁÃ¼nÃ¼n": 3306,
      "Ġcleaning": 3307,
      "Ġli": 3308,
      "ĠmÃ¼mkÃ¼n": 3309,
      "ĠsaÄŁlÄ±k": 3310,
      "Ġref": 3311,
      "Ġensuring": 3312,
      "Ġkazan": 3313,
      "Ġnokt": 3314,
      "Ġkural": 3315,
      "Ġtutun": 3316,
      "arika": 3317,
      "Ġshelf": 3318,
      "125": 3319,
      "189": 3320,
      "Ġprioritiz": 3321,
      "ality": 3322,
      "tification": 3323,
      "ĠayÄ±rÄ±n": 3324,
      "imp": 3325,
      "maz": 3326,
      "Ġfik": 3327,
      "hyth": 3328,
      "129": 3329,
      "Ġmood": 3330,
      "Ġrhyth": 3331,
      "ĠÃ§Ä±kacak": 3332,
      "126": 3333,
      "endi": 3334,
      "Ġkarar": 3335,
      "Ġes": 3336,
      "Ġsaniye": 3337,
      "ru": 3338,
      "Ġyere": 3339,
      "ĠÃ¼cretsiz": 3340,
      "324": 3341,
      "Ġsuyu": 3342,
      "Ġbackup": 3343,
      "so": 3344,
      "'Ã¼n": 3345,
      "ĠbaÅŁlangÄ±": 3346,
      "Ġtakip": 3347,
      "-do": 3348,
      ".)": 3349,
      "314": 3350,
      "Ġmicro": 3351,
      "yacak": 3352,
      "ana": 3353,
      "Ġpus": 3354,
      "Ġbus": 3355,
      "Ġsumm": 3356,
      "ĠgeliÅŁ": 3357,
      "Ġkut": 3358,
      "Ġareas": 3359,
      "Ġsessiz": 3360,
      "bilirsin": 3361,
      "ĠkoÅŁ": 3362,
      "Ġanda": 3363,
      "Ġmal": 3364,
      "ĠaydÄ±n": 3365,
      "116": 3366,
      "Ġvide": 3367,
      "ĠThen": 3368,
      "mez": 3369,
      "ĠPlan": 3370,
      "ĠGÃ¼nÃ¼n": 3371,
      "ĠÃ§Ä±kar": 3372,
      "Ġdeneyim": 3373,
      "leyip": 3374,
      "ĠIf": 3375,
      "ĠÃ¶neriyi": 3376,
      "ĠpiÅŁirecek": 3377,
      "Ġnedenle": 3378,
      "Ġdelays": 3379,
      "Ġsuc": 3380,
      "ÅŁaÄŁÄ±": 3381,
      "ĠÄ±ÅŁÄ±ÄŁÄ±": 3382,
      "Ġold": 3383,
      "ĠDon": 3384,
      "ĠÃ¶ÄŁle": 3385,
      "Ġdestinations": 3386,
      "Ġwriting": 3387,
      "Ã¼ÄŁ": 3388,
      "bileceÄŁiniz": 3389,
      "do": 3390,
      "Ġmutu": 3391,
      "180": 3392,
      "Ġadding": 3393,
      "ll": 3394,
      "Ġdep": 3395,
      "ĠdiÄŁer": 3396,
      "gÃ¼n": 3397,
      "Ġrelying": 3398,
      "isay": 3399,
      "Ġsak": 3400,
      "Ġdead": 3401,
      "Ġincludes": 3402,
      "-free": 3403,
      "Ġatt": 3404,
      "top": 3405,
      "Ġleaving": 3406,
      "Ġsentence": 3407,
      "117": 3408,
      "Ġevent": 3409,
      "ĠNuma": 3410,
      "Ġdesign": 3411,
      "115": 3412,
      "Ġmutual": 3413,
      "dÄ±ÄŁÄ±nÄ±": 3414,
      "ĠÃ¶neririm": 3415,
      "Ġjud": 3416,
      "Ġthinking": 3417,
      "Ġoffering": 3418,
      "Ġcreating": 3419,
      "Ġsho": 3420,
      "Ġbulmak": 3421,
      "chen": 3422,
      "ĠÃ§alÄ±ÅŁma": 3423,
      "Ġcall": 3424,
      "ĠkarÅŁÄ±laÅŁ": 3425,
      "just": 3426,
      "yn": 3427,
      "ĠbÃ¼t": 3428,
      "Ä±nÄ±r": 3429,
      "'ll": 3430,
      "Ġfail": 3431,
      "Ġproduction": 3432,
      "Ġinv": 3433,
      "ĠbaÅŁlayÄ±p": 3434,
      "Ġkitchen": 3435,
      "Ġweekly": 3436,
      "ĠiÃ§ine": 3437,
      "ĠÄ°letiÅŁim": 3438,
      "Ġnatural": 3439,
      "Ġdirect": 3440,
      "Ġrhythm": 3441,
      "ence": 3442,
      "Ġkoy": 3443,
      "Ġkonuda": 3444,
      "Ġnotification": 3445,
      "quent": 3446,
      "184": 3447,
      "Ġpur": 3448,
      "les": 3449,
      "ĠsaÄŁlayÄ±n": 3450,
      "itap": 3451,
      "atch": 3452,
      "ction": 3453,
      "Ġsit": 3454,
      "Ġlead": 3455,
      "Ġvarsa": 3456,
      "ĠHab": 3457,
      "Ġmaintaining": 3458,
      "Ġdrive": 3459,
      "Ġanchor": 3460,
      "Ġswit": 3461,
      "Ġvak": 3462,
      "Ġsave": 3463,
      "-stakes": 3464,
      "Ġyeniden": 3465,
      "anÄ±zÄ±": 3466,
      "hangi": 3467,
      "Ġsistem": 3468,
      "ĠsÃ¼reci": 3469,
      "Ġders": 3470,
      "ĠsÃ¼rec": 3471,
      "eded": 3472,
      "diÄŁi": 3473,
      "Ġizin": 3474,
      "Ġuyuy": 3475,
      "ĠMesaj": 3476,
      "Ġclot": 3477,
      "Ġuyu": 3478,
      "Ġneeding": 3479,
      "216": 3480,
      "ron": 3481,
      "athe": 3482,
      "Ġasleep": 3483,
      "Ġeveryone": 3484,
      "Ġboost": 3485,
      "Ġairport": 3486,
      "Ġhotels": 3487,
      "Ġslow": 3488,
      "**.": 3489,
      "Ġkarma": 3490,
      "Ġideas": 3491,
      "225": 3492,
      "325": 3493,
      "ĠkalÄ±": 3494,
      "ned": 3495,
      "ason": 3496,
      "sik": 3497,
      "327": 3498,
      "Ġsummar": 3499,
      "Ġreac": 3500,
      "ĠiÅŁi": 3501,
      "rink": 3502,
      "isayar": 3503,
      "217": 3504,
      "Ġpop": 3505,
      "Ġuya": 3506,
      "leyebilirsiniz": 3507,
      "326": 3508,
      "Ġrou": 3509,
      "-out": 3510,
      "316": 3511,
      "pe": 3512,
      "Ġpark": 3513,
      "izce": 3514,
      "asÄ±nÄ±": 3515,
      "229": 3516,
      "Ġneeded": 3517,
      "ĠdÃ¶n": 3518,
      "ila": 3519,
      "seniz": 3520,
      "Ġmindful": 3521,
      "av": 3522,
      "gÄ±": 3523,
      "Ġbreathe": 3524,
      "Ġclarifying": 3525,
      "Ġcir": 3526,
      "329": 3527,
      "Ġvery": 3528,
      "Ġperfection": 3529,
      "Ġziya": 3530,
      "ĠzorluÄŁu": 3531,
      "Ġnotifications": 3532,
      "Ġdocu": 3533,
      "ĠadÄ±mlarla": 3534,
      "Ġminim": 3535,
      "215": 3536,
      "Ġanlat": 3537,
      "Ġtidy": 3538,
      "Ġpause": 3539,
      "Ġlights": 3540,
      "vaila": 3541,
      "315": 3542,
      "ehir": 3543,
      "ida": 3544,
      "kÃ§e": 3545,
      "Ġfall": 3546,
      "ĠbaÅŁlar": 3547,
      "ossible": 3548,
      "Ġrealis": 3549,
      "ĠaÅŁ": 3550,
      "ngil": 3551,
      "Ġreconnect": 3552,
      "Ġtutacak": 3553,
      "tÄ±ra": 3554,
      "226": 3555,
      "ĠbaÅŁlangÄ±Ã§tÄ±r": 3556,
      "Ġmant": 3557,
      "ĠÃ§i": 3558,
      "ĠÃ§ev": 3559,
      "anging": 3560,
      "Ġdisrup": 3561,
      "pective": 3562,
      "haba": 3563,
      "Ġperspective": 3564,
      "ĠsÃ¼reÃ§": 3565,
      "188": 3566,
      "Ġmon": 3567,
      "Ġaccommodation": 3568,
      "Ġgentle": 3569,
      "ice": 3570,
      "Ġbuilt": 3571,
      "Ġcri": 3572,
      "Ġtoprak": 3573,
      "oman": 3574,
      "Ġkayna": 3575,
      "Ġprioritizing": 3576,
      "ĠBook": 3577,
      "ĠÄ°yi": 3578,
      "efer": 3579,
      "Ġperi": 3580,
      "Ġfrequent": 3581,
      "Ġevde": 3582,
      "Ġbitkiler": 3583,
      "Ġdecluttering": 3584,
      "317": 3585,
      "Ġquality": 3586,
      "ĠReach": 3587,
      "227": 3588,
      "Ġimpossible": 3589,
      "ngilizce": 3590,
      "Ġallowing": 3591,
      "list": 3592,
      "-on": 3593,
      "mem": 3594,
      "Ġisters": 3595,
      "You": 3596,
      "-t": 3597,
      "Ġvb": 3598,
      "ĠSayÄ±n": 3599,
      "Ġindir": 3600,
      "ain": 3601,
      "Ġcomplex": 3602,
      "Ġduvar": 3603,
      "ĠTÃ¼r": 3604,
      "Ġhuzur": 3605,
      "Ġkes": 3606,
      "ĠDrink": 3607,
      "ĠSÃ¼re": 3608,
      "Ġexpla": 3609,
      "Ġintention": 3610,
      "Ġbath": 3611,
      "Ġtotal": 3612,
      "Ġtavsi": 3613,
      "isini": 3614,
      "Ġnerv": 3615,
      "Ġstar": 3616,
      "Ġhaving": 3617,
      "Ġbond": 3618,
      "Ġbalance": 3619,
      "Ġnervous": 3620,
      "Ġkayded": 3621,
      "yet": 3622,
      "muÅŁ": 3623,
      "ĠkatÄ±": 3624,
      "inizle": 3625,
      "Ġaraya": 3626,
      "Ġprojects": 3627,
      "-M": 3628,
      "ory": 3629,
      "Ġarka": 3630,
      "Ġbelirleyerek": 3631,
      "Ġcra": 3632,
      "using": 3633,
      "Ġnotes": 3634,
      "Ġritual": 3635,
      "Ġdinlen": 3636,
      "ĠkaÄŁÄ±": 3637,
      "Ġvalida": 3638,
      "Ġeliminate": 3639,
      "Ġaim": 3640,
      "ĠfÄ±r": 3641,
      "ork": 3642,
      "imli": 3643,
      "Ġsole": 3644,
      "ĠHangi": 3645,
      "ĠÃĸner": 3646,
      "ĠgÃ¶zlem": 3647,
      "tivity": 3648,
      "Ġemotion": 3649,
      "Ġalter": 3650,
      "Ġaya": 3651,
      "Ġmesa": 3652,
      "Ġact": 3653,
      "ĠvÃ¼cudunuz": 3654,
      "Ġavaila": 3655,
      "Ġuyand": 3656,
      "ĠdakikayÄ±": 3657,
      "cessary": 3658,
      "rying": 3659,
      "ilik": 3660,
      "Ġonun": 3661,
      "Ġplanlama": 3662,
      "Ġmeans": 3663,
      "Ġhavuz": 3664,
      "Ġverir": 3665,
      "ĠgÃ¶zden": 3666,
      "Ġfikir": 3667,
      "-Minute": 3668,
      "Ġbilgiyi": 3669,
      "Ġsolely": 3670,
      "Ġkullanmak": 3671,
      "Ġperiod": 3672,
      "oint": 3673,
      "ĠAlÄ±ÅŁ": 3674,
      "dia": 3675,
      "Ġmalze": 3676,
      "oud": 3677,
      "Ġretur": 3678,
      "ĠÃ¼zerinde": 3679,
      "Ġsin": 3680,
      "209": 3681,
      "Ä±ktan": 3682,
      "ĠolduÄŁunuz": 3683,
      "Ġbite": 3684,
      "ĠhiÃ§": 3685,
      "Two": 3686,
      "Ġchat": 3687,
      "Ġstore": 3688,
      "Ġuyum": 3689,
      "ase": 3690,
      "Ġarri": 3691,
      "ĠsÃ¼r": 3692,
      "Ġrecal": 3693,
      "ĠÄ°ngilizce": 3694,
      "Ġground": 3695,
      "ĠadÄ±": 3696,
      "Ġtool": 3697,
      "Ġmik": 3698,
      "net": 3699,
      "cel": 3700,
      "Ġplanla": 3701,
      "Ġstudying": 3702,
      "Ġhappens": 3703,
      "Ä±ntÄ±": 3704,
      "Ġmedit": 3705,
      "erhaba": 3706,
      "Ġazalt": 3707,
      "Ġalarak": 3708,
      "ĠBelir": 3709,
      "iled": 3710,
      "ĠzamanÄ±": 3711,
      "109": 3712,
      "jor": 3713,
      "ĠyÃ¼zden": 3714,
      "ĠtanÄ±ÅŁ": 3715,
      "Ġvideo": 3716,
      "aps": 3717,
      "136": 3718,
      "ÄŁÄ±nÄ±zda": 3719,
      "Ġokumaya": 3720,
      "sap": 3721,
      "ĠkayÄ±ttaki": 3722,
      "ete": 3723,
      "Ġmajor": 3724,
      "Ġeder": 3725,
      "ĠamaÃ§": 3726,
      "ĠArkadaÅŁlÄ±k": 3727,
      "Ġtoward": 3728,
      "Ġmeals": 3729,
      "Ġna": 3730,
      "Ġthink": 3731,
      "Ġproblems": 3732,
      "Ġpaint": 3733,
      "428": 3734,
      "Ġtes": 3735,
      "206": 3736,
      "Ġbreaths": 3737,
      "der": 3738,
      "ĠgÃ¼nde": 3739,
      "Ġdetailed": 3740,
      "ĠÅŀu": 3741,
      "Ġexperiences": 3742,
      "Ġmust": 3743,
      "Ġstarted": 3744,
      "Ġrecall": 3745,
      "ĠtanÄ±": 3746,
      "Ġbun": 3747,
      "udy": 3748,
      "106": 3749,
      "Ġused": 3750,
      "Ġstrictly": 3751,
      "137": 3752,
      "Ġdedicate": 3753,
      "135": 3754,
      "ĠsabahlarÄ±": 3755,
      "ilen": 3756,
      "ritik": 3757,
      "lerine": 3758,
      "ĠSeyahat": 3759,
      "ĠkaÃ§Ä±nÄ±n": 3760,
      "ternal": 3761,
      "ĠÃ¶zet": 3762,
      "ĠoluÅŁturun": 3763,
      "oga": 3764,
      "vor": 3765,
      "ĠÃ¶ÄŁre": 3766,
      "ages": 3767,
      "ulating": 3768,
      "Ġheav": 3769,
      "149": 3770,
      "Ġrespect": 3771,
      "ority": 3772,
      "Ġanki": 3773,
      "ĠGÃ¼nde": 3774,
      "Ġforward": 3775,
      "icate": 3776,
      "meli": 3777,
      "Ġfavor": 3778,
      "Ġben": 3779,
      "Ġtar": 3780,
      "105": 3781,
      "ĠWhen": 3782,
      "ty": 3783,
      "Ġele": 3784,
      "Ġurgency": 3785,
      "Ġtriggers": 3786,
      "430": 3787,
      "Ġexternal": 3788,
      "Ġtoplamda": 3789,
      "Ġweeks": 3790,
      "ĠyazÄ±lÄ±": 3791,
      "Ġhedeflerinizi": 3792,
      "Ġbilgisayar": 3793,
      "Ġremove": 3794,
      "Ġsakin": 3795,
      "sized": 3796,
      "Ġtalking": 3797,
      "ĠConsistency": 3798,
      "uyor": 3799,
      "Ġroman": 3800,
      "Ġbirini": 3801,
      "ĠartÄ±rÄ±r": 3802,
      "Ġbla": 3803,
      "arge": 3804,
      "Ġona": 3805,
      "Ġadjust": 3806,
      "-sized": 3807,
      "ĠparÃ§": 3808,
      "Ġsol": 3809,
      "Ġmode": 3810,
      "Ä±nÄ±zÄ±n": 3811,
      "Ġbask": 3812,
      "Ġsuccess": 3813,
      "ĠSor": 3814,
      "207": 3815,
      ".**": 3816,
      "ause": 3817,
      "Ġwas": 3818,
      "Ġbuffer": 3819,
      "Ġhobby": 3820,
      "Ġbusy": 3821,
      "ĠaÅŁaÄŁÄ±": 3822,
      "Ġileri": 3823,
      "ĠÃ§alÄ±ÅŁmak": 3824,
      "ĠkaydÄ±": 3825,
      "ĠsÃ¶y": 3826,
      "200": 3827,
      "ecting": 3828,
      "Ġorganizing": 3829,
      "Ġhissi": 3830,
      "Ġhale": 3831,
      "Ġcasual": 3832,
      "Ġreliable": 3833,
      "Ġdocuments": 3834,
      "ues": 3835,
      "haul": 3836,
      "ĠSleep": 3837,
      "ĠGece": 3838,
      "Ġlost": 3839,
      "Ġkritik": 3840,
      "Ġmedia": 3841,
      "duÄŁunuz": 3842,
      "Ġorganized": 3843,
      "Ġtopics": 3844,
      "Ġtomor": 3845,
      "ĠbaÅŁlayarak": 3846,
      "Ġsummarizing": 3847,
      "Ġheavy": 3848,
      "Ġtomorrow": 3849,
      "isyon": 3850,
      "Ġprote": 3851,
      "ĠkÄ±s": 3852,
      "Ġtrain": 3853,
      "elf": 3854,
      "Ġsight": 3855,
      "107": 3856,
      "Ġeffectively": 3857,
      "ĠplanlayÄ±n": 3858,
      "Ġdistraction": 3859,
      "Ġsahip": 3860,
      "Ġhappen": 3861,
      "100": 3862,
      "term": 3863,
      "ensive": 3864,
      "ĠkarmaÅŁÄ±k": 3865,
      "Ġoverhaul": 3866,
      "Ġortak": 3867,
      "Ġcontainers": 3868,
      "-term": 3869,
      "ĠÃĩok": 3870,
      "ĠAlÄ±ÅŁkanlÄ±k": 3871,
      "yerek": 3872,
      "236": 3873,
      "Ġbelki": 3874,
      "Ġworrying": 3875,
      "Ġyolcul": 3876,
      "ĠGood": 3877,
      "Ġhandle": 3878,
      "ĠiÃ§mek": 3879,
      "205": 3880,
      "ÅŁtÄ±r": 3881,
      "ÄŁim": 3882,
      "ÄŁÄ±m": 3883,
      "lebilir": 3884,
      "Ġaren": 3885,
      "Ã¶rn": 3886,
      "Ġdav": 3887,
      "Ġthese": 3888,
      "Ġrewards": 3889,
      "leÅŁtirin": 3890,
      "ĠiÃ§indeki": 3891,
      "Ġenjo": 3892,
      "Ġcor": 3893,
      "ĠsÃ¼reli": 3894,
      "Ġpacking": 3895,
      "Ġcommun": 3896,
      "Ġmoments": 3897,
      "Ġodaklanma": 3898,
      "Ġrealistic": 3899,
      "-imp": 3900,
      "ĠCle": 3901,
      "ĠteÅŁ": 3902,
      "Ġdakikalar": 3903,
      "ĠarasÄ±nda": 3904,
      "ĠdÃ¼zenli": 3905,
      "lic": 3906,
      "gu": 3907,
      "ints": 3908,
      "Ġchore": 3909,
      "Ġadvice": 3910,
      "ke": 3911,
      "Ä±yor": 3912,
      "Ġphones": 3913,
      "ft": 3914,
      "Ġgere": 3915,
      "Ġstil": 3916,
      "Ġimportance": 3917,
      "ion": 3918,
      "isiniz": 3919,
      "ÄŁun": 3920,
      "Ġextra": 3921,
      "Ġdate": 3922,
      "Ġcase": 3923,
      "Ġstarts": 3924,
      "Ġloc": 3925,
      "Ġengage": 3926,
      "ĠsaÄŁlayacak": 3927,
      "Ġalterna": 3928,
      "ularÄ±": 3929,
      "ĠyarÄ±": 3930,
      "Ġsaatlerde": 3931,
      "Ġlove": 3932,
      "Ġodaklanmak": 3933,
      "ĠiÅŁleri": 3934,
      "235": 3935,
      "Ġkurun": 3936,
      "Ġspeaker": 3937,
      "-w": 3938,
      "lacak": 3939,
      "237": 3940,
      "leÅŁtirme": 3941,
      "tiÄŁi": 3942,
      "ĠPut": 3943,
      "Ä±zlÄ±": 3944,
      "Ġready": 3945,
      "ĠdeÄŁerlendir": 3946,
      "ffeine": 3947,
      "Ġfavorite": 3948,
      "iden": 3949,
      "Ġestablish": 3950,
      "Ġcaffeine": 3951,
      "Ġiyisi": 3952,
      "ĠTÃ¼rkÃ§e": 3953,
      "tanÄ±n": 3954,
      "Ġappoint": 3955,
      "Ġci": 3956,
      "ĠÃ¶nceden": 3957,
      "Ġgrow": 3958,
      "Ġstaying": 3959,
      "Ġtarih": 3960,
      "Ġmonth": 3961,
      "Ġinstantly": 3962,
      "mÄ±ÅŁtÄ±r": 3963,
      "Ġdavran": 3964,
      "mind": 3965,
      "Ġdefter": 3966,
      "gment": 3967,
      "119": 3968,
      "tiÅŁ": 3969,
      "eclutter": 3970,
      "Ġcho": 3971,
      "Ġcreates": 3972,
      "Ġemotions": 3973,
      "Ã¼ler": 3974,
      "Ġkav": 3975,
      "ĠanlaÅŁ": 3976,
      "ĠsÄ±kÄ±ntÄ±": 3977,
      "Ġletting": 3978,
      "Ġeating": 3979,
      "Ġrepeti": 3980,
      "Ġrequi": 3981,
      "ĠbaÅŁka": 3982,
      "ĠStudy": 3983,
      "ati": 3984,
      "Ä±rken": 3985,
      "menize": 3986,
      "Ġspecifically": 3987,
      "405": 3988,
      "ildir": 3989,
      "Ġtext": 3990,
      "Ġreply": 3991,
      "Ġgenuinely": 3992,
      "ĠgÃ¼Ã§lendir": 3993,
      "Ġwrite": 3994,
      "enin": 3995,
      "Ġenc": 3996,
      "ĠgÃ¼nÃ¼nÃ¼z": 3997,
      "Ġyatmadan": 3998,
      "ĠuygulamasÄ±": 3999,
      "Ġdetails": 4000,
      "Ġreturn": 4001,
      "-to": 4002,
      "oin": 4003,
      "pose": 4004,
      "Ġgelen": 4005,
      "Ġetmeye": 4006,
      "385": 4007,
      "ĠÃ¶d": 4008,
      "Ä±klÄ±": 4009,
      "336": 4010,
      "Ġchecklist": 4011,
      "Ã¼tÃ¼": 4012,
      "leyen": 4013,
      "ĠResearch": 4014,
      "ĠJust": 4015,
      "Ġinvol": 4016,
      "-impact": 4017,
      "Ġsal": 4018,
      "ors": 4019,
      "come": 4020,
      "dually": 4021,
      "Ġekleyin": 4022,
      "ults": 4023,
      "349": 4024,
      "oney": 4025,
      "Ġshif": 4026,
      "Ġspend": 4027,
      "Ġnature": 4028,
      "bly": 4029,
      "cide": 4030,
      "Ġ-": 4031,
      "Ġsec": 4032,
      "ĠsÃ¶z": 4033,
      "Ġmalzeme": 4034,
      "mand": 4035,
      "jital": 4036,
      "ticing": 4037,
      "Ġser": 4038,
      "cent": 4039,
      "Ġweb": 4040,
      "409": 4041,
      "ĠsÄ±nÄ±r": 4042,
      "Ġdurumunu": 4043,
      "Ġbring": 4044,
      "ĠolmasÄ±": 4045,
      "249": 4046,
      "ĠHedef": 4047,
      "ĠyaklaÅŁÄ±m": 4048,
      "tle": 4049,
      "Ġplat": 4050,
      "ĠeÅŁy": 4051,
      "335": 4052,
      "Ġsos": 4053,
      "Ġbin": 4054,
      "ĠWhy": 4055,
      "Ġpoints": 4056,
      "ĠkarÄ±": 4057,
      "Ġdeeply": 4058,
      "ĠYatmadan": 4059,
      "Ġforce": 4060,
      "Ġjoy": 4061,
      "387": 4062,
      "Ġvakit": 4063,
      "-one": 4064,
      "Ã¼p": 4065,
      "Ġmoney": 4066,
      "Ġmindfulness": 4067,
      "ross": 4068,
      "lemeyi": 4069,
      "Ġliste": 4070,
      "Ä±labilir": 4071,
      "\")": 4072,
      "sek": 4073,
      "Ġremind": 4074,
      "108": 4075,
      "ĠÃ¶ÄŁrenmeye": 4076,
      "ĠDeclutter": 4077,
      "406": 4078,
      "ĠtanÄ±m": 4079,
      "Ġhear": 4080,
      "407": 4081,
      "abileceÄŁiniz": 4082,
      "Ġam": 4083,
      "tically": 4084,
      "ĠalÄ±ÅŁkanlÄ±ÄŁÄ±": 4085,
      "inter": 4086,
      "ĠTr": 4087,
      "134": 4088,
      "Ġunderstood": 4089,
      "ĠkitabÄ±": 4090,
      "Ġpick": 4091,
      "yap": 4092,
      "Ġfood": 4093,
      "Ġuyk": 4094,
      "208": 4095,
      "309": 4096,
      "Ġcritical": 4097,
      "Ġait": 4098,
      "ĠGÃ¶": 4099,
      "Ġseb": 4100,
      "306": 4101,
      "ĠEliminate": 4102,
      "ively": 4103,
      "337": 4104,
      "386": 4105,
      "Ġconnections": 4106,
      "ĠsabÄ±r": 4107,
      "osure": 4108,
      "ĠTra": 4109,
      "Ġanxi": 4110,
      "\",": 4111,
      "anÄ±n": 4112,
      "285": 4113,
      "unuza": 4114,
      "Ġharit": 4115,
      "Ġfrequently": 4116,
      "sine": 4117,
      "ĠZor": 4118,
      "Ġfrust": 4119,
      "Ġstrong": 4120,
      "Ġblocking": 4121,
      "ĠÃĩalÄ±ÅŁ": 4122,
      "305": 4123,
      "Ġmessages": 4124,
      "âĢĵ": 4125,
      "ĠyemeÄŁi": 4126,
      "286": 4127,
      "Ġsorular": 4128,
      "Ġkeeps": 4129,
      "Ġexposure": 4130,
      "Ġcontin": 4131,
      "haz": 4132,
      "linde": 4133,
      "Ġpara": 4134,
      "Ġassum": 4135,
      "-time": 4136,
      "vices": 4137,
      "acaÄŁÄ±nÄ±z": 4138,
      "Ġhealthy": 4139,
      "'nde": 4140,
      "Ġcons": 4141,
      "ĠEl": 4142,
      "ĠSÄ±": 4143,
      "Ġbecome": 4144,
      "Ġedip": 4145,
      "ses": 4146,
      "Ġcosts": 4147,
      "ilmiÅŁ": 4148,
      "Ġuygulaya": 4149,
      "Ġmat": 4150,
      "287": 4151,
      "389": 4152,
      "erken": 4153,
      "ĠyapmanÄ±z": 4154,
      "Ġchoose": 4155,
      "ched": 4156,
      "ures": 4157,
      "ĠiÅŁle": 4158,
      "Ġsunlight": 4159,
      "Ġcomfortable": 4160,
      "ĠTrue": 4161,
      "tiÄŁini": 4162,
      "ĠbaÅŁÄ±na": 4163,
      "Ġexpect": 4164,
      "Ġbrings": 4165,
      "Ġcompare": 4166,
      "Ġdeadlines": 4167,
      "307": 4168,
      "ĠÅŁehir": 4169,
      "ĠistiyorsanÄ±z": 4170,
      "400": 4171,
      "times": 4172,
      "ĠInstead": 4173,
      "319": 4174,
      "Ġnothing": 4175,
      "Ġuyuma": 4176,
      "Ġverimli": 4177,
      "Ġremoving": 4178,
      "Ġzih": 4179,
      "Ã¼tÃ¼ph": 4180,
      "uish": 4181,
      "Ġmotivated": 4182,
      "ĠpiÅŁirme": 4183,
      "Ġrequire": 4184,
      "Ġpurpose": 4185,
      "Ġfay": 4186,
      "Ġmastering": 4187,
      "Ġgradually": 4188,
      "Ġclothes": 4189,
      "Ã¼tÃ¼phan": 4190,
      "tiri": 4191,
      "inguish": 4192,
      "Ġkoyun": 4193,
      "Ġdistinguish": 4194,
      "Ġpic": 4195,
      "Ġsear": 4196,
      "ĠkeÅŁfet": 4197,
      "Ġuygulamalar": 4198,
      "cer": 4199,
      "ĠkÃ¶": 4200,
      "Ã§i": 4201,
      "dÄ±k": 4202,
      "Ġdemand": 4203,
      "Ġemotional": 4204,
      "ĠbahÃ§enizin": 4205,
      "Ġinternet": 4206,
      "Ġlisting": 4207,
      "ÄŁine": 4208,
      "Ġnefesinizi": 4209,
      "'u": 4210,
      "Ġkonum": 4211,
      "ĠbaÅŁlay": 4212,
      "300": 4213,
      "Ġturn": 4214,
      "104": 4215,
      "380": 4216,
      "ĠkalkÄ±p": 4217,
      "Ġdesignated": 4218,
      "Ġbeen": 4219,
      "289": 4220,
      "ĠUz": 4221,
      "Ġkabul": 4222,
      "Ġexchanging": 4223,
      "dÃ¼r": 4224,
      "204": 4225,
      "Ġyerde": 4226,
      "Ġbilgiye": 4227,
      "Ġolmayan": 4228,
      "Ġclarity": 4229,
      "Ġslot": 4230,
      "Ġtechniqu": 4231,
      "dest": 4232,
      "Ġresults": 4233,
      "Ġbelirtin": 4234,
      "Ġmiktar": 4235,
      "Ġtechniques": 4236,
      "Ġmeaningful": 4237,
      "ĠÃ¼zere": 4238,
      "Ġcounter": 4239,
      "Ġnere": 4240,
      "Ġhesap": 4241,
      "Ġexample": 4242,
      "Ġzama": 4243,
      "Ġzorunda": 4244,
      "ĠÅŁimdi": 4245,
      "Ġsorunu": 4246,
      "Ġtaraf": 4247,
      "Ġsticking": 4248,
      "Ġhardest": 4249,
      "Ġonline": 4250,
      "Ġalma": 4251,
      "Ġisn": 4252,
      "ĠayrÄ±": 4253,
      "ĠsÄ±ra": 4254,
      "121": 4255,
      "Ġvalue": 4256,
      "Ġrepetition": 4257,
      "Ġencou": 4258,
      "cisi": 4259,
      "Ġstrate": 4260,
      "Ġkas": 4261,
      "larÄ±nda": 4262,
      "ĠazÄ±ndan": 4263,
      "219": 4264,
      "allen": 4265,
      "bilecek": 4266,
      "ĠoluÅŁturmak": 4267,
      "ĠGetting": 4268,
      "charge": 4269,
      "Ġpracticing": 4270,
      "ĠgÃ¶revleri": 4271,
      "underst": 4272,
      "Ġtired": 4273,
      "lemeye": 4274,
      "Ġlooking": 4275,
      "ĠÃ¶dÃ¼l": 4276,
      "Ġdair": 4277,
      "ĠHave": 4278,
      "iyle": 4279,
      "234": 4280,
      "ping": 4281,
      "eleri": 4282,
      "ĠWrite": 4283,
      "Ġsenin": 4284,
      "Ġmisunderst": 4285,
      "ĠEx": 4286,
      "sar": 4287,
      "Ġdecide": 4288,
      "ĠÄ°ÅŁ": 4289,
      "Ã¼zel": 4290,
      "Ġodaklanarak": 4291,
      "ĠÅŁunlarÄ±": 4292,
      "Ġjudgment": 4293,
      "ĠÃ¶l": 4294,
      "Ġlate": 4295,
      "ĠkullanmayÄ±": 4296,
      "Ġwindow": 4297,
      "Ġdirectly": 4298,
      "Ġconte": 4299,
      "ĠFotoÄŁraf": 4300,
      "Ġederek": 4301,
      "ĠHemen": 4302,
      "Ġuyuyun": 4303,
      "dian": 4304,
      "ĠaltÄ±": 4305,
      "ĠodaklanmayÄ±": 4306,
      "Ġconfiden": 4307,
      "Ġinteractions": 4308,
      "Ġconfidence": 4309,
      "Ġbag": 4310,
      "Ġkendini": 4311,
      "Ġyeterlidir": 4312,
      "Ġemail": 4313,
      "Ġcha": 4314,
      "usal": 4315,
      "280": 4316,
      "183": 4317,
      "Ġsilence": 4318,
      "cadian": 4319,
      "ĠbaÅŁlangÄ±cÄ±": 4320,
      "ĠpopÃ¼ler": 4321,
      "aret": 4322,
      "Ä±sa": 4323,
      "ĠyapÄ±p": 4324,
      "ĠbaÄŁlÄ±": 4325,
      "Ġrequires": 4326,
      "'un": 4327,
      "Ġcol": 4328,
      "ĠStop": 4329,
      "Ġvisi": 4330,
      "Ġaccess": 4331,
      "ĠÄ±sÄ±": 4332,
      "Ġcircadian": 4333,
      "ĠiliÅŁ": 4334,
      "Ġnear": 4335,
      "ĠiÅŁler": 4336,
      "ĠaÃ§Ä±": 4337,
      "ĠdÃ¼ÅŁÃ¼nce": 4338,
      "ĠyapÄ±lan": 4339,
      "ink": 4340,
      "Ġlarger": 4341,
      "lul": 4342,
      "ÄŁe": 4343,
      "Ġrecharge": 4344,
      "Ġsaati": 4345,
      "Ã¼nÃ¼zÃ¼": 4346,
      "Ġincluding": 4347,
      "ĠNe": 4348,
      "ans": 4349,
      "Ġhead": 4350,
      "ifik": 4351,
      "Ġdefensive": 4352,
      "layÄ±cÄ±": 4353,
      "Ġekleyerek": 4354,
      "taneously": 4355,
      "Ġlock": 4356,
      "ĠTV": 4357,
      "esifik": 4358,
      "dip": 4359,
      "never": 4360,
      "ĠatÄ±n": 4361,
      "ĠBuild": 4362,
      "Ġspesifik": 4363,
      "ĠdÃ¼zel": 4364,
      "ĠdetaylÄ±": 4365,
      "Ġpozisyon": 4366,
      "Ġcihaz": 4367,
      "ety": 4368,
      "181": 4369,
      "182": 4370,
      "Ġpersonal": 4371,
      "lanmÄ±ÅŁ": 4372,
      "ĠmantÄ±klÄ±": 4373,
      "kim": 4374,
      "Ġyaparken": 4375,
      "ĠkolaylaÅŁ": 4376,
      ")**": 4377,
      "ĠayarlayÄ±n": 4378,
      "Ġhat": 4379,
      "Ġversion": 4380,
      "Ġspon": 4381,
      "Ġsaatlik": 4382,
      "Ġdiyerek": 4383,
      "Ä°lk": 4384,
      "Ġpushes": 4385,
      "ĠanÄ±nda": 4386,
      "Ġteach": 4387,
      "408": 4388,
      "kaye": 4389,
      "Ġgener": 4390,
      "ĠkonuÅŁmak": 4391,
      "ĠsÃ¼": 4392,
      "Ġchallen": 4393,
      "-post": 4394,
      "Ġsimul": 4395,
      "ĠÃ¼Ã§": 4396,
      "lanan": 4397,
      "Ġmeeting": 4398,
      "yen": 4399,
      "Ġherhangi": 4400,
      "ĠkiÅŁiye": 4401,
      "Ġtavsiye": 4402,
      "bo": 4403,
      "Ġmap": 4404,
      "Ġalong": 4405,
      "Ġsaatini": 4406,
      "Ġstuck": 4407,
      "arate": 4408,
      "ĠaÄŁ": 4409,
      "ĠdÃ¼ÅŁÃ¼r": 4410,
      "ĠÃ¶lÃ§": 4411,
      "temp": 4412,
      "384": 4413,
      "Ġkaydet": 4414,
      "reading": 4415,
      "Ġattrac": 4416,
      "Ġsimultaneously": 4417,
      "bel": 4418,
      "ĠHarika": 4419,
      "dik": 4420,
      "vig": 4421,
      "Ġbelirleyip": 4422,
      "ĠkolaylaÅŁtÄ±rÄ±r": 4423,
      "Ã¼nd": 4424,
      "Ġfact": 4425,
      "Ġmight": 4426,
      "Ġanxiety": 4427,
      "Ġkol": 4428,
      "308": 4429,
      "ĠsÄ±caklÄ±ÄŁÄ±nÄ±": 4430,
      "Ġwhenever": 4431,
      "Ġru": 4432,
      "Ġinteraction": 4433,
      "chedul": 4434,
      "Ġoto": 4435,
      "sÄ±nda": 4436,
      "334": 4437,
      "Ġbiti": 4438,
      "388": 4439,
      "Ġlonger": 4440,
      "ĠhafifÃ§e": 4441,
      "ĠprogramÄ±": 4442,
      "ĠgeÃ§irin": 4443,
      "Ġspontane": 4444,
      "Ġder": 4445,
      "404": 4446,
      "Ġsosyal": 4447,
      "Ġzamanda": 4448,
      "cheduling": 4449,
      "Ġconstantly": 4450,
      "Ġunder": 4451,
      "ĠKa": 4452,
      "tionship": 4453,
      "Ġcalming": 4454,
      "Ġedebilirsiniz": 4455,
      "Ġnavig": 4456,
      "'le": 4457,
      "Ġdevices": 4458,
      "Ġhy": 4459,
      "Ġrelationship": 4460,
      "Ġsurfaces": 4461,
      "Ġtransit": 4462,
      "Ġyum": 4463,
      "ĠkÄ±sÄ±": 4464,
      "288": 4465,
      "Ġkaybet": 4466,
      "manÄ±za": 4467,
      "Ġyatak": 4468,
      "Ġmemory": 4469,
      "Ġsolve": 4470,
      "Ġcue": 4471,
      "ĠiÅŁaret": 4472,
      "Ġevdeki": 4473,
      "Ġguilt": 4474,
      "Ġaiming": 4475,
      "fÄ±r": 4476,
      "ĠyapmaktÄ±r": 4477,
      "122": 4478,
      "ĠFor": 4479,
      "mÄ±": 4480,
      "rken": 4481,
      "304": 4482,
      "Ġsleeping": 4483,
      "ala": 4484,
      "ĠBÃ¼yÃ¼k": 4485,
      "Ġren": 4486,
      "Ġatmak": 4487,
      "Ġbelirtil": 4488,
      "Ġhedefe": 4489,
      "ĠkapatÄ±n": 4490,
      "ney": 4491,
      "Ġsefer": 4492,
      "ĠBaÅŁarÄ±": 4493,
      "yable": 4494,
      "Ġreco": 4495,
      "uggage": 4496,
      "Ġfriction": 4497,
      "ĠbÃ¼tÃ§": 4498,
      "ĠdeÄŁiÅŁik": 4499,
      "111": 4500,
      "ĠhafÄ±z": 4501,
      "ĠyaÅŁa": 4502,
      "ĠalanÄ±": 4503,
      "Ġenjoyable": 4504,
      "ledge": 4505,
      "Ġprotect": 4506,
      "Ġag": 4507,
      "Ġboz": 4508,
      "Ġluggage": 4509,
      "Ġetki": 4510,
      "Ġdimming": 4511,
      "olo": 4512,
      "mekten": 4513,
      "ĠihtiyacÄ±nÄ±z": 4514,
      "ually": 4515,
      "Ġton": 4516,
      "Ġhedefinizi": 4517,
      "ĠbÃ¶lÃ¼m": 4518,
      "Ġcarry": 4519,
      "kip": 4520,
      "Ġana": 4521,
      "Ġyerden": 4522,
      "ĠhÄ±zlÄ±ca": 4523,
      "Ġgives": 4524,
      "ĠuygulayÄ±n": 4525,
      "Ġseparate": 4526,
      "ines": 4527,
      "Ġuninter": 4528,
      "Ġtemizlik": 4529,
      "Ġdesired": 4530,
      "Ġideal": 4531,
      "Ġilerlemeyi": 4532,
      "ĠNumara": 4533,
      "ĠÃ¶rneÄŁin": 4534,
      "Ġcommon": 4535,
      "Ġetkin": 4536,
      "Ġscheduling": 4537,
      "Ġabs": 4538,
      "Ġshoot": 4539,
      "leriniz": 4540,
      "Ġattemp": 4541,
      "uyla": 4542,
      "Ġdisconnect": 4543,
      "Ġallows": 4544,
      "Ġaccommodations": 4545,
      "ĠyoÄŁun": 4546,
      "tÄ±cÄ±": 4547,
      "Ġconnect": 4548,
      "'a": 4549,
      "Ã¼ven": 4550,
      "Ġmer": 4551,
      "Ġpreventing": 4552,
      "Ġtable": 4553,
      "Ġresist": 4554,
      "dibly": 4555,
      "ĠalmayÄ±": 4556,
      "Ġblack": 4557,
      "Ġbulund": 4558,
      "ĠyazÄ±n": 4559,
      "ĠdÃ¼zeninizi": 4560,
      "Ġincredibly": 4561,
      "card": 4562,
      "talÄ±k": 4563,
      "Ġbunun": 4564,
      "284": 4565,
      "ĠGÃ¼neÅŁ": 4566,
      "rupted": 4567,
      "Ġkindness": 4568,
      "Ġkamer": 4569,
      "Ġlabe": 4570,
      "Ġkurmak": 4571,
      "Ġgerekli": 4572,
      "Ġsignals": 4573,
      "ĠÃ¼zerinden": 4574,
      "esign": 4575,
      "ĠkoÅŁul": 4576,
      "Ġuninterrupted": 4577,
      "Ġlabeled": 4578,
      "yone": 4579,
      "Ġcatch": 4580,
      "Ġilerlemek": 4581,
      "Ġstill": 4582,
      "Ġmisunderstand": 4583,
      "Ġanlamak": 4584,
      "Ġquit": 4585,
      "atching": 4586,
      "Ġkayde": 4587,
      "Ġtane": 4588,
      "ets": 4589,
      "Ġcommunicate": 4590,
      "Ġty": 4591,
      "Ġcontrol": 4592,
      "ĠSaat": 4593,
      "Ġbarri": 4594,
      "Ġtools": 4595,
      "ĠClear": 4596,
      "Ġint": 4597,
      "Ġtelefonunuzun": 4598,
      "Ġpartner": 4599,
      "Ġyapabilirsiniz": 4600,
      "ĠJoin": 4601,
      "Ġnerede": 4602,
      "424": 4603,
      "back": 4604,
      "ub": 4605,
      "Ġscrol": 4606,
      "Ġalternative": 4607,
      "fi": 4608,
      "ĠÃ¶ÄŁrenin": 4609,
      "Ġvisit": 4610,
      "valtÄ±": 4611,
      "Ġbekleme": 4612,
      "Ġrushing": 4613,
      "ĠÃ§alÄ±ÅŁmaya": 4614,
      "layan": 4615,
      "Ġexpecting": 4616,
      "Ġurge": 4617,
      "ĠbaÅŁlamanÄ±z": 4618,
      "Ġbeklen": 4619,
      "ĠÃ§ekiyor": 4620,
      "member": 4621,
      "Ġupon": 4622,
      "round": 4623,
      "ĠkonuÅŁmayÄ±": 4624,
      "Ġyarat": 4625,
      "tirecek": 4626,
      "414": 4627,
      "ÄŁÄ±nda": 4628,
      "Ġwait": 4629,
      "build": 4630,
      "ĠgÃ¶revi": 4631,
      "Ġdepart": 4632,
      "Ġperiods": 4633,
      "Ġfayd": 4634,
      "Â°": 4635,
      "ĠKitap": 4636,
      "Ġcommitting": 4637,
      "Ãĸnce": 4638,
      "ĠÃ§iÃ§ek": 4639,
      "Ġrebuild": 4640,
      "426": 4641,
      "429": 4642,
      "ĠÃ§eker": 4643,
      "ĠkapatÄ±p": 4644,
      "112": 4645,
      "ague": 4646,
      "where": 4647,
      "Ġforcing": 4648,
      "Ġhata": 4649,
      "Ġdili": 4650,
      "Ġister": 4651,
      "Ġhaftada": 4652,
      "Ġemails": 4653,
      "Ġvisible": 4654,
      "ties": 4655,
      "Ġshelves": 4656,
      "Ġcorner": 4657,
      "Sa": 4658,
      "Ġperform": 4659,
      "Ġsign": 4660,
      "Ġsn": 4661,
      "Ġtreating": 4662,
      "Ġtamamla": 4663,
      "Ġfinding": 4664,
      "Ġplatform": 4665,
      "ĠDesign": 4666,
      "Ġanal": 4667,
      "phones": 4668,
      "Ġmeditation": 4669,
      "415": 4670,
      "rated": 4671,
      "leÅŁtirmek": 4672,
      "Ġsesli": 4673,
      "ĠHabit": 4674,
      "ĠakÄ±ÅŁ": 4675,
      "ĠuygulamasÄ±nÄ±": 4676,
      "dÄ±ÄŁÄ±nÄ±zda": 4677,
      "ĠTek": 4678,
      "212": 4679,
      "416": 4680,
      "436": 4681,
      "BugÃ¼n": 4682,
      "Ġeden": 4683,
      "ĠHÄ±zlÄ±": 4684,
      "ĠbaÅŁlatÄ±n": 4685,
      "Ġclose": 4686,
      "ÄŁunu": 4687,
      "ĠanlÄ±k": 4688,
      "com": 4689,
      "lent": 4690,
      "Ġspecial": 4691,
      "Ġroute": 4692,
      "ram": 4693,
      "imit": 4694,
      ".\"Ċ": 4695,
      "Ġwhether": 4696,
      "ĠtanÄ±ÅŁacak": 4697,
      "yonel": 4698,
      "Ġtat": 4699,
      "Ġtell": 4700,
      "Ġkullanmaya": 4701,
      "ĠgeÃ§in": 4702,
      "Ġtasar": 4703,
      "ĠsÃ¼ren": 4704,
      "-posta": 4705,
      "435": 4706,
      "must": 4707,
      "vik": 4708,
      "Ġcloset": 4709,
      "Ġayak": 4710,
      "Ġattractions": 4711,
      "Ġharekete": 4712,
      "Ġself": 4713,
      "Ġodan": 4714,
      "Ġmeal": 4715,
      "Ġseem": 4716,
      "ĠdÃ¼zenini": 4717,
      "Ä±lÄ±r": 4718,
      "Ġharder": 4719,
      "Ġcramming": 4720,
      "427": 4721,
      "Ġboring": 4722,
      "Ġkali": 4723,
      "Ġtelefonunuzu": 4724,
      "437": 4725,
      "Ġada": 4726,
      "ĠdeÄŁildir": 4727,
      "Ġbelong": 4728,
      "Ġexchange": 4729,
      "Ġdrain": 4730,
      "ĠGÃ¶z": 4731,
      "ĠazaltÄ±r": 4732,
      "Toplam": 4733,
      "Ġotel": 4734,
      "ÄŁunuz": 4735,
      "Ġsolu": 4736,
      "Ġkalite": 4737,
      "Ġdenge": 4738,
      "ĠSabahlarÄ±": 4739,
      "Ġsayf": 4740,
      "Ġmisiniz": 4741,
      "ĠResim": 4742,
      "Ġyorgunlu": 4743,
      "ĠdavranÄ±ÅŁ": 4744,
      "417": 4745,
      "ura": 4746,
      "Ġproj": 4747,
      "Ġprofes": 4748,
      "Ġcover": 4749,
      "Ġlit": 4750,
      "ĠÅŁeyleri": 4751,
      "ĠbahÃ§ede": 4752,
      "Ġshift": 4753,
      "Ġassuming": 4754,
      "Ġremember": 4755,
      "Ġacross": 4756,
      "Ġplanner": 4757,
      "147": 4758,
      "Ġaccomplishment": 4759,
      "Ġwatching": 4760,
      "Ġhaya": 4761,
      "adan": 4762,
      "Ġbilet": 4763,
      "ĠbaÅŁlamaktÄ±r": 4764,
      "Ġbitki": 4765,
      "ĠaltÄ±nda": 4766,
      "St": 4767,
      "Ġassi": 4768,
      "ĠtaÅŁ": 4769,
      "eti": 4770,
      "Ġcore": 4771,
      "Ġzek": 4772,
      "ĠÃ§ay": 4773,
      "Ġortamda": 4774,
      "425": 4775,
      "Ġnumber": 4776,
      "ats": 4777,
      "Ġsub": 4778,
      "Ġgetir": 4779,
      "Ġbahset": 4780,
      "Ġdilin": 4781,
      "Ġinvolves": 4782,
      "Ġsafe": 4783,
      "ĠplanÄ±nÄ±zÄ±": 4784,
      "145": 4785,
      "Ġdeneyebilirsiniz": 4786,
      "Ġairline": 4787,
      "Ġstretch": 4788,
      "fen": 4789,
      "yÄ±m": 4790,
      "ĠBi": 4791,
      "Ġrein": 4792,
      "Ġkonfor": 4793,
      "tÃ¼r": 4794,
      "Ġpap": 4795,
      "ĠkÃ¼tÃ¼phan": 4796,
      "ĠCheck": 4797,
      "Ġvade": 4798,
      "Ġvague": 4799,
      "ĠaydÄ±": 4800,
      "Ġdrink": 4801,
      "Ġcurtain": 4802,
      "Ġscrolling": 4803,
      "isel": 4804,
      "ĠMerhaba": 4805,
      "ĠLimit": 4806,
      "ĠgerÃ§ekten": 4807,
      "Ġavailability": 4808,
      "ĠteÅŁvik": 4809,
      "gul": 4810,
      "zet": 4811,
      "lene": 4812,
      "Ġalone": 4813,
      "ĠsÃ¼rekli": 4814,
      "Ġkayb": 4815,
      "Ġfil": 4816,
      "Ġrez": 4817,
      "Ġelect": 4818,
      "Ġwebsi": 4819,
      "Ġcues": 4820,
      "Ġstand": 4821,
      "Ġhon": 4822,
      "efore": 4823,
      "ĠduÅŁ": 4824,
      "ĠhazÄ±rlayÄ±n": 4825,
      "ĠsaÄŁlÄ±klÄ±": 4826,
      "Ġreinfor": 4827,
      "Ġdim": 4828,
      "ĠgeÃ§mek": 4829,
      "Ġhikaye": 4830,
      "ronic": 4831,
      "Ġ'": 4832,
      "ĠdaÄŁÄ±": 4833,
      "atter": 4834,
      "102": 4835,
      "Ġgoes": 4836,
      "ĠhÄ±zlandÄ±r": 4837,
      "Ġsonucu": 4838,
      "Ġrepeat": 4839,
      "ĠkaÃ§Ä±n": 4840,
      "ĠÃ¶ÄŁr": 4841,
      "ĠyavaÅŁÃ§a": 4842,
      "Ġrezerv": 4843,
      "Ġidentif": 4844,
      "lpower": 4845,
      "illpower": 4846,
      "Ġspending": 4847,
      "Ġsnack": 4848,
      "KÃ¼Ã§Ã¼k": 4849,
      "ĠkaldÄ±r": 4850,
      "Ġdesire": 4851,
      "Ġprep": 4852,
      "tÄ±p": 4853,
      "Ã¼tfen": 4854,
      "Ġsentences": 4855,
      "lediÄŁiniz": 4856,
      "ullan": 4857,
      "Ġinsan": 4858,
      "ĠAÄŁ": 4859,
      "riority": 4860,
      "Ġfeed": 4861,
      "vite": 4862,
      "Ġexpressing": 4863,
      "ĠÄ±lÄ±k": 4864,
      "ĠaydÄ±nlat": 4865,
      "yes": 4866,
      "ĠtÃ¼k": 4867,
      "ĠsorunlarÄ±": 4868,
      "Ġkork": 4869,
      "Ġfit": 4870,
      "karak": 4871,
      "Ġkayda": 4872,
      "Ġalt": 4873,
      "ificant": 4874,
      "Ġunne": 4875,
      "ĠkullanÄ±lan": 4876,
      "Ġdijital": 4877,
      "ĠtÃ¼rÃ¼": 4878,
      "Ġsecure": 4879,
      "Ġdemanding": 4880,
      "Ġsound": 4881,
      "met": 4882,
      "Ġwillpower": 4883,
      "Ġvermek": 4884,
      "ĠsÃ¼rede": 4885,
      "ĠÃ¶nemlidir": 4886,
      "Ġelectronic": 4887,
      "322": 4888,
      "ĠalÄ±ÅŁkanlÄ±": 4889,
      "Ġilerleyin": 4890,
      "ĠyapÄ±l": 4891,
      "ĠgÃ¶nderin": 4892,
      "arg": 4893,
      "Ã§Ä±": 4894,
      "hand": 4895,
      "ĠbirleÅŁ": 4896,
      "Ġmy": 4897,
      "kiyor": 4898,
      "146": 4899,
      "ĠpiÅŁiriyor": 4900,
      "ĠeÄŁiti": 4901,
      "ĠÃĩalÄ±ÅŁma": 4902,
      "head": 4903,
      "Ġfun": 4904,
      "Ġfill": 4905,
      "ĠkullanÄ±m": 4906,
      "melisiniz": 4907,
      "-priority": 4908,
      "Ġshowing": 4909,
      "ĠDesignate": 4910,
      "ĠÃ§ekecek": 4911,
      "ĠseÃ§im": 4912,
      "Ġileride": 4913,
      "Ġmisunderstandings": 4914,
      "Ġprofesyonel": 4915,
      "tÃ¼": 4916,
      "alara": 4917,
      "ĠyÃ¼rÃ¼me": 4918,
      "-sleep": 4919,
      "Ġinitial": 4920,
      "Ġswitch": 4921,
      "ĠdÃ¶nÃ¼ÅŁ": 4922,
      "Ġcurtains": 4923,
      "Ġexc": 4924,
      "Ġbelirleme": 4925,
      "ĠÄ±ÅŁÄ±ÄŁÄ±na": 4926,
      "Ġaccus": 4927,
      "Ġseviyenizi": 4928,
      "Ġgerekiyor": 4929,
      "Ġfiz": 4930,
      "Ġgest": 4931,
      "ĠoluÅŁtu": 4932,
      "Ġreacting": 4933,
      "Ġmid": 4934,
      "131": 4935,
      "miÅŁtir": 4936,
      "Ġcomb": 4937,
      "gen": 4938,
      "sity": 4939,
      "Ġken": 4940,
      "lanÄ±r": 4941,
      "Ġbeforehand": 4942,
      "lemesine": 4943,
      "ĠolduÄŁun": 4944,
      "ĠulaÅŁÄ±labilir": 4945,
      "sues": 4946,
      "Ġengel": 4947,
      "Ġolup": 4948,
      "ĠÃ§evir": 4949,
      "ĠyumuÅŁ": 4950,
      "Ġrezervasyon": 4951,
      "-reading": 4952,
      "lak": 4953,
      "rasÄ±nda": 4954,
      "ayan": 4955,
      "phra": 4956,
      "ĠseÃ§mektir": 4957,
      "Ġswitching": 4958,
      "Ġteaching": 4959,
      "Ġali": 4960,
      "ĠbaÅŁar": 4961,
      "132": 4962,
      "ĠbÄ±rakÄ±p": 4963,
      "ĠUzun": 4964,
      "Start": 4965,
      "Ġtest": 4966,
      "Ġstabil": 4967,
      "203": 4968,
      "Ġupda": 4969,
      "Ġhedefi": 4970,
      "434": 4971,
      "pend": 4972,
      "vet": 4973,
      "ĠadÄ±mÄ±n": 4974,
      "ĠMart": 4975,
      "133": 4976,
      "Ġzones": 4977,
      "ĠsatÄ±n": 4978,
      "103": 4979,
      "ĠkullanmaktÄ±r": 4980,
      "Ġgider": 4981,
      "sunuz": 4982,
      "101": 4983,
      "Ġactionable": 4984,
      "leyebilir": 4985,
      "Ġproblem": 4986,
      "Ġahead": 4987,
      "iness": 4988,
      "Ġissues": 4989,
      "ĠseÃ§imi": 4990,
      "Ġunutma": 4991,
      "Ġproductivity": 4992,
      "Ġisterseniz": 4993,
      "Ġhonest": 4994,
      "urarak": 4995,
      "ĠsÄ±r": 4996,
      "ackle": 4997,
      "ĠgeniÅŁ": 4998,
      "Do": 4999,
      "ĠÃ¶ne": 5000,
      "202": 5001,
      "ĠyÃ¼rÃ¼yerek": 5002,
      "Ġolabilirim": 5003,
      "-second": 5004,
      "Ġbalanced": 5005,
      "Ġblackout": 5006,
      "Ġidentifying": 5007,
      "ĠbaÅŁtan": 5008,
      "ĠbaÅŁlangÄ±Ã§ta": 5009,
      "Bir": 5010,
      "gid": 5011,
      "Ġtreat": 5012,
      "ĠbaÅŁa": 5013,
      "Ġyapt": 5014,
      "Ġlearned": 5015,
      "fak": 5016,
      "task": 5017,
      "esinde": 5018,
      "Ġyapmadan": 5019,
      "201": 5020,
      "Ġlabel": 5021,
      "acaÄŁÄ±nÄ±zÄ±": 5022,
      "ĠBaÅŁlangÄ±Ã§ta": 5023,
      "Ġexplaining": 5024,
      "air": 5025,
      "fer": 5026,
      "liÄŁini": 5027,
      "lerinize": 5028,
      "Ġyapay": 5029,
      "Ġris": 5030,
      "ĠÃ¶ncesi": 5031,
      "ĠsaÄŁlam": 5032,
      "Ġdurumda": 5033,
      "ĠolmalÄ±dÄ±r": 5034,
      "Ġbilgileri": 5035,
      "Ġmakinesi": 5036,
      "Ġintense": 5037,
      "Ġencourage": 5038,
      "erat": 5039,
      "usunu": 5040,
      "Ġgrab": 5041,
      "Ġuykuya": 5042,
      "Ġbilim": 5043,
      "Ġautomatically": 5044,
      "Ġoturup": 5045,
      "Ġsignificant": 5046,
      "211": 5047,
      "ĠolmanÄ±z": 5048,
      "lÄ±klÄ±": 5049,
      "Ġunnecessary": 5050,
      "'dan": 5051,
      "mayan": 5052,
      "Ġinceleyin": 5053,
      "ns": 5054,
      "Ġ\\": 5055,
      "ĠayÄ±rdÄ±ÄŁÄ±": 5056,
      "ĠMaps": 5057,
      "Ġspor": 5058,
      "Ġfaster": 5059,
      "ĠgÃ¶rsel": 5060,
      "Ġboundary": 5061,
      "ĠseÃ§ene": 5062,
      "Ġaccum": 5063,
      "ĠbaÅŁlÄ±": 5064,
      "ĠÃ§Ã¶zmek": 5065,
      "duk": 5066,
      "Ġrates": 5067,
      "Ġintensity": 5068,
      "Ġslowly": 5069,
      "Ġaler": 5070,
      "Ġconstant": 5071,
      "Ġdemek": 5072,
      "Ġhikay": 5073,
      "Ġappro": 5074,
      "Ġspots": 5075,
      "Ġkelimeleri": 5076,
      "ĠdetaylarÄ±": 5077,
      "Ġtransportation": 5078,
      "Ġevents": 5079,
      "iksel": 5080,
      "Ġflexibility": 5081,
      "ĠzorluklarÄ±": 5082,
      "ĠyÃ¶net": 5083,
      "ĠyapÄ±yor": 5084,
      "Ġdrives": 5085,
      "Ġaccount": 5086,
      "Ġconcepts": 5087,
      "ĠhatÄ±rlat": 5088,
      "Ġpicking": 5089,
      "ĠÃ¶rnek": 5090,
      "196": 5091,
      "ĠyazÄ±": 5092,
      "Ġrahatla": 5093,
      "Ġduygular": 5094,
      "423": 5095,
      "ĠDil": 5096,
      "Ġwon": 5097,
      "Ġkonular": 5098,
      "ĠÃ§ekin": 5099,
      "800": 5100,
      "ĠaraÅŁtÄ±r": 5101,
      "ĠdeÄŁiÅŁiklik": 5102,
      "Ġhedefleyin": 5103,
      "ĠÃ§Ä±kÄ±p": 5104,
      "ĠÃ¶nÃ¼nde": 5105,
      "Ġmultitask": 5106,
      "ulan": 5107,
      "ĠbaÅŁÄ±nda": 5108,
      "Ġhayal": 5109,
      "ates": 5110,
      "Ġmeetings": 5111,
      "Ġrun": 5112,
      "156": 5113,
      "Ġcompleted": 5114,
      "ĠFriends": 5115,
      "ĠartÄ±rÄ±n": 5116,
      "ĠyaptÄ±ÄŁÄ±nÄ±z": 5117,
      "ĠBiraz": 5118,
      "139": 5119,
      "Ġparties": 5120,
      "ĠsÃ¶yle": 5121,
      "ĠaydÄ±rdÄ±": 5122,
      "Ġanlama": 5123,
      "Ġschedules": 5124,
      "Ġaraz": 5125,
      "ĠgiriÅŁ": 5126,
      "landÄ±ÄŁÄ±nÄ±z": 5127,
      "Ġfeedback": 5128,
      "Ġtw": 5129,
      "Ġbeyn": 5130,
      "Ġspark": 5131,
      "509": 5132,
      "Ġrigid": 5133,
      "909": 5134,
      "709": 5135,
      "Ġlimit": 5136,
      "Ġdefensiveness": 5137,
      "Ġattempting": 5138,
      "Ġemp": 5139,
      "Ã¼zen": 5140,
      "Ġetme": 5141,
      "tÄ±ÄŁÄ±nÄ±z": 5142,
      "Ġlistener": 5143,
      "ĠyapÄ±lacak": 5144,
      "ĠsÃ¼reÃ§te": 5145,
      "abilirim": 5146,
      "ĠyetiÅŁ": 5147,
      "Ġkalma": 5148,
      "Ġyeri": 5149,
      "Ġbelirti": 5150,
      "Ġphra": 5151,
      "Ġblok": 5152,
      "ĠbakÄ±n": 5153,
      "Ġmesafe": 5154,
      "ĠBirlikte": 5155,
      "ĠdoÄŁrusu": 5156,
      "Ġhisse": 5157,
      "ĠChange": 5158,
      "Ġplacing": 5159,
      "rev": 5160,
      "Ġban": 5161,
      "ĠYoga": 5162,
      "ĠÃ¶de": 5163,
      "ĠbuluÅŁma": 5164,
      "Ġseason": 5165,
      "199": 5166,
      "Ġbarda": 5167,
      "Ġdata": 5168,
      "ĠuÄŁ": 5169,
      "Ġdeals": 5170,
      "Ġloud": 5171,
      "Ġtraveling": 5172,
      "Ġyerinizi": 5173,
      "laÅŁma": 5174,
      "Ġinterruptions": 5175,
      "GÃ¼n": 5176,
      "Ġtone": 5177,
      "ĠBunun": 5178,
      "Ġharika": 5179,
      "Ġmasa": 5180,
      "Ġkesin": 5181,
      "Ġkaydedin": 5182,
      "Ġanaliz": 5183,
      "rada": 5184,
      "ÄŁinden": 5185,
      "Ġhang": 5186,
      "iding": 5187,
      "Ġart": 5188,
      "ĠyÃ¼zmeye": 5189,
      "809": 5190,
      "ĠayÄ±rd": 5191,
      "ĠÃ§izim": 5192,
      "Ġtemperat": 5193,
      "not": 5194,
      "ĠayÄ±rarak": 5195,
      "246": 5196,
      "609": 5197,
      "Ä±lmÄ±ÅŁ": 5198,
      "ldur": 5199,
      "Ġmetin": 5200,
      "micro": 5201,
      "ĠTackle": 5202,
      "larÄ±ndan": 5203,
      "ĠodaklÄ±": 5204,
      "ĠkonuÅŁmaya": 5205,
      "Ġphysically": 5206,
      "Ġgelir": 5207,
      "Ġwrong": 5208,
      "ĠgÃ¼Ã§lÃ¼": 5209,
      "ĠyanlÄ±ÅŁ": 5210,
      "ĠHaftanÄ±n": 5211,
      "Ġdinlenme": 5212,
      "Ġlocation": 5213,
      "Ġprovi": 5214,
      "olute": 5215,
      "Ġharca": 5216,
      "ĠyÃ¼ksek": 5217,
      "312": 5218,
      "yo": 5219,
      "ĠYap": 5220,
      "sÄ±l": 5221,
      "Ben": 5222,
      "Ġiba": 5223,
      "Ġsuya": 5224,
      "gÃ¼nlÃ¼k": 5225,
      "Ġziyade": 5226,
      "Ġtesting": 5227,
      "Ġtarz": 5228,
      "Ä±ÅŁtÄ±r": 5229,
      "607": 5230,
      "ĠgeÃ§iÅŁ": 5231,
      "Ġleads": 5232,
      "Ġruh": 5233,
      "Ġabsolute": 5234,
      "433": 5235,
      "Ġyu": 5236,
      "ĠbahÃ§eye": 5237,
      "506": 5238,
      "232": 5239,
      "alarÄ±nÄ±": 5240,
      "Ġsitu": 5241,
      "ĠHabits": 5242,
      "Ġzeka": 5243,
      "Ġidentify": 5244,
      "Ġjum": 5245,
      "Ã¢": 5246,
      "arp": 5247,
      "Ġdoldur": 5248,
      "Ġvalu": 5249,
      "ĠgÃ¼nÃ¼nÃ¼": 5250,
      "Ġkelimeyi": 5251,
      "ĠgerÃ§ekÃ§i": 5252,
      "know": 5253,
      "lus": 5254,
      "abin": 5255,
      "195": 5256,
      "197": 5257,
      "806": 5258,
      "ĠNumarasÄ±": 5259,
      "Ġcalls": 5260,
      "hoto": 5261,
      "Ġedecek": 5262,
      "245": 5263,
      "Ġgeli": 5264,
      "ĠolduÄŁundan": 5265,
      "bing": 5266,
      "cc": 5267,
      "tiren": 5268,
      "asÄ±na": 5269,
      "175": 5270,
      "176": 5271,
      "346": 5272,
      "805": 5273,
      "ĠBirkaÃ§": 5274,
      "Ġrelaxation": 5275,
      "Ġtelefonunuzda": 5276,
      "ĠfaydalÄ±": 5277,
      "laka": 5278,
      "Ġemer": 5279,
      "179": 5280,
      "ient": 5281,
      "606": 5282,
      "Ġdonate": 5283,
      "Ġarrive": 5284,
      "ĠaÅŁaÄŁÄ±daki": 5285,
      "Ġibaret": 5286,
      "hed": 5287,
      "Ġocc": 5288,
      "605": 5289,
      "layabilirsiniz": 5290,
      "ĠeÄŁlence": 5291,
      "Ġpriorities": 5292,
      "ĠuÄŁra": 5293,
      "Ġstre": 5294,
      "504": 5295,
      "ĠduyduÄŁ": 5296,
      "Ġalacak": 5297,
      "ji": 5298,
      "sal": 5299,
      "inking": 5300,
      "177": 5301,
      "Ġgez": 5302,
      "507": 5303,
      "Ġspontaneous": 5304,
      "Ġresistance": 5305,
      "Ġdeparture": 5306,
      "'ye": 5307,
      "sadece": 5308,
      "dÄ±ÄŁÄ±nÄ±zÄ±": 5309,
      "ĠyÃ¼ze": 5310,
      "ĠkullanÄ±mÄ±": 5311,
      "Ġmutlaka": 5312,
      "Ġtemperature": 5313,
      "Ġflow": 5314,
      "ĠiletiÅŁimi": 5315,
      "ĠazaltÄ±n": 5316,
      "Ġchores": 5317,
      "Ġcabin": 5318,
      "Ġreason": 5319,
      "ĠgÃ¼nkÃ¼": 5320,
      "247": 5321,
      "165": 5322,
      "167": 5323,
      "906": 5324,
      "907": 5325,
      "ĠkaÄŁÄ±t": 5326,
      "Ġyi": 5327,
      "140": 5328,
      "tarak": 5329,
      "Ġsure": 5330,
      "347": 5331,
      "ĠÃ§alÄ±ÅŁmayÄ±": 5332,
      "uzu": 5333,
      "ĠkiÅŁisel": 5334,
      "gest": 5335,
      "ĠYaz": 5336,
      "Ġvi": 5337,
      "Ġacce": 5338,
      "Ġjo": 5339,
      "905": 5340,
      "Ġafterward": 5341,
      "ĠConsistent": 5342,
      "luluk": 5343,
      "Ġtough": 5344,
      "ĠSpend": 5345,
      "Ġvererek": 5346,
      "Ġorder": 5347,
      "Ġpati": 5348,
      "705": 5349,
      "ĠkalÄ±cÄ±": 5350,
      "Ġparaphra": 5351,
      "157": 5352,
      "Ġsonuna": 5353,
      "ĠseÃ§erek": 5354,
      "'nin": 5355,
      "Ġplaces": 5356,
      "Ġexplain": 5357,
      "Ġadap": 5358,
      "Ġbulup": 5359,
      "231": 5360,
      "Ġbookings": 5361,
      "807": 5362,
      "505": 5363,
      "ĠaÃ§Ä±n": 5364,
      "ĠulaÅŁÄ±m": 5365,
      "ĠkÄ±sm": 5366,
      "Ġroutines": 5367,
      "Ġtutarak": 5368,
      "707": 5369,
      "Ġitineraries": 5370,
      "ĠgÃ¶revlerinizi": 5371,
      "Ġcomput": 5372,
      "Ġcategory": 5373,
      "yÃ¼z": 5374,
      "Ġsoon": 5375,
      "asit": 5376,
      "**,": 5377,
      "bies": 5378,
      "508": 5379,
      "larÄ±nÄ±zÄ±n": 5380,
      "Ġgently": 5381,
      "Ġacknow": 5382,
      "159": 5383,
      "Ġwhy": 5384,
      "706": 5385,
      "Ġjourney": 5386,
      "Ġkonuya": 5387,
      "Ġminimize": 5388,
      "Ġtab": 5389,
      "ĠYeni": 5390,
      "808": 5391,
      "704": 5392,
      "Ġgitmek": 5393,
      "ĠKonuÅŁ": 5394,
      "Ġroutes": 5395,
      "ĠkaynaÄŁÄ±": 5396,
      "Ġrenk": 5397,
      "veriÅŁ": 5398,
      "Ġsite": 5399,
      "155": 5400,
      "spec": 5401,
      "enses": 5402,
      "-ste": 5403,
      "281": 5404,
      "ĠalanlarÄ±": 5405,
      "ĠKendinize": 5406,
      "Ġaccessible": 5407,
      "ral": 5408,
      "vÄ±": 5409,
      "ĠMayÄ±": 5410,
      "ĠnumaranÄ±z": 5411,
      "Ġokuyun": 5412,
      "608": 5413,
      "Ġdefining": 5414,
      "Ġhobbies": 5415,
      "Ġforget": 5416,
      "345": 5417,
      "804": 5418,
      "Ġelinizdeki": 5419,
      "Ġbelirlemektir": 5420,
      "Ġslots": 5421,
      "Ġpower": 5422,
      "ÅŁe": 5423,
      "Ġgather": 5424,
      "Ġokay": 5425,
      "Ä±nÄ±zla": 5426,
      "221": 5427,
      "222": 5428,
      "tÄ±rarak": 5429,
      "andÄ±r": 5430,
      "708": 5431,
      "ĠÃ¶zen": 5432,
      "Ġcategories": 5433,
      "Ġbarrier": 5434,
      "Ġfiziksel": 5435,
      "439": 5436,
      "ĠuÃ§": 5437,
      "Ġvers": 5438,
      "Ġtrash": 5439,
      "382": 5440,
      "Ġreinforce": 5441,
      "ĠiÃ§eri": 5442,
      "nerek": 5443,
      "402": 5444,
      "ĠkullanÄ±l": 5445,
      "anÄ±p": 5446,
      "604": 5447,
      "ĠaÃ§Ä±p": 5448,
      "Ġcontext": 5449,
      "Ġseti": 5450,
      "Ġoverall": 5451,
      "Ġversus": 5452,
      "118": 5453,
      "ora": 5454,
      "Ġcevab": 5455,
      "ĠkonuÅŁmalar": 5456,
      "ĠGÃ¼ne": 5457,
      "ĠyÃ¼ksel": 5458,
      "ÄŁaÃ§": 5459,
      "ĠBelki": 5460,
      "tÄ±racak": 5461,
      "ĠuyandÄ±ktan": 5462,
      "inci": 5463,
      "Ġcity": 5464,
      "Ġnod": 5465,
      "Ġziyaret": 5466,
      "Ġyolculuk": 5467,
      "311": 5468,
      "ism": 5469,
      "Ġnecessary": 5470,
      "Ġworks": 5471,
      "ĠulaÅŁmak": 5472,
      "ĠBefore": 5473,
      "ĠAc": 5474,
      "148": 5475,
      "ĠkolayÄ±": 5476,
      "Ġskills": 5477,
      "ĠfÄ±rsa": 5478,
      "ĠyalnÄ±z": 5479,
      "arlÄ±": 5480,
      "check": 5481,
      "Ġworry": 5482,
      "lerinde": 5483,
      "Ġkitaplar": 5484,
      "Ġdiscu": 5485,
      "menizdir": 5486,
      "Ġbakarak": 5487,
      "Ġizleyin": 5488,
      "ĠgÃ¶sterin": 5489,
      "Ġexpectations": 5490,
      "Use": 5491,
      "Ġnaz": 5492,
      "ĠÄ°ki": 5493,
      "282": 5494,
      "233": 5495,
      "904": 5496,
      "ĠKendinizi": 5497,
      "ĠpaylaÅŁÄ±n": 5498,
      "Ġpush": 5499,
      "Ġstabilize": 5500,
      "mut": 5501,
      "Ä±yorsanÄ±z": 5502,
      "ries": 5503,
      "Ġverilen": 5504,
      "lÄ±yor": 5505,
      "190": 5506,
      "Ġtemizleyin": 5507,
      "Ġamount": 5508,
      "420": 5509,
      "alama": 5510,
      "Ġrema": 5511,
      "Ġretention": 5512,
      "alÄ±r": 5513,
      "301": 5514,
      "303": 5515,
      "Ġpair": 5516,
      "Ġridic": 5517,
      "908": 5518,
      "ĠkiÅŁiler": 5519,
      "Ġaktiviteler": 5520,
      "ĠkatÄ±l": 5521,
      "Ġhyd": 5522,
      "Ġridicul": 5523,
      "-ins": 5524,
      "Ġsli": 5525,
      "yÄ±r": 5526,
      "Ġga": 5527,
      "166": 5528,
      "ĠdÃ¼ÅŁÃ¼nd": 5529,
      "most": 5530,
      "ĠistediÄŁin": 5531,
      "Ġsending": 5532,
      "Ġgreat": 5533,
      "ĠÃ§ab": 5534,
      "uture": 5535,
      "lantÄ±": 5536,
      "Ġrepeated": 5537,
      "ĠtamamlayÄ±n": 5538,
      "ĠTeach": 5539,
      "ĠÅŀimdi": 5540,
      "ĠÃ¶ncelikli": 5541,
      "fully": 5542,
      "lig": 5543,
      "ĠbaÅŁk": 5544,
      "Ã¼rÃ¼n": 5545,
      "331": 5546,
      "Ġoturum": 5547,
      "Ġdeeper": 5548,
      "Ġduration": 5549,
      "Ġhalinde": 5550,
      "cept": 5551,
      "ĠhiÃ§bir": 5552,
      "ĠdÃ¼zelt": 5553,
      "ĠMayÄ±s": 5554,
      "per": 5555,
      "leÅŁim": 5556,
      "usted": 5557,
      "Ġdele": 5558,
      "Ġveri": 5559,
      "ĠÃ¶nerilir": 5560,
      "150": 5561,
      "240": 5562,
      "169": 5563,
      "Ġsormak": 5564,
      "layacak": 5565,
      "kincisi": 5566,
      "ĠbÃ¶lg": 5567,
      "Ġegzersizi": 5568,
      "ben": 5569,
      "ĠEkim": 5570,
      "Ġfuture": 5571,
      "Ġrece": 5572,
      "ĠbaÅŁlamadan": 5573,
      "Ġyola": 5574,
      "403": 5575,
      "Ġcuri": 5576,
      "Ġapproach": 5577,
      "rop": 5578,
      "ĠaÄŁaÃ§": 5579,
      "unting": 5580,
      "Ġrec": 5581,
      "ĠOnce": 5582,
      "283": 5583,
      "401": 5584,
      "502": 5585,
      "Ġetmektir": 5586,
      "Ġlimits": 5587,
      "'nda": 5588,
      "vest": 5589,
      "lamayÄ±": 5590,
      "Ġeat": 5591,
      "Ġstra": 5592,
      "ĠbaÅŁlÄ±k": 5593,
      "ict": 5594,
      "ser": 5595,
      "Ġstim": 5596,
      "diÄŁini": 5597,
      "ĠeÅŁyadÄ±r": 5598,
      "evap": 5599,
      "332": 5600,
      "ĠÃ¶zg": 5601,
      "Ġstepping": 5602,
      "Ġhareketleri": 5603,
      "Ġstops": 5604,
      "ĠBelirli": 5605,
      "Ġgestures": 5606,
      "Can": 5607,
      "Ġkat": 5608,
      "Ġent": 5609,
      "Ġbirbir": 5610,
      "Ġyazmak": 5611,
      "160": 5612,
      "383": 5613,
      "ĠalÄ±ÅŁveriÅŁ": 5614,
      "603": 5615,
      "Ġbiggest": 5616,
      "ĠkahvaltÄ±": 5617,
      "ĠbunlarÄ±": 5618,
      "ĠyazÄ±lÄ±m": 5619,
      "Ġlittle": 5620,
      "ined": 5621,
      "Ġyapar": 5622,
      "Ġlez": 5623,
      "381": 5624,
      "Ġdrawers": 5625,
      "Ġappointment": 5626,
      "-se": 5627,
      "Ġhaven": 5628,
      "302": 5629,
      "Ġkutudaki": 5630,
      "ĠKÄ±sa": 5631,
      "Ġincelemek": 5632,
      "dÄ±ÄŁÄ±nda": 5633,
      "Ġridiculously": 5634,
      "Ġbes": 5635,
      "ĠÄ°Ã§": 5636,
      "malarÄ±": 5637,
      "cture": 5638,
      "602": 5639,
      "Ġbulunan": 5640,
      "ĠOne": 5641,
      "Ġfriendships": 5642,
      "ebilirim": 5643,
      "ĠvÃ¼cudunuzun": 5644,
      "lmÄ±ÅŁ": 5645,
      "Ġche": 5646,
      "ĠbeÅŁ": 5647,
      "ĠadÄ±mdÄ±r": 5648,
      "Ġmapping": 5649,
      "cast": 5650,
      "leyici": 5651,
      "888": 5652,
      "Ġexpenses": 5653,
      "449": 5654,
      "702": 5655,
      "Ġeksik": 5656,
      "Ġnazik": 5657,
      "ĠiÃ§erek": 5658,
      "ĠyapabileceÄŁiniz": 5659,
      "Ġfees": 5660,
      "885": 5661,
      "ĠyÃ¶nelik": 5662,
      "501": 5663,
      "849": 5664,
      "701": 5665,
      "703": 5666,
      "Ġsince": 5667,
      "Ġjumping": 5668,
      "matik": 5669,
      "ĠBugÃ¼n": 5670,
      "ĠiÃ§i": 5671,
      "ĠanÄ±": 5672,
      "333": 5673,
      "803": 5674,
      "886": 5675,
      "What": 5676,
      "kward": 5677,
      "ĠÃ¼re": 5678,
      "Ġsil": 5679,
      "Ġdaunting": 5680,
      "larÄ±nÄ±n": 5681,
      "ĠcÃ¼mleler": 5682,
      "ĠKullan": 5683,
      "503": 5684,
      "Ġgereksiz": 5685,
      "ĠyaÅŁayan": 5686,
      "Ġrefle": 5687,
      "isidir": 5688,
      "ĠgÃ¼zel": 5689,
      "oling": 5690,
      "ĠÃĸz": 5691,
      "887": 5692,
      "ĠbaÅŁlayabilir": 5693,
      "pr": 5694,
      "Ġbecer": 5695,
      "256": 5696,
      "802": 5697,
      "ĠazalÄ±r": 5698,
      "Ġlowers": 5699,
      "903": 5700,
      "ĠÃ¶zellikle": 5701,
      "Ġawkward": 5702,
      "Ġstatement": 5703,
      "Ġaccusing": 5704,
      "Ġoblig": 5705,
      "anlÄ±k": 5706,
      "255": 5707,
      "ĠolduÄŁunuzu": 5708,
      "Ġpeak": 5709,
      "Ġcontinue": 5710,
      "Avoid": 5711,
      "yer": 5712,
      "irken": 5713,
      "ĠayÄ±nda": 5714,
      "rip": 5715,
      "ider": 5716,
      "144": 5717,
      "ĠkalÄ±n": 5718,
      "296": 5719,
      "ĠyÃ¼zer": 5720,
      "ĠsÃ¼rdÃ¼r": 5721,
      "ially": 5722,
      "uel": 5723,
      "uÄŁu": 5724,
      "Ġyes": 5725,
      "Ġbaz": 5726,
      "Ġistey": 5727,
      "902": 5728,
      "Ġalana": 5729,
      "ĠHafta": 5730,
      "Ġpaper": 5731,
      "ĠAÄŁust": 5732,
      "ĠayÄ±rÄ±": 5733,
      "Ġatarak": 5734,
      "ĠgeÃ§miÅŁ": 5735,
      "901": 5736,
      "layabilir": 5737,
      "ĠolmadÄ±ÄŁÄ±nÄ±": 5738,
      "Ġrutini": 5739,
      "Ġappointments": 5740,
      "hil": 5741,
      "uoling": 5742,
      "Ġade": 5743,
      "diÄŁin": 5744,
      "Ġcommitments": 5745,
      "Ġbekleyin": 5746,
      "Ġentry": 5747,
      "uolingo": 5748,
      "cre": 5749,
      "cting": 5750,
      "sÄ±nÄ±n": 5751,
      "Ã¼yor": 5752,
      "Ġespec": 5753,
      "unlu": 5754,
      "Ġmar": 5755,
      "Ġstating": 5756,
      "Ġhid": 5757,
      "Ġweekend": 5758,
      "ĠÃ¶ÄŁrenmeyi": 5759,
      "ducing": 5760,
      "Ġespecially": 5761,
      "257": 5762,
      "601": 5763,
      "ĠokumayÄ±": 5764,
      "Ġmiss": 5765,
      "âĢĶto": 5766,
      "321": 5767,
      "ĠzamanÄ±nÄ±zÄ±": 5768,
      "lenmiÅŁ": 5769,
      "tÄ±ÄŁÄ±nÄ±zda": 5770,
      "Ġpast": 5771,
      "acaÄŁÄ±m": 5772,
      "Ġdikkatli": 5773,
      "dum": 5774,
      "Ġhol": 5775,
      "Ġkons": 5776,
      "801": 5777,
      "ĠsÃ¼resini": 5778,
      "Ġyorgunluk": 5779,
      "Ġnor": 5780,
      "ĠEat": 5781,
      "Ġsoft": 5782,
      "ĠHaya": 5783,
      "Ġalmost": 5784,
      "Ġetmeyi": 5785,
      "ĠGÃ¶rev": 5786,
      "318": 5787,
      "Ġkil": 5788,
      "276": 5789,
      "ĠsaÄŁlamak": 5790,
      "Ġpiles": 5791,
      "Ġvalidating": 5792,
      "ĠÃĸneri": 5793,
      "ĠeÅŁyalar": 5794,
      "ĠKayÄ±t": 5795,
      "Ãĩ": 5796,
      "Ġslight": 5797,
      "Ġconcent": 5798,
      "267": 5799,
      "275": 5800,
      "ĠyÃ¶ntemi": 5801,
      "Ġhidden": 5802,
      "hte": 5803,
      "lation": 5804,
      "masÄ±na": 5805,
      "Ġdok": 5806,
      "ĠdeÄŁiÅŁtir": 5807,
      "295": 5808,
      "unuzun": 5809,
      "ĠdoÄŁa": 5810,
      "ĠsÄ±rasÄ±nda": 5811,
      "ĠÃ§ekim": 5812,
      "Ġincrease": 5813,
      "Ġintentional": 5814,
      "ĠExp": 5815,
      "Ġmultitasking": 5816,
      "ups": 5817,
      "yken": 5818,
      "Ġkan": 5819,
      "Ġveriler": 5820,
      "Ġyazar": 5821,
      "Ġwilling": 5822,
      "ĠWork": 5823,
      "Ġmotivasyonu": 5824,
      "Ġcategorize": 5825,
      "iyet": 5826,
      "racak": 5827,
      "teful": 5828,
      "Ġdal": 5829,
      "Ġbeats": 5830,
      "279": 5831,
      "ildirim": 5832,
      "Ġgrateful": 5833,
      "ĠbÃ¶lÃ¼n": 5834,
      "Ġseviyesini": 5835,
      "Ġavailable": 5836,
      "Ġsolutions": 5837,
      "Ġvadeli": 5838,
      "413": 5839,
      "yg": 5840,
      "Ġbri": 5841,
      "Ġblo": 5842,
      "ĠBah": 5843,
      "Ġrus": 5844,
      "Ġkoyarak": 5845,
      "Ġproductive": 5846,
      "ĠaÅŁama": 5847,
      "ĠTravel": 5848,
      "Ġins": 5849,
      "Ġstoring": 5850,
      "Ġsat": 5851,
      "Ġsaatler": 5852,
      "ĠÃĸnceki": 5853,
      "396": 5854,
      "884": 5855,
      "Ġairlines": 5856,
      "work": 5857,
      "Ġneler": 5858,
      "Ġstru": 5859,
      "stru": 5860,
      "Ġtempt": 5861,
      "Ã¼ÄŁÃ¼nÃ¼z": 5862,
      "Ġindirin": 5863,
      "ĠharitasÄ±": 5864,
      "Ġreh": 5865,
      "259": 5866,
      "265": 5867,
      "369": 5868,
      "ĠyapÄ±sÄ±nÄ±": 5869,
      "acaÄŁÄ±nÄ±": 5870,
      "Ġderinlemesine": 5871,
      "Ġkaynat": 5872,
      "ĠmÃ¼mkÃ¼nse": 5873,
      "dil": 5874,
      "ysa": 5875,
      "yse": 5876,
      "lerken": 5877,
      "Ġenga": 5878,
      "ĠaracÄ±": 5879,
      "Ġspaced": 5880,
      "Ġduygusal": 5881,
      "Ġguide": 5882,
      "Ġpatter": 5883,
      "Ã¼st": 5884,
      "ĠBil": 5885,
      "lict": 5886,
      "ĠbaÅŁÄ±nÄ±za": 5887,
      "Ġmovi": 5888,
      "Ġkonak": 5889,
      "pport": 5890,
      "Ġprice": 5891,
      "ĠbaÅŁlayabilirsin": 5892,
      "Ġsuppress": 5893,
      "Sadece": 5894,
      "Create": 5895,
      "eli": 5896,
      "ĠDÃ¼zen": 5897,
      "ĠSab": 5898,
      "ĠbeÄŁ": 5899,
      "Ã¼kem": 5900,
      "269": 5901,
      "rog": 5902,
      "889": 5903,
      "Ġkolayca": 5904,
      "Ġkoru": 5905,
      "shop": 5906,
      "Ġdisrupts": 5907,
      "ĠSÃ¼rekli": 5908,
      "ĠAÄŁustos": 5909,
      "Ġslightly": 5910,
      "'Ã¼": 5911,
      "'den": 5912,
      "heet": 5913,
      "ysanÄ±z": 5914,
      "lamaya": 5915,
      "ĠÃ¶nceli": 5916,
      "Ġconflict": 5917,
      "Ġnormal": 5918,
      "Ġseven": 5919,
      "lenen": 5920,
      "357": 5921,
      "376": 5922,
      "ĠFind": 5923,
      "Ġdeciding": 5924,
      "leyecek": 5925,
      "Ġuygulamaya": 5926,
      "Ġilerlemenizi": 5927,
      "ons": 5928,
      "248": 5929,
      "359": 5930,
      "Ġaktif": 5931,
      "Ġhappy": 5932,
      "Ġengaged": 5933,
      "218": 5934,
      "Ġikinci": 5935,
      "ĠÃ§Ã¶": 5936,
      "oci": 5937,
      "Ġgetirin": 5938,
      "882": 5939,
      "Ġeffic": 5940,
      "Ġfrustrated": 5941,
      "ĠSpe": 5942,
      "enize": 5943,
      "297": 5944,
      "Ġdeneme": 5945,
      "Ġreaching": 5946,
      "ĠsÃ¼recini": 5947,
      "ĠolduÄŁunca": 5948,
      "mis": 5949,
      "alan": 5950,
      "ĠErken": 5951,
      "lanacak": 5952,
      "Ġyapabilir": 5953,
      "239": 5954,
      "Ġconfus": 5955,
      "lÃ¼ÄŁ": 5956,
      "ĠbaÅŁlangÄ±c": 5957,
      "Ġsignificantly": 5958,
      "Ġnodding": 5959,
      ".'": 5960,
      "ayÄ±n": 5961,
      "Ġeyle": 5962,
      "Ġeyes": 5963,
      "266": 5964,
      "ĠyÃ¶ntemdir": 5965,
      "Ġmedya": 5966,
      "Ġassoci": 5967,
      "ĠiÃ§eren": 5968,
      "'Ä±": 5969,
      "Go": 5970,
      "Ġsust": 5971,
      "ĠPM": 5972,
      "ĠhaftalÄ±k": 5973,
      "ĠkitabÄ±n": 5974,
      "Ġswims": 5975,
      "Ġsitting": 5976,
      "bal": 5977,
      "ĠÃ§Ä±": 5978,
      "Ġoverth": 5979,
      "ĠnetleÅŁtirin": 5980,
      "endir": 5981,
      "reci": 5982,
      "170": 5983,
      "299": 5984,
      "Ġbitir": 5985,
      "Ġbitirin": 5986,
      "355": 5987,
      "377": 5988,
      "395": 5989,
      "Ġshows": 5990,
      "Ġobject": 5991,
      "Ġsalat": 5992,
      "ulu": 5993,
      "veya": 5994,
      "ĠOk": 5995,
      "Ġresearch": 5996,
      "375": 5997,
      "Ġstopping": 5998,
      "nolo": 5999,
      "ĠaraÃ§larÄ±": 6000,
      "ĠÃ¶ÄŁrene": 6001,
      "Ġnearby": 6002,
      "hotoshop": 6003,
      "'dir": 6004,
      "ĠadÄ±mÄ±nÄ±": 6005,
      "339": 6006,
      "881": 6007,
      "Ġappreci": 6008,
      "Ġdeneyi": 6009,
      "ÄŁuk": 6010,
      "licit": 6011,
      "Set": 6012,
      "Ġnoise": 6013,
      "Ġcommitment": 6014,
      "ĠkapalÄ±": 6015,
      "ĠtemizliÄŁi": 6016,
      "ĠkolaylaÅŁtÄ±rmak": 6017,
      "lg": 6018,
      "way": 6019,
      "xim": 6020,
      "titu": 6021,
      "Ġrecent": 6022,
      "Ġdille": 6023,
      "366": 6024,
      "ĠtÃ¼rden": 6025,
      "Ġbulunur": 6026,
      "ĠÃ¶ÄŁleden": 6027,
      "Ġsearching": 6028,
      "ĠyumuÅŁak": 6029,
      "cÃ¼": 6030,
      "Ä±yorum": 6031,
      "ĠgÃ¼nlerde": 6032,
      "Ġolaca": 6033,
      "Ġfear": 6034,
      "Ġkalp": 6035,
      "Ġkendiniz": 6036,
      "ĠsaÄŁlayan": 6037,
      "-task": 6038,
      "Â°F": 6039,
      "Ġsubject": 6040,
      "rat": 6041,
      "Ġcome": 6042,
      "Ġfam": 6043,
      "ÄŁru": 6044,
      "habit": 6045,
      "olu": 6046,
      "883": 6047,
      "Ġformulating": 6048,
      "ndle": 6049,
      "umlu": 6050,
      "399": 6051,
      "Ġtakv": 6052,
      "ĠInvite": 6053,
      "Ġmix": 6054,
      "elim": 6055,
      "ĠEvet": 6056,
      "ĠAyÄ±": 6057,
      "Ġyazarak": 6058,
      "siyon": 6059,
      "360": 6060,
      "379": 6061,
      "397": 6062,
      "Ġhissed": 6063,
      "ĠduyduÄŁunuz": 6064,
      "Ġyatmak": 6065,
      "Ġbehaviors": 6066,
      "âĢĶlike": 6067,
      "Ġhuzurlu": 6068,
      "ĠiÅŁlemi": 6069,
      "Ġengaging": 6070,
      "ĠSpeak": 6071,
      "fic": 6072,
      "ĠÄ°kincisi": 6073,
      "Ġtrusted": 6074,
      "367": 6075,
      "348": 6076,
      "Ġgidip": 6077,
      "Ġgerekecek": 6078,
      "ĠayÄ±rt": 6079,
      "Ġensures": 6080,
      "Ġhareketler": 6081,
      "...\")": 6082,
      "ĠkÄ±sÄ±t": 6083,
      "Ġtu": 6084,
      "Ġrele": 6085,
      "Ġreally": 6086,
      "ept": 6087,
      "ĠÃ¶nerisi": 6088,
      "Ġimpul": 6089,
      "Ġunderstands": 6090,
      "Ġekleyip": 6091,
      "tesini": 6092,
      "ĠÃ¶nerileri": 6093,
      "Ġiyisidir": 6094,
      "argon": 6095,
      "-e": 6096,
      "sim": 6097,
      "Ġtuz": 6098,
      "lanma": 6099,
      "Ġmad": 6100,
      "277": 6101,
      "ĠolanÄ±": 6102,
      "Ġtelefonunuza": 6103,
      "Ġfore": 6104,
      "sÄ±yla": 6105,
      "Ġopini": 6106,
      "Ġhayatta": 6107,
      "Ġmalzemeleri": 6108,
      "Ġprefer": 6109,
      "Ġkafa": 6110,
      "ĠGÃ¶r": 6111,
      "ĠbaÅŁlamayÄ±": 6112,
      "Ġlikely": 6113,
      "Ġbasic": 6114,
      "ĠsÄ±caklÄ±": 6115,
      "Ġkutular": 6116,
      "ĠparÃ§alara": 6117,
      "Ġsebz": 6118,
      "Ġsebze": 6119,
      "Ġstructure": 6120,
      "ulara": 6121,
      "Ġoutcome": 6122,
      "ĠÃĸncelik": 6123,
      "Ġlog": 6124,
      "446": 6125,
      "Ġarada": 6126,
      "ĠsÄ±fÄ±r": 6127,
      "ĠgeÃ§irmek": 6128,
      "Ġcard": 6129,
      "lated": 6130,
      "Ġmekan": 6131,
      "Ġdeli": 6132,
      "Ġtidying": 6133,
      "aten": 6134,
      "Ġlose": 6135,
      "Ġtrips": 6136,
      "ĠoluÅŁturur": 6137,
      "Ġmesaf": 6138,
      "Ġdraining": 6139,
      "250": 6140,
      "ersiniz": 6141,
      "Ġtension": 6142,
      "ĠÃ¶nceliklendir": 6143,
      "Ġsatis": 6144,
      "Eat": 6145,
      "ndi": 6146,
      "Ġmist": 6147,
      "ĠkÄ±ya": 6148,
      "Ġshower": 6149,
      "evcut": 6150,
      "365": 6151,
      "ĠolmasÄ±nÄ±": 6152,
      "osing": 6153,
      "ĠTrack": 6154,
      "Ġalign": 6155,
      "erti": 6156,
      "lasik": 6157,
      "uge": 6158,
      "Ä±nca": 6159,
      "sÄ±ndan": 6160,
      "Ġmask": 6161,
      "Ġmaxim": 6162,
      "Ġcancel": 6163,
      "356": 6164,
      "Ġetmeniz": 6165,
      "ĠFrog": 6166,
      "Ġcompletion": 6167,
      "Ġelde": 6168,
      "Ġmissing": 6169,
      "Ġazaltmak": 6170,
      "Ġport": 6171,
      "Ġbildirim": 6172,
      "Ġconcre": 6173,
      "Ġfar": 6174,
      "Ġjargon": 6175,
      "Ġworkout": 6176,
      "ĠbÃ¶lge": 6177,
      "Ġclarify": 6178,
      "Ġaddress": 6179,
      "ĠuygulamalarÄ±": 6180,
      "Ġonunla": 6181,
      "Ġparaphrasing": 6182,
      "ygÄ±n": 6183,
      "Ġconcrete": 6184,
      "Ġfuel": 6185,
      "ĠmÃ¼": 6186,
      "ĠGÃ¼ven": 6187,
      "ĠÃ¶nerim": 6188,
      "Ġrehber": 6189,
      "ĠBun": 6190,
      "Ġhedefinize": 6191,
      "445": 6192,
      "ĠdÃ¼ÅŁÃ¼k": 6193,
      "Ġhaline": 6194,
      "endiÄŁiniz": 6195,
      "Ġindirip": 6196,
      "ĠeÅŁyalarÄ±": 6197,
      "pit": 6198,
      "Ġfour": 6199,
      "ĠgÃ¼ne": 6200,
      "Ġveren": 6201,
      "Ġhissini": 6202,
      "Ġbekle": 6203,
      "ability": 6204,
      "sc": 6205,
      "active": 6206,
      "ĠkaydÄ±n": 6207,
      "night": 6208,
      "Ġelinizde": 6209,
      "ĠMotivasyon": 6210,
      "reads": 6211,
      "ĠamaÃ§la": 6212,
      "Ġupdates": 6213,
      "Ã¼kemmel": 6214,
      "419": 6215,
      "kÃ¼r": 6216,
      "Ġbis": 6217,
      "Ġfla": 6218,
      "Ġbey": 6219,
      "Ġneut": 6220,
      "Ġistiyor": 6221,
      "Ġyeten": 6222,
      "Ġokuy": 6223,
      "ĠsÃ¼reyi": 6224,
      "ĠÅŁeyin": 6225,
      "Ġmessy": 6226,
      "larÄ±nÄ±za": 6227,
      "kes": 6228,
      "sen": 6229,
      "meyen": 6230,
      "158": 6231,
      "tadÄ±r": 6232,
      "ĠyÃ¼rÃ¼yÃ¼ÅŁÃ¼": 6233,
      "ĠolduÄŁuna": 6234,
      "Ġpriority": 6235,
      "Ġawake": 6236,
      "ĠÅŁudur": 6237,
      "Ġhissetmeye": 6238,
      "Ġinitially": 6239,
      "App": 6240,
      "Merhaba": 6241,
      "urance": 6242,
      "Ġdizi": 6243,
      "Ġhit": 6244,
      "Ġvs": 6245,
      "447": 6246,
      "Ġtelefonun": 6247,
      "phone": 6248,
      "Ġanlamaya": 6249,
      "Ġpiece": 6250,
      "ĠgÃ¶zlemleyin": 6251,
      "One": 6252,
      "Ġ$": 6253,
      "Ġclu": 6254,
      "melen": 6255,
      "Ġsomut": 6256,
      "ĠÃ¶ÄŁrenmenin": 6257,
      "ĠyÃ¼rÃ¼yÃ¼n": 6258,
      "reket": 6259,
      "larÄ±nÄ±zla": 6260,
      "Ġdeadline": 6261,
      "'li": 6262,
      "ĠyaygÄ±n": 6263,
      "ĠgÃ¶ÄŁ": 6264,
      "ĠÃ§alÄ±ÅŁarak": 6265,
      "000": 6266,
      "Ġmuhte": 6267,
      "Ġtespit": 6268,
      "Ġcontinu": 6269,
      "Ġtype": 6270,
      "-see": 6271,
      "-essenti": 6272,
      "Ġneutral": 6273,
      "How": 6274,
      "aÄŁ": 6275,
      "ĠSÄ±k": 6276,
      "Ġplanlamak": 6277,
      "Ġnotice": 6278,
      "Ġsaatlerinizi": 6279,
      "Ġexpand": 6280,
      "Ġyoldur": 6281,
      "ĠgerektiÄŁini": 6282,
      "Ġortadan": 6283,
      "ĠbahÃ§enize": 6284,
      "Ġistersiniz": 6285,
      "Ġkavram": 6286,
      "Ġlezzet": 6287,
      "Ġclub": 6288,
      "Durum": 6289,
      "Ġnut": 6290,
      "orm": 6291,
      "Ġinerti": 6292,
      "ĠkayÄ±": 6293,
      "Ġyata": 6294,
      "ĠayÄ±rdÄ±ÄŁÄ±nÄ±": 6295,
      "ĠGen": 6296,
      "ekkÃ¼r": 6297,
      "ĠdeÄŁerli": 6298,
      "cies": 6299,
      "Ġsaatlerini": 6300,
      "ĠkarÅŁÄ±laÅŁacak": 6301,
      "Ġdiscuss": 6302,
      "Ġbisik": 6303,
      "Ġyetenek": 6304,
      "Ġinertia": 6305,
      "can": 6306,
      "you": 6307,
      "radan": 6308,
      "oken": 6309,
      "Ġlun": 6310,
      "iliar": 6311,
      "Ġpassively": 6312,
      "Ġvalidate": 6313,
      "ĠuyandÄ±": 6314,
      "168": 6315,
      "ĠgerÃ§ekleÅŁ": 6316,
      "'yla": 6317,
      "ldÄ±": 6318,
      "suz": 6319,
      "anti": 6320,
      "Ġworkday": 6321,
      "Ġenerjinizi": 6322,
      "Ġglasses": 6323,
      "Ġchoosing": 6324,
      "Ġbat": 6325,
      "ĠbaÅŁlamanÄ±zÄ±": 6326,
      "Ġbulmaya": 6327,
      "ters": 6328,
      "178": 6329,
      "tedir": 6330,
      "Ġkuru": 6331,
      "ĠdÃ¼zenleyin": 6332,
      "Ġokum": 6333,
      "Ġbelirlemeniz": 6334,
      "Ġtarif": 6335,
      "ĠsÃ¶yleyin": 6336,
      "meni": 6337,
      "ĠeriÅŁ": 6338,
      "Ġhiking": 6339,
      "Ãĸner": 6340,
      "ayÄ±f": 6341,
      "-wake": 6342,
      "Ġbelirtilen": 6343,
      "440": 6344,
      "tesi": 6345,
      "ises": 6346,
      "ĠuyanÄ±p": 6347,
      "Ġtip": 6348,
      "Ġanswers": 6349,
      "Ġsuda": 6350,
      "Ġeklemek": 6351,
      "Ġlists": 6352,
      "Ġrewarding": 6353,
      "ĠyaptÄ±ÄŁÄ±nÄ±zÄ±": 6354,
      "Ġpopular": 6355,
      "Ġdisrupt": 6356,
      "ale": 6357,
      "Ġdahil": 6358,
      "Ġovercome": 6359,
      "unuzda": 6360,
      "Ġinteres": 6361,
      "ĠbÄ±rakmak": 6362,
      "Ġcompli": 6363,
      "ĠkiÅŁiyle": 6364,
      "Ġmakinesini": 6365,
      "Ġcombat": 6366,
      "Ġtuval": 6367,
      "Ġedil": 6368,
      "ĠayarlarÄ±nÄ±": 6369,
      "Ġizlemek": 6370,
      "Ġsearch": 6371,
      "ĠtÃ¼ket": 6372,
      "titude": 6373,
      "412": 6374,
      "He": 6375,
      "Ġple": 6376,
      "ĠBasit": 6377,
      "Ġstren": 6378,
      "ĠbaÅŁlama": 6379,
      "mall": 6380,
      "ĠÃ§ekmeye": 6381,
      "Ġkullanabilirsiniz": 6382,
      "Ġdeneyerek": 6383,
      "Ġinterrupt": 6384,
      "Ġdefteri": 6385,
      "ĠÃ¶dev": 6386,
      "nin": 6387,
      "Ġinte": 6388,
      "Ġdelay": 6389,
      "Ġevinizdeki": 6390,
      "ĠgeÃ§en": 6391,
      "ĠgÃ¶rÃ¼nÃ¼": 6392,
      "Ġsorunun": 6393,
      "ĠbÃ¼tÃ§enizi": 6394,
      "Ġelectronics": 6395,
      "ĠAccept": 6396,
      "gÃ¶r": 6397,
      "kÃ¼Ã§Ã¼k": 6398,
      "ĠÃ¼rÃ¼n": 6399,
      "tima": 6400,
      "Ã¶yle": 6401,
      "Ġreducing": 6402,
      "138": 6403,
      "350": 6404,
      "Ġconnected": 6405,
      "acaÄŁÄ±": 6406,
      "Ġgrand": 6407,
      "Ġclarification": 6408,
      "Ġjudging": 6409,
      "Ġcolor": 6410,
      "yoga": 6411,
      "ĠÃ¶neriye": 6412,
      "Ġvo": 6413,
      "270": 6414,
      "ĠfotoÄŁrafÄ±": 6415,
      "ĠsÄ±vÄ±": 6416,
      "Ġimproves": 6417,
      "Ġclothing": 6418,
      "Ġconsider": 6419,
      "ĠuÄŁraÅŁ": 6420,
      "Ne": 6421,
      "Ġsunu": 6422,
      "ĠyaÄŁ": 6423,
      "ĠbaÅŁlamalÄ±sÄ±nÄ±z": 6424,
      "ĠÃ¶ÄŁÃ¼n": 6425,
      "ĠiÅŁin": 6426,
      "ĠsaÄŁlayarak": 6427,
      "ĠdÃ¼zenlemek": 6428,
      "ĠÅŁeklinde": 6429,
      "ĠTelefonu": 6430,
      "Ġkoltu": 6431,
      "gency": 6432,
      "Ġklasik": 6433,
      "ĠgÃ¼nler": 6434,
      "Ġresmi": 6435,
      "Ã¼ÅŁÃ¼n": 6436,
      "ĠfotoÄŁrafÃ§Ä±": 6437,
      "lerinden": 6438,
      "Ġpoli": 6439,
      "Ġtamamlamak": 6440,
      "Ġmemorize": 6441,
      "Ġarrival": 6442,
      "Ġtarget": 6443,
      "Ġslip": 6444,
      "Ġconcentration": 6445,
      "Ġmovie": 6446,
      "syon": 6447,
      "Ġtou": 6448,
      "esine": 6449,
      "ĠGe": 6450,
      "Ä±rÄ±": 6451,
      "154": 6452,
      "260": 6453,
      "370": 6454,
      "ĠodaklanÄ±p": 6455,
      "Ġhareketi": 6456,
      "ĠtÃ¼rÃ¼nÃ¼": 6457,
      "Ġsayfa": 6458,
      "ĠuyanÄ±ÅŁ": 6459,
      "Ġinitiating": 6460,
      "Ġotob": 6461,
      "Ġnutri": 6462,
      "-c": 6463,
      "inÃ§": 6464,
      "usuna": 6465,
      "ĠhoÅŁ": 6466,
      "ĠÃ¶nÃ¼ne": 6467,
      "ĠbaÅŁarÄ±lar": 6468,
      "Ġpassive": 6469,
      "ĠiÃ§erik": 6470,
      "Ġpod": 6471,
      "Ġveril": 6472,
      "Ġtelefonla": 6473,
      "Ġbeklemek": 6474,
      "Ġfailure": 6475,
      "Ġcabinet": 6476,
      "ĠSur": 6477,
      "Ġbuy": 6478,
      "290": 6479,
      "Ġexplicit": 6480,
      "ĠhazÄ±rlamak": 6481,
      "Ġalanda": 6482,
      "ĠÄ±ÅŁÄ±ÄŁÄ±nÄ±": 6483,
      "Ġidea": 6484,
      "soli": 6485,
      "ĠanlaÅŁÄ±lÄ±r": 6486,
      "Ġnavigate": 6487,
      "Zaman": 6488,
      "tiÄŁinizi": 6489,
      "ĠkonularÄ±": 6490,
      "ĠatÄ±ÅŁ": 6491,
      "390": 6492,
      "ĠKendine": 6493,
      "Ġexperience": 6494,
      "Ġsatisf": 6495,
      "ranÄ±": 6496,
      "ounda": 6497,
      "Ġfounda": 6498,
      "ĠsoÄŁuk": 6499,
      "Ġspreads": 6500,
      "Ġyerlere": 6501,
      "Ġbitirme": 6502,
      "Ġduva": 6503,
      "Ġderinlik": 6504,
      "ĠÃ¶nlemek": 6505,
      "Ġmonths": 6506,
      "Ġacknowledge": 6507,
      "Ġmuhtemelen": 6508,
      "-light": 6509,
      "ceÄŁiniz": 6510,
      "Ġface": 6511,
      "ĠdeÄŁiÅŁtirmek": 6512,
      "ches": 6513,
      "198": 6514,
      "ĠfotoÄŁraflarÄ±": 6515,
      "ĠdoÄŁrul": 6516,
      "ĠkonuÅŁacak": 6517,
      "ĠdÃ¼ÅŁÃ¼nmek": 6518,
      "Ġolursa": 6519,
      "ĠgÃ¶revler": 6520,
      "leÅŁtirerek": 6521,
      "ĠkeÅŁf": 6522,
      "Ġshoes": 6523,
      "ĠSurround": 6524,
      "Cevap": 6525,
      "Not": 6526,
      "oz": 6527,
      "tile": 6528,
      "ĠsabahÄ±": 6529,
      "ileri": 6530,
      "Ġoption": 6531,
      "Ġsunar": 6532,
      "Ġtelefonunuzdaki": 6533,
      "ĠHafif": 6534,
      "Ġmerke": 6535,
      "Ġkaybol": 6536,
      "Ġwebsite": 6537,
      "Ġkonaklama": 6538,
      "Ġconcer": 6539,
      "Ġign": 6540,
      "Ã§Ä±k": 6541,
      "Ġolsa": 6542,
      "Ä±za": 6543,
      "ĠplanÄ±nÄ±": 6544,
      "Ã¼yÃ¼": 6545,
      "ĠKal": 6546,
      "Ġistek": 6547,
      "ĠkonuÅŁun": 6548,
      "leÅŁtiri": 6549,
      "Ġdinlemek": 6550,
      "ĠboÅŁluk": 6551,
      "isine": 6552,
      "ĠBatch": 6553,
      "diyor": 6554,
      "enty": 6555,
      "Ġsana": 6556,
      "Ġenerjiyi": 6557,
      "Ġsinir": 6558,
      "Ġtwenty": 6559,
      "Ġoverthinking": 6560,
      "Ġmadde": 6561,
      "Ġstreng": 6562,
      "mini": 6563,
      "pause": 6564,
      "Ġisim": 6565,
      "ĠbuluÅŁuyor": 6566,
      "ĠbaÅŁlatmak": 6567,
      "ored": 6568,
      "ĠbaÅŁlatabilirsiniz": 6569,
      "lights": 6570,
      "ĠolduÄŁunda": 6571,
      "Ġaktiviteleri": 6572,
      "Ġetkinlik": 6573,
      "Ġefficient": 6574,
      "manÄ±": 6575,
      "tÄ±ktan": 6576,
      "Ġour": 6577,
      "late": 6578,
      "ĠÃ¶nem": 6579,
      "Ġonay": 6580,
      "manÄ±zdÄ±r": 6581,
      "Ġdurmak": 6582,
      "ĠSabahÄ±n": 6583,
      "Ġbigger": 6584,
      "Ġfiyat": 6585,
      "Ġsani": 6586,
      "ĠÃ¼st": 6587,
      "ĠbaskÄ±": 6588,
      "Ġduvara": 6589,
      "iling": 6590,
      "Ġekip": 6591,
      "lies": 6592,
      "Ã¼nya": 6593,
      "ĠÄ°ste": 6594,
      "ĠyazÄ±p": 6595,
      "Ġbol": 6596,
      "Ġyerinde": 6597,
      "ĠaÃ§mak": 6598,
      "Ġspaces": 6599,
      "Ġsenary": 6600,
      "ĠÃ¶zellik": 6601,
      "Ġchallenges": 6602,
      "pportun": 6603,
      "-essential": 6604,
      "Ġsul": 6605,
      "uses": 6606,
      "Ġopportun": 6607,
      "Ġdish": 6608,
      "dition": 6609,
      "ĠettiÄŁiniz": 6610,
      "344": 6611,
      "Ġduruma": 6612,
      "Ġkurt": 6613,
      "Ġvisually": 6614,
      "osity": 6615,
      "Ġparal": 6616,
      "fety": 6617,
      "Ġinsurance": 6618,
      "Ġlunch": 6619,
      "kÄ±": 6620,
      "related": 6621,
      "urn": 6622,
      "ĠLÃ¼tfen": 6623,
      "Ġdedicating": 6624,
      "ĠLearn": 6625,
      "Ġkalitesini": 6626,
      "Ġkaliteli": 6627,
      "Ġcomputers": 6628,
      "Ġkilit": 6629,
      "ĠgÃ¶rÃ¼nÃ¼yor": 6630,
      "insel": 6631,
      "ceed": 6632,
      "mat": 6633,
      "start": 6634,
      "244": 6635,
      "Ġsuy": 6636,
      "Ġmindset": 6637,
      "ĠÄ±s": 6638,
      "Ġliving": 6639,
      "Ġassig": 6640,
      "Ġsnacks": 6641,
      "Ġadedi": 6642,
      "Pair": 6643,
      "Ġfits": 6644,
      "lÄ±yorum": 6645,
      "Ġsilent": 6646,
      "usuz": 6647,
      "ading": 6648,
      "ĠAyda": 6649,
      "Ġkeyi": 6650,
      "Ġtelefonunu": 6651,
      "ĠsevdiÄŁiniz": 6652,
      "Ġgeneral": 6653,
      "Ġfacts": 6654,
      "Ġgrabbing": 6655,
      "GÃ¼nlÃ¼k": 6656,
      "Ġvoice": 6657,
      "ctions": 6658,
      "ĠDef": 6659,
      "Ġbeli": 6660,
      "Ġsoli": 6661,
      "ĠbaÅŁta": 6662,
      "Ġdurun": 6663,
      "ĠsayÄ±sÄ±nÄ±": 6664,
      "Ġbilgisi": 6665,
      "Ġgratitude": 6666,
      "ĠÃ§imen": 6667,
      "tiÅŁime": 6668,
      "Ġcuriosity": 6669,
      "ĠHayat": 6670,
      "Ġintent": 6671,
      "Ġhiz": 6672,
      "Ġsites": 6673,
      "Ġrepla": 6674,
      "Ġdinner": 6675,
      "yorsan": 6676,
      "ĠuygulamayÄ±": 6677,
      "Ġsanat": 6678,
      "ĠvÃ¼cut": 6679,
      "undry": 6680,
      "Ġhavada": 6681,
      "ĠkeÅŁfed": 6682,
      "oÄŁu": 6683,
      "Ġstays": 6684,
      "lenme": 6685,
      "ĠkaygÄ±": 6686,
      "ĠhaftanÄ±n": 6687,
      "Ã¶zellikle": 6688,
      "Ġphotos": 6689,
      "ĠhazÄ±rlan": 6690,
      "ĠuzaklaÅŁ": 6691,
      "Ġtavsiy": 6692,
      "dikten": 6693,
      "Google": 6694,
      "Ġkeyif": 6695,
      "dilik": 6696,
      "oot": 6697,
      "Ġconve": 6698,
      "ories": 6699,
      "urun": 6700,
      "Ġwould": 6701,
      "Ġtopra": 6702,
      "ĠfotoÄŁrafÄ±nÄ±zÄ±": 6703,
      "Ġlistesi": 6704,
      "ĠsorunlarÄ±nÄ±": 6705,
      "Ġdinleyin": 6706,
      "Ġconnectivity": 6707,
      "Ġinterruption": 6708,
      "Ġinceleyerek": 6709,
      "ĠgÃ¼Ã§lendirmek": 6710,
      "Ġfrustration": 6711,
      "sApp": 6712,
      "ĠKah": 6713,
      "Ġlaundry": 6714,
      "Ġmesajlar": 6715,
      "Ġrelated": 6716,
      "ĠkurallarÄ±nÄ±": 6717,
      "Ġuyumlu": 6718,
      "ĠgÃ¼nÃ¼nÃ¼zÃ¼": 6719,
      "ĠTVs": 6720,
      "Ġstresi": 6721,
      "lilik": 6722,
      "Ġversa": 6723,
      "onu": 6724,
      "yseniz": 6725,
      "lav": 6726,
      "ham": 6727,
      "ecause": 6728,
      "eynman": 6729,
      "Ġswap": 6730,
      "ĠsÄ±kÄ±cÄ±": 6731,
      "ĠpaylaÅŁmak": 6732,
      "Ġdepends": 6733,
      "ĠsaÄŁlayacaktÄ±r": 6734,
      "ĠoluÅŁtura": 6735,
      "Ġsituation": 6736,
      "tin": 6737,
      "Ġevi": 6738,
      "Ġverme": 6739,
      "ĠBundle": 6740,
      "ĠkitaplarÄ±": 6741,
      "Ġhedefle": 6742,
      "ÃĸrneÄŁin": 6743,
      "mam": 6744,
      "Ġstrugg": 6745,
      "ĠgÃ¼ncel": 6746,
      "ĠMevcut": 6747,
      "Ġolmadan": 6748,
      "lamanÄ±z": 6749,
      "Ġboo": 6750,
      "Ġyerleri": 6751,
      "ĠyÃ¼zey": 6752,
      "ĠFin": 6753,
      "Ġloop": 6754,
      "ĠBaÅŁka": 6755,
      "Ġhalf": 6756,
      "ĠbaÅŁarÄ±yÄ±": 6757,
      "Ġpile": 6758,
      "Ġtotaling": 6759,
      "Ġaccusations": 6760,
      "Ġalerts": 6761,
      "Ġfoundation": 6762,
      "isin": 6763,
      "urt": 6764,
      "Ġgaps": 6765,
      "ĠmÃ¼kemmel": 6766,
      "Ġdiz": 6767,
      "Ġsays": 6768,
      "bilirim": 6769,
      "ĠiyileÅŁtirmek": 6770,
      "Ġdakikadan": 6771,
      "Ġdurumun": 6772,
      "Ġsanki": 6773,
      "Ġederim": 6774,
      "Ġotomatik": 6775,
      "Ġmaruz": 6776,
      "418": 6777,
      "Pause": 6778,
      "around": 6779,
      "ĠTreat": 6780,
      "stac": 6781,
      "Ġsafety": 6782,
      "imle": 6783,
      "ĠUyan": 6784,
      "298": 6785,
      "luÄŁu": 6786,
      "Ġknowledge": 6787,
      "ĠdÄ±ÅŁarÄ±da": 6788,
      "Ġbenz": 6789,
      "Ġdeneyimi": 6790,
      "Ġpodcast": 6791,
      "ĠCÃ¼mle": 6792,
      "Ġchar": 6793,
      "ĠÃľ": 6794,
      "Ġalso": 6795,
      "Ġbelirtir": 6796,
      "ĠiÅŁinizi": 6797,
      "ĠekranÄ±": 6798,
      "Ġhappiness": 6799,
      "Ġobstac": 6800,
      "Ġparkta": 6801,
      "Ġyolculu": 6802,
      "Ġsustain": 6803,
      "-day": 6804,
      "ero": 6805,
      "Ġtenc": 6806,
      "Ġequ": 6807,
      "ĠMain": 6808,
      "Ġneyi": 6809,
      "ĠÃ§alÄ±ÅŁan": 6810,
      "Ġdurumunuzu": 6811,
      "mesine": 6812,
      "Ġbitkileri": 6813,
      "Ġlabels": 6814,
      "ĠkÄ±yafet": 6815,
      "ĠMaintain": 6816,
      "In": 6817,
      "Ġaff": 6818,
      "Ġprom": 6819,
      "rame": 6820,
      "telefon": 6821,
      "ĠYÃ¼z": 6822,
      "Ġelimin": 6823,
      "ÄŁÄ±nÄ±n": 6824,
      "Ġrot": 6825,
      "atory": 6826,
      "Ġyapmaktan": 6827,
      "Ġgerekebilir": 6828,
      "ĠdÃ¼ÅŁÃ¼nerek": 6829,
      "Ġsuppor": 6830,
      "Ġseems": 6831,
      "Ġboosts": 6832,
      "'d": 6833,
      "Ġkod": 6834,
      "Ġik": 6835,
      "ortant": 6836,
      "Ġnega": 6837,
      "Ä±nÄ±zdan": 6838,
      "Ġdiler": 6839,
      "ĠalÄ±r": 6840,
      "uyg": 6841,
      "Ġevinizin": 6842,
      "ĠgÃ¶rÃ¼": 6843,
      "ĠistediÄŁini": 6844,
      "Ġdiscard": 6845,
      "ĠbaÄŁlam": 6846,
      "ĠkazandÄ±r": 6847,
      "ĠSoru": 6848,
      "ĠaÄŁÄ±r": 6849,
      "ĠeÄŁlenceli": 6850,
      ")Ċ": 6851,
      "ĠEt": 6852,
      "Ġice": 6853,
      "ĠSecond": 6854,
      "ĠbaÅŁlayacak": 6855,
      "258": 6856,
      "368": 6857,
      "Ġevin": 6858,
      "008": 6859,
      "Ġkurul": 6860,
      "Ġdinleme": 6861,
      "Ġexercises": 6862,
      "Ġsamimiyet": 6863,
      "ĠeÄŁitimi": 6864,
      "Ġreplacing": 6865,
      "ile": 6866,
      "rating": 6867,
      "Ġnes": 6868,
      "Ġanswering": 6869,
      "ĠaralÄ±k": 6870,
      "ĠalÄ±ÅŁtÄ±r": 6871,
      "ĠsÃ¼resi": 6872,
      "Ġdiving": 6873,
      "Ġegzersizleri": 6874,
      "ĠnumarasÄ±nÄ±": 6875,
      "Ġuygulayarak": 6876,
      "Ġrisk": 6877,
      "Ġemergency": 6878,
      "411": 6879,
      "Ha": 6880,
      "kendi": 6881,
      "Ġrely": 6882,
      "Ġyaprak": 6883,
      "**'": 6884,
      "Ġtaze": 6885,
      "lendi": 6886,
      "ĠhissettiÄŁiniz": 6887,
      "Ġusual": 6888,
      "Ġobs": 6889,
      "ĠBahÃ§": 6890,
      "Ġflash": 6891,
      "Ġspreadsheet": 6892,
      "Ġversatile": 6893,
      "438": 6894,
      "Ġpan": 6895,
      "Ġstack": 6896,
      "ĠiÃ§inden": 6897,
      "ndeki": 6898,
      "Ġrental": 6899,
      "Ġhorm": 6900,
      "009": 6901,
      "Ġtrivi": 6902,
      "ĠkaranlÄ±k": 6903,
      "ĠseÃ§mekten": 6904,
      "Ġstratej": 6905,
      "ĠfÄ±rsat": 6906,
      "Ġmistakes": 6907,
      "Ġbisiklet": 6908,
      "Ãĸneri": 6909,
      "Ġeliminating": 6910,
      "rep": 6911,
      "Ġnotlar": 6912,
      "Ġflo": 6913,
      "ours": 6914,
      "Ġodaklanmaya": 6915,
      "Ġbiriyle": 6916,
      "ĠgÃ¶ndererek": 6917,
      "ĠsonuÃ§lar": 6918,
      "Ġuyuya": 6919,
      "ĠtarafÄ±ndan": 6920,
      "Ġassign": 6921,
      "ĠtaÅŁÄ±": 6922,
      "Ġbardak": 6923,
      "Ġmerkez": 6924,
      "sue": 6925,
      "ĠYe": 6926,
      "Ġstead": 6927,
      "Ġland": 6928,
      "Ġyolda": 6929,
      "ĠyÃ¶ntemle": 6930,
      "Ġhissetmek": 6931,
      "Ġnedeniyle": 6932,
      "Ġmutlu": 6933,
      "Ġkick": 6934,
      "Ġyiye": 6935,
      "ugh": 6936,
      "Ġmen": 6937,
      "ĠNot": 6938,
      "app": 6939,
      "ĠaldÄ±": 6940,
      "Ġ**\"": 6941,
      "164": 6942,
      "194": 6943,
      "Ġrules": 6944,
      "Ġkurgu": 6945,
      "ĠalanÄ±nÄ±zÄ±": 6946,
      "ĠsÄ±kÄ±l": 6947,
      "Ġnavigation": 6948,
      "ĠkÄ±smÄ±nÄ±": 6949,
      "Ġconfusion": 6950,
      "mamak": 6951,
      "ĠzayÄ±f": 6952,
      "ĠiletiÅŁime": 6953,
      "Ġbuying": 6954,
      "Ġdownload": 6955,
      "ĠgÃ¶rmek": 6956,
      "Ġdinle": 6957,
      "Ġteknikleri": 6958,
      "ĠkarÄ±ÅŁtÄ±r": 6959,
      "'yi": 6960,
      "-a": 6961,
      "aling": 6962,
      "hest": 6963,
      "Ġdevice": 6964,
      "geÃ§": 6965,
      "Ġistiyorsunuz": 6966,
      "Ġboy": 6967,
      "lÄ±kla": 6968,
      "Ġokuyacak": 6969,
      "Ġdistin": 6970,
      "Ġdinlendir": 6971,
      "ĠkalÄ±p": 6972,
      "Ġidealdir": 6973,
      "Ġeylem": 6974,
      "ĠotobÃ¼s": 6975,
      "Ġtrivial": 6976,
      "Ġsm": 6977,
      "teki": 6978,
      "sak": 6979,
      "ĠBecause": 6980,
      "acaktÄ±r": 6981,
      "lamalar": 6982,
      "tirir": 6983,
      "loc": 6984,
      "174": 6985,
      "005": 6986,
      "Ġuzman": 6987,
      "ĠmesajÄ±": 6988,
      "Ġhafiflet": 6989,
      "Ġyani": 6990,
      "ĠnoktasÄ±nÄ±": 6991,
      "coming": 6992,
      "Ġnegative": 6993,
      "Focus": 6994,
      "ĠadÄ±mdan": 6995,
      "Ġquanti": 6996,
      "Ġdos": 6997,
      "Ġaloud": 6998,
      "378": 6999,
      "ĠInvest": 7000,
      "Ġdikk": 7001,
      "ĠuyanÄ±k": 7002,
      "Ġmetre": 7003,
      "landÄ±rma": 7004,
      "Ġperfectly": 7005,
      "Ġstronger": 7006,
      "Ġseferinde": 7007,
      "Ġstrengt": 7008,
      "Ġdistinct": 7009,
      "urg": 7010,
      "Ġtips": 7011,
      "Ã¼zik": 7012,
      "Ġdolu": 7013,
      "ĠkalmayÄ±": 7014,
      "ĠsonrasÄ±": 7015,
      "Ġsuyla": 7016,
      "ĠHerhangi": 7017,
      "Ġpace": 7018,
      "ĠsabahÄ±n": 7019,
      "Ġdeepen": 7020,
      "ĠyÃ¶nel": 7021,
      "Ġbakmak": 7022,
      "Ġpleas": 7023,
      "ĠFinally": 7024,
      "/no": 7025,
      "Ġpsik": 7026,
      "ĠDuolingo": 7027,
      "Ġyast": 7028,
      "Ġsprin": 7029,
      "cks": 7030,
      "007": 7031,
      "Ġlistesini": 7032,
      "ĠhazÄ±rla": 7033,
      "Ġvisa": 7034,
      "bilmek": 7035,
      "ĠkalkÄ±n": 7036,
      "Ġdecisions": 7037,
      "diÄŁinde": 7038,
      "Ġdergi": 7039,
      "ĠbirleÅŁecek": 7040,
      "Ġassigning": 7041,
      "iyi": 7042,
      "pect": 7043,
      "ĠEÄŁ": 7044,
      "ĠTÃ¼m": 7045,
      "ĠÄ°liÅŁ": 7046,
      "Ġyapman": 7047,
      "006": 7048,
      "ĠhatÄ±rla": 7049,
      "ĠZorluk": 7050,
      "pass": 7051,
      "Ã¼lebilir": 7052,
      "Ġzero": 7053,
      "amera": 7054,
      "ĠzorlandÄ±": 7055,
      "ource": 7056,
      "Ġdilde": 7057,
      "001": 7058,
      "003": 7059,
      "Ġdenemek": 7060,
      "Ġplanda": 7061,
      "abilecek": 7062,
      "Ġlives": 7063,
      "ĠtasarÄ±m": 7064,
      "Ġstraight": 7065,
      "Ġmaximize": 7066,
      "ĠDefine": 7067,
      "ices": 7068,
      "kal": 7069,
      "of": 7070,
      "lek": 7071,
      "izden": 7072,
      "ĠÅŁÄ±k": 7073,
      "Ġalmaya": 7074,
      "ĠkiÅŁinin": 7075,
      "ĠyÃ¼rÃ¼mek": 7076,
      "Ġpresence": 7077,
      "Ġincreas": 7078,
      "ĠgÃ¶rÃ¼ÅŁecek": 7079,
      "Ġwashing": 7080,
      "Ġbeklenti": 7081,
      "ĠaltÄ±na": 7082,
      "-co": 7083,
      "tiÄŁin": 7084,
      "ysis": 7085,
      "abilirsin": 7086,
      "ĠbaÅŁÄ±nÄ±zÄ±": 7087,
      "ĠFeynman": 7088,
      "Ġimpact": 7089,
      "002": 7090,
      "004": 7091,
      "Ġcluttering": 7092,
      "asÄ±nda": 7093,
      "Ġearli": 7094,
      "Ġmetab": 7095,
      "Ġmutfak": 7096,
      "ĠsÄ±caklÄ±ÄŁÄ±na": 7097,
      "480": 7098,
      "Break": 7099,
      "BÃ¼yÃ¼k": 7100,
      "lerinizden": 7101,
      "Ġyazma": 7102,
      "ĠÃĸnemli": 7103,
      "nasÄ±l": 7104,
      "erseniz": 7105,
      "ĠsorularÄ±": 7106,
      "ĠfotoÄŁraflar": 7107,
      "duÄŁu": 7108,
      "Ġride": 7109,
      "Ġoturmak": 7110,
      "Ġkonsept": 7111,
      "ĠkayÄ±da": 7112,
      "Eisenhower": 7113,
      "ag": 7114,
      "kitap": 7115,
      "sam": 7116,
      "Ġzamanla": 7117,
      "Ġyete": 7118,
      "238": 7119,
      "358": 7120,
      "Ġhedeflerinize": 7121,
      "Ġrahatlat": 7122,
      "Ġreviewing": 7123,
      "Ġsistemi": 7124,
      "ĠbelirtilmiÅŁtir": 7125,
      "Ġopportunities": 7126,
      "Ġstrengthen": 7127,
      "'la": 7128,
      "Her": 7129,
      "bah": 7130,
      "keep": 7131,
      "Ġsharp": 7132,
      "Ġzorunlu": 7133,
      "imdilik": 7134,
      "278": 7135,
      "ersiz": 7136,
      "Ġimkan": 7137,
      "andÄ±": 7138,
      "Ġyoldan": 7139,
      "Ġways": 7140,
      "ĠyanÄ±nda": 7141,
      "ĠrahatÃ§a": 7142,
      "Ġharc": 7143,
      "ĠkaÄŁÄ±da": 7144,
      "Ġtyp": 7145,
      "Ġcheap": 7146,
      "baÅŁ": 7147,
      "Ã¼me": 7148,
      "Ġgev": 7149,
      "Ġnedir": 7150,
      "Ġkonuyla": 7151,
      "Ġdurdur": 7152,
      "Ġkurmaya": 7153,
      "ĠyÃ¶nlendir": 7154,
      "ĠsÄ±caklÄ±ÄŁÄ±": 7155,
      "Ġcloser": 7156,
      "ĠgÃ¶stermek": 7157,
      "Ġcontent": 7158,
      "Ġwebsites": 7159,
      "Ġquantity": 7160,
      "Ġplay": 7161,
      "Ġmark": 7162,
      "Ġinitiate": 7163,
      "268": 7164,
      "Ġarama": 7165,
      "erilen": 7166,
      "Ġfinished": 7167,
      "ĠkalkÄ±ÅŁ": 7168,
      "Ġmusunuz": 7169,
      "Ġblame": 7170,
      "why": 7171,
      "ĠsoÄŁ": 7172,
      "ĠHem": 7173,
      "hind": 7174,
      "Ġtema": 7175,
      "ĠalmanÄ±z": 7176,
      "Ġwalks": 7177,
      "ĠÃ§ekip": 7178,
      "Ġsepet": 7179,
      "ĠÃ§Ä±karÄ±n": 7180,
      "Ġaccumulating": 7181,
      "Ġibarettir": 7182,
      "Ġpsikolo": 7183,
      "ox": 7184,
      "tri": 7185,
      "Ġ%": 7186,
      "ince": 7187,
      "ani": 7188,
      "enden": 7189,
      "ĠSmall": 7190,
      "ĠÃ¶neriyle": 7191,
      "Ġbegins": 7192,
      "ĠÃ§ektirecek": 7193,
      "ĠFirst": 7194,
      "444": 7195,
      "Ġkeys": 7196,
      "Ġrefer": 7197,
      "ĠaydÄ±nlÄ±k": 7198,
      "ĠMesajÄ±nÄ±zÄ±": 7199,
      "Ġreminders": 7200,
      "Ġphrases": 7201,
      "Ġview": 7202,
      "Ġtakvim": 7203,
      "432": 7204,
      "Schedule": 7205,
      "giler": 7206,
      "incisi": 7207,
      "anÄ±ÅŁ": 7208,
      "ene": 7209,
      "Ġoyun": 7210,
      "Ġbirer": 7211,
      "Ġbehind": 7212,
      "yorsa": 7213,
      "Ġ(\"": 7214,
      "Ġtetik": 7215,
      "Ġitself": 7216,
      "Ġpath": 7217,
      "malÄ±sÄ±n": 7218,
      "Ġhissetme": 7219,
      "Ġempty": 7220,
      "Ġstimulating": 7221,
      "hol": 7222,
      "alling": 7223,
      "Ġhelping": 7224,
      "Ġmey": 7225,
      "ical": 7226,
      "lerinin": 7227,
      "ĠcÃ¼mleleri": 7228,
      "ĠKeli": 7229,
      "398": 7230,
      "Ġnews": 7231,
      "Ġdurumunuz": 7232,
      "ĠgÃ¶rd": 7233,
      "ĠkarÅŁÄ±lÄ±klÄ±": 7234,
      "Ġkapak": 7235,
      "Ġknowing": 7236,
      "larÄ±nÄ±zda": 7237,
      "Ġbilgilerle": 7238,
      "Ġhands": 7239,
      "Ġeser": 7240,
      "ĠgeliÅŁtirme": 7241,
      "Ġairports": 7242,
      "Ġchoice": 7243,
      "Ġoccur": 7244,
      "mission": 7245,
      "Ġsend": 7246,
      "Ġskip": 7247,
      "Ġbana": 7248,
      "Ã¶ÄŁ": 7249,
      "ĠOffer": 7250,
      "Ġsaving": 7251,
      "mediÄŁiniz": 7252,
      "Ġunf": 7253,
      "Ġlosing": 7254,
      "Ġfinal": 7255,
      "Ġvalues": 7256,
      "ĠgÃ¶rÃ¼ÅŁme": 7257,
      "tÄ±rabilirsiniz": 7258,
      "Ġrelationships": 7259,
      "ĠseÃ§eneÄŁi": 7260,
      "Ġmetabol": 7261,
      "rt": 7262,
      "the": 7263,
      "Ġcrow": 7264,
      "Ġbacak": 7265,
      "umu": 7266,
      "Ġhaval": 7267,
      "Ġyapabilece": 7268,
      "Ġyazmaya": 7269,
      "ĠseÃ§ebilirsiniz": 7270,
      "ĠdeÄŁilse": 7271,
      "ĠartÄ±rmak": 7272,
      "Ġmerak": 7273,
      "Ġpatient": 7274,
      "ĠnazikÃ§e": 7275,
      "Ġparalysis": 7276,
      "600": 7277,
      "¸ı": 7278,
      "ï¸ı": 7279,
      "Ġcost": 7280,
      "ĠayÄ±rdÄ±r": 7281,
      "ocuk": 7282,
      "Ġcannot": 7283,
      "338": 7284,
      "ĠÃ§alÄ±ÅŁtÄ±": 7285,
      "Ġtekni": 7286,
      "ĠayÄ±rÄ±p": 7287,
      "ĠkontrolÃ¼": 7288,
      "ĠgeliÅŁtirmek": 7289,
      "ĠadÄ±ma": 7290,
      "ĠkarÄ±ÅŁ": 7291,
      "IM": 7292,
      "Ġtutu": 7293,
      "Ġcondi": 7294,
      "oms": 7295,
      "Ġtrains": 7296,
      "ources": 7297,
      "Ġbitirmek": 7298,
      "road": 7299,
      "roup": 7300,
      "malÄ±dÄ±r": 7301,
      "ĠyapÄ±la": 7302,
      "Ġsabr": 7303,
      "ĠHaftalÄ±k": 7304,
      "Ġuygulayabilirsiniz": 7305,
      "Ġfactors": 7306,
      "ĠduygularÄ±nÄ±zÄ±": 7307,
      "Ġexplicitly": 7308,
      "Ġekipman": 7309,
      "Ġsteady": 7310,
      "Ġearlier": 7311,
      "jik": 7312,
      "Ġcup": 7313,
      "ĠiÃ§ip": 7314,
      "Ġthrow": 7315,
      "Ġresult": 7316,
      "Ġsong": 7317,
      "ĠgÃ¼l": 7318,
      "Ġsupporting": 7319,
      "Ġsizinle": 7320,
      "ĠyanÄ±na": 7321,
      "Ġpassport": 7322,
      "Ġmodel": 7323,
      "ĠanlaÅŁÄ±l": 7324,
      "Ġconsci": 7325,
      "500": 7326,
      "nable": 7327,
      "tra": 7328,
      "tmak": 7329,
      "Ġovernight": 7330,
      "Ġexplo": 7331,
      "Ġpost": 7332,
      "ĠÅŁeyden": 7333,
      "Ġdeniz": 7334,
      "ĠmesajlaÅŁma": 7335,
      "Ġservice": 7336,
      "ĠkarÄ±ÅŁÄ±k": 7337,
      "Ġprovide": 7338,
      "Ġdeleg": 7339,
      "Ġsuppresses": 7340,
      "Ġflashcard": 7341,
      "422": 7342,
      "bugÃ¼n": 7343,
      "lÄ±n": 7344,
      "minizi": 7345,
      "pam": 7346,
      "Ġagg": 7347,
      "ÅŁu": 7348,
      "ĠThat": 7349,
      "Ã¶n": 7350,
      "Ä°kinci": 7351,
      "Ġreserv": 7352,
      "ĠanlamÄ±": 7353,
      "ĠatÄ±p": 7354,
      "Ġargu": 7355,
      "ĠiyileÅŁ": 7356,
      "Ġodada": 7357,
      "Ġdiet": 7358,
      "Ġstresli": 7359,
      "Ġolmaktan": 7360,
      "Ä±lacak": 7361,
      "aging": 7362,
      "ski": 7363,
      "Ġwere": 7364,
      "ĠlÃ¼tfen": 7365,
      "Ġartar": 7366,
      "Ġnoon": 7367,
      "ĠiÅŁini": 7368,
      "ĠduruÅŁ": 7369,
      "ĠkurmayÄ±": 7370,
      "Ġsupplies": 7371,
      "ĠpratiÄŁi": 7372,
      "Ġwinnable": 7373,
      "ĠnoktalarÄ±": 7374,
      "Ġminimal": 7375,
      "Ġlocations": 7376,
      "dÄ±ktan": 7377,
      "Ġdikkate": 7378,
      "ctive": 7379,
      "ĠSlow": 7380,
      "akt": 7381,
      "ĠbaÅŁlamaya": 7382,
      "ected": 7383,
      "Ġtim": 7384,
      "Ġiyidir": 7385,
      "Ġtutmaya": 7386,
      "Ġkullanmadan": 7387,
      "cover": 7388,
      "Ġpermission": 7389,
      "ĠyapÄ±sÄ±": 7390,
      "ĠWhatsApp": 7391,
      "Ġsunabilirim": 7392,
      "Ġsoruda": 7393,
      "ĠÃ¶ÄŁrend": 7394,
      "Pra": 7395,
      "ðŁ": 7396,
      "ndÄ±r": 7397,
      "ried": 7398,
      "lerek": 7399,
      "ĠkayÄ±tlarda": 7400,
      "ĠadÄ±mlara": 7401,
      ":**Ċ": 7402,
      "lamasÄ±": 7403,
      "ĠbaÄŁlantÄ±": 7404,
      "Ġsurround": 7405,
      "ĠyÃ¼kÃ¼": 7406,
      "Ġmuscle": 7407,
      "Ġregarding": 7408,
      "melidir": 7409,
      "Ġtatmin": 7410,
      "Ġtemptation": 7411,
      "Ġimpuls": 7412,
      "ivi": 7413,
      "Ġtep": 7414,
      "ĠYa": 7415,
      "Ġfue": 7416,
      "Ġfalling": 7417,
      "Ġbeden": 7418,
      "ĠGroup": 7419,
      "ĠÃ¶nerebilirim": 7420,
      "Ġgetirme": 7421,
      "Ġpausing": 7422,
      "Ä±narak": 7423,
      "ĠakÄ±cÄ±": 7424,
      "ĠgÃ¼venilir": 7425,
      "Ġkapatmak": 7426,
      "Ġkorun": 7427,
      "Ġcurrently": 7428,
      ".**Ċ": 7429,
      "duktan": 7430,
      "Ġconvey": 7431,
      "Ġfueled": 7432,
      "EÄŁer": 7433,
      "Keep": 7434,
      "Ġpromo": 7435,
      "Ġinf": 7436,
      "Ġinsp": 7437,
      "liyor": 7438,
      "orth": 7439,
      "ĠMay": 7440,
      "ĠyapÄ±ÅŁtÄ±r": 7441,
      "diÄŁinizi": 7442,
      "ganize": 7443,
      "Ġtutma": 7444,
      "Ġolursunuz": 7445,
      "Ġhedeflerin": 7446,
      "ebilirsin": 7447,
      "Ġeski": 7448,
      "ĠsÄ±rayla": 7449,
      "Ġhayata": 7450,
      "Ġaccusatory": 7451,
      "Ġvalued": 7452,
      "An": 7453,
      "dle": 7454,
      "ture": 7455,
      "vis": 7456,
      "raya": 7457,
      "Ġgrup": 7458,
      "Ġdrop": 7459,
      "ĠPhotoshop": 7460,
      "Ġdopam": 7461,
      "ator": 7462,
      "Ġolay": 7463,
      "Ġolabilirsiniz": 7464,
      "care": 7465,
      "ĠÃ§ekme": 7466,
      "Ġscheduled": 7467,
      "ĠyÃ¶ntemler": 7468,
      "Ġtamamlan": 7469,
      "rans": 7470,
      "berate": 7471,
      "ĠnoktasÄ±dÄ±r": 7472,
      "Ġrequirements": 7473,
      "ilet": 7474,
      "ĠTell": 7475,
      "Ġsok": 7476,
      "Ġforces": 7477,
      "Ġdayan": 7478,
      "Ġyear": 7479,
      "Ġalloc": 7480,
      "cade": 7481,
      "emiz": 7482,
      "ÄŁinize": 7483,
      "tikten": 7484,
      "ĠSizinle": 7485,
      "ĠkaynaÄŁÄ±nÄ±": 7486,
      "Ġseasons": 7487,
      "Ġadapt": 7488,
      "-steps": 7489,
      "Ġrecei": 7490,
      "Ġopinion": 7491,
      "Ġdeliberate": 7492,
      "cha": 7493,
      "ket": 7494,
      "mb": 7495,
      "reg": 7496,
      "ĠDerin": 7497,
      "Ġever": 7498,
      "lÄ±r": 7499,
      "Ġtelef": 7500,
      "Ġkalab": 7501,
      "Ġworried": 7502,
      "Ġbreakfa": 7503,
      "ĠdÃ¼zeniyle": 7504,
      "Ġokuyarak": 7505,
      "Ġevden": 7506,
      "Ġtemelini": 7507,
      "Ġlearns": 7508,
      "ĠyatÄ±n": 7509,
      "Ġeffortless": 7510,
      "ĠyÃ¼rÃ¼ye": 7511,
      "ĠboÅŁal": 7512,
      "Ġtranslation": 7513,
      "ĠkoÅŁu": 7514,
      "ĠkeÅŁfetmek": 7515,
      "'m": 7516,
      "Ġsmo": 7517,
      "Ġkim": 7518,
      "daha": 7519,
      "Ġhuge": 7520,
      "ĠÃ§im": 7521,
      "Ġmade": 7522,
      "ĠÃ§alÄ±ÅŁÄ±r": 7523,
      "ĠÃ§Ä±kmak": 7524,
      "Ġolanak": 7525,
      "Ġortaya": 7526,
      "Ġmissed": 7527,
      "Ġalabilirsiniz": 7528,
      "Ġdetail": 7529,
      "Ġreviews": 7530,
      "Ġsucceed": 7531,
      "ĠbÃ¼tÃ§e": 7532,
      "Ġchoices": 7533,
      "Ġquitting": 7534,
      "Ġpreparing": 7535,
      "ĠHaftada": 7536,
      "No": 7537,
      "ghest": 7538,
      "ĠverdiÄŁiniz": 7539,
      "-break": 7540,
      "Ġmakine": 7541,
      "ĠWa": 7542,
      "Ġstuff": 7543,
      "ĠkalkmayÄ±": 7544,
      "bette": 7545,
      "Ã¼lt": 7546,
      "shoot": 7547,
      "Ġcountert": 7548,
      "ĠaraÃ§lar": 7549,
      "ĠkurallarÄ±": 7550,
      "Ġcircle": 7551,
      "yapÄ±": 7552,
      "ĠiliÅŁki": 7553,
      "Ġkaydede": 7554,
      "Ġcontinuing": 7555,
      "ditionally": 7556,
      "Ġobstacles": 7557,
      "Ġbreakfast": 7558,
      "-habit": 7559,
      "Ġkafe": 7560,
      "Ġmoder": 7561,
      "amik": 7562,
      "Ġwall": 7563,
      "ĠÃ¶zelliÄŁini": 7564,
      "ĠteÅŁekkÃ¼r": 7565,
      "Ġkurtul": 7566,
      "Ġdilerim": 7567,
      "ften": 7568,
      "uru": 7569,
      "itch": 7570,
      "ĠanlÄ±yorum": 7571,
      "Ã¼ksek": 7572,
      "ĠiÅŁlerinizi": 7573,
      "ĠÃ§alÄ±ÅŁÄ±rken": 7574,
      "ĠgeÃ§ire": 7575,
      "Ġphotoshoot": 7576,
      "ĠtadÄ±": 7577,
      "ĠHareket": 7578,
      "noon": 7579,
      "layÄ±sÄ±yla": 7580,
      "ĠyaÅŁama": 7581,
      "Ġvisualize": 7582,
      "Ġbunlar": 7583,
      "Ġstrategy": 7584,
      "ĠkÄ±sÄ±m": 7585,
      "Ġcen": 7586,
      "Ġbagg": 7587,
      "Ġdilden": 7588,
      "ĠbahÃ§enin": 7589,
      "Ġtuttu": 7590,
      "ffic": 7591,
      "mited": 7592,
      "ĠkonuÅŁurken": 7593,
      "ĠÃ§Ä±kÄ±n": 7594,
      "Ġkapa": 7595,
      "ĠtamamÄ±nÄ±": 7596,
      "ĠvÃ¼cudunu": 7597,
      "ĠyaratÄ±r": 7598,
      "Â°C": 7599,
      "Ġfloor": 7600,
      "ĠÄ°lg": 7601,
      "Ġrere": 7602,
      "143": 7603,
      "raffic": 7604,
      "Ġbike": 7605,
      "ĠdÄ±ÅŁÄ±nda": 7606,
      "ĠAlso": 7607,
      "ĠmantÄ±": 7608,
      "-traffic": 7609,
      "ĠClean": 7610,
      "Ġbright": 7611,
      "ĠGenellikle": 7612,
      "repare": 7613,
      "Ġbaggage": 7614,
      "Ġrereading": 7615,
      "lisiniz": 7616,
      "Ġlam": 7617,
      "ilmesi": 7618,
      "lerinizin": 7619,
      "Ġgear": 7620,
      "ĠpiÅŁirin": 7621,
      "ĠbakÄ±m": 7622,
      "Ġdriven": 7623,
      "ĠAdditionally": 7624,
      "Ġcarefully": 7625,
      "Ġcontainer": 7626,
      "Ġgiderek": 7627,
      "Ġflashcards": 7628,
      "Total": 7629,
      "ulation": 7630,
      "Ġcop": 7631,
      "ĠBlock": 7632,
      "ĠdeÄŁiÅŁtirin": 7633,
      "Ġtrue": 7634,
      "Ġekle": 7635,
      "ĠkolaydÄ±r": 7636,
      "Ġhighest": 7637,
      "Ġgroups": 7638,
      "leÅŁtirilmiÅŁ": 7639,
      "dÄ±ÄŁÄ±nÄ±zdan": 7640,
      "Ġtekniklerini": 7641,
      "ront": 7642,
      "ĠaÅŁmak": 7643,
      "ublic": 7644,
      "Ãĸncelikle": 7645,
      "ĠodanÄ±zÄ±": 7646,
      "ĠaydÄ±nlatma": 7647,
      "Ġvaluable": 7648,
      "520": 7649,
      "Ġcould": 7650,
      "Ġger": 7651,
      "Ġkase": 7652,
      "ĠÃ§alÄ±": 7653,
      "Ġsorunuz": 7654,
      "354": 7655,
      "cektir": 7656,
      "Ãĸz": 7657,
      "Ġilerlemeler": 7658,
      "Ġcritic": 7659,
      "Ġalternatif": 7660,
      "Ġsaatinde": 7661,
      "ĠuÃ§uÅŁ": 7662,
      "Ã§ok": 7663,
      "ĠTrans": 7664,
      "Ġsometimes": 7665,
      "Ġonlara": 7666,
      "142": 7667,
      "ĠkaldÄ±": 7668,
      "biliriz": 7669,
      "Ġilham": 7670,
      "Ġgiden": 7671,
      "Ġmentally": 7672,
      "ĠsÄ±kÄ±ÅŁ": 7673,
      "tirebilirsiniz": 7674,
      "Ġcram": 7675,
      "ĠyarÄ±sÄ±nÄ±": 7676,
      "urable": 7677,
      "ared": 7678,
      "ract": 7679,
      "itting": 7680,
      "ized": 7681,
      "ĠzorlanÄ±yorsanÄ±z": 7682,
      "malara": 7683,
      "Ġboard": 7684,
      "264": 7685,
      "ĠiÅŁlerin": 7686,
      "Ġafternoon": 7687,
      "Ġihtimal": 7688,
      "Ġhavuzu": 7689,
      "Ġbags": 7690,
      "Ġchallenge": 7691,
      "ĠkÃ¼tÃ¼phane": 7692,
      "ĠeÄŁitim": 7693,
      "-step": 7694,
      "Ġbeceriler": 7695,
      "816": 7696,
      "ath": 7697,
      "Ġpublic": 7698,
      "rakarak": 7699,
      "tely": 7700,
      "Ġku": 7701,
      "Ã¼nden": 7702,
      "ĠTid": 7703,
      "Ġtoilet": 7704,
      "ilim": 7705,
      "Ġinside": 7706,
      "mektedir": 7707,
      "Ġolmaya": 7708,
      "ĠPrepare": 7709,
      "ĠplanlayÄ±p": 7710,
      "Ġsettle": 7711,
      "Ġkurma": 7712,
      "ĠdÃ¼ÅŁÃ¼nÃ¼": 7713,
      "Ġtemizlemek": 7714,
      "Ġayarla": 7715,
      "Ġizleyerek": 7716,
      "Ġyoktur": 7717,
      "Ġkelimeler": 7718,
      "Ġlimiting": 7719,
      "Ġgidin": 7720,
      "comfort": 7721,
      "ĠfotoÄŁrafÃ§Ä±lÄ±k": 7722,
      "Ġdishes": 7723,
      "'ten": 7724,
      "485": 7725,
      "810": 7726,
      "front": 7727,
      "Ġpage": 7728,
      "Ġhearing": 7729,
      "Ġfel": 7730,
      "ĠbaÅŁÄ±": 7731,
      "Ġmotive": 7732,
      "Ġbelirsiz": 7733,
      "ĠÃ§alÄ±ÅŁmayÄ±n": 7734,
      "Ġleaves": 7735,
      "Ġilerleyebilirsiniz": 7736,
      "ĠbÄ±rakarak": 7737,
      "ĠBaÅŁlamak": 7738,
      "Ġuyanmak": 7739,
      "ĠyemeÄŁini": 7740,
      "Ġlimited": 7741,
      "ĠolduÄŁunuzda": 7742,
      "Ġbozul": 7743,
      "Ġrepeatedly": 7744,
      "Ġsunuyorum": 7745,
      "Ġsurroundings": 7746,
      "Ġdopamine": 7747,
      "-care": 7748,
      "900": 7749,
      "Make": 7750,
      "The": 7751,
      "how": 7752,
      "ĠsÄ±nÄ±": 7753,
      "ĠEr": 7754,
      "Ġheart": 7755,
      "ĠBana": 7756,
      "uÅŁtur": 7757,
      "ĠzamanÄ±nÄ±": 7758,
      "Ġlink": 7759,
      "ĠÅŁunu": 7760,
      "ikkat": 7761,
      "Ġekleme": 7762,
      "ĠSabahÄ±": 7763,
      "ĠÃ§Ä±kÄ±ÅŁ": 7764,
      "ĠayardÄ±": 7765,
      "ĠHayÄ±r": 7766,
      "ĠaÃ§Ä±kÃ§a": 7767,
      "ĠgÃ¶sterir": 7768,
      "ĠiÃ§erir": 7769,
      "ĠadÄ±na": 7770,
      "ĠiliÅŁk": 7771,
      "ĠtatlÄ±": 7772,
      "Ġsounding": 7773,
      "Ġexclus": 7774,
      "826": 7775,
      "Yap": 7776,
      "used": 7777,
      "ĠEski": 7778,
      "itab": 7779,
      "Ġfly": 7780,
      "ĠBen": 7781,
      "maktadÄ±r": 7782,
      "usunda": 7783,
      "Ġbeginners": 7784,
      "Ġplanlar": 7785,
      "ĠyÃ¼rÃ¼r": 7786,
      "Ġunrelated": 7787,
      "Ġkomp": 7788,
      "Ġefforts": 7789,
      "Ġtarihi": 7790,
      "ĠyaklaÅŁÄ±k": 7791,
      "important": 7792,
      "ĠyaptÄ±m": 7793,
      "Ġhold": 7794,
      "Ġpatterns": 7795,
      "Ġaggreg": 7796,
      "421": 7797,
      "lili": 7798,
      "Ġizmir": 7799,
      "Ġsaves": 7800,
      "Ġspir": 7801,
      "Ġtutar": 7802,
      "bileceÄŁin": 7803,
      "ĠgÃ¼ve": 7804,
      "Ġsorarak": 7805,
      "ĠkapÄ±": 7806,
      "Ġyatarken": 7807,
      "ĠÃĩev": 7808,
      "ukarÄ±": 7809,
      "ĠeÄŁit": 7810,
      "Ġkaba": 7811,
      "Ġsessizce": 7812,
      "ĠÃĸnerim": 7813,
      "ĠyarÄ±sÄ±": 7814,
      "Ġuyumaya": 7815,
      "Ġzihn": 7816,
      "Ġmiktarda": 7817,
      "ĠsÃ¶yleye": 7818,
      "ĠDÃ¼zenli": 7819,
      "Ġfamily": 7820,
      "820": 7821,
      "ative": 7822,
      "ube": 7823,
      "Ġtour": 7824,
      "Ġbildir": 7825,
      "verbal": 7826,
      "Ġinstru": 7827,
      "nded": 7828,
      "Ġarm": 7829,
      "Ġtelefonu": 7830,
      "ĠalanÄ±nÄ±za": 7831,
      "ĠÃ¶nler": 7832,
      "ĠaÃ§Ä±klayÄ±n": 7833,
      "Ġstresini": 7834,
      "Ġcausing": 7835,
      "Ġuyumak": 7836,
      "Ġalert": 7837,
      "ĠhatÄ±rlatÄ±n": 7838,
      "bri": 7839,
      "tiniz": 7840,
      "yl": 7841,
      "Ġbuna": 7842,
      "ĠDed": 7843,
      "ĠYÃ¼r": 7844,
      "ĠeÄŁer": 7845,
      "Ġdistant": 7846,
      "ĠiÃ§ecek": 7847,
      "Ġreci": 7848,
      "Ġups": 7849,
      "ĠonlarÄ±": 7850,
      "ĠyapÄ±mÄ±": 7851,
      "ĠOften": 7852,
      "Ġsever": 7853,
      "Ġexci": 7854,
      "Ġyerini": 7855,
      "lenir": 7856,
      "Ġlay": 7857,
      "ĠWell": 7858,
      "ĠWhere": 7859,
      "ĠgeÃ§ici": 7860,
      "ĠbÃ¶lerek": 7861,
      "lendire": 7862,
      "Ġseviyeniz": 7863,
      "ĠyansÄ±": 7864,
      "ĠseÃ§enekler": 7865,
      "Ġpatience": 7866,
      "Ġefficiently": 7867,
      "Ġexclusively": 7868,
      "-h": 7869,
      "gage": 7870,
      "put": 7871,
      "ĠðŁ": 7872,
      "aris": 7873,
      "ĠanlamÄ±na": 7874,
      "Ġburada": 7875,
      "ĠplanlÄ±yor": 7876,
      "ĠÃ¶ÄŁlen": 7877,
      "Ġhobi": 7878,
      "arÄ±nda": 7879,
      "Ä±nav": 7880,
      "ĠyÃ¶netim": 7881,
      "ĠyaÅŁamÄ±": 7882,
      "ĠkonuÅŁarak": 7883,
      "Ġharf": 7884,
      "Ġparlak": 7885,
      "Ġedebi": 7886,
      "ĠkeÅŁfedin": 7887,
      "Ġpromise": 7888,
      "Practice": 7889,
      "ĠDedicate": 7890,
      "486": 7891,
      "620": 7892,
      "KÄ±sa": 7893,
      "graf": 7894,
      "Ġelinde": 7895,
      "ĠAdÄ±m": 7896,
      "Ġvere": 7897,
      "Ġseeing": 7898,
      "Ġmanz": 7899,
      "ĠÃ§Ä±karÄ±": 7900,
      "Ġpeace": 7901,
      "Ġdiscover": 7902,
      "Ġstressful": 7903,
      "ĠdÃ¶k": 7904,
      "ĠkalanlarÄ±": 7905,
      "Ġbaskets": 7906,
      "Ġloved": 7907,
      "ĠsÄ±nÄ±rlÄ±": 7908,
      "Ġwindows": 7909,
      "828": 7910,
      "824": 7911,
      "Ġsar": 7912,
      "ĠtÄ±k": 7913,
      "iring": 7914,
      "Ġfoto": 7915,
      "mekle": 7916,
      "Ġuyar": 7917,
      "Ġolumlu": 7918,
      "asion": 7919,
      "Ġspoken": 7920,
      "Ġtraffic": 7921,
      "274": 7922,
      "ĠyerleÅŁ": 7923,
      "sinde": 7924,
      "Ġsaatine": 7925,
      "ĠalÄ±ÅŁkanlÄ±klarÄ±": 7926,
      "Ġhaft": 7927,
      "ĠkarÅŁÄ±lÄ±k": 7928,
      "ĠayÄ±rmak": 7929,
      "Ġdarkness": 7930,
      "Ġizleme": 7931,
      "Ġhafifle": 7932,
      "âĢĶand": 7933,
      "ĠkatÄ±lacak": 7934,
      "ĠuyumayÄ±": 7935,
      "ĠiliÅŁkiler": 7936,
      "Ġtonunu": 7937,
      "Ġbilimsel": 7938,
      "ĠÃĸzellikle": 7939,
      "725": 7940,
      "714": 7941,
      "735": 7942,
      "cÃ¼k": 7943,
      "ereye": 7944,
      "teÅŁ": 7945,
      "Ġila": 7946,
      "ĠdanÄ±ÅŁ": 7947,
      "Ġdesc": 7948,
      "Ġvict": 7949,
      "141": 7950,
      "ĠtoplamÄ±": 7951,
      "374": 7952,
      "Ġortalama": 7953,
      "ĠbaÅŁarÄ±lÄ±": 7954,
      "ĠmÄ±sÄ±nÄ±z": 7955,
      "elerden": 7956,
      "Ġdetaylar": 7957,
      "ĠÃ§ekici": 7958,
      "Ġsabitleyin": 7959,
      "ĠUykuya": 7960,
      "ĠSessiz": 7961,
      "Ġmutluluk": 7962,
      "Ġheading": 7963,
      "ï¸ıâ": 7964,
      "Ġinspi": 7965,
      "Ġcenter": 7966,
      "924": 7967,
      "oru": 7968,
      "Ġhaz": 7969,
      "dio": 7970,
      "Ġplanlayarak": 7971,
      "Ġbiber": 7972,
      "Ġgerektiren": 7973,
      "melisin": 7974,
      "ĠakÅŁamlarÄ±": 7975,
      "Ġachieving": 7976,
      "ĠbaÅŁarÄ±larÄ±": 7977,
      "diÄŁinizde": 7978,
      "Ġgirmeden": 7979,
      "ĠekranÄ±nÄ±": 7980,
      "Ġsessizlik": 7981,
      "ĠbaÅŁlarsÄ±nÄ±z": 7982,
      "Ġgrounding": 7983,
      "Ġzihinsel": 7984,
      "ĠkaÃ§Ä±nmak": 7985,
      "Ġoccasion": 7986,
      "ĠgÃ¶ÄŁÃ¼s": 7987,
      "Ġdosya": 7988,
      "624": 7989,
      "825": 7990,
      "814": 7991,
      "827": 7992,
      "down": 7993,
      "plan": 7994,
      "lev": 7995,
      "ĠSay": 7996,
      "ĠyapacaÄŁÄ±nÄ±z": 7997,
      "eyle": 7998,
      "ĠkaÃ§Ä±nÄ±": 7999,
      "Ä±zda": 8000,
      "Ġdoor": 8001,
      "254": 8002,
      "Ġbelirleyebilirsiniz": 8003,
      "Ġdue": 8004,
      "Ġelinize": 8005,
      "Ġdisag": 8006,
      "Ġeasiest": 8007,
      "leÅŁtirir": 8008,
      "ĠbaÅŁarÄ±sÄ±z": 8009,
      "Ġname": 8010,
      "Ġreminder": 8011,
      "ĠElbette": 8012,
      "Ġbank": 8013,
      "Ġrelease": 8014,
      "Ġyetene": 8015,
      "ĠKelime": 8016,
      "728": 8017,
      "780": 8018,
      "880": 8019,
      "920": 8020,
      "dim": 8021,
      "Ġcell": 8022,
      "Ġkok": 8023,
      "Ġfund": 8024,
      "action": 8025,
      "ĠAt": 8026,
      "amiliar": 8027,
      "Ġsind": 8028,
      "ĠsayÄ±n": 8029,
      "ĠdolaÅŁ": 8030,
      "ĠhedeflediÄŁiniz": 8031,
      "weight": 8032,
      "Ġkelimesini": 8033,
      "Ġkalkmak": 8034,
      "ĠYatak": 8035,
      "ĠnumarayÄ±": 8036,
      "ĠkalÄ±r": 8037,
      "Ġperfectionism": 8038,
      "ĠkÄ±sal": 8039,
      "ĠSÄ±cak": 8040,
      "ĠdÃ¶nÃ¼ÅŁtÃ¼r": 8041,
      "Ġunfamiliar": 8042,
      "Ġpromote": 8043,
      "ĠTranslate": 8044,
      "Sabah": 8045,
      "ĠTurn": 8046,
      "yak": 8047,
      "ĠuyarÄ±": 8048,
      "Ġuygulaman": 8049,
      "Ġmay": 8050,
      "Ġexha": 8051,
      "Ġuns": 8052,
      "ĠdoÄŁrult": 8053,
      "Ġdistracted": 8054,
      "Ġtaki": 8055,
      "ĠdÃ¼ÅŁÃ¼nme": 8056,
      "Ġfig": 8057,
      "masÄ±dÄ±r": 8058,
      "ĠmesajÄ±nÄ±zÄ±": 8059,
      "Ġenerjisini": 8060,
      "ĠÃ§izgi": 8061,
      "ĠbilgisayarÄ±nÄ±zda": 8062,
      "Ġgrows": 8063,
      "Ġcolle": 8064,
      "ĠkullanÄ±mÄ±nÄ±": 8065,
      "ĠÃ§eviri": 8066,
      "ï¸ıâĥ": 8067,
      "487": 8068,
      "700": 8069,
      "815": 8070,
      "ada": 8071,
      "van": 8072,
      "Ġkart": 8073,
      "Ġdera": 8074,
      "terek": 8075,
      "Ġgetirmek": 8076,
      "ĠseÃ§melisiniz": 8077,
      "Ġupfront": 8078,
      "Ġokuya": 8079,
      "Ġedici": 8080,
      "Ġelinizi": 8081,
      "Åŀu": 8082,
      "ĠnumarasÄ±nÄ±z": 8083,
      "Ġtuvalet": 8084,
      "ï¸ıâĥ£": 8085,
      "431": 8086,
      "727": 8087,
      "785": 8088,
      "lmÄ±ÅŁtÄ±r": 8089,
      "Ġfakt": 8090,
      "Ġez": 8091,
      "ĠAM": 8092,
      "Ġdemektir": 8093,
      "ĠkullanmanÄ±z": 8094,
      "ĠiÅŁinize": 8095,
      "Ġsaatinizi": 8096,
      "ĠkaydÄ±r": 8097,
      "Ġdefa": 8098,
      "Ġenjoying": 8099,
      "ĠgereÄŁi": 8100,
      "Ġencoura": 8101,
      "ĠdavranÄ±ÅŁÄ±": 8102,
      "Ġkanal": 8103,
      "ĠÃ§Ä±kara": 8104,
      "Ġappreciation": 8105,
      "625": 8106,
      "626": 8107,
      "710": 8108,
      "715": 8109,
      "729": 8110,
      "927": 8111,
      "Ġcut": 8112,
      "Ġcities": 8113,
      "Ġprim": 8114,
      "ouble": 8115,
      "ĠEff": 8116,
      "ural": 8117,
      "lerinizle": 8118,
      "Ġsix": 8119,
      "Ġmail": 8120,
      "Ġfeet": 8121,
      "ĠÃ§ekmeyi": 8122,
      "ĠkullandÄ±ÄŁÄ±nÄ±z": 8123,
      "tÄ±lmÄ±ÅŁ": 8124,
      "erece": 8125,
      "Ġrooms": 8126,
      "ĠÅŁeker": 8127,
      "Ġdetours": 8128,
      "Ġyakala": 8129,
      "ĠmesajlarÄ±": 8130,
      "earching": 8131,
      "Ġenvironmental": 8132,
      "Ġpurcha": 8133,
      "ĠsÃ¼recin": 8134,
      "Ġengagement": 8135,
      "Ġseninle": 8136,
      "Ġbeklemeyin": 8137,
      "ĠrahatlatÄ±cÄ±": 8138,
      "ĠOkuma": 8139,
      "Ġinteresting": 8140,
      "Ġsprints": 8141,
      "Ġimpulsively": 8142,
      "ĠdoÄŁrultusunda": 8143,
      "526": 8144,
      "ante": 8145,
      "Ġkum": 8146,
      "Ġworth": 8147,
      "Ġthir": 8148,
      "Ġmola": 8149,
      "Ġresearching": 8150,
      "Ġasist": 8151,
      "Ġhedefleyerek": 8152,
      "ĠalanÄ±nÄ±": 8153,
      "Ġactual": 8154,
      "Ġkelimesi": 8155,
      "Ãĸrn": 8156,
      "Ġyoludur": 8157,
      "Ġalarms": 8158,
      "ĠdÃ¼zenlemeye": 8159,
      "Ġbelongs": 8160,
      "Ġstruggle": 8161,
      "536": 8162,
      "630": 8163,
      "615": 8164,
      "616": 8165,
      "680": 8166,
      "720": 8167,
      "837": 8168,
      "Fi": 8169,
      "ilebilir": 8170,
      "po": 8171,
      "ucu": 8172,
      "tinde": 8173,
      "Ġtech": 8174,
      "gram": 8175,
      "ÄŁunuzu": 8176,
      "ĠÃ§arp": 8177,
      "Ġleg": 8178,
      "ondan": 8179,
      "ĠÃ¶ÄŁret": 8180,
      "ems": 8181,
      "Ġoverco": 8182,
      "Ġkayd": 8183,
      "Ġdistracting": 8184,
      "Ġhareketlerle": 8185,
      "ĠbakÄ±ÅŁ": 8186,
      "Ġtamamlayarak": 8187,
      "Ġcompan": 8188,
      "ĠetkileÅŁim": 8189,
      "Ġbazen": 8190,
      "Ġnutriti": 8191,
      "cadele": 8192,
      "ĠEffective": 8193,
      "510": 8194,
      "836": 8195,
      "915": 8196,
      "Tube": 8197,
      "ih": 8198,
      "ĠDuyg": 8199,
      "ĠinÅŁa": 8200,
      "ĠAk": 8201,
      "ginÃ§": 8202,
      "ĠDenizle": 8203,
      "omb": 8204,
      "364": 8205,
      "Ġunhe": 8206,
      "ĠBirincisi": 8207,
      "bileceÄŁinizi": 8208,
      "ĠÃ§Ä±kan": 8209,
      "Ġalanlarda": 8210,
      "Ġtalep": 8211,
      "Ġenerjisi": 8212,
      "Ġtelefonunuzdan": 8213,
      "ĠÃĸÄŁrenmeyi": 8214,
      "ÅŁaÄŁÄ±daki": 8215,
      "ĠiÅŁlev": 8216,
      "ĠtarafÄ±n": 8217,
      "ĠmantÄ±klÄ±sÄ±": 8218,
      "Ġfilm": 8219,
      "ĠBilg": 8220,
      "Ġportre": 8221,
      "Ġtouch": 8222,
      "Ġdescri": 8223,
      "ĠfaktÃ¶r": 8224,
      "Ġnutritious": 8225,
      "kar": 8226,
      "Ġ[": 8227,
      "Ġkuma": 8228,
      "Ã§alÄ±ÅŁ": 8229,
      "ĠmÃ¼zik": 8230,
      "ĠdÃ¼nya": 8231,
      "aket": 8232,
      "Ġanlar": 8233,
      "Ġmeas": 8234,
      "medik": 8235,
      "Ġyerin": 8236,
      "Ġbelirgin": 8237,
      "Ġinterfer": 8238,
      "tÄ±ÄŁÄ±": 8239,
      "Ġuykuyu": 8240,
      "ĠbaÅŁlayanlar": 8241,
      "Ä±lma": 8242,
      "ĠbaÅŁarÄ±ya": 8243,
      "elerini": 8244,
      "Ġcomment": 8245,
      "Ġagainst": 8246,
      "ĠkiÅŁiyi": 8247,
      "ĠsabÄ±rlÄ±": 8248,
      "ansÃ¶r": 8249,
      "Ġobligation": 8250,
      "ĠExpress": 8251,
      "Ġprimary": 8252,
      "530": 8253,
      "535": 8254,
      "726": 8255,
      "936": 8256,
      "tarÄ±": 8257,
      "Ġski": 8258,
      "tep": 8259,
      "izde": 8260,
      "ĠAÅŁ": 8261,
      "sting": 8262,
      "Ġsona": 8263,
      "selves": 8264,
      "Ġkullanma": 8265,
      "ĠsaÄŁlayabilirsiniz": 8266,
      "ĠsÄ±kÄ±": 8267,
      "Ġedilen": 8268,
      "Ġdesignate": 8269,
      "Ġkaydederek": 8270,
      "Ġagend": 8271,
      "ubuk": 8272,
      "Ġsounds": 8273,
      "Ġkonularda": 8274,
      "Ġstacking": 8275,
      "Ġmeyve": 8276,
      "484": 8277,
      "515": 8278,
      "524": 8279,
      "614": 8280,
      "830": 8281,
      "980": 8282,
      "lge": 8283,
      "tal": 8284,
      "ants": 8285,
      "ĠyÄ±l": 8286,
      "ĠBaz": 8287,
      "unk": 8288,
      "ĠGreat": 8289,
      "ĠÃ¶neriniz": 8290,
      "ĠbuluÅŁtu": 8291,
      "diÄŁim": 8292,
      "Ġsuit": 8293,
      "ĠartÄ±rarak": 8294,
      "Ġertesi": 8295,
      "Ġgereksin": 8296,
      "ĠkarÅŁÄ±laÅŁtÄ±r": 8297,
      "ĠgÃ¶zlerinizi": 8298,
      "ĠoluÅŁturma": 8299,
      "ĠsÄ±caklÄ±k": 8300,
      "ĠpaylaÅŁarak": 8301,
      "Ġsoruya": 8302,
      "ynam": 8303,
      "Ġplatfor": 8304,
      "ĠSÄ±fÄ±r": 8305,
      "Ġpicture": 8306,
      "Ġconscious": 8307,
      "488": 8308,
      "684": 8309,
      "736": 8310,
      "910": 8311,
      "Ġinstant": 8312,
      "Ġissue": 8313,
      "Ġkonunun": 8314,
      "ĠOda": 8315,
      "ĠHang": 8316,
      "ĠPrag": 8317,
      "Ġoutdo": 8318,
      "zeti": 8319,
      "Ġdile": 8320,
      "Ġrestore": 8321,
      "Ġlighting": 8322,
      "Ġlightweight": 8323,
      "Ġstressed": 8324,
      "Ġelsewhere": 8325,
      "Ġlesson": 8326,
      "ĠThey": 8327,
      "beti": 8328,
      "Ġtracking": 8329,
      "ĠÃ§izmek": 8330,
      "Ġcycles": 8331,
      "Ġreplacement": 8332,
      "ĠaÅŁÄ±rÄ±": 8333,
      "ĠAlÄ±ÅŁkanlÄ±klar": 8334,
      "Ġspontaneity": 8335,
      "Ġsituations": 8336,
      "Hedef": 8337,
      "Ġtencere": 8338,
      "628": 8339,
      "617": 8340,
      "724": 8341,
      "925": 8342,
      "Ġcap": 8343,
      "anta": 8344,
      "alo": 8345,
      "Ġkare": 8346,
      "ĠanlarÄ±": 8347,
      "ĠkaÃ§Ä±r": 8348,
      "Ġrare": 8349,
      "ĠÅŁef": 8350,
      "Ġbahse": 8351,
      "Ġhedefiniz": 8352,
      "ĠarayÄ±n": 8353,
      "Ġdenize": 8354,
      "ĠdÃ¶ne": 8355,
      "ĠsÃ¼recinde": 8356,
      "Ġsenaryo": 8357,
      "516": 8358,
      "687": 8359,
      "igh": 8360,
      "Ġleft": 8361,
      "Ä±rsÄ±nÄ±z": 8362,
      "Ġbuz": 8363,
      "ĠFlights": 8364,
      "ĠdÃ¼zeninde": 8365,
      "Ġpages": 8366,
      "miyor": 8367,
      "Ġfixing": 8368,
      "ĠÅŀehir": 8369,
      "Ġindivi": 8370,
      "Ġkoyup": 8371,
      "ĠvÃ¼cudunuza": 8372,
      "Ġbitire": 8373,
      "Ġkaliten": 8374,
      "ĠÃ¶nceliÄŁiniz": 8375,
      "Ġsulama": 8376,
      "Ġobserv": 8377,
      "Ġtoiletries": 8378,
      "Ġdisagree": 8379,
      "-go": 8380,
      "517": 8381,
      "685": 8382,
      "730": 8383,
      "823": 8384,
      "817": 8385,
      "928": 8386,
      "916": 8387,
      "926": 8388,
      "Ġisten": 8389,
      "velo": 8390,
      "ilendir": 8391,
      "Ġod": 8392,
      "ĠMÃ¼": 8393,
      "Ġori": 8394,
      "Ġsaate": 8395,
      "Ġaccu": 8396,
      "ĠplanlÄ±": 8397,
      "ĠaranÄ±z": 8398,
      "Ġkendisi": 8399,
      "ĠkullanÄ±p": 8400,
      "ĠÃ¶ÄŁrenmektir": 8401,
      "ĠgÃ¼c": 8402,
      "Ġgerektirme": 8403,
      "ĠdakikasÄ±nÄ±": 8404,
      "oughly": 8405,
      "ĠistediÄŁinize": 8406,
      "tirebilir": 8407,
      "ĠkaÄŁÄ±dÄ±": 8408,
      "ĠAlÄ±ÅŁkanlÄ±klarÄ±": 8409,
      "ilmiÅŁtir": 8410,
      "ĠBaÅŁarÄ±lÄ±": 8411,
      "Ġtablet": 8412,
      "ĠcevabÄ±": 8413,
      "Ġsalata": 8414,
      "solida": 8415,
      "Ġagenda": 8416,
      "580": 8417,
      "786": 8418,
      "roc": 8419,
      "tma": 8420,
      "uÃ§": 8421,
      "Ġcross": 8422,
      "ĠyukarÄ±": 8423,
      "ĠgÃ¼r": 8424,
      "Ġbeginning": 8425,
      "ayarak": 8426,
      "ĠgÃ¶st": 8427,
      "lenmesi": 8428,
      "394": 8429,
      "iliyor": 8430,
      "ĠhÄ±zlandÄ±": 8431,
      "Ã¼nÃ¼zde": 8432,
      "Ġmethods": 8433,
      "Ġbununla": 8434,
      "Ġtwice": 8435,
      "ĠKonuÅŁma": 8436,
      "Ġrush": 8437,
      "Ġyiyecek": 8438,
      "528": 8439,
      "585": 8440,
      "749": 8441,
      "935": 8442,
      "gÃ¶": 8443,
      "llo": 8444,
      "Ġpir": 8445,
      "orba": 8446,
      "ĠSend": 8447,
      "lerseniz": 8448,
      "ased": 8449,
      "ĠyapmanÄ±zÄ±": 8450,
      "Ġenter": 8451,
      "Ġmara": 8452,
      "emi": 8453,
      "ĠsuÃ§": 8454,
      "indeki": 8455,
      "Ġload": 8456,
      "Ġdurup": 8457,
      "Ġelb": 8458,
      "ĠalanÄ±na": 8459,
      "ĠsorunlarÄ±nÄ±z": 8460,
      "bilg": 8461,
      "ĠEvde": 8462,
      "Ġlasting": 8463,
      "Ġoturun": 8464,
      "Ġmetni": 8465,
      "Ġestima": 8466,
      "ĠfÄ±rÄ±n": 8467,
      "ĠÄ°ÅŁte": 8468,
      "Ġchaos": 8469,
      "ĠaÃ§Ä±sÄ±ndan": 8470,
      "Ġyudum": 8471,
      "Ġhydration": 8472,
      "Ġrecord": 8473,
      "525": 8474,
      "537": 8475,
      "636": 8476,
      "829": 8477,
      "834": 8478,
      "930": 8479,
      "ome": 8480,
      "Ä±yorsunuz": 8481,
      "deep": 8482,
      "ĠkÃ¼Ã§": 8483,
      "Ġkop": 8484,
      "ved": 8485,
      "lamadan": 8486,
      "hazÄ±r": 8487,
      "ĠZeyneple": 8488,
      "Ġword": 8489,
      "294": 8490,
      "bile": 8491,
      "Ġsorusunu": 8492,
      "Ġbahsed": 8493,
      "Ġdilini": 8494,
      "ĠdakikasÄ±": 8495,
      "Ġuykudan": 8496,
      "Ġease": 8497,
      "Ġconnecting": 8498,
      "Ġknows": 8499,
      "ĠprogramÄ±nÄ±": 8500,
      "Ġrutinler": 8501,
      "Ġachievement": 8502,
      "ĠihtiyacÄ±": 8503,
      "Ġilerlemeniz": 8504,
      "ĠplanlamayÄ±": 8505,
      "ĠkolaylaÅŁtÄ±racak": 8506,
      "ĠhayatÄ±": 8507,
      "Ġyuvar": 8508,
      "Ġbelirtirseniz": 8509,
      "ĠgÃ¼lÃ¼m": 8510,
      "ĠkalabalÄ±k": 8511,
      "-hour": 8512,
      "ynamic": 8513,
      "Ġmarath": 8514,
      "527": 8515,
      "584": 8516,
      "713": 8517,
      "717": 8518,
      "ix": 8519,
      "Ġcl": 8520,
      "Ġcli": 8521,
      "Ġkura": 8522,
      "mates": 8523,
      "Ġdynamic": 8524,
      "Ġinvite": 8525,
      "ĠAra": 8526,
      "Ġzorlayan": 8527,
      "ĠanlamlÄ±": 8528,
      "Ġseek": 8529,
      "Ġbypass": 8530,
      "sition": 8531,
      "ĠBirinci": 8532,
      "Ġsorununu": 8533,
      "ĠoluÅŁturmaya": 8534,
      "ĠakÅŁamÄ±": 8535,
      "Ġseviye": 8536,
      "Ġrequest": 8537,
      "Ġsohbeti": 8538,
      "Ġsepara": 8539,
      "ĠbaÅŁlarsanÄ±z": 8540,
      "ĠkolaylaÅŁÄ±r": 8541,
      "Ġkaydedip": 8542,
      "Ġaccountability": 8543,
      "Ġkeyifli": 8544,
      "'tir": 8545,
      "514": 8546,
      "534": 8547,
      "610": 8548,
      "Pick": 8549,
      "fotoÄŁraf": 8550,
      "jour": 8551,
      "nek": 8552,
      "Ġau": 8553,
      "Ġkurarak": 8554,
      "ĠyÄ±": 8555,
      "Ġderece": 8556,
      "Ġkate": 8557,
      "Ġformat": 8558,
      "ĠzamanÄ±n": 8559,
      "Ġsleepy": 8560,
      "Ġbelirten": 8561,
      "ĠtÃ¼rÃ¼ne": 8562,
      "ĠbÄ±rakmayÄ±n": 8563,
      "ĠHava": 8564,
      "Ġpressured": 8565,
      "Ġterms": 8566,
      "Ġobj": 8567,
      "ĠortamÄ±": 8568,
      "ĠRespect": 8569,
      "ĠkamerayÄ±": 8570,
      "Ġlooks": 8571,
      "Ġgrouping": 8572,
      "Ġmemorizing": 8573,
      "ĠKonuyu": 8574,
      "ĠaydÄ±nla": 8575,
      "ĠaÅŁaÄŁÄ±da": 8576,
      "ĠgÃ¼Ã§lendirir": 8577,
      "Ġuykusuz": 8578,
      "Ġassump": 8579,
      "Ġagree": 8580,
      "Ġintended": 8581,
      "ĠtÃ¼ke": 8582,
      "Ġkenar": 8583,
      "Ġreflecting": 8584,
      "Ġboyut": 8585,
      "Ġexplore": 8586,
      "-verbal": 8587,
      "52": 8588,
      "835": 8589,
      "987": 8590,
      "wor": 8591,
      "ndÄ±": 8592,
      "Ġsyn": 8593,
      "ĠDolayÄ±sÄ±yla": 8594,
      "Ġfir": 8595,
      "hate": 8596,
      "Ġanah": 8597,
      "Ġza": 8598,
      "lardÄ±r": 8599,
      "Ġneyin": 8600,
      "suna": 8601,
      "dif": 8602,
      "neden": 8603,
      "Ġkalmaya": 8604,
      "ĠseÃ§tiÄŁiniz": 8605,
      "clear": 8606,
      "Ġdurumlarda": 8607,
      "ĠodaklanmaktÄ±r": 8608,
      "Ġapply": 8609,
      "Ġokur": 8610,
      "Ġvisits": 8611,
      "ĠihtiyacÄ±n": 8612,
      "Ġkazanmak": 8613,
      "Ġsummarize": 8614,
      "ĠÃ§evre": 8615,
      "Ġchats": 8616,
      "ĠkÃ¶ÅŁ": 8617,
      "ĠetkinliÄŁi": 8618,
      "Ġkategor": 8619,
      "627": 8620,
      "635": 8621,
      "716": 8622,
      "788": 8623,
      "784": 8624,
      "923": 8625,
      "za": 8626,
      "Ġbot": 8627,
      "urther": 8628,
      "ĠDikkat": 8629,
      "lations": 8630,
      "Ġfurther": 8631,
      "Ġzem": 8632,
      "**.Ċ": 8633,
      "ĠsÃ¼reler": 8634,
      "Ġyolunu": 8635,
      "alarÄ±na": 8636,
      "ĠkarÅŁÄ±sÄ±nda": 8637,
      "Ġopening": 8638,
      "ĠfarkÄ±": 8639,
      "Ġunexpectedly": 8640,
      "Ġrefres": 8641,
      "Ġcorrect": 8642,
      "ĠdÃ¼ÅŁÃ¼rÃ¼r": 8643,
      "Ġsolution": 8644,
      "ĠhÄ±zlandÄ±rÄ±r": 8645,
      "ĠÃ¶ÄŁrendiÄŁiniz": 8646,
      "gencies": 8647,
      "Ġemergencies": 8648,
      "Ġsuyunu": 8649,
      "kalem": 8650,
      "Ġtypes": 8651,
      "\").Ċ": 8652,
      "pro": 8653,
      "ĠBilgi": 8654,
      "Ġbirim": 8655,
      "Ġuyul": 8656,
      "ĠList": 8657,
      "Ġhaber": 8658,
      "ĠyapmayÄ±n": 8659,
      "ĠyazdÄ±ÄŁÄ±nÄ±z": 8660,
      "ĠaralÄ±": 8661,
      "ĠseÃ§erken": 8662,
      "ĠalÄ±rken": 8663,
      "Ġhedefini": 8664,
      "Ġedersiniz": 8665,
      "ĠkuralÄ±": 8666,
      "Ġayarlamak": 8667,
      "ĠgÃ¶revlerin": 8668,
      "Ġmisin": 8669,
      "Ġkahves": 8670,
      "ĠbaÄŁÄ±m": 8671,
      "ĠÃ§evren": 8672,
      "Ġdikkatlice": 8673,
      "ĠÄ°stediÄŁiniz": 8674,
      "Ġcountertop": 8675,
      "Ġassumptions": 8676,
      "gÃ¶z": 8677,
      "Ġbored": 8678,
      "kiÅŁ": 8679,
      "Ġuyurken": 8680,
      "ĠplanlanmÄ±ÅŁ": 8681,
      "Ġmass": 8682,
      "ĠtutarlÄ±": 8683,
      "uyun": 8684,
      "Ġdirek": 8685,
      "Ġdenges": 8686,
      "Ġilerleyen": 8687,
      "leyelim": 8688,
      "Ġrealistically": 8689,
      "ĠSleeping": 8690,
      "Ġdefterine": 8691,
      "Ġforced": 8692,
      "Ġintro": 8693,
      "ĠbaÅŁlÄ±yorsanÄ±z": 8694,
      "ĠyÃ¶netmek": 8695,
      "Ġprovides": 8696,
      "olume": 8697,
      "Ġsupportive": 8698,
      "visit": 8699,
      "489": 8700,
      "913": 8701,
      "985": 8702,
      "dge": 8703,
      "onda": 8704,
      "ssing": 8705,
      "rayÄ±": 8706,
      "lab": 8707,
      "Ġgems": 8708,
      "Ġzaten": 8709,
      "lÄ±nda": 8710,
      "Ġtelev": 8711,
      "Ġetmenizi": 8712,
      "Ġgidiyor": 8713,
      "Ġhedefleri": 8714,
      "Ġkurg": 8715,
      "Ġkursu": 8716,
      "Ġspeech": 8717,
      "ĠalanlarÄ±nÄ±": 8718,
      "Ġnefesini": 8719,
      "ĠyarÄ±m": 8720,
      "ĠparÃ§a": 8721,
      "ĠaÃ§Ä±klama": 8722,
      "ĠendiÅŁ": 8723,
      "Ġsistemini": 8724,
      "Ġrecomm": 8725,
      "ĠoluÅŁturarak": 8726,
      "Ġtavsiyeler": 8727,
      "ĠÃ¶ÄŁrendik": 8728,
      "'dÄ±r": 8729,
      "613": 8730,
      "688": 8731,
      "686": 8732,
      "723": 8733,
      "737": 8734,
      "787": 8735,
      "917": 8736,
      "984": 8737,
      "isk": 8738,
      "Ġpiling": 8739,
      "ĠEyl": 8740,
      "ĠEngage": 8741,
      "Ġfer": 8742,
      "ither": 8743,
      "ĠkaÅŁÄ±k": 8744,
      "larken": 8745,
      "Ġhitap": 8746,
      "ĠdayalÄ±": 8747,
      "ĠdeÄŁeri": 8748,
      "Ġmanaging": 8749,
      "ĠÃ§alÄ±ÅŁmaktÄ±r": 8750,
      "Ġhedeflere": 8751,
      "ĠbÄ±rakma": 8752,
      "ĠÄ°stanbullu": 8753,
      "Ġendless": 8754,
      "ĠkolaylaÅŁtÄ±rÄ±n": 8755,
      "ĠkazanÄ±m": 8756,
      "ĠsÃ¶zlÃ¼k": 8757,
      "ĠElinizde": 8758,
      "ĠuygulamalarÄ±nÄ±": 8759,
      "Ġbarriers": 8760,
      "ĠduyduÄŁun": 8761,
      "ĠGÃ¶revlerinizi": 8762,
      "ĠdeÄŁiÅŁtirerek": 8763,
      "Ġincreasing": 8764,
      "Ġkompoz": 8765,
      "Ġlayers": 8766,
      "ĠBazen": 8767,
      "ĠEylÃ¼l": 8768,
      "-val": 8769,
      "813": 8770,
      "833": 8771,
      "933": 8772,
      "988": 8773,
      "sit": 8774,
      "tÄ±m": 8775,
      "Ġpat": 8776,
      "dÄ±ÄŁÄ±n": 8777,
      "izyon": 8778,
      "Ġstories": 8779,
      "Ã¼nÃ¼n": 8780,
      "ĠzorlaÅŁtÄ±r": 8781,
      "ĠÃ§ubuk": 8782,
      "ĠasansÃ¶r": 8783,
      "Ġoturarak": 8784,
      "ĠkullanÄ±rken": 8785,
      "Ġdire": 8786,
      "ĠodaklanmÄ±ÅŁ": 8787,
      "Ġfails": 8788,
      "Ġreplying": 8789,
      "ĠdÃ¼zenle": 8790,
      "ĠaÃ§Ä±lÄ±": 8791,
      "ĠolanlarÄ±": 8792,
      "Ġbeklet": 8793,
      "Ġmilest": 8794,
      "ĠseÃ§enektir": 8795,
      "ĠgÃ¶rÃ¼nÃ¼r": 8796,
      "tÄ±rabilir": 8797,
      "ĠtanÄ±mlayÄ±n": 8798,
      "Ġpanic": 8799,
      "ĠYemek": 8800,
      "Ġmetaboliz": 8801,
      "ĠWait": 8802,
      "Ġelbise": 8803,
      "Ġmassive": 8804,
      "-value": 8805,
      "586": 8806,
      "789": 8807,
      "bre": 8808,
      "diniz": 8809,
      "Ġpure": 8810,
      "rative": 8811,
      "ÅŁek": 8812,
      "ĠYouTube": 8813,
      "Ã¶nce": 8814,
      "Ġmoves": 8815,
      "elerin": 8816,
      "Ġnem": 8817,
      "Ġhay": 8818,
      "lÄ±ÄŁÄ±nÄ±z": 8819,
      "think": 8820,
      "ĠartÄ±racak": 8821,
      "Ġteknolo": 8822,
      "ĠAynÄ±": 8823,
      "ĠAyÅŁe": 8824,
      "Ġanyone": 8825,
      "Ġdistance": 8826,
      "ĠalÄ±ÅŁkanlÄ±klarÄ±nÄ±zÄ±": 8827,
      "Ġuzat": 8828,
      "?\"Ċ": 8829,
      "leyebilirsin": 8830,
      "Ġrutine": 8831,
      "ĠUygul": 8832,
      "ĠvÃ¼cudu": 8833,
      "Ġprocrastin": 8834,
      "ĠbÃ¼tÃ¼n": 8835,
      "ĠÃ¶ÄŁrenerek": 8836,
      "Ġkaydetmek": 8837,
      "olog": 8838,
      "Ġrushed": 8839,
      "Ġpattern": 8840,
      "Ġcompliments": 8841,
      "Ġdelayed": 8842,
      "Ã¼ÅŁÃ¼nce": 8843,
      "Ġsindirim": 8844,
      "Ġencourages": 8845,
      "Ġrarely": 8846,
      "Ġrefreshed": 8847,
      "549": 8848,
      "812": 8849,
      "822": 8850,
      "Ġ/": 8851,
      "Ġnap": 8852,
      "ably": 8853,
      "Ġkarak": 8854,
      "lÄ±ÄŁÄ±n": 8855,
      "ĠyazdÄ±r": 8856,
      "Ġcharge": 8857,
      "Ġthemselves": 8858,
      "Ġkullanmaktan": 8859,
      "Ã¼rekli": 8860,
      "ĠdoÄŁum": 8861,
      "Ġscatter": 8862,
      "ĠWi": 8863,
      "Ġadim": 8864,
      "ĠbaÅŁlayabileceÄŁiniz": 8865,
      "Ġroad": 8866,
      "Ġspeaks": 8867,
      "Ġcountry": 8868,
      "ĠkaynaklarÄ±": 8869,
      "Ġmeditasyon": 8870,
      "Ġlisteleyin": 8871,
      "Ġhissedi": 8872,
      "ĠkavramlarÄ±": 8873,
      "Ġsmooth": 8874,
      "-S": 8875,
      "-at": 8876,
      "637": 8877,
      "937": 8878,
      "HÄ±zlÄ±": 8879,
      "istic": 8880,
      "ĠDe": 8881,
      "Ġinner": 8882,
      "Ġcharg": 8883,
      "ĠdeÄŁiÅŁir": 8884,
      "ĠdÃ¼zgÃ¼n": 8885,
      "Ġmotivasyonunuzu": 8886,
      "Ġaramak": 8887,
      "Ġendor": 8888,
      "Ġedebilir": 8889,
      "ĠbahÃ§enizi": 8890,
      "Ġsohbetler": 8891,
      "Ġtempo": 8892,
      "ĠSÃ¼reÃ§": 8893,
      "Ġtablo": 8894,
      "ĠgÃ¶stere": 8895,
      "Ġdirekt": 8896,
      "Ġkarakter": 8897,
      "523": 8898,
      "629": 8899,
      "72": 8900,
      "734": 8901,
      "929": 8902,
      "Uy": 8903,
      "case": 8904,
      "iÃ§": 8905,
      "ring": 8906,
      "rit": 8907,
      "tÄ±k": 8908,
      "ont": 8909,
      "Ġsiz": 8910,
      "Ġheps": 8911,
      "Ġbulabilirsiniz": 8912,
      "Ġvur": 8913,
      "ĠayarÄ±": 8914,
      "Ġyemekler": 8915,
      "ĠiÅŁlerini": 8916,
      "ĠsÃ¼rece": 8917,
      "Ġdialo": 8918,
      "Ġedit": 8919,
      "uza": 8920,
      "ĠgÃ¼nÃ¼ne": 8921,
      "ĠayÄ±rma": 8922,
      "Ġorta": 8923,
      "Ġokun": 8924,
      "ĠgÃ¶steren": 8925,
      "ĠgÃ¶ndermek": 8926,
      "Ġkickstart": 8927,
      "Ġchargers": 8928,
      "Ġdialogue": 8929,
      "529": 8930,
      "588": 8931,
      "623": 8932,
      "821": 8933,
      "Ay": 8934,
      "ising": 8935,
      "Ġidi": 8936,
      "ĠYour": 8937,
      "Ġfight": 8938,
      "Ġvermeden": 8939,
      "lÄ±ÄŁÄ±nÄ±zÄ±": 8940,
      "Ġrested": 8941,
      "Ġdost": 8942,
      "ata": 8943,
      "ĠElifle": 8944,
      "Ġkalmak": 8945,
      "Ġdilinizi": 8946,
      "Ġgide": 8947,
      "amaz": 8948,
      "ĠsÃ¼recek": 8949,
      "arklÄ±": 8950,
      "Ġdurumunuza": 8951,
      "Ġspeed": 8952,
      "Ġlistele": 8953,
      "Ġsens": 8954,
      "Ġizleyebilirsiniz": 8955,
      "Ġtamamlama": 8956,
      "Ġbudgeting": 8957,
      "ĠyÃ¼rÃ¼menizi": 8958,
      "Ġhavlu": 8959,
      "ĠÄ±ÅŁÄ±ÄŁÄ±nda": 8960,
      "box": 8961,
      "ĠakÄ±ÅŁÄ±nÄ±": 8962,
      "Ġempath": 8963,
      "Ġgeliyor": 8964,
      "Ġconcerns": 8965,
      "Ġspirit": 8966,
      "journey": 8967,
      "533": 8968,
      "914": 8969,
      "Te": 8970,
      "aze": 8971,
      "ĠTaking": 8972,
      "ences": 8973,
      "Ġbiridir": 8974,
      "ĠayÄ±ra": 8975,
      "Ġstory": 8976,
      "ĠÃ¶rne": 8977,
      "ĠbaÅŁÄ±nÄ±": 8978,
      "Ġverip": 8979,
      "ĠOr": 8980,
      "oke": 8981,
      "ĠRut": 8982,
      "ĠcÃ¼mlede": 8983,
      "Ã¼yle": 8984,
      "Ġoversp": 8985,
      "Ġsorusuna": 8986,
      "Ġlaz": 8987,
      "Ġlaugh": 8988,
      "Ġkendisini": 8989,
      "ĠkullandÄ±": 8990,
      "Ġgiy": 8991,
      "kkab": 8992,
      "ĠoluÅŁturup": 8993,
      "Ġmesajda": 8994,
      "Ġhissetmeniz": 8995,
      "Ġsunmak": 8996,
      "Ġcleanup": 8997,
      "ĠUyk": 8998,
      "Ã¼nÃ¼zÃ¼n": 8999,
[...]
