{
  "version": "1.0",
  "truncation": null,
  "padding": null,
  "added_tokens": [
    {
      "id": 0,
      "content": "<unk>",
      "single_word": false,
      "lstrip": false,
      "rstrip": false,
      "normalized": false,
      "special": true
    },
    {
      "id": 1,
      "content": "<s>",
      "single_word": false,
      "lstrip": false,
      "rstrip": false,
      "normalized": false,
      "special": true
    },
    {
      "id": 2,
      "content": "</s>",
      "single_word": false,
      "lstrip": false,
      "rstrip": false,
      "normalized": false,
      "special": true
    },
    {
      "id": 3,
      "content": "<pad>",
      "single_word": false,
      "lstrip": false,
      "rstrip": false,
      "normalized": false,
      "special": true
    },
    {
      "id": 4,
      "content": "<|system|>",
      "single_word": false,
      "lstrip": false,
      "rstrip": false,
      "normalized": false,
      "special": true
    },
    {
      "id": 5,
      "content": "<|user|>",
      "single_word": false,
      "lstrip": false,
      "rstrip": false,
      "normalized": false,
      "special": true
    },
    {
      "id": 6,
      "content": "<|assistant|>",
      "single_word": false,
      "lstrip": false,
      "rstrip": false,
      "normalized": false,
      "special": true
    },
    {
      "id": 7,
      "content": "<|end|>",
      "single_word": false,
      "lstrip": false,
      "rstrip": false,
      "normalized": false,
      "special": true
    },
    {
      "id": 8,
      "content": "<|code|>",
      "single_word": false,
      "lstrip": false,
      "rstrip": false,
      "normalized": false,
      "special": true
    }
  ],
  "normalizer": null,
  "pre_tokenizer": {
    "type": "Sequence",
    "pretokenizers": [
      {
        "type": "Split",
        "pattern": {
          "Regex": "'(?i:[sdmt]|ll|ve|re)|[^\\r\\n\\p{L}\\p{N}]?+\\p{L}++|\\p{N}{1,3}+| ?[^\\s\\p{L}\\p{N}]++[\\r\\n]*+|\\s*[\\r\\n]|\\s+(?!\\S)|\\s+"
        },
        "behavior": "Isolated",
        "invert": false
      },
      {
        "type": "ByteLevel",
        "add_prefix_space": false,
        "trim_offsets": true,
        "use_regex": false
      }
    ]
  },
  "post_processor": {
    "type": "ByteLevel",
    "add_prefix_space": true,
    "trim_offsets": false,
    "use_regex": true
  },
  "decoder": {
    "type": "ByteLevel",
    "add_prefix_space": true,
    "trim_offsets": true,
    "use_regex": true
  },
  "model": {
    "type": "BPE",
    "dropout": null,
    "unk_token": "<unk>",
    "continuing_subword_prefix": null,
    "end_of_word_suffix": null,
    "fuse_unk": false,
    "byte_fallback": false,
    "ignore_merges": false,
    "vocab": {
      "<unk>": 0,
      "<s>": 1,
      "</s>": 2,
      "<pad>": 3,
      "<|system|>": 4,
      "<|user|>": 5,
      "<|assistant|>": 6,
      "<|end|>": 7,
      "<|code|>": 8,
      "!": 9,
      "\"": 10,
      "#": 11,
      "$": 12,
      "%": 13,
      "&": 14,
      "'": 15,
      "(": 16,
      ")": 17,
      "*": 18,
      "+": 19,
      ",": 20,
      "-": 21,
      ".": 22,
      "/": 23,
      "0": 24,
      "1": 25,
      "2": 26,
      "3": 27,
      "4": 28,
      "5": 29,
      "6": 30,
      "7": 31,
      "8": 32,
      "9": 33,
      ":": 34,
      ";": 35,
      "<": 36,
      "=": 37,
      ">": 38,
      "?": 39,
      "@": 40,
      "A": 41,
      "B": 42,
      "C": 43,
      "D": 44,
      "E": 45,
      "F": 46,
      "G": 47,
      "H": 48,
      "I": 49,
      "J": 50,
      "K": 51,
      "L": 52,
      "M": 53,
      "N": 54,
      "O": 55,
      "P": 56,
      "Q": 57,
      "R": 58,
      "S": 59,
      "T": 60,
      "U": 61,
      "V": 62,
      "W": 63,
      "X": 64,
      "Y": 65,
      "Z": 66,
      "[": 67,
      "\\": 68,
      "]": 69,
      "^": 70,
      "_": 71,
      "`": 72,
      "a": 73,
      "b": 74,
      "c": 75,
      "d": 76,
      "e": 77,
      "f": 78,
      "g": 79,
      "h": 80,
      "i": 81,
      "j": 82,
      "k": 83,
      "l": 84,
      "m": 85,
      "n": 86,
      "o": 87,
      "p": 88,
      "q": 89,
      "r": 90,
      "s": 91,
      "t": 92,
      "u": 93,
      "v": 94,
      "w": 95,
      "x": 96,
      "y": 97,
      "z": 98,
      "{": 99,
      "|": 100,
      "}": 101,
      "~": 102,
      "¡": 103,
      "¢": 104,
      "£": 105,
      "¤": 106,
      "¥": 107,
      "¦": 108,
      "§": 109,
      "¨": 110,
      "©": 111,
      "ª": 112,
      "«": 113,
      "¬": 114,
      "®": 115,
      "¯": 116,
      "°": 117,
      "±": 118,
      "²": 119,
      "³": 120,
      "´": 121,
      "µ": 122,
      "¶": 123,
      "·": 124,
      "¸": 125,
      "¹": 126,
      "º": 127,
      "»": 128,
      "¼": 129,
      "½": 130,
      "¾": 131,
      "¿": 132,
      "À": 133,
      "Á": 134,
      "Â": 135,
      "Ã": 136,
      "Ä": 137,
      "Å": 138,
      "Æ": 139,
      "Ç": 140,
      "È": 141,
      "É": 142,
      "Ê": 143,
      "Ë": 144,
      "Ì": 145,
      "Í": 146,
      "Î": 147,
      "Ï": 148,
      "Ð": 149,
      "Ñ": 150,
      "Ò": 151,
      "Ó": 152,
      "Ô": 153,
      "Õ": 154,
      "Ö": 155,
      "×": 156,
      "Ø": 157,
      "Ù": 158,
      "Ú": 159,
      "Û": 160,
      "Ü": 161,
      "Ý": 162,
      "Þ": 163,
      "ß": 164,
      "à": 165,
      "á": 166,
      "â": 167,
      "ã": 168,
      "ä": 169,
      "å": 170,
      "æ": 171,
      "ç": 172,
      "è": 173,
      "é": 174,
      "ê": 175,
      "ë": 176,
      "ì": 177,
      "í": 178,
      "î": 179,
      "ï": 180,
      "ð": 181,
      "ñ": 182,
      "ò": 183,
      "ó": 184,
      "ô": 185,
      "õ": 186,
      "ö": 187,
      "÷": 188,
      "ø": 189,
      "ù": 190,
      "ú": 191,
      "û": 192,
      "ü": 193,
      "ý": 194,
      "þ": 195,
      "ÿ": 196,
      "Ā": 197,
      "ā": 198,
      "Ă": 199,
      "ă": 200,
      "Ą": 201,
      "ą": 202,
      "Ć": 203,
      "ć": 204,
      "Ĉ": 205,
      "ĉ": 206,
      "Ċ": 207,
      "ċ": 208,
      "Č": 209,
      "č": 210,
      "Ď": 211,
      "ď": 212,
      "Đ": 213,
      "đ": 214,
      "Ē": 215,
      "ē": 216,
      "Ĕ": 217,
      "ĕ": 218,
      "Ė": 219,
      "ė": 220,
      "Ę": 221,
      "ę": 222,
      "Ě": 223,
      "ě": 224,
      "Ĝ": 225,
      "ĝ": 226,
      "Ğ": 227,
      "ğ": 228,
      "Ġ": 229,
      "ġ": 230,
      "Ģ": 231,
      "ģ": 232,
      "Ĥ": 233,
      "ĥ": 234,
      "Ħ": 235,
      "ħ": 236,
      "Ĩ": 237,
      "ĩ": 238,
      "Ī": 239,
      "ī": 240,
      "Ĭ": 241,
      "ĭ": 242,
      "Į": 243,
      "į": 244,
      "İ": 245,
      "ı": 246,
      "Ĳ": 247,
      "ĳ": 248,
      "Ĵ": 249,
      "ĵ": 250,
      "Ķ": 251,
      "ķ": 252,
      "ĸ": 253,
      "Ĺ": 254,
      "ĺ": 255,
      "Ļ": 256,
      "ļ": 257,
      "Ľ": 258,
      "ľ": 259,
      "Ŀ": 260,
      "ŀ": 261,
      "Ł": 262,
      "ł": 263,
      "Ń": 264,
      "Ġa": 265,
      "<|": 266,
      "|>": 267,
      "is": 268,
      "nd": 269,
      "on": 270,
      "in": 271,
      "er": 272,
      "Ä±": 273,
      "an": 274,
      "Ġc": 275,
      "end": 276,
      "ĠĊ": 277,
      "|>:": 278,
      "|>Ċ": 279,
      "ti": 280,
      "Ġp": 281,
      "Ġs": 282,
      "ing": 283,
      "Ġt": 284,
      "Ġpr": 285,
      "ss": 286,
      "ist": 287,
      "re": 288,
      "Ġb": 289,
      "Ġcon": 290,
      "ant": 291,
      "ou": 292,
      "od": 293,
      "al": 294,
      "istant": 295,
      "ssistant": 296,
      "ish": 297,
      "en": 298,
      "ra": 299,
      "el": 300,
      "Ġk": 301,
      "tion": 302,
      "Ġn": 303,
      "te": 304,
      "ul": 305,
      "Ġh": 306,
      "Ã¼": 307,
      "us": 308,
      "ce": 309,
      "ver": 310,
      "ĠE": 311,
      "le": 312,
      "or": 313,
      "me": 314,
      "Ġy": 315,
      "sa": 316,
      "ar": 317,
      "Ġi": 318,
      "ur": 319,
      "Ġand": 320,
      "Ġd": 321,
      "ir": 322,
      "ĠD": 323,
      "gl": 324,
      "ÅŁ": 325,
      "ot": 326,
      "Ã§": 327,
      "user": 328,
      "assistant": 329,
      "og": 330,
      "mm": 331,
      "cis": 332,
      "ĠT": 333,
      "Ġconcis": 334,
      "tem": 335,
      "ĠY": 336,
      "Ġare": 337,
      "ys": 338,
      "Ġw": 339,
      "ĠEn": 340,
      "Ġhel": 341,
      "Ġhelp": 342,
      "Ġnot": 343,
      "ful": 344,
      "ogra": 345,
      "ĠDo": 346,
      "versa": 347,
      "uce": 348,
      "versation": 349,
      "Ġconversation": 350,
      "mming": 351,
      "ĠYou": 352,
      "ystem": 353,
      "Ġprogra": 354,
      "Ġprod": 355,
      "urk": 356,
      "ode": 357,
      "Ġcode": 358,
      "Ġhelpful": 359,
      "Ġassistant": 360,
      "Ġconcise": 361,
      "glish": 362,
      "ĠEnglish": 363,
      "Ġproduce": 364,
      "Ġprogramming": 365,
      "Ġconversational": 366,
      "urkish": 367,
      "ĠTurkish": 368,
      "system": 369,
      "ve": 370,
      "ay": 371,
      "ak": 372,
      "it": 373,
      "Ġto": 374,
      "il": 375,
      "et": 376,
      "dÄ±": 377,
      "Ġf": 378,
      "la": 379,
      "Ġth": 380,
      "Ġm": 381,
      "Ä±n": 382,
      "es": 383,
      "um": 384,
      "Ġg": 385,
      "ac": 386,
      "Ġo": 387,
      "ÄŁ": 388,
      "Ġe": 389,
      "Ġyou": 390,
      "ĠS": 391,
      "iz": 392,
      "ĠB": 393,
      "un": 394,
      "Ã¶": 395,
      "ug": 396,
      "Ġay": 397,
      "Ġbir": 398,
      "ab": 399,
      "ith": 400,
      "Ġwith": 401,
      "Ä±r": 402,
      "Ġve": 403,
      "Ġin": 404,
      "da": 405,
      "one": 406,
      "am": 407,
      "at": 408,
      "Ġst": 409,
      "nde": 410,
      "estion": 411,
      "ĠiÃ§": 412,
      "out": 413,
      "lan": 414,
      "ĠA": 415,
      "ri": 416,
      "Ġso": 417,
      "Ġbe": 418,
      "ĠiÃ§in": 419,
      "Ġre": 420,
      "ah": 421,
      "Ġad": 422,
      "Ã¼n": 423,
      "ĠÃ¶": 424,
      "Ġya": 425,
      "Ġan": 426,
      "ki": 427,
      "li": 428,
      "ort": 429,
      "ĠayÄ±r": 430,
      "Ġadet": 431,
      "Ġthe": 432,
      "ple": 433,
      "ĠayÄ±rdÄ±": 434,
      "Ġsh": 435,
      "Ġz": 436,
      "im": 437,
      "tic": 438,
      "ilir": 439,
      "Ġyour": 440,
      "ner": 441,
      "ĠkÄ±": 442,
      "dÄ±m": 443,
      "ĠkÄ±sa": 444,
      "ĠG": 445,
      "Ġu": 446,
      "ĠadÄ±m": 447,
      "as": 448,
      "ly": 449,
      "lar": 450,
      "Ġsome": 451,
      "wo": 452,
      ".Ċ": 453,
      "ive": 454,
      "Ġnum": 455,
      "ĠSc": 456,
      "Ġfor": 457,
      "Ġtwo": 458,
      "Ġshort": 459,
      "Ġme": 460,
      "ari": 461,
      "aÅŁ": 462,
      "Ä±nÄ±": 463,
      "abilir": 464,
      "ine": 465,
      "estions": 466,
      "Ġprac": 467,
      "Ġsomeone": 468,
      "tical": 469,
      "ya": 470,
      "Ġstr": 471,
      "ugg": 472,
      "enti": 473,
      "ep": 474,
      "Ġsugg": 475,
      "gling": 476,
      "uggling": 477,
      "ĠGive": 478,
      "Ġstruggling": 479,
      "ario": 480,
      "enario": 481,
      "Ġpractical": 482,
      "Ġsuggestions": 483,
      "ĠScenario": 484,
      "ara": 485,
      "ed": 486,
      "ĠgÃ¼n": 487,
      "ĠbaÅŁ": 488,
      "mek": 489,
      "ic": 490,
      "ĠM": 491,
      "Ġmo": 492,
      "lam": 493,
      "ef": 494,
      "Ã¼k": 495,
      "Ġkenti": 496,
      "Ġkentinde": 497,
      "Ġile": 498,
      "Ġuy": 499,
      "Ġday": 500,
      "ent": 501,
      "Ġon": 502,
      "very": 503,
      "ey": 504,
      "alÄ±": 505,
      "Ġevery": 506,
      "st": 507,
      "Ä°": 508,
      "ec": 509,
      "ek": 510,
      "ĠL": 511,
      "ad": 512,
      "Ġne": 513,
      "ĠÄ°": 514,
      "ut": 515,
      "ayÄ±": 516,
      "Ġis": 517,
      "nda": 518,
      "Ġol": 519,
      "qu": 520,
      "ow": 521,
      "ation": 522,
      "yi": 523,
      "Ġver": 524,
      "Ġde": 525,
      "lk": 526,
      "Ġkon": 527,
      "Ġor": 528,
      "Ġit": 529,
      "med": 530,
      "lÄ±": 531,
      "sÄ±": 532,
      "Ġyap": 533,
      "Ġuyg": 534,
      "unu": 535,
      "mak": 536,
      "iÅŁ": 537,
      "Ġof": 538,
      "ĠÃ¶ner": 539,
      "em": 540,
      "Ġka": 541,
      "uÅŁ": 542,
      "urum": 543,
      "ĠO": 544,
      "iniz": 545,
      "'s": 546,
      "ler": 547,
      "acak": 548,
      "Ġti": 549,
      "Ġqu": 550,
      "Ġab": 551,
      "Ã¼Ã§": 552,
      "ĠÄ°lk": 553,
      "Ġzor": 554,
      "Ġsim": 555,
      "Ġabout": 556,
      "ĠÃ¶neri": 557,
      "Ġiki": 558,
      "Ġres": 559,
      "Ġco": 560,
      "ĠP": 561,
      "Ġuygul": 562,
      "aman": 563,
      "Ã¼Ã§Ã¼k": 564,
      "ĠÃ§": 565,
      "ĠBu": 566,
      "Ġbul": 567,
      "yor": 568,
      "aha": 569,
      "ely": 570,
      "usu": 571,
      "ĠC": 572,
      "Ġnumara": 573,
      "tir": 574,
      "ĠkaÃ§": 575,
      "Ġwh": 576,
      "Ġzaman": 577,
      "Ġtime": 578,
      "Ġsimple": 579,
      "ĠkÃ¼Ã§Ã¼k": 580,
      "ĠnumarasÄ±": 581,
      "ĠDurum": 582,
      "Ġen": 583,
      "mir": 584,
      "ĠgÃ¼nÃ¼": 585,
      "th": 586,
      "wer": 587,
      "Ġdaha": 588,
      "Ġone": 589,
      "Ġkonusu": 590,
      "rief": 591,
      "Ġzorlan": 592,
      "swer": 593,
      "Ġuygulan": 594,
      "Ġch": 595,
      "ĠayÄ±n": 596,
      "Ġmeet": 597,
      "Ġuygulanabilir": 598,
      "Ġkonusunda": 599,
      "aya": 600,
      "gin": 601,
      "Ġnumar": 602,
      "Ġ\"": 603,
      "ĠI": 604,
      "**": 605,
      "ĠnumaralÄ±": 606,
      "ning": 607,
      "Ġquestion": 608,
      "Ġzorlanan": 609,
      "Ġbegin": 610,
      "Ġanswer": 611,
      "Ġbirine": 612,
      "riefly": 613,
      "Ä±m": 614,
      "day": 615,
      "ok": 616,
      "ayÄ±t": 617,
      "Ã¼m": 618,
      "lat": 619,
      "ĠdeÄŁ": 620,
      "xam": 621,
      "Ġwithout": 622,
      "xample": 623,
      "ĠkayÄ±t": 624,
      "Ġbeginner": 625,
      "id": 626,
      "ĠbuluÅŁ": 627,
      "ik": 628,
      "Ġeveryday": 629,
      "ĠBriefly": 630,
      "ĠExample": 631,
      "Ã¼z": 632,
      "Ġr": 633,
      "ĠbuluÅŁacak": 634,
      "Ġkentindeki": 635,
      "ter": 636,
      "Ä±z": 637,
      "ĠgÃ¼nÃ¼nde": 638,
      "tiv": 639,
      "ĠR": 640,
      "eniz": 641,
      "Ġle": 642,
      "lo": 643,
      "Ġyaz": 644,
      "Ġdo": 645,
      "Ġv": 646,
      "ĠSon": 647,
      "Ġ(": 648,
      "ang": 649,
      "'d": 650,
      "Ġac": 651,
      "ĠH": 652,
      "ill": 653,
      "yorum": 654,
      "ĠbaÅŁlat": 655,
      "ate": 656,
      "ĠAn": 657,
      "ore": 658,
      "Ġisti": 659,
      "larda": 660,
      "sun": 661,
      "Ġj": 662,
      "lik": 663,
      "Ġanlam": 664,
      "iÅŁtir": 665,
      "ĠOn": 666,
      "ag": 667,
      "inu": 668,
      "Ġolsun": 669,
      "ĠcÃ¼m": 670,
      "meden": 671,
      "ack": 672,
      "ĠadÄ±mla": 673,
      "leyi": 674,
      "ĠBunu": 675,
      "ĠbaÅŁlatabilir": 676,
      "Ġistiyorum": 677,
      "inute": 678,
      "Ġwill": 679,
      "Ġzamanlarda": 680,
      "ĠadÄ±mÄ±m": 681,
      "ĠbaÅŁlatabiliriz": 682,
      "Ä±nÄ±z": 683,
      "ĠdeÄŁiÅŁtir": 684,
      "se": 685,
      "Ġman": 686,
      "10": 687,
      "Ġbu": 688,
      "lif": 689,
      "gh": 690,
      "Ġplan": 691,
      "ap": 692,
      "Ġsp": 693,
      "ĠanlamÄ±nÄ±": 694,
      "ĠcÃ¼mleyi": 695,
      "fore": 696,
      "ĠdeÄŁiÅŁtirmeden": 697,
      "Ġbefore": 698,
      "Ġby": 699,
      "ĠN": 700,
      "ĠZ": 701,
      "ĠAr": 702,
      "abit": 703,
      "ĠMer": 704,
      "lay": 705,
      "20": 706,
      "Ġat": 707,
      "ĠMaya": 708,
      "ĠMert": 709,
      "ĠElif": 710,
      "eyn": 711,
      "ĠCan": 712,
      "ĠEce": 713,
      "ĠNo": 714,
      "ĠZeyn": 715,
      "ask": 716,
      "Ġveya": 717,
      "ĠZeynep": 718,
      "ĠAda": 719,
      "art": 720,
      "ĠEmir": 721,
      "ĠNoah": 722,
      "om": 723,
      "mal": 724,
      "ina": 725,
      "ece": 726,
      "Ġchang": 727,
      "ĠLina": 728,
      "erve": 729,
      "Ġmore": 730,
      "Ġhabit": 731,
      "30": 732,
      "Ġreserve": 733,
      "Ġl": 734,
      "ĠÃ¶n": 735,
      "Ġsa": 736,
      "Ã¼r": 737,
      "Ġtask": 738,
      "Ġse": 739,
      "15": 740,
      "ust": 741,
      "reak": 742,
      "ĠArda": 743,
      "ĠDeniz": 744,
      "ew": 745,
      "Ġthis": 746,
      "if": 747,
      "Ġsmal": 748,
      "ends": 749,
      "de": 750,
      "Ġim": 751,
      "Ġthat": 752,
      "Ġra": 753,
      "leep": 754,
      "Ġthan": 755,
      "Ġyapmak": 756,
      "ue": 757,
      "25": 758,
      "ol": 759,
      "rak": 760,
      "Ġmean": 761,
      "ip": 762,
      "Ġola": 763,
      "28": 764,
      "ch": 765,
      "Ġfe": 766,
      "oc": 767,
      "ĠÃ": 768,
      "ren": 769,
      "rite": 770,
      "ond": 771,
      "Ġvar": 772,
      "Ġsmall": 773,
      "ake": 774,
      "Ġmeaning": 775,
      "Ġits": 776,
      "Ġlear": 777,
      "Ġsleep": 778,
      "Ġgo": 779,
      "ght": 780,
      "Ġye": 781,
      "Ġchanging": 782,
      "ĠÅŁ": 783,
      "like": 784,
      "ĠRew": 785,
      "Ġconcisely": 786,
      "ĠRewrite": 787,
      "utu": 788,
      "Ġha": 789,
      "Ġfeel": 790,
      "Ġal": 791,
      "13": 792,
      "14": 793,
      "ule": 794,
      "24": 795,
      "Ġbo": 796,
      "Ã¼ÅŁ": 797,
      "Ġint": 798,
      "23": 799,
      "ocus": 800,
      "ĠPra": 801,
      "ĠÃ¶ÄŁ": 802,
      "ev": 803,
      "Ġev": 804,
      "Ġ**": 805,
      "dÄ±r": 806,
      "ĠgÃ¶": 807,
      "ther": 808,
      "Ġmanag": 809,
      "ini": 810,
      "Ġrather": 811,
      "Ġkal": 812,
      "Ġmotiv": 813,
      "eni": 814,
      "18": 815,
      "16": 816,
      "Ġtr": 817,
      "Ġkutu": 818,
      "Ġminute": 819,
      "ne": 820,
      "ma": 821,
      "17": 822,
      "ment": 823,
      "Ġfri": 824,
      "ach": 825,
      "Ġjust": 826,
      "lÄ±k": 827,
      "ting": 828,
      "ers": 829,
      "ain": 830,
      "26": 831,
      "Ġtra": 832,
      "27": 833,
      "ell": 834,
      "Ġar": 835,
      "Ġminutes": 836,
      "vi": 837,
      "Ġinto": 838,
      "Ġda": 839,
      "Ã¼y": 840,
      "ĠU": 841,
      "Ġcomm": 842,
      "Ġrout": 843,
      "Ġkutuda": 844,
      "ĠÃĸ": 845,
      "Ġlearning": 846,
      "able": 847,
      "arÄ±": 848,
      "vel": 849,
      "ĠÃ¶ÄŁren": 850,
      "Ġroutine": 851,
      "Ġtop": 852,
      "ca": 853,
      "iti": 854,
      "lin": 855,
      "king": 856,
      "Ġreserved": 857,
      "ĠeÅŁ": 858,
      "Ġas": 859,
      "Ä±k": 860,
      "hip": 861,
      "Ġbed": 862,
      "ilg": 863,
      "ome": 864,
      "uy": 865,
      "oto": 866,
      "Ġcan": 867,
      "medi": 868,
      "tal": 869,
      "ard": 870,
      "our": 871,
      "thing": 872,
      "endship": 873,
      "Ġbel": 874,
      "ile": 875,
      "tÄ±r": 876,
      "ĠBer": 877,
      "ĠBerlin": 878,
      "slo": 879,
      "ĠOslo": 880,
      "na": 881,
      "Ġson": 882,
      "kara": 883,
      "Ġex": 884,
      "inizi": 885,
      "stan": 886,
      "bul": 887,
      "ĠAnkara": 888,
      "ĠeÅŁya": 889,
      "ĠdÃ¼z": 890,
      "Ġimmedi": 891,
      "ĠLond": 892,
      "ye": 893,
      "stanbul": 894,
      "Ġwor": 895,
      "ĠyÃ¼r": 896,
      "Ġtravel": 897,
      "gan": 898,
      "ĠÃ¶nce": 899,
      "gue": 900,
      "ĠLondon": 901,
      "talya": 902,
      "zmir": 903,
      "iny": 904,
      "ĠAntalya": 905,
      "ific": 906,
      "bon": 907,
      "ganiz": 908,
      "ĠLis": 909,
      "ĠK": 910,
      "Ġover": 911,
      "Ġdak": 912,
      "ĠLisbon": 913,
      "Ġtiny": 914,
      "ib": 915,
      "ien": 916,
      "Ġtasks": 917,
      "Ġdakik": 918,
      "Ġspec": 919,
      "29": 920,
      "Ġorganiz": 921,
      "ication": 922,
      "erek": 923,
      "Ġolarak": 924,
      "19": 925,
      "Ġyer": 926,
      "Ġfocus": 927,
      "Ġhabits": 928,
      "up": 929,
      "raf": 930,
      "-b": 931,
      "Ġlike": 932,
      "larÄ±": 933,
      "her": 934,
      "ĠUse": 935,
      "Ġspecific": 936,
      "Ġiyi": 937,
      "Ġcom": 938,
      "Ġbelir": 939,
      "Ġkit": 940,
      "otoÄŁ": 941,
      "otoÄŁraf": 942,
      "lÃ¼k": 943,
      "eep": 944,
      "ĠV": 945,
      "ĠPrague": 946,
      "Ġplanning": 947,
      "oga": 948,
      "lang": 949,
      "ĠIzmir": 950,
      "ying": 951,
      "unication": 952,
      "ure": 953,
      "Ġhome": 954,
      "adece": 955,
      "ud": 956,
      "Ġwell": 957,
      "ienna": 958,
      "ĠVienna": 959,
      "Ġfriendship": 960,
      "Ä±ÅŁ": 961,
      "ps": 962,
      "Ġeach": 963,
      "ĠyÃ¼z": 964,
      "Ġwe": 965,
      "33": 966,
      "edule": 967,
      "ste": 968,
      "Ġsor": 969,
      "ĠyÃ¼rÃ¼y": 970,
      "'t": 971,
      "Ġlist": 972,
      "ĠfotoÄŁraf": 973,
      "ĠAy": 974,
      "Ġyoga": 975,
      "40": 976,
      "ilgi": 977,
      "ĠbaÅŁlay": 978,
      "est": 979,
      "ley": 980,
      "Ġmotivation": 981,
      "Ġwhat": 982,
      "Ġbreak": 983,
      "Ġph": 984,
      "lg": 985,
      "eing": 986,
      "ka": 987,
      "ĠHow": 988,
      "ately": 989,
      "stead": 990,
      "Ġimmediately": 991,
      "ĠIstanbul": 992,
      "ement": 993,
      "bilir": 994,
      "-being": 995,
      "Ġok": 996,
      "12": 997,
      "Ġbah": 998,
      "tick": 999,
      "anÄ±z": 1000,
      "Ġcommunication": 1001,
      "ind": 1002,
      "ĠSt": 1003,
      "ening": 1004,
      "ĠyÃ¼rÃ¼yÃ¼ÅŁ": 1005,
      "Ġdil": 1006,
      "Ġmanagement": 1007,
      "Ġtoplam": 1008,
      "Ġinstead": 1009,
      "Ġstart": 1010,
      "Ġitem": 1011,
      "abah": 1012,
      "Ġgoal": 1013,
      "ĠvardÄ±r": 1014,
      "Ġste": 1015,
      "ĠHer": 1016,
      "ild": 1017,
      "Ġot": 1018,
      "cel": 1019,
      "ig": 1020,
      "cak": 1021,
      "Ġkitap": 1022,
      "Ġorganization": 1023,
      "Ġno": 1024,
      "Ġilg": 1025,
      "-m": 1026,
      "Ġsadece": 1027,
      "35": 1028,
      "36": 1029,
      "ĠgÃ¼nlÃ¼k": 1030,
      "ĠbahÃ§": 1031,
      "reate": 1032,
      "Ġtut": 1033,
      "Ġet": 1034,
      "ĠBreak": 1035,
      "37": 1036,
      "11": 1037,
      "uÄŁ": 1038,
      "inde": 1039,
      "Ġkend": 1040,
      "34": 1041,
      "ĠÃ§ek": 1042,
      "unuz": 1043,
      "Ġus": 1044,
      "-minute": 1045,
      "Ġher": 1046,
      "38": 1047,
      "Ġsonra": 1048,
      "Ġyemek": 1049,
      "ress": 1050,
      "oid": 1051,
      "ity": 1052,
      "avi": 1053,
      "void": 1054,
      "ĠseÃ§": 1055,
      "tions": 1056,
      "siniz": 1057,
      "Ġcle": 1058,
      "22": 1059,
      "ick": 1060,
      "Ġbook": 1061,
      "sist": 1062,
      "edef": 1063,
      "Ġweek": 1064,
      "Ġkalem": 1065,
      "Ġmany": 1066,
      "aking": 1067,
      "ily": 1068,
      "ĠF": 1069,
      "ĠStart": 1070,
      "Ġup": 1071,
      "Ġset": 1072,
      "Ġmeets": 1073,
      "nal": 1074,
      "ally": 1075,
      "Ġcomple": 1076,
      "Ä±nÄ±zÄ±": 1077,
      "Ġsilgi": 1078,
      "ĠyÃ¶": 1079,
      "iÄŁ": 1080,
      "den": 1081,
      "sel": 1082,
      "Ġkul": 1083,
      "ten": 1084,
      "asÄ±": 1085,
      "ĠpiÅŁ": 1086,
      "Ġinter": 1087,
      "Ġtrying": 1088,
      "port": 1089,
      "reen": 1090,
      "loc": 1091,
      "Ġun": 1092,
      "Ġilgil": 1093,
      "Ġwhen": 1094,
      "Ġthem": 1095,
      "Ġhedef": 1096,
      "Ġwork": 1097,
      "ĠdÃ¼zeni": 1098,
      "Ġokum": 1099,
      "ĠalÄ±": 1100,
      "Ġkullan": 1101,
      "alÄ±ÅŁ": 1102,
      "arak": 1103,
      "Ġactiv": 1104,
      "Ġconsist": 1105,
      "ÅŁam": 1106,
      "ings": 1107,
      "Ġte": 1108,
      "Ġdakika": 1109,
      "Ġresim": 1110,
      "ndan": 1111,
      "light": 1112,
      "ord": 1113,
      "Ġfr": 1114,
      "Ġdaily": 1115,
      "Ġed": 1116,
      "Ã¼re": 1117,
      "ĠiÅŁ": 1118,
      "Ä±nda": 1119,
      "ÄŁin": 1120,
      "asy": 1121,
      "Ġout": 1122,
      "80": 1123,
      "ere": 1124,
      "Ġeven": 1125,
      "21": 1126,
      "Ġitems": 1127,
      "Ġhour": 1128,
      "Ġif": 1129,
      "Ġback": 1130,
      "Ġcev": 1131,
      "Ġdid": 1132,
      "Ġbas": 1133,
      "irst": 1134,
      "own": 1135,
      "Ġmoment": 1136,
      "Ġbuild": 1137,
      "Ġod": 1138,
      "Ġthen": 1139,
      "Ä±rm": 1140,
      "op": 1141,
      "ving": 1142,
      "Ġclear": 1143,
      "ecord": 1144,
      "ĠÃ§alÄ±ÅŁ": 1145,
      "ĠRecord": 1146,
      "ken": 1147,
      "are": 1148,
      "Ä±zÄ±": 1149,
      "ĠdoÄŁ": 1150,
      "Ġsaat": 1151,
      "Ġcevap": 1152,
      "leri": 1153,
      ":Ċ": 1154,
      "Ġsteps": 1155,
      "nder": 1156,
      "kan": 1157,
      "ci": 1158,
      "Ġ=": 1159,
      "Ġfirst": 1160,
      "tiÅŁ": 1161,
      "and": 1162,
      "age": 1163,
      "ĠpiÅŁir": 1164,
      "tive": 1165,
      "langÄ±": 1166,
      "Ġtem": 1167,
      "tice": 1168,
      "leyin": 1169,
      "ĠÃĸn": 1170,
      "Ġfrom": 1171,
      "ĠÃ¶ÄŁrenmek": 1172,
      "Ġconsistent": 1173,
      "yaz": 1174,
      "wh": 1175,
      "Ġsu": 1176,
      "Ġneed": 1177,
      "Ġread": 1178,
      "ff": 1179,
      "laÅŁ": 1180,
      "Ä±rmÄ±zÄ±": 1181,
      "ÅŁil": 1182,
      "rne": 1183,
      "Ġmavi": 1184,
      "Ġonce": 1185,
      "ĠyeÅŁil": 1186,
      "ĠkÄ±rmÄ±zÄ±": 1187,
      "si": 1188,
      "Ġge": 1189,
      "ÄŁÄ±": 1190,
      "rneÄŁin": 1191,
      "eler": 1192,
      "ĠgÃ¶re": 1193,
      "yle": 1194,
      "oriti": 1195,
      "39": 1196,
      "tiÅŁim": 1197,
      "Ġget": 1198,
      "celik": 1199,
      "Ġred": 1200,
      "ĠSch": 1201,
      "ĠSchedule": 1202,
      "Ġoverwh": 1203,
      "Ġoverwhel": 1204,
      "88": 1205,
      "Ġilk": 1206,
      "Ġbeyaz": 1207,
      "Ġko": 1208,
      "ĠÃ§ok": 1209,
      "00": 1210,
      "ku": 1211,
      "nÄ±z": 1212,
      "ze": 1213,
      "Ġaz": 1214,
      "ro": 1215,
      "ingle": 1216,
      "Ġsingle": 1217,
      "Ġwal": 1218,
      "ĠalÄ±ÅŁ": 1219,
      "ĠbahÃ§ey": 1220,
      "Ġkeep": 1221,
      "Ġhem": 1222,
      "ĠsarÄ±": 1223,
      "ĠsÃ¼re": 1224,
      "alnÄ±z": 1225,
      "rar": 1226,
      "ĠPick": 1227,
      "mi": 1228,
      "Ġsc": 1229,
      "maya": 1230,
      "langÄ±Ã§": 1231,
      "ĠÃ§ekmek": 1232,
      "ilece": 1233,
      "ecek": 1234,
      "Ġdown": 1235,
      "Ġbasit": 1236,
      "ÄŁi": 1237,
      "ree": 1238,
      "Ġden": 1239,
      "daÅŁ": 1240,
      "Ġokumak": 1241,
      "self": 1242,
      "Ġodak": 1243,
      "duÄŁ": 1244,
      "Ġel": 1245,
      "Ä±na": 1246,
      "Ġavoid": 1247,
      "Ġyourself": 1248,
      "Ġdoing": 1249,
      "anÄ±": 1250,
      "Ġkay": 1251,
      "cle": 1252,
      "aki": 1253,
      "kadaÅŁ": 1254,
      "ĠÅŁey": 1255,
      "Ġnew": 1256,
      "uyu": 1257,
      "lu": 1258,
      "ect": 1259,
      "reat": 1260,
      "ĠbahÃ§eyle": 1261,
      "alnÄ±zca": 1262,
      "Ġmanage": 1263,
      "Ġbi": 1264,
      "ark": 1265,
      "ĠBir": 1266,
      "ĠYalnÄ±zca": 1267,
      "ĠCreate": 1268,
      "Ġyeni": 1269,
      "ook": 1270,
      "ĠiletiÅŁim": 1271,
      "ted": 1272,
      "Ġonly": 1273,
      "amer": 1274,
      "Ġtutmak": 1275,
      "mayÄ±": 1276,
      "low": 1277,
      "ta": 1278,
      "Ġexp": 1279,
      "ace": 1280,
      "Ġeverything": 1281,
      "ion": 1282,
      "Ġsabah": 1283,
      "Ġdurum": 1284,
      "ĠalÄ±ÅŁkan": 1285,
      "asyon": 1286,
      "ni": 1287,
      "ĠpiÅŁirmek": 1288,
      "Ġyerine": 1289,
      "ĠsaÄŁ": 1290,
      "ĠSet": 1291,
      "tÄ±": 1292,
      "Ġilgilen": 1293,
      "Ġnote": 1294,
      "nderst": 1295,
      "tain": 1296,
      "oritize": 1297,
      "ĠAyÄ±n": 1298,
      "ycle": 1299,
      "Ġist": 1300,
      "elef": 1301,
      "ibi": 1302,
      "Ġgoals": 1303,
      "Ġsay": 1304,
      "Ġtack": 1305,
      "Ġuyku": 1306,
      "Ġtek": 1307,
      "ide": 1308,
      "utter": 1309,
      "ĠbaÅŁlam": 1310,
      "tan": 1311,
      "lutter": 1312,
      "ge": 1313,
      "Ġara": 1314,
      "Ġother": 1315,
      "Ġilgilenmek": 1316,
      "celikle": 1317,
      "Ġmanageable": 1318,
      "Ġscreen": 1319,
      "ĠyÃ¼zmek": 1320,
      "Ġlistening": 1321,
      "Ġak": 1322,
      "Ġodaklan": 1323,
      "Ġpro": 1324,
      "cÄ±": 1325,
      "Ġuygun": 1326,
      "Ġgibi": 1327,
      "Ġreg": 1328,
      "rou": 1329,
      "Ġthey": 1330,
      "ĠÃ¶ÄŁrenme": 1331,
      "elefon": 1332,
      "Ġsch": 1333,
      "60": 1334,
      "ct": 1335,
      "Ġdeep": 1336,
      "ĠbaÅŁlangÄ±Ã§": 1337,
      "Ġreading": 1338,
      "ticket": 1339,
      "Ġticket": 1340,
      "ĠarkadaÅŁ": 1341,
      "Ġpers": 1342,
      "ĠW": 1343,
      "Ġmomentum": 1344,
      "lant": 1345,
      "Ġyol": 1346,
      "inin": 1347,
      "ech": 1348,
      "ible": 1349,
      "ĠgeÃ§": 1350,
      "Ġsomething": 1351,
      "Ġunderst": 1352,
      "hat": 1353,
      "44": 1354,
      "ven": 1355,
      "Ġany": 1356,
      "ks": 1357,
      "ĠyaÅŁam": 1358,
      "Ġchec": 1359,
      "Ġrule": 1360,
      "Ġwake": 1361,
      "pp": 1362,
      "Ġhe": 1363,
      "book": 1364,
      "Ġsiz": 1365,
      "Ġpo": 1366,
      "ĠolduÄŁ": 1367,
      "rac": 1368,
      "lem": 1369,
      "Ġdur": 1370,
      "ahat": 1371,
      "niqu": 1372,
      "echniqu": 1373,
      "Ġdist": 1374,
      "eyahat": 1375,
      "Ġlow": 1376,
      "ular": 1377,
      "Ġlam": 1378,
      "Ġusing": 1379,
      "Ġtea": 1380,
      "dan": 1381,
      "ĠKeep": 1382,
      "ctice": 1383,
      "ĠPractice": 1384,
      "ite": 1385,
      "eri": 1386,
      "ĠgÃ¼": 1387,
      "Ġplant": 1388,
      "xt": 1389,
      "ary": 1390,
      "inize": 1391,
      "ĠdoÄŁr": 1392,
      "Ġgen": 1393,
      "Ġsess": 1394,
      "ire": 1395,
      "50": 1396,
      "Ġnotebook": 1397,
      "adan": 1398,
      "Ġkur": 1399,
      "Ġ+": 1400,
      "ĠyÃ¶ne": 1401,
      "Ġweekends": 1402,
      "Ġer": 1403,
      "pack": 1404,
      "ĠalÄ±ÅŁkanlÄ±k": 1405,
      "Ã¶rneÄŁin": 1406,
      "Ġri": 1407,
      "Ġbic": 1408,
      "Ġoff": 1409,
      "Ġmotivasyon": 1410,
      "Ġunderstand": 1411,
      "90": 1412,
      "Ġbicycle": 1413,
      "84": 1414,
      "timi": 1415,
      "Ġresp": 1416,
      "Ġsame": 1417,
      "Ġmost": 1418,
      "Ġbackpack": 1419,
      "Ġfive": 1420,
      "ĠdÃ¼ÅŁ": 1421,
      "Ġbl": 1422,
      "Ġjack": 1423,
      "alÄ±k": 1424,
      "Ġbet": 1425,
      "leme": 1426,
      "Ġjacket": 1427,
      "Ġgerek": 1428,
      "Ġscreens": 1429,
      "enc": 1430,
      "manÄ±z": 1431,
      "bilece": 1432,
      "Ġtheir": 1433,
      "Ġperson": 1434,
      "Ġprev": 1435,
      "az": 1436,
      "rioritize": 1437,
      "echnique": 1438,
      "ose": 1439,
      "Ä±p": 1440,
      "Ġtam": 1441,
      "rn": 1442,
      "Ġsw": 1443,
      "use": 1444,
      "ĠyÃ¶netimi": 1445,
      "Ġrest": 1446,
      "ong": 1447,
      "Ġprevent": 1448,
      "angi": 1449,
      "Ġschedule": 1450,
      "abilirsiniz": 1451,
      "70": 1452,
      "Ġmain": 1453,
      "ĠPrioritize": 1454,
      "uage": 1455,
      "Ġlang": 1456,
      "Ġlanguage": 1457,
      "32": 1458,
      "Ġtri": 1459,
      "ati": 1460,
      "aÄŁ": 1461,
      "Ġdon": 1462,
      "Ġseyahat": 1463,
      "dÄ±ndan": 1464,
      "akk": 1465,
      "ich": 1466,
      "Ġdes": 1467,
      "act": 1468,
      "Ġtelefon": 1469,
      "ph": 1470,
      "orning": 1471,
      "Ġener": 1472,
      "Ġmorning": 1473,
      "len": 1474,
      "Ġgel": 1475,
      "Ġkolay": 1476,
      "Ġmat": 1477,
      "Ġkar": 1478,
      "Ġdeney": 1479,
      "ĠkonuÅŁ": 1480,
      "leÅŁ": 1481,
      "85": 1482,
      "fter": 1483,
      "Ġiler": 1484,
      "Ġmake": 1485,
      "Ġimport": 1486,
      "Ġspe": 1487,
      "Ġjour": 1488,
      "Ġblue": 1489,
      "Ġcamer": 1490,
      "Ġcal": 1491,
      "ody": 1492,
      "tur": 1493,
      "Ġwhich": 1494,
      "ĠarkadaÅŁlÄ±k": 1495,
      "Ġhakk": 1496,
      "Ġtackle": 1497,
      "31": 1498,
      "akes": 1499,
      "ĠFocus": 1500,
      "Ġbody": 1501,
      "Ġedin": 1502,
      "ry": 1503,
      "ĠplanÄ±": 1504,
      "Ġafter": 1505,
      "Ġthree": 1506,
      "87": 1507,
      "ĠPa": 1508,
      "86": 1509,
      "ĠSabah": 1510,
      "anÄ±t": 1511,
      "Ġrep": 1512,
      ":**": 1513,
      "Ä±l": 1514,
      "Ġhemen": 1515,
      "ĠhakkÄ±nda": 1516,
      "89": 1517,
      "Ġall": 1518,
      "Ġkad": 1519,
      "Ġpri": 1520,
      "Ġdistrac": 1521,
      "Ġhaf": 1522,
      "ĠGÃ¼n": 1523,
      "Ġhis": 1524,
      "49": 1525,
      "ight": 1526,
      "Ġfeeling": 1527,
      "Ġactivity": 1528,
      "Ġsession": 1529,
      "ĠalÄ±ÅŁkanlÄ±klar": 1530,
      "Ġek": 1531,
      "ĠyÃ¶n": 1532,
      "Ġyapacak": 1533,
      "lemek": 1534,
      "oro": 1535,
      "odoro": 1536,
      "ces": 1537,
      "omodoro": 1538,
      "Ġbur": 1539,
      "Ġkadar": 1540,
      "ĠdÃ¼zen": 1541,
      "Ġop": 1542,
      "ast": 1543,
      "ĠaÃ§": 1544,
      "ĠyanÄ±t": 1545,
      "ĠÃ§Ä±k": 1546,
      "reath": 1547,
      "Ġjournal": 1548,
      "Ġactive": 1549,
      "kil": 1550,
      "Ã¶z": 1551,
      "Ġbreath": 1552,
      "als": 1553,
      "ĠgÃ¶r": 1554,
      "Ġphone": 1555,
      "Ġnext": 1556,
      "ward": 1557,
      "bilirsiniz": 1558,
      "ts": 1559,
      "ĠadÄ±mÄ±nÄ±z": 1560,
      "Ġwhere": 1561,
      "Ġmaintain": 1562,
      "ination": 1563,
      "ĠTh": 1564,
      "-p": 1565,
      "ating": 1566,
      "layÄ±n": 1567,
      "rnek": 1568,
      "ated": 1569,
      "ede": 1570,
      "ound": 1571,
      "Ġreduce": 1572,
      "time": 1573,
      "Ġoften": 1574,
      "Ġacc": 1575,
      "kin": 1576,
      "Ġcook": 1577,
      "ÄŁÄ±nÄ±z": 1578,
      "ĠgÃ¼nÃ¼n": 1579,
      "Ġright": 1580,
      "Ġpain": 1581,
      "Ġimportant": 1582,
      "Ġnef": 1583,
      "for": 1584,
      "Ġhow": 1585,
      "ayÄ±n": 1586,
      "Ġthings": 1587,
      "Ġro": 1588,
      "meye": 1589,
      "Ġwalk": 1590,
      "Ġstud": 1591,
      "Ġcomplete": 1592,
      "til": 1593,
      "Ġlearn": 1594,
      "rol": 1595,
      "ĠhÄ±z": 1596,
      "ĠbaÅŁlayan": 1597,
      "iner": 1598,
      "Ġolan": 1599,
      "Ġper": 1600,
      "Ġolacak": 1601,
      "Ġuse": 1602,
      "Ġolm": 1603,
      "Ġgard": 1604,
      "ance": 1605,
      "Ġsoruyu": 1606,
      "Ġsora": 1607,
      "Ġtamam": 1608,
      "Ġalan": 1609,
      "Ġitiner": 1610,
      "Ġtake": 1611,
      "ĠbÃ¶": 1612,
      "Ġyarar": 1613,
      "Ġnefes": 1614,
      "Ġclutter": 1615,
      "set": 1616,
      "Ġoverwhelmed": 1617,
      "ĠÃ¶z": 1618,
      "Ġla": 1619,
      "ĠyapÄ±n": 1620,
      "omm": 1621,
      "Ġbirinin": 1622,
      "Ġaction": 1623,
      "Ġstre": 1624,
      "Ġbelirleyin": 1625,
      "Ġaw": 1626,
      "Ġapp": 1627,
      "Ġbreaks": 1628,
      "uz": 1629,
      "ays": 1630,
      "Ġens": 1631,
      "Ġtemel": 1632,
      "ĠgÃ¼ven": 1633,
      "Ġmoving": 1634,
      "Ġbig": 1635,
      "lerinizi": 1636,
      "Ã§im": 1637,
      "emli": 1638,
      "ĠiÃ§inde": 1639,
      "Ġlamp": 1640,
      "Ġroom": 1641,
      "wn": 1642,
      "bileceÄŁi": 1643,
      "dir": 1644,
      "ĠÄ±ÅŁ": 1645,
      "-up": 1646,
      "hi": 1647,
      "Ġcheck": 1648,
      "ĠÅŁek": 1649,
      "Ġduring": 1650,
      "Ġlight": 1651,
      "ĠoluÅŁ": 1652,
      "ÅŁÄ±": 1653,
      "Ġpe": 1654,
      "saj": 1655,
      "Ġgardening": 1656,
      "ĠbiÃ§im": 1657,
      "Ġshare": 1658,
      "ĠÃĸrnek": 1659,
      "Ġtechnique": 1660,
      "Ġeas": 1661,
      "ĠÃĸncelikle": 1662,
      "Ġthing": 1663,
      "ĠbaÅŁlamak": 1664,
      "madan": 1665,
      "ĠyararlÄ±": 1666,
      "ĠyanÄ±tla": 1667,
      "rek": 1668,
      "ĠbiÃ§imde": 1669,
      "ĠsorabileceÄŁi": 1670,
      "Ġflight": 1671,
      "ĠÃĸnce": 1672,
      "ĠardÄ±ndan": 1673,
      "larÄ±nÄ±": 1674,
      "Ġcreate": 1675,
      "Ġharek": 1676,
      "ĠsÄ±": 1677,
      "Ġitinerary": 1678,
      "ĠStick": 1679,
      "Ġgood": 1680,
      "Ġoverwhelm": 1681,
      "mo": 1682,
      "Ġlo": 1683,
      "Ġfin": 1684,
      "Ġdistractions": 1685,
      "Ġconn": 1686,
      "tely": 1687,
      "Ġfocused": 1688,
      "Ġdi": 1689,
      "Ġhave": 1690,
      "Ġbox": 1691,
      "ess": 1692,
      "trol": 1693,
      "ĠÃ¶nemli": 1694,
      "ĠdeÄŁil": 1695,
      "tu": 1696,
      "lock": 1697,
      "Ġspace": 1698,
      "ĠÅŁu": 1699,
      "Ġdet": 1700,
      "Ġachi": 1701,
      "ĠdÃ¼ÅŁÃ¼n": 1702,
      "ĠtÃ¼r": 1703,
      "83": 1704,
      "Ġcommit": 1705,
      "ĠbaÅŁlayÄ±n": 1706,
      "Ġmaking": 1707,
      "cess": 1708,
      "lace": 1709,
      "Ġcompletely": 1710,
      "Ġkendi": 1711,
      "Ġcooking": 1712,
      "Ġwant": 1713,
      "ÄŁer": 1714,
      "82": 1715,
      "ĠTake": 1716,
      "Ġwhile": 1717,
      "ediÄŁ": 1718,
      "81": 1719,
      "uc": 1720,
      "Ġnet": 1721,
      "Ġuz": 1722,
      "ĠkarÅŁÄ±": 1723,
      "Ġhangi": 1724,
      "meyi": 1725,
      "eli": 1726,
      "ÄŁÄ±nÄ±": 1727,
      "yun": 1728,
      "Ġjournaling": 1729,
      "Ġpainting": 1730,
      "Ġfol": 1731,
      "rup": 1732,
      "Ġsorun": 1733,
      "Ġsig": 1734,
      "ĠÃ¼z": 1735,
      "rough": 1736,
      "Ġcamera": 1737,
      "rain": 1738,
      "edic": 1739,
      "Ã¼yÃ¼k": 1740,
      "Ġthrough": 1741,
      "Ġwat": 1742,
      "iler": 1743,
      "Ġuygulam": 1744,
      "Ġleast": 1745,
      "alar": 1746,
      "Ġhi": 1747,
      "lex": 1748,
      "ĠsayÄ±": 1749,
      "ĠPomodoro": 1750,
      "Ġdest": 1751,
      "Ġaway": 1752,
      "Ġrespond": 1753,
      "rin": 1754,
      "Ġkap": 1755,
      "ether": 1756,
      "Ġstri": 1757,
      "Ġarea": 1758,
      "Ġstudy": 1759,
      "ower": 1760,
      "Ġgreen": 1761,
      "ities": 1762,
      "lish": 1763,
      "Ġflex": 1764,
      "45": 1765,
      "iting": 1766,
      "mes": 1767,
      "ÄŁiniz": 1768,
      "ents": 1769,
      "Ġdestination": 1770,
      "ĠistediÄŁ": 1771,
      "ĠÅŁekil": 1772,
      "Ġtimes": 1773,
      "ople": 1774,
      "ellik": 1775,
      "oy": 1776,
      "Ġpeople": 1777,
      "Ġdin": 1778,
      "Ġayda": 1779,
      "Ġstrict": 1780,
      "Ġconnec": 1781,
      "Ġetkil": 1782,
      "asÄ±nÄ±": 1783,
      "meniz": 1784,
      "ĠMo": 1785,
      "Ġfinish": 1786,
      "Ġhaz": 1787,
      "Ġwhite": 1788,
      "yors": 1789,
      "Ġregular": 1790,
      "sh": 1791,
      "ils": 1792,
      "av": 1793,
      "Ġhours": 1794,
      "gy": 1795,
      "Ġfollow": 1796,
      "Ġmind": 1797,
      "Ġquestions": 1798,
      "Ġeff": 1799,
      "Ġbest": 1800,
      "Ġyak": 1801,
      "ĠAvoid": 1802,
      "Ġort": 1803,
      "we": 1804,
      "ĠgÃ¶z": 1805,
      "Ġnat": 1806,
      "Ġdedic": 1807,
      "ellow": 1808,
      "Ġama": 1809,
      "Ġyellow": 1810,
      "Ġhelps": 1811,
      "ous": 1812,
      "ix": 1813,
      "ffe": 1814,
      "ĠÅŁekilde": 1815,
      "Ġlong": 1816,
      "Ġ*": 1817,
      "erin": 1818,
      "ĠoluÅŁtur": 1819,
      "Ġyar": 1820,
      "ĠSonra": 1821,
      "ĠEÄŁer": 1822,
      "otogra": 1823,
      "Ġenti": 1824,
      "Ġentire": 1825,
      "ysic": 1826,
      "form": 1827,
      "Ġensure": 1828,
      "ylece": 1829,
      "lerini": 1830,
      "Ä±nÄ±n": 1831,
      "ĠyÃ¶ntem": 1832,
      "Ġsup": 1833,
      "ĠIn": 1834,
      "Ġkontrol": 1835,
      "eÅŁ": 1836,
      "Ġphysic": 1837,
      "Ġchange": 1838,
      "Ġdark": 1839,
      "Ġhareket": 1840,
      "ĠhazÄ±r": 1841,
      "Ġimp": 1842,
      "ass": 1843,
      "ĠMotiv": 1844,
      "Ġetkili": 1845,
      "line": 1846,
      "Ä±rak": 1847,
      "Ġess": 1848,
      "luk": 1849,
      "ĠolacaktÄ±r": 1850,
      "ĠyapÄ±": 1851,
      "Ġwalking": 1852,
      "Ġerken": 1853,
      "Ġwho": 1854,
      "Ġessenti": 1855,
      "Ġrec": 1856,
      "cut": 1857,
      "kinci": 1858,
      "ency": 1859,
      "Ġphotogra": 1860,
      "ins": 1861,
      "get": 1862,
      "ush": 1863,
      "ĠbÄ±rak": 1864,
      "Ġphotograph": 1865,
      "ĠCh": 1866,
      "ressure": 1867,
      "-pressure": 1868,
      "Ġsignal": 1869,
      "Ġdis": 1870,
      "Ġtod": 1871,
      "Ġyat": 1872,
      "Ġburn": 1873,
      "rÄ±": 1874,
      "Ġstarting": 1875,
      "ellikle": 1876,
      "Ġresponding": 1877,
      "ĠakÅŁam": 1878,
      "ĠhÄ±zlÄ±": 1879,
      "di": 1880,
      "Ġtoday": 1881,
      "ĠWhat": 1882,
      "oth": 1883,
      "Ġmesaj": 1884,
      "iff": 1885,
      "ves": 1886,
      "Ġfeels": 1887,
      "Ġphotography": 1888,
      "ĠIt": 1889,
      "udan": 1890,
      "room": 1891,
      "read": 1892,
      "Ġcool": 1893,
      "Ġvis": 1894,
      "ween": 1895,
      "likte": 1896,
      "Ġbetween": 1897,
      "Ġchun": 1898,
      "Ġduy": 1899,
      "Ġdiff": 1900,
      "Ġflexible": 1901,
      "Ġolur": 1902,
      "Ġburnout": 1903,
      "Ġilgili": 1904,
      "diÄŁ": 1905,
      "Ġenergy": 1906,
      "man": 1907,
      "Ġwater": 1908,
      "Ġtry": 1909,
      "ĠdakikalÄ±k": 1910,
      "inizde": 1911,
      "Ġfeelings": 1912,
      "Ġmatter": 1913,
      "ĠÃ¼zer": 1914,
      "ize": 1915,
      "Ġuntil": 1916,
      "denti": 1917,
      "ching": 1918,
      "pec": 1919,
      "Ġhedefler": 1920,
      "ens": 1921,
      "Ġunderstanding": 1922,
      "dentif": 1923,
      "now": 1924,
      "unda": 1925,
      "Ġtemiz": 1926,
      "ogether": 1927,
      "Ġstress": 1928,
      "lend": 1929,
      "Ġelse": 1930,
      "layÄ±": 1931,
      "Ġchunks": 1932,
      "Ġbrain": 1933,
      "Ġless": 1934,
      "Ġayar": 1935,
      "ans": 1936,
      "Ġtogether": 1937,
      "Ġactivities": 1938,
      "Ġbek": 1939,
      "Ġmess": 1940,
      "46": 1941,
      "ĠGo": 1942,
      "Ġur": 1943,
      "..": 1944,
      "ling": 1945,
      "lama": 1946,
      "ĠMotivation": 1947,
      "oose": 1948,
      "Ġbut": 1949,
      "Ġbedroom": 1950,
      "Ġgid": 1951,
      "imi": 1952,
      "Ġstay": 1953,
      "Ġinc": 1954,
      "ĠyardÄ±m": 1955,
      "Ã¼c": 1956,
      "ĠBaÅŁ": 1957,
      "mer": 1958,
      "ear": 1959,
      "ual": 1960,
      "Ġyet": 1961,
      "ĠgÃ¼venli": 1962,
      "imming": 1963,
      "aster": 1964,
      "sÄ±nÄ±z": 1965,
      "Ġswimming": 1966,
      "Ġbilg": 1967,
      "ĠTry": 1968,
      "land": 1969,
      "Ġasking": 1970,
      "Ġspeaking": 1971,
      "Ġolabilir": 1972,
      "ĠbaÅŁlayabilirsiniz": 1973,
      "mÄ±ÅŁ": 1974,
      "Ġeasi": 1975,
      "Ġphysical": 1976,
      "app": 1977,
      "ĠFri": 1978,
      "uyun": 1979,
      "leÅŁtir": 1980,
      "rate": 1981,
      "ĠkiÅŁ": 1982,
      "uk": 1983,
      "Ġimmediate": 1984,
      "ways": 1985,
      "asÄ±l": 1986,
      "Ġanything": 1987,
      "pt": 1988,
      "ĠÄ°stanbul": 1989,
      "Ġgoing": 1990,
      "ĠÃ§alÄ±ÅŁÄ±n": 1991,
      "Ġtrip": 1992,
      "Ã¼nde": 1993,
      "Ġtekrar": 1994,
      "Ġsonraki": 1995,
      "Ġnow": 1996,
      "Ġcont": 1997,
      "47": 1998,
      "Ġrela": 1999,
      "Ġmove": 2000,
      "Ġbak": 2001,
      "Ġdec": 2002,
      "ĠbÃ¼yÃ¼k": 2003,
      "Ġtickets": 2004,
      "Ġsize": 2005,
      "Ġment": 2006,
      "Ġbr": 2007,
      "Ġhisset": 2008,
      "Ġnight": 2009,
      "Ġiz": 2010,
      "'re": 2011,
      "vir": 2012,
      "Ġhigh": 2013,
      "Ġboyun": 2014,
      "Ã§ek": 2015,
      ".\"": 2016,
      "Ġbedtime": 2017,
      "Ġboyunca": 2018,
      "Ġhav": 2019,
      "onment": 2020,
      "vironment": 2021,
      "Ġrepe": 2022,
      "isi": 2023,
      "Ġpress": 2024,
      "Ġfriend": 2025,
      "Ġmu": 2026,
      "Ġmev": 2027,
      "Ġenj": 2028,
      "Ġdeneyin": 2029,
      "Ġeasier": 2030,
      "Ġnatur": 2031,
      "Ã¼t": 2032,
      "ence": 2033,
      "ĠÄ°kinci": 2034,
      "ĠÃ§Ã¶z": 2035,
      "Ġrahat": 2036,
      "Ġstep": 2037,
      "ĠPair": 2038,
      "atik": 2039,
      "Ġconf": 2040,
      "Ġenvironment": 2041,
      "Ġpressure": 2042,
      "ĠdoÄŁrudan": 2043,
      "Ġactu": 2044,
      "ffee": 2045,
      "hers": 2046,
      "Ġachiev": 2047,
      "ele": 2048,
      "Ġbetter": 2049,
      "Ġwa": 2050,
      "Ġothers": 2051,
      "Ġlar": 2052,
      "ĠadÄ±mÄ±": 2053,
      "âĢ": 2054,
      "Ġloc": 2055,
      "min": 2056,
      "Ġfix": 2057,
      "Ġmevcut": 2058,
      "lara": 2059,
      "ĠgÃ¶rev": 2060,
      "unuzu": 2061,
      "ld": 2062,
      "Ġbud": 2063,
      "Ġcoffee": 2064,
      "leyerek": 2065,
      "Ġflights": 2066,
      "cek": 2067,
      "Ġmental": 2068,
      "Ġazal": 2069,
      "Ġfocusing": 2070,
      "Ġfollowed": 2071,
      "hti": 2072,
      "eki": 2073,
      "Ġknow": 2074,
      "iy": 2075,
      "Ġopen": 2076,
      "kÃ¼": 2077,
      "dentify": 2078,
      "inden": 2079,
      "Ġful": 2080,
      "ĠÃ¶ncelikle": 2081,
      "oun": 2082,
      "ĠÃĩ": 2083,
      "ugÃ¼n": 2084,
      "Ġbirlikte": 2085,
      "kaÃ§": 2086,
      "ĠyardÄ±mcÄ±": 2087,
      "Ġenjoy": 2088,
      "ĠComm": 2089,
      "65": 2090,
      "enin": 2091,
      "ĠadÄ±mlar": 2092,
      "ĠseÃ§mek": 2093,
      "Ġbilgi": 2094,
      "Ġnok": 2095,
      "yla": 2096,
      "rÄ±ca": 2097,
      "Ġyapmaya": 2098,
      "Ġthou": 2099,
      "Ġway": 2100,
      "Ġactually": 2101,
      "Ġsuch": 2102,
      "Ã§e": 2103,
      "Ġsessions": 2104,
      "Ġeasy": 2105,
      "aps": 2106,
      "Ġachievable": 2107,
      "Ġbeh": 2108,
      "eleri": 2109,
      "atem": 2110,
      "Ġurg": 2111,
      "lamak": 2112,
      "lendir": 2113,
      "ail": 2114,
      "ger": 2115,
      "ĠsÄ±k": 2116,
      "Ġbloc": 2117,
      "Ġnon": 2118,
      "Ġthought": 2119,
      "-d": 2120,
      "ĠPause": 2121,
      "come": 2122,
      "Ġihti": 2123,
      "ĠAyrÄ±ca": 2124,
      "Ġown": 2125,
      "ital": 2126,
      "ĠseÃ§in": 2127,
      "?\"": 2128,
      "Ġpractice": 2129,
      "ĠFriendship": 2130,
      "Ġbudget": 2131,
      "Ġmaster": 2132,
      "Ġhat": 2133,
      "mayÄ±n": 2134,
      "econd": 2135,
      "ablish": 2136,
      "Ġtaking": 2137,
      "Ġhafif": 2138,
      "Ġsaatler": 2139,
      "daki": 2140,
      "ough": 2141,
      "eden": 2142,
      "ĠÃĹ": 2143,
      "Ġtan": 2144,
      "Ġhal": 2145,
      "ĠnasÄ±l": 2146,
      "Ġhard": 2147,
      "Ġsupport": 2148,
      "Ġstatem": 2149,
      "aries": 2150,
      "Ġbound": 2151,
      "Ġstick": 2152,
      "Ġdedicated": 2153,
      "ogress": 2154,
      "sts": 2155,
      "ations": 2156,
      "Ġput": 2157,
      "Ġprogress": 2158,
      "Ġfark": 2159,
      "ssible": 2160,
      "ĠÅŁun": 2161,
      "ĠKend": 2162,
      "Ġlet": 2163,
      "aring": 2164,
      "Ġyok": 2165,
      "Ġise": 2166,
      "Ġsimp": 2167,
      "Ġdef": 2168,
      "Ġsetting": 2169,
      "Ġreset": 2170,
      "Ġetmek": 2171,
      "Ġshow": 2172,
      "Ġtimer": 2173,
      "rix": 2174,
      "isen": 2175,
      "75": 2176,
      "Ġtak": 2177,
      "hower": 2178,
      "isenhower": 2179,
      "Ġreward": 2180,
      "Ġtal": 2181,
      "Ġlea": 2182,
      "maktÄ±r": 2183,
      "Ġinternal": 2184,
      "os": 2185,
      "Ġgrou": 2186,
      "siz": 2187,
      "Ġkalk": 2188,
      "ĠdoÄŁru": 2189,
      "nÄ±": 2190,
      "ran": 2191,
      "ĠChoose": 2192,
      "Ġpratik": 2193,
      "ĠadÄ±mÄ±nÄ±zÄ±": 2194,
      "ĠÄ±ÅŁÄ±k": 2195,
      "avior": 2196,
      "76": 2197,
      "Ġstop": 2198,
      "ck": 2199,
      "Ġquick": 2200,
      "Ġfre": 2201,
      "Ġbehavior": 2202,
      "Ġmis": 2203,
      "Ġair": 2204,
      "Ġactively": 2205,
      "Ġsun": 2206,
      "ĠMat": 2207,
      "load": 2208,
      "Ġkah": 2209,
      "Ġsevi": 2210,
      "sin": 2211,
      "95": 2212,
      "all": 2213,
      "ĠDay": 2214,
      "Ġkendinize": 2215,
      "Åŀ": 2216,
      "Ġcomp": 2217,
      "Ġderin": 2218,
      "enizi": 2219,
      "ĠÃ¶nceki": 2220,
      "Ġbooks": 2221,
      "ĠMatrix": 2222,
      "Ġear": 2223,
      "Ġsayede": 2224,
      "Ġchecking": 2225,
      "ora": 2226,
      "ĠsayÄ±sÄ±": 2227,
      "Ġbit": 2228,
      "ĠUy": 2229,
      "Ġboxes": 2230,
      "Ġbunu": 2231,
      "azla": 2232,
      "Ġworking": 2233,
      "luÄŁ": 2234,
      "Ġdrin": 2235,
      "Ġcalm": 2236,
      "una": 2237,
      "ĠbaÅŁarÄ±": 2238,
      "96": 2239,
      "Ġkendine": 2240,
      "ness": 2241,
      "Ġrut": 2242,
      "Ġul": 2243,
      "ĠÅŁeyi": 2244,
      "Ġmakes": 2245,
      "Ġpenc": 2246,
      "Ġfazla": 2247,
      "Ġsimply": 2248,
      "07": 2249,
      "ĠIdentify": 2250,
      "Ġshared": 2251,
      "Ġtrust": 2252,
      "48": 2253,
      "ĠtÃ¼m": 2254,
      "Ġconnection": 2255,
      "ĠbÃ¶ylece": 2256,
      "Ġkonu": 2257,
      "41": 2258,
      "miÅŁ": 2259,
      "erli": 2260,
      "Ġclar": 2261,
      "Ġger": 2262,
      "ates": 2263,
      "Ġcur": 2264,
      "ĠmÄ±": 2265,
      "Ġlif": 2266,
      "ject": 2267,
      "Ġclean": 2268,
      "Ġoverwhelming": 2269,
      "56": 2270,
      "Ġpar": 2271,
      "Ġhapp": 2272,
      "ĠaÃ§Ä±k": 2273,
      "Ġgenellikle": 2274,
      "ds": 2275,
      "Ġsan": 2276,
      "Ġhay": 2277,
      "ĠSadece": 2278,
      "ready": 2279,
      "ĠolduÄŁu": 2280,
      "Ġli": 2281,
      "acaÄŁ": 2282,
      "ĠulaÅŁ": 2283,
      "Ġyor": 2284,
      "Ġfew": 2285,
      "Ġsystem": 2286,
      "ĠsÄ±cak": 2287,
      "Ġenerj": 2288,
      "Ġkayd": 2289,
      "ĠEisenhower": 2290,
      "Ġspeak": 2291,
      "Ġspot": 2292,
      "Ġag": 2293,
      "ĠbaÄŁ": 2294,
      "Ġalready": 2295,
      "Ġinterrup": 2296,
      "09": 2297,
      "Ġval": 2298,
      "Ġadd": 2299,
      "Ġtrans": 2300,
      "formation": 2301,
      "Ġala": 2302,
      ").": 2303,
      "43": 2304,
      "Ġfind": 2305,
      "masÄ±": 2306,
      "Ġwaiting": 2307,
      "Ġperf": 2308,
      "Ġinformation": 2309,
      "abilece": 2310,
      "laÅŁtÄ±r": 2311,
      "int": 2312,
      "Ġunut": 2313,
      "elim": 2314,
      "ĠbirkaÃ§": 2315,
      "Ġjackets": 2316,
      "row": 2317,
      "side": 2318,
      "Ġdays": 2319,
      "Ġstatements": 2320,
      "42": 2321,
      "79": 2322,
      "55": 2323,
      "mey": 2324,
      "Ġaktiv": 2325,
      "06": 2326,
      "Ġlarge": 2327,
      "iye": 2328,
      "itiate": 2329,
      "Ġfriends": 2330,
      "Ġdu": 2331,
      "ikk": 2332,
      "yÄ±": 2333,
      "-in": 2334,
      "Ġlisten": 2335,
      "layÄ±p": 2336,
      "sk": 2337,
      "Ġter": 2338,
      "Ã¼nÃ¼": 2339,
      "Ġinterest": 2340,
      "unun": 2341,
      "Ġrelax": 2342,
      "Ġbeing": 2343,
      "ĠMake": 2344,
      "Ġgetting": 2345,
      "ĠsaÄŁlar": 2346,
      "yon": 2347,
      "ign": 2348,
      "Ġbooking": 2349,
      "05": 2350,
      "Ġseviy": 2351,
      "Ġdoable": 2352,
      "other": 2353,
      "Ġwind": 2354,
      "Ġbad": 2355,
      "af": 2356,
      "Ġolmak": 2357,
      "Ġancak": 2358,
      "Ġstres": 2359,
      "Ġwaking": 2360,
      "Ġplants": 2361,
      "ended": 2362,
      "ÄŁini": 2363,
      "bet": 2364,
      "Ġstret": 2365,
      "Ġexpress": 2366,
      "yorsanÄ±z": 2367,
      "hy": 2368,
      "77": 2369,
      "tik": 2370,
      "larÄ±nÄ±z": 2371,
      "akin": 2372,
      "ĠartÄ±r": 2373,
      "Ġboth": 2374,
      "Ġwithin": 2375,
      "Ġkamer": 2376,
      "59": 2377,
      "Ã¼l": 2378,
      "dÄ±ÄŁÄ±nÄ±z": 2379,
      "Ġboundaries": 2380,
      "Ġsets": 2381,
      "Ġpencils": 2382,
      "66": 2383,
      "ense": 2384,
      "Ġmuch": 2385,
      "Ġlife": 2386,
      "Ġprogram": 2387,
      "ĠÃĸrneÄŁin": 2388,
      "ones": 2389,
      "Ġtamamen": 2390,
      "lÄ±ÄŁÄ±": 2391,
      "Ġallow": 2392,
      "Ġdurumu": 2393,
      "endar": 2394,
      "ĠgeÃ§ir": 2395,
      "Ġtrig": 2396,
      "Ġeras": 2397,
      "Ġuzun": 2398,
      "ex": 2399,
      "ĠgerÃ§ek": 2400,
      "ult": 2401,
      "Ġeffort": 2402,
      "Ġusu": 2403,
      "Ġerasers": 2404,
      "Ġtelefonunuz": 2405,
      "raz": 2406,
      "less": 2407,
      "ĠÅŁeyler": 2408,
      "Ġanother": 2409,
      "Ġdra": 2410,
      "Ġthoughts": 2411,
      "Ġnotebooks": 2412,
      "Ġkapat": 2413,
      "Ġsur": 2414,
      "esi": 2415,
      "Ġtur": 2416,
      "ĠdÄ±ÅŁ": 2417,
      "ulate": 2418,
      "Ġbelirlemek": 2419,
      "Ġgenu": 2420,
      "Ġreal": 2421,
      "Ġcontact": 2422,
      "Ġgra": 2423,
      "04": 2424,
      "Ġpack": 2425,
      "ĠolduÄŁunu": 2426,
      "Ġbackpacks": 2427,
      "ĠAsk": 2428,
      "mor": 2429,
      "Ġbicycles": 2430,
      "deki": 2431,
      "Ġho": 2432,
      "Ġthere": 2433,
      "bir": 2434,
      "Ġclock": 2435,
      "ĠÄ±ÅŁÄ±": 2436,
      ".,": 2437,
      "Ġaut": 2438,
      "Ġtakes": 2439,
      "Ġearly": 2440,
      "Ġsizi": 2441,
      "Ġnokt": 2442,
      "stant": 2443,
      "âĢĶ": 2444,
      "Ġdetay": 2445,
      "Ġpay": 2446,
      "Ġcalendar": 2447,
      "Ã¼nkÃ¼": 2448,
      "Ġneeds": 2449,
      "tes": 2450,
      "ebilir": 2451,
      "ulti": 2452,
      "Ġlocal": 2453,
      "ĠdÃ¶": 2454,
      "ĠseÃ§en": 2455,
      "Ġconversations": 2456,
      "99": 2457,
      "sp": 2458,
      "08": 2459,
      "Ġdri": 2460,
      "Ġbulun": 2461,
      "erv": 2462,
      "Ġlamps": 2463,
      "Ä±lÄ±": 2464,
      "Ġexact": 2465,
      "ĠsaÄŁlay": 2466,
      "Ġtackling": 2467,
      "Ãĸ": 2468,
      "tif": 2469,
      "Ġblocks": 2470,
      "Ġunex": 2471,
      "Ġkey": 2472,
      "larÄ±n": 2473,
      "Ġmulti": 2474,
      "pected": 2475,
      "ĠalÄ±p": 2476,
      "Ġmessage": 2477,
      "ĠThe": 2478,
      "Ġunexpected": 2479,
      "ama": 2480,
      "Ġnaturally": 2481,
      "Ġenough": 2482,
      "go": 2483,
      "Ġadv": 2484,
      "ĠdeÄŁer": 2485,
      "Ġhar": 2486,
      "Ġhot": 2487,
      "ĠInitiate": 2488,
      "Ġthin": 2489,
      "ikkat": 2490,
      "ase": 2491,
      "abil": 2492,
      "ĠÃĸÄŁ": 2493,
      "Ġwords": 2494,
      "ĠEv": 2495,
      "Ġthose": 2496,
      "Ġzorluk": 2497,
      "ĠaynÄ±": 2498,
      "ĠAd": 2499,
      "Ġconce": 2500,
      "Ġdeclutter": 2501,
      "ause": 2502,
      "ies": 2503,
      "ersiz": 2504,
      "elf": 2505,
      "ĠyÃ¼k": 2506,
      "ushing": 2507,
      "sÄ±nÄ±": 2508,
      "ĠDown": 2509,
      "Ġessential": 2510,
      "Ġask": 2511,
      "plement": 2512,
      ".g": 2513,
      "Ġide": 2514,
      "iet": 2515,
      "alth": 2516,
      "rarak": 2517,
      "ĠÅŀ": 2518,
      "Ġhas": 2519,
      "ĠDownload": 2520,
      "Ġentirely": 2521,
      "Ġsuyun": 2522,
      "'n": 2523,
      "Ġbiri": 2524,
      "57": 2525,
      "ĠyÃ¼zme": 2526,
      "onn": 2527,
      "Ġincel": 2528,
      "ez": 2529,
      "Ġproduc": 2530,
      "ĠIm": 2531,
      "ayan": 2532,
      "Ã§a": 2533,
      "69": 2534,
      "ĠolmalÄ±": 2535,
      "Ġdesk": 2536,
      "orage": 2537,
      "Ġurgent": 2538,
      "ĠodaklanÄ±n": 2539,
      "Ġimpro": 2540,
      "Ġautom": 2541,
      "uly": 2542,
      "Ġgece": 2543,
      "Ġgl": 2544,
      "-ended": 2545,
      "Ġdisc": 2546,
      "Ġtruly": 2547,
      "ĠKÃ¼Ã§Ã¼k": 2548,
      "Ġcare": 2549,
      "Ġhotel": 2550,
      "ost": 2551,
      "Ġsee": 2552,
      "Ġexist": 2553,
      "Ġstorage": 2554,
      "Ġlast": 2555,
      "Ġdiffer": 2556,
      "ĠAl": 2557,
      "ime": 2558,
      "eyi": 2559,
      "stablish": 2560,
      "Ġtoo": 2561,
      "Ġgive": 2562,
      "ĠÃ¼zerine": 2563,
      "Ġadvance": 2564,
      "Ġusually": 2565,
      "67": 2566,
      "Ġhealth": 2567,
      "Ġdig": 2568,
      "Ġbecome": 2569,
      "Ġdrinking": 2570,
      "Ġses": 2571,
      "ĠÃ¶zel": 2572,
      "Ġaside": 2573,
      "ĠYes": 2574,
      "ĠÃ§Ã¼nkÃ¼": 2575,
      "Ġchanges": 2576,
      "ĠyakÄ±n": 2577,
      "Ġoutside": 2578,
      "ĠEstablish": 2579,
      "**:": 2580,
      "gun": 2581,
      "Ã¼nÃ¼z": 2582,
      "Ġeg": 2583,
      "lerin": 2584,
      "eleb": 2585,
      "ĠÅŁunlar": 2586,
      "Ġremo": 2587,
      "lud": 2588,
      "lere": 2589,
      "ĠalÄ±n": 2590,
      "cial": 2591,
      "ould": 2592,
      "Ġdrawer": 2593,
      "iyor": 2594,
      "Ġap": 2595,
      "Ġmaps": 2596,
      "ently": 2597,
      "alarÄ±": 2598,
      "Ġrequ": 2599,
      "Ġexisting": 2600,
      "Ġuyum": 2601,
      "Ġyeterli": 2602,
      "eye": 2603,
      "omp": 2604,
      "ĠgÃ¶st": 2605,
      "ĠGÃ¼nlÃ¼k": 2606,
      "idir": 2607,
      "Ġmatters": 2608,
      "Ġoffline": 2609,
      "Ġglass": 2610,
      "Ġdel": 2611,
      "Ġyan": 2612,
      "oplam": 2613,
      "97": 2614,
      "Ġorganize": 2615,
      "Ġautoma": 2616,
      "Ġeye": 2617,
      "ĠbaÅŁla": 2618,
      "Ġeng": 2619,
      "thod": 2620,
      "Ġpart": 2621,
      "Ġmethod": 2622,
      "Ġass": 2623,
      "Ġdoes": 2624,
      "Ġalways": 2625,
      "malÄ±": 2626,
      "ĠDaha": 2627,
      "Ġegz": 2628,
      "dÄ±n": 2629,
      "Ġsharing": 2630,
      "ĠImplement": 2631,
      "mesi": 2632,
      "ĠpaylaÅŁ": 2633,
      "Ġsecond": 2634,
      "eve": 2635,
      "Ä±nÄ±za": 2636,
      "Ġneden": 2637,
      "ndaki": 2638,
      "Ġclo": 2639,
      "Ġkor": 2640,
      "Ġtopic": 2641,
      "Ġplace": 2642,
      "vam": 2643,
      "Ã¶r": 2644,
      "Ġclearly": 2645,
      "Ġsaying": 2646,
      "Ġprocess": 2647,
      "ber": 2648,
      "tention": 2649,
      "'in": 2650,
      "),": 2651,
      "tin": 2652,
      "ather": 2653,
      "face": 2654,
      "Ġma": 2655,
      "Ġlat": 2656,
      "ĠdoÄŁal": 2657,
      "Ġinclud": 2658,
      "Ġilgi": 2659,
      "ĠiÅŁe": 2660,
      "onnect": 2661,
      "Ġbile": 2662,
      "Ġgir": 2663,
      "Ġsol": 2664,
      "Ġrutin": 2665,
      "Ġx": 2666,
      "ilen": 2667,
      "vaÅŁ": 2668,
      "Ġones": 2669,
      "Ġkeli": 2670,
      "Ġcameras": 2671,
      "Ġsonu": 2672,
      "ĠÃ§eki": 2673,
      "Ġdikkat": 2674,
      "su": 2675,
      "larÄ±nÄ±zÄ±": 2676,
      "ĠThis": 2677,
      "Ġmi": 2678,
      "Ġemo": 2679,
      "Ġegzersiz": 2680,
      "red": 2681,
      "Ġceleb": 2682,
      "ĠvÃ¼c": 2683,
      "Ġavoiding": 2684,
      "Ġdifferent": 2685,
      "Ġdigital": 2686,
      "Ġend": 2687,
      "onin": 2688,
      "ilt": 2689,
      "Ġzi": 2690,
      "ĠkullanÄ±n": 2691,
      "leye": 2692,
      "ĠĠ": 2693,
      "ĠÄ±": 2694,
      "Ġsizin": 2695,
      "ÅŁa": 2696,
      "Ġlater": 2697,
      "lÃ¼": 2698,
      "ood": 2699,
      "ĠyÃ¼rÃ¼yÃ¼ÅŁe": 2700,
      "ĠTechnique": 2701,
      "Ġalmak": 2702,
      "Ġdevam": 2703,
      "ĠbugÃ¼n": 2704,
      "Ġregulate": 2705,
      "Ġkendinizi": 2706,
      "ĠvÃ¼cud": 2707,
      "Ġcomes": 2708,
      "ĠÃ§iz": 2709,
      "ments": 2710,
      "bb": 2711,
      "Ġkayn": 2712,
      "ici": 2713,
      "Ġproject": 2714,
      "Ġolun": 2715,
      "Ġmel": 2716,
      "anÄ±n": 2717,
      "Ġhayat": 2718,
      "Ġconsistently": 2719,
      "ercis": 2720,
      "Ġwr": 2721,
      "Ġhand": 2722,
      "icro": 2723,
      "Ġpossible": 2724,
      "ĠÃ§Ã¶zÃ¼m": 2725,
      "Ġsort": 2726,
      "ĠkayÄ±ta": 2727,
      "Ġprioritize": 2728,
      "ĠyÃ¼zecek": 2729,
      "-t": 2730,
      "Ġmus": 2731,
      "Ġessentials": 2732,
      "gor": 2733,
      "Ġbil": 2734,
      "irim": 2735,
      "Ġinterv": 2736,
      "Ġsurface": 2737,
      "Ġob": 2738,
      "sÄ±nda": 2739,
      "Ġreach": 2740,
      "Ġdeta": 2741,
      "Ġwhole": 2742,
      "Ġsk": 2743,
      "Ġgi": 2744,
      "Ġmelat": 2745,
      "Ġotur": 2746,
      "Ġheard": 2747,
      "ĠÃĸÄŁren": 2748,
      "ommod": 2749,
      "Ġortam": 2750,
      "Ġform": 2751,
      "Ä±cÄ±": 2752,
      "Ġkitab": 2753,
      "reating": 2754,
      "Ġmelatonin": 2755,
      "ogle": 2756,
      "ĠRes": 2757,
      "leyip": 2758,
      "anÄ±zÄ±": 2759,
      "Ġregard": 2760,
      "\":": 2761,
      ").Ċ": 2762,
      "goti": 2763,
      "ĠyavaÅŁ": 2764,
      "Ġkaz": 2765,
      "inizin": 2766,
      "Ġgelecek": 2767,
      "Ġfull": 2768,
      "-ne": 2769,
      "Ġaccommod": 2770,
      "Ġswim": 2771,
      "Ġsocial": 2772,
      "lying": 2773,
      "Ġmateri": 2774,
      "Ġprices": 2775,
      "ĠÅŁunlardÄ±r": 2776,
      "Ġcoun": 2777,
      "Ġkahve": 2778,
      "ĠList": 2779,
      "ĠeÄŁ": 2780,
      "03": 2781,
      "Ä±la": 2782,
      "Ġekran": 2783,
      "iden": 2784,
      "ĠgÃ¼Ã§": 2785,
      "-negoti": 2786,
      "ĠLear": 2787,
      "Ġdiffic": 2788,
      "Ġintervals": 2789,
      "no": 2790,
      "Ġevening": 2791,
      "Ġputting": 2792,
      "Ġskill": 2793,
      "ÄŁÄ±nÄ±zÄ±": 2794,
      "Ġkullanarak": 2795,
      "opt": 2796,
      "Ġdifficult": 2797,
      "ĠĠĊ": 2798,
      "Ġoffer": 2799,
      "120": 2800,
      "54": 2801,
      "-negotiable": 2802,
      "64": 2803,
      "Ġcelebrate": 2804,
      "lÄ±ÅŁ": 2805,
      "oÄŁ": 2806,
      "Ġsabit": 2807,
      "Ġsense": 2808,
      "izing": 2809,
      "tim": 2810,
      "-s": 2811,
      "landÄ±": 2812,
      "'ve": 2813,
      ",\"": 2814,
      "val": 2815,
      "Ġes": 2816,
      "tek": 2817,
      "Ġprioriti": 2818,
      "Ġstretching": 2819,
      "Ġbuilds": 2820,
      "Ġbursts": 2821,
      "Ġverin": 2822,
      "Ġexactly": 2823,
      "Ä±ndan": 2824,
      "Ġbreathing": 2825,
      "128": 2826,
      "210": 2827,
      "ha": 2828,
      "Ġpres": 2829,
      "...\"": 2830,
      "74": 2831,
      "cing": 2832,
      "ĠTo": 2833,
      "Ġbiraz": 2834,
      "ĠadÄ±mlarÄ±": 2835,
      "lerden": 2836,
      "ĠyaptÄ±": 2837,
      "ĠCommunication": 2838,
      "layarak": 2839,
      "Ġapps": 2840,
      "'i": 2841,
      "130": 2842,
      "Ġactions": 2843,
      "ouse": 2844,
      "ĠiÃ§er": 2845,
      "Ġexercis": 2846,
      "ĠgÃ¶nder": 2847,
      "110": 2848,
      "und": 2849,
      "Ġfixed": 2850,
      "Ġaround": 2851,
      "Ġkonuyu": 2852,
      "Ġimprove": 2853,
      "fort": 2854,
      "Ġhouse": 2855,
      "Ġregularly": 2856,
      "ĠaraÃ§": 2857,
      "Ġsoru": 2858,
      "cih": 2859,
      "Ġfree": 2860,
      "ĠseÃ§enek": 2861,
      "02": 2862,
      "Ġdates": 2863,
      "ĠbahÃ§e": 2864,
      "Ġsab": 2865,
      "Ġki": 2866,
      "Ġifad": 2867,
      "irm": 2868,
      "esini": 2869,
      "Ä±mÄ±": 2870,
      "-f": 2871,
      "mam": 2872,
      "Ġagain": 2873,
      "Ġthroughout": 2874,
      "Ġconcept": 2875,
      "Ġrequire": 2876,
      "ĠArdÄ±ndan": 2877,
      "Ġsmaller": 2878,
      "Ġrespon": 2879,
      "Ġyoksa": 2880,
      "Ġmaterial": 2881,
      "Ġlevel": 2882,
      "Ġtercih": 2883,
      "Ġsaid": 2884,
      "Ġkeeping": 2885,
      "Ġbriefly": 2886,
      "Ġkat": 2887,
      "Ġazalt": 2888,
      "inizden": 2889,
      "sanÄ±z": 2890,
      "Ġhik": 2891,
      "ĠAdopt": 2892,
      "Ġquickly": 2893,
      "Ġbat": 2894,
      "Ġkez": 2895,
      "Ġsoh": 2896,
      "lardan": 2897,
      "Ġdone": 2898,
      "Ġcontain": 2899,
      "ĠkolaylaÅŁtÄ±r": 2900,
      "ategor": 2901,
      "Ġyeme": 2902,
      "Ġbreaking": 2903,
      "ĠJ": 2904,
      "ĠgÃ¶rÃ¼n": 2905,
      "ĠAralÄ±k": 2906,
      "Ġprob": 2907,
      "Ġten": 2908,
      "Ġyara": 2909,
      "arken": 2910,
      "ove": 2911,
      "ĠdeÄŁiÅŁ": 2912,
      "94": 2913,
      "Ġpla": 2914,
      "ration": 2915,
      "ĠHaf": 2916,
      "Ġtrack": 2917,
      "sini": 2918,
      "Ġreduces": 2919,
      "ĠSiz": 2920,
      "manÄ±zÄ±": 2921,
      "ĠyapmayÄ±": 2922,
      "Ġsam": 2923,
      "ĠgÃ¼neÅŁ": 2924,
      "ĠhatÄ±r": 2925,
      "larm": 2926,
      "Ġyorgun": 2927,
      "Ġede": 2928,
      "mektir": 2929,
      "01": 2930,
      "Ġalarm": 2931,
      "Ġachieve": 2932,
      "Ġuzak": 2933,
      "arm": 2934,
      "itive": 2935,
      "ĠBaÅŁlangÄ±Ã§": 2936,
      "ĠistediÄŁinizi": 2937,
      "Ġlook": 2938,
      "Ġconsistency": 2939,
      "each": 2940,
      "eth": 2941,
      "Ġhafta": 2942,
      "stantly": 2943,
      "Ġcategor": 2944,
      "Ġclarif": 2945,
      "Ġrit": 2946,
      "310": 2947,
      "Ġmed": 2948,
      "locking": 2949,
      "Ġtekn": 2950,
      "Ġcurren": 2951,
      "Ġgroup": 2952,
      "Ġaktivit": 2953,
      "230": 2954,
      "ĠsÃ¶": 2955,
      "yac": 2956,
      "Ä±nÄ±zda": 2957,
      "Ġiy": 2958,
      "sÄ±z": 2959,
      "Ġplans": 2960,
      "Ġmultiple": 2961,
      "Ġseconds": 2962,
      "Ġgerekir": 2963,
      "ebilirsiniz": 2964,
      "Ġregardless": 2965,
      "yorsunuz": 2966,
      "kli": 2967,
      "Ġsamimi": 2968,
      "Bu": 2969,
      "Ġpoz": 2970,
      "lemeyi": 2971,
      "Ġproblem": 2972,
      "kÃ¼n": 2973,
      "Ġdestek": 2974,
      "sÄ±n": 2975,
      "rast": 2976,
      "'ya": 2977,
      "Ġdire": 2978,
      "ually": 2979,
      "320": 2980,
      "led": 2981,
      "Ä±lan": 2982,
      "diÄŁiniz": 2983,
      "Ġrepeating": 2984,
      "Ġold": 2985,
      "ĠdÃ¶n": 2986,
      "Pomodoro": 2987,
      "Ġmut": 2988,
      "ÄŁÄ±na": 2989,
      "Ġuyan": 2990,
      "ĠBel": 2991,
      "-down": 2992,
      "eh": 2993,
      "sed": 2994,
      "Ġanlat": 2995,
      "tire": 2996,
      "Ġdiye": 2997,
      "ending": 2998,
      "Ġclearing": 2999,
      "Ġtari": 3000,
      "Ġfati": 3001,
      "ĠCon": 3002,
      "220": 3003,
      "Ġgenuine": 3004,
      "Ġteeth": 3005,
      "Ġfatigue": 3006,
      "228": 3007,
      "Ġgiving": 3008,
      "ĠListen": 3009,
      "Ġinterac": 3010,
      "Ġkamera": 3011,
      "328": 3012,
      "Ġkalan": 3013,
      "luÄŁu": 3014,
      "edul": 3015,
      "aba": 3016,
      "Ġiniti": 3017,
      "ĠGoogle": 3018,
      "Ġkind": 3019,
      "Ġphoto": 3020,
      "ĠyaklaÅŁ": 3021,
      "Ġfresh": 3022,
      "ise": 3023,
      "Ġcurrent": 3024,
      "ĠÃ¶ncelik": 3025,
      "ocrast": 3026,
      "Ġtid": 3027,
      "Ġattention": 3028,
      "'Ä±n": 3029,
      "Ġblock": 3030,
      "330": 3031,
      "imin": 3032,
      "Ġprocrast": 3033,
      "laming": 3034,
      "irecek": 3035,
      "ining": 3036,
      "Ġgetir": 3037,
      "ĠdÄ±ÅŁarÄ±": 3038,
      "space": 3039,
      "Ġpass": 3040,
      "Ġblaming": 3041,
      "Ġduv": 3042,
      "Ġnever": 3043,
      "emove": 3044,
      "Ġweather": 3045,
      "masÄ±nÄ±": 3046,
      "tional": 3047,
      "Ġbrief": 3048,
      "lest": 3049,
      "Ġyaparak": 3050,
      "Ġquiet": 3051,
      "Ġleave": 3052,
      "Ġautomatic": 3053,
      "68": 3054,
      "ĠyÃ¼rÃ¼": 3055,
      "Ġihtiyac": 3056,
      "123": 3057,
      "Ġbins": 3058,
      "Ġsmallest": 3059,
      "chang": 3060,
      "vice": 3061,
      "liÄŁi": 3062,
      "ĠbahÃ§eniz": 3063,
      "Ġbeca": 3064,
      "tane": 3065,
      "ĠLearning": 3066,
      "ĠBÃ¶": 3067,
      "Ġschedul": 3068,
      "Ġbecause": 3069,
      "ĠEach": 3070,
      "Ġyolu": 3071,
      "Ġaccomp": 3072,
      "Ġtalk": 3073,
      "Ġtrigger": 3074,
      "Ġaccomplish": 3075,
      "yaÃ§": 3076,
      "Ġduyg": 3077,
      "Ġilerlem": 3078,
      "fet": 3079,
      "meyin": 3080,
      "Ġvisual": 3081,
      "ĠnoktasÄ±": 3082,
      "ĠÄ°zmir": 3083,
      "Ġsohbet": 3084,
      "ĠConsist": 3085,
      "Ġcycle": 3086,
      "Ġeffec": 3087,
      "cision": 3088,
      "Ġkelim": 3089,
      "Ġbrushing": 3090,
      "ĠRemove": 3091,
      "tar": 3092,
      "Ġmovement": 3093,
      "ĠCommit": 3094,
      "ileri": 3095,
      "Ġcompleting": 3096,
      "Ġhobb": 3097,
      "its": 3098,
      "114": 3099,
      "Ġperfect": 3100,
      "Ġtav": 3101,
      "mem": 3102,
      "Ġoptions": 3103,
      "ĠAlways": 3104,
      "Ã¼ne": 3105,
      "Ã¼mkÃ¼n": 3106,
      "sion": 3107,
      "Ġsaatlerinde": 3108,
      "ĠÃ¶neriler": 3109,
      "ĠRep": 3110,
      "ĠistediÄŁiniz": 3111,
      "58": 3112,
      "ÄŁinizi": 3113,
      "Ġexchang": 3114,
      "Ġexper": 3115,
      "ĠgÃ¶ster": 3116,
      "ana": 3117,
      "Ġsah": 3118,
      "Ġmemor": 3119,
      "Ġyerel": 3120,
      "ĠfarklÄ±": 3121,
      "Ġemin": 3122,
      "ĠAncak": 3123,
      "Ġconfirm": 3124,
      "Ġcar": 3125,
      "Ġsit": 3126,
      "aret": 3127,
      "inizdeki": 3128,
      "mez": 3129,
      "ilar": 3130,
      "ĠApp": 3131,
      "Ġsev": 3132,
      "Ġworkspace": 3133,
      "Ġkayded": 3134,
      "sing": 3135,
      "asÄ±na": 3136,
      "Ġcluttered": 3137,
      "Ġrelaxing": 3138,
      "124": 3139,
      "ĠUyku": 3140,
      "oring": 3141,
      "Ġsimilar": 3142,
      "-blocking": 3143,
      "'nÄ±n": 3144,
      "113": 3145,
      "Ġema": 3146,
      "Ġdecision": 3147,
      "ĠseÃ§ip": 3148,
      "Ġpos": 3149,
      "abileceÄŁiniz": 3150,
      "Ġbitir": 3151,
      "ĠTelefon": 3152,
      "ĠsonuÃ§": 3153,
      "Ġsil": 3154,
      "Ġdene": 3155,
      "Ġbal": 3156,
      "uring": 3157,
      "ĠTime": 3158,
      "ĠGet": 3159,
      "Ġgereken": 3160,
      "Ã¼cre": 3161,
      "ĠkiÅŁi": 3162,
      "Ġsep": 3163,
      "bel": 3164,
      "Ġca": 3165,
      "Ġwarm": 3166,
      "ĠYat": 3167,
      "larla": 3168,
      "Ġeasily": 3169,
      "Ġinterests": 3170,
      "men": 3171,
      "otal": 3172,
      "Ġzone": 3173,
      "ĠbÄ±rakÄ±n": 3174,
      "98": 3175,
      "ĠBÃ¶ylece": 3176,
      "Ġpositive": 3177,
      "Ġdesire": 3178,
      "Ġpresent": 3179,
      "Ġlim": 3180,
      "Ġdoesn": 3181,
      "Ġind": 3182,
      "Ġonu": 3183,
      "Ġsaatte": 3184,
      "ffer": 3185,
      "ĠsÃ¼rec": 3186,
      "ĠApply": 3187,
      "-st": 3188,
      "Ġgit": 3189,
      "Ġgets": 3190,
      "izce": 3191,
      "Ġgidecek": 3192,
      "view": 3193,
      "Ġbased": 3194,
      "Ġresponse": 3195,
      "213": 3196,
      "mesini": 3197,
      "ĠihtiyaÃ§": 3198,
      "Ġmakin": 3199,
      "Ġenerji": 3200,
      "ĠKon": 3201,
      "Ġlevels": 3202,
      "ĠiÅŁlem": 3203,
      "Ġfully": 3204,
      "ĠÃĸÄŁrenme": 3205,
      "Ġcl": 3206,
      "Ġexperien": 3207,
      "Ġwin": 3208,
      "lÄ±ÄŁÄ±nÄ±": 3209,
      "ĠRule": 3210,
      "ously": 3211,
      "Ġbuilding": 3212,
      "landÄ±r": 3213,
      "187": 3214,
      "Ġelimin": 3215,
      "ĠKendi": 3216,
      "yn": 3217,
      "Ġgu": 3218,
      "eyin": 3219,
      "ĠAnswer": 3220,
      "Ġdakikada": 3221,
      "two": 3222,
      "ĠReplace": 3223,
      "Ġreplace": 3224,
      "Ġinterrupting": 3225,
      "larÄ±na": 3226,
      "ĠbÃ¶l": 3227,
      "taki": 3228,
      "ĠToplam": 3229,
      "Ġcomfort": 3230,
      "Ġmin": 3231,
      "Ã¼s": 3232,
      "ĠPack": 3233,
      "earch": 3234,
      "Ġshould": 3235,
      "ĠÃ¼cre": 3236,
      "tiÄŁiniz": 3237,
      "Ġlower": 3238,
      "Ġpoint": 3239,
      "Ġtransport": 3240,
      "ĠkeÅŁ": 3241,
      "ĠsÄ±ra": 3242,
      "ĠArkadaÅŁ": 3243,
      "'e": 3244,
      "ÄŁÄ±nda": 3245,
      "ection": 3246,
      "Ġsorting": 3247,
      "323": 3248,
      "bu": 3249,
      "223": 3250,
      "Ġreview": 3251,
      "Ġbackup": 3252,
      "ĠSizin": 3253,
      "ĠMe": 3254,
      "Ġkara": 3255,
      "Ġkoy": 3256,
      "Ġteknik": 3257,
      "tsiz": 3258,
      "cul": 3259,
      "Ġprocrastination": 3260,
      "Ġbecomes": 3261,
      "313": 3262,
      "Ġreli": 3263,
      "imdi": 3264,
      "Ġprevents": 3265,
      "78": 3266,
      "let": 3267,
      "ÄŁÄ±n": 3268,
      "dur": 3269,
      "istem": 3270,
      "ĠyaÅŁ": 3271,
      "Ġext": 3272,
      "Ġfinishing": 3273,
      "Ġhava": 3274,
      "ĠZaman": 3275,
      "Ġkaynak": 3276,
      "umara": 3277,
      "Ġturning": 3278,
      "340": 3279,
      "urken": 3280,
      "Ġsonunda": 3281,
      "Ġbelirli": 3282,
      "san": 3283,
      "Ġgenel": 3284,
      "ĠboÅŁ": 3285,
      "Ġexercise": 3286,
      "ĠÄ°n": 3287,
      "chor": 3288,
      "Ġgeri": 3289,
      "alÄ±m": 3290,
      "ĠgÃ¶rÃ¼ÅŁ": 3291,
      "ĠunutmayÄ±n": 3292,
      "letiÅŁim": 3293,
      "aÅŁÄ±k": 3294,
      "185": 3295,
      "iÄŁer": 3296,
      "Ġdesign": 3297,
      "410": 3298,
      "Ġmet": 3299,
      "186": 3300,
      "?Ċ": 3301,
      "214": 3302,
      "224": 3303,
      "Ġwins": 3304,
      "kanlÄ±k": 3305,
      "ĠkayÄ±tta": 3306,
      "uzur": 3307,
      "Ġmusic": 3308,
      "127": 3309,
      "ĠsaÄŁlÄ±k": 3310,
      "ĠdÃ¼ÅŁÃ¼nÃ¼n": 3311,
      "Ġcleaning": 3312,
      "Ġcas": 3313,
      "ĠmÃ¼mkÃ¼n": 3314,
      "gil": 3315,
      "hen": 3316,
      "mel": 3317,
      "Ġref": 3318,
      "Ä±rken": 3319,
      "Ġensuring": 3320,
      "fe": 3321,
      "ĠadÄ±mda": 3322,
      "Ġuyk": 3323,
      "lerle": 3324,
      "Ġkural": 3325,
      "Ġkab": 3326,
      "lines": 3327,
      "Ġtutun": 3328,
      "Ġbilgiler": 3329,
      "Ġshelf": 3330,
      "125": 3331,
      "189": 3332,
      "Ġprioritiz": 3333,
      "Ġta": 3334,
      "ĠayÄ±rÄ±n": 3335,
      "tification": 3336,
      "be": 3337,
      "Ġfik": 3338,
      "thm": 3339,
      "ages": 3340,
      "hythm": 3341,
      "ality": 3342,
      "129": 3343,
      "isay": 3344,
      "Ġder": 3345,
      "arika": 3346,
      "Ġmood": 3347,
      "Ġrhythm": 3348,
      "ĠÃ§Ä±kacak": 3349,
      "126": 3350,
      "ĠkonuÅŁma": 3351,
      "Ġolma": 3352,
      "Ġaccess": 3353,
      "Ġtakip": 3354,
      "Ġsuyu": 3355,
      "Ġalt": 3356,
      "Ġatt": 3357,
      "ĠÃ¼cretsiz": 3358,
      "324": 3359,
      "Ġyere": 3360,
      "Ġlabel": 3361,
      "Ġyen": 3362,
      "ĠbaÅŁlangÄ±": 3363,
      "Ġdeneyim": 3364,
      "-do": 3365,
      ".)": 3366,
      "314": 3367,
      "Ġpush": 3368,
      "Ġbus": 3369,
      "Ġmicro": 3370,
      "Ġinv": 3371,
      "Ġsumm": 3372,
      "Ġkut": 3373,
      "Ġareas": 3374,
      "dÄ±ÄŁÄ±nÄ±": 3375,
      "Ġokuma": 3376,
      "ĠkoÅŁ": 3377,
      "Ġdinlen": 3378,
      "Ġanda": 3379,
      "Ġmal": 3380,
      "ĠaydÄ±n": 3381,
      "lerde": 3382,
      "Ġinten": 3383,
      "116": 3384,
      "Ġsent": 3385,
      "ĠThen": 3386,
      "ĠPlan": 3387,
      "ĠGÃ¼nÃ¼n": 3388,
      "ĠIf": 3389,
      "Ġsuc": 3390,
      "ll": 3391,
      "ĠÃ¶neriyi": 3392,
      "Ġvide": 3393,
      "udg": 3394,
      "ĠpiÅŁirecek": 3395,
      "Ġdelays": 3396,
      "Ġnedenle": 3397,
      "ÅŁaÄŁÄ±": 3398,
      "ĠDon": 3399,
      "maktan": 3400,
      "Ã¼ÄŁ": 3401,
      "Ġdestinations": 3402,
      "Ġwriting": 3403,
      "Ġmutu": 3404,
      "gÃ¼n": 3405,
      "180": 3406,
      "Ġadding": 3407,
      "iÄŁi": 3408,
      "ĠÃ§Ä±kar": 3409,
      "Ġdep": 3410,
      "Ġrelying": 3411,
      "yarak": 3412,
      "Ġdead": 3413,
      "Ġincludes": 3414,
      "-free": 3415,
      "Ġleaving": 3416,
      "117": 3417,
      "ĠNumara": 3418,
      "115": 3419,
      "Ġmutual": 3420,
      "ĠÃ¶neririm": 3421,
      "Ġthinking": 3422,
      "Ġoffering": 3423,
      "Ġcreating": 3424,
      "Ġbulmak": 3425,
      "Ġcall": 3426,
      "just": 3427,
      "Ġsistem": 3428,
      "ĠbÃ¼t": 3429,
      "Ġconc": 3430,
      "Ġkol": 3431,
      "ĠdiÄŁer": 3432,
      "ĠBe": 3433,
      "'ll": 3434,
      "ĠaÄŁ": 3435,
      "Ġfail": 3436,
      "Ġproduction": 3437,
      "yal": 3438,
      "ĠbaÅŁlayÄ±p": 3439,
      "Ġkitch": 3440,
      "Ġweekly": 3441,
      "Ġam": 3442,
      "ĠiÃ§ine": 3443,
      "ĠÄ°letiÅŁim": 3444,
      "ĠÃ¶ÄŁle": 3445,
      "Ġnatural": 3446,
      "ret": 3447,
      "Ġdirect": 3448,
      "gers": 3449,
      "Ġnotification": 3450,
      "ĠkarÅŁÄ±laÅŁ": 3451,
      "Ġkarar": 3452,
      "Ġsat": 3453,
      "184": 3454,
      "Ġkitchen": 3455,
      "Ġpur": 3456,
      "itap": 3457,
      "Ġlead": 3458,
      "cum": 3459,
      "Ä±nÄ±r": 3460,
      "Ġvarsa": 3461,
      "ĠsaÄŁlayÄ±n": 3462,
      "Ä±lmÄ±ÅŁ": 3463,
      "ĠayÄ±": 3464,
      "Ġmaintaining": 3465,
      "Ġdrive": 3466,
      "Ġanchor": 3467,
      "Ġswit": 3468,
      "Ġfrequ": 3469,
      "Ġsave": 3470,
      "-stakes": 3471,
      "bil": 3472,
      "ram": 3473,
      "izi": 3474,
      "ĠÃ§ev": 3475,
      "ĠHabit": 3476,
      "Ġkonuda": 3477,
      "Ġcloth": 3478,
      "Ġyeniden": 3479,
      "Ġvak": 3480,
      "Ġhikay": 3481,
      "hangi": 3482,
      "he": 3483,
      "Ġjudg": 3484,
      "ĠMesaj": 3485,
      "Ġders": 3486,
      "Ġneeding": 3487,
      "216": 3488,
      "ron": 3489,
      "Ġasleep": 3490,
      "Ġeveryone": 3491,
      "Ġboost": 3492,
      "Ġairport": 3493,
      "Ġizin": 3494,
      "Ġhotels": 3495,
      "Ġslow": 3496,
      "**.": 3497,
      "ĠÃ§alÄ±ÅŁma": 3498,
      "Ġideas": 3499,
      "225": 3500,
      "325": 3501,
      "Ġkazan": 3502,
      "ason": 3503,
      "iv": 3504,
      "327": 3505,
      "Ġsummar": 3506,
      "seniz": 3507,
      "ĠiÅŁi": 3508,
      "air": 3509,
      "rink": 3510,
      "217": 3511,
      "Ġpop": 3512,
      "Ġpark": 3513,
      "326": 3514,
      "Ġrou": 3515,
      "-out": 3516,
      "316": 3517,
      "gÄ±": 3518,
      "lak": 3519,
      "menizi": 3520,
      "229": 3521,
      "Ġneeded": 3522,
      "Ġkarm": 3523,
      "Ġsho": 3524,
      "Ġmindful": 3525,
      "hing": 3526,
      "list": 3527,
      "Ġbreathe": 3528,
      "Ġclarifying": 3529,
      "Ġcir": 3530,
      "eck": 3531,
      "329": 3532,
      "Ġvery": 3533,
      "Ġperfection": 3534,
      "Ġziya": 3535,
      "Ġav": 3536,
      "Ġnotifications": 3537,
      "Ġdocum": 3538,
      "ĠeÅŁy": 3539,
      "Ġcounter": 3540,
      "ĠadÄ±mlarla": 3541,
      "Ġminim": 3542,
      "215": 3543,
      "Ġtidy": 3544,
      "Ġpause": 3545,
      "Ġlights": 3546,
      "315": 3547,
      "atch": 3548,
      "ĠbaÅŁlar": 3549,
      "Ġaktiviteler": 3550,
      "ehir": 3551,
      "isayar": 3552,
      "Ġfall": 3553,
      "ossible": 3554,
      "Ġrealis": 3555,
      "ese": 3556,
      "Ã¼rk": 3557,
      "so": 3558,
      "tively": 3559,
      "Ġtutacak": 3560,
      "Ġreconnect": 3561,
      "226": 3562,
      "ĠbaÅŁlangÄ±Ã§tÄ±r": 3563,
      "Ġmant": 3564,
      "Ġdisrup": 3565,
      "pective": 3566,
      "Ġbitkil": 3567,
      "haba": 3568,
      "Ġperspective": 3569,
      "Ġmod": 3570,
      "ĠsÃ¼reÃ§": 3571,
      "188": 3572,
      "Ġisters": 3573,
      "Ġmon": 3574,
      "'inde": 3575,
      "ice": 3576,
      "Ġgent": 3577,
      "Ġtoprak": 3578,
      "Ġaccommodation": 3579,
      "Ġgentle": 3580,
      "Ġbuilt": 3581,
      "Ġcri": 3582,
      "efer": 3583,
      "Ġperi": 3584,
      "Ġprioritizing": 3585,
      "ĠBook": 3586,
      "malar": 3587,
      "Ġdecluttering": 3588,
      "317": 3589,
      "ĠÄ°yi": 3590,
      "Ġquality": 3591,
      "ĠReach": 3592,
      "227": 3593,
      "dÄ±ÄŁÄ±": 3594,
      "maz": 3595,
      "Ġimpossible": 3596,
      "gilizce": 3597,
      "ping": 3598,
      "Ġren": 3599,
      "Ġuya": 3600,
      "Ġallowing": 3601,
      "ida": 3602,
      "-on": 3603,
      "ĠTr": 3604,
      "unuza": 3605,
      "You": 3606,
      "liÅŁ": 3607,
      "ĠzorluÄŁu": 3608,
      "Ġevde": 3609,
      "Ġvb": 3610,
      "Ġkes": 3611,
      "imli": 3612,
      "Ġcomplex": 3613,
      "Ġhuzur": 3614,
      "ĠDrink": 3615,
      "ĠSÃ¼re": 3616,
      "Ġexpla": 3617,
      "uyor": 3618,
      "tÄ±ra": 3619,
      "Ġbath": 3620,
      "Ġindir": 3621,
      "Ġtotal": 3622,
      "inizle": 3623,
      "manÄ±n": 3624,
      "Ġtavsi": 3625,
      "Ġnerv": 3626,
      "Ġbond": 3627,
      "Ġstar": 3628,
      "Ġhaving": 3629,
      "ability": 3630,
      "ih": 3631,
      "ĠSayÄ±n": 3632,
      "Ġnervous": 3633,
      "Ġrom": 3634,
      "ĠcÃ¼ml": 3635,
      "ction": 3636,
      "Ġprojects": 3637,
      "-M": 3638,
      "ory": 3639,
      "ĠcÃ¼mle": 3640,
      "Ġbelirleyerek": 3641,
      "ork": 3642,
      "using": 3643,
      "Ġnotes": 3644,
      "Ġritual": 3645,
      "ĠkaÄŁÄ±": 3646,
      "oud": 3647,
      "Ġvalida": 3648,
      "Ġaim": 3649,
      "ĠfÄ±r": 3650,
      "lic": 3651,
      "ĠÄ±ÅŁÄ±ÄŁÄ±": 3652,
      "isini": 3653,
      "ĠgÃ¶zlem": 3654,
      "ĠHangi": 3655,
      "ĠÃĸner": 3656,
      "ave": 3657,
      "Ġreac": 3658,
      "tivity": 3659,
      "Ġalter": 3660,
      "Ġmesa": 3661,
      "Ġact": 3662,
      "Ġavail": 3663,
      "Ġuyand": 3664,
      "ĠdakikayÄ±": 3665,
      "Ġwas": 3666,
      "Ġonun": 3667,
      "Ġmeans": 3668,
      "ĠHem": 3669,
      "uyla": 3670,
      "Ġhavuz": 3671,
      "Ġverir": 3672,
      "ĠgÃ¶zden": 3673,
      "Ġfikir": 3674,
      "-Minute": 3675,
      "Ġbilgiyi": 3676,
      "Ġsolely": 3677,
      "rying": 3678,
      "ecting": 3679,
      "Ġkullanmak": 3680,
      "Ġperiod": 3681,
      "oint": 3682,
      "ĠAlÄ±ÅŁ": 3683,
      "Ä±ktan": 3684,
      "net": 3685,
      "Ġretur": 3686,
      "ĠÃ¼zerinde": 3687,
      "elik": 3688,
      "Ġbelirle": 3689,
      "Ġsin": 3690,
      "Ä±nÄ±zÄ±n": 3691,
      "209": 3692,
      "Ġbag": 3693,
      "ĠhiÃ§": 3694,
      "Two": 3695,
      "Ġchat": 3696,
      "iled": 3697,
      "Ġstore": 3698,
      "Ġarri": 3699,
      "Ġengag": 3700,
      "ĠsÃ¼r": 3701,
      "Ã¼nd": 3702,
      "Ġground": 3703,
      "ĠÄ°ngilizce": 3704,
      "ete": 3705,
      "Ġtool": 3706,
      "ilik": 3707,
      "Ġmik": 3708,
      "Ġsupp": 3709,
      "ĠEli": 3710,
      "Ġkayna": 3711,
      "Ġstudying": 3712,
      "Ġhappens": 3713,
      "Ä±ntÄ±": 3714,
      "Ġbalance": 3715,
      "imp": 3716,
      "enize": 3717,
      "Ġmedit": 3718,
      "Ġkas": 3719,
      "Ġtemp": 3720,
      "Ġalarak": 3721,
      "ĠBelir": 3722,
      "ĠzamanÄ±": 3723,
      "unuzun": 3724,
      "109": 3725,
      "jor": 3726,
      "ĠyÃ¼zden": 3727,
      "Ġsessiz": 3728,
      "ĠtanÄ±ÅŁ": 3729,
      "Ġsaniye": 3730,
      "muÅŁ": 3731,
      "136": 3732,
      "menin": 3733,
      "sap": 3734,
      "ĠkayÄ±ttaki": 3735,
      "Ġokumaya": 3736,
      "ĠamaÃ§": 3737,
      "Ġmajor": 3738,
      "ĠArkadaÅŁlÄ±k": 3739,
      "Ġtoward": 3740,
      "Ġeder": 3741,
      "Ġmeals": 3742,
      "Ġvideo": 3743,
      "Ġthink": 3744,
      "Ġproblems": 3745,
      "udy": 3746,
      "Ġpaint": 3747,
      "Ġmedi": 3748,
      "428": 3749,
      "Ġtes": 3750,
      "206": 3751,
      "Ġbreaths": 3752,
      "ĠtanÄ±m": 3753,
      "Ġeliminate": 3754,
      "ĠÅŀu": 3755,
      "Ġdetailed": 3756,
      "Ġexperiences": 3757,
      "Ġmust": 3758,
      "Ġrecall": 3759,
      "Ġstarted": 3760,
      "Ġbun": 3761,
      "106": 3762,
      "Ġused": 3763,
      "tÄ±ÄŁÄ±nÄ±z": 3764,
      "Ġstrictly": 3765,
      "137": 3766,
      "here": 3767,
      "135": 3768,
      "ĠsabahlarÄ±": 3769,
      "Ġdedicate": 3770,
      "Ġaraya": 3771,
      "ĠWhen": 3772,
      "Ġfav": 3773,
      "ĠSeyahat": 3774,
      "ritik": 3775,
      "ĠolduÄŁunuz": 3776,
      "ĠÃ¶zet": 3777,
      "ĠparÃ§": 3778,
      "ĠkaÃ§Ä±nÄ±n": 3779,
      "ternal": 3780,
      "Ġbite": 3781,
      "ĠoluÅŁturun": 3782,
      "ĠgÃ¼nde": 3783,
      "Ã¼rkÃ§e": 3784,
      "ulating": 3785,
      "149": 3786,
      "Ġheav": 3787,
      "Ġrespect": 3788,
      "malÄ±sÄ±nÄ±z": 3789,
      "ority": 3790,
      "Ġanki": 3791,
      "Ġforward": 3792,
      "leyebilirsiniz": 3793,
      "Ġbar": 3794,
      "Ġsayf": 3795,
      "Ġfavor": 3796,
      "lemeye": 3797,
      "105": 3798,
      "Ġtar": 3799,
      "Ġben": 3800,
      "Ġurgency": 3801,
      "Ġtriggers": 3802,
      "430": 3803,
      "Ġexternal": 3804,
      "Ġtoplamda": 3805,
      "Ġweeks": 3806,
      "Ġsakin": 3807,
      "Ġhedeflerinizi": 3808,
      "Ġremove": 3809,
      "Ġtalking": 3810,
      "sized": 3811,
      "ĠConsistency": 3812,
      "ĠSp": 3813,
      "Ġbask": 3814,
      "Ġbirini": 3815,
      "Ġsuccess": 3816,
      "Ġbla": 3817,
      "Ġadjust": 3818,
      "ĠGÃ¼nde": 3819,
      "Ġhandle": 3820,
      "-sized": 3821,
      "eclutter": 3822,
      "Ġtara": 3823,
      "abilirsin": 3824,
      "207": 3825,
      ".**": 3826,
      "Ġbuffer": 3827,
      "Ġbilgisayar": 3828,
      "Ġhobby": 3829,
      "Ġbusy": 3830,
      "ĠaÅŁaÄŁÄ±": 3831,
      "ĠÃ§alÄ±ÅŁmak": 3832,
      "Ġaktivite": 3833,
      "Ġtarih": 3834,
      "ĠkÄ±s": 3835,
      "200": 3836,
      "Ġorganizing": 3837,
      "Ġhale": 3838,
      "Ġreliable": 3839,
      "Ġcasual": 3840,
      "Ġdocuments": 3841,
      "ĠyazÄ±lÄ±": 3842,
      "ĠSleep": 3843,
      "haul": 3844,
      "ues": 3845,
      "Ġona": 3846,
      "Ġlost": 3847,
      "Ġkritik": 3848,
      "ĠSor": 3849,
      "Ġmedia": 3850,
      "isyon": 3851,
      "Ä±yor": 3852,
      "Ġorganized": 3853,
      "Ġdiy": 3854,
      "Ġtopics": 3855,
      "Ġduvar": 3856,
      "ada": 3857,
      "Ġtomor": 3858,
      "ĠbaÅŁlayarak": 3859,
      "Ġsummarizing": 3860,
      "Ġheavy": 3861,
      "Ġtomorrow": 3862,
      "Ġtrain": 3863,
      "Ġprote": 3864,
      "Ġsight": 3865,
      "107": 3866,
      "Ġeffectively": 3867,
      "ĠsÃ¼reci": 3868,
      "ĠkaydÄ±": 3869,
      "Ġdistraction": 3870,
      "ata": 3871,
      "arÄ±ÅŁ": 3872,
      "Ġsahip": 3873,
      "100": 3874,
      "establish": 3875,
      "term": 3876,
      "ĠplanlayÄ±n": 3877,
      "Ã¼ph": 3878,
      "ĠkarmaÅŁÄ±k": 3879,
      "Ġoverhaul": 3880,
      "Ġortak": 3881,
      "ĠartÄ±rÄ±r": 3882,
      "Ġcontainers": 3883,
      "-term": 3884,
      "ĠÃĩok": 3885,
      "ĠAlÄ±ÅŁkanlÄ±k": 3886,
      "236": 3887,
      "Ġbelki": 3888,
      "Ġworrying": 3889,
      "Ġyolcul": 3890,
      "ĠGood": 3891,
      "ĠiÃ§mek": 3892,
      "205": 3893,
      "Ġdav": 3894,
      "tle": 3895,
      "ĠÃ¶d": 3896,
      "Ġaren": 3897,
      "Ġthese": 3898,
      "Ã¶rn": 3899,
      "ĠsÃ¼reli": 3900,
      "Ġconfid": 3901,
      "Ġrewards": 3902,
      "Ġroman": 3903,
      "ĠiÃ§indeki": 3904,
      "Ġcor": 3905,
      "Ġpacking": 3906,
      "Ġcommun": 3907,
      "Ġmoments": 3908,
      "ĠnetleÅŁtir": 3909,
      "Ġrealistic": 3910,
      "Ġner": 3911,
      "ĠCle": 3912,
      "Ġbelirlem": 3913,
      "ĠteÅŁ": 3914,
      "Ġhissi": 3915,
      "Ġifade": 3916,
      "Ġdakikalar": 3917,
      "ĠdÃ¼zenli": 3918,
      "ĠarasÄ±nda": 3919,
      "ints": 3920,
      "Ġadvice": 3921,
      "Ġchore": 3922,
      "minate": 3923,
      "Ġphones": 3924,
      "Ġgere": 3925,
      "Ġokuy": 3926,
      "ĠbÃ¶lg": 3927,
      "Ġstil": 3928,
      "Ġimportance": 3929,
      "Ġextra": 3930,
      "Ġcase": 3931,
      "ularÄ±": 3932,
      "Ġdate": 3933,
      "-imp": 3934,
      "isiniz": 3935,
      "Ġstarts": 3936,
      "ĠsaÄŁlayacak": 3937,
      "Ġalterna": 3938,
      "adi": 3939,
      "Ġodaklanmak": 3940,
      "Ġlove": 3941,
      "Ġsaatlerde": 3942,
      "Ġser": 3943,
      "lig": 3944,
      "do": 3945,
      "235": 3946,
      "Ġkurun": 3947,
      "ĠduyduÄŁ": 3948,
      "Ġspeaker": 3949,
      "237": 3950,
      "Ä±klÄ±": 3951,
      "Ġfavorite": 3952,
      "ever": 3953,
      "ĠPut": 3954,
      "Ä±zlÄ±": 3955,
      "Ġready": 3956,
      "ĠdeÄŁerlendir": 3957,
      "ffeine": 3958,
      "Ġcompare": 3959,
      "Ġestablish": 3960,
      "tanÄ±n": 3961,
      "Ġiyisi": 3962,
      "Ġcaffeine": 3963,
      "ding": 3964,
      "sine": 3965,
      "ĠsÄ±nÄ±r": 3966,
      "Ġappoint": 3967,
      "ft": 3968,
      "ĠkalÄ±": 3969,
      "ĠÃ¶nceden": 3970,
      "Ġdeng": 3971,
      "Ġreturn": 3972,
      "Ġgrow": 3973,
      "Ġstaying": 3974,
      "Ġmonth": 3975,
      "-w": 3976,
      "Ã¼ler": 3977,
      "Ġinstantly": 3978,
      "mind": 3979,
      "Ġenc": 3980,
      "Ġdefter": 3981,
      "Ġdavran": 3982,
      "Ġkav": 3983,
      "119": 3984,
      "Ġcreates": 3985,
      "Ġemotions": 3986,
      "Ġsepara": 3987,
      "Ġcho": 3988,
      "ĠsÄ±kÄ±ntÄ±": 3989,
      "Ġletting": 3990,
      "zem": 3991,
      "Ġeating": 3992,
      "arge": 3993,
      "ĠanlaÅŁ": 3994,
      "Ġrepeti": 3995,
      "ĠStudy": 3996,
      "Ġspecifically": 3997,
      "405": 3998,
      "Ġodaklanma": 3999,
      "oin": 4000,
      "inely": 4001,
      "Ġtext": 4002,
      "Ġreply": 4003,
      "Ġgenuinely": 4004,
      "ĠgÃ¼Ã§lendir": 4005,
      "Ġwrite": 4006,
      "ĠgÃ¼nÃ¼nÃ¼z": 4007,
      "ĠuygulamasÄ±": 4008,
      "Ġyatmadan": 4009,
      "Ġdetails": 4010,
      "Ġpat": 4011,
      "ors": 4012,
      "ildir": 4013,
      "385": 4014,
      "lanmÄ±ÅŁ": 4015,
      "336": 4016,
      "ĠiÅŁleri": 4017,
      "Ġchecklist": 4018,
      "ility": 4019,
      "Ġuygulay": 4020,
      "ĠResearch": 4021,
      "ĠJust": 4022,
      "Ġinvol": 4023,
      "-impact": 4024,
      "Ġsal": 4025,
      "ĠTÃ¼rkÃ§e": 4026,
      "oura": 4027,
      "amak": 4028,
      "Ġekleyin": 4029,
      "Ä±labilir": 4030,
      "ults": 4031,
      "ĠyarÄ±": 4032,
      "349": 4033,
      "Ġbin": 4034,
      "oney": 4035,
      "Ġshif": 4036,
      "Ġspend": 4037,
      "Ġnature": 4038,
      "Ġkonum": 4039,
      "Ġ-": 4040,
      "Ġsec": 4041,
      "ĠsÃ¶z": 4042,
      "Ġgelen": 4043,
      "'Ã¼nde": 4044,
      "ĠyaklaÅŁÄ±m": 4045,
      "jital": 4046,
      "ticing": 4047,
      "Ġgerekti": 4048,
      "Ġweb": 4049,
      "409": 4050,
      "Ġdurumunu": 4051,
      "Ġbring": 4052,
      "ĠHedef": 4053,
      "249": 4054,
      "ĠolmasÄ±": 4055,
      "Ġplat": 4056,
      "335": 4057,
      "Ġsos": 4058,
      "Ġetmeye": 4059,
      "ĠWhy": 4060,
      "Ġpoints": 4061,
      "Ġdeeply": 4062,
      "Ġyarat": 4063,
      "ĠYatmadan": 4064,
      "ili": 4065,
      "Ġforce": 4066,
      "Ġjoy": 4067,
      "Ġyapma": 4068,
      "ub": 4069,
      "387": 4070,
      "Ġvakit": 4071,
      "Ġiste": 4072,
      "-one": 4073,
      "Ġmoney": 4074,
      "Ġmindfulness": 4075,
      "Ġsl": 4076,
      "ross": 4077,
      "\")": 4078,
      "Ġremind": 4079,
      "108": 4080,
      "ibly": 4081,
      "pose": 4082,
      "Ġpick": 4083,
      "ĠDeclutter": 4084,
      "406": 4085,
      "ĠÃ¶ÄŁrenmeye": 4086,
      "407": 4087,
      "Ġhear": 4088,
      "sek": 4089,
      "tically": 4090,
      "Ġkelime": 4091,
      "134": 4092,
      "Ġbelirt": 4093,
      "Ġunderstood": 4094,
      "ĠkitabÄ±": 4095,
      "Ġfood": 4096,
      "208": 4097,
      "309": 4098,
      "ĠalÄ±ÅŁkanlÄ±ÄŁÄ±": 4099,
      "ĠsabÄ±r": 4100,
      "Ġcritical": 4101,
      "Ġait": 4102,
      "ĠkarÄ±ÅŁ": 4103,
      "ĠGÃ¶": 4104,
      "ĠbaÅŁka": 4105,
      "306": 4106,
      "Ġexpos": 4107,
      "-to": 4108,
      "Ġseb": 4109,
      "337": 4110,
      "leyen": 4111,
      "386": 4112,
      "Ġconnections": 4113,
      "Ġturn": 4114,
      "Ġgrad": 4115,
      "ĠEliminate": 4116,
      "Ġanx": 4117,
      "ange": 4118,
      "\",": 4119,
      "285": 4120,
      "inter": 4121,
      "Ġfrequently": 4122,
      "ĠZor": 4123,
      "Ġfrust": 4124,
      "Ġstrong": 4125,
      "ĠÃĩalÄ±ÅŁ": 4126,
      "Ġblocking": 4127,
      "305": 4128,
      "Ġmessages": 4129,
      "âĢĵ": 4130,
      "286": 4131,
      "Ġkeeps": 4132,
      "Ġharit": 4133,
      "Ġexposure": 4134,
      "Ġpara": 4135,
      "cisi": 4136,
      "dÄ±k": 4137,
      "yap": 4138,
      "-time": 4139,
      "Ġassum": 4140,
      "Ġmalzem": 4141,
      "vices": 4142,
      "udur": 4143,
      "Ġhealthy": 4144,
      "'nde": 4145,
      "Ġcontinu": 4146,
      "ĠEl": 4147,
      "ĠSÄ±": 4148,
      "ures": 4149,
      "Ġedip": 4150,
      "Ġcosts": 4151,
      "287": 4152,
      "389": 4153,
      "Ġzih": 4154,
      "ĠsÃ¶y": 4155,
      "Ġplatform": 4156,
      "ĠyapmanÄ±z": 4157,
      "Ġchoose": 4158,
      "Ġsunlight": 4159,
      "Ġcomfortable": 4160,
      "ĠTrue": 4161,
      "ĠbaÅŁÄ±na": 4162,
      "Ġexpect": 4163,
      "Ġbrings": 4164,
      "Ġdeadlines": 4165,
      "307": 4166,
      "ĠÅŁehir": 4167,
      "Ġsorular": 4168,
      "'u": 4169,
      "ĠistiyorsanÄ±z": 4170,
      "mand": 4171,
      "400": 4172,
      "ĠInstead": 4173,
      "Ã¼tÃ¼ph": 4174,
      "319": 4175,
      "Ġnothing": 4176,
      "Ġverimli": 4177,
      "ĠyapÄ±la": 4178,
      "Ġremoving": 4179,
      "Ġclothes": 4180,
      "uish": 4181,
      "Ġmotivated": 4182,
      "Ġpurpose": 4183,
      "Ġfay": 4184,
      "Ġmastering": 4185,
      "Ġgradually": 4186,
      "Ã¼tÃ¼phan": 4187,
      "inguish": 4188,
      "Ġkoyun": 4189,
      "Ġdistinguish": 4190,
      "ĠgeliÅŁtir": 4191,
      "Ġsear": 4192,
      "ĠkeÅŁfet": 4193,
      "Ġcons": 4194,
      "ĠkÃ¶": 4195,
      "Ġdemand": 4196,
      "Ġemotional": 4197,
      "Ġstic": 4198,
      "ĠiÅŁler": 4199,
      "ĠbahÃ§enizin": 4200,
      "ĠaydÄ±nlat": 4201,
      "ihaz": 4202,
      "Ġpic": 4203,
      "Ġplanlama": 4204,
      "Ġlisting": 4205,
      "Ġinternet": 4206,
      "Ġnefesinizi": 4207,
      "Ġhappen": 4208,
      "Ãĸn": 4209,
      "300": 4210,
      "uck": 4211,
      "104": 4212,
      "380": 4213,
      "ĠpiÅŁirme": 4214,
      "ĠkalkÄ±p": 4215,
      "Ġdesignated": 4216,
      "Ġbeen": 4217,
      "289": 4218,
      "ĠUz": 4219,
      "Ġexchanging": 4220,
      "Ġkabul": 4221,
      "ĠsÃ¼": 4222,
      "204": 4223,
      "Ġolmayan": 4224,
      "Ġbilgiye": 4225,
      "Ġclarity": 4226,
      "Ġtechniqu": 4227,
      "Ġresults": 4228,
      "ĠHay": 4229,
      "Ġbelirtin": 4230,
      "ucu": 4231,
      "Ġslot": 4232,
      "Ġtechniques": 4233,
      "Ġmeaningful": 4234,
      "Ġincre": 4235,
      "Ġcommunic": 4236,
      "Ã¼st": 4237,
      "Ġexample": 4238,
      "Ġsorunu": 4239,
      "Ġhesap": 4240,
      "Ġhardest": 4241,
      "Ġsticking": 4242,
      "Ġonline": 4243,
      "ĠÃ¼zere": 4244,
      "Ġtaraf": 4245,
      "Ġisn": 4246,
      "ĠiÅŁle": 4247,
      "ges": 4248,
      "ences": 4249,
      "Ġyerde": 4250,
      "121": 4251,
      "Ġvalue": 4252,
      "Ġmiktar": 4253,
      "Ġencoura": 4254,
      "Ġrepetition": 4255,
      "Ġhissed": 4256,
      "Ġstrate": 4257,
      "olu": 4258,
      "larÄ±nda": 4259,
      "ĠazÄ±ndan": 4260,
      "219": 4261,
      "Ġcra": 4262,
      "Ä±lÄ±r": 4263,
      "Ġarka": 4264,
      "Ġhead": 4265,
      "sar": 4266,
      "ĠoluÅŁturmak": 4267,
      "ĠGetting": 4268,
      "Ã§i": 4269,
      "ura": 4270,
      "allen": 4271,
      "Ġpracticing": 4272,
      "charge": 4273,
      "underst": 4274,
      "ĠÄ°ÅŁ": 4275,
      "Ġtired": 4276,
      "ount": 4277,
      "Ġlooking": 4278,
      "ĠÃ¶dÃ¼l": 4279,
      "ĠHave": 4280,
      "Ġdair": 4281,
      "234": 4282,
      "Ġsenin": 4283,
      "ĠWrite": 4284,
      "Ġmisunderst": 4285,
      "Ġcirc": 4286,
      "ĠEx": 4287,
      "Ġodaklanarak": 4288,
      "Ġdecide": 4289,
      "ĠÅŁunlarÄ±": 4290,
      "Ġjudgment": 4291,
      "to": 4292,
      "ĠÃ¶l": 4293,
      "ĠGece": 4294,
      "ĠkullanmayÄ±": 4295,
      "pping": 4296,
      "ĠgÃ¶revleri": 4297,
      "Ġwindow": 4298,
      "Ġdirectly": 4299,
      "Ġuyuyun": 4300,
      "ĠFotoÄŁraf": 4301,
      "Ġteach": 4302,
      "Ġederek": 4303,
      "Ä±ldÄ±": 4304,
      "ĠHemen": 4305,
      "aat": 4306,
      "ĠodaklanmayÄ±": 4307,
      "Ġinteractions": 4308,
      "Ġconfidence": 4309,
      "mekten": 4310,
      "Ġkendini": 4311,
      "Ġharc": 4312,
      "Ġyeterlidir": 4313,
      "Ġemail": 4314,
      "usal": 4315,
      "ĠDes": 4316,
      "280": 4317,
      "183": 4318,
      "ĠdÃ¼zel": 4319,
      "adian": 4320,
      "-c": 4321,
      "lamayÄ±": 4322,
      "ĠStop": 4323,
      "ĠbaÅŁlangÄ±cÄ±": 4324,
      "ĠpopÃ¼ler": 4325,
      "erken": 4326,
      "Ä±sa": 4327,
      "ĠyoÄŁ": 4328,
      "ĠyapÄ±p": 4329,
      "ĠbaÄŁlÄ±": 4330,
      "Ġrequires": 4331,
      "Ġcol": 4332,
      "Ġcircadian": 4333,
      "dÃ¼r": 4334,
      "lul": 4335,
      "ink": 4336,
      "ĠiliÅŁ": 4337,
      "Ġnear": 4338,
      "Ġsaati": 4339,
      "ĠaÃ§Ä±": 4340,
      "ĠyapÄ±lan": 4341,
      "times": 4342,
      "Ġlarger": 4343,
      "Ã¼nÃ¼zÃ¼": 4344,
      "Ġincluding": 4345,
      "Ġrecharge": 4346,
      "ĠyemeÄŁi": 4347,
      "ifik": 4348,
      "gi": 4349,
      "ĠadÄ±": 4350,
      "Ġzama": 4351,
      "ĠcÃ¼mleler": 4352,
      "Ġekleyerek": 4353,
      "taneously": 4354,
      "Ġpile": 4355,
      "ĠTV": 4356,
      "esifik": 4357,
      "ĠatÄ±n": 4358,
      "Ġuygulamalar": 4359,
      "Ġcihaz": 4360,
      "ĠBuild": 4361,
      "Ã¼zel": 4362,
      "Ġspesifik": 4363,
      "ĠarasÄ±": 4364,
      "ĠdetaylÄ±": 4365,
      "Ġpozisyon": 4366,
      "eti": 4367,
      "181": 4368,
      "182": 4369,
      "Ġpersonal": 4370,
      "ĠmantÄ±klÄ±": 4371,
      "Ġem": 4372,
      "Ġyaparken": 4373,
      "layÄ±cÄ±": 4374,
      ")**": 4375,
      "rend": 4376,
      "ĠkaÃ§Ä±n": 4377,
      "ĠayarlayÄ±n": 4378,
      "Ġversion": 4379,
      "Ġspon": 4380,
      "Ġsaatlik": 4381,
      "Ġdiyerek": 4382,
      "Ä°lk": 4383,
      "Ġpushes": 4384,
      "408": 4385,
      "der": 4386,
      "ĠanÄ±nda": 4387,
      "Ġzorunda": 4388,
      "ibility": 4389,
      "Ġgener": 4390,
      "ĠkolaylaÅŁ": 4391,
      "ĠkonuÅŁmak": 4392,
      "ial": 4393,
      "Ġsimul": 4394,
      "Ġchallen": 4395,
      "-post": 4396,
      "ĠÃ¼Ã§": 4397,
      "Ġmer": 4398,
      "lanan": 4399,
      "Ġmeeting": 4400,
      "Ġkayb": 4401,
      "Ġherhangi": 4402,
      "ĠkiÅŁiye": 4403,
      "Ġmap": 4404,
      "Ġstuck": 4405,
      "Ġalong": 4406,
      "Ġotel": 4407,
      "Ġsaatini": 4408,
      "Ġlock": 4409,
      "Ġpre": 4410,
      "ĠdÃ¼ÅŁÃ¼r": 4411,
      "ĠÃ¶lÃ§": 4412,
      "384": 4413,
      "reading": 4414,
      "Ġkaydet": 4415,
      "iety": 4416,
      "Ġattrac": 4417,
      "Ġsimultaneously": 4418,
      "ty": 4419,
      "Ġru": 4420,
      "ĠHarika": 4421,
      "Ġbelirleyip": 4422,
      "Ġstretch": 4423,
      "ĠkolaylaÅŁtÄ±rÄ±r": 4424,
      "avig": 4425,
      "ru": 4426,
      "Ġyum": 4427,
      "Ġfact": 4428,
      "Ġmight": 4429,
      "Ġsilence": 4430,
      "Ġanxiety": 4431,
      "308": 4432,
      "Ġwhenever": 4433,
      "ĠsÄ±caklÄ±ÄŁÄ±nÄ±": 4434,
      "Ġent": 4435,
      "tiri": 4436,
      "unuzda": 4437,
      "Ġprof": 4438,
      "Ġinteraction": 4439,
      "334": 4440,
      "ging": 4441,
      "iÃ§ek": 4442,
      "388": 4443,
      "Ġlonger": 4444,
      "Ġrahatlat": 4445,
      "ĠhafifÃ§e": 4446,
      "ĠprogramÄ±": 4447,
      "ĠgeÃ§irin": 4448,
      "ĠbÃ¼tÃ§": 4449,
      "Ġspontane": 4450,
      "Ġunder": 4451,
      "404": 4452,
      "ĠdÃ¼zenleme": 4453,
      "Ġsosyal": 4454,
      "Ġbiti": 4455,
      "Ġconstantly": 4456,
      "Ġnavig": 4457,
      "tionship": 4458,
      "Ġcalming": 4459,
      "Ġedebilirsiniz": 4460,
      "Ġhy": 4461,
      "Ġdevices": 4462,
      "Ġrelationship": 4463,
      "Ġtransit": 4464,
      "Ġsurfaces": 4465,
      "Ġzamanda": 4466,
      "miÅŁtir": 4467,
      "288": 4468,
      "Ġkaybet": 4469,
      "Ġyatak": 4470,
      "Ġmemory": 4471,
      "ĠaÅŁ": 4472,
      "ines": 4473,
      "Ġmak": 4474,
      "Ġsolve": 4475,
      "St": 4476,
      "fÄ±r": 4477,
      "Ġcue": 4478,
      "elen": 4479,
      "sÄ±t": 4480,
      "Ġevdeki": 4481,
      "Ġguilt": 4482,
      "Ġaiming": 4483,
      "ĠyapmaktÄ±r": 4484,
      "122": 4485,
      "ĠFor": 4486,
      "ĠiÅŁaret": 4487,
      "ĠsaÄŁlam": 4488,
      "304": 4489,
      "Ġsleeping": 4490,
      "uÄŁu": 4491,
      "ĠBÃ¼yÃ¼k": 4492,
      "Ġbec": 4493,
      "Ġatmak": 4494,
      "Ġbelirtil": 4495,
      "Ġhedefe": 4496,
      "ĠkapatÄ±n": 4497,
      "Ġsefer": 4498,
      "power": 4499,
      "uggage": 4500,
      "Ġfriction": 4501,
      "ĠBaÅŁarÄ±": 4502,
      "sÄ±na": 4503,
      "uel": 4504,
      "111": 4505,
      "ĠhafÄ±z": 4506,
      "ĠdeÄŁiÅŁik": 4507,
      "ĠbÃ¶lÃ¼m": 4508,
      "ĠalanÄ±": 4509,
      "Ġlate": 4510,
      "Ġenjoyable": 4511,
      "Ġplanla": 4512,
      "Ġalma": 4513,
      "ĠhatÄ±rlat": 4514,
      "Ġprotect": 4515,
      "ney": 4516,
      "lerine": 4517,
      "Ġluggage": 4518,
      "Ġboz": 4519,
      "ĠbaÅŁlamanÄ±z": 4520,
      "Ġdimming": 4521,
      "Ġhang": 4522,
      "ĠihtiyacÄ±nÄ±z": 4523,
      "Ġton": 4524,
      "Ġhedefinizi": 4525,
      "Ġileride": 4526,
      "Ġcarry": 4527,
      "ÄŁa": 4528,
      "kip": 4529,
      "Ġyerden": 4530,
      "Ġgives": 4531,
      "ĠuygulayÄ±n": 4532,
      "Ġuninter": 4533,
      "Ġilerlemeyi": 4534,
      "ĠhÄ±zlÄ±ca": 4535,
      "Ġtemizlik": 4536,
      "Ġideal": 4537,
      "ledge": 4538,
      "Ġdesired": 4539,
      "Ġprom": 4540,
      "ĠÃ¶rneÄŁin": 4541,
      "Ġcommon": 4542,
      "Ġetkin": 4543,
      "Ġaray": 4544,
      "Ġcatch": 4545,
      "Ġana": 4546,
      "Ġabs": 4547,
      "ĠÃ§ay": 4548,
      "Ġscheduling": 4549,
      "Ġshoot": 4550,
      "Ġattem": 4551,
      "Ġkalite": 4552,
      "dÄ±ÄŁÄ±nÄ±zda": 4553,
      "Ġallows": 4554,
      "Ġdisconnect": 4555,
      "Ġaccommodations": 4556,
      "ola": 4557,
      "edi": 4558,
      "Ġconnect": 4559,
      "ĠsÃ¶yle": 4560,
      "ĠyoÄŁun": 4561,
      "Ġpreventing": 4562,
      "Ġperform": 4563,
      "aÄŁÄ±": 4564,
      "Ġtable": 4565,
      "Ġresist": 4566,
      "ĠalmayÄ±": 4567,
      "Ġincred": 4568,
      "Ġblack": 4569,
      "talÄ±k": 4570,
      "Ġshel": 4571,
      "Ġbulund": 4572,
      "ĠyazÄ±n": 4573,
      "Ġdili": 4574,
      "ĠdÃ¼zeninizi": 4575,
      "Ġincredibly": 4576,
      "Ġbunun": 4577,
      "ĠNe": 4578,
      "284": 4579,
      "ĠGÃ¼neÅŁ": 4580,
      "rupted": 4581,
      "Ġkindness": 4582,
      "Ġkurmak": 4583,
      "Ġgerekli": 4584,
      "Ġsignals": 4585,
      "ĠÃ¼zerinden": 4586,
      "Ġlabeled": 4587,
      "ĠkoÅŁul": 4588,
      "Ġstill": 4589,
      "Ġuninterrupted": 4590,
      "Ġilerlemek": 4591,
      "Ġmisunderstand": 4592,
      "sik": 4593,
      "Ġquit": 4594,
      "Ġanlamak": 4595,
      "ba": 4596,
      "ĠSaat": 4597,
      "ket": 4598,
      "Ġty": 4599,
      "Ġcontrol": 4600,
      "Ġtools": 4601,
      "Ġbarri": 4602,
      "ĠClear": 4603,
      "Ġtelefonunuzun": 4604,
      "Ġpartner": 4605,
      "Ġmesaf": 4606,
      "Ġyapabilirsiniz": 4607,
      "ĠÅŁimdi": 4608,
      "ĠJoin": 4609,
      "'a": 4610,
      "424": 4611,
      "back": 4612,
      "Ġscrol": 4613,
      "ĠkÄ±sm": 4614,
      "Ġalternative": 4615,
      "Ġcommunicate": 4616,
      "vet": 4617,
      "ĠÃ¶ÄŁrenin": 4618,
      "Ġvisit": 4619,
      "Ġrushing": 4620,
      "layan": 4621,
      "ĠbahÃ§ede": 4622,
      "Ġexpecting": 4623,
      "Ġurge": 4624,
      "Ã¼ven": 4625,
      "ĠÃ§alÄ±ÅŁmaya": 4626,
      "ĠÃ§ekiyor": 4627,
      "member": 4628,
      "ties": 4629,
      "kim": 4630,
      "Ġintens": 4631,
      "Ġupon": 4632,
      "round": 4633,
      "ĠkonuÅŁmayÄ±": 4634,
      "Ġfayd": 4635,
      "414": 4636,
      "Ġuyuy": 4637,
      "Ġwait": 4638,
      "Ġkork": 4639,
      "valtÄ±": 4640,
      "build": 4641,
      "ĠgÃ¶revi": 4642,
      "tirecek": 4643,
      "Ġdepart": 4644,
      "Ġperiods": 4645,
      "ble": 4646,
      "Â°": 4647,
      "ĠÃ§iÃ§ek": 4648,
      "ague": 4649,
      "Ġcommitting": 4650,
      "Ġtane": 4651,
      "Ġrebuild": 4652,
      "ĠÃ¶ncel": 4653,
      "ĠKitap": 4654,
      "426": 4655,
      "429": 4656,
      "Ġsn": 4657,
      "ĠkapatÄ±p": 4658,
      "Ġkelimeler": 4659,
      "112": 4660,
      "where": 4661,
      "Ġmid": 4662,
      "Ġforcing": 4663,
      "Ġevent": 4664,
      "iÄŁiniz": 4665,
      "Ġvisible": 4666,
      "Ġhaftada": 4667,
      "Ġemails": 4668,
      "Ġcorner": 4669,
      "Ġshelves": 4670,
      "ĠÃ§eker": 4671,
      "Ġsign": 4672,
      "acaÄŁÄ±nÄ±z": 4673,
      "Ġtreating": 4674,
      "Ġfinding": 4675,
      "aÃ§": 4676,
      "Ġanal": 4677,
      "loj": 4678,
      "phones": 4679,
      "Ġmeditation": 4680,
      "Ġnerede": 4681,
      "ĠDesign": 4682,
      "415": 4683,
      "abilirim": 4684,
      "Ġincele": 4685,
      "Ġsesli": 4686,
      "ĠaydÄ±r": 4687,
      "asÄ±nda": 4688,
      "ĠakÄ±ÅŁ": 4689,
      "ĠuygulamasÄ±nÄ±": 4690,
      "menize": 4691,
      "Ġtasar": 4692,
      "Ġtyp": 4693,
      "ĠTek": 4694,
      "esinde": 4695,
      "bilecek": 4696,
      "yonel": 4697,
      "Ġintention": 4698,
      "212": 4699,
      "416": 4700,
      "436": 4701,
      "BugÃ¼n": 4702,
      "Ã¶n": 4703,
      "ĠHÄ±zlÄ±": 4704,
      "ĠbaÅŁlatÄ±n": 4705,
      "ĠEr": 4706,
      "Ã§Ä±": 4707,
      "Ġstate": 4708,
      "ĠanlÄ±k": 4709,
      "ĠsÃ¼ren": 4710,
      "Ġmad": 4711,
      "Ġspecial": 4712,
      "Ġroute": 4713,
      "Ġned": 4714,
      "imit": 4715,
      "Ġwhether": 4716,
      ".\"Ċ": 4717,
      "ĠyaptÄ±ÄŁÄ±nÄ±z": 4718,
      "ĠtanÄ±ÅŁacak": 4719,
      "Ġtat": 4720,
      "Ġtell": 4721,
      "rated": 4722,
      "Ġeden": 4723,
      "ĠsoÄŁ": 4724,
      "ĠgeÃ§in": 4725,
      "manÄ±za": 4726,
      "leyebilir": 4727,
      "435": 4728,
      "must": 4729,
      "Ġcloset": 4730,
      "Ġattractions": 4731,
      "ĠduÅŁ": 4732,
      "Ġayak": 4733,
      "Ġister": 4734,
      "Ġharekete": 4735,
      "Ġself": 4736,
      "Ġfuel": 4737,
      "Ġmeal": 4738,
      "Ġseem": 4739,
      "ĠdÃ¼zenini": 4740,
      "Ġharder": 4741,
      "melisiniz": 4742,
      "Ġcramming": 4743,
      "427": 4744,
      "Ġboring": 4745,
      "Ġtelefonunuzu": 4746,
      "Ġclose": 4747,
      "437": 4748,
      "iraz": 4749,
      "ĠdeÄŁildir": 4750,
      "Ġbelong": 4751,
      "ĠkullanÄ±m": 4752,
      "Ġdrain": 4753,
      "ĠGÃ¶z": 4754,
      "Ġkullanmaya": 4755,
      "Ġrid": 4756,
      "ĠazaltÄ±r": 4757,
      "-posta": 4758,
      "Toplam": 4759,
      "vik": 4760,
      "Ġsaatleri": 4761,
      "ĠSabahlarÄ±": 4762,
      "Ġmisiniz": 4763,
      "ĠResim": 4764,
      "ĠdavranÄ±ÅŁ": 4765,
      "417": 4766,
      "ets": 4767,
      "ÄŁim": 4768,
      "Ġcover": 4769,
      "Ġlit": 4770,
      "Ġproj": 4771,
      "Ġprov": 4772,
      "ĠgÃ¶rsel": 4773,
      "Ġtavsiye": 4774,
      "Ġshift": 4775,
      "Ġassuming": 4776,
      "Ġprofes": 4777,
      "Ġsolu": 4778,
      "Ġremember": 4779,
      "Ġvad": 4780,
      "Ġacross": 4781,
      "Ġplanner": 4782,
      "147": 4783,
      "ĠÅŁeyleri": 4784,
      "Ġkurg": 4785,
      "diÄŁi": 4786,
      "Ġaccomplishment": 4787,
      "ĠaraÅŁ": 4788,
      "ĠbaÅŁlamaktÄ±r": 4789,
      "Ġwatching": 4790,
      "Ġbitki": 4791,
      "landÄ±ÄŁÄ±nÄ±z": 4792,
      "Ġayr": 4793,
      "ardan": 4794,
      "Ġetki": 4795,
      "Ġilerleme": 4796,
      "ĠaltÄ±nda": 4797,
      "ĠtaÅŁ": 4798,
      "ats": 4799,
      "Ġzek": 4800,
      "Ġcore": 4801,
      "ĠkaldÄ±r": 4802,
      "Ġbahset": 4803,
      "Ġuygulama": 4804,
      "Ġortamda": 4805,
      "425": 4806,
      "Ġanla": 4807,
      "Ġnumber": 4808,
      "Ġdilin": 4809,
      "Ġsub": 4810,
      "Ġexchange": 4811,
      "Ġinvolves": 4812,
      "ĠplanÄ±nÄ±zÄ±": 4813,
      "145": 4814,
      "ĠiyileÅŁtir": 4815,
      "Ġdeneyebilirsiniz": 4816,
      "Ġairline": 4817,
      "tÃ¼r": 4818,
      "isel": 4819,
      "Ġrein": 4820,
      "Ġkonfor": 4821,
      "fen": 4822,
      "Ġpap": 4823,
      "ĠkÃ¼tÃ¼phan": 4824,
      "ĠCheck": 4825,
      "Ġdrink": 4826,
      "Ġcurtain": 4827,
      "Ġscrolling": 4828,
      "ĠLimit": 4829,
      "ĠMerhaba": 4830,
      "Ġexpens": 4831,
      "ĠgerÃ§ekten": 4832,
      "Ġavailability": 4833,
      "ĠteÅŁvik": 4834,
      "tri": 4835,
      "zet": 4836,
      "Ġalone": 4837,
      "ĠsÃ¼rekli": 4838,
      "Ġbilet": 4839,
      "urarak": 4840,
      "ĠtanÄ±": 4841,
      "Ġfil": 4842,
      "Ġrez": 4843,
      "Ġvague": 4844,
      "Ġelect": 4845,
      "Ġwebsi": 4846,
      "Ġcues": 4847,
      "ulan": 4848,
      "Ġhon": 4849,
      "Ġstand": 4850,
      "efore": 4851,
      "ĠsaÄŁlÄ±klÄ±": 4852,
      "ively": 4853,
      "Ġreinfor": 4854,
      "ilmiÅŁ": 4855,
      "ĠgeÃ§mek": 4856,
      "apping": 4857,
      "ronic": 4858,
      "cast": 4859,
      "Ġ'": 4860,
      "ĠbirleÅŁ": 4861,
      "Ġyapt": 4862,
      "102": 4863,
      "Ġgoes": 4864,
      "ĠdaÄŁÄ±": 4865,
      "ĠhazÄ±rlayÄ±n": 4866,
      "Ġrepeat": 4867,
      "yin": 4868,
      "ĠAÄŁ": 4869,
      "ĠÃ¶ÄŁrend": 4870,
      "ĠyavaÅŁÃ§a": 4871,
      "Ġrezerv": 4872,
      "Ġidentif": 4873,
      "Ġspending": 4874,
      "Ġsnack": 4875,
      "KÃ¼Ã§Ã¼k": 4876,
      "may": 4877,
      "pts": 4878,
      "bileceÄŁiniz": 4879,
      "Ġsentence": 4880,
      "Ġprep": 4881,
      "vite": 4882,
      "Ã¼tfen": 4883,
      "Ġsentences": 4884,
      "ullan": 4885,
      "riority": 4886,
      "ĠÃ§im": 4887,
      "Ġfeed": 4888,
      "Ġexpressing": 4889,
      "ĠÄ±lÄ±k": 4890,
      "Ġada": 4891,
      "ĠtÃ¼k": 4892,
      "Ġdim": 4893,
      "pting": 4894,
      "Ġfit": 4895,
      "iness": 4896,
      "ĠalÄ±ÅŁkanlÄ±": 4897,
      "ĠsorunlarÄ±": 4898,
      "ensi": 4899,
      "Ġexc": 4900,
      "ificant": 4901,
      "ĠkullanÄ±lan": 4902,
      "Ġkayda": 4903,
      "Ġdijital": 4904,
      "Ġinceley": 4905,
      "Ġseparate": 4906,
      "Ġsecure": 4907,
      "Ġdemanding": 4908,
      "Ġprofesyonel": 4909,
      "Ġsound": 4910,
      "ÄŁe": 4911,
      "Ġvermek": 4912,
      "Ġwillpower": 4913,
      "ĠÃ¶nemlidir": 4914,
      "Ġelectronic": 4915,
      "322": 4916,
      "Ġilerleyin": 4917,
      "ĠgÃ¶nderin": 4918,
      "hand": 4919,
      "ĠgeliÅŁ": 4920,
      "'le": 4921,
      "Ġmy": 4922,
      "kiyor": 4923,
      "Ġdold": 4924,
      "146": 4925,
      "ĠpiÅŁiriyor": 4926,
      "ĠsÃ¼rede": 4927,
      "ĠeÄŁiti": 4928,
      "Ġswitch": 4929,
      "ĠÃĩalÄ±ÅŁma": 4930,
      "nece": 4931,
      "Ġfiz": 4932,
      "Ġfun": 4933,
      "Ġfill": 4934,
      "Ġyeten": 4935,
      "head": 4936,
      "Ä±ÅŁtÄ±r": 4937,
      "-priority": 4938,
      "Ġshowing": 4939,
      "ĠDesignate": 4940,
      "Ġsite": 4941,
      "ĠÃ§ekecek": 4942,
      "Ġmisunderstandings": 4943,
      "necess": 4944,
      "Ġmode": 4945,
      "Ġunnecess": 4946,
      "-sleep": 4947,
      "ĠdÃ¶nÃ¼ÅŁ": 4948,
      "Ġinitial": 4949,
      "Ġcurtains": 4950,
      "yes": 4951,
      "leriniz": 4952,
      "iber": 4953,
      "lemesine": 4954,
      "Ġaccus": 4955,
      "iyet": 4956,
      "Ġseviyenizi": 4957,
      "ĠÄ±ÅŁÄ±ÄŁÄ±na": 4958,
      "Ġgerekiyor": 4959,
      "ns": 4960,
      "Ġgest": 4961,
      "Ġreacting": 4962,
      "Ġzorlu": 4963,
      "131": 4964,
      "Ġcomb": 4965,
      "lanÄ±r": 4966,
      "Ġbeforehand": 4967,
      "ĠseÃ§im": 4968,
      "ĠolduÄŁun": 4969,
      "Ġbilgileri": 4970,
      "ĠulaÅŁÄ±labilir": 4971,
      "sues": 4972,
      "imd": 4973,
      "Ġolup": 4974,
      "Ġris": 4975,
      "iÄŁini": 4976,
      "Ġhedefi": 4977,
      "ĠtÃ¼rÃ¼": 4978,
      "ĠyumuÅŁ": 4979,
      "Ġrezervasyon": 4980,
      "-reading": 4981,
      "mayan": 4982,
      "ops": 4983,
      "phra": 4984,
      "ĠseÃ§mektir": 4985,
      "Ġswitching": 4986,
      "Ġteaching": 4987,
      "Ġeks": 4988,
      "ature": 4989,
      "132": 4990,
      "ĠbÄ±rakÄ±p": 4991,
      "ĠUzun": 4992,
      "Start": 4993,
      "Ġtest": 4994,
      "203": 4995,
      "Ġupda": 4996,
      "434": 4997,
      "gid": 4998,
      "ĠadÄ±mÄ±n": 4999,
      "ĠMart": 5000,
      "133": 5001,
      "ĠÃ¶ÄŁre": 5002,
      "Ġgider": 5003,
      "gen": 5004,
      "alara": 5005,
      "Ġken": 5006,
      "Ġzones": 5007,
      "103": 5008,
      "ĠkullanmaktÄ±r": 5009,
      "ĠsatÄ±n": 5010,
      "ĠbaÅŁar": 5011,
      "101": 5012,
      "Ġactionable": 5013,
      "Ġahead": 5014,
      "ĠsÄ±r": 5015,
      "Ã¼p": 5016,
      "Ġissues": 5017,
      "ackle": 5018,
      "ĠseÃ§imi": 5019,
      "Ġproductivity": 5020,
      "Ġhonest": 5021,
      "Ġisterseniz": 5022,
      "Ġpi": 5023,
      "202": 5024,
      "ĠyÃ¼rÃ¼yerek": 5025,
      "Ġolabilirim": 5026,
      "-second": 5027,
      "Ġbalanced": 5028,
      "Ġblackout": 5029,
      "Ġidentifying": 5030,
      "ĠbaÅŁtan": 5031,
      "Ġchar": 5032,
      "ĠbaÅŁlangÄ±Ã§ta": 5033,
      "ĠgeniÅŁ": 5034,
      "Bir": 5035,
      "Ġtreat": 5036,
      "Ġlearned": 5037,
      "Ġbitkiler": 5038,
      "sunuz": 5039,
      "task": 5040,
      "Ġsen": 5041,
      "Ġyapay": 5042,
      "Ġyapmadan": 5043,
      "201": 5044,
      "acaÄŁÄ±nÄ±zÄ±": 5045,
      "ĠBaÅŁlangÄ±Ã§ta": 5046,
      "Ġexplaining": 5047,
      "Ġkaf": 5048,
      "ĠyÃ¶net": 5049,
      "ĠolmalÄ±dÄ±r": 5050,
      "usunu": 5051,
      "lÄ±klÄ±": 5052,
      "Ġsonucu": 5053,
      "Ġuykuya": 5054,
      "Ġdefensi": 5055,
      "Ġautomatically": 5056,
      "Ġoturup": 5057,
      "Ġsignificant": 5058,
      "211": 5059,
      "ĠbaÅŁlÄ±": 5060,
      "ĠolmanÄ±z": 5061,
      "Ġunnecessary": 5062,
      "sim": 5063,
      "Ġdurumda": 5064,
      "Ġinceleyin": 5065,
      "iyorum": 5066,
      "Ġ\\": 5067,
      "Ġfaster": 5068,
      "ĠayÄ±rdÄ±ÄŁÄ±": 5069,
      "ĠMaps": 5070,
      "Ġplanlam": 5071,
      "Ġspor": 5072,
      "Ġaccum": 5073,
      "Ġboundary": 5074,
      "Ġbilim": 5075,
      "Mer": 5076,
      "over": 5077,
      "Ġnecess": 5078,
      "iksel": 5079,
      "ĠÃ§Ã¶zmek": 5080,
      "ĠseÃ§ene": 5081,
      "ĠyÃ¼rÃ¼me": 5082,
      "ĠÃ§evir": 5083,
      "ses": 5084,
      "Ġib": 5085,
      "Ġrates": 5086,
      "ĠyÃ¼rÃ¼m": 5087,
      "Ġslowly": 5088,
      "Ġintensity": 5089,
      "fak": 5090,
      "Ġaler": 5091,
      "Ġconstant": 5092,
      "Ġdemek": 5093,
      "Ġevents": 5094,
      "larÄ±ndan": 5095,
      "Ġappro": 5096,
      "Ġspots": 5097,
      "Ġtransportation": 5098,
      "ĠaraÅŁtÄ±r": 5099,
      "Ġflexibility": 5100,
      "Ġmakinesi": 5101,
      "ĠdeÄŁiÅŁiklik": 5102,
      "ĠyapÄ±yor": 5103,
      "ĠdetaylarÄ±": 5104,
      "Ġdrives": 5105,
      "Ġconcepts": 5106,
      "Ġpicking": 5107,
      "ĠÃ¶rnek": 5108,
      "196": 5109,
      "ĠoluÅŁtu": 5110,
      "Ġbeyn": 5111,
      "ĠayÄ±rd": 5112,
      "ĠÃ§ekin": 5113,
      "veness": 5114,
      "423": 5115,
      "rev": 5116,
      "Ġwon": 5117,
      "ĠbaÅŁa": 5118,
      "ĠyazÄ±": 5119,
      "Ġsafe": 5120,
      "800": 5121,
      "Ġengel": 5122,
      "Ġduygular": 5123,
      "ĠaÅŁam": 5124,
      "ĠDil": 5125,
      "Ġhedefleyin": 5126,
      "ĠÃ§Ä±kÄ±p": 5127,
      "Ġbekleme": 5128,
      "Ġmultitask": 5129,
      "Ġkelimeleri": 5130,
      "ĠBiraz": 5131,
      "Ġmeetings": 5132,
      "Ġrun": 5133,
      "ĠÃ¶nÃ¼nde": 5134,
      "156": 5135,
      "Ġyeri": 5136,
      "Ġcompleted": 5137,
      "ĠFriends": 5138,
      "Ġhayal": 5139,
      "ĠartÄ±rÄ±n": 5140,
      "ĠbaÅŁÄ±nda": 5141,
      "139": 5142,
      "Ġparties": 5143,
      "Ġaraz": 5144,
      "Ġschedules": 5145,
      "Ġfeedback": 5146,
      "Ġtw": 5147,
      "Ġspark": 5148,
      "ĠÃ¶ne": 5149,
      "509": 5150,
      "Ġrigid": 5151,
      "909": 5152,
      "709": 5153,
      "ĠgiriÅŁ": 5154,
      "Ġlimit": 5155,
      "Ġattempting": 5156,
      "Ġeksik": 5157,
      "Ġdefensiveness": 5158,
      "Ġblok": 5159,
      "Ġlistener": 5160,
      "ĠsÃ¼reÃ§te": 5161,
      "ĠyapÄ±lacak": 5162,
      "ĠyetiÅŁ": 5163,
      "Ġart": 5164,
      "Ġbelirti": 5165,
      "Ġphra": 5166,
      "ĠbakÄ±n": 5167,
      "ĠeÄŁlen": 5168,
      "ĠdoÄŁrusu": 5169,
      "ĠChange": 5170,
      "Ġplacing": 5171,
      "Ġban": 5172,
      "ĠkayÄ±": 5173,
      "Ġloud": 5174,
      "Ġseason": 5175,
      "Ġboy": 5176,
      "199": 5177,
      "GÃ¼n": 5178,
      "Ã¼le": 5179,
      "Ġdata": 5180,
      "ĠuÄŁ": 5181,
      "Ġdeals": 5182,
      "Ġtraveling": 5183,
      "Ġyerinizi": 5184,
      "ĠBirlikte": 5185,
      "Ġbekle": 5186,
      "Ġinterruptions": 5187,
      "ative": 5188,
      "Ġtone": 5189,
      "Ġkod": 5190,
      "ĠBunun": 5191,
      "Ġkalit": 5192,
      "ĠyerleÅŁtir": 5193,
      "ĠzorluklarÄ±": 5194,
      "Ġmasa": 5195,
      "Ġkaydedin": 5196,
      "Ġkesin": 5197,
      "Ġtemper": 5198,
      "Ġanaliz": 5199,
      "urg": 5200,
      "Ġinsan": 5201,
      "iding": 5202,
      "ĠbuluÅŁma": 5203,
      "Ġedecek": 5204,
      "809": 5205,
      "ĠyazÄ±lÄ±m": 5206,
      "iyi": 5207,
      "ĠTackle": 5208,
      "ĠYoga": 5209,
      "Ġins": 5210,
      "Ġmetin": 5211,
      "246": 5212,
      "609": 5213,
      "ĠayÄ±rarak": 5214,
      "micro": 5215,
      "ĠodaklÄ±": 5216,
      "Ġgelir": 5217,
      "ĠkonuÅŁmaya": 5218,
      "Ġphysically": 5219,
      "Ġlocation": 5220,
      "ĠyanlÄ±ÅŁ": 5221,
      "Ġwrong": 5222,
      "ĠHaftanÄ±n": 5223,
      "tÃ¼": 5224,
      "text": 5225,
      "ĠyÃ¼ksek": 5226,
      "ĠgÃ¼Ã§lÃ¼": 5227,
      "312": 5228,
      "Ben": 5229,
      "ĠYap": 5230,
      "ÄŁine": 5231,
      "Ġsuya": 5232,
      "Ġtamamla": 5233,
      "meyen": 5234,
      "ĠÃ§izim": 5235,
      "gÃ¼nlÃ¼k": 5236,
      "Ġziyade": 5237,
      "Ġtesting": 5238,
      "Ġtarz": 5239,
      "Ġharika": 5240,
      "607": 5241,
      "Ġeffective": 5242,
      "Ġleads": 5243,
      "Ġruh": 5244,
      "433": 5245,
      "ĠbahÃ§eye": 5246,
      "506": 5247,
      "Ġil": 5248,
      "lerinize": 5249,
      "232": 5250,
      "laÅŁma": 5251,
      "Ġsaniy": 5252,
      "ĠHabits": 5253,
      "arp": 5254,
      "Ġidentify": 5255,
      "ĠuÃ§": 5256,
      "Ġjum": 5257,
      "Ġsitu": 5258,
      "bo": 5259,
      "Ã¢": 5260,
      "Ġvalu": 5261,
      "Ġzeka": 5262,
      "ĠbaÅŁk": 5263,
      "indeki": 5264,
      "ĠgÃ¼nÃ¼nÃ¼": 5265,
      "Ġkelimeyi": 5266,
      "Ġmutlak": 5267,
      "Ġdinlenme": 5268,
      "Ġdoldur": 5269,
      "cc": 5270,
      "dece": 5271,
      "know": 5272,
      "abin": 5273,
      "asit": 5274,
      "195": 5275,
      "197": 5276,
      "ĠyÃ¼zmeye": 5277,
      "806": 5278,
      "Ġgez": 5279,
      "ĠgerÃ§ekÃ§i": 5280,
      "Ġcalls": 5281,
      "-h": 5282,
      "hoto": 5283,
      "liÄŁini": 5284,
      "245": 5285,
      "ĠolduÄŁundan": 5286,
      "ĠNumarasÄ±": 5287,
      "Ġencourage": 5288,
      "175": 5289,
      "176": 5290,
      "346": 5291,
      "805": 5292,
      "ĠBirkaÃ§": 5293,
      "Ġrelaxation": 5294,
      "kend": 5295,
      "Ġemer": 5296,
      "ĠOk": 5297,
      "179": 5298,
      "606": 5299,
      "Ġdonate": 5300,
      "iyat": 5301,
      "Ġarrive": 5302,
      "ĠaÅŁaÄŁÄ±daki": 5303,
      "Ġocc": 5304,
      "605": 5305,
      "ĠgeÃ§iÅŁ": 5306,
      "Ġtelefonunuzda": 5307,
      "Ġpriorities": 5308,
      "ĠfaydalÄ±": 5309,
      "Ġibaret": 5310,
      "fer": 5311,
      "Ġstabil": 5312,
      "Ġokuyun": 5313,
      "504": 5314,
      "Ġalacak": 5315,
      "Ġapproach": 5316,
      "inking": 5317,
      "Ġtough": 5318,
      "177": 5319,
      "Ġhedefle": 5320,
      "507": 5321,
      "Ġnoktal": 5322,
      "Ġspontaneous": 5323,
      "Ġdeparture": 5324,
      "'ye": 5325,
      "bi": 5326,
      "sadece": 5327,
      "alÄ±sÄ±nÄ±z": 5328,
      "Ġresistance": 5329,
      "ĠuÄŁra": 5330,
      "Ġtemperature": 5331,
      "Ġmutlaka": 5332,
      "Ġlay": 5333,
      "ravel": 5334,
      "Ġflow": 5335,
      "ĠiletiÅŁimi": 5336,
      "ĠhÄ±zlandÄ±r": 5337,
      "ĠyÃ¼ksel": 5338,
      "Ä±lacak": 5339,
      "ĠazaltÄ±n": 5340,
      "ĠkaÄŁÄ±t": 5341,
      "Ġchores": 5342,
      "uyarak": 5343,
      "Ġcabin": 5344,
      "Ġsure": 5345,
      "Ġyiy": 5346,
      "Ġreason": 5347,
      "ĠgÃ¼nkÃ¼": 5348,
      "247": 5349,
      "165": 5350,
      "167": 5351,
      "906": 5352,
      "907": 5353,
      "140": 5354,
      "347": 5355,
      "ĠÃ§alÄ±ÅŁmayÄ±": 5356,
      "ĠkiÅŁisel": 5357,
      "Ġhikaye": 5358,
      "ĠYaz": 5359,
      "905": 5360,
      "Ġafterward": 5361,
      "luluk": 5362,
      "sal": 5363,
      "Ä±yorum": 5364,
      "Ġpati": 5365,
      "enty": 5366,
      "Ġvererek": 5367,
      "Ġorder": 5368,
      "Ã¼zen": 5369,
      "705": 5370,
      "ĠSpend": 5371,
      "ĠkalÄ±cÄ±": 5372,
      "Ġparaphra": 5373,
      "Ä±yorsanÄ±z": 5374,
      "157": 5375,
      "Ġsonuna": 5376,
      "ĠseÃ§erek": 5377,
      "Ġplaces": 5378,
      "Ġexplain": 5379,
      "Ġbulup": 5380,
      "231": 5381,
      "Ġbookings": 5382,
      "807": 5383,
      "505": 5384,
      "ĠaÃ§Ä±n": 5385,
      "ĠulaÅŁÄ±m": 5386,
      "gest": 5387,
      "ĠAc": 5388,
      "Ġroutines": 5389,
      "Ġtutarak": 5390,
      "707": 5391,
      "Ġitineraries": 5392,
      "ĠgÃ¶revlerinizi": 5393,
      "Ġcomput": 5394,
      "Ġcategory": 5395,
      "Ġgently": 5396,
      "Ġsoon": 5397,
      "Ġrece": 5398,
      "**,": 5399,
      "508": 5400,
      "larÄ±nÄ±zÄ±n": 5401,
      "Ġwhy": 5402,
      "Ġacknow": 5403,
      "Ä±nÄ±zla": 5404,
      "159": 5405,
      "andÄ±r": 5406,
      "706": 5407,
      "Ġjourney": 5408,
      "Ġkonuya": 5409,
      "Ġminimize": 5410,
      "Ġrenk": 5411,
      "Ġpiece": 5412,
      "ser": 5413,
      "Ġtab": 5414,
      "dÄ±ÄŁÄ±nÄ±zÄ±": 5415,
      "ÄŁÄ±m": 5416,
      "acaktÄ±r": 5417,
      "ĠyÃ¼ze": 5418,
      "Ġoutcome": 5419,
      "808": 5420,
      "anÄ±p": 5421,
      "704": 5422,
      "ĠyÃ¶ntemi": 5423,
      "Ġgitmek": 5424,
      "ĠKonuÅŁ": 5425,
      "Ġroutes": 5426,
      "rop": 5427,
      "Ġvers": 5428,
      "155": 5429,
      "ĠkaynaÄŁÄ±": 5430,
      "-ste": 5431,
      "veriÅŁ": 5432,
      "281": 5433,
      "ĠalanlarÄ±": 5434,
      "ĠKendinize": 5435,
      "'nin": 5436,
      "Ġaccessible": 5437,
      "ĠExp": 5438,
      "ĠMayÄ±": 5439,
      "ĠnumaranÄ±z": 5440,
      "608": 5441,
      "Ġdefining": 5442,
      "Ġhobbies": 5443,
      "Ġforget": 5444,
      "345": 5445,
      "804": 5446,
      "Ġelinizdeki": 5447,
      "Ġbelirlemektir": 5448,
      "Ġslots": 5449,
      "Ġpower": 5450,
      "Ġokay": 5451,
      "221": 5452,
      "222": 5453,
      "ĠkullanÄ±mÄ±": 5454,
      "tÄ±rarak": 5455,
      "708": 5456,
      "Ġcategories": 5457,
      "Ġbarrier": 5458,
      "Ġfiziksel": 5459,
      "439": 5460,
      "Ġgather": 5461,
      "Ġtrash": 5462,
      "382": 5463,
      "Ġreinforce": 5464,
      "emm": 5465,
      "Ġcontext": 5466,
      "met": 5467,
      "ĠÃ¶de": 5468,
      "Ġjo": 5469,
      "402": 5470,
      "604": 5471,
      "ĠaÃ§Ä±p": 5472,
      "ĠÃ¶zen": 5473,
      "ĠkeÅŁf": 5474,
      "ral": 5475,
      "Ġseti": 5476,
      "Ġoverall": 5477,
      "Ġoturum": 5478,
      "Ġversus": 5479,
      "118": 5480,
      "ĠYeni": 5481,
      "ayla": 5482,
      "Ġeat": 5483,
      "ĠBelki": 5484,
      "ĠuyandÄ±ktan": 5485,
      "uss": 5486,
      "Ġcity": 5487,
      "Ġnod": 5488,
      "Ġkitaplar": 5489,
      "ĠGÃ¼ne": 5490,
      "Ġziyaret": 5491,
      "tÄ±racak": 5492,
      "Ġyolculuk": 5493,
      "311": 5494,
      "arlÄ±": 5495,
      "Ġgreat": 5496,
      "ential": 5497,
      "ĠulaÅŁmak": 5498,
      "Ġnecessary": 5499,
      "ĠBefore": 5500,
      "148": 5501,
      "Ġcevab": 5502,
      "Ġskills": 5503,
      "ĠkolayÄ±": 5504,
      "ĠfÄ±rsa": 5505,
      "ĠyalnÄ±z": 5506,
      "Ġora": 5507,
      "atory": 5508,
      "idden": 5509,
      "Ġworry": 5510,
      "Ġbakarak": 5511,
      "Ġizleyin": 5512,
      "Ġdiscuss": 5513,
      "ĠgÃ¶sterin": 5514,
      "Ġexpectations": 5515,
      "Use": 5516,
      "yet": 5517,
      "Ġsm": 5518,
      "Ġnaz": 5519,
      "ĠÄ°ki": 5520,
      "282": 5521,
      "233": 5522,
      "Ġworks": 5523,
      "904": 5524,
      "ĠKendinizi": 5525,
      "ĠpaylaÅŁÄ±n": 5526,
      "Ġstabilize": 5527,
      "mut": 5528,
      "Ġbild": 5529,
      "190": 5530,
      "Ġtemizleyin": 5531,
      "420": 5532,
      "Ġpair": 5533,
      "Ġretention": 5534,
      "icul": 5535,
      "Ġverilen": 5536,
      "301": 5537,
      "303": 5538,
      "908": 5539,
      "ĠdÃ¼ÅŁÃ¼nd": 5540,
      "ĠÄ±sÄ±": 5541,
      "Ġhyd": 5542,
      "Ġridicul": 5543,
      "-ins": 5544,
      "Ġsli": 5545,
      "Ġrema": 5546,
      "166": 5547,
      "most": 5548,
      "Ġsending": 5549,
      "ĠTeach": 5550,
      "Ġreh": 5551,
      "ĠÃ¶nerim": 5552,
      "uture": 5553,
      "lantÄ±": 5554,
      "Ġrepeated": 5555,
      "ĠÃ¶ncelikli": 5556,
      "gage": 5557,
      "fully": 5558,
      "Ã¼rÃ¼n": 5559,
      "331": 5560,
      "Ġdeeper": 5561,
      "ĠtamamlayÄ±n": 5562,
      "Ġduration": 5563,
      "ĠhiÃ§bir": 5564,
      "Ġsebz": 5565,
      "ĠMayÄ±s": 5566,
      "vÄ±": 5567,
      "inci": 5568,
      "usted": 5569,
      "Ġyola": 5570,
      "ĠÃ¶nerilir": 5571,
      "150": 5572,
      "240": 5573,
      "169": 5574,
      "Ġsormak": 5575,
      "Ġegzersizi": 5576,
      "meli": 5577,
      "nden": 5578,
      "cept": 5579,
      "ĠEkim": 5580,
      "Ġfuture": 5581,
      "403": 5582,
      "ĠbaÅŁlamadan": 5583,
      "kincisi": 5584,
      "Ġcuri": 5585,
      "Ġcount": 5586,
      "eak": 5587,
      "les": 5588,
      "unting": 5589,
      "ined": 5590,
      "ĠbaÅŁlÄ±k": 5591,
      "ides": 5592,
      "ĠOnce": 5593,
      "283": 5594,
      "401": 5595,
      "502": 5596,
      "ĠistediÄŁin": 5597,
      "Ġetmektir": 5598,
      "Ġlimits": 5599,
      "ĠaÄŁaÃ§": 5600,
      "lus": 5601,
      "uct": 5602,
      "vest": 5603,
      "Ġeyle": 5604,
      "Ġstra": 5605,
      "ĠkalÄ±n": 5606,
      "elerden": 5607,
      "ĠÃ¶zg": 5608,
      "Ġstratej": 5609,
      "Ġstim": 5610,
      "evap": 5611,
      "ĠeÅŁyadÄ±r": 5612,
      "332": 5613,
      "Ġhalinde": 5614,
      "ebilirim": 5615,
      "Can": 5616,
      "Ġstops": 5617,
      "Ġintense": 5618,
      "uyg": 5619,
      "Ġstepping": 5620,
      "ĠBelirli": 5621,
      "Ġgestures": 5622,
      "anlÄ±k": 5623,
      "Ġbirbir": 5624,
      "ĠMay": 5625,
      "lamaya": 5626,
      "Ġyazmak": 5627,
      "160": 5628,
      "383": 5629,
      "603": 5630,
      "Ġbiggest": 5631,
      "ĠyorgunluÄŁ": 5632,
      "ĠbunlarÄ±": 5633,
      "Ġlittle": 5634,
      "ons": 5635,
      "Ġyapar": 5636,
      "Ġlez": 5637,
      "ards": 5638,
      "381": 5639,
      "ĠalÄ±ÅŁveriÅŁ": 5640,
      "Ġdrawers": 5641,
      "Ġappointment": 5642,
      "-se": 5643,
      "ĠiÃ§i": 5644,
      "302": 5645,
      "check": 5646,
      "Ġhaven": 5647,
      "Ġkutudaki": 5648,
      "ĠKÄ±sa": 5649,
      "ĠkahvaltÄ±": 5650,
      "Ġridiculously": 5651,
      "ĠbeÅŁ": 5652,
      "ĠÄ°Ã§": 5653,
      "602": 5654,
      "Ġbulunan": 5655,
      "ĠOne": 5656,
      "Ġfriendships": 5657,
      "ĠvÃ¼cudunuzun": 5658,
      "Ġmapping": 5659,
      "ĠadÄ±mdÄ±r": 5660,
      "888": 5661,
      "449": 5662,
      "702": 5663,
      "Ġbecer": 5664,
      "Ġexpenses": 5665,
      "Ġnazik": 5666,
      "ben": 5667,
      "ĠiÃ§erek": 5668,
      "lim": 5669,
      "olog": 5670,
      "Ġfees": 5671,
      "ĠÃ¶ncesi": 5672,
      "885": 5673,
      "501": 5674,
      "849": 5675,
      "701": 5676,
      "703": 5677,
      "ĠyÃ¶nelik": 5678,
      "Ġsince": 5679,
      "Ġjumping": 5680,
      "'nda": 5681,
      "not": 5682,
      "ĠBugÃ¼n": 5683,
      "ĠanÄ±": 5684,
      "ikten": 5685,
      "333": 5686,
      "803": 5687,
      "886": 5688,
      "ucing": 5689,
      "What": 5690,
      "kward": 5691,
      "Ġlik": 5692,
      "ĠÃ¼re": 5693,
      "larÄ±nÄ±n": 5694,
      "Ġdaunting": 5695,
      "ĠÃĸz": 5696,
      "ĠKullan": 5697,
      "503": 5698,
      "Ġgereksiz": 5699,
      "ĠyaÅŁayan": 5700,
      "Ġbes": 5701,
      "ĠyapabileceÄŁiniz": 5702,
      "oling": 5703,
      "Ġlistel": 5704,
      "887": 5705,
      "Ġoblig": 5706,
      "com": 5707,
      "alt": 5708,
      "uma": 5709,
      "ÄŁinde": 5710,
      "Ġkons": 5711,
      "256": 5712,
      "802": 5713,
      "Ġlowers": 5714,
      "903": 5715,
      "Ġaccusing": 5716,
      "ĠÃ¶zellikle": 5717,
      "Ġawkward": 5718,
      "ĠazalÄ±r": 5719,
      "Ġstatement": 5720,
      "by": 5721,
      "isidir": 5722,
      "Ġplay": 5723,
      "255": 5724,
      "Ġetme": 5725,
      "ĠolduÄŁunuzu": 5726,
      "Ġpeak": 5727,
      "Ġbelirlemeniz": 5728,
      "Ġcontinue": 5729,
      "Avoid": 5730,
      "Ġprati": 5731,
      "irken": 5732,
      "ider": 5733,
      "144": 5734,
      "296": 5735,
      "ĠyÃ¼zer": 5736,
      "Ġhareketleri": 5737,
      "ĠsÃ¼rdÃ¼r": 5738,
      "'unda": 5739,
      "ially": 5740,
      "Ġbaz": 5741,
      "Ġyes": 5742,
      "902": 5743,
      "Ġalana": 5744,
      "pecially": 5745,
      "ĠÃ§ekim": 5746,
      "tÄ±ÄŁÄ±nÄ±zda": 5747,
      "Ġpaper": 5748,
      "ĠAÄŁust": 5749,
      "Ġatarak": 5750,
      "901": 5751,
      "Ġunutma": 5752,
      "ĠolmadÄ±ÄŁÄ±nÄ±": 5753,
      "ĠeÅŁyalar": 5754,
      "Ġappointments": 5755,
      "uoling": 5756,
      "ĠplanlÄ±": 5757,
      "old": 5758,
      "Ġcancel": 5759,
      "ĠgeÃ§miÅŁ": 5760,
      "Ġcommitments": 5761,
      "Ġbekl": 5762,
      "Ġbekleyin": 5763,
      "Ġdelay": 5764,
      "Ġentry": 5765,
      "uolingo": 5766,
      "Ġstating": 5767,
      "Ġzorun": 5768,
      "Ġweekend": 5769,
      "ĠÃ¶ÄŁrenmeyi": 5770,
      "Ġespecially": 5771,
      "ĠayÄ±nda": 5772,
      "257": 5773,
      "leyecek": 5774,
      "leyici": 5775,
      "Ġetti": 5776,
      "ĠokumayÄ±": 5777,
      "601": 5778,
      "uzu": 5779,
      "Ġmiss": 5780,
      "ĠaydÄ±rdÄ±": 5781,
      "321": 5782,
      "Ġalig": 5783,
      "ĠTravel": 5784,
      "ĠzamanÄ±nÄ±zÄ±": 5785,
      "layacak": 5786,
      "Ġhissetti": 5787,
      "acaÄŁÄ±m": 5788,
      "âĢĶto": 5789,
      "Ġdikkatli": 5790,
      "mamak": 5791,
      "Ġpa": 5792,
      "Ġkil": 5793,
      "Ã¼yor": 5794,
      "801": 5795,
      "ĠsÃ¼resini": 5796,
      "Ġyorgunluk": 5797,
      "ame": 5798,
      "Ġnor": 5799,
      "ĠEat": 5800,
      "acÄ±": 5801,
      "Ġsoft": 5802,
      "Ġalmost": 5803,
      "Ġetmeyi": 5804,
      "ĠGÃ¶rev": 5805,
      "318": 5806,
      "Ġdal": 5807,
      "Ġjar": 5808,
      "276": 5809,
      "ĠKayÄ±t": 5810,
      "ĠsaÄŁlamak": 5811,
      "ĠkatÄ±l": 5812,
      "Ġvalidating": 5813,
      "Ġpiles": 5814,
      "Ãĩ": 5815,
      "Ġslight": 5816,
      "Ġhidden": 5817,
      "Ġdok": 5818,
      "Ġmar": 5819,
      "267": 5820,
      "275": 5821,
      "ĠbaÅŁlayabilir": 5822,
      "Ġintentional": 5823,
      "Ġconcent": 5824,
      "work": 5825,
      "ÅŁe": 5826,
      "ĠgÃ¼zel": 5827,
      "295": 5828,
      "ĠyerleÅŁ": 5829,
      "ĠbÃ¶lÃ¼n": 5830,
      "ĠsÄ±rasÄ±nda": 5831,
      "Ġincrease": 5832,
      "Ġmultitasking": 5833,
      "rog": 5834,
      "Ġkan": 5835,
      "Ġkonular": 5836,
      "Ġwilling": 5837,
      "elerin": 5838,
      "ĠWork": 5839,
      "Ġmotivasyonu": 5840,
      "lenen": 5841,
      "Ġcategorize": 5842,
      "ĠÃĸneri": 5843,
      "Ġpast": 5844,
      "Ġgrate": 5845,
      "Ġbeats": 5846,
      "ĠyapÄ±l": 5847,
      "279": 5848,
      "Ġseviyesini": 5849,
      "ĠHafta": 5850,
      "Ġavailable": 5851,
      "Ġsolutions": 5852,
      "Ġvadeli": 5853,
      "Ġgrateful": 5854,
      "413": 5855,
      "eet": 5856,
      "Ġbri": 5857,
      "Ġyay": 5858,
      "ĠBah": 5859,
      "ĠyaÅŁa": 5860,
      "Ġrush": 5861,
      "Ġvi": 5862,
      "Ġkoyarak": 5863,
      "Ġstoring": 5864,
      "bilirsin": 5865,
      "396": 5866,
      "884": 5867,
      "rack": 5868,
      "ĠÃĸnceki": 5869,
      "Ġairlines": 5870,
      "Ġtavsiy": 5871,
      "'Ä±": 5872,
      "elere": 5873,
      "ĠayÄ±rt": 5874,
      "ĠgÃ¼nler": 5875,
      "Ġtempt": 5876,
      "aÄŁa": 5877,
      "Ġrefle": 5878,
      "Ã¼ÄŁÃ¼nÃ¼z": 5879,
      "Ġindirin": 5880,
      "Ġstruct": 5881,
      "259": 5882,
      "265": 5883,
      "369": 5884,
      "shop": 5885,
      "ĠyapÄ±sÄ±nÄ±": 5886,
      "Ġderinlemesine": 5887,
      "acaÄŁÄ±nÄ±": 5888,
      "Ġkaynat": 5889,
      "ĠmÃ¼mkÃ¼nse": 5890,
      "titu": 5891,
      "ĠbeÄŁ": 5892,
      "ĠaracÄ±": 5893,
      "Ġspaced": 5894,
      "Ġduygusal": 5895,
      "ĠharitasÄ±": 5896,
      "'Ã¼": 5897,
      "Sadece": 5898,
      "lict": 5899,
      "ĠbaÅŁÄ±nÄ±za": 5900,
      "Ġmovi": 5901,
      "Ġkonak": 5902,
      "ĠbaÅŁlayabilirsin": 5903,
      "lÃ¼ÄŁ": 5904,
      "Ġsuppress": 5905,
      "Ġpatter": 5906,
      "Create": 5907,
      "yse": 5908,
      "Ġyazar": 5909,
      "269": 5910,
      "889": 5911,
      "Ġkolayca": 5912,
      "Ġprice": 5913,
      "Ġdisrupts": 5914,
      "ĠSÃ¼rekli": 5915,
      "ĠAÄŁustos": 5916,
      "Ġslightly": 5917,
      "elerini": 5918,
      "Ġmuh": 5919,
      "Ġconflict": 5920,
      "Ġrutini": 5921,
      "abilecek": 5922,
      "Ġproductive": 5923,
      "ĠHayat": 5924,
      "Ġnormal": 5925,
      "357": 5926,
      "376": 5927,
      "ĠFind": 5928,
      "Ġhareketler": 5929,
      "Ġdeciding": 5930,
      "Ġilerlemenizi": 5931,
      "Ġdah": 5932,
      "ysanÄ±z": 5933,
      "248": 5934,
      "359": 5935,
      "Ġaktif": 5936,
      "Ġilerle": 5937,
      "Ġhappy": 5938,
      "Ġengaged": 5939,
      "218": 5940,
      "alan": 5941,
      "oci": 5942,
      "ilebilir": 5943,
      "ĠkullanÄ±l": 5944,
      "882": 5945,
      "Ġuygulamaya": 5946,
      "Ġgetirin": 5947,
      "Ġfrustrated": 5948,
      "Ġsul": 5949,
      "Ġikinci": 5950,
      "297": 5951,
      "Ġreaching": 5952,
      "ĠsÃ¼recini": 5953,
      "ĠolduÄŁunca": 5954,
      "ĠÃ¶nerileri": 5955,
      "Ġlog": 5956,
      "239": 5957,
      "Ġconfus": 5958,
      "ĠErken": 5959,
      "Ġsignificantly": 5960,
      "Ġnodding": 5961,
      ".'": 5962,
      "dil": 5963,
      "xim": 5964,
      "Ġsust": 5965,
      "Ġeyes": 5966,
      "266": 5967,
      "celi": 5968,
      "ĠyÃ¶ntemdir": 5969,
      "ĠsÄ±caklÄ±": 5970,
      "Ġassoci": 5971,
      "ĠiÃ§eren": 5972,
      "ĠbaÅŁlangÄ±c": 5973,
      "Go": 5974,
      "bal": 5975,
      "gÄ±n": 5976,
      "ĠPM": 5977,
      "Ġseven": 5978,
      "ĠhaftalÄ±k": 5979,
      "ĠkitabÄ±n": 5980,
      "Ġswims": 5981,
      "Ġsitting": 5982,
      "endir": 5983,
      "Ã¼kemm": 5984,
      "Ġoverth": 5985,
      "tadÄ±r": 5986,
      "ĠnetleÅŁtirin": 5987,
      "reci": 5988,
      "lerken": 5989,
      "170": 5990,
      "299": 5991,
      "355": 5992,
      "377": 5993,
      "395": 5994,
      "mÄ±ÅŁtÄ±r": 5995,
      "Ġshows": 5996,
      "Ġobject": 5997,
      "Ġbitirin": 5998,
      "Ġsearch": 5999,
      "gon": 6000,
      "pr": 6001,
      "veya": 6002,
      "Ġresearch": 6003,
      "375": 6004,
      "Ġgerektir": 6005,
      "Ġstopping": 6006,
      "ĠaraÃ§larÄ±": 6007,
      "Ġtarif": 6008,
      "Ġnearby": 6009,
      "hotoshop": 6010,
      "gre": 6011,
      "linde": 6012,
      "ĠadÄ±mÄ±nÄ±": 6013,
      "malarÄ±": 6014,
      "339": 6015,
      "881": 6016,
      "Ġappreci": 6017,
      "licit": 6018,
      "Set": 6019,
      "esine": 6020,
      "Ġkurul": 6021,
      "Ġcommitment": 6022,
      "ĠkapalÄ±": 6023,
      "ĠkolaylaÅŁtÄ±rmak": 6024,
      "oloj": 6025,
      "Ġkum": 6026,
      "Ġkalp": 6027,
      "Ġdille": 6028,
      "366": 6029,
      "ĠtÃ¼rden": 6030,
      "Ġbulunur": 6031,
      "ĠÃ¶ÄŁleden": 6032,
      "Ġsearching": 6033,
      "ĠyumuÅŁak": 6034,
      "way": 6035,
      "resh": 6036,
      "ilere": 6037,
      "ĠgÃ¼nlerde": 6038,
      "Ġolaca": 6039,
      "Ġfear": 6040,
      "Ġetmeniz": 6041,
      "Ġkendiniz": 6042,
      "ĠkonuÅŁmalar": 6043,
      "Ġtakv": 6044,
      "ĠsaÄŁlayan": 6045,
      "-task": 6046,
      "Â°F": 6047,
      "Ġsubject": 6048,
      "top": 6049,
      "Ġfam": 6050,
      "ĠzorluÄŁ": 6051,
      "883": 6052,
      "Ġgarden": 6053,
      "Ġformulating": 6054,
      "Ġkavram": 6055,
      "ĠkeÅŁfed": 6056,
      "Ġmix": 6057,
      "elerinizi": 6058,
      "399": 6059,
      "alarÄ±nÄ±": 6060,
      "ĠInvite": 6061,
      "ndle": 6062,
      "rete": 6063,
      "ĠEvet": 6064,
      "Ġdiz": 6065,
      "Ġyazarak": 6066,
      "360": 6067,
      "379": 6068,
      "397": 6069,
      "ĠdÃ¼ÅŁÃ¼nce": 6070,
      "Ġyatmak": 6071,
      "Ġbehaviors": 6072,
      "âĢĶlike": 6073,
      "Ġengaging": 6074,
      "ĠSpeak": 6075,
      "ĠkÄ±sÄ±t": 6076,
      "Ġtrusted": 6077,
      "367": 6078,
      "348": 6079,
      "siyon": 6080,
      "Ġgerekecek": 6081,
      "Ġensures": 6082,
      "ĠtemizliÄŁi": 6083,
      "Ġgidip": 6084,
      "...\")": 6085,
      "Ġhuzurlu": 6086,
      "cu": 6087,
      "ned": 6088,
      "Ġrele": 6089,
      "Ġreally": 6090,
      "ĠÄ°kincisi": 6091,
      "ayÄ±m": 6092,
      "ĠÃ¶nerisi": 6093,
      "Ġnoise": 6094,
      "Ġunderstands": 6095,
      "Ġekleyip": 6096,
      "Ġimpul": 6097,
      "Ġiyisidir": 6098,
      "ĠdÃ¼zelt": 6099,
      "Ġtuz": 6100,
      "lanacak": 6101,
      "mekle": 6102,
      "ersiniz": 6103,
      "277": 6104,
      "ĠÃĸncelik": 6105,
      "ĠolanÄ±": 6106,
      "Ġtelefonunuza": 6107,
      "Ġfore": 6108,
      "Ġettir": 6109,
      "Ġopini": 6110,
      "Ġhayatta": 6111,
      "Ġprefer": 6112,
      "ĠGÃ¶r": 6113,
      "unuzdan": 6114,
      "Ġbasic": 6115,
      "ĠbaÅŁlamayÄ±": 6116,
      "ĠsÄ±fÄ±r": 6117,
      "ĠparÃ§alara": 6118,
      "Ġmalzemeleri": 6119,
      "ĠiÅŁlemi": 6120,
      "Ġkafa": 6121,
      "Ġlikely": 6122,
      "Ġstructure": 6123,
      "isf": 6124,
      "umlu": 6125,
      "Ã¶yle": 6126,
      "Ġarada": 6127,
      "446": 6128,
      "Ġmekan": 6129,
      "ĠfotoÄŁrafÃ§Ä±": 6130,
      "Ġtrips": 6131,
      "Ġaccount": 6132,
      "Ġlose": 6133,
      "ĠoluÅŁturur": 6134,
      "ĠÄ±s": 6135,
      "Ġtidying": 6136,
      "olute": 6137,
      "Ġabsolute": 6138,
      "Ġdraining": 6139,
      "Ġbis": 6140,
      "Ġmask": 6141,
      "ept": 6142,
      "250": 6143,
      "ĠdoÄŁrul": 6144,
      "Ġtension": 6145,
      "ĠÃ¶nceliklendir": 6146,
      "Ġsatisf": 6147,
      "Eat": 6148,
      "tionally": 6149,
      "Ġmist": 6150,
      "rip": 6151,
      "Ġshower": 6152,
      "Ġneg": 6153,
      "ters": 6154,
      "evcut": 6155,
      "365": 6156,
      "ĠolmasÄ±nÄ±": 6157,
      "ĠDÃ¼zen": 6158,
      "ĠTrack": 6159,
      "Ġfar": 6160,
      "lasik": 6161,
      "uge": 6162,
      "Ġark": 6163,
      "356": 6164,
      "ĠFrog": 6165,
      "Ġcompletion": 6166,
      "Ġelde": 6167,
      "Ġmissing": 6168,
      "Ġmaxim": 6169,
      "Ġazaltmak": 6170,
      "Ġmedya": 6171,
      "Ġport": 6172,
      "Ġtu": 6173,
      "Ġworkout": 6174,
      "ĠuygulamalarÄ±": 6175,
      "osing": 6176,
      "Ġaddress": 6177,
      "Ġclarify": 6178,
      "ĠConsistent": 6179,
      "Ġconcrete": 6180,
      "Ġonunla": 6181,
      "Ġparaphrasing": 6182,
      "Ġbildirim": 6183,
      "Ġjargon": 6184,
      "tile": 6185,
      "orm": 6186,
      "Ġbey": 6187,
      "ĠGÃ¼ven": 6188,
      "ĠvÃ¼cudun": 6189,
      "pit": 6190,
      "erti": 6191,
      "ĠBun": 6192,
      "Ä±rÄ±": 6193,
      "eceÄŁiniz": 6194,
      "Ġovercome": 6195,
      "Ġhedefinize": 6196,
      "445": 6197,
      "ĠdÃ¼ÅŁÃ¼k": 6198,
      "Ġhaline": 6199,
      "ĠgeÃ§irmek": 6200,
      "ĠeÅŁyalarÄ±": 6201,
      "Ġindirip": 6202,
      "racak": 6203,
      "Ġfour": 6204,
      "Ġveren": 6205,
      "ĠyÃ¼zey": 6206,
      "Ġhissini": 6207,
      "ĠUyk": 6208,
      "ĠtÃ¼ket": 6209,
      "aten": 6210,
      "ĠgÃ¼ne": 6211,
      "ĠHav": 6212,
      "otob": 6213,
      "ĠkaydÄ±n": 6214,
      "ions": 6215,
      "night": 6216,
      "lenmiÅŁ": 6217,
      "ĠMotivasyon": 6218,
      "ĠamaÃ§la": 6219,
      "Ġupdates": 6220,
      "419": 6221,
      "Do": 6222,
      "gth": 6223,
      "kÃ¼r": 6224,
      "Ä±ndaki": 6225,
      "Ġpil": 6226,
      "Ġneut": 6227,
      "sÄ±yla": 6228,
      "Ġcome": 6229,
      "Ġistiyor": 6230,
      "ĠsÃ¼reyi": 6231,
      "ĠÅŁeyin": 6232,
      "Ġmessy": 6233,
      "larÄ±nÄ±za": 6234,
      "Ã¼kemmel": 6235,
      "du": 6236,
      "tuÄŁ": 6237,
      "158": 6238,
      "ĠÅŁudur": 6239,
      "Ġelinizde": 6240,
      "ĠolduÄŁuna": 6241,
      "Ġpriority": 6242,
      "Ġawake": 6243,
      "Ġinitially": 6244,
      "Ġhit": 6245,
      "Ġvs": 6246,
      "ĠyÃ¼rÃ¼yÃ¼ÅŁÃ¼": 6247,
      "areket": 6248,
      "447": 6249,
      "Ġtelefonun": 6250,
      "phone": 6251,
      "ĠgÃ¶zlemleyin": 6252,
      "Merhaba": 6253,
      "-ess": 6254,
      "One": 6255,
      "va": 6256,
      "Ġ$": 6257,
      "ism": 6258,
      "Ġclu": 6259,
      "Ġfla": 6260,
      "Ġsomut": 6261,
      "ĠÃ¶ÄŁrenmenin": 6262,
      "ĠyÃ¼rÃ¼yÃ¼n": 6263,
      "larÄ±nÄ±zla": 6264,
      "Ġdeadline": 6265,
      "ĠyaygÄ±n": 6266,
      "urance": 6267,
      "Ġanlamaya": 6268,
      "ĠgÃ¶ÄŁ": 6269,
      "Ġotom": 6270,
      "ĠÃ§alÄ±ÅŁarak": 6271,
      "000": 6272,
      "ĠÅŀimdi": 6273,
      "Ġtespit": 6274,
      "Ġtype": 6275,
      "-see": 6276,
      "Ġneutral": 6277,
      "How": 6278,
      "anti": 6279,
      "ĠSÄ±k": 6280,
      "Ġplanlamak": 6281,
      "uduÄŁ": 6282,
      "Ġnotice": 6283,
      "Ġsaatlerinizi": 6284,
      "Ġexpand": 6285,
      "Ġyoldur": 6286,
      "Ġortadan": 6287,
      "ĠbahÃ§enize": 6288,
      "Ġamount": 6289,
      "Ġistersiniz": 6290,
      "ĠgerektiÄŁini": 6291,
      "Ġlezzet": 6292,
      "Ġclub": 6293,
      "Durum": 6294,
      "Ġnut": 6295,
      "temelen": 6296,
      "Ġinerti": 6297,
      "ĠayÄ±rdÄ±ÄŁÄ±nÄ±": 6298,
      "ĠGen": 6299,
      "ekkÃ¼r": 6300,
      "ĠdeÄŁerli": 6301,
      "Ġsaatlerini": 6302,
      "ĠkarÅŁÄ±laÅŁacak": 6303,
      "Ġyetenek": 6304,
      "Ġbisik": 6305,
      "Ġinertia": 6306,
      "masÄ±na": 6307,
      "ayÄ±f": 6308,
      "oken": 6309,
      "Ġlun": 6310,
      "Ġpassively": 6311,
      "Ġvalidate": 6312,
      "iliar": 6313,
      "Ġdahil": 6314,
      "veni": 6315,
      "168": 6316,
      "ĠgerÃ§ekleÅŁ": 6317,
      "'yla": 6318,
      "gÃ¶r": 6319,
      "oz": 6320,
      "suz": 6321,
      "you": 6322,
      "Ġspread": 6323,
      "ification": 6324,
      "Ġworkday": 6325,
      "cies": 6326,
      "tedir": 6327,
      "Ġenerjinizi": 6328,
      "Ġglasses": 6329,
      "Ġchoosing": 6330,
      "Ġnedeni": 6331,
      "ale": 6332,
      "ulara": 6333,
      "Ġbulmaya": 6334,
      "ĠÃ¶nem": 6335,
      "178": 6336,
      "ĠbaÅŁlamanÄ±zÄ±": 6337,
      "ĠdÃ¼zenleyin": 6338,
      "Ġhata": 6339,
      "ĠsÃ¶yleyin": 6340,
      "cting": 6341,
      "mis": 6342,
      "Ġmas": 6343,
      "active": 6344,
      "ĠeriÅŁ": 6345,
      "Ãĸner": 6346,
      "Ġhiking": 6347,
      "Ġrefresh": 6348,
      "-wake": 6349,
      "Ġbelirtilen": 6350,
      "440": 6351,
      "App": 6352,
      "alama": 6353,
      "ĠuyanÄ±p": 6354,
      "Ġtip": 6355,
      "Ġanswers": 6356,
      "Ġlists": 6357,
      "Ġeklemek": 6358,
      "Ġrewarding": 6359,
      "ĠyaptÄ±ÄŁÄ±nÄ±zÄ±": 6360,
      "Ġpopular": 6361,
      "Ġdisrupt": 6362,
      "Ġdefteri": 6363,
      "ĠuÄŁraÅŁ": 6364,
      "enizin": 6365,
      "Ġinteres": 6366,
      "ĠbÄ±rakmak": 6367,
      "diÄŁini": 6368,
      "Ġhissetmeye": 6369,
      "Ġcompli": 6370,
      "ĠkiÅŁiyle": 6371,
      "Ġmakinesini": 6372,
      "Ġcombat": 6373,
      "Ġtuval": 6374,
      "lation": 6375,
      "ĠayarlarÄ±nÄ±": 6376,
      "Ġizlemek": 6377,
      "titude": 6378,
      "412": 6379,
      "Ġple": 6380,
      "Ġgiy": 6381,
      "ĠBasit": 6382,
      "Ġstren": 6383,
      "ĠanlÄ±": 6384,
      "asÄ±n": 6385,
      "mall": 6386,
      "Ġkullanabilirsiniz": 6387,
      "Ġsuda": 6388,
      "Ġdeneyerek": 6389,
      "Ġinterrupt": 6390,
      "ĠbÃ¼tÃ§enizi": 6391,
      "ĠÃ¶dev": 6392,
      "Ġneler": 6393,
      "ĠkÄ±ya": 6394,
      "Ġevinizdeki": 6395,
      "celer": 6396,
      "ĠgeÃ§en": 6397,
      "Ġkurt": 6398,
      "ĠgÃ¶rÃ¼nÃ¼": 6399,
      "Ġsorunun": 6400,
      "Ġgrand": 6401,
      "Ġelectronics": 6402,
      "Ġsites": 6403,
      "ĠAccept": 6404,
      "kÃ¼Ã§Ã¼k": 6405,
      "ĠÃ¼rÃ¼n": 6406,
      "138": 6407,
      "350": 6408,
      "Ġreducing": 6409,
      "Ġconnected": 6410,
      "Ġjudging": 6411,
      "Ġcolor": 6412,
      "vis": 6413,
      "ĠÃ¶neriye": 6414,
      "ĠÃ§Ã¶": 6415,
      "270": 6416,
      "ĠfotoÄŁrafÄ±": 6417,
      "ĠsÄ±vÄ±": 6418,
      "Ġimproves": 6419,
      "Ġclothing": 6420,
      "Ġconsider": 6421,
      "Ġfiyat": 6422,
      "Ä±rsÄ±nÄ±z": 6423,
      "ĠyaÄŁ": 6424,
      "Ã¼ÅŁÃ¼n": 6425,
      "ĠÃ¶ÄŁÃ¼n": 6426,
      "Ġworri": 6427,
      "ĠbaÅŁlamalÄ±sÄ±nÄ±z": 6428,
      "ĠdÃ¼zenlemek": 6429,
      "ĠÅŁeklinde": 6430,
      "diÄŁin": 6431,
      "Ġclarification": 6432,
      "ĠsaÄŁlayarak": 6433,
      "ĠTelefonu": 6434,
      "Ġzihn": 6435,
      "Ġrehber": 6436,
      "ises": 6437,
      "Ġsunu": 6438,
      "ouch": 6439,
      "Ġklasik": 6440,
      "ĠiÅŁin": 6441,
      "Ġtamamlamak": 6442,
      "ĠgÃ¶revler": 6443,
      "Ġmemorize": 6444,
      "Ġarrival": 6445,
      "Ġtarget": 6446,
      "Ġslip": 6447,
      "Ġconcentration": 6448,
      "Ġmovie": 6449,
      "Ġotob": 6450,
      "Ġblo": 6451,
      "Ġdele": 6452,
      "acaÄŁÄ±": 6453,
      "154": 6454,
      "260": 6455,
      "370": 6456,
      "ĠodaklanÄ±p": 6457,
      "Ġhareketi": 6458,
      "ĠtÃ¼rÃ¼nÃ¼": 6459,
      "Ġderinlik": 6460,
      "ĠuyanÄ±ÅŁ": 6461,
      "Ġinitiating": 6462,
      "Ġnutri": 6463,
      "inÃ§": 6464,
      "Ã¼cut": 6465,
      "usuna": 6466,
      "ÄŁinize": 6467,
      "ĠÃ§ab": 6468,
      "ĠÃ¶nÃ¼ne": 6469,
      "ĠbaÅŁarÄ±lar": 6470,
      "ĠhoÅŁ": 6471,
      "ebilirsin": 6472,
      "bbing": 6473,
      "Ġpassive": 6474,
      "Ġkutular": 6475,
      "Ġetkinlik": 6476,
      "sen": 6477,
      "Ġpod": 6478,
      "ases": 6479,
      "Ġtelefonla": 6480,
      "Ġbeklemek": 6481,
      "Ġfailure": 6482,
      "ĠanlaÅŁÄ±lÄ±r": 6483,
      "Ġcabinet": 6484,
      "gency": 6485,
      "anÄ±ÅŁ": 6486,
      "Ġsuy": 6487,
      "ĠSur": 6488,
      "Ġbuy": 6489,
      "Ġkalma": 6490,
      "290": 6491,
      "Ġexplicit": 6492,
      "ĠhazÄ±rlamak": 6493,
      "ĠÄ±ÅŁÄ±ÄŁÄ±nÄ±": 6494,
      "Ġidea": 6495,
      "soli": 6496,
      "Ġnavigate": 6497,
      "Zaman": 6498,
      "oice": 6499,
      "ĠkonularÄ±": 6500,
      "ĠatÄ±ÅŁ": 6501,
      "390": 6502,
      "ĠiÃ§erik": 6503,
      "Ġexperience": 6504,
      "mini": 6505,
      "ounda": 6506,
      "ĠkÄ±r": 6507,
      "Ġig": 6508,
      "Ġfounda": 6509,
      "Ġresmi": 6510,
      "ĠÃ¶nlemek": 6511,
      "Ġyerlere": 6512,
      "ĠKendine": 6513,
      "Ġalanda": 6514,
      "ĠduyduÄŁunuz": 6515,
      "Ġmonths": 6516,
      "ĠsoÄŁuk": 6517,
      "Ġmuhtemelen": 6518,
      "Ġpodcast": 6519,
      "-light": 6520,
      "roc": 6521,
      "Ġdizi": 6522,
      "Ġface": 6523,
      "lated": 6524,
      "198": 6525,
      "ĠfotoÄŁraflarÄ±": 6526,
      "Ġyakal": 6527,
      "Ġolursa": 6528,
      "Ġshoes": 6529,
      "Ġspreadsh": 6530,
      "ĠSurround": 6531,
      "Cevap": 6532,
      "Not": 6533,
      "Ä±ÄŁÄ±": 6534,
      "ceed": 6535,
      "ĠKal": 6536,
      "ĠÃ§ekmeye": 6537,
      "ĠsabahÄ±": 6538,
      "ĠkonuÅŁacak": 6539,
      "Ġsunar": 6540,
      "Ġtelefonunuzdaki": 6541,
      "Ġassign": 6542,
      "ĠHafif": 6543,
      "Ġconcer": 6544,
      "Ġharcam": 6545,
      "Ġmerk": 6546,
      "Ġwebsite": 6547,
      "eÃ§": 6548,
      "yÄ±m": 6549,
      "ĠÃ¼st": 6550,
      "Ġolsa": 6551,
      "ĠplanÄ±nÄ±": 6552,
      "Ġistek": 6553,
      "ĠkonuÅŁun": 6554,
      "Ġdinlemek": 6555,
      "ĠboÅŁluk": 6556,
      "Ġlunch": 6557,
      "Ġign": 6558,
      "ĠBatch": 6559,
      "ored": 6560,
      "elerle": 6561,
      "Ġdenem": 6562,
      "Ġsana": 6563,
      "Ġenerjiyi": 6564,
      "Ġsinir": 6565,
      "Ġkaybol": 6566,
      "Ġtwenty": 6567,
      "Ġoverthinking": 6568,
      "Ġstrength": 6569,
      "pause": 6570,
      "tÄ±ktan": 6571,
      "yan": 6572,
      "Ġisim": 6573,
      "ĠbuluÅŁuyor": 6574,
      "ĠbaÅŁlatmak": 6575,
      "ĠbaÅŁlatabilirsiniz": 6576,
      "lights": 6577,
      "Ġeffici": 6578,
      "Ġaktiviteleri": 6579,
      "ĠbaskÄ±": 6580,
      "Ġacknowledge": 6581,
      "Ġkonaklama": 6582,
      "yÃ¼z": 6583,
      "Ġour": 6584,
      "Ġbol": 6585,
      "Ġbahsed": 6586,
      "ĠolduÄŁunda": 6587,
      "Ġdurmak": 6588,
      "ĠSabahÄ±n": 6589,
      "Ġbigger": 6590,
      "Ġduvara": 6591,
      "yoga": 6592,
      "Ġekip": 6593,
      "lies": 6594,
      "ĠyazÄ±p": 6595,
      "Ġanlama": 6596,
      "portun": 6597,
      "ĠaÃ§mak": 6598,
      "ĠÃ¶zellik": 6599,
      "Ġspaces": 6600,
      "Ġchallenges": 6601,
      "Ġsenary": 6602,
      "-essential": 6603,
      "uses": 6604,
      "Ġdish": 6605,
      "ĠayrÄ±": 6606,
      "344": 6607,
      "Ġduruma": 6608,
      "Ġopportun": 6609,
      "Ġvisually": 6610,
      "osity": 6611,
      "Ġinsurance": 6612,
      "Ġsustain": 6613,
      "insel": 6614,
      "related": 6615,
      "urn": 6616,
      "Ġonay": 6617,
      "ĠLÃ¼tfen": 6618,
      "Ġdedicating": 6619,
      "ĠLearn": 6620,
      "ĠuyandÄ±": 6621,
      "Ġkalitesini": 6622,
      "Ġcomputers": 6623,
      "Ġkilit": 6624,
      "ĠgÃ¶rÃ¼nÃ¼yor": 6625,
      "kes": 6626,
      "ÄŁinden": 6627,
      "ict": 6628,
      "start": 6629,
      "usuz": 6630,
      "Ġche": 6631,
      "Ä±nÄ±zdan": 6632,
      "244": 6633,
      "Ġdownload": 6634,
      "Ġmindset": 6635,
      "Ġparal": 6636,
      "Ġliving": 6637,
      "Ġsnacks": 6638,
      "Ġkaliteli": 6639,
      "Pair": 6640,
      "isine": 6641,
      "Ġfits": 6642,
      "Ġadedi": 6643,
      "lid": 6644,
      "ading": 6645,
      "Ġvoice": 6646,
      "ĠAyda": 6647,
      "manÄ±zdÄ±r": 6648,
      "Ġtelefonunu": 6649,
      "Ġgrabbing": 6650,
      "Ġkeyif": 6651,
      "fety": 6652,
      "ĠiliÅŁkil": 6653,
      "Ġgeneral": 6654,
      "Ġfacts": 6655,
      "GÃ¼nlÃ¼k": 6656,
      "inct": 6657,
      "urun": 6658,
      "ĠDef": 6659,
      "Ġsolid": 6660,
      "ĠbaÅŁta": 6661,
      "Ġcha": 6662,
      "ĠdeÄŁiÅŁtirmek": 6663,
      "ĠaldÄ±": 6664,
      "tiÅŁime": 6665,
      "Ġdurun": 6666,
      "ĠsayÄ±sÄ±nÄ±": 6667,
      "mesine": 6668,
      "Ġbilgisi": 6669,
      "Ġgratitude": 6670,
      "ĠÃ§imen": 6671,
      "Ġcuriosity": 6672,
      "onu": 6673,
      "Ġhiz": 6674,
      "ĠvÃ¼cut": 6675,
      "ĠdoÄŁa": 6676,
      "Ġrepla": 6677,
      "ĠuygulamayÄ±": 6678,
      "Ġdinner": 6679,
      "yorsan": 6680,
      "undry": 6681,
      "ĠuzaklaÅŁ": 6682,
      "Ġdeneme": 6683,
      "Ġyu": 6684,
      "Ġstays": 6685,
      "Ġbura": 6686,
      "Ã¼yÃ¼": 6687,
      "ĠkaygÄ±": 6688,
      "tÄ±cÄ±": 6689,
      "ĠhaftanÄ±n": 6690,
      "Ã¶zellikle": 6691,
      "abileceÄŁin": 6692,
      "oÄŁu": 6693,
      "Ġphotos": 6694,
      "Ġhavada": 6695,
      "Google": 6696,
      "ham": 6697,
      "oot": 6698,
      "Ġconve": 6699,
      "ories": 6700,
      "Ġdile": 6701,
      "Ġwould": 6702,
      "imle": 6703,
      "ĠÄ°lg": 6704,
      "Ġliste": 6705,
      "Ġlistesi": 6706,
      "ĠfotoÄŁrafÄ±nÄ±zÄ±": 6707,
      "ĠsorunlarÄ±nÄ±": 6708,
      "Ġdinleyin": 6709,
      "Ġconnectivity": 6710,
      "Ġsanat": 6711,
      "Ġinterruption": 6712,
      "Ġfrustration": 6713,
      "Ġinceleyerek": 6714,
      "imdilik": 6715,
      "sApp": 6716,
      "str": 6717,
      "ĠKah": 6718,
      "anÄ±zda": 6719,
      "Ġlaundry": 6720,
      "ĠhazÄ±rlan": 6721,
      "Ġmesajlar": 6722,
      "Ġrelated": 6723,
      "ĠsevdiÄŁiniz": 6724,
      "ĠkurallarÄ±nÄ±": 6725,
      "ĠgÃ¼nÃ¼nÃ¼zÃ¼": 6726,
      "ĠTVs": 6727,
      "kt": 6728,
      "ote": 6729,
      "Ġversa": 6730,
      "rep": 6731,
      "yseniz": 6732,
      "Ã¼nc": 6733,
      "ecause": 6734,
      "ade": 6735,
      "amanÄ±z": 6736,
      "eynman": 6737,
      "Ġtopra": 6738,
      "ĠsÄ±kÄ±cÄ±": 6739,
      "ĠbaÄŁlam": 6740,
      "ĠpaylaÅŁmak": 6741,
      "Ġdepends": 6742,
      "Ġmesafe": 6743,
      "ĠsaÄŁlayacaktÄ±r": 6744,
      "ĠgÃ¼Ã§lendirmek": 6745,
      "Ġsituation": 6746,
      "isin": 6747,
      "ĠBundle": 6748,
      "ĠettiÄŁiniz": 6749,
      "azÄ±r": 6750,
      "ÃĸrneÄŁin": 6751,
      "Ġdiscard": 6752,
      "Ġcent": 6753,
      "res": 6754,
      "Ġstrugg": 6755,
      "ĠMevcut": 6756,
      "ĠÄ°ste": 6757,
      "Ġboo": 6758,
      "Ġyerinde": 6759,
      "Ġyerleri": 6760,
      "ĠFin": 6761,
      "Ġolmadan": 6762,
      "Ġloop": 6763,
      "ĠdÃ¼ÅŁÃ¼nmek": 6764,
      "landÄ±rm": 6765,
      "Ġhalf": 6766,
      "ĠbaÅŁarÄ±yÄ±": 6767,
      "Ġtotaling": 6768,
      "Ġaccusations": 6769,
      "Ġalerts": 6770,
      "ĠmÃ¼kemmel": 6771,
      "Ġgaps": 6772,
      "mede": 6773,
      "ĠCÃ¼m": 6774,
      "Ġsays": 6775,
      "Ġdakikadan": 6776,
      "Ġbelirtir": 6777,
      "ĠkitaplarÄ±": 6778,
      "Ġdurumun": 6779,
      "Ġkuru": 6780,
      "ĠkalkÄ±n": 6781,
      "Ġsanki": 6782,
      "Ġmodel": 6783,
      "Ġederim": 6784,
      "Ġmaruz": 6785,
      "Ġotomatik": 6786,
      "418": 6787,
      "In": 6788,
      "Pause": 6789,
      "Ġsens": 6790,
      "around": 6791,
      "ĠTreat": 6792,
      "stac": 6793,
      "Ġsafety": 6794,
      "298": 6795,
      "Ġknowledge": 6796,
      "ĠiyileÅŁtirmek": 6797,
      "ĠoluÅŁtura": 6798,
      "ĠBahÃ§": 6799,
      "rod": 6800,
      "Ġaff": 6801,
      "late": 6802,
      "layabilirsiniz": 6803,
      "ĠÃľ": 6804,
      "Ġalso": 6805,
      "ĠiÅŁinizi": 6806,
      "Ġstresi": 6807,
      "ĠBaÅŁka": 6808,
      "Ġhappiness": 6809,
      "Ġobstac": 6810,
      "ĠaÄŁÄ±r": 6811,
      "Ġparkta": 6812,
      "-day": 6813,
      "can": 6814,
      "lilik": 6815,
      "Ġtenc": 6816,
      "Ġbard": 6817,
      "Ġneyi": 6818,
      "urt": 6819,
      "Ġequ": 6820,
      "ĠMain": 6821,
      "ĠÃ§alÄ±ÅŁan": 6822,
      "Ġdurumunuzu": 6823,
      "ounts": 6824,
      "Ġlabels": 6825,
      "Ġbitkileri": 6826,
      "Ġbenz": 6827,
      "ĠkÄ±yafet": 6828,
      "ĠMaintain": 6829,
      "gul": 6830,
      "yer": 6831,
      "rame": 6832,
      "ĠyanÄ±": 6833,
      "ĠYÃ¼z": 6834,
      "ĠkÄ±sÄ±": 6835,
      "Ġrot": 6836,
      "Ġyapmaktan": 6837,
      "Ġgerekebilir": 6838,
      "ĠdÃ¼ÅŁÃ¼nerek": 6839,
      "Ġobs": 6840,
      "Ġsuppor": 6841,
      "Ġseems": 6842,
      "Ġboosts": 6843,
      "ero": 6844,
      "Ġevinizin": 6845,
      "portant": 6846,
      "Ġdeneyimi": 6847,
      "ĠistediÄŁini": 6848,
      "ĠdÄ±ÅŁarÄ±da": 6849,
      "ĠyolculuÄŁ": 6850,
      "Ġrisk": 6851,
      "ĠfÄ±rsat": 6852,
      ")Ċ": 6853,
      "ms": 6854,
      "telefon": 6855,
      "ĠEt": 6856,
      "Ġice": 6857,
      "ĠSecond": 6858,
      "asÄ±nÄ±n": 6859,
      "258": 6860,
      "Ġdiler": 6861,
      "368": 6862,
      "008": 6863,
      "ĠalÄ±ÅŁtÄ±r": 6864,
      "ensive": 6865,
      "Ġuyumlu": 6866,
      "Ġexercises": 6867,
      "Ġsamimiyet": 6868,
      "ĠSoru": 6869,
      "ĠkarÄ±ÅŁtÄ±r": 6870,
      "ĠyetiÅŁtir": 6871,
      "Ġflash": 6872,
      "Ġreplacing": 6873,
      "Ġcup": 6874,
      "Ġnes": 6875,
      "asing": 6876,
      "Ġyapabilir": 6877,
      "ĠnumarasÄ±nÄ±": 6878,
      "Ġanswering": 6879,
      "chedule": 6880,
      "Ġevin": 6881,
      "ĠaralÄ±k": 6882,
      "Ġdiving": 6883,
      "Ġegzersizleri": 6884,
      "Ġsayfa": 6885,
      "Ġuygulayarak": 6886,
      "Ġsebze": 6887,
      "Ġemergency": 6888,
      "411": 6889,
      "ules": 6890,
      "sam": 6891,
      "Ġnotlar": 6892,
      "ĠSab": 6893,
      "Ġrely": 6894,
      "ective": 6895,
      "Ġyaprak": 6896,
      "Ġyapmam": 6897,
      "**'": 6898,
      "Ġedil": 6899,
      "Ġusual": 6900,
      "kendi": 6901,
      "Ġspreadsheet": 6902,
      "Ġversatile": 6903,
      "438": 6904,
      "Ġpan": 6905,
      "Ġke": 6906,
      "Ġhorm": 6907,
      "sak": 6908,
      "ugh": 6909,
      "Ġstack": 6910,
      "ĠiÃ§inden": 6911,
      "ical": 6912,
      "emiz": 6913,
      "the": 6914,
      "009": 6915,
      "Ġistey": 6916,
      "Ġtrivi": 6917,
      "ĠkaranlÄ±k": 6918,
      "ĠseÃ§mekten": 6919,
      "Ġeliminating": 6920,
      "Ġrental": 6921,
      "Ġmistakes": 6922,
      "Ãĸneri": 6923,
      "Ġmerkez": 6924,
      "Ġbardak": 6925,
      "Ã§Ä±k": 6926,
      "Ġflo": 6927,
      "Ã¼ny": 6928,
      "Ġveriler": 6929,
      "ike": 6930,
      "Ġbeli": 6931,
      "Ġodaklanmaya": 6932,
      "Ġbiriyle": 6933,
      "ĠgÃ¶ndererek": 6934,
      "ĠsonuÃ§lar": 6935,
      "Ä±lmÄ±ÅŁtÄ±r": 6936,
      "ĠtarafÄ±ndan": 6937,
      "fic": 6938,
      "sue": 6939,
      "rating": 6940,
      "Ġstead": 6941,
      "Ġland": 6942,
      "ĠyÃ¶ntemle": 6943,
      "Ġeylem": 6944,
      "Ġnedeniyle": 6945,
      "Ġkick": 6946,
      "teki": 6947,
      "Ġmen": 6948,
      "ĠgÃ¼ncel": 6949,
      "Ġrules": 6950,
      "Ġintent": 6951,
      "Ġ**\"": 6952,
      "164": 6953,
      "194": 6954,
      "ĠAyÄ±": 6955,
      "Ġyolda": 6956,
      "ĠalanÄ±nÄ±zÄ±": 6957,
      "Ġmutlu": 6958,
      "Ġnavigation": 6959,
      "ĠkÄ±smÄ±nÄ±": 6960,
      "ĠeÄŁlenceli": 6961,
      "Ġconfusion": 6962,
      "Ġbisiklet": 6963,
      "of": 6964,
      "ranÄ±": 6965,
      "ĠzayÄ±f": 6966,
      "mektedir": 6967,
      "ĠiletiÅŁime": 6968,
      "Ġbuying": 6969,
      "igning": 6970,
      "ĠyÃ¶nel": 6971,
      "Ġteknikleri": 6972,
      "ĠtasarÄ±m": 6973,
      "Ã¼lebilir": 6974,
      "kisi": 6975,
      "aling": 6976,
      "Ġdikk": 6977,
      "Ġdevice": 6978,
      "Ġistiyorsunuz": 6979,
      "lÄ±kla": 6980,
      "geÃ§": 6981,
      "Ġdinlendir": 6982,
      "menizdir": 6983,
      "ĠSÄ±ra": 6984,
      "Ãĸnce": 6985,
      "Ġidealdir": 6986,
      "ĠotobÃ¼s": 6987,
      "Ġtrivial": 6988,
      "'yi": 6989,
      "ĠBecause": 6990,
      "Ä±rsanÄ±z": 6991,
      "ĠNot": 6992,
      "174": 6993,
      "005": 6994,
      "Ġuzman": 6995,
      "ĠnoktasÄ±nÄ±": 6996,
      "Ġyani": 6997,
      "ĠkalÄ±p": 6998,
      "ĠeÄŁitimi": 6999,
      "Focus": 7000,
      "pass": 7001,
      "alling": 7002,
      "ĠadÄ±mdan": 7003,
      "ĠÄ°liÅŁ": 7004,
      "Ġquanti": 7005,
      "Ġdos": 7006,
      "Ġaloud": 7007,
      "378": 7008,
      "Ġdistinct": 7009,
      "ĠgÃ¶rmek": 7010,
      "ĠInvest": 7011,
      "ĠmesajÄ±": 7012,
      "ĠhissettiÄŁiniz": 7013,
      "ĠuyanÄ±k": 7014,
      "Ġperfectly": 7015,
      "Ġstronger": 7016,
      "Ġseferinde": 7017,
      "ĠetkileÅŁ": 7018,
      "yo": 7019,
      "Ġpace": 7020,
      "Ġsuyla": 7021,
      "Ġtips": 7022,
      "ĠkalmayÄ±": 7023,
      "ĠHerhangi": 7024,
      "ĠsabahÄ±n": 7025,
      "ÄŁÄ±nÄ±zda": 7026,
      "Ġbakmak": 7027,
      "Ġmetre": 7028,
      "Ġsistemi": 7029,
      "Ġkurgu": 7030,
      "ĠFinally": 7031,
      "/no": 7032,
      "ices": 7033,
      "ince": 7034,
      "Ġpsik": 7035,
      "Ġtour": 7036,
      "ĠDuolingo": 7037,
      "ĠTÃ¼m": 7038,
      "Ġyast": 7039,
      "Ġolay": 7040,
      "ĠÃ§ub": 7041,
      "Ġsprin": 7042,
      "Ġlistesini": 7043,
      "ĠsonrasÄ±": 7044,
      "007": 7045,
      "Ġvisa": 7046,
      "Ġassigning": 7047,
      "Ġdecisions": 7048,
      "Ġempt": 7049,
      "Ġmadd": 7050,
      "ĠbirleÅŁecek": 7051,
      "Ġpleas": 7052,
      "cri": 7053,
      "ĠEÄŁ": 7054,
      "Ġdeniz": 7055,
      "Ġyapman": 7056,
      "Ã¼zik": 7057,
      "ĠÅŁÄ±k": 7058,
      "006": 7059,
      "ĠkazandÄ±r": 7060,
      "landÄ±rma": 7061,
      "Ġokuyacak": 7062,
      "ĠZorluk": 7063,
      "Ġstraight": 7064,
      "Ġzero": 7065,
      "ource": 7066,
      "001": 7067,
      "003": 7068,
      "Ġlives": 7069,
      "Ã¼nden": 7070,
      "Ġmaximize": 7071,
      "ĠDefine": 7072,
      "Ġmark": 7073,
      "Ġalmaya": 7074,
      "erseniz": 7075,
      "ĠfotoÄŁraflar": 7076,
      "bilirim": 7077,
      "Ġdilde": 7078,
      "ĠkiÅŁinin": 7079,
      "Ġhissetmek": 7080,
      "Ġpresence": 7081,
      "Ġmutfak": 7082,
      "ĠgÃ¶rÃ¼ÅŁecek": 7083,
      "ĠaltÄ±na": 7084,
      "Ġwashing": 7085,
      "ĠsÄ±ral": 7086,
      "Ġbeklenti": 7087,
      "Ġfoundation": 7088,
      "ysis": 7089,
      "ĠbaÅŁÄ±nÄ±zÄ±": 7090,
      "sÄ±ndan": 7091,
      "ĠFeynman": 7092,
      "002": 7093,
      "004": 7094,
      "Ġcluttering": 7095,
      "Ġimpact": 7096,
      "uktan": 7097,
      "Ġearli": 7098,
      "Ġmetab": 7099,
      "ĠsÄ±caklÄ±ÄŁÄ±na": 7100,
      "480": 7101,
      "Break": 7102,
      "BÃ¼yÃ¼k": 7103,
      "nasÄ±l": 7104,
      "syon": 7105,
      "Ġdrop": 7106,
      "ĠsorularÄ±": 7107,
      "ĠÃĸnemli": 7108,
      "Ġhafifle": 7109,
      "Ġengage": 7110,
      "Ġoturmak": 7111,
      "Ġplanda": 7112,
      "ĠkayÄ±da": 7113,
      "Ġnegative": 7114,
      "Eisenhower": 7115,
      "dak": 7116,
      "Ġzorlam": 7117,
      "Ġcond": 7118,
      "oms": 7119,
      "238": 7120,
      "ĠiyileÅŁ": 7121,
      "358": 7122,
      "Ġmatch": 7123,
      "ĠhazÄ±rla": 7124,
      "Ġhedeflerinize": 7125,
      "ĠyÃ¼rÃ¼mek": 7126,
      "Ġreviewing": 7127,
      "ĠbelirtilmiÅŁtir": 7128,
      "Ġincelemek": 7129,
      "Ġopportunities": 7130,
      "Her": 7131,
      "iyorsunuz": 7132,
      "keep": 7133,
      "tesi": 7134,
      "Ġways": 7135,
      "Ġsharp": 7136,
      "Ġimkan": 7137,
      "278": 7138,
      "why": 7139,
      "Ġyoldan": 7140,
      "Ġpost": 7141,
      "Ġride": 7142,
      "ĠrahatÃ§a": 7143,
      "ĠkaÄŁÄ±da": 7144,
      "Ġcheap": 7145,
      "baÅŁ": 7146,
      "kitap": 7147,
      "erilen": 7148,
      "Ġgev": 7149,
      "Ġveril": 7150,
      "Ġkonuyla": 7151,
      "Ġtrac": 7152,
      "Ġdurdur": 7153,
      "Ġkurmaya": 7154,
      "lenme": 7155,
      "ĠyÃ¶nlendir": 7156,
      "Ġcloser": 7157,
      "tirip": 7158,
      "Ġnedir": 7159,
      "Ġwebsites": 7160,
      "Ġquantity": 7161,
      "var": 7162,
      "Ġgec": 7163,
      "amaz": 7164,
      "Ġzamanla": 7165,
      "268": 7166,
      "tÄ±p": 7167,
      "Ġtamamlan": 7168,
      "Ġfinished": 7169,
      "ĠkalkÄ±ÅŁ": 7170,
      "Ġmusunuz": 7171,
      "ĠÃ§Ä±karÄ±n": 7172,
      "Ġblame": 7173,
      "bah": 7174,
      "ox": 7175,
      "Ä±nd": 7176,
      "ogn": 7177,
      "uÅŁtur": 7178,
      "Ġyazma": 7179,
      "Ġdolu": 7180,
      "ify": 7181,
      "ĠalmanÄ±z": 7182,
      "anÄ±za": 7183,
      "Ġwalks": 7184,
      "Ġolmam": 7185,
      "ĠÃ§ekip": 7186,
      "Ġsepet": 7187,
      "dÄ±ktan": 7188,
      "Ġaccumulating": 7189,
      "Ġibarettir": 7190,
      "Ġkonsept": 7191,
      "Ġ%": 7192,
      "Ġsend": 7193,
      "Ġfa": 7194,
      "ÄŁÄ±nÄ±n": 7195,
      "ĠSmall": 7196,
      "ĠÃ¶neriyle": 7197,
      "Ġbegins": 7198,
      "ikay": 7199,
      "ildi": 7200,
      "ĠÃ§ektirecek": 7201,
      "ĠFirst": 7202,
      "ĠsÃ¼resi": 7203,
      "444": 7204,
      "Ġnokta": 7205,
      "Ġsilent": 7206,
      "Ġrefer": 7207,
      "ĠMesajÄ±nÄ±zÄ±": 7208,
      "Ġreminders": 7209,
      "Ġphrases": 7210,
      "Ġzorunlu": 7211,
      "Ġview": 7212,
      "Ġkeys": 7213,
      "432": 7214,
      "incisi": 7215,
      "Ġtel": 7216,
      "Ġoyun": 7217,
      "Ġbirer": 7218,
      "eyle": 7219,
      "Ġ(\"": 7220,
      "Ġitself": 7221,
      "eniyor": 7222,
      "Ġunf": 7223,
      "Ġtetik": 7224,
      "ĠyÃ¶ntemler": 7225,
      "ĠkiÅŁiler": 7226,
      "Ġhissettir": 7227,
      "Ġbehind": 7228,
      "ĠaydÄ±nlÄ±k": 7229,
      "Ġpath": 7230,
      "tries": 7231,
      "Ġstimulating": 7232,
      "Ġempty": 7233,
      "Schedule": 7234,
      "kÄ±": 7235,
      "Ġhelping": 7236,
      "Ġmey": 7237,
      "mediÄŁiniz": 7238,
      "398": 7239,
      "Ġnews": 7240,
      "ĠgÃ¶rd": 7241,
      "ĠkarÅŁÄ±lÄ±klÄ±": 7242,
      "Ġkapak": 7243,
      "Ġrecent": 7244,
      "Ġknowing": 7245,
      "Ġeser": 7246,
      "Ġbilgilerle": 7247,
      "Ġairports": 7248,
      "ĠcÃ¼mleleri": 7249,
      "Ġchoice": 7250,
      "Ġoccur": 7251,
      "Ġtakvim": 7252,
      "tiÄŁi": 7253,
      "Ġskip": 7254,
      "Ġbana": 7255,
      "ayacak": 7256,
      "Ã¶ÄŁ": 7257,
      "ndeki": 7258,
      "ĠOffer": 7259,
      "Ġsaving": 7260,
      "Ġarama": 7261,
      "ĠdÃ¼zenlem": 7262,
      "Ġlosing": 7263,
      "Ġfinal": 7264,
      "Ġvalues": 7265,
      "larÄ±nÄ±zda": 7266,
      "tÄ±rabilirsiniz": 7267,
      "Ġrelationships": 7268,
      "Ġmetabol": 7269,
      "kal": 7270,
      "meler": 7271,
      "ture": 7272,
      "Ġcrow": 7273,
      "Ġbacak": 7274,
      "ĠYe": 7275,
      "Ġyazmaya": 7276,
      "ĠseÃ§ebilirsiniz": 7277,
      "road": 7278,
      "ĠgÃ¼l": 7279,
      "ĠartÄ±rmak": 7280,
      "Ġmerak": 7281,
      "ĠseÃ§eneÄŁi": 7282,
      "ĠnazikÃ§e": 7283,
      "Ġparalysis": 7284,
      "600": 7285,
      "pect": 7286,
      "¸ı": 7287,
      "ï¸ı": 7288,
      "ĠayÄ±rÄ±p": 7289,
      "ĠayÄ±rdÄ±r": 7290,
      "ĠadÄ±ma": 7291,
      "Ġcost": 7292,
      "ocuk": 7293,
      "Ġcannot": 7294,
      "Ġbelirleme": 7295,
      "338": 7296,
      "Ġdinleme": 7297,
      "Ġdenemek": 7298,
      "Ġcorre": 7299,
      "IM": 7300,
      "Ġtutu": 7301,
      "ator": 7302,
      "arat": 7303,
      "ĠuyanÄ±n": 7304,
      "ected": 7305,
      "Ġtrains": 7306,
      "ources": 7307,
      "amera": 7308,
      "roup": 7309,
      "ĠekranÄ±": 7310,
      "Ġsabr": 7311,
      "ĠHaftalÄ±k": 7312,
      "Ġuygulayabilirsiniz": 7313,
      "Ġfactors": 7314,
      "ĠdaÄŁÄ±t": 7315,
      "ĠduygularÄ±nÄ±zÄ±": 7316,
      "Ġforecast": 7317,
      "mission": 7318,
      "Ġexplicitly": 7319,
      "Ġekipman": 7320,
      "Ġsteady": 7321,
      "Ġearlier": 7322,
      "Ġcondi": 7323,
      "'li": 7324,
      "sÄ±nÄ±n": 7325,
      "vely": 7326,
      "Ġdik": 7327,
      "Ġthrow": 7328,
      "ĠiÃ§ip": 7329,
      "Ġresult": 7330,
      "Ġsong": 7331,
      "leÅŁtirin": 7332,
      "Ġsupporting": 7333,
      "Ã¼lt": 7334,
      "ĠyanÄ±na": 7335,
      "Ġsizinle": 7336,
      "Ġpassport": 7337,
      "Ġtaze": 7338,
      "Ġconsci": 7339,
      "500": 7340,
      "An": 7341,
      "cal": 7342,
      "nable": 7343,
      "akt": 7344,
      "dÄ±ÄŁÄ±nda": 7345,
      "Ġtim": 7346,
      "Ġreserv": 7347,
      "Ġovernight": 7348,
      "ĠÅŁeyden": 7349,
      "Ġexplo": 7350,
      "ĠmesajlaÅŁma": 7351,
      "Ġservice": 7352,
      "Ġprovide": 7353,
      "Ġsuppresses": 7354,
      "Ġdeleg": 7355,
      "Ġflashc": 7356,
      "Ġpsikoloj": 7357,
      "422": 7358,
      "bugÃ¼n": 7359,
      "pam": 7360,
      "uff": 7361,
      "ĠThat": 7362,
      "lab": 7363,
      "Ä°kinci": 7364,
      "ĠatÄ±p": 7365,
      "Ġarg": 7366,
      "Ġodada": 7367,
      "Ġdiet": 7368,
      "ĠdeÄŁilse": 7369,
      "Ġbeklen": 7370,
      "Ġolmaktan": 7371,
      "Ġstresli": 7372,
      "Ġfrequent": 7373,
      "minizi": 7374,
      "ski": 7375,
      "Ġwere": 7376,
      "ĠlÃ¼tfen": 7377,
      "Ġartar": 7378,
      "Ġnoon": 7379,
      "ĠiÅŁini": 7380,
      "ĠkurmayÄ±": 7381,
      "Ġhiss": 7382,
      "Ġlocations": 7383,
      "sizlik": 7384,
      "Ġwinnable": 7385,
      "Ġminimal": 7386,
      "Ġsupplies": 7387,
      "ĠnoktalarÄ±": 7388,
      "Ġdikkate": 7389,
      "iren": 7390,
      "lÄ±n": 7391,
      "tiÄŁini": 7392,
      "ÅŁu": 7393,
      "itch": 7394,
      "ĠSlow": 7395,
      "Ġsok": 7396,
      "Ġverme": 7397,
      "Ġiyidir": 7398,
      "iÄŁinizi": 7399,
      "Ġkullanmadan": 7400,
      "ĠÃ§alÄ±ÅŁtÄ±": 7401,
      "ĠdoÄŁum": 7402,
      "ĠduruÅŁ": 7403,
      "Ġpermission": 7404,
      "ĠyapÄ±sÄ±": 7405,
      "ĠWhatsApp": 7406,
      "ĠsÄ±kÄ±l": 7407,
      "Ġsunabilirim": 7408,
      "Ġkorum": 7409,
      "Ġsoruda": 7410,
      "Ġilerlemeler": 7411,
      "Ġsucceed": 7412,
      "Ġpatient": 7413,
      "ĠpratiÄŁi": 7414,
      "-a": 7415,
      "ðŁ": 7416,
      "Ġku": 7417,
      "eting": 7418,
      "lanma": 7419,
      "ayÄ±p": 7420,
      "ĠyapÄ±ÅŁtÄ±r": 7421,
      "lerinizden": 7422,
      "ĠadÄ±mlara": 7423,
      "andÄ±": 7424,
      ":**Ċ": 7425,
      "ĠdÃ¼ÅŁÃ¼nceler": 7426,
      "ĠbaÄŁlantÄ±": 7427,
      "Ġsurround": 7428,
      "Ġmuscle": 7429,
      "Ġregarding": 7430,
      "Ġtemptation": 7431,
      "Kend": 7432,
      "Ġtep": 7433,
      "Ġfalling": 7434,
      "ĠGroup": 7435,
      "ĠÃ¶nerebilirim": 7436,
      "ĠanlamÄ±": 7437,
      "ĠbaÅŁlamaya": 7438,
      "ĠakÄ±cÄ±": 7439,
      "ĠÃ§Ä±kÄ±n": 7440,
      "ĠgÃ¼venilir": 7441,
      "ĠsÄ±caklÄ±ÄŁÄ±": 7442,
      "Ġkapatmak": 7443,
      "ĠyanÄ±nda": 7444,
      "Ġkorun": 7445,
      "Ġcurrently": 7446,
      "Ġdergi": 7447,
      "ivid": 7448,
      ".**Ċ": 7449,
      "Ġfueled": 7450,
      "Ġpausing": 7451,
      "Ġconvey": 7452,
      "struc": 7453,
      "EÄŁer": 7454,
      "Keep": 7455,
      "Ġinf": 7456,
      "orth": 7457,
      "ganize": 7458,
      "ĠkontrolÃ¼": 7459,
      "Ġolursunuz": 7460,
      "Ġhayata": 7461,
      "ĠsÄ±rayla": 7462,
      "letmek": 7463,
      "ĠgeliÅŁtirmek": 7464,
      "Ġtatmin": 7465,
      "Ġaccusatory": 7466,
      "Ġvalued": 7467,
      "sinde": 7468,
      "Ġgrup": 7469,
      "Ġinsp": 7470,
      "ĠPhotoshop": 7471,
      "Ġdopam": 7472,
      "Ġolabilirsiniz": 7473,
      "care": 7474,
      "udum": 7475,
      "Ġtutmaya": 7476,
      "ilecek": 7477,
      "ĠgÃ¼c": 7478,
      "Ġdinle": 7479,
      "Ġhedeflerin": 7480,
      "Ġeski": 7481,
      "Ġrequirements": 7482,
      "Ġscheduled": 7483,
      "ĠnoktasÄ±dÄ±r": 7484,
      "dle": 7485,
      "fast": 7486,
      "alim": 7487,
      "ĠTell": 7488,
      "Ġforces": 7489,
      "Ġdayan": 7490,
      "lerek": 7491,
      "eceÄŁinizi": 7492,
      "Ġyear": 7493,
      "Ġalloc": 7494,
      "Ġwall": 7495,
      "Ä±lmasÄ±": 7496,
      "tikten": 7497,
      "Ġdeliber": 7498,
      "ĠSizinle": 7499,
      "ĠkaynaÄŁÄ±nÄ±": 7500,
      "Ġadapt": 7501,
      "Ġseasons": 7502,
      "Ġrecei": 7503,
      "-steps": 7504,
      "Ġopinion": 7505,
      "Ġtelef": 7506,
      "ĠDerin": 7507,
      "Ġever": 7508,
      "Ġinitiate": 7509,
      "imiz": 7510,
      "Ġkalab": 7511,
      "Ġbreakfast": 7512,
      "Ġokuyarak": 7513,
      "ĠdÃ¼zeniyle": 7514,
      "Ġlearns": 7515,
      "Ġtemelini": 7516,
      "Ġdetail": 7517,
      "ĠyatÄ±n": 7518,
      "Ġtranslation": 7519,
      "Ġeffortless": 7520,
      "Ġhands": 7521,
      "Ġworried": 7522,
      "repare": 7523,
      "'m": 7524,
      "Ġsmo": 7525,
      "Ġhuge": 7526,
      "daha": 7527,
      "tÄ±l": 7528,
      "ĠÃ§Ä±kmak": 7529,
      "Ġolanak": 7530,
      "Ġortaya": 7531,
      "Ġmissed": 7532,
      "Ġkaydede": 7533,
      "Ġalabilirsiniz": 7534,
      "Ġuyumak": 7535,
      "Ġreviews": 7536,
      "Ġchoices": 7537,
      "Ġquitting": 7538,
      "Ġmade": 7539,
      "Ġpreparing": 7540,
      "ĠHaftada": 7541,
      "Ġkurtul": 7542,
      "ĠDuyg": 7543,
      "ĠBilg": 7544,
      "amik": 7545,
      "Ġstuff": 7546,
      "Ġevden": 7547,
      "-break": 7548,
      "shoot": 7549,
      "ditionally": 7550,
      "ĠkalkmayÄ±": 7551,
      "bette": 7552,
      "dÄ±ÄŁÄ±nÄ±zdan": 7553,
      "ĠgerÃ§ekleÅŁtir": 7554,
      "ĠaraÃ§lar": 7555,
      "ĠkurallarÄ±": 7556,
      "Ġcircle": 7557,
      "Ġcontinuing": 7558,
      "Ġemp": 7559,
      "ĠeÄŁitim": 7560,
      "Ġobstacles": 7561,
      "ften": 7562,
      "Ġfund": 7563,
      "liyor": 7564,
      "ĠÃ¶ÄŁlen": 7565,
      "Ġevi": 7566,
      "ĠÃ§ekme": 7567,
      "ĠWa": 7568,
      "ĠgeÃ§ire": 7569,
      "ĠÃ¶zelliÄŁini": 7570,
      "Ġbitirmek": 7571,
      "ynam": 7572,
      "Ġguide": 7573,
      "Ġmoder": 7574,
      "ĠteÅŁekkÃ¼r": 7575,
      "ĠiliÅŁki": 7576,
      "-habit": 7577,
      "Ġdilerim": 7578,
      "doÄŁ": 7579,
      "ysa": 7580,
      "ilim": 7581,
      "Ã¼ksek": 7582,
      "ĠHareket": 7583,
      "ĠiÅŁlerinizi": 7584,
      "ĠÃ§alÄ±ÅŁÄ±rken": 7585,
      "tuk": 7586,
      "ĠyÃ¼kÃ¼": 7587,
      "eyebilirsiniz": 7588,
      "noon": 7589,
      "Ġphotoshoot": 7590,
      "Ġvisualize": 7591,
      "Ġbunlar": 7592,
      "yapÄ±": 7593,
      "Ġstrategy": 7594,
      "ĠanlÄ±yorum": 7595,
      "ĠkÄ±sÄ±m": 7596,
      "ani": 7597,
      "Ġcard": 7598,
      "Ġcop": 7599,
      "ĠkayÄ±tlarda": 7600,
      "eceÄŁim": 7601,
      "Ġdilden": 7602,
      "ĠbahÃ§enin": 7603,
      "mited": 7604,
      "ĠkonuÅŁurken": 7605,
      "ĠtamamÄ±nÄ±": 7606,
      "ĠyaratÄ±r": 7607,
      "ĠkoÅŁu": 7608,
      "Â°C": 7609,
      "Ġfloor": 7610,
      "Ġsak": 7611,
      "ĠGec": 7612,
      "eyim": 7613,
      "Ġrere": 7614,
      "Ä±za": 7615,
      "143": 7616,
      "raffic": 7617,
      "duÄŁu": 7618,
      "ĠbakÄ±m": 7619,
      "ĠdÄ±ÅŁÄ±nda": 7620,
      "ĠAlso": 7621,
      "-traffic": 7622,
      "ĠtadÄ±": 7623,
      "Ġbaggage": 7624,
      "ĠClean": 7625,
      "ĠkeÅŁfetmek": 7626,
      "Ġalign": 7627,
      "Ġbright": 7628,
      "ĠGenellikle": 7629,
      "Ġrereading": 7630,
      "meni": 7631,
      "yl": 7632,
      "ansi": 7633,
      "Ġbike": 7634,
      "ene": 7635,
      "ract": 7636,
      "Ġsettle": 7637,
      "ĠpiÅŁirin": 7638,
      "Ġgear": 7639,
      "Ġgiderek": 7640,
      "Ġdriven": 7641,
      "ĠAdditionally": 7642,
      "Ġcarefully": 7643,
      "noloj": 7644,
      "Ġcontainer": 7645,
      "Ġilham": 7646,
      "Ġflashcards": 7647,
      "Total": 7648,
      "ulation": 7649,
      "important": 7650,
      "lerinden": 7651,
      "ĠzorlandÄ±": 7652,
      "olding": 7653,
      "Ġtrue": 7654,
      "ĠodanÄ±zÄ±": 7655,
      "Ġswap": 7656,
      "ĠkolaydÄ±r": 7657,
      "Ġhighest": 7658,
      "Ġgroups": 7659,
      "Ġharf": 7660,
      "Ġtekniklerini": 7661,
      "ĠsakinleÅŁ": 7662,
      "ublic": 7663,
      "Ãĸncelikle": 7664,
      "ĠaÅŁmak": 7665,
      "imdiden": 7666,
      "Ġvaluable": 7667,
      "520": 7668,
      "Ne": 7669,
      "iyle": 7670,
      "ptions": 7671,
      "ances": 7672,
      "Ġcould": 7673,
      "Ġcram": 7674,
      "lerinde": 7675,
      "ĠdeÄŁiÅŁtirin": 7676,
      "eceÄŁi": 7677,
      "354": 7678,
      "Ãĸz": 7679,
      "ĠvÃ¼cudunu": 7680,
      "ront": 7681,
      "Ġalternatif": 7682,
      "ĠkarÄ±ÅŁÄ±k": 7683,
      "Ġsaatinde": 7684,
      "ĠtaÅŁÄ±": 7685,
      "ute": 7686,
      "Ġtouch": 7687,
      "Ã§ok": 7688,
      "Ġsometimes": 7689,
      "Ġonlara": 7690,
      "ĠÃ§alÄ±": 7691,
      "142": 7692,
      "Ġmentally": 7693,
      "icial": 7694,
      "tirebilirsiniz": 7695,
      "ĠTrans": 7696,
      "ĠyarÄ±sÄ±nÄ±": 7697,
      "urable": 7698,
      "ĠuÃ§uÅŁ": 7699,
      "itting": 7700,
      "Ġtoile": 7701,
      "Ġfel": 7702,
      "ĠSess": 7703,
      "ized": 7704,
      "ĠBlock": 7705,
      "lamasÄ±": 7706,
      "ĠzorlanÄ±yorsanÄ±z": 7707,
      "264": 7708,
      "ĠbaÅŁlayacak": 7709,
      "ĠiÅŁlerin": 7710,
      "Ġafternoon": 7711,
      "Ġihtimal": 7712,
      "Ġbags": 7713,
      "Ġprepare": 7714,
      "-step": 7715,
      "816": 7716,
      "gra": 7717,
      "manÄ±": 7718,
      "Ġpublic": 7719,
      "ĠTid": 7720,
      "Ġinside": 7721,
      "lamalar": 7722,
      "ĠPrepare": 7723,
      "ĠplanlayÄ±p": 7724,
      "malara": 7725,
      "ĠyÃ¶netim": 7726,
      "ĠdÃ¼ÅŁÃ¼nÃ¼": 7727,
      "Ġtemizlemek": 7728,
      "layÄ±sÄ±yla": 7729,
      "Ġgidin": 7730,
      "Ġizleyerek": 7731,
      "Ġyoktur": 7732,
      "malÄ±sÄ±n": 7733,
      "Ġlimiting": 7734,
      "ĠbÃ¼tÃ§e": 7735,
      "Ġhavuzu": 7736,
      "Ġsessizlik": 7737,
      "ĠaydÄ±nlatma": 7738,
      "ĠHayÄ±r": 7739,
      "Ġchallenge": 7740,
      "ĠfotoÄŁrafÃ§Ä±lÄ±k": 7741,
      "Ġdishes": 7742,
      "485": 7743,
      "810": 7744,
      "front": 7745,
      "iyorsanÄ±z": 7746,
      "Ġpage": 7747,
      "ĠSay": 7748,
      "Ġbelirley": 7749,
      "ĠÃ§alÄ±ÅŁmayÄ±n": 7750,
      "Ġhearing": 7751,
      "Ġilerleyebilirsiniz": 7752,
      "Ġoption": 7753,
      "ĠbÄ±rakarak": 7754,
      "ĠBaÅŁlamak": 7755,
      "ĠsÄ±kÄ±ÅŁ": 7756,
      "Ġleaves": 7757,
      "Ġlimited": 7758,
      "ĠdÃ¶k": 7759,
      "'inle": 7760,
      "ĠeÄŁit": 7761,
      "ĠyemeÄŁini": 7762,
      "Ġuyanmak": 7763,
      "ĠolduÄŁunuzda": 7764,
      "Ġbarda": 7765,
      "Ġbozul": 7766,
      "Ġrepeatedly": 7767,
      "Ġsunuyorum": 7768,
      "Ġsurroundings": 7769,
      "Ġdopamine": 7770,
      "-care": 7771,
      "900": 7772,
      "Make": 7773,
      "how": 7774,
      "Ġkim": 7775,
      "ĠBana": 7776,
      "ĠAt": 7777,
      "Ġmotive": 7778,
      "ĠzamanÄ±nÄ±": 7779,
      "Ġlink": 7780,
      "ĠÅŁunu": 7781,
      "Ġsorunuz": 7782,
      "Ġtutma": 7783,
      "miyor": 7784,
      "Ġdurumunuz": 7785,
      "Ġheart": 7786,
      "ĠSabahÄ±": 7787,
      "ĠÃ§Ä±kÄ±ÅŁ": 7788,
      "diÄŁinizde": 7789,
      "ĠayardÄ±": 7790,
      "Ġayarla": 7791,
      "ĠaÃ§Ä±kÃ§a": 7792,
      "Ġgrab": 7793,
      "ĠiÃ§erir": 7794,
      "ĠgÃ¶sterir": 7795,
      "ĠadÄ±na": 7796,
      "ĠtatlÄ±": 7797,
      "Ġexclus": 7798,
      "Ġsounding": 7799,
      "826": 7800,
      "Yap": 7801,
      "lil": 7802,
      "Ġkomp": 7803,
      "Ġhold": 7804,
      "used": 7805,
      "ĠEski": 7806,
      "Ġfly": 7807,
      "Ġga": 7808,
      "ĠBen": 7809,
      "ĠOr": 7810,
      "usunda": 7811,
      "Ġbeginners": 7812,
      "Ġplanlar": 7813,
      "ĠyÃ¼rÃ¼r": 7814,
      "Ġunrelated": 7815,
      "ĠÃĩev": 7816,
      "Ġaggre": 7817,
      "Ġefforts": 7818,
      "ĠyaklaÅŁÄ±k": 7819,
      "ĠyaptÄ±m": 7820,
      "Ġbeceriler": 7821,
      "Ġpatterns": 7822,
      "Ġaggreg": 7823,
      "'Ä±nda": 7824,
      "421": 7825,
      "Ã¼me": 7826,
      "Ġizmir": 7827,
      "Ġmay": 7828,
      "Ġspir": 7829,
      "Ġsaves": 7830,
      "Ġarm": 7831,
      "Ġtutar": 7832,
      "ĠkullandÄ±ÄŁÄ±nÄ±z": 7833,
      "ĠÃĸncel": 7834,
      "Ä±nav": 7835,
      "ractice": 7836,
      "Ġsessizce": 7837,
      "Ġsorarak": 7838,
      "edicate": 7839,
      "Ġyatarken": 7840,
      "ukarÄ±": 7841,
      "meyecek": 7842,
      "Ġhob": 7843,
      "Ġuyumaya": 7844,
      "ĠyarÄ±sÄ±": 7845,
      "Ġmiktarda": 7846,
      "Ġfamily": 7847,
      "ĠDÃ¼zenli": 7848,
      "820": 7849,
      "ube": 7850,
      "teÅŁ": 7851,
      "verbal": 7852,
      "itab": 7853,
      "Ġfi": 7854,
      "ĠÃ¶nler": 7855,
      "Ġbelirlen": 7856,
      "Ġtelefonu": 7857,
      "ĠalanÄ±nÄ±za": 7858,
      "ĠkapÄ±": 7859,
      "Ġstresini": 7860,
      "Ġformat": 7861,
      "ĠyavaÅŁlat": 7862,
      "ĠseÃ§enekler": 7863,
      "Ġcausing": 7864,
      "ĠhatÄ±rlatÄ±n": 7865,
      "Ġalert": 7866,
      "Ġbank": 7867,
      "tiniz": 7868,
      "Ġpot": 7869,
      "ĠtÄ±k": 7870,
      "Ġbuna": 7871,
      "Ġdistant": 7872,
      "ĠYÃ¼r": 7873,
      "ĠeÄŁer": 7874,
      "ĠiÃ§ecek": 7875,
      "Ġups": 7876,
      "ĠonlarÄ±": 7877,
      "ĠOften": 7878,
      "Ġsever": 7879,
      "Ġexci": 7880,
      "Ġyerini": 7881,
      "ĠWell": 7882,
      "ĠWhere": 7883,
      "ĠgeÃ§ici": 7884,
      "ĠbÃ¶lerek": 7885,
      "lendire": 7886,
      "ĠÄ±sÄ±t": 7887,
      "ĠÃĸnerim": 7888,
      "Ġadap": 7889,
      "Ġpatience": 7890,
      "Ġefficiently": 7891,
      "Ġexclusively": 7892,
      "Practice": 7893,
      "asa": 7894,
      "put": 7895,
      "ĠðŁ": 7896,
      "ĠtanÄ±t": 7897,
      "aris": 7898,
      "ĠDedicate": 7899,
      "ayken": 7900,
      "aber": 7901,
      "ĠanlamÄ±na": 7902,
      "arÄ±nda": 7903,
      "iÄŁin": 7904,
      "ĠkonuÅŁarak": 7905,
      "Ġgiden": 7906,
      "Ġenjo": 7907,
      "Ġparlak": 7908,
      "mayacak": 7909,
      "ĠplanlÄ±yor": 7910,
      "ĠkeÅŁfedin": 7911,
      "486": 7912,
      "620": 7913,
      "KÄ±sa": 7914,
      "Ġbildir": 7915,
      "Ġileri": 7916,
      "ĠAdÄ±m": 7917,
      "Ġvere": 7918,
      "Ġmeetup": 7919,
      "Ġmanz": 7920,
      "Ġseeing": 7921,
      "ĠÃ§Ä±karÄ±": 7922,
      "Ġpeace": 7923,
      "Ġstressful": 7924,
      "Ã¼cad": 7925,
      "Ġdiscover": 7926,
      "ĠkalanlarÄ±": 7927,
      "ĠgÃ¶stermek": 7928,
      "Ġbaskets": 7929,
      "Ġloved": 7930,
      "ĠsÄ±nÄ±rlÄ±": 7931,
      "Ġwindows": 7932,
      "828": 7933,
      "824": 7934,
      "Ay": 7935,
      "bri": 7936,
      "Ġkaba": 7937,
      "iring": 7938,
      "ayarak": 7939,
      "aktan": 7940,
      "amam": 7941,
      "nded": 7942,
      "ĠAra": 7943,
      "ĠAÅŁ": 7944,
      "ĠayÄ±rmak": 7945,
      "ĠyapÄ±mÄ±": 7946,
      "Ġkafe": 7947,
      "Ġspoken": 7948,
      "Ġtraff": 7949,
      "274": 7950,
      "Ġsaatine": 7951,
      "ĠalÄ±ÅŁkanlÄ±klarÄ±": 7952,
      "ĠkarÅŁÄ±lÄ±k": 7953,
      "Ġdarkness": 7954,
      "ĠbaÅŁarÄ±lÄ±": 7955,
      "ĠaÃ§Ä±klayÄ±n": 7956,
      "âĢĶand": 7957,
      "ĠuyumayÄ±": 7958,
      "ĠkatÄ±lacak": 7959,
      "Ġtonunu": 7960,
      "Ġbilimsel": 7961,
      "ĠÃĸzellikle": 7962,
      "Ġkanal": 7963,
      "Ġtraffic": 7964,
      "725": 7965,
      "714": 7966,
      "735": 7967,
      "Ġsar": 7968,
      "Ġila": 7969,
      "ĠdanÄ±ÅŁ": 7970,
      "ĠkÄ±la": 7971,
      "Ġvict": 7972,
      "layabilir": 7973,
      "141": 7974,
      "Ġboard": 7975,
      "ĠPrag": 7976,
      "ĠkaldÄ±": 7977,
      "ĠtoplamÄ±": 7978,
      "374": 7979,
      "ĠkaydÄ±r": 7980,
      "lemeniz": 7981,
      "Ġkurma": 7982,
      "Ġhaft": 7983,
      "ĠmÄ±sÄ±nÄ±z": 7984,
      "Ġdetaylar": 7985,
      "Ä±lÄ±m": 7986,
      "ĠÃ§ekici": 7987,
      "Ġsabitleyin": 7988,
      "Ġmutluluk": 7989,
      "ĠUykuya": 7990,
      "melisin": 7991,
      "Ġheading": 7992,
      "Ġcenter": 7993,
      "ï¸ıâ": 7994,
      "924": 7995,
      "Ġsel": 7996,
      "Ġkok": 7997,
      "medik": 7998,
      "maktadÄ±r": 7999,
      "Ġplanlayarak": 8000,
      "sively": 8001,
      "Ġdetour": 8002,
      "ĠakÅŁamlarÄ±": 8003,
      "Ġachieving": 8004,
      "ĠbaÅŁarÄ±larÄ±": 8005,
      "Ġgirmeden": 8006,
      "ĠekranÄ±nÄ±": 8007,
      "ĠbaÅŁlarsÄ±nÄ±z": 8008,
      "Ġgrounding": 8009,
      "Ġgerektiren": 8010,
      "Ġzihinsel": 8011,
      "ĠkaÃ§Ä±nmak": 8012,
      "Ġpromise": 8013,
      "Ġoccas": 8014,
      "ĠgÃ¶ÄŁÃ¼s": 8015,
      "624": 8016,
      "825": 8017,
      "814": 8018,
      "827": 8019,
      "down": 8020,
      "Ġname": 8021,
      "uru": 8022,
      "Ġdue": 8023,
      "nerek": 8024,
      "Ġuyar": 8025,
      "Ġolumlu": 8026,
      "ĠkaÃ§Ä±nÄ±": 8027,
      "254": 8028,
      "Ġbelirleyebilirsiniz": 8029,
      "Ġuns": 8030,
      "Ġelinize": 8031,
      "ĠyaÅŁamÄ±": 8032,
      "Ġdisag": 8033,
      "Ġeasiest": 8034,
      "ĠbaÅŁarÄ±sÄ±z": 8035,
      "Ġreminder": 8036,
      "ĠElbette": 8037,
      "Ġrelease": 8038,
      "'un": 8039,
      "728": 8040,
      "780": 8041,
      "880": 8042,
      "920": 8043,
      "mb": 8044,
      "Ġcell": 8045,
      "Ġpl": 8046,
      "Ġsind": 8047,
      "ural": 8048,
      "ilmesi": 8049,
      "action": 8050,
      "amiliar": 8051,
      "ĠAk": 8052,
      "Ġdoor": 8053,
      "ĠdolaÅŁ": 8054,
      "ardaki": 8055,
      "biliriz": 8056,
      "anÄ±zÄ±n": 8057,
      "Ġoda": 8058,
      "weight": 8059,
      "Ġkalkmak": 8060,
      "Ġkelimesini": 8061,
      "Ġperfectionism": 8062,
      "ĠSÄ±cak": 8063,
      "ĠkÃ¶ÅŁ": 8064,
      "Ġpromote": 8065,
      "ĠdÃ¶nÃ¼ÅŁtÃ¼r": 8066,
      "Ġtuvalet": 8067,
      "Ġunfamiliar": 8068,
      "ĠTranslate": 8069,
      "Sabah": 8070,
      "ĠTurn": 8071,
      "Ġfig": 8072,
      "ĠmÃ¼": 8073,
      "Ġmile": 8074,
      "ĠnumarayÄ±": 8075,
      "terek": 8076,
      "Ġexha": 8077,
      "anÄ±zdaki": 8078,
      "duÄŁunuz": 8079,
      "ĠdoÄŁrult": 8080,
      "Ġdistracted": 8081,
      "ĠmesajÄ±nÄ±zÄ±": 8082,
      "Ġenerjisini": 8083,
      "ĠbilgisayarÄ±nÄ±zda": 8084,
      "Ġgrows": 8085,
      "Ġcolle": 8086,
      "ĠkullanÄ±mÄ±nÄ±": 8087,
      "Ġyetene": 8088,
      "Ġnoktalar": 8089,
      "ï¸ıâĥ": 8090,
      "487": 8091,
      "700": 8092,
      "815": 8093,
      "Ġcam": 8094,
      "Ġbiber": 8095,
      "Ġkart": 8096,
      "Ġfakt": 8097,
      "ĠuyarÄ±": 8098,
      "ems": 8099,
      "ĠnumarasÄ±nÄ±z": 8100,
      "ĠseÃ§melisiniz": 8101,
      "Ġupfront": 8102,
      "Ġedici": 8103,
      "Ġelinizi": 8104,
      "Åŀu": 8105,
      "Ġargum": 8106,
      "ï¸ıâĥ£": 8107,
      "431": 8108,
      "727": 8109,
      "785": 8110,
      "any": 8111,
      "Ġprop": 8112,
      "oru": 8113,
      "ayÄ±r": 8114,
      "Ġez": 8115,
      "ĠAM": 8116,
      "Ġdemektir": 8117,
      "udaki": 8118,
      "ĠkullanmanÄ±z": 8119,
      "ĠiÅŁinize": 8120,
      "Ġsaatinizi": 8121,
      "ĠÃ§Ä±kara": 8122,
      "ĠÅŁeker": 8123,
      "ĠkarÅŁÄ±laÅŁtÄ±r": 8124,
      "Ġderail": 8125,
      "Ġengagement": 8126,
      "ĠgereÄŁi": 8127,
      "ĠdavranÄ±ÅŁÄ±": 8128,
      "ĠÃ§eviri": 8129,
      "Ġappreciation": 8130,
      "Ġenjoying": 8131,
      "625": 8132,
      "626": 8133,
      "710": 8134,
      "715": 8135,
      "729": 8136,
      "927": 8137,
      "esap": 8138,
      "Ġcut": 8139,
      "Ġcities": 8140,
      "Ġsix": 8141,
      "Ġprim": 8142,
      "ouble": 8143,
      "ĠEff": 8144,
      "Ġfeet": 8145,
      "ĠÃ§ekmeyi": 8146,
      "Ġistem": 8147,
      "Ġrooms": 8148,
      "Ġrecip": 8149,
      "ĠmesajlarÄ±": 8150,
      "earching": 8151,
      "Ġcontent": 8152,
      "Ġenvironmental": 8153,
      "ĠsÃ¼recin": 8154,
      "Ġmalze": 8155,
      "Ġpurch": 8156,
      "bilmek": 8157,
      "Ġseninle": 8158,
      "ĠrahatlatÄ±cÄ±": 8159,
      "Ġbeklemeyin": 8160,
      "Ġimpulsively": 8161,
      "Ġportre": 8162,
      "Ġinteresting": 8163,
      "Ġsprints": 8164,
      "Ġdetours": 8165,
      "ĠdoÄŁrultusunda": 8166,
      "526": 8167,
      "bilg": 8168,
      "eple": 8169,
      "orate": 8170,
      "Ġhop": 8171,
      "Ġworth": 8172,
      "Ġthir": 8173,
      "Ġmail": 8174,
      "Ġmola": 8175,
      "lerinizin": 8176,
      "Ġresearching": 8177,
      "ĠÃ¶ÄŁret": 8178,
      "Ġasist": 8179,
      "Ġhedefleyerek": 8180,
      "Ġyoludur": 8181,
      "ĠdÃ¼zenlemeye": 8182,
      "ĠgÃ¶rÃ¼": 8183,
      "ĠalanÄ±nÄ±": 8184,
      "ansÃ¶r": 8185,
      "Ġactual": 8186,
      "Ġdefa": 8187,
      "Ãĸrn": 8188,
      "Ġalarms": 8189,
      "Ġbelongs": 8190,
      "Ġfilm": 8191,
      "Ġstruggle": 8192,
      "536": 8193,
      "630": 8194,
      "615": 8195,
      "616": 8196,
      "680": 8197,
      "720": 8198,
      "837": 8199,
      "Ä±ra": 8200,
      "Ġtech": 8201,
      "aket": 8202,
      "Ġfare": 8203,
      "Ġanlar": 8204,
      "ĠÃ§arp": 8205,
      "Ġleg": 8206,
      "omb": 8207,
      "ondan": 8208,
      "ĠÃ§alÄ±ÅŁÄ±r": 8209,
      "Ġdistracting": 8210,
      "Ġtamamlayarak": 8211,
      "Ġhareketlerle": 8212,
      "ĠbakÄ±ÅŁ": 8213,
      "Ġuykuyu": 8214,
      "ology": 8215,
      "Ġbazen": 8216,
      "Ġnutriti": 8217,
      "ĠEffective": 8218,
      "510": 8219,
      "836": 8220,
      "915": 8221,
      "Tube": 8222,
      "io": 8223,
      "ĠinÅŁa": 8224,
      "ginÃ§": 8225,
      "ĠDenizle": 8226,
      "karak": 8227,
      "Ġoverc": 8228,
      "364": 8229,
      "Ġediyor": 8230,
      "ĠBirincisi": 8231,
      "Ġdescri": 8232,
      "Ġgeliyor": 8233,
      "ĠÃ§Ä±kan": 8234,
      "Ġenerjisi": 8235,
      "Ġtelefonunuzdan": 8236,
      "ĠÃĸÄŁrenmeyi": 8237,
      "ÅŁaÄŁÄ±daki": 8238,
      "ĠAlÄ±ÅŁkanlÄ±klar": 8239,
      "ĠtarafÄ±n": 8240,
      "ĠiÅŁlev": 8241,
      "ĠmantÄ±klÄ±sÄ±": 8242,
      "Ġoccasion": 8243,
      "ĠfaktÃ¶r": 8244,
      "Ġnutritious": 8245,
      "Ġ[": 8246,
      "Ä±ÄŁÄ±nÄ±": 8247,
      "elisiniz": 8248,
      "ulu": 8249,
      "Ã§alÄ±ÅŁ": 8250,
      "Ġmeas": 8251,
      "Ġcomment": 8252,
      "Ġyerin": 8253,
      "Ġbelirgin": 8254,
      "Ġinterfer": 8255,
      "Ġedilen": 8256,
      "ĠbaÅŁlayanlar": 8257,
      "Ġtalep": 8258,
      "ĠbaÅŁarÄ±ya": 8259,
      "Ġagainst": 8260,
      "ĠkiÅŁiyi": 8261,
      "ĠsabÄ±rlÄ±": 8262,
      "Ġsounds": 8263,
      "ĠExpress": 8264,
      "Ġobligation": 8265,
      "Ġprimary": 8266,
      "530": 8267,
      "535": 8268,
      "726": 8269,
      "936": 8270,
      "tarÄ±": 8271,
      "ont": 8272,
      "Ä±yorsunuz": 8273,
      "tiren": 8274,
      "ĠDoÄŁ": 8275,
      "ĠmÃ¼zik": 8276,
      "unk": 8277,
      "Ġleft": 8278,
      "Ġsona": 8279,
      "selves": 8280,
      "tÄ±ÄŁÄ±": 8281,
      "Ġortalama": 8282,
      "ĠsÄ±kÄ±": 8283,
      "Ġagend": 8284,
      "ĠsaÄŁlayabilirsiniz": 8285,
      "Ġkaydederek": 8286,
      "Ġdesignate": 8287,
      "ĠhedeflediÄŁiniz": 8288,
      "Ġkonularda": 8289,
      "Ġstacking": 8290,
      "'la": 8291,
      "484": 8292,
      "515": 8293,
      "524": 8294,
      "614": 8295,
      "830": 8296,
      "980": 8297,
      "Ar": 8298,
      "cÃ¼k": 8299,
      "dim": 8300,
      "ious": 8301,
      "Ġski": 8302,
      "ants": 8303,
      "ĠBaz": 8304,
      "ĠGreat": 8305,
      "ased": 8306,
      "ĠÃ¶neriniz": 8307,
      "Ġkare": 8308,
      "Ġvurg": 8309,
      "ĠartÄ±rarak": 8310,
      "Ġsuit": 8311,
      "zeti": 8312,
      "ecektir": 8313,
      "Ġertesi": 8314,
      "Ġgereksin": 8315,
      "ĠgÃ¶zlerinizi": 8316,
      "Ġrecord": 8317,
      "ĠsÄ±caklÄ±k": 8318,
      "ĠpaylaÅŁarak": 8319,
      "Ġsoruya": 8320,
      "ĠanlaÅŁÄ±l": 8321,
      "ĠSÄ±fÄ±r": 8322,
      "Ġpicture": 8323,
      "Ġconscious": 8324,
      "488": 8325,
      "684": 8326,
      "736": 8327,
      "910": 8328,
      "Hedef": 8329,
      "dik": 8330,
      "isc": 8331,
      "sab": 8332,
      "Ġinstant": 8333,
      "Ġissue": 8334,
      "Ġkonunun": 8335,
      "Ġori": 8336,
      "ĠHang": 8337,
      "Ġbuz": 8338,
      "Ġoutdo": 8339,
      "Ġrestore": 8340,
      "ĠThey": 8341,
      "Ġlighting": 8342,
      "Ġlightweight": 8343,
      "diÄŁinde": 8344,
      "Ġstressed": 8345,
      "Ġelsewhere": 8346,
      "Ġlesson": 8347,
      "Ġkahves": 8348,
      "Ġrutinler": 8349,
      "ĠÃ§izmek": 8350,
      "ĠÃ§izgi": 8351,
      "Ġcycles": 8352,
      "Ġreplacement": 8353,
      "Ġvakti": 8354,
      "Ġspontaneity": 8355,
      "ĠaÅŁÄ±rÄ±": 8356,
      "Ġsituations": 8357,
      "Ġtracking": 8358,
      "628": 8359,
      "617": 8360,
      "724": 8361,
      "925": 8362,
      "Ġaud": 8363,
      "Ġcap": 8364,
      "Ġfer": 8365,
      "Ġfile": 8366,
      "ĠanlarÄ±": 8367,
      "lerinin": 8368,
      "Ġrare": 8369,
      "ĠÅŁef": 8370,
      "Ġhedefiniz": 8371,
      "Ġesn": 8372,
      "ĠsÃ¼recinde": 8373,
      "beti": 8374,
      "Ġsalat": 8375,
      "'Ã¼n": 8376,
      "516": 8377,
      "687": 8378,
      "dikten": 8379,
      "Ġpages": 8380,
      "Ġdam": 8381,
      "ĠverdiÄŁiniz": 8382,
      "Ġword": 8383,
      "ĠdakikasÄ±": 8384,
      "ĠFlights": 8385,
      "ĠdÃ¼zeninde": 8386,
      "Ġopening": 8387,
      "Ġload": 8388,
      "Ġfixing": 8389,
      "ĠÅŀehir": 8390,
      "ĠvÃ¼cudunuza": 8391,
      "Ġindivid": 8392,
      "Ġkoyup": 8393,
      "ĠarayÄ±n": 8394,
      "Ġobserv": 8395,
      "Ġempat": 8396,
      "Ġtoiletries": 8397,
      "Ġtechn": 8398,
      "-go": 8399,
      "517": 8400,
      "685": 8401,
      "730": 8402,
      "823": 8403,
      "817": 8404,
      "928": 8405,
      "916": 8406,
      "926": 8407,
      "nation": 8408,
      "Ġsyn": 8409,
      "Ġdenize": 8410,
      "ĠdakikasÄ±nÄ±": 8411,
      "Ġkendisi": 8412,
      "ĠkullanÄ±p": 8413,
      "ĠÃ¶ÄŁrenmektir": 8414,
      "ĠistediÄŁinize": 8415,
      "oughly": 8416,
      "Ġestim": 8417,
      "tirebilir": 8418,
      "ĠAlÄ±ÅŁkanlÄ±klarÄ±": 8419,
      "Ġbitire": 8420,
      "ĠBaÅŁarÄ±lÄ±": 8421,
      "Ġtablet": 8422,
      "ĠcevabÄ±": 8423,
      "solida": 8424,
      "Ġsenaryo": 8425,
      "Ġagenda": 8426,
      "580": 8427,
      "786": 8428,
      "uÃ§": 8429,
      "wor": 8430,
      "Ġcross": 8431,
      "tep": 8432,
      "ĠyukarÄ±": 8433,
      "ĠgÃ¼r": 8434,
      "izin": 8435,
      "Ġbeginning": 8436,
      "Ġsaate": 8437,
      "394": 8438,
      "Ġkurs": 8439,
      "Ġalanlarda": 8440,
      "diÄŁinizi": 8441,
      "Ã¼nÃ¼zde": 8442,
      "Ġmethods": 8443,
      "Ġsalata": 8444,
      "Ġbununla": 8445,
      "Ġtwice": 8446,
      "-hour": 8447,
      "Ġyiyecek": 8448,
      "528": 8449,
      "585": 8450,
      "749": 8451,
      "935": 8452,
      "gÃ¶": 8453,
      "igh": 8454,
      "plan": 8455,
      "Ġaile": 8456,
      "Ġpir": 8457,
      "anta": 8458,
      "ello": 8459,
      "aklaÅŁ": 8460,
      "Ġmara": 8461,
      "ĠSh": 8462,
      "ĠSend": 8463,
      "ĠyapmanÄ±zÄ±": 8464,
      "ĠKaf": 8465,
      "ĠsuÃ§": 8466,
      "Ġelb": 8467,
      "Ġdurup": 8468,
      "ĠalanÄ±na": 8469,
      "ĠsorunlarÄ±nÄ±z": 8470,
      "Ġhissetme": 8471,
      "ĠEvde": 8472,
      "Ġlasting": 8473,
      "Ġoturun": 8474,
      "ĠÃ§evre": 8475,
      "ĠfÄ±rÄ±n": 8476,
      "ĠÄ°ÅŁte": 8477,
      "ĠaÃ§Ä±sÄ±ndan": 8478,
      "Ġenter": 8479,
      "Ġhydration": 8480,
      "Ġchaos": 8481,
      "Ġyuvar": 8482,
      "ĠSessiz": 8483,
      "525": 8484,
      "537": 8485,
      "636": 8486,
      "829": 8487,
      "834": 8488,
      "930": 8489,
      "ĠkÃ¼Ã§": 8490,
      "itely": 8491,
      "lerseniz": 8492,
      "ĠplanlamayÄ±": 8493,
      "ĠZeyneple": 8494,
      "eceÄŁini": 8495,
      "deep": 8496,
      "294": 8497,
      "Ġsorusunu": 8498,
      "Ġlistele": 8499,
      "Ġdilini": 8500,
      "ildiÄŁi": 8501,
      "ĠhÄ±zlandÄ±": 8502,
      "Ġease": 8503,
      "Ġconnecting": 8504,
      "Ġknows": 8505,
      "ĠprogramÄ±nÄ±": 8506,
      "Ġachievement": 8507,
      "Ġuykudan": 8508,
      "ĠÃ§evren": 8509,
      "ĠkolaylaÅŁtÄ±racak": 8510,
      "Ġsulama": 8511,
      "Ġbelirtirseniz": 8512,
      "ĠgÃ¼lÃ¼m": 8513,
      "ĠkalabalÄ±k": 8514,
      "ynamic": 8515,
      "Ġmarath": 8516,
      "527": 8517,
      "584": 8518,
      "713": 8519,
      "717": 8520,
      "hazÄ±r": 8521,
      "yim": 8522,
      "ĠsÄ±nÄ±": 8523,
      "Ġkop": 8524,
      "Ġdynamic": 8525,
      "Ġinvite": 8526,
      "Ġzorlayan": 8527,
      "ĠanlamlÄ±": 8528,
      "Ġbypass": 8529,
      "Ġseek": 8530,
      "Ġsorununu": 8531,
      "ĠoluÅŁturmaya": 8532,
      "ĠakÅŁamÄ±": 8533,
      "Ġpencer": 8534,
      "Ġrequest": 8535,
      "ĠihtiyacÄ±": 8536,
      "Ġkaydedip": 8537,
      "ĠkarmaÅŁ": 8538,
      "ĠbaÅŁlarsanÄ±z": 8539,
      "ĠkaÄŁÄ±dÄ±": 8540,
      "ĠkolaylaÅŁÄ±r": 8541,
      "Ġaccountability": 8542,
      "Ġkeyifli": 8543,
      "514": 8544,
      "534": 8545,
      "610": 8546,
      "Pick": 8547,
      "fotoÄŁraf": 8548,
      "jour": 8549,
      "van": 8550,
      "ĠkaÅŁ": 8551,
      "Ġkurarak": 8552,
      "tecek": 8553,
      "Ġyudum": 8554,
      "adaki": 8555,
      "Ġkate": 8556,
      "ĠzamanÄ±n": 8557,
      "Ġsleepy": 8558,
      "Ġintended": 8559,
      "ĠgÃ¶lg": 8560,
      "ĠsÃ¼reler": 8561,
      "edeki": 8562,
      "ĠtÃ¼rÃ¼ne": 8563,
      "Ġpressured": 8564,
      "Ġterms": 8565,
      "ĠkamerayÄ±": 8566,
      "Ġobj": 8567,
      "ĠRespect": 8568,
      "Ġsohbeti": 8569,
      "Ġlooks": 8570,
      "Ġgrouping": 8571,
      "Ġgetirmek": 8572,
      "Ġmemorizing": 8573,
      "ĠKonuyu": 8574,
      "Ġuykusuz": 8575,
      "ĠgÃ¼Ã§lendirir": 8576,
      "Ġboyut": 8577,
      "Ġreflecting": 8578,
      "kalem": 8579,
      "Ġexplore": 8580,
      "-verbal": 8581,
      "52": 8582,
      "835": 8583,
      "987": 8584,
      "ctions": 8585,
      "Ġneyin": 8586,
      "ĠDolayÄ±sÄ±yla": 8587,
      "ved": 8588,
      "Ġfur": 8589,
      "Ġanah": 8590,
      "lardÄ±r": 8591,
      "Ġdom": 8592,
      "suna": 8593,
      "Ġokur": 8594,
      "clear": 8595,
      "ĠodaklanmaktÄ±r": 8596,
      "Ġapply": 8597,
      "ĠbÄ±rakmayÄ±n": 8598,
      "Ġvisits": 8599,
      "ĠihtiyacÄ±n": 8600,
      "Ġkazanmak": 8601,
      "Ġsummarize": 8602,
      "Ġchats": 8603,
      "Ġmakine": 8604,
      "Ġkategor": 8605,
      "627": 8606,
      "635": 8607,
      "716": 8608,
      "788": 8609,
      "784": 8610,
      "923": 8611,
      "ied": 8612,
      "per": 8613,
      "tra": 8614,
      "Ġbot": 8615,
      "alog": 8616,
      "lediÄŁiniz": 8617,
      "orba": 8618,
      "ĠDikkat": 8619,
      "dÄ±ÄŁÄ±n": 8620,
      "atter": 8621,
      "Ġuyul": 8622,
      "**.Ċ": 8623,
      "Ġbelirten": 8624,
      "Ġyolunu": 8625,
      "ĠkarÅŁÄ±sÄ±nda": 8626,
      "ĠyarÄ±m": 8627,
      "Ġunexpectedly": 8628,
      "ĠdÃ¼ÅŁÃ¼rÃ¼r": 8629,
      "Ġtypes": 8630,
      "Ġsolution": 8631,
      "gencies": 8632,
      "Ġemergencies": 8633,
      "ĠhÄ±zlandÄ±rÄ±r": 8634,
      "Ġsuyunu": 8635,
      "Ġburada": 8636,
      "Ġcorrect": 8637,
      "Ġfurther": 8638,
      "\").Ċ": 8639,
      "The": 8640,
      "Ġhep": 8641,
      "Ġhaber": 8642,
      "lations": 8643,
      "Ġbirim": 8644,
      "Ġzem": 8645,
      "ĠyapmayÄ±n": 8646,
      "ĠyazdÄ±ÄŁÄ±nÄ±z": 8647,
      "ĠalÄ±rken": 8648,
      "Ġkalb": 8649,
      "ĠaralÄ±": 8650,
      "ĠseÃ§erken": 8651,
      "Ġhedefini": 8652,
      "arakter": 8653,
      "Ġedersiniz": 8654,
      "ĠkuralÄ±": 8655,
      "Ġspeech": 8656,
      "Ġayarlamak": 8657,
      "Ġmisin": 8658,
      "ĠbaÄŁÄ±m": 8659,
      "Ġseviyeniz": 8660,
      "ĠkazanÄ±m": 8661,
      "Ġcountertop": 8662,
      "Ġassumptions": 8663,
      "Ġdikkatlice": 8664,
      "gÃ¶z": 8665,
      "Ġbored": 8666,
      "Ġmass": 8667,
      "Ġuyurken": 8668,
      "lerinizle": 8669,
      "ĠzorlaÅŁtÄ±r": 8670,
      "ĠplanlanmÄ±ÅŁ": 8671,
      "Ġrap": 8672,
      "ĠtutarlÄ±": 8673,
      "Ġunhe": 8674,
      "Ġilerleyen": 8675,
      "ĠgÃ¶revlerin": 8676,
      "Ġrealistically": 8677,
      "ĠSleeping": 8678,
      "Ġdefterine": 8679,
      "Ġforced": 8680,
      "olume": 8681,
      "Ġprovides": 8682,
      "ĠyÃ¶netmek": 8683,
      "ĠbaÅŁlÄ±yorsanÄ±z": 8684,
      "visit": 8685,
      "ĠÄ°stediÄŁiniz": 8686,
      "Ġsupportive": 8687,
      "489": 8688,
      "913": 8689,
      "985": 8690,
      "hum": 8691,
      "rat": 8692,
      "ĠyÄ±l": 8693,
      "Ġfoto": 8694,
      "Ġgems": 8695,
      "ĠBilgi": 8696,
      "ably": 8697,
      "Ġzaten": 8698,
      "lÄ±nda": 8699,
      "Ġbeden": 8700,
      "Ġetmenizi": 8701,
      "ĠseÃ§tiÄŁiniz": 8702,
      "Ġhedefleri": 8703,
      "ĠkarÅŁ": 8704,
      "Ä±lma": 8705,
      "ĠalanlarÄ±nÄ±": 8706,
      "Ġnefesini": 8707,
      "Ġrecomm": 8708,
      "Ġgidiyor": 8709,
      "ĠendiÅŁ": 8710,
      "Ġsistemini": 8711,
      "ĠoluÅŁturarak": 8712,
      "Ġtelev": 8713,
      "-F": 8714,
      "613": 8715,
      "688": 8716,
      "686": 8717,
      "723": 8718,
      "737": 8719,
      "787": 8720,
      "917": 8721,
      "984": 8722,
      "Uy": 8723,
      "dge": 8724,
      "isk": 8725,
      "reement": 8726,
      "ĠkaÅŁÄ±k": 8727,
      "Ġhitap": 8728,
      "ĠEyl": 8729,
      "ĠdediÄŁ": 8730,
      "ĠEngage": 8731,
      "ither": 8732,
      "Ġadim": 8733,
      "larken": 8734,
      "edir": 8735,
      "ĠdayalÄ±": 8736,
      "ĠdeÄŁeri": 8737,
      "ĠdeÄŁiÅŁtirerek": 8738,
      "Ġintrod": 8739,
      "Ġmanaging": 8740,
      "Ġdaire": 8741,
      "ĠÃ§alÄ±ÅŁmaktÄ±r": 8742,
      "Ġhedeflere": 8743,
      "Ġendless": 8744,
      "ĠortamÄ±": 8745,
      "ĠkolaylaÅŁtÄ±rÄ±n": 8746,
      "tÄ±rabilir": 8747,
      "ĠduyduÄŁun": 8748,
      "ĠsÃ¶zlÃ¼k": 8749,
      "Ġincreasing": 8750,
      "Ġharcamak": 8751,
      "ĠuygulamalarÄ±nÄ±": 8752,
      "Ġbarriers": 8753,
      "Ġkenar": 8754,
      "Ġlayers": 8755,
      "ĠGÃ¶revlerinizi": 8756,
      "Ġpiling": 8757,
      "ozisyon": 8758,
      "ĠBazen": 8759,
      "ĠEylÃ¼l": 8760,
      "-val": 8761,
      "813": 8762,
      "833": 8763,
      "933": 8764,
      "988": 8765,
      "neden": 8766,
      "onda": 8767,
      "oda": 8768,
      "izyon": 8769,
      "Ġstories": 8770,
      "ĠRe": 8771,
      "Ġkalmaya": 8772,
      "Ġtransi": 8773,
      "ĠasansÃ¶r": 8774,
      "Ġsorul": 8775,
      "Ġoturarak": 8776,
      "ĠkullanÄ±rken": 8777,
      "ĠBirinci": 8778,
      "Ġdurumlarda": 8779,
      "ĠodaklanmÄ±ÅŁ": 8780,
      "Ġreplying": 8781,
      "ĠolanlarÄ±": 8782,
      "Ġcleanup": 8783,
      "ĠseÃ§enektir": 8784,
      "ĠgÃ¶rÃ¼nÃ¼r": 8785,
      "ĠElinizde": 8786,
      "ĠHava": 8787,
      "Ġpanic": 8788,
      "ĠÃ§ubuk": 8789,
      "Ġfails": 8790,
      "Ġmetaboliz": 8791,
      "ĠYemek": 8792,
      "ĠWait": 8793,
      "Ġmilest": 8794,
      "Ġmassive": 8795,
      "-value": 8796,
      "586": 8797,
      "789": 8798,
      "inc": 8799,
      "Ġpure": 8800,
      "ala": 8801,
      "ÅŁek": 8802,
      "ĠYouTube": 8803,
      "amÄ±yorum": 8804,
      "Ã¼nÃ¼n": 8805,
      "ĠGer": 8806,
      "Ġmoves": 8807,
      "Ġnem": 8808,
      "think": 8809,
      "ĠartÄ±racak": 8810,
      "ĠAynÄ±": 8811,
      "asÄ±ndan": 8812,
      "Ġanyone": 8813,
      "ĠalÄ±ÅŁkanlÄ±klarÄ±nÄ±zÄ±": 8814,
      "Ġuzat": 8815,
      "?\"Ċ": 8816,
      "Ġdefensive": 8817,
      "ebiliriz": 8818,
      "Ġprocrastin": 8819,
      "ĠtanÄ±mlayÄ±n": 8820,
      "Ġencourages": 8821,
      "Ġkaydetmek": 8822,
      "ĠÃ¶ÄŁrenerek": 8823,
      "ĠbaÅŁkalar": 8824,
      "Ġdelayed": 8825,
      "Ġrushed": 8826,
      "Ġpattern": 8827,
      "Ġrefreshed": 8828,
      "Ġcompliments": 8829,
      "Ġsmooth": 8830,
      "Ġsindirim": 8831,
      "Ġrarely": 8832,
      "549": 8833,
      "812": 8834,
      "822": 8835,
      "iÃ§": 8836,
      "ring": 8837,
      "rang": 8838,
      "yken": 8839,
      "Ġ/": 8840,
      "ssing": 8841,
      "itation": 8842,
      "ĠbirleÅŁtir": 8843,
      "larÄ±m": 8844,
      "lÄ±ÄŁÄ±nÄ±z": 8845,
      "ĠyazdÄ±r": 8846,
      "ĠAyÅŁe": 8847,
      "Ġthemselves": 8848,
      "Ġkullanmaktan": 8849,
      "Ã¼rekli": 8850,
      "ĠsÃ¼rece": 8851,
      "Ġscatter": 8852,
      "Ġteknoloj": 8853,
      "ĠWi": 8854,
      "Ġroad": 8855,
      "ĠnetleÅŁ": 8856,
      "Ġizleme": 8857,
      "Ġspeaks": 8858,
      "Ġincelem": 8859,
      "ĠkaynaklarÄ±": 8860,
      "ĠayÄ±ra": 8861,
      "Ġmeditasyon": 8862,
      "ĠKonuÅŁma": 8863,
      "Ġcountry": 8864,
      "Ġlisteleyin": 8865,
      "ĠkavramlarÄ±": 8866,
      "Ġtencer": 8867,
      "-S": 8868,
      "-at": 8869,
      "637": 8870,
      "937": 8871,
      "DoÄŁ": 8872,
      "HÄ±zlÄ±": 8873,
      "istic": 8874,
      "Ġkarakter": 8875,
      "ĠdÃ¼ny": 8876,
      "Ġinner": 8877,
      "ades": 8878,
      "amanÄ±zÄ±": 8879,
      "velop": 8880,
      "ĠdÃ¼zgÃ¼n": 8881,
      "ĠbahÃ§enizi": 8882,
      "Ġyemekler": 8883,
      "ĠalÄ±m": 8884,
      "Ġaramak": 8885,
      "Ġmotivasyonunuzu": 8886,
      "Ġlaugh": 8887,
      "ĠdÃ¼ÅŁÃ¼nme": 8888,
      "Ġendor": 8889,
      "ĠdeÄŁiÅŁir": 8890,
      "Ġedebilir": 8891,
      "Ġdirekt": 8892,
      "ĠdÃ¶nem": 8893,
      "Ġsohbetler": 8894,
      "ĠSÃ¼reÃ§": 8895,
      "ĠkÃ¶k": 8896,
      "Ä±ldÄ±ÄŁÄ±nda": 8897,
      "Ġsaniyelik": 8898,
      "523": 8899,
      "629": 8900,
      "72": 8901,
      "734": 8902,
      "929": 8903,
      "case": 8904,
      "rit": 8905,
      "Ġidi": 8906,
      "lamanÄ±z": 8907,
      "lÄ±ÄŁÄ±n": 8908,
      "Ġbulabilirsiniz": 8909,
      "Ġjok": 8910,
      "Ġoku": 8911,
      "Ġokun": 8912,
      "Ġedit": 8913,
      "ĠiÅŁlerini": 8914,
      "akkab": 8915,
      "ĠgÃ¼nÃ¼ne": 8916,
      "Ġdialog": 8917,
      "ĠÄ°stanbullu": 8918,
      "Ġkelimesi": 8919,
      "ĠvÃ¼cudunuz": 8920,
      "Ä±larak": 8921,
      "ĠgÃ¶ndermek": 8922,
      "ĠgÃ¶steren": 8923,
      "Ġchargers": 8924,
      "Ġlisteley": 8925,
      "Ġkickstart": 8926,
      "Ġdialogue": 8927,
      "529": 8928,
      "588": 8929,
      "623": 8930,
      "821": 8931,
      "Ġkura": 8932,
      "ĠYour": 8933,
      "Ġfight": 8934,
      "Ä°ÅŁ": 8935,
      "Ġvermeden": 8936,
      "ĠzorlandÄ±ÄŁÄ±nÄ±z": 8937,
      "Ġrested": 8938,
      "Ġdost": 8939,
      "ĠElifle": 8940,
      "ĠalÄ±r": 8941,
      "Ġkalmak": 8942,
      "Ġdilinizi": 8943,
      "ĠsÃ¼recek": 8944,
      "arklÄ±": 8945,
      "Ġdurumunuza": 8946,
      "Ġspeed": 8947,
      "Ġizleyebilirsiniz": 8948,
      "Ġbudgeting": 8949,
      "ĠÄ±ÅŁÄ±ÄŁÄ±nda": 8950,
      "ĠanlatÄ±m": 8951,
      "Ġderece": 8952,
      "ĠsabÄ±rsÄ±z": 8953,
      "ĠakÄ±ÅŁÄ±nÄ±": 8954,
      "ĠyÃ¼rÃ¼menizi": 8955,
      "box": 8956,
      "Ġconcerns": 8957,
      "Ġdeliberate": 8958,
      "Ġspirit": 8959,
      "Ġproper": 8960,
      "journey": 8961,
      "533": 8962,
      "914": 8963,
      "bile": 8964,
      "rom": 8965,
      "yÄ±n": 8966,
      "Ġclim": 8967,
      "ĠTaking": 8968,
      "ĠayarÄ±": 8969,
      "Ġbiridir": 8970,
      "Ġstory": 8971,
      "ĠbaÅŁÄ±nÄ±": 8972,
      "Ġverip": 8973,
      "ĠRut": 8974,
      "Ã¼yle": 8975,
      "Ġoversp": 8976,
      "Ġsorusuna": 8977,
      "Ġkendisini": 8978,
      "ĠgÃ¼veni": 8979,
      "Ġlaz": 8980,
      "ĠoluÅŁturup": 8981,
      "Ġmesajda": 8982,
      "Ġhissetmeniz": 8983,
      "Ġsunmak": 8984,
      "ĠUyan": 8985,
      "Ã¼nÃ¼zÃ¼n": 8986,
      "ĠgÃ¶rÃ¼nÃ¼m": 8987,
      "Ġgetirir": 8988,
      "Ġgetirerek": 8989,
      "mezsiniz": 8990,
      "ĠcÃ¼mlede": 8991,
      "Ġbringing": 8992,
      "Ġconditions": 8993,
      "ĠtadÄ±nÄ±": 8994,
      "Ã¼cadele": 8995,
      "733": 8996,
      ">Ċ": 8997,
      "Ġmiy": 8998,
      "Ġince": 8999,
      "ĠÃ¶rne": 9000,
      "ĠayÄ±rma": 9001,
      "ĠbaÅŁlayabileceÄŁiniz": 9002,
      "estyle": 9003,
      "Ġtutan": 9004,
      "Ġpoor": 9005,
      "Ġekra": 9006,
      "Ġwanting": 9007,
[...]
