{
  "version": "1.0",
  "truncation": null,
  "padding": null,
  "added_tokens": [
    {
      "id": 0,
      "content": "<unk>",
      "single_word": false,
      "lstrip": false,
      "rstrip": false,
      "normalized": false,
      "special": true
    },
    {
      "id": 1,
      "content": "<s>",
      "single_word": false,
      "lstrip": false,
      "rstrip": false,
      "normalized": false,
      "special": true
    },
    {
      "id": 2,
      "content": "</s>",
      "single_word": false,
      "lstrip": false,
      "rstrip": false,
      "normalized": false,
      "special": true
    },
    {
      "id": 3,
      "content": "<pad>",
      "single_word": false,
      "lstrip": false,
      "rstrip": false,
      "normalized": false,
      "special": true
    },
    {
      "id": 4,
      "content": "<|system|>",
      "single_word": false,
      "lstrip": false,
      "rstrip": false,
      "normalized": false,
      "special": true
    },
    {
      "id": 5,
      "content": "<|user|>",
      "single_word": false,
      "lstrip": false,
      "rstrip": false,
      "normalized": false,
      "special": true
    },
    {
      "id": 6,
      "content": "<|assistant|>",
      "single_word": false,
      "lstrip": false,
      "rstrip": false,
      "normalized": false,
      "special": true
    },
    {
      "id": 7,
      "content": "<|end|>",
      "single_word": false,
      "lstrip": false,
      "rstrip": false,
      "normalized": false,
      "special": true
    },
    {
      "id": 8,
      "content": "<|code|>",
      "single_word": false,
      "lstrip": false,
      "rstrip": false,
      "normalized": false,
      "special": true
    }
  ],
  "normalizer": null,
  "pre_tokenizer": {
    "type": "ByteLevel",
    "add_prefix_space": false,
    "trim_offsets": true,
    "use_regex": true
  },
  "post_processor": {
    "type": "ByteLevel",
    "add_prefix_space": true,
    "trim_offsets": false,
    "use_regex": true
  },
  "decoder": {
    "type": "ByteLevel",
    "add_prefix_space": true,
    "trim_offsets": true,
    "use_regex": true
  },
  "model": {
    "type": "BPE",
    "dropout": null,
    "unk_token": "<unk>",
    "continuing_subword_prefix": null,
    "end_of_word_suffix": null,
    "fuse_unk": false,
    "byte_fallback": false,
    "ignore_merges": false,
    "vocab": {
      "<unk>": 0,
      "<s>": 1,
      "</s>": 2,
      "<pad>": 3,
      "<|system|>": 4,
      "<|user|>": 5,
      "<|assistant|>": 6,
      "<|end|>": 7,
      "<|code|>": 8,
      "!": 9,
      "\"": 10,
      "#": 11,
      "$": 12,
      "%": 13,
      "&": 14,
      "'": 15,
      "(": 16,
      ")": 17,
      "*": 18,
      "+": 19,
      ",": 20,
      "-": 21,
      ".": 22,
      "/": 23,
      "0": 24,
      "1": 25,
      "2": 26,
      "3": 27,
      "4": 28,
      "5": 29,
      "6": 30,
      "7": 31,
      "8": 32,
      "9": 33,
      ":": 34,
      ";": 35,
      "<": 36,
      "=": 37,
      ">": 38,
      "?": 39,
      "@": 40,
      "A": 41,
      "B": 42,
      "C": 43,
      "D": 44,
      "E": 45,
      "F": 46,
      "G": 47,
      "H": 48,
      "I": 49,
      "J": 50,
      "K": 51,
      "L": 52,
      "M": 53,
      "N": 54,
      "O": 55,
      "P": 56,
      "Q": 57,
      "R": 58,
      "S": 59,
      "T": 60,
      "U": 61,
      "V": 62,
      "W": 63,
      "X": 64,
      "Y": 65,
      "Z": 66,
      "[": 67,
      "\\": 68,
      "]": 69,
      "^": 70,
      "_": 71,
      "`": 72,
      "a": 73,
      "b": 74,
      "c": 75,
      "d": 76,
      "e": 77,
      "f": 78,
      "g": 79,
      "h": 80,
      "i": 81,
      "j": 82,
      "k": 83,
      "l": 84,
      "m": 85,
      "n": 86,
      "o": 87,
      "p": 88,
      "q": 89,
      "r": 90,
      "s": 91,
      "t": 92,
      "u": 93,
      "v": 94,
      "w": 95,
      "x": 96,
      "y": 97,
      "z": 98,
      "{": 99,
      "|": 100,
      "}": 101,
      "~": 102,
      "¡": 103,
      "¢": 104,
      "£": 105,
      "¤": 106,
      "¥": 107,
      "¦": 108,
      "§": 109,
      "¨": 110,
      "©": 111,
      "ª": 112,
      "«": 113,
      "¬": 114,
      "®": 115,
      "¯": 116,
      "°": 117,
      "±": 118,
      "²": 119,
      "³": 120,
      "´": 121,
      "µ": 122,
      "¶": 123,
      "·": 124,
      "¸": 125,
      "¹": 126,
      "º": 127,
      "»": 128,
      "¼": 129,
      "½": 130,
      "¾": 131,
      "¿": 132,
      "À": 133,
      "Á": 134,
      "Â": 135,
      "Ã": 136,
      "Ä": 137,
      "Å": 138,
      "Æ": 139,
      "Ç": 140,
      "È": 141,
      "É": 142,
      "Ê": 143,
      "Ë": 144,
      "Ì": 145,
      "Í": 146,
      "Î": 147,
      "Ï": 148,
      "Ð": 149,
      "Ñ": 150,
      "Ò": 151,
      "Ó": 152,
      "Ô": 153,
      "Õ": 154,
      "Ö": 155,
      "×": 156,
      "Ø": 157,
      "Ù": 158,
      "Ú": 159,
      "Û": 160,
      "Ü": 161,
      "Ý": 162,
      "Þ": 163,
      "ß": 164,
      "à": 165,
      "á": 166,
      "â": 167,
      "ã": 168,
      "ä": 169,
      "å": 170,
      "æ": 171,
      "ç": 172,
      "è": 173,
      "é": 174,
      "ê": 175,
      "ë": 176,
      "ì": 177,
      "í": 178,
      "î": 179,
      "ï": 180,
      "ð": 181,
      "ñ": 182,
      "ò": 183,
      "ó": 184,
      "ô": 185,
      "õ": 186,
      "ö": 187,
      "÷": 188,
      "ø": 189,
      "ù": 190,
      "ú": 191,
      "û": 192,
      "ü": 193,
      "ý": 194,
      "þ": 195,
      "ÿ": 196,
      "Ā": 197,
      "ā": 198,
      "Ă": 199,
      "ă": 200,
      "Ą": 201,
      "ą": 202,
      "Ć": 203,
      "ć": 204,
      "Ĉ": 205,
      "ĉ": 206,
      "Ċ": 207,
      "ċ": 208,
      "Č": 209,
      "č": 210,
      "Ď": 211,
      "ď": 212,
      "Đ": 213,
      "đ": 214,
      "Ē": 215,
      "ē": 216,
      "Ĕ": 217,
      "ĕ": 218,
      "Ė": 219,
      "ė": 220,
      "Ę": 221,
      "ę": 222,
      "Ě": 223,
      "ě": 224,
      "Ĝ": 225,
      "ĝ": 226,
      "Ğ": 227,
      "ğ": 228,
      "Ġ": 229,
      "ġ": 230,
      "Ģ": 231,
      "ģ": 232,
      "Ĥ": 233,
      "ĥ": 234,
      "Ħ": 235,
      "ħ": 236,
      "Ĩ": 237,
      "ĩ": 238,
      "Ī": 239,
      "ī": 240,
      "Ĭ": 241,
      "ĭ": 242,
      "Į": 243,
      "į": 244,
      "İ": 245,
      "ı": 246,
      "Ĳ": 247,
      "ĳ": 248,
      "Ĵ": 249,
      "ĵ": 250,
      "Ķ": 251,
      "ķ": 252,
      "ĸ": 253,
      "Ĺ": 254,
      "ĺ": 255,
      "Ļ": 256,
      "ļ": 257,
      "Ľ": 258,
      "ľ": 259,
      "Ŀ": 260,
      "ŀ": 261,
      "Ł": 262,
      "ł": 263,
      "Ń": 264,
      "Ġa": 265,
      "<|": 266,
      "|>": 267,
      "is": 268,
      "nd": 269,
      "on": 270,
      "in": 271,
      "er": 272,
      "Ä±": 273,
      "an": 274,
      "Ġc": 275,
      "end": 276,
      "ĠĊ": 277,
      "|>:": 278,
      "ti": 279,
      "Ġp": 280,
      "Ġs": 281,
      "ing": 282,
      "Ġt": 283,
      "Ġpr": 284,
      "ss": 285,
      "ist": 286,
      "re": 287,
      "Ġb": 288,
      "Ġcon": 289,
      "ant": 290,
      "ou": 291,
      "od": 292,
      "al": 293,
      "istant": 294,
      "ssistant": 295,
      "ish": 296,
      "en": 297,
      "ra": 298,
      "el": 299,
      "Ġk": 300,
      "tion": 301,
      "Ġn": 302,
      "te": 303,
      "ul": 304,
      "Ġh": 305,
      "Ã¼": 306,
      "us": 307,
      "ce": 308,
      "ver": 309,
      "ĠE": 310,
      "le": 311,
      "or": 312,
      "Ġy": 313,
      "me": 314,
      "sa": 315,
      "ar": 316,
      "Ġi": 317,
      "ur": 318,
      "Ġd": 319,
      "Ġand": 320,
      "ir": 321,
      "ĠD": 322,
      "gl": 323,
      "ÅŁ": 324,
      "ot": 325,
      "Ã§": 326,
      "user": 327,
      "assistant": 328,
      "og": 329,
      "mm": 330,
      "cis": 331,
      "ĠT": 332,
      "Ġconcis": 333,
      "tem": 334,
      "ĠY": 335,
      "Ġare": 336,
      "ys": 337,
      "Ġw": 338,
      "ĠEn": 339,
      "Ġnot": 340,
      "Ġhel": 341,
      "Ġhelp": 342,
      "ful": 343,
      "ogra": 344,
      "ĠDo": 345,
      "versa": 346,
      "uce": 347,
      "versation": 348,
      "Ġconversation": 349,
      "mming": 350,
      "ĠYou": 351,
      "ystem": 352,
      "Ġprogra": 353,
      "Ġprod": 354,
      "urk": 355,
      "ode": 356,
      "Ġassistant": 357,
      "Ġhelpful": 358,
      "Ġconcise": 359,
      "Ġcode": 360,
      "glish": 361,
      "ĠEnglish": 362,
      "Ġproduce": 363,
      "Ġprogramming": 364,
      "Ġconversational": 365,
      "system": 366,
      "urkish": 367,
      "ĠTurkish": 368,
      "ve": 369,
      "ay": 370,
      "ak": 371,
      "Ġ1": 372,
      "it": 373,
      "Ġto": 374,
      "il": 375,
      "et": 376,
      "dÄ±": 377,
      "Ġf": 378,
      "la": 379,
      "Ġth": 380,
      "Ġm": 381,
      "Ä±n": 382,
      "es": 383,
      "Ġg": 384,
      "um": 385,
      "ac": 386,
      "Ġo": 387,
      "ÄŁ": 388,
      "Ġe": 389,
      "Ġyou": 390,
      "ĠB": 391,
      "un": 392,
      "ĠS": 393,
      "iz": 394,
      "Ã¶": 395,
      "ug": 396,
      "Ġbir": 397,
      "Ġay": 398,
      "ab": 399,
      "ith": 400,
      "Ġwith": 401,
      "Ä±r": 402,
      "Ġve": 403,
      "Ġin": 404,
      "da": 405,
      "one": 406,
      "am": 407,
      "at": 408,
      "Ġst": 409,
      "nde": 410,
      "out": 411,
      "estion": 412,
      "ĠiÃ§": 413,
      "lan": 414,
      "ĠA": 415,
      "ri": 416,
      "Ġso": 417,
      "Ġbe": 418,
      "ĠiÃ§in": 419,
      "Ġre": 420,
      "ah": 421,
      "Ġad": 422,
      "Ã¼n": 423,
      "ĠÃ¶": 424,
      "Ġya": 425,
      "Ġan": 426,
      "ki": 427,
      "li": 428,
      "ort": 429,
      "ĠayÄ±r": 430,
      "Ġthe": 431,
      "Ġadet": 432,
      "ple": 433,
      "ĠayÄ±rdÄ±": 434,
      "Ġz": 435,
      "Ġsh": 436,
      "im": 437,
      "tic": 438,
      "Ġyour": 439,
      "ilir": 440,
      "ĠkÄ±": 441,
      "ner": 442,
      "dÄ±m": 443,
      "ĠkÄ±sa": 444,
      "ĠG": 445,
      "Ġu": 446,
      "ĠadÄ±m": 447,
      "as": 448,
      "ly": 449,
      "lar": 450,
      "Ġsome": 451,
      "wo": 452,
      "ive": 453,
      "Ġfor": 454,
      "ĠSc": 455,
      "Ġnum": 456,
      "Ġtwo": 457,
      "Ġshort": 458,
      "Ġ2": 459,
      "Ġme": 460,
      "aÅŁ": 461,
      "ari": 462,
      "ine": 463,
      "Ä±nÄ±": 464,
      "abilir": 465,
      "estions": 466,
      "Ġprac": 467,
      "Ġsomeone": 468,
      "tical": 469,
      "Ġstr": 470,
      "ya": 471,
      "ugg": 472,
      "enti": 473,
      "ep": 474,
      "Ġsugg": 475,
      "gling": 476,
      "uggling": 477,
      "enari": 478,
      "enario": 479,
      "ĠGive": 480,
      "Ġstruggling": 481,
      "Ġpractical": 482,
      "Ġsuggestions": 483,
      "ĠScenario": 484,
      "ara": 485,
      "ed": 486,
      "ĠgÃ¼n": 487,
      "ĠbaÅŁ": 488,
      "mek": 489,
      "ĠM": 490,
      "Ġmo": 491,
      "lam": 492,
      "ic": 493,
      "ef": 494,
      "Ã¼k": 495,
      "Ġkenti": 496,
      "Ġkentinde": 497,
      "Ġuy": 498,
      "Ġile": 499,
      "Ġon": 500,
      "ent": 501,
      "Ġday": 502,
      "very": 503,
      "ey": 504,
      "alÄ±": 505,
      "Ġevery": 506,
      "ec": 507,
      "st": 508,
      "ĠL": 509,
      "Ä°": 510,
      "ek": 511,
      "ad": 512,
      "ut": 513,
      "Ġne": 514,
      "ĠÄ°": 515,
      "ayÄ±": 516,
      "Ġis": 517,
      "nda": 518,
      "Ġol": 519,
      "qu": 520,
      "ation": 521,
      "ow": 522,
      "Ġver": 523,
      "yi": 524,
      "lk": 525,
      "Ġkon": 526,
      "Ġde": 527,
      "Ġor": 528,
      "Ġit": 529,
      "lÄ±": 530,
      "med": 531,
      "Ġyap": 532,
      "sÄ±": 533,
      "Ġuyg": 534,
      "unu": 535,
      "iÅŁ": 536,
      "mak": 537,
      "ĠÃ¶ner": 538,
      "Ġof": 539,
      "em": 540,
      "Ġka": 541,
      "uÅŁ": 542,
      "urum": 543,
      "iniz": 544,
      "ĠO": 545,
      "'s": 546,
      "ler": 547,
      "Ġti": 548,
      "acak": 549,
      "Ġab": 550,
      "Ã¼Ã§": 551,
      "Ġqu": 552,
      "Ġres": 553,
      "ĠÄ°lk": 554,
      "Ġzor": 555,
      "Ġsim": 556,
      "Ġabout": 557,
      "ĠÃ¶neri": 558,
      "Ġiki": 559,
      "Ġco": 560,
      "ĠP": 561,
      "aman": 562,
      "Ġuygul": 563,
      "Ã¼Ã§Ã¼k": 564,
      "ĠÃ§": 565,
      "ĠBu": 566,
      "yor": 567,
      "Ġwh": 568,
      "Ġbul": 569,
      "tir": 570,
      "Ġzaman": 571,
      "usu": 572,
      "Ġnumara": 573,
      "Ġ5": 574,
      "aha": 575,
      "ĠkaÃ§": 576,
      "ely": 577,
      "ĠC": 578,
      "Ġsimple": 579,
      "Ġtime": 580,
      "ĠkÃ¼Ã§Ã¼k": 581,
      "th": 582,
      "ĠnumarasÄ±": 583,
      "ĠDurum": 584,
      "mir": 585,
      "ĠgÃ¼nÃ¼": 586,
      "Ġen": 587,
      "wer": 588,
      "Ġdaha": 589,
      "Ġ3": 590,
      "aya": 591,
      "Ġch": 592,
      "Ġ\"": 593,
      "Ġone": 594,
      "Ġkonusu": 595,
      "Ġuygulan": 596,
      "ĠayÄ±n": 597,
      "Ġzorlan": 598,
      "ĠI": 599,
      "Ġuygulanabilir": 600,
      "rief": 601,
      "Ġkonusunda": 602,
      "Ġmeet": 603,
      "gin": 604,
      "swer": 605,
      "ning": 606,
      "Ġnumar": 607,
      "Ġzorlanan": 608,
      "Ġbirine": 609,
      "Ġbegin": 610,
      "Ä±m": 611,
      "Ġquestion": 612,
      "**": 613,
      "Ã¼m": 614,
      "riefly": 615,
      "Ġanswer": 616,
      "ok": 617,
      "day": 618,
      "ĠnumaralÄ±": 619,
      "lat": 620,
      "ĠdeÄŁ": 621,
      "Ġwithout": 622,
      "ik": 623,
      "ayÄ±t": 624,
      "id": 625,
      "ĠEx": 626,
      "ample": 627,
      "Ġbeginner": 628,
      "ĠkayÄ±t": 629,
      "ĠbuluÅŁ": 630,
      "Ġeveryday": 631,
      "ĠExample": 632,
      "ĠBriefly": 633,
      "Ã¼z": 634,
      "Ġr": 635,
      "ter": 636,
      "Ä±z": 637,
      "ĠbuluÅŁacak": 638,
      "Ġkentindeki": 639,
      "tiv": 640,
      "ĠR": 641,
      "ĠgÃ¼nÃ¼nde": 642,
      "Ġle": 643,
      "eniz": 644,
      "Ġ6": 645,
      "Ġ(": 646,
      "lo": 647,
      "Ġdo": 648,
      "Ġyaz": 649,
      "Ġv": 650,
      "ĠSon": 651,
      "Ġ4": 652,
      "ang": 653,
      "ĠH": 654,
      "Ġac": 655,
      "Ġ7": 656,
      "'d": 657,
      "Ġ9": 658,
      "ĠbaÅŁlat": 659,
      "yorum": 660,
      "ill": 661,
      "Ġ8": 662,
      "larda": 663,
      "lik": 664,
      "sun": 665,
      "Ġisti": 666,
      "ate": 667,
      "ore": 668,
      "ĠAn": 669,
      "Ġj": 670,
      "inu": 671,
      "Ġanlam": 672,
      "iÅŁtir": 673,
      "ack": 674,
      "ĠOn": 675,
      "Ġolsun": 676,
      "ag": 677,
      "ĠcÃ¼m": 678,
      "inute": 679,
      "meden": 680,
      "ĠadÄ±mla": 681,
      "ĠBunu": 682,
      "ĠbaÅŁlatabilir": 683,
      "Ġistiyorum": 684,
      "leyi": 685,
      "Ġzamanlarda": 686,
      "ĠadÄ±mÄ±m": 687,
      "Ġwill": 688,
      "se": 689,
      "ĠbaÅŁlatabiliriz": 690,
      "Ġman": 691,
      "Ä±nÄ±z": 692,
      "Ġbu": 693,
      "ĠdeÄŁiÅŁtir": 694,
      "ap": 695,
      "lif": 696,
      "Ġplan": 697,
      "gh": 698,
      "Ġby": 699,
      "ĠanlamÄ±nÄ±": 700,
      "ĠcÃ¼mleyi": 701,
      "ĠdeÄŁiÅŁtirmeden": 702,
      "Ġsp": 703,
      "fore": 704,
      "ĠN": 705,
      "Ġbefore": 706,
      "ĠZ": 707,
      "ĠAr": 708,
      "abit": 709,
      "ĠMaya": 710,
      "Ġat": 711,
      "lay": 712,
      "ert": 713,
      "ĠElif": 714,
      "ĠMert": 715,
      "eyn": 716,
      "ask": 717,
      "ĠNo": 718,
      "ĠCan": 719,
      "Ġveya": 720,
      "ĠZeyn": 721,
      "om": 722,
      "ĠAda": 723,
      "ĠZeynep": 724,
      "ĠEce": 725,
      "art": 726,
      "ĠNoah": 727,
      "erve": 728,
      "ĠEmir": 729,
      "mal": 730,
      "ina": 731,
      "Ġreserve": 732,
      "ĠLina": 733,
      "ece": 734,
      "Ġchang": 735,
      "Ġhabit": 736,
      "Ġsa": 737,
      "Ġl": 738,
      "Ġmore": 739,
      "ĠÃ¶n": 740,
      "Ġse": 741,
      "Ã¼r": 742,
      "Ġtask": 743,
      "ĠArda": 744,
      "reak": 745,
      "ust": 746,
      "Ġ10": 747,
      "Ġfe": 748,
      "Ġ15": 749,
      "Ġsmal": 750,
      "Ġthis": 751,
      "de": 752,
      "ends": 753,
      "ĠDeniz": 754,
      "if": 755,
      "ue": 756,
      "Ġim": 757,
      "Ġthat": 758,
      "Ġyapmak": 759,
      "Ġra": 760,
      "Ġthan": 761,
      "ol": 762,
      "leep": 763,
      "Ġmean": 764,
      "rak": 765,
      "ip": 766,
      "ren": 767,
      "ew": 768,
      "oc": 769,
      "ch": 770,
      "ĠÃ": 771,
      "rite": 772,
      "ond": 773,
      "Ġola": 774,
      "Ġvar": 775,
      "Ġsmall": 776,
      "Ġgo": 777,
      "Ġye": 778,
      "Ġmeaning": 779,
      "Ġits": 780,
      "Ġlear": 781,
      "like": 782,
      "ght": 783,
      "ake": 784,
      "Ġchanging": 785,
      "ĠÅŁ": 786,
      "Ġfeel": 787,
      "Ġsleep": 788,
      "utu": 789,
      "Ġha": 790,
      "ĠRew": 791,
      "Ġconcisely": 792,
      "ĠRewrite": 793,
      "Ġal": 794,
      "Ġbo": 795,
      "ule": 796,
      "Ã¼ÅŁ": 797,
      "Ġint": 798,
      "ocus": 799,
      "ev": 800,
      "ĠÃ¶ÄŁ": 801,
      "ĠPra": 802,
      "Ġ12": 803,
      "dÄ±r": 804,
      "Ġev": 805,
      "ĠgÃ¶": 806,
      "ther": 807,
      "Ġ**": 808,
      "ini": 809,
      "Ġkal": 810,
      "eni": 811,
      "Ġmanag": 812,
      "Ġminute": 813,
      "Ġrather": 814,
      "ma": 815,
      "Ġmotiv": 816,
      "ne": 817,
      "Ġkutu": 818,
      "Ġ14": 819,
      "Ġtr": 820,
      "Ġ11": 821,
      "Ġ13": 822,
      "ment": 823,
      "ach": 824,
      "ain": 825,
      "Ġjust": 826,
      "Ġtra": 827,
      "lÄ±k": 828,
      "Ġfri": 829,
      "ell": 830,
      "ting": 831,
      "Ġminutes": 832,
      "ers": 833,
      "Ġar": 834,
      "vi": 835,
      "Ġda": 836,
      "Ġinto": 837,
      "Ã¼y": 838,
      "ĠU": 839,
      "Ġkutuda": 840,
      "Ġrout": 841,
      "ĠÃĸ": 842,
      "able": 843,
      "Ġreserved": 844,
      "Ġlearning": 845,
      "ĠÃ¶ÄŁren": 846,
      "vel": 847,
      "Ġcomm": 848,
      "iti": 849,
      "arÄ±": 850,
      "ca": 851,
      "Ġroutine": 852,
      "lin": 853,
      "king": 854,
      "Ġtop": 855,
      "ĠeÅŁ": 856,
      "Ä±k": 857,
      "Ġas": 858,
      "uy": 859,
      "ome": 860,
      "ilg": 861,
      "Ġbed": 862,
      "hip": 863,
      "thing": 864,
      "ard": 865,
      "Ġbel": 866,
      "Ġcan": 867,
      "Ġex": 868,
      "oto": 869,
      "Ġson": 870,
      "erlin": 871,
      "ĠBerlin": 872,
      "ile": 873,
      "medi": 874,
      "endship": 875,
      "tÄ±r": 876,
      "na": 877,
      "tal": 878,
      "slo": 879,
      "Ġwor": 880,
      "our": 881,
      "ĠOslo": 882,
      "ĠeÅŁya": 883,
      "ĠdÃ¼z": 884,
      "kara": 885,
      "ĠLond": 886,
      "inizi": 887,
      "ĠyÃ¼r": 888,
      "Ġtravel": 889,
      "ĠLondon": 890,
      "iny": 891,
      "ye": 892,
      "stan": 893,
      "ĠAnkara": 894,
      "ĠÃ¶nce": 895,
      "gan": 896,
      "gue": 897,
      "zmir": 898,
      "bul": 899,
      "bon": 900,
      "Ġtiny": 901,
      "ib": 902,
      "ĠLis": 903,
      "ganiz": 904,
      "stanbul": 905,
      "erek": 906,
      "Ġdak": 907,
      "ĠLisbon": 908,
      "ĠK": 909,
      "Ġimmedi": 910,
      "Ġdakik": 911,
      "ien": 912,
      "Ġover": 913,
      "Ġtasks": 914,
      "Ġorganiz": 915,
      "Ġhabits": 916,
      "talya": 917,
      "Ġyer": 918,
      "ific": 919,
      "ĠAntalya": 920,
      "Ġfocus": 921,
      "Ġlike": 922,
      "Ġspec": 923,
      "Ġolarak": 924,
      "larÄ±": 925,
      "up": 926,
      "Ġ16": 927,
      "ication": 928,
      "her": 929,
      "raf": 930,
      "eep": 931,
      "ĠUse": 932,
      "Ġbelir": 933,
      "Ġiyi": 934,
      "Ġkit": 935,
      "ĠPrague": 936,
      "Ġspecific": 937,
      "ĠV": 938,
      "lÃ¼k": 939,
      "Ġplanning": 940,
      "Ġcom": 941,
      "ĠIzmir": 942,
      "ps": 943,
      "lang": 944,
      "ure": 945,
      "Ġhome": 946,
      "otoÄŁ": 947,
      "ud": 948,
      "otoÄŁraf": 949,
      "ying": 950,
      "adece": 951,
      "oga": 952,
      "Ġwell": 953,
      "Ġsor": 954,
      "ienna": 955,
      "Ġeach": 956,
      "ĠVienna": 957,
      "be": 958,
      "ĠyÃ¼rÃ¼y": 959,
      "unication": 960,
      "Ä±ÅŁ": 961,
      "Ġwe": 962,
      "Ġfriendship": 963,
      "edule": 964,
      "Ġlist": 965,
      "'t": 966,
      "ĠAy": 967,
      "ste": 968,
      "ĠyÃ¼z": 969,
      "ilgi": 970,
      "Ġbreak": 971,
      "ley": 972,
      "Ġmotivation": 973,
      "ĠHow": 974,
      "Ġyoga": 975,
      "ĠbaÅŁlay": 976,
      "ĠfotoÄŁraf": 977,
      "est": 978,
      "Ġph": 979,
      "Ġwhat": 980,
      "00": 981,
      "ka": 982,
      "anÄ±z": 983,
      "lg": 984,
      "Ġok": 985,
      "bilir": 986,
      "ind": 987,
      "stead": 988,
      "ening": 989,
      "being": 990,
      "ĠIstanbul": 991,
      "tick": 992,
      "ement": 993,
      "Ġdil": 994,
      "ately": 995,
      "Ġbah": 996,
      "ĠyÃ¼rÃ¼yÃ¼ÅŁ": 997,
      "Ġimmediately": 998,
      "ĠSt": 999,
      "Ġcommunication": 1000,
      "abah": 1001,
      "Ġste": 1002,
      "Ġtoplam": 1003,
      "ild": 1004,
      "Ġmanagement": 1005,
      "Ġgoal": 1006,
      "ĠHer": 1007,
      "ĠvardÄ±r": 1008,
      "Ġstart": 1009,
      "Ġot": 1010,
      "Ġinstead": 1011,
      "Ġitem": 1012,
      "10": 1013,
      "ig": 1014,
      "cel": 1015,
      "Ġkitap": 1016,
      "30": 1017,
      "20": 1018,
      "Ġorganization": 1019,
      "Ġsonra": 1020,
      "Ġtut": 1021,
      "Ġilg": 1022,
      "Ġsadece": 1023,
      "Ġno": 1024,
      "reate": 1025,
      "ĠgÃ¼nlÃ¼k": 1026,
      "cak": 1027,
      "ĠBreak": 1028,
      "Ġyemek": 1029,
      "ĠbahÃ§": 1030,
      "ress": 1031,
      "Ġus": 1032,
      "Ġet": 1033,
      "uÄŁ": 1034,
      "inde": 1035,
      "minute": 1036,
      "unuz": 1037,
      "Ġkend": 1038,
      "ĠÃ§ek": 1039,
      "vo": 1040,
      "Ġmany": 1041,
      "void": 1042,
      "Ġher": 1043,
      "ity": 1044,
      "avi": 1045,
      "Ġcle": 1046,
      "ĠseÃ§": 1047,
      "88": 1048,
      "siniz": 1049,
      "edef": 1050,
      "Ġbook": 1051,
      "ily": 1052,
      "tions": 1053,
      "ick": 1054,
      "aking": 1055,
      "ally": 1056,
      "12": 1057,
      "Ġkalem": 1058,
      "ĠF": 1059,
      "Ġweek": 1060,
      "ĠStart": 1061,
      "Ġup": 1062,
      "Ġmeets": 1063,
      "den": 1064,
      "sel": 1065,
      "Ä±nÄ±zÄ±": 1066,
      "Ġsilgi": 1067,
      "ĠyÃ¶": 1068,
      "sist": 1069,
      "iÄŁ": 1070,
      "Ġcomple": 1071,
      "Ġset": 1072,
      "nal": 1073,
      "32": 1074,
      "asÄ±": 1075,
      "ten": 1076,
      "ĠpiÅŁ": 1077,
      "Ġwhen": 1078,
      "Ġkul": 1079,
      "Ġwork": 1080,
      "port": 1081,
      "Ġinter": 1082,
      "Ġtrying": 1083,
      "loc": 1084,
      "reen": 1085,
      "Ġhedef": 1086,
      "Ġun": 1087,
      "Ġthem": 1088,
      "ĠdÃ¼zeni": 1089,
      "ĠalÄ±": 1090,
      "alÄ±ÅŁ": 1091,
      "Ġactiv": 1092,
      "Ġ25": 1093,
      "Ġokum": 1094,
      "Ġilgil": 1095,
      "ings": 1096,
      "ÅŁam": 1097,
      "arak": 1098,
      "ord": 1099,
      "Ġresim": 1100,
      "80": 1101,
      "Ġkullan": 1102,
      "ere": 1103,
      "ndan": 1104,
      "ÄŁin": 1105,
      "Ġfr": 1106,
      "Ġ20": 1107,
      "Ġdakika": 1108,
      "Ġdaily": 1109,
      "Ġte": 1110,
      "Ä±nda": 1111,
      "82": 1112,
      "Ġdid": 1113,
      "Ġed": 1114,
      "Ġback": 1115,
      "Ġout": 1116,
      "light": 1117,
      "Ġconsist": 1118,
      "Ġeven": 1119,
      "Ġcev": 1120,
      "irst": 1121,
      "asy": 1122,
      "Ã¼re": 1123,
      "Ġbas": 1124,
      "Ġif": 1125,
      "ĠiÅŁ": 1126,
      "Ġitems": 1127,
      "Ġmoment": 1128,
      "ecord": 1129,
      "ĠRecord": 1130,
      "op": 1131,
      "Ġhour": 1132,
      "Ġod": 1133,
      "Ġbuild": 1134,
      "ving": 1135,
      "Ä±rm": 1136,
      "11": 1137,
      "Ġclear": 1138,
      "Ġsaat": 1139,
      "Ġsteps": 1140,
      "ci": 1141,
      "leri": 1142,
      "Ġ=": 1143,
      "and": 1144,
      "Ġcevap": 1145,
      "Ġthen": 1146,
      "Ġfirst": 1147,
      "ĠÃ§alÄ±ÅŁ": 1148,
      "Ä±zÄ±": 1149,
      "nder": 1150,
      "own": 1151,
      "are": 1152,
      "Ġ17": 1153,
      "ĠpiÅŁir": 1154,
      "kan": 1155,
      "tiÅŁ": 1156,
      "ken": 1157,
      "tive": 1158,
      "Ġfrom": 1159,
      "ĠdoÄŁ": 1160,
      "age": 1161,
      "wh": 1162,
      "ĠÃĸn": 1163,
      "leyin": 1164,
      "ff": 1165,
      "Ġtem": 1166,
      "ĠÃ¶ÄŁrenmek": 1167,
      "rne": 1168,
      "tice": 1169,
      "Ġsu": 1170,
      "langÄ±": 1171,
      "33": 1172,
      "ÅŁil": 1173,
      "laÅŁ": 1174,
      "Ä±rmÄ±zÄ±": 1175,
      "rneÄŁin": 1176,
      "ĠyeÅŁil": 1177,
      "eri": 1178,
      "Ġmavi": 1179,
      "Ġonce": 1180,
      "ĠkÄ±rmÄ±zÄ±": 1181,
      "Ġneed": 1182,
      "yaz": 1183,
      "ÄŁÄ±": 1184,
      "Ġilk": 1185,
      "Ġget": 1186,
      "ĠgÃ¶re": 1187,
      "Ġconsistent": 1188,
      "ion": 1189,
      "Ġread": 1190,
      "Ġoverwh": 1191,
      "Ġoverwhel": 1192,
      "oriti": 1193,
      "Ġaz": 1194,
      "ku": 1195,
      "tiÅŁim": 1196,
      "Ġred": 1197,
      "yle": 1198,
      "Ġge": 1199,
      "ĠSch": 1200,
      "ĠÃ§ok": 1201,
      "ĠSchedule": 1202,
      "celik": 1203,
      "Ġkeep": 1204,
      "Ġko": 1205,
      "nÄ±z": 1206,
      "ze": 1207,
      "ro": 1208,
      "Ġwal": 1209,
      "ĠalÄ±ÅŁ": 1210,
      "ingle": 1211,
      "Ġsingle": 1212,
      "14": 1213,
      "Ġbeyaz": 1214,
      "mi": 1215,
      "rar": 1216,
      "84": 1217,
      "Ġhem": 1218,
      "alnÄ±z": 1219,
      "22": 1220,
      "ĠbahÃ§ey": 1221,
      "Ä±na": 1222,
      "maya": 1223,
      "ĠPick": 1224,
      "34": 1225,
      "self": 1226,
      "ĠsÃ¼re": 1227,
      "ree": 1228,
      "Ġyourself": 1229,
      "Ġsc": 1230,
      "ĠÅŁey": 1231,
      "Ġavoid": 1232,
      "Ġbasit": 1233,
      "ĠsarÄ±": 1234,
      "ecek": 1235,
      "ÄŁi": 1236,
      "Ġnew": 1237,
      "Ġden": 1238,
      "Ġodak": 1239,
      "ilece": 1240,
      "langÄ±Ã§": 1241,
      "Ġel": 1242,
      "duÄŁ": 1243,
      "anÄ±": 1244,
      "ĠÃ§ekmek": 1245,
      "Ġokumak": 1246,
      "15": 1247,
      "ect": 1248,
      "uyu": 1249,
      "daÅŁ": 1250,
      "reat": 1251,
      "alnÄ±zca": 1252,
      "ark": 1253,
      "Ġdoing": 1254,
      "ted": 1255,
      "Ġdown": 1256,
      "ĠBir": 1257,
      "cle": 1258,
      "lu": 1259,
      "Ġmanage": 1260,
      "kadaÅŁ": 1261,
      "aki": 1262,
      "Ġbi": 1263,
      "ĠYalnÄ±zca": 1264,
      "Ġkay": 1265,
      "ĠbahÃ§eyle": 1266,
      "ĠCreate": 1267,
      "ook": 1268,
      "Ġyeni": 1269,
      "ĠiletiÅŁim": 1270,
      "mayÄ±": 1271,
      "amer": 1272,
      "Ġexp": 1273,
      "Ġtutmak": 1274,
      "Ġonly": 1275,
      "ta": 1276,
      "si": 1277,
      "Ġeverything": 1278,
      "ace": 1279,
      "Ġdurum": 1280,
      "Ġsabah": 1281,
      "low": 1282,
      "ĠpiÅŁirmek": 1283,
      "ni": 1284,
      "ĠalÄ±ÅŁkan": 1285,
      "tÄ±": 1286,
      "13": 1287,
      "asyon": 1288,
      "Ġyerine": 1289,
      "ĠAyÄ±n": 1290,
      "ge": 1291,
      "ibi": 1292,
      "nderst": 1293,
      "ĠsaÄŁ": 1294,
      "oritize": 1295,
      "Ġilgilen": 1296,
      "Ġnote": 1297,
      "ide": 1298,
      "Ġist": 1299,
      "Ġuyku": 1300,
      "Ġ30": 1301,
      "83": 1302,
      "ĠbaÅŁlam": 1303,
      "ycle": 1304,
      "tain": 1305,
      "Ġtack": 1306,
      "Ġtek": 1307,
      "ĠSet": 1308,
      "elef": 1309,
      "16": 1310,
      "Ġgoals": 1311,
      "tan": 1312,
      "cÄ±": 1313,
      "utter": 1314,
      "lutter": 1315,
      "Ġother": 1316,
      "Ġmanageable": 1317,
      "Ġsay": 1318,
      "Ġara": 1319,
      "Ġgibi": 1320,
      "Ġodaklan": 1321,
      "85": 1322,
      "Ġlistening": 1323,
      "celikle": 1324,
      "ct": 1325,
      "ĠÃ¶ÄŁrenme": 1326,
      "Ġsomething": 1327,
      "ticket": 1328,
      "Ġak": 1329,
      "Ġilgilenmek": 1330,
      "Ġscreen": 1331,
      "Ġuygun": 1332,
      "Ġticket": 1333,
      "rou": 1334,
      "Ġthey": 1335,
      "Ġmomentum": 1336,
      "17": 1337,
      "Ġpro": 1338,
      "ks": 1339,
      "ĠW": 1340,
      "elefon": 1341,
      "Ġsch": 1342,
      "ĠyÃ¼zmek": 1343,
      "lant": 1344,
      "ible": 1345,
      "Ġany": 1346,
      "ech": 1347,
      "ĠarkadaÅŁ": 1348,
      "87": 1349,
      "inin": 1350,
      "Ġyol": 1351,
      "86": 1352,
      "ĠbaÅŁlangÄ±Ã§": 1353,
      "Ġdeep": 1354,
      "Ġunderst": 1355,
      "89": 1356,
      "hat": 1357,
      "Ġreg": 1358,
      "Ġpers": 1359,
      "Ġ24": 1360,
      "ĠyaÅŁam": 1361,
      "Ġreading": 1362,
      "Ġ19": 1363,
      "Ġrule": 1364,
      "pp": 1365,
      "24": 1366,
      "book": 1367,
      "Ġsiz": 1368,
      "ahat": 1369,
      "Ġchec": 1370,
      "ĠgeÃ§": 1371,
      "rac": 1372,
      "Ġdur": 1373,
      "eyahat": 1374,
      "Ġusing": 1375,
      "lem": 1376,
      "niqu": 1377,
      "echniqu": 1378,
      "ire": 1379,
      "Ġhe": 1380,
      "Ġdist": 1381,
      "ular": 1382,
      "ĠolduÄŁ": 1383,
      "Ġlow": 1384,
      "Ġlam": 1385,
      "ven": 1386,
      "Ġpo": 1387,
      "ite": 1388,
      "Ġwake": 1389,
      "Ġ+": 1390,
      "pack": 1391,
      "Ġgen": 1392,
      "ĠKeep": 1393,
      "dan": 1394,
      "Ġbackpack": 1395,
      "Ġplant": 1396,
      "Ã¶rneÄŁin": 1397,
      "inize": 1398,
      "Ġsess": 1399,
      "ĠgÃ¼": 1400,
      "adan": 1401,
      "Ġtea": 1402,
      "ctice": 1403,
      "ĠPractice": 1404,
      "ĠdoÄŁr": 1405,
      "Ġri": 1406,
      "Ġer": 1407,
      "eler": 1408,
      "Ġmost": 1409,
      "ary": 1410,
      "Ġoff": 1411,
      "xt": 1412,
      "Ġkur": 1413,
      "Ġnotebook": 1414,
      "ĠyÃ¶ne": 1415,
      "Ġfive": 1416,
      "Ġbl": 1417,
      "Ġweekends": 1418,
      "ĠalÄ±ÅŁkanlÄ±k": 1419,
      "Ġjack": 1420,
      "Ġsame": 1421,
      "Ġ26": 1422,
      "36": 1423,
      "Ġgerek": 1424,
      "Ġjacket": 1425,
      "Ġunderstand": 1426,
      "35": 1427,
      "ĠyÃ¶neti": 1428,
      "Ġbic": 1429,
      "Ġresp": 1430,
      "leme": 1431,
      "Ġmotivasyon": 1432,
      "Ġbicycle": 1433,
      "ĠdÃ¼ÅŁ": 1434,
      "alÄ±k": 1435,
      "manÄ±z": 1436,
      "25": 1437,
      "90": 1438,
      "Ġ27": 1439,
      "Ġbet": 1440,
      "enc": 1441,
      "rioritize": 1442,
      "37": 1443,
      "echnique": 1444,
      "rn": 1445,
      "az": 1446,
      "Ġrest": 1447,
      "Ġtheir": 1448,
      "Ġmain": 1449,
      "bilece": 1450,
      "Ġdon": 1451,
      "Ġprev": 1452,
      "Ġscreens": 1453,
      "Ä±p": 1454,
      "angi": 1455,
      "ose": 1456,
      "Ġperson": 1457,
      "ong": 1458,
      "ĠPrioritize": 1459,
      "Ġtam": 1460,
      "ĠyÃ¶netimi": 1461,
      "uage": 1462,
      "Ġlang": 1463,
      "Ġprevent": 1464,
      "Ġlanguage": 1465,
      "use": 1466,
      "Ġseyahat": 1467,
      "leÅŁ": 1468,
      "akk": 1469,
      "abilirsiniz": 1470,
      "orning": 1471,
      "Ġsw": 1472,
      "len": 1473,
      "Ġschedule": 1474,
      "aÄŁ": 1475,
      "Ġmorning": 1476,
      "act": 1477,
      "Ġkar": 1478,
      "dÄ±ndan": 1479,
      "ati": 1480,
      "Ġtri": 1481,
      "Ġdeney": 1482,
      "Ġgel": 1483,
      "26": 1484,
      "Ġblue": 1485,
      "ich": 1486,
      "ĠkonuÅŁ": 1487,
      "Ġcamer": 1488,
      "27": 1489,
      "Ġimport": 1490,
      "fter": 1491,
      "Ġdes": 1492,
      "ph": 1493,
      "Ġmat": 1494,
      "Ġener": 1495,
      "Ġhakk": 1496,
      "Ġtelefon": 1497,
      "Ġcal": 1498,
      "Ġiler": 1499,
      "Ġkolay": 1500,
      "Ġedin": 1501,
      "ĠSabah": 1502,
      "ry": 1503,
      "tur": 1504,
      "40": 1505,
      "Ġwhich": 1506,
      "ĠFocus": 1507,
      "ody": 1508,
      "Ġhemen": 1509,
      "akes": 1510,
      "ĠarkadaÅŁlÄ±k": 1511,
      "Ġmake": 1512,
      "Ġafter": 1513,
      "ĠplanÄ±": 1514,
      "ĠhakkÄ±nda": 1515,
      "anÄ±t": 1516,
      "81": 1517,
      "Ġspe": 1518,
      "Ġtackle": 1519,
      "Ġall": 1520,
      "Ġbody": 1521,
      "Ġthree": 1522,
      ":**": 1523,
      "Ġrep": 1524,
      "Ġhaf": 1525,
      "Ġdistrac": 1526,
      "iss": 1527,
      "ĠPa": 1528,
      "Ä±l": 1529,
      "odor": 1530,
      "Ġpri": 1531,
      "Ġjour": 1532,
      "Ġfeeling": 1533,
      "odoro": 1534,
      "Ġsession": 1535,
      "29": 1536,
      "lemek": 1537,
      "omodoro": 1538,
      "ast": 1539,
      "ĠyÃ¶n": 1540,
      "ĠdÃ¼zen": 1541,
      "ight": 1542,
      "Ġkad": 1543,
      "Ġwhere": 1544,
      "ĠÃ§Ä±k": 1545,
      "Ġactivity": 1546,
      "ĠalÄ±ÅŁkanlÄ±klar": 1547,
      "ĠyanÄ±t": 1548,
      "Ġek": 1549,
      "Ã¶z": 1550,
      "Ġbur": 1551,
      "ces": 1552,
      "Ġyapacak": 1553,
      "ĠGÃ¼n": 1554,
      "Ġactive": 1555,
      "Ġmaintain": 1556,
      "ĠaÃ§": 1557,
      "Ġop": 1558,
      "reath": 1559,
      "ĠadÄ±mÄ±nÄ±z": 1560,
      "Ġphone": 1561,
      "Ġ23": 1562,
      "49": 1563,
      "als": 1564,
      "ward": 1565,
      "ating": 1566,
      "Ġkadar": 1567,
      "Ġbreath": 1568,
      "Ġstud": 1569,
      "bilirsiniz": 1570,
      "Ġgard": 1571,
      "layÄ±n": 1572,
      "kil": 1573,
      "ĠgÃ¶r": 1574,
      "ination": 1575,
      "rnek": 1576,
      "Ġ22": 1577,
      "Ġnext": 1578,
      "ĠTh": 1579,
      "ts": 1580,
      "Ġacc": 1581,
      "Ġcook": 1582,
      "60": 1583,
      "time": 1584,
      "Ġolm": 1585,
      "Ġjournal": 1586,
      "Ġimportant": 1587,
      "meye": 1588,
      "ede": 1589,
      "kin": 1590,
      "Ġright": 1591,
      "Ġnef": 1592,
      "ĠgÃ¼nÃ¼n": 1593,
      "Ġreduce": 1594,
      "rol": 1595,
      "Ġro": 1596,
      "ĠyapÄ±n": 1597,
      "iner": 1598,
      "Ġwalk": 1599,
      "Ġpain": 1600,
      "Ġthings": 1601,
      "ayÄ±n": 1602,
      "50": 1603,
      "ÄŁÄ±nÄ±z": 1604,
      "Ġcomplete": 1605,
      "Ġlearn": 1606,
      "ated": 1607,
      "ound": 1608,
      "Ġolan": 1609,
      "Ġsora": 1610,
      "Ġ21": 1611,
      "Ġoften": 1612,
      "Ġitiner": 1613,
      "ĠbaÅŁlayan": 1614,
      "til": 1615,
      "Ġoverwhelmed": 1616,
      "Ġyarar": 1617,
      "for": 1618,
      "Ġtamam": 1619,
      "Ġsoruyu": 1620,
      "Ġnefes": 1621,
      "70": 1622,
      "Ġuse": 1623,
      "Ġper": 1624,
      "Ġalan": 1625,
      "ance": 1626,
      "ĠhÄ±z": 1627,
      "Ġ18": 1628,
      "Ġgardening": 1629,
      "Ġbirinin": 1630,
      "Ġclutter": 1631,
      "ĠbÃ¶": 1632,
      "Ġstre": 1633,
      "Ġbig": 1634,
      "Ġbreaks": 1635,
      "Ġla": 1636,
      "Ġtemel": 1637,
      "Ġhow": 1638,
      "Ġens": 1639,
      "Ġbelirleyin": 1640,
      "ays": 1641,
      "Ġapp": 1642,
      "Ġtake": 1643,
      "Ġaction": 1644,
      "hi": 1645,
      "omm": 1646,
      "saj": 1647,
      "Ġaw": 1648,
      "emli": 1649,
      "Ġmoving": 1650,
      "ÅŁÄ±": 1651,
      "Ġolacak": 1652,
      "uz": 1653,
      "Ġeas": 1654,
      "23": 1655,
      "wn": 1656,
      "Ġroom": 1657,
      "ĠÃ¶z": 1658,
      "imde": 1659,
      "dir": 1660,
      "lerinizi": 1661,
      "ĠiÃ§inde": 1662,
      "Ġcheck": 1663,
      "Ġduring": 1664,
      "ĠÄ±ÅŁ": 1665,
      "ĠÅŁek": 1666,
      "bileceÄŁi": 1667,
      "Ġcreate": 1668,
      "Ġlamp": 1669,
      "Ġshare": 1670,
      "ĠbiÃ§": 1671,
      "Ġ28": 1672,
      "ĠÃĸrnek": 1673,
      "Ġlo": 1674,
      "Ġtechnique": 1675,
      "larÄ±nÄ±": 1676,
      "ĠÃĸncelikle": 1677,
      "ĠgÃ¼ven": 1678,
      "ĠyanÄ±tla": 1679,
      "Ġitinerary": 1680,
      "ĠyararlÄ±": 1681,
      "rek": 1682,
      "ĠbiÃ§imde": 1683,
      "ĠbaÅŁlamak": 1684,
      "Ġgood": 1685,
      "ĠsorabileceÄŁi": 1686,
      "Ġthing": 1687,
      "ĠÃĸnce": 1688,
      "Ġlight": 1689,
      "Ġflight": 1690,
      "ĠoluÅŁ": 1691,
      "Ġdi": 1692,
      "Ġharek": 1693,
      "mo": 1694,
      "Ġoverwhelm": 1695,
      "ĠardÄ±ndan": 1696,
      "Ġfin": 1697,
      "Ġachi": 1698,
      "madan": 1699,
      "Ġfocused": 1700,
      "Ġbox": 1701,
      "Ġpe": 1702,
      "Ġhave": 1703,
      "ĠÃ¶nemli": 1704,
      "Ġdistractions": 1705,
      "trol": 1706,
      "press": 1707,
      "ĠStick": 1708,
      "Ġmaking": 1709,
      "ĠdeÄŁil": 1710,
      "Ġconn": 1711,
      "ess": 1712,
      "Ġdet": 1713,
      "31": 1714,
      "Ġkendi": 1715,
      "lock": 1716,
      "ĠtÃ¼r": 1717,
      "Ġhiss": 1718,
      "tely": 1719,
      "ĠsÄ±": 1720,
      "Ġcooking": 1721,
      "Ġspace": 1722,
      "Ġwhile": 1723,
      "ĠdÃ¼ÅŁÃ¼n": 1724,
      "Ġnet": 1725,
      "tu": 1726,
      "ĠkarÅŁÄ±": 1727,
      "Ġsorun": 1728,
      "ĠbaÅŁlayÄ±n": 1729,
      "ÄŁer": 1730,
      "Ġuz": 1731,
      "rain": 1732,
      "yun": 1733,
      "21": 1734,
      "eli": 1735,
      "cess": 1736,
      "Ġstudy": 1737,
      "Ġhangi": 1738,
      "ĠÅŁu": 1739,
      "ediÄŁ": 1740,
      "Ġcommit": 1741,
      "ĠPomodoro": 1742,
      "uc": 1743,
      "lace": 1744,
      "lex": 1745,
      "ÄŁÄ±nÄ±": 1746,
      "Ġpainting": 1747,
      "Ġcompletely": 1748,
      "28": 1749,
      "Ġuygulam": 1750,
      "Ġleast": 1751,
      "alar": 1752,
      "ities": 1753,
      "Ġwant": 1754,
      "rin": 1755,
      "ĠTake": 1756,
      "rough": 1757,
      "meyi": 1758,
      "Ġwat": 1759,
      "Ġfol": 1760,
      "Ã¼yÃ¼k": 1761,
      "rup": 1762,
      "Ġcamera": 1763,
      "Ġgreen": 1764,
      "Ġdin": 1765,
      "Ġthrough": 1766,
      "edic": 1767,
      "Ġsig": 1768,
      ").": 1769,
      "ĠÃ¼z": 1770,
      "Ġaway": 1771,
      "Ġstri": 1772,
      "Ġflex": 1773,
      "Ġhi": 1774,
      "iler": 1775,
      "Ġkap": 1776,
      "ether": 1777,
      "Ġjournaling": 1778,
      "Ġdest": 1779,
      "ĠsayÄ±": 1780,
      "Ġrespond": 1781,
      "Ġarea": 1782,
      "mes": 1783,
      "ents": 1784,
      "Ġwhite": 1785,
      "lish": 1786,
      "ellik": 1787,
      "ÄŁiniz": 1788,
      "oy": 1789,
      "Ä±nÄ±n": 1790,
      "ĠMo": 1791,
      "ellow": 1792,
      "ffe": 1793,
      "asÄ±nÄ±": 1794,
      "Ġhaz": 1795,
      "meniz": 1796,
      "Ġtimes": 1797,
      "ĠistediÄŁ": 1798,
      "ĠÅŁekil": 1799,
      "sh": 1800,
      "Ġyellow": 1801,
      "Ġstrict": 1802,
      "Ġchange": 1803,
      "yors": 1804,
      "iting": 1805,
      "ens": 1806,
      "Ġdestination": 1807,
      "Ġbest": 1808,
      "Ġeff": 1809,
      "Ġconnec": 1810,
      "ils": 1811,
      "Ġnat": 1812,
      "Ġfinish": 1813,
      "Ġregular": 1814,
      "Ġama": 1815,
      "ix": 1816,
      "Ġyar": 1817,
      "Ġmind": 1818,
      "ower": 1819,
      "Ġ*": 1820,
      "Ġort": 1821,
      "Ġhours": 1822,
      "Ġetkil": 1823,
      "Ġquestions": 1824,
      "line": 1825,
      "we": 1826,
      "ĠIn": 1827,
      "Ġayda": 1828,
      "Ġenti": 1829,
      "Ġfollow": 1830,
      "Ġhelps": 1831,
      "Ġentire": 1832,
      "ous": 1833,
      "ĠyÃ¶ntem": 1834,
      "Ġdedic": 1835,
      "av": 1836,
      "lerini": 1837,
      "ople": 1838,
      "gy": 1839,
      "Ġkontrol": 1840,
      "Ġlong": 1841,
      "cut": 1842,
      "ĠIt": 1843,
      "ĠgÃ¶z": 1844,
      "Ġpeople": 1845,
      "Ġsup": 1846,
      "ĠSonra": 1847,
      "ĠÅŁekilde": 1848,
      "Ġdark": 1849,
      "ĠyapÄ±": 1850,
      "Ġerken": 1851,
      "ĠMotiv": 1852,
      "ĠoluÅŁtur": 1853,
      "ĠhazÄ±r": 1854,
      "erin": 1855,
      "rÄ±": 1856,
      "ĠAvoid": 1857,
      "Ġensure": 1858,
      "Ġrec": 1859,
      "otogra": 1860,
      "Ġwalking": 1861,
      "ĠEÄŁer": 1862,
      "Ġyak": 1863,
      "ylece": 1864,
      "pressure": 1865,
      "ass": 1866,
      "ysic": 1867,
      "Ġmesaj": 1868,
      "ins": 1869,
      "Ġhareket": 1870,
      "Ġphysic": 1871,
      "Ġdis": 1872,
      "ellikle": 1873,
      "ĠCh": 1874,
      "Ġburn": 1875,
      "get": 1876,
      "ĠWhat": 1877,
      "Ġess": 1878,
      "ush": 1879,
      "Ġvis": 1880,
      "form": 1881,
      "Ä±rak": 1882,
      "Ġtod": 1883,
      "Ġyat": 1884,
      "Ġchun": 1885,
      "Ġflexible": 1886,
      "Ġetkili": 1887,
      "44": 1888,
      "Ġolur": 1889,
      "ency": 1890,
      "di": 1891,
      "likte": 1892,
      "Ġfeels": 1893,
      "Ġphotogra": 1894,
      "kinci": 1895,
      "luk": 1896,
      "ĠakÅŁam": 1897,
      "Ġimp": 1898,
      "Ġessenti": 1899,
      "Ġphotograph": 1900,
      "pec": 1901,
      "eÅŁ": 1902,
      "Ġelse": 1903,
      "Ġtoday": 1904,
      "Ġfeelings": 1905,
      "read": 1906,
      "Ġduy": 1907,
      "ĠdakikalÄ±k": 1908,
      "Ġsignal": 1909,
      "Ġcool": 1910,
      "sÄ±nÄ±z": 1911,
      "Ġbrain": 1912,
      "ĠbÄ±rak": 1913,
      "Ġactivities": 1914,
      "Ġtry": 1915,
      "Ġstarting": 1916,
      "iff": 1917,
      "ves": 1918,
      "room": 1919,
      "diÄŁ": 1920,
      "Ġburnout": 1921,
      "ĠolacaktÄ±r": 1922,
      "Ġphotography": 1923,
      "Ġwho": 1924,
      "oth": 1925,
      "ween": 1926,
      "lend": 1927,
      "Ġbetween": 1928,
      "Ġstress": 1929,
      "Ġresponding": 1930,
      "Ġdiff": 1931,
      "Ġwater": 1932,
      "ling": 1933,
      "ĠhÄ±zlÄ±": 1934,
      "Ġchunks": 1935,
      "Ġmatter": 1936,
      "imi": 1937,
      "Ġunderstanding": 1938,
      "udan": 1939,
      "Ġbek": 1940,
      "lama": 1941,
      "Ġur": 1942,
      "ĠGo": 1943,
      "Ġhedefler": 1944,
      "denti": 1945,
      "ĠyardÄ±m": 1946,
      "layÄ±": 1947,
      "mer": 1948,
      "man": 1949,
      "Ġbut": 1950,
      "inizde": 1951,
      "Ġless": 1952,
      "ĠMotivation": 1953,
      "ual": 1954,
      "Ã¼c": 1955,
      "ching": 1956,
      "leÅŁtir": 1957,
      "dentif": 1958,
      "Ġenergy": 1959,
      "..": 1960,
      "Ġsonraki": 1961,
      "Ġtemiz": 1962,
      "Ġuntil": 1963,
      "Ġilgili": 1964,
      "ĠÃ¼zer": 1965,
      "unda": 1966,
      "now": 1967,
      "ize": 1968,
      "oose": 1969,
      "Ġinc": 1970,
      "app": 1971,
      "Ġeasi": 1972,
      "ogether": 1973,
      "Ġgoing": 1974,
      "Ġbedroom": 1975,
      "Ġmess": 1976,
      "aster": 1977,
      "ans": 1978,
      "Ġtogether": 1979,
      "ĠTry": 1980,
      "ĠBaÅŁ": 1981,
      "Ġgid": 1982,
      "land": 1983,
      "Ġanything": 1984,
      "Ġstay": 1985,
      "uyun": 1986,
      "Ġayar": 1987,
      "Ġrela": 1988,
      "Ã¼nde": 1989,
      "Ġcont": 1990,
      "Ġdec": 1991,
      "Ġtekrar": 1992,
      "Ġyet": 1993,
      "Ġboyun": 1994,
      "Ġspeaking": 1995,
      "Ġasking": 1996,
      "Ġbr": 1997,
      "ĠbaÅŁlayabilirsiniz": 1998,
      "Ġbilg": 1999,
      "Ġdeneyin": 2000,
      "Ġboyunca": 2001,
      "Ġmove": 2002,
      "ways": 2003,
      "Ġbak": 2004,
      "ĠkiÅŁ": 2005,
      "Ġphysical": 2006,
      "Ġimmediate": 2007,
      "Ġmu": 2008,
      "ĠÃ§alÄ±ÅŁÄ±n": 2009,
      "Ã§ek": 2010,
      "asÄ±l": 2011,
      "rate": 2012,
      "Ġolabilir": 2013,
      "imming": 2014,
      "'re": 2015,
      "Ġtickets": 2016,
      "mÄ±ÅŁ": 2017,
      "Ġnow": 2018,
      "Ġswimming": 2019,
      "ear": 2020,
      "ld": 2021,
      "07": 2022,
      "Ġiz": 2023,
      "ĠFri": 2024,
      "ĠbÃ¼yÃ¼k": 2025,
      "ĠgÃ¼venli": 2026,
      "ĠÃ§Ã¶z": 2027,
      "ffee": 2028,
      "min": 2029,
      "Ġtrip": 2030,
      "Ġeasier": 2031,
      "Ġrepe": 2032,
      "pt": 2033,
      "Ġmev": 2034,
      "Ġnight": 2035,
      "Ġconf": 2036,
      "Ġnatur": 2037,
      "45": 2038,
      "Ġbedtime": 2039,
      ".\"": 2040,
      "Ġhisset": 2041,
      "uk": 2042,
      "Ġhigh": 2043,
      "Ġcoffee": 2044,
      "atik": 2045,
      "Ġpress": 2046,
      "ĠÄ°stanbul": 2047,
      "Ġstep": 2048,
      "vir": 2049,
      "Ġment": 2050,
      "Ġachiev": 2051,
      "09": 2052,
      "unuzu": 2053,
      "Ġenj": 2054,
      "ĠPair": 2055,
      "Ġsize": 2056,
      "kÃ¼": 2057,
      "Ġlar": 2058,
      "onment": 2059,
      "vironment": 2060,
      "ĠÄ°kinci": 2061,
      "05": 2062,
      "Ġhav": 2063,
      "Ġfriend": 2064,
      "Ġmevcut": 2065,
      "04": 2066,
      "06": 2067,
      "Ġloc": 2068,
      "Ġfocusing": 2069,
      "Ġpressure": 2070,
      "Ġbud": 2071,
      "isi": 2072,
      "Ġfix": 2073,
      "oun": 2074,
      "cek": 2075,
      "ĠdoÄŁrudan": 2076,
      "Ã§e": 2077,
      "âĢ": 2078,
      "ence": 2079,
      "Ġazal": 2080,
      "Ġenvironment": 2081,
      "Ġflights": 2082,
      "leyerek": 2083,
      "Ġrahat": 2084,
      "Ã¼t": 2085,
      "Ġactu": 2086,
      "hers": 2087,
      "Ġbirlikte": 2088,
      "inden": 2089,
      "Ġsen": 2090,
      "eleri": 2091,
      "Ġbetter": 2092,
      "rÄ±ca": 2093,
      "Ġothers": 2094,
      "hti": 2095,
      "kaÃ§": 2096,
      "ĠyardÄ±mcÄ±": 2097,
      "ugÃ¼n": 2098,
      "ĠadÄ±mÄ±": 2099,
      "iy": 2100,
      "Ġwa": 2101,
      "Ġthou": 2102,
      "lara": 2103,
      "Ġenjoy": 2104,
      "ĠgÃ¶rev": 2105,
      "dentify": 2106,
      "Ġbilgi": 2107,
      "Ġknow": 2108,
      "ele": 2109,
      "aps": 2110,
      "Ġsuch": 2111,
      "ĠsÄ±k": 2112,
      "Ġbloc": 2113,
      "Ġyapmaya": 2114,
      "Ġway": 2115,
      "Ġachievable": 2116,
      "ĠAyrÄ±ca": 2117,
      "Ġopen": 2118,
      "Ġmental": 2119,
      "Ġnon": 2120,
      "ĠÃ¶ncelikle": 2121,
      "lendir": 2122,
      "yla": 2123,
      "Ġthought": 2124,
      "ĠÃĹ": 2125,
      "Ġful": 2126,
      "Ġfollowed": 2127,
      "Ġurg": 2128,
      "ĠComm": 2129,
      "ĠadÄ±mlar": 2130,
      "eki": 2131,
      "Ġhal": 2132,
      "ĠÃĩ": 2133,
      "Ġbudget": 2134,
      "46": 2135,
      "Ġnok": 2136,
      "Ġactually": 2137,
      "Ġihti": 2138,
      "Ġeasy": 2139,
      "ail": 2140,
      "Ġmaster": 2141,
      "Ġhafif": 2142,
      "ough": 2143,
      "Ġtaking": 2144,
      "Ġsaatler": 2145,
      "ĠFriendship": 2146,
      "ations": 2147,
      "ger": 2148,
      "Ġtimer": 2149,
      "ĠseÃ§in": 2150,
      "Ġsessions": 2151,
      "Ġpractice": 2152,
      "Ġbeh": 2153,
      "?\"": 2154,
      "mayÄ±n": 2155,
      "Ġsta": 2156,
      "lamak": 2157,
      "Ġhard": 2158,
      "47": 2159,
      "Ġkah": 2160,
      "ĠseÃ§mek": 2161,
      "Ġown": 2162,
      "come": 2163,
      "ablish": 2164,
      "Ġsupport": 2165,
      "Ġhat": 2166,
      "sts": 2167,
      "os": 2168,
      "daki": 2169,
      "econd": 2170,
      "ssible": 2171,
      "ital": 2172,
      "ĠKend": 2173,
      "ĠPause": 2174,
      "Ġdef": 2175,
      "ogress": 2176,
      "Ġtan": 2177,
      "eden": 2178,
      "Ġprogress": 2179,
      "Ġreward": 2180,
      "Ġstick": 2181,
      "Ġtak": 2182,
      "Ġstop": 2183,
      "Ġsimp": 2184,
      "ĠÄ±ÅŁÄ±k": 2185,
      "ĠnasÄ±l": 2186,
      "aring": 2187,
      "Ġlet": 2188,
      "ĠÅŁun": 2189,
      "Ġstatem": 2190,
      "Ġgrou": 2191,
      "ĠÅŁeyi": 2192,
      "Ġise": 2193,
      "Ġkalk": 2194,
      "Ġdedicated": 2195,
      "Ġpratik": 2196,
      "Ġsevi": 2197,
      "aries": 2198,
      "Ġfark": 2199,
      "ĠdoÄŁru": 2200,
      "Åŀ": 2201,
      "Ġlea": 2202,
      "Ġactively": 2203,
      "Ġworking": 2204,
      "siz": 2205,
      "Ġshow": 2206,
      "Ġshared": 2207,
      "load": 2208,
      "ĠUy": 2209,
      "Ġinternal": 2210,
      "Ġtal": 2211,
      "Ġear": 2212,
      "Ġbound": 2213,
      "Ġdrin": 2214,
      "ĠadÄ±mÄ±nÄ±zÄ±": 2215,
      "Ġger": 2216,
      "Ġsetting": 2217,
      "ĠChoose": 2218,
      "Ġjackets": 2219,
      "Ġput": 2220,
      "Ġbunu": 2221,
      "Ġfre": 2222,
      "rix": 2223,
      "Ġreset": 2224,
      "Ġquick": 2225,
      "Ġcalm": 2226,
      "Ġetmek": 2227,
      "Ġkendinize": 2228,
      "sin": 2229,
      "ĠÃ¶nceki": 2230,
      "Ġcur": 2231,
      "Ġfaz": 2232,
      "avior": 2233,
      "isen": 2234,
      "hower": 2235,
      "ora": 2236,
      "isenhower": 2237,
      "ck": 2238,
      "ready": 2239,
      "Ġmakes": 2240,
      "Ġbehavior": 2241,
      "elim": 2242,
      "Ġsayede": 2243,
      "Ġboxes": 2244,
      "nÄ±": 2245,
      "Ġalready": 2246,
      "erli": 2247,
      "una": 2248,
      "Ġfazla": 2249,
      "Ġhapp": 2250,
      "ĠDay": 2251,
      "luÄŁ": 2252,
      "ness": 2253,
      "ĠtÃ¼m": 2254,
      "maktÄ±r": 2255,
      "ran": 2256,
      "Ġderin": 2257,
      "Ġgenellikle": 2258,
      "ject": 2259,
      "all": 2260,
      "Ġhay": 2261,
      "Ġsimply": 2262,
      "enizi": 2263,
      "Ġbooks": 2264,
      "Ġconnection": 2265,
      "Ġyok": 2266,
      "ĠMat": 2267,
      "unun": 2268,
      "ĠIdentify": 2269,
      "ĠsayÄ±sÄ±": 2270,
      "ĠaÃ§Ä±k": 2271,
      "ds": 2272,
      "Ġtrust": 2273,
      "Ġair": 2274,
      "Ġpenc": 2275,
      "ĠMatrix": 2276,
      "Ġrut": 2277,
      "Ġbit": 2278,
      "Ġfind": 2279,
      "Ġkendine": 2280,
      "ĠsÄ±cak": 2281,
      "ĠbaÅŁarÄ±": 2282,
      "96": 2283,
      "Ġclean": 2284,
      "Ġkayd": 2285,
      "ĠMake": 2286,
      "Ġoverwhelming": 2287,
      "Ġlarge": 2288,
      "Ġyor": 2289,
      "ĠmÄ±": 2290,
      "Ġpar": 2291,
      "Ġcomp": 2292,
      "masÄ±": 2293,
      "ĠbÃ¶ylece": 2294,
      "Ġkonu": 2295,
      "Ġspot": 2296,
      "mey": 2297,
      "ĠSadece": 2298,
      "Ġlif": 2299,
      "ĠbaÄŁ": 2300,
      "Ġchecking": 2301,
      "Ġenerj": 2302,
      "Ġfew": 2303,
      "Ġval": 2304,
      "Ġtrans": 2305,
      "Ġli": 2306,
      "int": 2307,
      "Ġplants": 2308,
      "miÅŁ": 2309,
      "Ġag": 2310,
      "Ġwithin": 2311,
      "ates": 2312,
      "Ġinterrup": 2313,
      "ĠolduÄŁu": 2314,
      "94": 2315,
      "acaÄŁ": 2316,
      "Ġul": 2317,
      "Ġter": 2318,
      "laÅŁtÄ±r": 2319,
      "Ġsan": 2320,
      "Ġbeing": 2321,
      "Ġgetting": 2322,
      "ĠbirkaÃ§": 2323,
      "02": 2324,
      "Ġadd": 2325,
      "ĠgerÃ§ek": 2326,
      "Ġsystem": 2327,
      "Ġclar": 2328,
      "itiate": 2329,
      "Ġolmak": 2330,
      "Ġfriends": 2331,
      "Ġrelax": 2332,
      "Ġstres": 2333,
      "95": 2334,
      "Ġsun": 2335,
      "Ġseviy": 2336,
      "ĠEisenhower": 2337,
      "do": 2338,
      "ex": 2339,
      "Ġunut": 2340,
      "side": 2341,
      "Ġbooking": 2342,
      "ÄŁini": 2343,
      "Ġlisten": 2344,
      "yÄ±": 2345,
      "ikk": 2346,
      "row": 2347,
      "Ã¼nÃ¼": 2348,
      "ĠulaÅŁ": 2349,
      "Ġnotebooks": 2350,
      "yorsanÄ±z": 2351,
      "Ġwaiting": 2352,
      "Ġancak": 2353,
      "ĠsaÄŁlar": 2354,
      "bet": 2355,
      "tik": 2356,
      "Ġspeak": 2357,
      "Ġperf": 2358,
      "layÄ±p": 2359,
      "Ġstatements": 2360,
      "19": 2361,
      "Ġdurumu": 2362,
      "Ġthoughts": 2363,
      "abilece": 2364,
      "Ġmuch": 2365,
      "other": 2366,
      "Ġthere": 2367,
      "Ġcontact": 2368,
      "64": 2369,
      "iye": 2370,
      "Ġaut": 2371,
      "ign": 2372,
      "Ġinterest": 2373,
      "Ġdu": 2374,
      "Ġ45": 2375,
      "Ġdays": 2376,
      "ĠÃĸrneÄŁin": 2377,
      "Ġaktiv": 2378,
      "74": 2379,
      "endar": 2380,
      "enin": 2381,
      "Ġgenu": 2382,
      "ĠdÄ±ÅŁ": 2383,
      "Ġbelirlemek": 2384,
      "formation": 2385,
      "hy": 2386,
      "Ġbad": 2387,
      "ended": 2388,
      "Ġwind": 2389,
      "Ġinformation": 2390,
      "ĠÅŁeyler": 2391,
      "yon": 2392,
      "Ġboth": 2393,
      "Ġprogram": 2394,
      "lÄ±ÄŁÄ±": 2395,
      "Ġexpress": 2396,
      "Ġbackpacks": 2397,
      "Ġdra": 2398,
      "Ġunex": 2399,
      "tes": 2400,
      "Ġdoable": 2401,
      "pected": 2402,
      "Ġsur": 2403,
      "raz": 2404,
      "ĠolduÄŁunu": 2405,
      "Ġunexpected": 2406,
      "larÄ±nÄ±z": 2407,
      "Ġeffort": 2408,
      "af": 2409,
      "ebilir": 2410,
      "Ġpencils": 2411,
      "Ġgra": 2412,
      "Ġallow": 2413,
      "Ġlamps": 2414,
      "Ġstret": 2415,
      "Ġala": 2416,
      "Ġeras": 2417,
      "dÄ±ÄŁÄ±nÄ±z": 2418,
      "Ġlife": 2419,
      "ones": 2420,
      "Ã¼l": 2421,
      "sk": 2422,
      "erv": 2423,
      "Ġpack": 2424,
      "Ġwaking": 2425,
      "Ġanother": 2426,
      "Ġerasers": 2427,
      "ult": 2428,
      "Ġusu": 2429,
      "enek": 2430,
      "Ġnaturally": 2431,
      "Ãĸ": 2432,
      "ĠartÄ±r": 2433,
      "Ġsee": 2434,
      "Ġtrig": 2435,
      "97": 2436,
      "Ġpay": 2437,
      "Ġsizi": 2438,
      "Ġ65": 2439,
      "Ġearly": 2440,
      "Ġboundaries": 2441,
      "Ġcalendar": 2442,
      "bir": 2443,
      "Ġsets": 2444,
      "Ġtackling": 2445,
      "Ġconversations": 2446,
      "ase": 2447,
      "Ġdetay": 2448,
      "03": 2449,
      "Ġuzun": 2450,
      "âĢĶ": 2451,
      "esi": 2452,
      "ĠdÃ¶": 2453,
      "Ġtamamen": 2454,
      "go": 2455,
      "Ġho": 2456,
      "Ġnokt": 2457,
      "Ä±lÄ±": 2458,
      "ama": 2459,
      "Ġblocks": 2460,
      "Ã¼nkÃ¼": 2461,
      "larÄ±n": 2462,
      "ĠgeÃ§ir": 2463,
      "Ġkapat": 2464,
      "sp": 2465,
      "akin": 2466,
      "deki": 2467,
      "Ġkamer": 2468,
      "Ġhot": 2469,
      "99": 2470,
      "plement": 2471,
      "ĠdeÄŁer": 2472,
      "Ġclock": 2473,
      "Ġdri": 2474,
      "Ġtelefonunuz": 2475,
      "75": 2476,
      "76": 2477,
      "ĠThe": 2478,
      "Ġlocal": 2479,
      "Ġreal": 2480,
      "ĠDown": 2481,
      "Ġbulun": 2482,
      ".,": 2483,
      "ĠEv": 2484,
      "ĠyÃ¼k": 2485,
      "ies": 2486,
      "Ġtakes": 2487,
      "ĠIm": 2488,
      "Ġautom": 2489,
      "less": 2490,
      "ikkat": 2491,
      "Ġbicycles": 2492,
      "ĠDownload": 2493,
      "Ġtur": 2494,
      "ĠInitiate": 2495,
      "Ġtoo": 2496,
      "ĠalÄ±p": 2497,
      "Ġneeds": 2498,
      "ĠAsk": 2499,
      "ĠÃĸÄŁ": 2500,
      "ĠsaÄŁlay": 2501,
      "Ġwords": 2502,
      "Ġdeclutter": 2503,
      "42": 2504,
      "ĠÄ±ÅŁÄ±": 2505,
      "onn": 2506,
      "Ġhar": 2507,
      "Ġthin": 2508,
      "Ġgece": 2509,
      "65": 2510,
      "Ġconce": 2511,
      "08": 2512,
      "iet": 2513,
      "ould": 2514,
      "66": 2515,
      "Ġenough": 2516,
      "77": 2517,
      "ĠÅŀ": 2518,
      "ushing": 2519,
      "Ġdisc": 2520,
      "Ġmessage": 2521,
      "Ġexist": 2522,
      "Ġhotel": 2523,
      "Ġide": 2524,
      "abil": 2525,
      "Ġexact": 2526,
      "Ġentirely": 2527,
      "ulti": 2528,
      "ĠYes": 2529,
      "ĠolmalÄ±": 2530,
      "Ġdrinking": 2531,
      "mor": 2532,
      "Ġadv": 2533,
      "ez": 2534,
      "Ã§a": 2535,
      "ulate": 2536,
      "stant": 2537,
      "orage": 2538,
      "ause": 2539,
      "**:": 2540,
      "Ġautoma": 2541,
      "39": 2542,
      "alth": 2543,
      "Ġstorage": 2544,
      "Ġzorluk": 2545,
      "ayan": 2546,
      "Ġmulti": 2547,
      "ĠaynÄ±": 2548,
      "Ġ35": 2549,
      "ersiz": 2550,
      "Ġessential": 2551,
      "67": 2552,
      "Ġchanges": 2553,
      "ĠKÃ¼Ã§Ã¼k": 2554,
      "Ġthose": 2555,
      "ĠalÄ±n": 2556,
      "Ġses": 2557,
      "Ã¼nÃ¼z": 2558,
      "ĠodaklanÄ±n": 2559,
      "Ġsuyun": 2560,
      "uly": 2561,
      "Ġorganize": 2562,
      "69": 2563,
      "ime": 2564,
      "Ġkey": 2565,
      "mesi": 2566,
      "Ġurgent": 2567,
      "Ġtruly": 2568,
      "tif": 2569,
      "ĠAd": 2570,
      "Ġdiffer": 2571,
      "Ġexisting": 2572,
      "sÄ±nÄ±": 2573,
      "Ġap": 2574,
      "Ġlast": 2575,
      "Ġpart": 2576,
      "ĠImplement": 2577,
      "Ġmaps": 2578,
      "eyi": 2579,
      "ĠÃ§Ã¼nkÃ¼": 2580,
      "rarak": 2581,
      "Ġuyum": 2582,
      "Ġcameras": 2583,
      "Ġusually": 2584,
      "),": 2585,
      "Ġgive": 2586,
      "Ġimpro": 2587,
      "01": 2588,
      "ost": 2589,
      "ĠbaÅŁla": 2590,
      "Ġproduc": 2591,
      "Ġask": 2592,
      "Ġhealth": 2593,
      "Ġoffline": 2594,
      "Ġdrawer": 2595,
      "Ġaside": 2596,
      "Ġhas": 2597,
      "malÄ±": 2598,
      "alarÄ±": 2599,
      "Ġma": 2600,
      "Ġeye": 2601,
      "ently": 2602,
      "Ġalways": 2603,
      "cial": 2604,
      "onnect": 2605,
      "79": 2606,
      "Ġgl": 2607,
      "Ġincel": 2608,
      "ĠyÃ¼zme": 2609,
      "tin": 2610,
      "elf": 2611,
      "Ġeg": 2612,
      "stablish": 2613,
      "Ġyeterli": 2614,
      "Ġmeth": 2615,
      "Ġadvance": 2616,
      "Ġmethod": 2617,
      "Ġx": 2618,
      "ĠEstablish": 2619,
      "Ġ55": 2620,
      "ĠgÃ¶st": 2621,
      "ĠÃ¼zerine": 2622,
      "ĠpaylaÅŁ": 2623,
      "Ġdel": 2624,
      "Ġsharing": 2625,
      "ĠÃ¶zel": 2626,
      "face": 2627,
      "lardÄ±r": 2628,
      "Ġ75": 2629,
      "Ġavoiding": 2630,
      "Ġbecome": 2631,
      "Ġmatters": 2632,
      "Ġkeli": 2633,
      "lerin": 2634,
      "Ġoutside": 2635,
      "iyor": 2636,
      "eleb": 2637,
      "vam": 2638,
      "ndaki": 2639,
      "Ġbiri": 2640,
      "Ġsizin": 2641,
      "Ġremo": 2642,
      "Ġilgi": 2643,
      "eve": 2644,
      "ather": 2645,
      "Ġeng": 2646,
      "oplam": 2647,
      "Ġegz": 2648,
      "lud": 2649,
      "ilt": 2650,
      "lere": 2651,
      "vaÅŁ": 2652,
      "ĠAl": 2653,
      "ĠyakÄ±n": 2654,
      "Ä±nÄ±za": 2655,
      "val": 2656,
      "igital": 2657,
      "Ġcare": 2658,
      "red": 2659,
      "Ġkor": 2660,
      "Ġneden": 2661,
      "larÄ±nÄ±zÄ±": 2662,
      "eye": 2663,
      "ĠÄ±": 2664,
      "Ġyan": 2665,
      "dÄ±n": 2666,
      "Ġglass": 2667,
      "Ġass": 2668,
      "ĠTechnique": 2669,
      "Ġdoes": 2670,
      "lÃ¼": 2671,
      "gun": 2672,
      "ĠThis": 2673,
      "tention": 2674,
      "ĠGÃ¼nlÃ¼k": 2675,
      "Ġ85": 2676,
      "Ġdesk": 2677,
      "omp": 2678,
      "aÄŁÄ±": 2679,
      "Ġsecond": 2680,
      "Ġmi": 2681,
      "ĠiÅŁe": 2682,
      "ĠĠ": 2683,
      "ĠDaha": 2684,
      "Ġrequ": 2685,
      "idir": 2686,
      "ĠÃ§Ã¶zÃ¼m": 2687,
      "Ġplace": 2688,
      "Ġclo": 2689,
      "Ġ95": 2690,
      "Ġtopic": 2691,
      "bb": 2692,
      "Ġdikkat": 2693,
      "Ġhayat": 2694,
      "Ġbile": 2695,
      "Ġones": 2696,
      "Ġsaying": 2697,
      "Ġgir": 2698,
      "Ġreach": 2699,
      "Ġolun": 2700,
      "Ġ105": 2701,
      "Ġsol": 2702,
      "Ġclearly": 2703,
      "reating": 2704,
      "Ġrutin": 2705,
      "Ġ145": 2706,
      "43": 2707,
      "set": 2708,
      "ber": 2709,
      "ĠbugÃ¼n": 2710,
      "ogle": 2711,
      "goti": 2712,
      "Ġ125": 2713,
      "Ġkitab": 2714,
      "Ġproject": 2715,
      "Ġinclud": 2716,
      "Ġdifferent": 2717,
      "Ġceleb": 2718,
      "negoti": 2719,
      "anÄ±zÄ±": 2720,
      "Ġegzersiz": 2721,
      "Ġdevam": 2722,
      "Ġcomes": 2723,
      "ĠvÃ¼c": 2724,
      "Ġsense": 2725,
      "Ġzi": 2726,
      "Ġ60": 2727,
      "Ġoffer": 2728,
      "Ġsurface": 2729,
      "negotiable": 2730,
      "onin": 2731,
      "irim": 2732,
      "Ġemo": 2733,
      "Ġsonu": 2734,
      "ĠÃ§eki": 2735,
      "icro": 2736,
      "vals": 2737,
      "Ġ155": 2738,
      "Ġprocess": 2739,
      "Ġkahve": 2740,
      "ĠÃ§iz": 2741,
      "ĠÃĸÄŁren": 2742,
      "Ġconsistently": 2743,
      "Ä±cÄ±": 2744,
      "Ġcoun": 2745,
      "Ġsk": 2746,
      "Ġbil": 2747,
      "Ġ135": 2748,
      "ĠvÃ¼cud": 2749,
      "Ġlat": 2750,
      "Ġform": 2751,
      "su": 2752,
      "Ġ115": 2753,
      "Ġintervals": 2754,
      "ici": 2755,
      "ĠgÃ¶nder": 2756,
      "opt": 2757,
      "leye": 2758,
      "ĠyavaÅŁ": 2759,
      "ĠyÃ¼rÃ¼yÃ¼ÅŁe": 2760,
      "gor": 2761,
      "Ġsort": 2762,
      "Ġsabit": 2763,
      "Ġmel": 2764,
      "ĠkayÄ±ta": 2765,
      "ĠRes": 2766,
      "Ġkendinizi": 2767,
      "Ġhand": 2768,
      "ĠkullanÄ±n": 2769,
      "Ġpossible": 2770,
      "ood": 2771,
      "Ġend": 2772,
      "Ġdeta": 2773,
      "Ġpres": 2774,
      "ilen": 2775,
      "ĠeÄŁ": 2776,
      "ĠyÃ¼zecek": 2777,
      "ercis": 2778,
      "Ġuyan": 2779,
      "ĠList": 2780,
      "Ġevening": 2781,
      "Ġkayn": 2782,
      "Ġsocial": 2783,
      "Ġprices": 2784,
      "Ġortam": 2785,
      "\":": 2786,
      "Ġdigital": 2787,
      "ments": 2788,
      "Ġwr": 2789,
      "ommod": 2790,
      "Ġskill": 2791,
      "Ġmelat": 2792,
      "lÄ±ÄŁ": 2793,
      "Ġgi": 2794,
      "Ġob": 2795,
      "ĠdoÄŁal": 2796,
      "Ã¶r": 2797,
      "leyip": 2798,
      "Ġbreathing": 2799,
      "Ġlater": 2800,
      "92": 2801,
      "landÄ±": 2802,
      "Ġmelatonin": 2803,
      "Ġswim": 2804,
      "Ġaccommod": 2805,
      "Ġessentials": 2806,
      "Ġwhole": 2807,
      "Ġotur": 2808,
      "Ġgelecek": 2809,
      "ĠÅŁunlardÄ±r": 2810,
      "Ġapps": 2811,
      "Ġes": 2812,
      ",\"": 2813,
      "Ä±ndan": 2814,
      "Ġalmak": 2815,
      "Ġbuilds": 2816,
      "cing": 2817,
      "Ġprioritize": 2818,
      "Ġmus": 2819,
      "Ġkaz": 2820,
      "Ġdiffic": 2821,
      "Ġtekn": 2822,
      "Ġmateri": 2823,
      "Ġkonuyu": 2824,
      "lÄ±ÅŁ": 2825,
      "Ġdifficult": 2826,
      "ĠgÃ¼Ã§": 2827,
      "inizin": 2828,
      "Ġfull": 2829,
      "Ġregulate": 2830,
      "ĠiÃ§er": 2831,
      "ĠseÃ§enek": 2832,
      "Ġmis": 2833,
      "cih": 2834,
      "...\"": 2835,
      "tek": 2836,
      "irm": 2837,
      "esini": 2838,
      "lying": 2839,
      "to": 2840,
      "Ġkullanarak": 2841,
      "Ġhik": 2842,
      "Ġdire": 2843,
      "Ġfree": 2844,
      "Ġuzak": 2845,
      "Ġcelebrate": 2846,
      "Ġheard": 2847,
      "'ve": 2848,
      "und": 2849,
      "Ġpla": 2850,
      "sanÄ±z": 2851,
      "ouse": 2852,
      "fort": 2853,
      "Ġhouse": 2854,
      "dÄ±ÄŁ": 2855,
      "Ġaround": 2856,
      "Ġifad": 2857,
      "Ġtercih": 2858,
      "down": 2859,
      "ha": 2860,
      "Ġkez": 2861,
      "ĠLear": 2862,
      "Ġverin": 2863,
      "Ġsoru": 2864,
      "Ġbursts": 2865,
      "Ġconcept": 2866,
      "ĠAdopt": 2867,
      "Ġki": 2868,
      "Ġfixed": 2869,
      "ĠadÄ±mlarÄ±": 2870,
      "manÄ±zÄ±": 2871,
      "Ġprioriti": 2872,
      "Ġsaid": 2873,
      "Ä±la": 2874,
      "iden": 2875,
      "ĠbahÃ§e": 2876,
      "Ġstretching": 2877,
      "diÄŁiniz": 2878,
      "Ġexactly": 2879,
      "Ġekran": 2880,
      "Ġputting": 2881,
      "ĠTo": 2882,
      "lerden": 2883,
      "Ġreduces": 2884,
      "Ġregularly": 2885,
      "Ġbiraz": 2886,
      "Ġachieve": 2887,
      "eth": 2888,
      "izing": 2889,
      "Ġexercis": 2890,
      "ĠArdÄ±ndan": 2891,
      "Ġdates": 2892,
      "Ġprob": 2893,
      "Ġdone": 2894,
      "sÄ±nda": 2895,
      "Ġsmaller": 2896,
      "Ġinten": 2897,
      "Ġcurren": 2898,
      "Ġbriefly": 2899,
      "ĠyapmayÄ±": 2900,
      "Ġactions": 2901,
      "itive": 2902,
      "Ġede": 2903,
      "ĠyaptÄ±": 2904,
      "ĠĠĊ": 2905,
      "ĠdeÄŁiÅŁ": 2906,
      "ĠaÅŁ": 2907,
      "Ġsam": 2908,
      "Ġiniti": 2909,
      "ĠyaÅŁ": 2910,
      "Ġdiye": 2911,
      "Ġimprove": 2912,
      "lardan": 2913,
      "Ġlevel": 2914,
      "Ġazalt": 2915,
      "mam": 2916,
      "Ġregard": 2917,
      "Ġlook": 2918,
      "rast": 2919,
      "larm": 2920,
      "Ġhafta": 2921,
      "Ġgroup": 2922,
      "41": 2923,
      "Ġsoh": 2924,
      "Ä±mÄ±": 2925,
      "layarak": 2926,
      "Ġalarm": 2927,
      "Ġyeme": 2928,
      "Ġbreaking": 2929,
      "Ġkeeping": 2930,
      "Ġrespon": 2931,
      "Ġbat": 2932,
      "ĠJ": 2933,
      "ise": 2934,
      "ĠHaf": 2935,
      "ategor": 2936,
      "Ġplans": 2937,
      "Ġquickly": 2938,
      "Ġagain": 2939,
      "48": 2940,
      "Ġsamimi": 2941,
      "mektir": 2942,
      "Ġteeth": 2943,
      "ĠCommunication": 2944,
      "ĠhatÄ±r": 2945,
      "72": 2946,
      "Ġyara": 2947,
      "irecek": 2948,
      "Ġtrack": 2949,
      "lemeyi": 2950,
      "Ġmaterial": 2951,
      "ĠkolaylaÅŁtÄ±r": 2952,
      "ĠSiz": 2953,
      "Ġanlat": 2954,
      "ocrast": 2955,
      "ĠistediÄŁinizi": 2956,
      "inizden": 2957,
      "Ġautomatic": 2958,
      "Ġproblem": 2959,
      "Ġkelim": 2960,
      "tional": 2961,
      "sÄ±z": 2962,
      "Ġrit": 2963,
      "each": 2964,
      "oÄŁ": 2965,
      "Ġprocrast": 2966,
      "ĠAralÄ±k": 2967,
      "ĠgÃ¶rÃ¼n": 2968,
      "Ġmut": 2969,
      "Ġthroughout": 2970,
      "kli": 2971,
      "ĠGoogle": 2972,
      "ĠBaÅŁlangÄ±Ã§": 2973,
      "Ġrequire": 2974,
      "sÄ±n": 2975,
      "ually": 2976,
      "Ġkat": 2977,
      "led": 2978,
      "Ġphoto": 2979,
      "meyin": 2980,
      "Ġcurrent": 2981,
      "Ġemin": 2982,
      "ĠgÃ¼neÅŁ": 2983,
      "ĠaraÃ§": 2984,
      "Ġcategor": 2985,
      "ĠsÃ¶": 2986,
      "62": 2987,
      "yorsunuz": 2988,
      "yac": 2989,
      "Ġgerekir": 2990,
      "Ġdestek": 2991,
      "Ġyorgun": 2992,
      "Ġgenuine": 2993,
      "Ġconsistency": 2994,
      "Bu": 2995,
      "no": 2996,
      "ration": 2997,
      "arm": 2998,
      "ebilirsiniz": 2999,
      "liÄŁi": 3000,
      "luÄŁu": 3001,
      "Ġiy": 3002,
      "Ġbrushing": 3003,
      "Ġrepeating": 3004,
      "its": 3005,
      "ĠbahÃ§eniz": 3006,
      "Ġvisual": 3007,
      "Ġfresh": 3008,
      "Ġclarif": 3009,
      "ĠdÄ±ÅŁarÄ±": 3010,
      "Ġseconds": 3011,
      "kÃ¼n": 3012,
      "Ġgiving": 3013,
      "Pomodoro": 3014,
      "Ġbeca": 3015,
      "Ġyaparak": 3016,
      "Ġpoz": 3017,
      "tar": 3018,
      "ĠdÃ¶n": 3019,
      "arken": 3020,
      "Ġtid": 3021,
      "Ġbecause": 3022,
      "Ä±lan": 3023,
      "Ġkind": 3024,
      "Ġkalan": 3025,
      "ining": 3026,
      "tane": 3027,
      "Ġeffec": 3028,
      "eh": 3029,
      "Ġpass": 3030,
      "Ġbins": 3031,
      "Ġmed": 3032,
      "edul": 3033,
      "vice": 3034,
      "Ġleave": 3035,
      "Ġyoksa": 3036,
      "ĠListen": 3037,
      "ove": 3038,
      "Ġbrief": 3039,
      "Ä±nÄ±zda": 3040,
      "space": 3041,
      "Ġcontain": 3042,
      "Ġweather": 3043,
      "Ġclearing": 3044,
      "Ġaktivit": 3045,
      "Ġyolu": 3046,
      "Ġinterac": 3047,
      "locking": 3048,
      "Ġsaatlerinde": 3049,
      "Ġgetir": 3050,
      "Ġmultiple": 3051,
      "Ġtari": 3052,
      "ĠEach": 3053,
      "ĠBÃ¶": 3054,
      "ĠCommit": 3055,
      "Ġihtiyac": 3056,
      "anÄ±n": 3057,
      "imin": 3058,
      "stantly": 3059,
      "bu": 3060,
      "tire": 3061,
      "ĠgÃ¶ster": 3062,
      "rets": 3063,
      "yaÃ§": 3064,
      "Ġattention": 3065,
      "ĠÃ¶ncelik": 3066,
      "mem": 3067,
      "ĠCon": 3068,
      "Ġmovement": 3069,
      "ĠUyku": 3070,
      "Ġhobb": 3071,
      "Ġpresent": 3072,
      "Ġcycle": 3073,
      "mez": 3074,
      "Ġpos": 3075,
      "fet": 3076,
      "Ġschedul": 3077,
      "ĠistediÄŁiniz": 3078,
      "Ġconfirm": 3079,
      "Ġtrigger": 3080,
      "ĠBel": 3081,
      "laming": 3082,
      "Ġquiet": 3083,
      "view": 3084,
      "Ġaccomp": 3085,
      "masÄ±nÄ±": 3086,
      "ending": 3087,
      "Ġblaming": 3088,
      "Ã¼ne": 3089,
      "ĠnoktasÄ±": 3090,
      "Ġaccomplish": 3091,
      "tim": 3092,
      "uring": 3093,
      "nÄ±n": 3094,
      "cision": 3095,
      "ileri": 3096,
      "ĠyÃ¼rÃ¼": 3097,
      "Ġsohbet": 3098,
      "Ġzone": 3099,
      "Ġshould": 3100,
      "Ġnever": 3101,
      "ĠyaklaÅŁ": 3102,
      "Ġkamera": 3103,
      "Ġsab": 3104,
      "Ġilerlem": 3105,
      "Ġduv": 3106,
      "ĠLearning": 3107,
      "Ġkayded": 3108,
      "yn": 3109,
      "ĠTelefon": 3110,
      "Ġfati": 3111,
      "Ã¼mkÃ¼n": 3112,
      "Ġbitir": 3113,
      "Ġduyg": 3114,
      "Ġbal": 3115,
      "ĠRule": 3116,
      "Ġyerel": 3117,
      "Ġcompleting": 3118,
      "Ġpositive": 3119,
      "Ġfatigue": 3120,
      "Ġsit": 3121,
      "ĠGet": 3122,
      "ĠÄ°zmir": 3123,
      "Ġsev": 3124,
      "Ġbuilding": 3125,
      "men": 3126,
      "Ġsah": 3127,
      "ÄŁinizi": 3128,
      "emove": 3129,
      "Ġregardless": 3130,
      "Ġcar": 3131,
      "Ġkab": 3132,
      "izce": 3133,
      "Ġeasily": 3134,
      "ĠkiÅŁi": 3135,
      "Ġblock": 3136,
      "oring": 3137,
      "ĠseÃ§ip": 3138,
      "Ġsep": 3139,
      "ĠTime": 3140,
      "Ġold": 3141,
      "ĠÃ¼c": 3142,
      "Ġworkspace": 3143,
      "san": 3144,
      "Ġwin": 3145,
      "larla": 3146,
      "ĠRemove": 3147,
      "ĠfarklÄ±": 3148,
      "Ġgu": 3149,
      "ĠApp": 3150,
      "Ġreview": 3151,
      "Ġdesire": 3152,
      "Ġtalk": 3153,
      "retsiz": 3154,
      "ĠBÃ¶ylece": 3155,
      "ĠConsist": 3156,
      "Ġten": 3157,
      "asÄ±na": 3158,
      "Ġgets": 3159,
      "Ġrelaxing": 3160,
      "Ġema": 3161,
      "ĠÃĸÄŁrenme": 3162,
      "93": 3163,
      "tiÄŁiniz": 3164,
      "Ġcluttered": 3165,
      "landÄ±r": 3166,
      "Ġenerji": 3167,
      "Ġdecision": 3168,
      "ĠsÃ¼rec": 3169,
      "Ġdene": 3170,
      "Ġolma": 3171,
      "ĠihtiyaÃ§": 3172,
      "Ġkara": 3173,
      "Ġmin": 3174,
      "Ġcas": 3175,
      "Ġexper": 3176,
      "Ġfinishing": 3177,
      "Ġca": 3178,
      "Ġsaatte": 3179,
      "mesini": 3180,
      "abileceÄŁiniz": 3181,
      "Ġprocrastination": 3182,
      "mel": 3183,
      "ĠYat": 3184,
      "ilar": 3185,
      "ĠAncak": 3186,
      "Ġlower": 3187,
      "Ġinterests": 3188,
      "ĠkeÅŁ": 3189,
      "lest": 3190,
      "otal": 3191,
      "ĠÃ¶neriler": 3192,
      "Ġsimilar": 3193,
      "ĠRep": 3194,
      "ffer": 3195,
      "ĠbÄ±rakÄ±n": 3196,
      "ĠAlways": 3197,
      "ange": 3198,
      "Ġsmallest": 3199,
      "Ġcomfort": 3200,
      "Ġkoy": 3201,
      "inizdeki": 3202,
      "ĠApply": 3203,
      "Ġexperien": 3204,
      "Ġdoesn": 3205,
      "Ġlevels": 3206,
      "Ġhis": 3207,
      "**.": 3208,
      "Ġgereken": 3209,
      "Ã¼s": 3210,
      "ously": 3211,
      "ĠsonuÃ§": 3212,
      "ĠMe": 3213,
      "Ġbelirli": 3214,
      "Ġoptions": 3215,
      "Ġlim": 3216,
      "free": 3217,
      "let": 3218,
      "Ġind": 3219,
      "Ġgeri": 3220,
      "imdi": 3221,
      "Ġonu": 3222,
      "ĠAnswer": 3223,
      "Ġelimin": 3224,
      "ĠKendi": 3225,
      "Ġperfect": 3226,
      "Ġsil": 3227,
      "ĠToplam": 3228,
      "Ġgit": 3229,
      "ĠÄ°n": 3230,
      "Ġwarm": 3231,
      "Ġdakikada": 3232,
      "ĠÃ¼cretsiz": 3233,
      "ĠKon": 3234,
      "Ġdirect": 3235,
      "Ġresponse": 3236,
      "Ġtav": 3237,
      "Ġwins": 3238,
      "Ġ90": 3239,
      "Ġbased": 3240,
      "Ġgenel": 3241,
      "ĠSizin": 3242,
      "Ġtutun": 3243,
      "Ġbackup": 3244,
      "ĠbÃ¶l": 3245,
      "blocking": 3246,
      "Ġensuring": 3247,
      "earch": 3248,
      "eyin": 3249,
      "Ġfully": 3250,
      "Ġext": 3251,
      "ĠpiÅŁirecek": 3252,
      "Ġreplace": 3253,
      "ĠgÃ¶rÃ¼ÅŁ": 3254,
      "cul": 3255,
      "gil": 3256,
      "lÄ±ÄŁÄ±nÄ±": 3257,
      "Ġgidecek": 3258,
      "Ġinterrupting": 3259,
      "kanlÄ±k": 3260,
      "taki": 3261,
      "ĠiÅŁlem": 3262,
      "Ġteknik": 3263,
      "bel": 3264,
      "larÄ±na": 3265,
      "ection": 3266,
      "Ġdead": 3267,
      "Ġpoint": 3268,
      "Ġprevents": 3269,
      "Ġtransport": 3270,
      "two": 3271,
      "Ġmemor": 3272,
      "iÄŁer": 3273,
      "uzur": 3274,
      "73": 3275,
      "dur": 3276,
      "Ġcleaning": 3277,
      "ĠunutmayÄ±n": 3278,
      "Ġsorting": 3279,
      "gÃ¼n": 3280,
      "urken": 3281,
      "alÄ±m": 3282,
      "Ġdesign": 3283,
      "Ġexch": 3284,
      "Ġkural": 3285,
      "Ġmakin": 3286,
      "arika": 3287,
      "Ġsuc": 3288,
      "Ġam": 3289,
      "dÄ±ÄŁÄ±nÄ±": 3290,
      "Ġdinlen": 3291,
      "Ġkaynak": 3292,
      "ĠReplace": 3293,
      "ana": 3294,
      "yarak": 3295,
      "Ġatt": 3296,
      "chor": 3297,
      "Ġreli": 3298,
      "ret": 3299,
      "ĠPack": 3300,
      "ĠboÅŁ": 3301,
      "ĠkoÅŁ": 3302,
      "Ġbus": 3303,
      "Ġhava": 3304,
      "Ġsuyu": 3305,
      "Ġuyk": 3306,
      "lines": 3307,
      "ĠdÃ¼ÅŁÃ¼nÃ¼n": 3308,
      "Ġmusic": 3309,
      "63": 3310,
      "just": 3311,
      "Ġfik": 3312,
      "izi": 3313,
      "Ġaccess": 3314,
      "ĠZaman": 3315,
      "Ġsonunda": 3316,
      "isay": 3317,
      "Ġcreating": 3318,
      "Ã¼ÄŁ": 3319,
      "Ġref": 3320,
      "Ġmet": 3321,
      "ĠbaÅŁlangÄ±": 3322,
      "aret": 3323,
      "letiÅŁim": 3324,
      "Ġdep": 3325,
      "Ġanda": 3326,
      "Ġtakip": 3327,
      "Ġta": 3328,
      "istem": 3329,
      "Ġmood": 3330,
      "fe": 3331,
      "Ġcl": 3332,
      "ĠmÃ¼mkÃ¼n": 3333,
      "aÅŁÄ±k": 3334,
      "Ġsave": 3335,
      "Ġ165": 3336,
      "Ġbilgiler": 3337,
      "Ġbecomes": 3338,
      "Ġoffering": 3339,
      "Ġinv": 3340,
      "ĠayÄ±rÄ±n": 3341,
      "Ġmaintaining": 3342,
      "Ġdelays": 3343,
      "ĠadÄ±mda": 3344,
      "Ġyere": 3345,
      "Ġturning": 3346,
      "Ġkarar": 3347,
      "he": 3348,
      "Ġshelf": 3349,
      "ĠPlan": 3350,
      "ages": 3351,
      "ĠIf": 3352,
      "ĠArkadaÅŁ": 3353,
      "ĠGÃ¼nÃ¼n": 3354,
      "Ġkut": 3355,
      "Ä±rken": 3356,
      "Ġvide": 3357,
      "Ġalt": 3358,
      "Ġexercise": 3359,
      "cum": 3360,
      "Ġpush": 3361,
      "ality": 3362,
      "ĠkonuÅŁma": 3363,
      "ĠÃ§Ä±kar": 3364,
      "ĠbÃ¼t": 3365,
      "ram": 3366,
      "lerle": 3367,
      "thm": 3368,
      "Ġrhy": 3369,
      "Ġrhythm": 3370,
      "lerde": 3371,
      "Ġhikay": 3372,
      "ĠdiÄŁer": 3373,
      "Ġsho": 3374,
      "Ġboost": 3375,
      "ene": 3376,
      "maktan": 3377,
      "ĠÃ¶neririm": 3378,
      "Ġdrive": 3379,
      "Ġthinking": 3380,
      ".)": 3381,
      "itap": 3382,
      "Ġ50": 3383,
      "Ġbuilt": 3384,
      "iÄŁi": 3385,
      "ĠsaÄŁlÄ±k": 3386,
      "Ġmal": 3387,
      "Ġmicro": 3388,
      "aba": 3389,
      "ll": 3390,
      "Ġmutu": 3391,
      "ĠÃ§Ä±kacak": 3392,
      "ĠTr": 3393,
      "istic": 3394,
      "Ġsat": 3395,
      "Ġareas": 3396,
      "Ġfail": 3397,
      "Ġrelying": 3398,
      "Ġbulmak": 3399,
      "Ġprioritiz": 3400,
      "ĠMesaj": 3401,
      "ĠkayÄ±tta": 3402,
      "Ġvak": 3403,
      "Ġdestinations": 3404,
      "Ġizin": 3405,
      "Ġnedenle": 3406,
      "Ġsent": 3407,
      "ĠaydÄ±n": 3408,
      "ĠiÃ§ine": 3409,
      "Ġanchor": 3410,
      "Ġdeneyim": 3411,
      "Ġreconnect": 3412,
      "Ġwriting": 3413,
      "18": 3414,
      "hen": 3415,
      "lak": 3416,
      "Ġder": 3417,
      "ĠDon": 3418,
      "Ġadding": 3419,
      "umara": 3420,
      "ĠBe": 3421,
      "ĠayÄ±": 3422,
      "Ġokuma": 3423,
      "Ġkarm": 3424,
      "Ġmutual": 3425,
      "Ġvers": 3426,
      "ĠÃ¶ÄŁle": 3427,
      "Ġideas": 3428,
      "Ġdocum": 3429,
      "gers": 3430,
      "sini": 3431,
      "ĠbaÅŁlar": 3432,
      "ĠÄ°letiÅŁim": 3433,
      "ĠÃ§ev": 3434,
      "chen": 3435,
      "Ġsumm": 3436,
      "Ġlabel": 3437,
      "Ġlead": 3438,
      "Ġhotels": 3439,
      "ossible": 3440,
      "Ġpop": 3441,
      "Ġpark": 3442,
      "Ġren": 3443,
      "ason": 3444,
      "Ġkitchen": 3445,
      "Ġneeding": 3446,
      "Ġincludes": 3447,
      "ĠÃ§alÄ±ÅŁma": 3448,
      "Ġcounter": 3449,
      "'ll": 3450,
      "bil": 3451,
      "tively": 3452,
      "Ġtutacak": 3453,
      "ĠkarÅŁÄ±laÅŁ": 3454,
      "hing": 3455,
      "Ġpur": 3456,
      "Ã¼rk": 3457,
      "Ġweekly": 3458,
      "yal": 3459,
      "Ġhaving": 3460,
      "udg": 3461,
      "Ġfrequ": 3462,
      "tification": 3463,
      "Ġminim": 3464,
      "so": 3465,
      "Ġyen": 3466,
      "Ġkazan": 3467,
      "air": 3468,
      "Ġcri": 3469,
      "Ġmon": 3470,
      "ĠÃ¶neriyi": 3471,
      "ĠHabit": 3472,
      "Ġleaving": 3473,
      "iv": 3474,
      "Ġvery": 3475,
      "Ġsistem": 3476,
      "ĠbaÅŁlayÄ±p": 3477,
      "Ġbreathe": 3478,
      "ĠThen": 3479,
      "91": 3480,
      "Ġonun": 3481,
      "Ġrou": 3482,
      "Ġvarsa": 3483,
      "Ġswit": 3484,
      "ĠsÄ±ra": 3485,
      "Ġnatural": 3486,
      "ron": 3487,
      "ĠBook": 3488,
      "stakes": 3489,
      "ĠÄ°yi": 3490,
      "malar": 3491,
      "Ġcall": 3492,
      "Ġtidy": 3493,
      "gilizce": 3494,
      "Ġders": 3495,
      "Ġeveryone": 3496,
      "ĠcÃ¼mle": 3497,
      "rink": 3498,
      "Ġimpossible": 3499,
      "Ġperfection": 3500,
      "hangi": 3501,
      "list": 3502,
      "seniz": 3503,
      "dÄ±ÄŁÄ±": 3504,
      "ĠzorluÄŁu": 3505,
      "ĠHem": 3506,
      "ĠHangi": 3507,
      "menizi": 3508,
      "Ġkonuda": 3509,
      "Ġproduction": 3510,
      "ĠaÄŁ": 3511,
      "Minute": 3512,
      "Ġhuzur": 3513,
      "Ġmik": 3514,
      "gÄ±": 3515,
      "Ġkes": 3516,
      "ĠsaÄŁlayÄ±n": 3517,
      "Ġperi": 3518,
      "Ġasleep": 3519,
      "Ġclarifying": 3520,
      "ĠkaÃ§Ä±nÄ±n": 3521,
      "You": 3522,
      "Ġav": 3523,
      "Ġslow": 3524,
      "Ġconc": 3525,
      "Ġkol": 3526,
      "Ġcomplex": 3527,
      "atch": 3528,
      "imli": 3529,
      "efer": 3530,
      "ĠsÃ¼reÃ§": 3531,
      "Ġdecluttering": 3532,
      "Ġstar": 3533,
      "ĠNumara": 3534,
      "ĠeÅŁy": 3535,
      "tÄ±ra": 3536,
      "Ġmindful": 3537,
      "Ġdisrup": 3538,
      "ehir": 3539,
      "isayar": 3540,
      "eck": 3541,
      "Ġbitkil": 3542,
      "Ġziya": 3543,
      "ida": 3544,
      "net": 3545,
      "ese": 3546,
      "68": 3547,
      "ction": 3548,
      "Ä±nÄ±r": 3549,
      "inizle": 3550,
      "Ġquality": 3551,
      "Ġnotification": 3552,
      "manÄ±n": 3553,
      "Ġcloth": 3554,
      "ory": 3555,
      "Ġ37": 3556,
      "Ġtoprak": 3557,
      "uyla": 3558,
      "Ġbelirle": 3559,
      "ĠiÅŁi": 3560,
      "Ġisters": 3561,
      "ĠadÄ±mlarla": 3562,
      "Ġprojects": 3563,
      "Ġpause": 3564,
      "Ġbar": 3565,
      "Ġfall": 3566,
      "unuza": 3567,
      "Ġrespect": 3568,
      "Ġhappens": 3569,
      "Ġindir": 3570,
      "oint": 3571,
      "ork": 3572,
      "ĠDrink": 3573,
      "ĠReach": 3574,
      "enize": 3575,
      "Ġokumaya": 3576,
      "Ġperspec": 3577,
      "Ġlights": 3578,
      "Ġallowing": 3579,
      "Ġbath": 3580,
      "Ġperspective": 3581,
      "ice": 3582,
      "yand": 3583,
      "Ġact": 3584,
      "Ġ80": 3585,
      "Ġjudg": 3586,
      "Ġnotes": 3587,
      "Ġairport": 3588,
      "Ġyeniden": 3589,
      "sing": 3590,
      "ĠfÄ±r": 3591,
      "ĠSor": 3592,
      "Ġmesa": 3593,
      "unuzun": 3594,
      "Ä±lmÄ±ÅŁ": 3595,
      "Ġvalida": 3596,
      "jor": 3597,
      "Ġnerv": 3598,
      "Ġmant": 3599,
      "Ä±ntÄ±": 3600,
      "lic": 3601,
      "ĠgÃ¼nde": 3602,
      "Ġsummar": 3603,
      "Ġaim": 3604,
      "Ġtool": 3605,
      "ilik": 3606,
      "Ġgent": 3607,
      "Ġchat": 3608,
      "oman": 3609,
      "maz": 3610,
      "ĠdakikayÄ±": 3611,
      "ability": 3612,
      "Ġnervous": 3613,
      "Ġgentle": 3614,
      "isini": 3615,
      "ĠcÃ¼ml": 3616,
      "Ġalter": 3617,
      "Ġmajor": 3618,
      "ĠÄ°ngilizce": 3619,
      "Ġwas": 3620,
      "Ġmust": 3621,
      "Ġmiss": 3622,
      "ĠkÄ±s": 3623,
      "ecting": 3624,
      "haba": 3625,
      "tivity": 3626,
      "Ġfikir": 3627,
      "ping": 3628,
      "Ġbun": 3629,
      "using": 3630,
      "ĠkaÄŁÄ±": 3631,
      "Ġorganized": 3632,
      "Two": 3633,
      "ete": 3634,
      "Ġforward": 3635,
      "ĠyÃ¼zden": 3636,
      "Ġexpla": 3637,
      "ĠgÃ¶zlem": 3638,
      "Ġsin": 3639,
      "Ġbond": 3640,
      "sap": 3641,
      "Ġadjust": 3642,
      "lÄ±ÅŁkanlÄ±k": 3643,
      "Ġritual": 3644,
      "Ġbilgiyi": 3645,
      "malÄ±sÄ±nÄ±z": 3646,
      "ave": 3647,
      "muÅŁ": 3648,
      "Ġcir": 3649,
      "ĠSayÄ±n": 3650,
      "Ġ157": 3651,
      "ĠbaÅŁlangÄ±Ã§tÄ±r": 3652,
      "Ġengag": 3653,
      "Ġcasual": 3654,
      "Ġperiod": 3655,
      "61": 3656,
      "Ġmod": 3657,
      "Ġmeals": 3658,
      "Ġverir": 3659,
      "ĠzamanÄ±": 3660,
      "Ġ147": 3661,
      "Ġbalance": 3662,
      "Ġben": 3663,
      "ĠSÃ¼re": 3664,
      "anging": 3665,
      "Ġbelirleyerek": 3666,
      "ĠhiÃ§": 3667,
      "ĠamaÃ§": 3668,
      "ĠÄ±ÅŁÄ±ÄŁÄ±": 3669,
      "Ġaktiviteler": 3670,
      "Ġtotal": 3671,
      "Ġmeans": 3672,
      "Ġaccommodation": 3673,
      "ih": 3674,
      "ulating": 3675,
      "ĠTÃ¼rk": 3676,
      "Ã¶rn": 3677,
      "ĠGÃ¼nde": 3678,
      "Ġuyand": 3679,
      "Ġ127": 3680,
      "Ġevde": 3681,
      "Ġsayf": 3682,
      "Ġsaniye": 3683,
      "Ġsolely": 3684,
      "Ġvideo": 3685,
      "Ġstarted": 3686,
      "Ġnotifications": 3687,
      "elik": 3688,
      "Ã¼nd": 3689,
      "Ġfav": 3690,
      "udy": 3691,
      "ĠÃ§alÄ±ÅŁmak": 3692,
      "ĠgÃ¶zden": 3693,
      "Ġproblems": 3694,
      "Ġsuccess": 3695,
      "Ġbusy": 3696,
      "task": 3697,
      "uyor": 3698,
      "ĠSeyahat": 3699,
      "Ġvb": 3700,
      "Ġtrain": 3701,
      "ĠsÃ¼reci": 3702,
      "Ġheav": 3703,
      "Ġground": 3704,
      "Ġtavsi": 3705,
      "Ġprioritizing": 3706,
      "Ġfavor": 3707,
      "38": 3708,
      "98": 3709,
      "Ġkas": 3710,
      "ĠplanlayÄ±n": 3711,
      "Ä±ktan": 3712,
      "ĠEli": 3713,
      "Ġstore": 3714,
      "liÅŁ": 3715,
      "Ġmedi": 3716,
      "Ä±nÄ±zÄ±n": 3717,
      "Ġstudying": 3718,
      "leÅŁtirin": 3719,
      "Ġthink": 3720,
      "Ġavail": 3721,
      "ularÄ±": 3722,
      "Ġ107": 3723,
      "Ġbite": 3724,
      "ĠoluÅŁturun": 3725,
      "Ġhale": 3726,
      "ĠtanÄ±m": 3727,
      "ĠBelir": 3728,
      "rying": 3729,
      "Ġtara": 3730,
      "oud": 3731,
      "ternal": 3732,
      "Ġmoments": 3733,
      "Ġrecall": 3734,
      "Ġhavuz": 3735,
      "Ġurgency": 3736,
      "sized": 3737,
      "ĠaÅŁaÄŁÄ±": 3738,
      "Ġona": 3739,
      "term": 3740,
      "Ġ47": 3741,
      "Ġarri": 3742,
      "Ġbask": 3743,
      "Ġretur": 3744,
      "Ġ117": 3745,
      "Ġused": 3746,
      "Ġtemp": 3747,
      "Ġaraya": 3748,
      "Ġhobby": 3749,
      "Ġcase": 3750,
      "imp": 3751,
      "Ġ137": 3752,
      "Ġeliminate": 3753,
      "Ġdocuments": 3754,
      "ues": 3755,
      "Ġkullanmak": 3756,
      "Ġdedicate": 3757,
      "Ġrewards": 3758,
      "Ġexperiences": 3759,
      "Ä±yor": 3760,
      "ority": 3761,
      "abilirsin": 3762,
      "eclutter": 3763,
      "here": 3764,
      "Ġneeded": 3765,
      "ĠÃ¼zerinde": 3766,
      "Ġmedit": 3767,
      "Ġlove": 3768,
      "ĠtanÄ±ÅŁ": 3769,
      "Ġeffectively": 3770,
      "Ġheavy": 3771,
      "ors": 3772,
      "ritik": 3773,
      "Ġexternal": 3774,
      "Ġkayna": 3775,
      "ÅŁtÄ±r": 3776,
      "Ġdakikalar": 3777,
      "Ġhedeflerinizi": 3778,
      "lemeye": 3779,
      "Ġstrictly": 3780,
      "ĠduyduÄŁ": 3781,
      "Ġconfid": 3782,
      "Ġrealistic": 3783,
      "Ġmedia": 3784,
      "mind": 3785,
      "ĠÃ¶zet": 3786,
      "ĠÅŀu": 3787,
      "tle": 3788,
      "Ġtoward": 3789,
      "Ġ57": 3790,
      "ĠsabahlarÄ±": 3791,
      "Ġsessiz": 3792,
      "Ġtalking": 3793,
      "ĠartÄ±rÄ±r": 3794,
      "ĠsÃ¼r": 3795,
      "Ġreac": 3796,
      "ĠbaÅŁlayarak": 3797,
      "Ġifade": 3798,
      "Ġanki": 3799,
      "ĠkayÄ±ttaki": 3800,
      "establish": 3801,
      "Ġyolcul": 3802,
      "Ġrepeti": 3803,
      "ĠdeÄŁerlendir": 3804,
      "isiniz": 3805,
      "Ġbla": 3806,
      "ÄŁÄ±na": 3807,
      "Ġ154": 3808,
      "Ġtoplamda": 3809,
      "Ġpaint": 3810,
      "Ġbilgisayar": 3811,
      "leyebilirsiniz": 3812,
      "haul": 3813,
      "Ġsahip": 3814,
      "ĠAlÄ±ÅŁkanlÄ±k": 3815,
      "Ġadvice": 3816,
      "lig": 3817,
      "Ġbreaths": 3818,
      "Ġdiy": 3819,
      "ĠGood": 3820,
      "Ġmonth": 3821,
      "arge": 3822,
      "Ġ100": 3823,
      "ĠdÃ¼zenli": 3824,
      "Ġlost": 3825,
      "ĠparÃ§": 3826,
      "Ġaktivite": 3827,
      "Ġdetails": 3828,
      "ĠkarmaÅŁÄ±k": 3829,
      "Ġfavorite": 3830,
      "ding": 3831,
      "erhaba": 3832,
      "Ġ106": 3833,
      "Ġ156": 3834,
      "iled": 3835,
      "Ġspecifically": 3836,
      "Ġreliable": 3837,
      "ada": 3838,
      "menin": 3839,
      "Ġcor": 3840,
      "ĠÃĸner": 3841,
      "Ġodaklanma": 3842,
      "Ġekleyin": 3843,
      "ĠsÄ±kÄ±ntÄ±": 3844,
      "Ġiyisi": 3845,
      "Ġtes": 3846,
      "Ġbag": 3847,
      "oura": 3848,
      "Ġdate": 3849,
      "Ġkav": 3850,
      "Ġ67": 3851,
      "Ġ87": 3852,
      "Ġbuffer": 3853,
      "Ġkurun": 3854,
      "Ġgerekti": 3855,
      "Ġstil": 3856,
      "Ġsakin": 3857,
      "Ġtar": 3858,
      "ata": 3859,
      "Ġcommun": 3860,
      "Ġoverhaul": 3861,
      "Ġweb": 3862,
      "Ġodaklanmak": 3863,
      "Ġtriggers": 3864,
      "morrow": 3865,
      "ĠkalÄ±": 3866,
      "Ġkritik": 3867,
      "Ġtomorrow": 3868,
      "Ġgere": 3869,
      "ĠanlaÅŁ": 3870,
      "Ġenc": 3871,
      "Ġ136": 3872,
      "Ġbelirlem": 3873,
      "Ġimportance": 3874,
      "Ġdistraction": 3875,
      "Ġappoint": 3876,
      "Ġdefter": 3877,
      "ĠConsistency": 3878,
      "amak": 3879,
      "Ġroman": 3880,
      "Ġphones": 3881,
      "ĠkaydÄ±": 3882,
      "ĠolduÄŁunuz": 3883,
      "Ġtopics": 3884,
      "ĠkitabÄ±": 3885,
      "Ġdetailed": 3886,
      "oin": 3887,
      "Ġestablish": 3888,
      "ÄŁÄ±nÄ±zÄ±": 3889,
      "Ġ39": 3890,
      "Ġchore": 3891,
      "Ġetmeye": 3892,
      "Ġortak": 3893,
      "ĠÃĩok": 3894,
      "Ġduvar": 3895,
      "eti": 3896,
      "ever": 3897,
      "Ġ97": 3898,
      "Ġ114": 3899,
      "Ġdav": 3900,
      "tÄ±ÄŁÄ±nÄ±z": 3901,
      "ĠTrue": 3902,
      "Ġner": 3903,
      "Ġremind": 3904,
      "Ġ120": 3905,
      "Ġ149": 3906,
      "Ġworrying": 3907,
      "Ġorganizing": 3908,
      "ĠStudy": 3909,
      "Ġstarts": 3910,
      "Ġeder": 3911,
      "Ġextra": 3912,
      "Ġalterna": 3913,
      "zem": 3914,
      "Ġwrite": 3915,
      "Ġthese": 3916,
      "Ġbirini": 3917,
      "Ġ36": 3918,
      "Ġ109": 3919,
      "Ġ150": 3920,
      "Ġokuy": 3921,
      "Ġgelen": 3922,
      "ĠolmasÄ±": 3923,
      "Ġremove": 3924,
      "Ġhandle": 3925,
      "ĠTÃ¼rkÃ§e": 3926,
      "inely": 3927,
      "ĠyarÄ±": 3928,
      "udur": 3929,
      "Ġgenuinely": 3930,
      "Ġbin": 3931,
      "ĠCle": 3932,
      "Ġ139": 3933,
      "minate": 3934,
      "Ġcompare": 3935,
      "Ġtarih": 3936,
      "Ġsepara": 3937,
      ".**": 3938,
      "Ġsight": 3939,
      "Ã¼ler": 3940,
      "Ġ129": 3941,
      "Ġ144": 3942,
      "Ġbelki": 3943,
      "ĠWhen": 3944,
      "ffeine": 3945,
      "Ġpacking": 3946,
      "Ġcaffeine": 3947,
      "Ġanx": 3948,
      "Ġready": 3949,
      "ĠgÃ¼nÃ¼nÃ¼z": 3950,
      "ults": 3951,
      "Ġ29": 3952,
      "Ġcosts": 3953,
      "Ä±zlÄ±": 3954,
      "Ġ104": 3955,
      "Ġ146": 3956,
      "Ġ116": 3957,
      "Ġchecklist": 3958,
      "Ġalarak": 3959,
      "ĠResearch": 3960,
      "Ã¼ph": 3961,
      "tically": 3962,
      "Ġ77": 3963,
      "ĠteÅŁ": 3964,
      "Ġharit": 3965,
      "ĠArkadaÅŁlÄ±k": 3966,
      "ility": 3967,
      "ĠÃ¶d": 3968,
      "ĠyazÄ±lÄ±": 3969,
      "ĠHedef": 3970,
      "Ġ119": 3971,
      "Ġexpos": 3972,
      "Ġunderstood": 3973,
      "Ġstaying": 3974,
      "sine": 3975,
      "inter": 3976,
      "ĠkÃ¶": 3977,
      "Ġjoy": 3978,
      "Ġ126": 3979,
      "ĠÃ¶nceden": 3980,
      "Ġbelirtin": 3981,
      "ĠyapÄ±la": 3982,
      "Ġsaatlerde": 3983,
      "ĠsaÄŁlayacak": 3984,
      "Ä±labilir": 3985,
      "ĠbahÃ§enizin": 3986,
      "Ġsummarizing": 3987,
      "Ġdavran": 3988,
      "ft": 3989,
      "Ġ-": 3990,
      "isyon": 3991,
      "Ġpick": 3992,
      "Ġsorular": 3993,
      "Ġweeks": 3994,
      "Ġdurumunu": 3995,
      "Ġblocking": 3996,
      "Ġgrad": 3997,
      "Ġkelime": 3998,
      "ĠiÃ§mek": 3999,
      "lanmÄ±ÅŁ": 4000,
      "Ġspend": 4001,
      "Ġbelirt": 4002,
      "Ġcreates": 4003,
      "Ġplat": 4004,
      "ĠsÃ¶z": 4005,
      "Ġaren": 4006,
      "ili": 4007,
      "ildir": 4008,
      "Ġbring": 4009,
      "Ġdeadlines": 4010,
      "Ġexposure": 4011,
      "\")": 4012,
      "\",": 4013,
      "ĠSp": 4014,
      "Ġseb": 4015,
      "ĠiÅŁleri": 4016,
      "Ġkeeps": 4017,
      "ĠsÃ¼reli": 4018,
      "Ġdeng": 4019,
      "Ġreply": 4020,
      "Ġyatmadan": 4021,
      "Ġhissi": 4022,
      "Ġreturn": 4023,
      "Ġpat": 4024,
      "edi": 4025,
      "Ġ54": 4026,
      "Ġ124": 4027,
      "Ġtext": 4028,
      "ĠarasÄ±nda": 4029,
      "ĠWhy": 4030,
      "Ġolmayan": 4031,
      "Ġnature": 4032,
      "ĠInstead": 4033,
      "Ġbrings": 4034,
      "Ġspeaker": 4035,
      "Ġdirectly": 4036,
      "Ġ40": 4037,
      "Ġsear": 4038,
      "Ġiste": 4039,
      "ĠgeliÅŁtir": 4040,
      "Ġmiktar": 4041,
      "Ġpara": 4042,
      "ĠkarÄ±": 4043,
      "ticing": 4044,
      "Ġdeeply": 4045,
      "Ġletting": 4046,
      "ĠkeÅŁfet": 4047,
      "Ġvakit": 4048,
      "ĠSleep": 4049,
      "ĠbaÅŁÄ±na": 4050,
      "ibly": 4051,
      "larÄ±nda": 4052,
      "Ġlisting": 4053,
      "ĠiÃ§indeki": 4054,
      "Ġemotions": 4055,
      "ĠyaklaÅŁÄ±m": 4056,
      "sek": 4057,
      "ĠsÃ¼": 4058,
      "Ġsec": 4059,
      "oney": 4060,
      "Ġ160": 4061,
      "Ġhear": 4062,
      "Ġnefesinizi": 4063,
      "ĠJust": 4064,
      "Ġinvol": 4065,
      "Ġrepetition": 4066,
      "jital": 4067,
      "Ġser": 4068,
      "Ġnothing": 4069,
      "Ġgrow": 4070,
      "vices": 4071,
      "Ġinternet": 4072,
      "Ġfrust": 4073,
      "ĠgÃ¼Ã§lendir": 4074,
      "ĠHemen": 4075,
      "Ġgradually": 4076,
      "mand": 4077,
      "Ġ110": 4078,
      "leyen": 4079,
      "tanÄ±n": 4080,
      "aat": 4081,
      "dÄ±k": 4082,
      "Ġshif": 4083,
      "ĠbaÅŁka": 4084,
      "Ġ159": 4085,
      "ĠuygulamasÄ±": 4086,
      "Ġconnections": 4087,
      "Ġyarat": 4088,
      "ĠDeclutter": 4089,
      "Ġeating": 4090,
      "Ġdemand": 4091,
      "Ġyapma": 4092,
      "Ġplanlama": 4093,
      "Ġ130": 4094,
      "Ġ134": 4095,
      "ures": 4096,
      "Ġremoving": 4097,
      "Ġzih": 4098,
      "Ġmalzem": 4099,
      "Ġplatform": 4100,
      "Ġcons": 4101,
      "Ġstrate": 4102,
      "Ġsos": 4103,
      "Ġstrong": 4104,
      "yap": 4105,
      "Ġcho": 4106,
      "Ġ49": 4107,
      "Ġ76": 4108,
      "ĠpiÅŁirme": 4109,
      "Ġhappen": 4110,
      "Ġcontainers": 4111,
      "Ġfrequently": 4112,
      "Ġcritical": 4113,
      "ĠEliminate": 4114,
      "ĠEl": 4115,
      "Ġmoney": 4116,
      "ĠPut": 4117,
      "Ġchoose": 4118,
      "Ġ89": 4119,
      "Ġdecide": 4120,
      "impact": 4121,
      "ĠSÄ±": 4122,
      "Ġuygulay": 4123,
      "ĠalÄ±ÅŁkanlÄ±ÄŁÄ±": 4124,
      "ĠWrite": 4125,
      "Ġhealthy": 4126,
      "tri": 4127,
      "ĠTV": 4128,
      "ĠGÃ¶": 4129,
      "Ġ59": 4130,
      "Ġ46": 4131,
      "Ġspon": 4132,
      "ĠUz": 4133,
      "Ġencoura": 4134,
      "Ġstic": 4135,
      "Ġ167": 4136,
      "ĠÃ¶ÄŁrenmeye": 4137,
      "âĢĵ": 4138,
      "Ġassum": 4139,
      "ĠsÃ¶y": 4140,
      "Ġspontane": 4141,
      "Ġhy": 4142,
      "Ġ56": 4143,
      "ĠZor": 4144,
      "Ä±klÄ±": 4145,
      "Ġsorunu": 4146,
      "Ġprote": 4147,
      "ĠkolaylaÅŁ": 4148,
      "ĠbÃ¶lg": 4149,
      "uck": 4150,
      "ĠYatmadan": 4151,
      "ub": 4152,
      "ura": 4153,
      "Ġsl": 4154,
      "Ġverimli": 4155,
      "charge": 4156,
      "Ġ140": 4157,
      "ross": 4158,
      "times": 4159,
      "Ġmessages": 4160,
      "ĠsÄ±nÄ±r": 4161,
      "cisi": 4162,
      "ÄŁÄ±nda": 4163,
      "ĠÃ¶l": 4164,
      "adi": 4165,
      "Ġkonum": 4166,
      "ĠistiyorsanÄ±z": 4167,
      "Ġhead": 4168,
      "ucu": 4169,
      "layÄ±cÄ±": 4170,
      "Ġincre": 4171,
      "Ġcontinu": 4172,
      "Ġsenin": 4173,
      "ĠkalkÄ±p": 4174,
      "ĠyemeÄŁi": 4175,
      "oÄŁun": 4176,
      "Ġsticking": 4177,
      "pose": 4178,
      "sar": 4179,
      "Ã§i": 4180,
      "Ġresults": 4181,
      "Ġ69": 4182,
      "Ġ70": 4183,
      "ĠFotoÄŁraf": 4184,
      "Ġedip": 4185,
      "Ġmastering": 4186,
      "Ġdesignated": 4187,
      "Ġhesap": 4188,
      "ĠÃ¼zere": 4189,
      "Ġcommunic": 4190,
      "ial": 4191,
      "Ġcue": 4192,
      "Ġmap": 4193,
      "Ġonline": 4194,
      "Ã¼zel": 4195,
      "ĠkullanmayÄ±": 4196,
      "Ġederek": 4197,
      "ĠiÅŁler": 4198,
      "Ġbilgiye": 4199,
      "ĠÅŁunlarÄ±": 4200,
      "Ãĸn": 4201,
      "Ġemotional": 4202,
      "Ġtaraf": 4203,
      "ket": 4204,
      "sÄ±na": 4205,
      "Ã¼st": 4206,
      "Ġforce": 4207,
      "ĠyapmanÄ±z": 4208,
      "Ġexpect": 4209,
      "ount": 4210,
      "Ġcomfortable": 4211,
      "ĠadÄ±": 4212,
      "ingu": 4213,
      "Ġteach": 4214,
      "ĠazÄ±ndan": 4215,
      "ĠsaÄŁlam": 4216,
      "Ġsunlight": 4217,
      "ĠGetting": 4218,
      "Ġshoot": 4219,
      "Ġmindfulness": 4220,
      "Ġcra": 4221,
      "Ġrecharge": 4222,
      "Ġzama": 4223,
      "mekten": 4224,
      "Ġisn": 4225,
      "Ġsaati": 4226,
      "Ġmotivated": 4227,
      "ĠoluÅŁturmak": 4228,
      "ĠÃĩalÄ±ÅŁ": 4229,
      "valtÄ±": 4230,
      "Ġinteractions": 4231,
      "Ġlock": 4232,
      "ines": 4233,
      "ints": 4234,
      "Ġnear": 4235,
      "Ġtired": 4236,
      "ĠBuild": 4237,
      "Ġdistingu": 4238,
      "iety": 4239,
      "Ġdistinguish": 4240,
      "gi": 4241,
      "Ġpic": 4242,
      "Ġfood": 4243,
      "Ġinstantly": 4244,
      "Ġ34": 4245,
      "Ġdair": 4246,
      "Ä±lÄ±r": 4247,
      "Ġwindow": 4248,
      "ges": 4249,
      "Ġ86": 4250,
      "ĠÅŁehir": 4251,
      "Ġsaatini": 4252,
      "Ġturn": 4253,
      "Ġsurfaces": 4254,
      "Ġlooking": 4255,
      "Ġkabul": 4256,
      "Ġconfidence": 4257,
      "Ġanxiety": 4258,
      "Ġprom": 4259,
      "Ġ79": 4260,
      "Ġmeaningful": 4261,
      "Ġarka": 4262,
      "ĠkonuÅŁmak": 4263,
      "Ġedebilirsiniz": 4264,
      "Ġemail": 4265,
      "Ġclothes": 4266,
      "Ġtechniqu": 4267,
      "Ġem": 4268,
      "Ġ64": 4269,
      "ĠHave": 4270,
      "Ġ74": 4271,
      "ĠÃ¶lÃ§": 4272,
      "Ġtechniques": 4273,
      "allen": 4274,
      "Ġbeen": 4275,
      "avig": 4276,
      "pping": 4277,
      "Ã¼nÃ¼zÃ¼": 4278,
      "Ġjudgment": 4279,
      "ĠcÃ¼mleler": 4280,
      "ihaz": 4281,
      "Ã¼phan": 4282,
      "Ä±sa": 4283,
      "Ġpile": 4284,
      "usal": 4285,
      "ĠanÄ±nda": 4286,
      "Ġpracticing": 4287,
      "sÄ±t": 4288,
      "Ġekleyerek": 4289,
      "Ġuygulamalar": 4290,
      "ĠpopÃ¼ler": 4291,
      "Ġpurpose": 4292,
      "ging": 4293,
      "Ġsal": 4294,
      "Ġnavig": 4295,
      "Ġzorunda": 4296,
      "Ġcol": 4297,
      "Ġru": 4298,
      "Ġyerden": 4299,
      "Ġwhenever": 4300,
      "ĠdÃ¼ÅŁÃ¼r": 4301,
      "Ġaiming": 4302,
      "100": 4303,
      "ĠDes": 4304,
      "lanan": 4305,
      "ĠHay": 4306,
      "ĠHarika": 4307,
      "Ġotel": 4308,
      "ĠÃ§eker": 4309,
      "dÃ¼r": 4310,
      "ences": 4311,
      "Ġkaybet": 4312,
      "Ġpersonal": 4313,
      "ĠalanÄ±": 4314,
      "Ġexchanging": 4315,
      "ĠaydÄ±nlat": 4316,
      "Ġdiyerek": 4317,
      "Ġslot": 4318,
      "ink": 4319,
      "Ġtable": 4320,
      "Ġuyuyun": 4321,
      "Ġpoints": 4322,
      "ĠdÃ¼zenleme": 4323,
      "ĠgÃ¶revleri": 4324,
      "Ġvalue": 4325,
      "ĠdetaylÄ±": 4326,
      "build": 4327,
      "ĠbaÅŁlangÄ±cÄ±": 4328,
      "ĠbÃ¼tÃ§": 4329,
      "ĠÃ¼Ã§": 4330,
      "Ġfay": 4331,
      "ĠSaat": 4332,
      "Ġstuck": 4333,
      "Ġaccommodations": 4334,
      "ĠsabÄ±r": 4335,
      "Ġzamanda": 4336,
      "Ġsefer": 4337,
      "Ġfact": 4338,
      "ĠdÃ¼zel": 4339,
      "Ġfinding": 4340,
      "Ġkaydet": 4341,
      "underst": 4342,
      "ĠyoÄŁun": 4343,
      "olu": 4344,
      "ĠaÃ§Ä±": 4345,
      "Ġclarity": 4346,
      "Ġyeterlidir": 4347,
      "ĠÃ¶dÃ¼l": 4348,
      "der": 4349,
      "ru": 4350,
      "tiri": 4351,
      "Ġbiti": 4352,
      "Ġdevices": 4353,
      "Ġchallen": 4354,
      "ĠÅŁimdi": 4355,
      "Ġyerde": 4356,
      "Ġkoyun": 4357,
      "Ġhardest": 4358,
      "Ġincluding": 4359,
      "Ġmisunderst": 4360,
      "ĠdeÄŁiÅŁik": 4361,
      "Ġattrac": 4362,
      "Ġpushes": 4363,
      "ĠkÃ¼t": 4364,
      "Ġrebuild": 4365,
      "ĠatÄ±n": 4366,
      "Ġboz": 4367,
      "Ġbelirtil": 4368,
      "Ġtransit": 4369,
      "Ġharc": 4370,
      "ledge": 4371,
      "Ġdesired": 4372,
      "ĠkÄ±sm": 4373,
      "Â°": 4374,
      "Ġunder": 4375,
      "ĠuygulayÄ±n": 4376,
      "Ġ66": 4377,
      "ĠyapmaktÄ±r": 4378,
      "Ġsleeping": 4379,
      "Ġcommon": 4380,
      "Ġexample": 4381,
      "ĠStop": 4382,
      "Ġsaatlik": 4383,
      "ĠgÃ¶revi": 4384,
      "Ġprof": 4385,
      "ĠyapÄ±lan": 4386,
      "Ġgider": 4387,
      "ĠprogramÄ±": 4388,
      "ĠkolaylaÅŁtÄ±rÄ±r": 4389,
      "Ġkindness": 4390,
      "Ġconstantly": 4391,
      "ĠÄ°ÅŁ": 4392,
      "ĠkaÃ§Ä±n": 4393,
      "Ġodaklanarak": 4394,
      "Ġlate": 4395,
      "Ġincred": 4396,
      "Ġrelations": 4397,
      "Ġdisconnect": 4398,
      "Ġbarri": 4399,
      ")**": 4400,
      "St": 4401,
      "miÅŁtir": 4402,
      "Ġait": 4403,
      "Ġbec": 4404,
      "Ġana": 4405,
      "ĠGece": 4406,
      "Ġfriction": 4407,
      "ĠiÅŁle": 4408,
      "Ġilerlemeyi": 4409,
      "Ġlarger": 4410,
      "ĠmantÄ±klÄ±": 4411,
      "Ġincredibly": 4412,
      "Ġrelationship": 4413,
      "lamayÄ±": 4414,
      "Ġ166": 4415,
      "Ġhedefe": 4416,
      "ĠarasÄ±": 4417,
      "rolling": 4418,
      "ĠBaÅŁarÄ±": 4419,
      "ĠbaÄŁlÄ±": 4420,
      "ĠbÃ¶lÃ¼m": 4421,
      "talÄ±k": 4422,
      "Ġent": 4423,
      "Ġcihaz": 4424,
      "ĠyapÄ±p": 4425,
      "Ġ96": 4426,
      "Ġkayb": 4427,
      "Ġurge": 4428,
      "Ġstretch": 4429,
      "Ġguilt": 4430,
      "post": 4431,
      "Ä°lk": 4432,
      "Ġ99": 4433,
      "Ġalma": 4434,
      "Ġdili": 4435,
      "Ġetkin": 4436,
      "Ġdimming": 4437,
      "Ġkelimeler": 4438,
      "ĠkoÅŁul": 4439,
      "ĠsÃ¼ren": 4440,
      "200": 4441,
      "Ġmad": 4442,
      "Ġ44": 4443,
      "Ġ94": 4444,
      "ĠNe": 4445,
      "ifik": 4446,
      "ĠhafifÃ§e": 4447,
      "ĠgÃ¶nderin": 4448,
      "ty": 4449,
      "rated": 4450,
      "Ġalong": 4451,
      "ibility": 4452,
      "Ġbelirleyip": 4453,
      "Ġexpecting": 4454,
      "ĠbaÅŁlamanÄ±z": 4455,
      "ĠodaklanmayÄ±": 4456,
      "Ġileride": 4457,
      "Ġlonger": 4458,
      "Ġtemizlik": 4459,
      "ĠÃ¼zerinden": 4460,
      "ĠayarlayÄ±n": 4461,
      "ĠgeÃ§irin": 4462,
      "Ġgives": 4463,
      "ĠhatÄ±rlat": 4464,
      "Ġrequires": 4465,
      "ĠsÃ¶yle": 4466,
      "132": 4467,
      "fÄ±r": 4468,
      "hand": 4469,
      "iraz": 4470,
      "Ġtreating": 4471,
      "Ġbunun": 4472,
      "Ġmak": 4473,
      "esifik": 4474,
      "Ġbulund": 4475,
      "Ġspesifik": 4476,
      "Ġspecial": 4477,
      "Ġherhangi": 4478,
      "ĠFor": 4479,
      "Ġperform": 4480,
      "Ġenjoyable": 4481,
      "Ġsilence": 4482,
      "Ġstill": 4483,
      "Ġsosyal": 4484,
      "ola": 4485,
      "Ġ84": 4486,
      "Ġpreventing": 4487,
      "Ġwait": 4488,
      "Ġdepart": 4489,
      "Ġversion": 4490,
      "Ġmesaf": 4491,
      "Ġblack": 4492,
      "112": 4493,
      "vet": 4494,
      "ÄŁÄ±n": 4495,
      "ĠBÃ¼yÃ¼k": 4496,
      "ĠanlÄ±k": 4497,
      "Ġbelong": 4498,
      "Ġuninter": 4499,
      "ĠkonuÅŁmayÄ±": 4500,
      "ĠsÄ±caklÄ±ÄŁÄ±nÄ±": 4501,
      "melisiniz": 4502,
      "Ġtasar": 4503,
      "ultane": 4504,
      "Ġmight": 4505,
      "ĠÃ¶rneÄŁin": 4506,
      "Ġatmak": 4507,
      "Ġ164": 4508,
      "Ġ169": 4509,
      "Ġkendini": 4510,
      "Ġhedefinizi": 4511,
      "Ġaray": 4512,
      "ĠdÃ¼zenini": 4513,
      "Ġyatak": 4514,
      "Ġallows": 4515,
      "Ġhaftada": 4516,
      "Ġcarry": 4517,
      "Ġcirc": 4518,
      "Ġcommunicate": 4519,
      "ultaneously": 4520,
      "must": 4521,
      "Ġyapabilirsiniz": 4522,
      "lerine": 4523,
      "Ġsimultaneously": 4524,
      "Ġlit": 4525,
      "Ġkalite": 4526,
      "uÄŁu": 4527,
      "Ġgener": 4528,
      "Ġkurmak": 4529,
      "leÅŁtirmek": 4530,
      "188": 4531,
      "Ġmid": 4532,
      "Ġanal": 4533,
      "Ġmeeting": 4534,
      "Ġbeforehand": 4535,
      "asÄ±nda": 4536,
      "ĠkiÅŁiye": 4537,
      "ĠgerÃ§ekten": 4538,
      "Ġideal": 4539,
      "Ġsesli": 4540,
      "Ġpozisyon": 4541,
      "Ġtools": 4542,
      "130": 4543,
      "800": 4544,
      "ney": 4545,
      "rend": 4546,
      "where": 4547,
      "Ġyapt": 4548,
      "Ġyaparken": 4549,
      "Ġattem": 4550,
      "Ġevdeki": 4551,
      "Ġgerekli": 4552,
      "Ġvisit": 4553,
      "ĠkapatÄ±n": 4554,
      "Ġperiods": 4555,
      "ĠClear": 4556,
      "adian": 4557,
      "Ġcircadian": 4558,
      "110": 4559,
      "180": 4560,
      "Ġtat": 4561,
      "Ġshel": 4562,
      "uggage": 4563,
      "Ġintens": 4564,
      "Ġexpens": 4565,
      "rupted": 4566,
      "ĠJoin": 4567,
      "Ġalternative": 4568,
      "Ġuninterrupted": 4569,
      "Ġluggage": 4570,
      "ĠÃ¶ncel": 4571,
      "ĠKitap": 4572,
      "phones": 4573,
      "ĠazaltÄ±r": 4574,
      "member": 4575,
      "ba": 4576,
      "yin": 4577,
      "Ġpre": 4578,
      "Ġyum": 4579,
      "kim": 4580,
      "Ġcover": 4581,
      "Ġdold": 4582,
      "Ġ112": 4583,
      "Ġ170": 4584,
      "Ġuygulama": 4585,
      "Ġcalming": 4586,
      "Ġscheduling": 4587,
      "Ġcorner": 4588,
      "120": 4589,
      "back": 4590,
      "Ġton": 4591,
      "ĠiliÅŁ": 4592,
      "kip": 4593,
      "Ġabs": 4594,
      "ĠbaÅŁlatÄ±n": 4595,
      "ague": 4596,
      "vite": 4597,
      "ĠdaÄŁÄ±": 4598,
      "ĠbahÃ§ede": 4599,
      "Ġilerlemek": 4600,
      "dÄ±ÄŁÄ±nÄ±zda": 4601,
      "Ġclose": 4602,
      "ĠtanÄ±ÅŁacak": 4603,
      "bo": 4604,
      "lul": 4605,
      "ops": 4606,
      "uel": 4607,
      "elen": 4608,
      "Ġanlamak": 4609,
      "Ġplanla": 4610,
      "ĠÃ¶ÄŁrenin": 4611,
      "Ġcomb": 4612,
      "ĠiÅŁaret": 4613,
      "Ġsub": 4614,
      "ĠhafÄ±z": 4615,
      "Ġinteraction": 4616,
      "ĠDesign": 4617,
      "Ġmisunderstand": 4618,
      "300": 4619,
      "power": 4620,
      "Ġned": 4621,
      "Ġquit": 4622,
      "Ġwhether": 4623,
      "Ġseem": 4624,
      "iÄŁiniz": 4625,
      "Ġrid": 4626,
      "Ġconnect": 4627,
      "Ġvisible": 4628,
      "Ġsignals": 4629,
      "Ġrahatlat": 4630,
      "Ġpartner": 4631,
      "Ġsolve": 4632,
      "cast": 4633,
      "Ġtell": 4634,
      "Ġcontrol": 4635,
      "Ġmer": 4636,
      "Ġrein": 4637,
      "ĠyazÄ±n": 4638,
      "ĠkaldÄ±r": 4639,
      "ĠuygulamasÄ±nÄ±": 4640,
      "ĠihtiyacÄ±nÄ±z": 4641,
      "182": 4642,
      "iÃ§ek": 4643,
      "nin": 4644,
      "vik": 4645,
      "ties": 4646,
      "Ġsn": 4647,
      "Ġstand": 4648,
      "unuzda": 4649,
      "ĠÃ§alÄ±ÅŁmaya": 4650,
      "Ġscrolling": 4651,
      "Ġreinfor": 4652,
      "ĠEr": 4653,
      "ĠsoÄŁ": 4654,
      "Ġsolu": 4655,
      "layan": 4656,
      "round": 4657,
      "Ġortamda": 4658,
      "Ġmemory": 4659,
      "Ġcramming": 4660,
      "gid": 4661,
      "tÃ¼r": 4662,
      "Ġfil": 4663,
      "Ġeden": 4664,
      "ĠdeÄŁildir": 4665,
      "Ġvad": 4666,
      "Ġ102": 4667,
      "Ġkullanmaya": 4668,
      "ĠgÃ¶rsel": 4669,
      "Ġairline": 4670,
      "Ġincele": 4671,
      "Ġaccomplishment": 4672,
      "Ġprofes": 4673,
      "Ġshelves": 4674,
      "310": 4675,
      "zerv": 4676,
      "Ġrezerv": 4677,
      "imit": 4678,
      "ĠÃ§ay": 4679,
      "Ġ32": 4680,
      "lemesine": 4681,
      "ĠbaÅŁlamaktÄ±r": 4682,
      "Ġharekete": 4683,
      "Ġsign": 4684,
      "ĠyavaÅŁÃ§a": 4685,
      "Ġinitial": 4686,
      "Ġwebsi": 4687,
      "ĠUzun": 4688,
      "zet": 4689,
      "ets": 4690,
      "ats": 4691,
      "Ġolup": 4692,
      "ĠHÄ±zlÄ±": 4693,
      "yonel": 4694,
      "ĠResim": 4695,
      "Ġnerede": 4696,
      "ĠteÅŁvik": 4697,
      "810": 4698,
      "Ġcues": 4699,
      "Ġboring": 4700,
      "ÄŁim": 4701,
      "ĠolmanÄ±z": 4702,
      "Ġdemek": 4703,
      "ĠyapacaÄŁ": 4704,
      "Ġresist": 4705,
      "ĠplanÄ±nÄ±zÄ±": 4706,
      "Ġevent": 4707,
      "ĠÃ§ekecek": 4708,
      "ĠCheck": 4709,
      "reading": 4710,
      "tirecek": 4711,
      "Ġemails": 4712,
      "ively": 4713,
      "Ġroute": 4714,
      "Ġdemanding": 4715,
      "BugÃ¼n": 4716,
      "Ġty": 4717,
      "Ġfun": 4718,
      "Ġremember": 4719,
      "Ġforcing": 4720,
      "Ġvague": 4721,
      "Ġalone": 4722,
      "Ġbahset": 4723,
      "Ġprov": 4724,
      "ĠSabahlarÄ±": 4725,
      "ĠhÄ±zlÄ±ca": 4726,
      "Ġmisiniz": 4727,
      "head": 4728,
      "Ġlabeled": 4729,
      "832": 4730,
      "sik": 4731,
      "Ġ\\": 4732,
      "Ġhon": 4733,
      "ĠGÃ¶z": 4734,
      "indeki": 4735,
      "ĠdÃ¼zeninizi": 4736,
      "ĠGÃ¼neÅŁ": 4737,
      "Ġbitki": 4738,
      "Ġtelefonunuzun": 4739,
      "by": 4740,
      "gul": 4741,
      "Ġanla": 4742,
      "Ġ152": 4743,
      "ĠakÄ±ÅŁ": 4744,
      "Ġwatching": 4745,
      "menize": 4746,
      "Ġexpressing": 4747,
      "ĠÃ§ekiyor": 4748,
      "Ġintention": 4749,
      "Ġkelimeleri": 4750,
      "ĠaltÄ±nda": 4751,
      "ĠdavranÄ±ÅŁ": 4752,
      "820": 4753,
      "Toplam": 4754,
      "aÃ§": 4755,
      "Ġahead": 4756,
      "ĠaydÄ±r": 4757,
      "Ġuyuy": 4758,
      "Ġcore": 4759,
      "ĠyÃ¼rÃ¼m": 4760,
      "ĠÅŁeyleri": 4761,
      "Ġrigid": 4762,
      "bilecek": 4763,
      "Ġdrink": 4764,
      "Ġcurtain": 4765,
      "ĠÄ±lÄ±k": 4766,
      "landÄ±ÄŁÄ±nÄ±z": 4767,
      "Ġattractions": 4768,
      "830": 4769,
      "yes": 4770,
      "Ġpi": 4771,
      "Ã¼ven": 4772,
      "Ġayak": 4773,
      "Ġdilin": 4774,
      "Ġetki": 4775,
      "129": 4776,
      "Ġister": 4777,
      "Ġtelefonunuzu": 4778,
      "ĠhazÄ±rlayÄ±n": 4779,
      "Ġtane": 4780,
      "ĠkapatÄ±p": 4781,
      "Ġkork": 4782,
      "Ġfayd": 4783,
      "Ġsnack": 4784,
      "Ġrezervasyon": 4785,
      "Ġcatch": 4786,
      "ĠTek": 4787,
      "Ġeks": 4788,
      "ĠbirleÅŁ": 4789,
      "lanÄ±r": 4790,
      "Ġzek": 4791,
      "ardan": 4792,
      "ĠÃ§Ä±kÄ±p": 4793,
      "Ġbilet": 4794,
      "Ġseparate": 4795,
      "Ġprofesyonel": 4796,
      "isel": 4797,
      "ĠtanÄ±": 4798,
      "ullan": 4799,
      "Ġidentif": 4800,
      "Ġfiz": 4801,
      "Ġfuel": 4802,
      "ĠLimit": 4803,
      "Ġacross": 4804,
      "Ġokuyun": 4805,
      "ĠkullanÄ±m": 4806,
      "Ġsaatleri": 4807,
      "Ġactionable": 4808,
      "Ġharder": 4809,
      "Ġavailability": 4810,
      "Ġshift": 4811,
      "Start": 4812,
      "ĠDesignate": 4813,
      "gu": 4814,
      "Ġdrain": 4815,
      "Ġfit": 4816,
      "ĠbaÅŁk": 4817,
      "Ġcommitting": 4818,
      "diÄŁi": 4819,
      "Ġautomatically": 4820,
      "ĠsatÄ±n": 4821,
      "Ġswitch": 4822,
      "Ġtavsiye": 4823,
      "Ġassuming": 4824,
      "Ġprotect": 4825,
      "Ġteaching": 4826,
      "ĠdeÄŁiÅŁiklik": 4827,
      "Ġtyp": 4828,
      "320": 4829,
      "388": 4830,
      "Ġaler": 4831,
      "Ġsite": 4832,
      "ĠtaÅŁ": 4833,
      "ilmiÅŁ": 4834,
      "Ġgest": 4835,
      "ĠBiraz": 4836,
      "Ġstate": 4837,
      "abilirim": 4838,
      "leriniz": 4839,
      "Ġrushing": 4840,
      "loj": 4841,
      "ĠpiÅŁiriyor": 4842,
      "ĠaraÅŁtÄ±r": 4843,
      "ĠgeÃ§mek": 4844,
      "Ġaccum": 4845,
      "Ġlearned": 4846,
      "Ġbekleme": 4847,
      "Ġsentences": 4848,
      "posta": 4849,
      "KÃ¼Ã§Ã¼k": 4850,
      "urarak": 4851,
      "ĠaÅŁam": 4852,
      "veriÅŁ": 4853,
      "ĠduÅŁ": 4854,
      "Ġfill": 4855,
      "Ġkonfor": 4856,
      "ĠsÃ¼rede": 4857,
      "phra": 4858,
      "Ġtamamla": 4859,
      "Ġbilgileri": 4860,
      "Ġinvolves": 4861,
      "Ġinsan": 4862,
      "Ġnumber": 4863,
      "ĠÃ§iÃ§ek": 4864,
      "Ġgoes": 4865,
      "Ġ132": 4866,
      "iber": 4867,
      "Ġyeri": 4868,
      "Ġhissed": 4869,
      "ĠeÄŁiti": 4870,
      "Ġbalanced": 4871,
      "gen": 4872,
      "may": 4873,
      "Ġsure": 4874,
      "ĠtÃ¼k": 4875,
      "Ġmeal": 4876,
      "iness": 4877,
      "ics": 4878,
      "Ġvermek": 4879,
      "ĠseÃ§imi": 4880,
      "Ġdurumda": 4881,
      "136": 4882,
      "Ġproj": 4883,
      "Ġdeneyebilirsiniz": 4884,
      "Ġaccus": 4885,
      "leyebilir": 4886,
      "ĠdÃ¶nÃ¼ÅŁ": 4887,
      "Ġmeditation": 4888,
      "Ġblackout": 4889,
      "330": 4890,
      "fen": 4891,
      "Ġsound": 4892,
      "Ġil": 4893,
      "imd": 4894,
      "ĠbaÅŁtan": 4895,
      "efore": 4896,
      "ĠalmayÄ±": 4897,
      "Ġevents": 4898,
      "iÄŁini": 4899,
      "Ġhedefi": 4900,
      "ĠgeÃ§in": 4901,
      "ĠÃ¶nemlidir": 4902,
      "Ġsupp": 4903,
      "Ġinceley": 4904,
      "ĠyaptÄ±ÄŁÄ±nÄ±z": 4905,
      "ĠBaÅŁlangÄ±Ã§ta": 4906,
      "ble": 4907,
      "sleep": 4908,
      "second": 4909,
      "Ã¢": 4910,
      "ensi": 4911,
      "ĠAÄŁ": 4912,
      "ĠuÃ§": 4913,
      "Ġsonucu": 4914,
      "Ġupon": 4915,
      "116": 4916,
      "Ġaraz": 4917,
      "Ġcloset": 4918,
      "ĠkÃ¼tÃ¼phan": 4919,
      "Ġidentifying": 4920,
      "332": 4921,
      "ns": 4922,
      "pts": 4923,
      "ĠsÄ±r": 4924,
      "Ġtest": 4925,
      "Ã§Ä±": 4926,
      "Ġflow": 4927,
      "liÄŁ": 4928,
      "Ġissu": 4929,
      "Ġfeed": 4930,
      "Ġ142": 4931,
      "Ġdijital": 4932,
      "ĠsorunlarÄ±": 4933,
      "apping": 4934,
      "ĠyÃ¼ksek": 4935,
      "ĠÄ±ÅŁÄ±ÄŁÄ±na": 4936,
      "Ġplacing": 4937,
      "Ġmutlak": 4938,
      "Ġanaliz": 4939,
      "Ġcurtains": 4940,
      "sim": 4941,
      "sunuz": 4942,
      "rev": 4943,
      "Ġmy": 4944,
      "Ġzorlu": 4945,
      "Ġ122": 4946,
      "ificant": 4947,
      "ĠseÃ§im": 4948,
      "ĠseÃ§ene": 4949,
      "Ġupda": 4950,
      "ĠsÃ¼rekli": 4951,
      "Ġilerleme": 4952,
      "Ġlocation": 4953,
      "Ã¼tfen": 4954,
      "Ġkesin": 4955,
      "Ġhonest": 4956,
      "Bir": 4957,
      "Ġtough": 4958,
      "Ġdata": 4959,
      "Ã¶n": 4960,
      "ĠÃ¶rnek": 4961,
      "kiyor": 4962,
      "ĠayÄ±rdÄ±ÄŁÄ±": 4963,
      "Ġyapay": 4964,
      "ĠbuluÅŁma": 4965,
      "Ġseason": 4966,
      "Ġtraveling": 4967,
      "ĠyÃ¼rÃ¼yerek": 4968,
      "337": 4969,
      "Ġuykuya": 4970,
      "Ġshowing": 4971,
      "ĠolduÄŁundan": 4972,
      "ĠyapÄ±lacak": 4973,
      "Ġsecure": 4974,
      "pting": 4975,
      "Ġprep": 4976,
      "Ã¼p": 4977,
      "Ġmode": 4978,
      "Ġbeyn": 4979,
      "ĠbaÅŁlÄ±": 4980,
      "ĠMart": 4981,
      "Ġplanner": 4982,
      "Ġrates": 4983,
      "lÄ±klÄ±": 4984,
      "124": 4985,
      "ĠkullanÄ±lan": 4986,
      "111": 4987,
      "113": 4988,
      "114": 4989,
      "Ġelect": 4990,
      "ĠyÃ¶net": 4991,
      "Ġinterruptions": 4992,
      "ĠolmalÄ±dÄ±r": 4993,
      "Ġclos": 4994,
      "ĠsaÄŁlÄ±klÄ±": 4995,
      "Ġexplaining": 4996,
      "Ġeksik": 4997,
      "Ġissues": 4998,
      "380": 4999,
      "Ġada": 5000,
      "Ġyiy": 5001,
      "Ġib": 5002,
      "Ġfaster": 5003,
      "ĠgÃ¼nkÃ¼": 5004,
      "Ġris": 5005,
      "Ġhedefleyin": 5006,
      "115": 5007,
      "117": 5008,
      "333": 5009,
      "ĠalÄ±ÅŁveriÅŁ": 5010,
      "Ġrepeat": 5011,
      "ĠseÃ§mektir": 5012,
      "Ġmultitask": 5013,
      "ĠeÄŁlen": 5014,
      "Ġdinlenme": 5015,
      "Ġgerekiyor": 5016,
      "pri": 5017,
      "ĠYaz": 5018,
      "Ġexc": 5019,
      "ĠBirkaÃ§": 5020,
      "ĠgeniÅŁ": 5021,
      "Ġseviyenizi": 5022,
      "Ġschedules": 5023,
      "Ġtransportation": 5024,
      "ĠHabits": 5025,
      "Ġdoldur": 5026,
      "Ġmisunderstandings": 5027,
      "Ġban": 5028,
      "ature": 5029,
      "ĠMerhaba": 5030,
      "Ġyapmadan": 5031,
      "Ġchar": 5032,
      "121": 5033,
      "849": 5034,
      "Ġeffective": 5035,
      "Ġmutlaka": 5036,
      "382": 5037,
      "ative": 5038,
      "nece": 5039,
      "Ġ'": 5040,
      "Ġken": 5041,
      "arlÄ±": 5042,
      "ĠbaÅŁa": 5043,
      "ĠbaÅŁÄ±nda": 5044,
      "ĠMaps": 5045,
      "ĠÃ§im": 5046,
      "ĠÃ¶ÄŁrend": 5047,
      "125": 5048,
      "336": 5049,
      "ĠBirlikte": 5050,
      "137": 5051,
      "ĠbaÅŁlangÄ±Ã§ta": 5052,
      "909": 5053,
      "bileceÄŁiniz": 5054,
      "ĠkonuÅŁmaya": 5055,
      "ĠyapÄ±yor": 5056,
      "iyet": 5057,
      "Ġkaydedin": 5058,
      "gÃ¼nlÃ¼k": 5059,
      "Ġintensity": 5060,
      "Ġsignificant": 5061,
      "necess": 5062,
      "micro": 5063,
      "over": 5064,
      "Ġself": 5065,
      "Ġayr": 5066,
      "Ġzones": 5067,
      "Ġrun": 5068,
      "Ġspending": 5069,
      "Ġunnecess": 5070,
      "334": 5071,
      "ĠgiriÅŁ": 5072,
      "Ġelectron": 5073,
      "ulan": 5074,
      "ĠayÄ±rd": 5075,
      "lamaya": 5076,
      "Ġ82": 5077,
      "ĠÃ¶ÄŁre": 5078,
      "Ġroutines": 5079,
      "128": 5080,
      "831": 5081,
      "veness": 5082,
      "manÄ±za": 5083,
      "ĠtÃ¼rÃ¼": 5084,
      "ĠChange": 5085,
      "ĠkahvaltÄ±": 5086,
      "Ġdefensi": 5087,
      "ĠulaÅŁÄ±labilir": 5088,
      "Ġproductivity": 5089,
      "Ġduygular": 5090,
      "Ġsentence": 5091,
      "mayan": 5092,
      "Ġpap": 5093,
      "Ġtreat": 5094,
      "Ġ52": 5095,
      "Ġ72": 5096,
      "Ġwillpower": 5097,
      "Ġspor": 5098,
      "Ġboy": 5099,
      "ĠyÃ¼ze": 5100,
      "ĠÃ§alÄ±ÅŁmayÄ±": 5101,
      "331": 5102,
      "349": 5103,
      "Ġilerleyin": 5104,
      "Ġbekle": 5105,
      "ĠgerÃ§ekÃ§i": 5106,
      "Ġmasa": 5107,
      "Ġpiece": 5108,
      "oloj": 5109,
      "Ä±yorum": 5110,
      "usunu": 5111,
      "Ġvererek": 5112,
      "Ġspark": 5113,
      "Ä±ÅŁtÄ±r": 5114,
      "Ġokay": 5115,
      "Ġtutarak": 5116,
      "ĠseÃ§erek": 5117,
      "126": 5118,
      "Ġedecek": 5119,
      "335": 5120,
      "836": 5121,
      "ĠbaÅŁlamadan": 5122,
      "ĠtamamlayÄ±n": 5123,
      "ĠoluÅŁtu": 5124,
      "ĠbÄ±rakÄ±p": 5125,
      "ĠbakÄ±n": 5126,
      "Ġspots": 5127,
      "ĠgÃ¼Ã§lÃ¼": 5128,
      "ĠkalÄ±cÄ±": 5129,
      "cc": 5130,
      "ses": 5131,
      "Ġtone": 5132,
      "Ġconstant": 5133,
      "Ġdim": 5134,
      "Ġrece": 5135,
      "alÄ±sÄ±nÄ±z": 5136,
      "Ġ42": 5137,
      "Ġcompleted": 5138,
      "Ġblok": 5139,
      "Ġengel": 5140,
      "ĠyanlÄ±ÅŁ": 5141,
      "Ġpriorities": 5142,
      "Ġsitu": 5143,
      "ĠÃ§evir": 5144,
      "Ġspontaneous": 5145,
      "ĠÃĩalÄ±ÅŁma": 5146,
      "ĠyumuÅŁ": 5147,
      "Ġdefensiveness": 5148,
      "Ġnod": 5149,
      "Ġwon": 5150,
      "Ġocc": 5151,
      "acaktÄ±r": 5152,
      "ĠÃ¶ne": 5153,
      "ĠyetiÅŁ": 5154,
      "ĠeÅŁyadÄ±r": 5155,
      "Ġbelirti": 5156,
      "123": 5157,
      "127": 5158,
      "ĠkullanÄ±mÄ±": 5159,
      "Ġoutcome": 5160,
      "149": 5161,
      "835": 5162,
      "837": 5163,
      "Ġflexibility": 5164,
      "Ġparties": 5165,
      "Ġlistener": 5166,
      "Ġleads": 5167,
      "Ġslowly": 5168,
      "Ġbitkiler": 5169,
      "Ġparaphra": 5170,
      "Ġhyd": 5171,
      "Ġpicking": 5172,
      "Ġfizik": 5173,
      "priority": 5174,
      "Ġlay": 5175,
      "Ġtw": 5176,
      "alara": 5177,
      "ĠYap": 5178,
      "ĠYeni": 5179,
      "Ġkaf": 5180,
      "Ġmeetings": 5181,
      "Ġjum": 5182,
      "122": 5183,
      "ĠkullanmaktÄ±r": 5184,
      "906": 5185,
      "907": 5186,
      "ĠgÃ¼nÃ¼nÃ¼": 5187,
      "Ġvalu": 5188,
      "ĠzorluklarÄ±": 5189,
      "ĠÃ§izim": 5190,
      "Ġbilim": 5191,
      "Ġwrong": 5192,
      "Ġoturup": 5193,
      "Ġmakinesi": 5194,
      "Ġswitching": 5195,
      "ĠkarÄ±ÅŁ": 5196,
      "Ġibaret": 5197,
      "kend": 5198,
      "Ġharika": 5199,
      "irken": 5200,
      "liÄŁini": 5201,
      "ĠbaÅŁar": 5202,
      "ĠyapÄ±l": 5203,
      "ĠyazÄ±": 5204,
      "Ġloud": 5205,
      "135": 5206,
      "905": 5207,
      "Ġdrives": 5208,
      "Ġrenk": 5209,
      "Ġdeparture": 5210,
      "Ġzeka": 5211,
      "know": 5212,
      "asit": 5213,
      "iding": 5214,
      "Ġ92": 5215,
      "Ä±nÄ±zla": 5216,
      "ĠÃ¶nÃ¼nde": 5217,
      "Ġgez": 5218,
      "ĠolduÄŁun": 5219,
      "908": 5220,
      "iyat": 5221,
      "dÄ±ÄŁÄ±nda": 5222,
      "Ġcalls": 5223,
      "Ġruh": 5224,
      "rop": 5225,
      "sad": 5226,
      "Ġsoon": 5227,
      "see": 5228,
      "ĠkalÄ±n": 5229,
      "ards": 5230,
      "Ġphra": 5231,
      "Ġbookings": 5232,
      "laÅŁma": 5233,
      "ĠiletiÅŁimi": 5234,
      "ĠdoÄŁrusu": 5235,
      "904": 5236,
      "Ġappro": 5237,
      "Ġhayal": 5238,
      "Ġkonuya": 5239,
      "Ġconcepts": 5240,
      "Ġreacting": 5241,
      "Ġfeedback": 5242,
      "Ġunnecessary": 5243,
      "uyarak": 5244,
      "inle": 5245,
      "ravel": 5246,
      "Ġora": 5247,
      "Ġins": 5248,
      "ĠÄ°ki": 5249,
      "Ġdeals": 5250,
      "lerinize": 5251,
      "ĠbahÃ§eye": 5252,
      "902": 5253,
      "Ġdefining": 5254,
      "dÄ±ÄŁÄ±nÄ±zÄ±": 5255,
      "Ġcategories": 5256,
      "Ġhikaye": 5257,
      "Ġisterseniz": 5258,
      "iyi": 5259,
      "uss": 5260,
      "way": 5261,
      "Ġgreat": 5262,
      "Ġemer": 5263,
      "ĠBunun": 5264,
      "Ġstops": 5265,
      "ential": 5266,
      "Ġbulup": 5267,
      "Ġyazmak": 5268,
      "Ġsonuna": 5269,
      "ĠÃ§ekin": 5270,
      "ĠodaklÄ±": 5271,
      "lantÄ±": 5272,
      "901": 5273,
      "903": 5274,
      "Ġafterward": 5275,
      "meyen": 5276,
      "Ġskills": 5277,
      "Ġintentional": 5278,
      "Ġexchange": 5279,
      "ĠayÄ±rarak": 5280,
      "Ġencourage": 5281,
      "hoto": 5282,
      "iyorum": 5283,
      "text": 5284,
      "ĠDil": 5285,
      "Ġgather": 5286,
      "Ġlistel": 5287,
      "Ġhedefle": 5288,
      "131": 5289,
      "Ġdiscuss": 5290,
      "Ġkelimeyi": 5291,
      "ĠsÃ¼reÃ§te": 5292,
      "ĠSpend": 5293,
      "Ġsebz": 5294,
      "sadece": 5295,
      "fak": 5296,
      "Ä±yorsanÄ±z": 5297,
      "Ġnaz": 5298,
      "ĠMayÄ±": 5299,
      "Ġnecess": 5300,
      "ĠOk": 5301,
      "idden": 5302,
      "ĠkullanÄ±l": 5303,
      "ĠgeÃ§iÅŁ": 5304,
      "ĠyÃ¶ntemi": 5305,
      "ĠyÃ¼rÃ¼me": 5306,
      "tÄ±racak": 5307,
      "Ġbarrier": 5308,
      "Ġattempting": 5309,
      "Ġreinforce": 5310,
      "Ġcity": 5311,
      "ĠMay": 5312,
      "Ġphysically": 5313,
      "Ġtelefonunuzda": 5314,
      "Ġlimits": 5315,
      "Ġgitmek": 5316,
      "Ġroutes": 5317,
      "ĠfÄ±rsa": 5318,
      "Ġtemper": 5319,
      "mini": 5320,
      "tÃ¼": 5321,
      "arp": 5322,
      "Ġ62": 5323,
      "Ġacknow": 5324,
      "ĠOnce": 5325,
      "Ġkitaplar": 5326,
      "Ġdonate": 5327,
      "Ġbakarak": 5328,
      "Ġalacak": 5329,
      "ĠartÄ±rÄ±n": 5330,
      "lÄ±ÄŁÄ±na": 5331,
      "Ġziyaret": 5332,
      "Ġtesting": 5333,
      "Ġtarz": 5334,
      "ĠkayÄ±": 5335,
      "esinde": 5336,
      "ĠadÄ±mÄ±n": 5337,
      "Ġmetin": 5338,
      "Ġorder": 5339,
      "Ġworry": 5340,
      "Ġelinizdeki": 5341,
      "ĠhÄ±zlandÄ±r": 5342,
      "ĠÃ§Ã¶zmek": 5343,
      "Ġcuri": 5344,
      "ĠulaÅŁmak": 5345,
      "ĠyÃ¼ksel": 5346,
      "Ġdrawers": 5347,
      "ĠaÅŁaÄŁÄ±daki": 5348,
      "Ġyolculuk": 5349,
      "Ġappointment": 5350,
      "Ġexpenses": 5351,
      "Ben": 5352,
      "GÃ¼n": 5353,
      "not": 5354,
      "inking": 5355,
      "Ġgently": 5356,
      "Ġbirbir": 5357,
      "abin": 5358,
      "Ġstra": 5359,
      "Ġreason": 5360,
      "enty": 5361,
      "ĠÃ¶nerilir": 5362,
      "Ġart": 5363,
      "ĠyÃ¼zmeye": 5364,
      "andÄ±r": 5365,
      "ĠkiÅŁisel": 5366,
      "Ġboundary": 5367,
      "Ġegzersizi": 5368,
      "ĠHaftanÄ±n": 5369,
      "Ġlimit": 5370,
      "Ġstratej": 5371,
      "Ġlittle": 5372,
      "Use": 5373,
      "bi": 5374,
      "lus": 5375,
      "yet": 5376,
      "ons": 5377,
      "Ġhang": 5378,
      "areket": 5379,
      "Ġjourney": 5380,
      "Ġolabilirim": 5381,
      "Ġsaniy": 5382,
      "Ġbelirlemektir": 5383,
      "ĠolmadÄ±ÄŁÄ±nÄ±": 5384,
      "Ġziyade": 5385,
      "fer": 5386,
      "Ġpati": 5387,
      "Ġkan": 5388,
      "Ġkum": 5389,
      "Ġdok": 5390,
      "ayla": 5391,
      "ĠuÄŁ": 5392,
      "icul": 5393,
      "ĠzamanÄ±nÄ±zÄ±": 5394,
      "Ġlez": 5395,
      "Ġsafe": 5396,
      "Ġkalit": 5397,
      "ĠKÄ±sa": 5398,
      "Ġoverall": 5399,
      "Ġsormak": 5400,
      "ĠyÃ¼zer": 5401,
      "209": 5402,
      "Ġsuya": 5403,
      "Ġkayda": 5404,
      "Ġitineraries": 5405,
      "ĠalanlarÄ±": 5406,
      "ĠnetleÅŁtirin": 5407,
      "ĠdetaylarÄ±": 5408,
      "Ġhobbies": 5409,
      "ĠkaÄŁÄ±t": 5410,
      "Ġarrive": 5411,
      "Ġchores": 5412,
      "Ġridicul": 5413,
      "Ġfiziksel": 5414,
      "Ġnazik": 5415,
      "Ġtemperature": 5416,
      "com": 5417,
      "inci": 5418,
      "Ġcabin": 5419,
      "alt": 5420,
      "Ġkod": 5421,
      "unting": 5422,
      "Ġstabil": 5423,
      "Ġretention": 5424,
      "Ã¼zen": 5425,
      "ackle": 5426,
      "Ġstepping": 5427,
      "anÄ±p": 5428,
      "Ġrelaxation": 5429,
      "ĠulaÅŁÄ±m": 5430,
      "ĠÄ±sÄ±": 5431,
      "ĠMayÄ±s": 5432,
      "gest": 5433,
      "ially": 5434,
      "uct": 5435,
      "Ġsli": 5436,
      "Ġyola": 5437,
      "ĠTeach": 5438,
      "Ġrema": 5439,
      "Ġtrash": 5440,
      "Ġetme": 5441,
      "Ġ172": 5442,
      "ĠaÃ§Ä±n": 5443,
      "pecially": 5444,
      "ĠazaltÄ±n": 5445,
      "Ġaccessible": 5446,
      "Ġgestures": 5447,
      "mut": 5448,
      "Ġsm": 5449,
      "Ġtab": 5450,
      "Ġwhy": 5451,
      "Ġyazar": 5452,
      "Ġ162": 5453,
      "Ġoturum": 5454,
      "309": 5455,
      "kincisi": 5456,
      "Ġinceleyin": 5457,
      "ĠvÃ¼cudunuzun": 5458,
      "Ġoblig": 5459,
      "ĠkeÅŁf": 5460,
      "Ġminimize": 5461,
      "Ġvalidating": 5462,
      "ĠbunlarÄ±": 5463,
      "Ġsince": 5464,
      "ĠyazÄ±lÄ±m": 5465,
      "Ġexpectations": 5466,
      "Ġslots": 5467,
      "Ġapproach": 5468,
      "anlÄ±k": 5469,
      "Ġcontext": 5470,
      "Ġidentify": 5471,
      "ĠbaÅŁlÄ±k": 5472,
      "Ġkons": 5473,
      "Ã¼rÃ¼n": 5474,
      "Ġfees": 5475,
      "oling": 5476,
      "Ġdaunting": 5477,
      "leyici": 5478,
      "104": 5479,
      "Ġworks": 5480,
      "ĠgeliÅŁ": 5481,
      "ĠGÃ¼ne": 5482,
      "ĠaÃ§Ä±p": 5483,
      "Ġrepeated": 5484,
      "ĠazalÄ±r": 5485,
      "Ġcount": 5486,
      "Ġespecially": 5487,
      "ĠyaÅŁayan": 5488,
      "Ġcategory": 5489,
      "Ġversus": 5490,
      "Create": 5491,
      "ĠÃ¼re": 5492,
      "Ã¼le": 5493,
      "les": 5494,
      "ĠOne": 5495,
      "Ġyerinizi": 5496,
      "ĠWork": 5497,
      "ĠolduÄŁunuzu": 5498,
      "elerden": 5499,
      "Ġgereksiz": 5500,
      "ĠKendinize": 5501,
      "ĠkolayÄ±": 5502,
      "Ġexplain": 5503,
      "Ġridiculously": 5504,
      "work": 5505,
      "ĠYoga": 5506,
      "ĠgÃ¼zel": 5507,
      "Ġeyle": 5508,
      "Ġkutudaki": 5509,
      "most": 5510,
      "Ġizleyin": 5511,
      "ĠgÃ¶revlerinizi": 5512,
      "Ġcomput": 5513,
      "larÄ±nÄ±zÄ±n": 5514,
      "ĠkatÄ±l": 5515,
      "Ġilerlemenizi": 5516,
      "ĠmÃ¼mkÃ¼nse": 5517,
      "Ġresistance": 5518,
      "meli": 5519,
      "Ġbild": 5520,
      "Ġhidden": 5521,
      "ĠÄ°Ã§": 5522,
      "Ġyapar": 5523,
      "Ġlog": 5524,
      "809": 5525,
      "Ġcevab": 5526,
      "ucing": 5527,
      "ĠistediÄŁin": 5528,
      "acaÄŁÄ±nÄ±zÄ±": 5529,
      "Ġunutma": 5530,
      "ĠpaylaÅŁÄ±n": 5531,
      "Ġplaces": 5532,
      "Ġsolutions": 5533,
      "ĠfaydalÄ±": 5534,
      "bal": 5535,
      "uoling": 5536,
      "Ġstim": 5537,
      "Ġbaz": 5538,
      "ĠBugÃ¼n": 5539,
      "ĠBefore": 5540,
      "atory": 5541,
      "Ġkonak": 5542,
      "Ġseti": 5543,
      "leyecek": 5544,
      "108": 5545,
      "109": 5546,
      "Ġkoyarak": 5547,
      "Ġgelir": 5548,
      "ĠKendinizi": 5549,
      "Ġengaged": 5550,
      "ĠuÄŁra": 5551,
      "uolingo": 5552,
      "ral": 5553,
      "sal": 5554,
      "vÄ±": 5555,
      "Ġpair": 5556,
      "ĠTravel": 5557,
      "ĠanÄ±": 5558,
      "ĠÃ¶zen": 5559,
      "ĠÅŁekli": 5560,
      "Ġbekl": 5561,
      "Ġtemizleyin": 5562,
      "Ġbehaviors": 5563,
      "lÃ¼ÄŁ": 5564,
      "ĠBelirli": 5565,
      "nden": 5566,
      "Ġpast": 5567,
      "Ġslight": 5568,
      "ĠayÄ±nda": 5569,
      "ĠbeÅŁ": 5570,
      "Ġforget": 5571,
      "ĠÃ¶nerim": 5572,
      "ider": 5573,
      "ides": 5574,
      "Ġwilling": 5575,
      "ĠyerleÅŁ": 5576,
      "larÄ±ndan": 5577,
      "102": 5578,
      "ĠdÃ¼ÅŁÃ¼nd": 5579,
      "Ġpeak": 5580,
      "ension": 5581,
      "Ġmuh": 5582,
      "ĠFriends": 5583,
      "Ġproductive": 5584,
      "ĠKonuÅŁ": 5585,
      "ĠuyandÄ±ktan": 5586,
      "ndle": 5587,
      "Ġsending": 5588,
      "usted": 5589,
      "met": 5590,
      "ĠTackle": 5591,
      "acÄ±": 5592,
      "unlu": 5593,
      "lim": 5594,
      "ĠadÄ±mdÄ±r": 5595,
      "Ġvi": 5596,
      "ĠÅŁudur": 5597,
      "evap": 5598,
      "107": 5599,
      "tÄ±rarak": 5600,
      "ĠÃ¶ÄŁrenmeyi": 5601,
      "Ġmotivasyonu": 5602,
      "Ġsuppress": 5603,
      "Ġstatement": 5604,
      "ebilirim": 5605,
      "ĠgÃ¶sterin": 5606,
      "Ġhayatta": 5607,
      "Ã¼ÄŁÃ¼nÃ¼z": 5608,
      "Ġsearching": 5609,
      "Ġfrustrated": 5610,
      "ĠGÃ¶rev": 5611,
      "Ġpiles": 5612,
      "Ġjumping": 5613,
      "emm": 5614,
      "ĠEkim": 5615,
      "Ġmar": 5616,
      "Ġmapping": 5617,
      "Ġeat": 5618,
      "Ġeyes": 5619,
      "larÄ±nÄ±n": 5620,
      "edin": 5621,
      "Ġverilen": 5622,
      "Ġjo": 5623,
      "Ġplanlam": 5624,
      "Ġhaven": 5625,
      "101": 5626,
      "105": 5627,
      "304": 5628,
      "880": 5629,
      "825": 5630,
      "829": 5631,
      "Ġprice": 5632,
      "Ġalana": 5633,
      "Ġbiggest": 5634,
      "Ġspaced": 5635,
      "Ġhalinde": 5636,
      "Ġnoktal": 5637,
      "Ġderinlemesine": 5638,
      "Ġduration": 5639,
      "ĠNumarasÄ±": 5640,
      "Ġlik": 5641,
      "Ġplay": 5642,
      "Ġyes": 5643,
      "Ġdah": 5644,
      "ayg": 5645,
      "ĠMev": 5646,
      "Ġjar": 5647,
      "305": 5648,
      "205": 5649,
      "208": 5650,
      "ĠFind": 5651,
      "324": 5652,
      "805": 5653,
      "Ġdeeper": 5654,
      "Ġopini": 5655,
      "ĠInvite": 5656,
      "Ġseviyesini": 5657,
      "ĠHafta": 5658,
      "ĠyorgunluÄŁ": 5659,
      "ĠeÅŁyalar": 5660,
      "Ġbecer": 5661,
      "Ġentry": 5662,
      "Ġpower": 5663,
      "Ġkil": 5664,
      "Ġstruct": 5665,
      "ĠPM": 5666,
      "dev": 5667,
      "106": 5668,
      "203": 5669,
      "Ġweekend": 5670,
      "329": 5671,
      "808": 5672,
      "elerin": 5673,
      "acaÄŁÄ±nÄ±z": 5674,
      "Ä±lacak": 5675,
      "ĠaÄŁaÃ§": 5676,
      "Ġhuzurlu": 5677,
      "ĠSÃ¼rekli": 5678,
      "ĠhiÃ§bir": 5679,
      "Ġsubject": 5680,
      "Ġnodding": 5681,
      "Ġnecessary": 5682,
      "Ġstabilize": 5683,
      "Can": 5684,
      "dik": 5685,
      "Ġalig": 5686,
      "Ġbis": 5687,
      "Ġbes": 5688,
      "fully": 5689,
      "layacak": 5690,
      "ĠKullan": 5691,
      "308": 5692,
      "Ġetmeniz": 5693,
      "322": 5694,
      "821": 5695,
      "ĠsÃ¼resini": 5696,
      "ĠÃ¶zellikle": 5697,
      "ĠÃ§ekim": 5698,
      "ĠÃ¶ncelikli": 5699,
      "Ġsitting": 5700,
      "Ġslightly": 5701,
      "Go": 5702,
      "ben": 5703,
      "gage": 5704,
      "Ġtension": 5705,
      "resh": 5706,
      "ĠBun": 5707,
      "ĠAÅŁ": 5708,
      "Ġsoft": 5709,
      "Ġreally": 5710,
      "**,": 5711,
      "uture": 5712,
      "ĠÃĸz": 5713,
      "Ġcancel": 5714,
      "ĠbaÅŁlayabilir": 5715,
      "307": 5716,
      "201": 5717,
      "Ġetti": 5718,
      "885": 5719,
      "325": 5720,
      "326": 5721,
      "ĠokumayÄ±": 5722,
      "824": 5723,
      "ĠalÄ±ÅŁkanlÄ±ÄŁ": 5724,
      "ĠaracÄ±": 5725,
      "Ġgerekecek": 5726,
      "lenen": 5727,
      "Ġindirin": 5728,
      "Ġbelirlemeniz": 5729,
      "Ġvadeli": 5730,
      "What": 5731,
      "kÃ¼Ã§Ã¼k": 5732,
      "ĠAc": 5733,
      "Ġbeats": 5734,
      "ined": 5735,
      "ĠnumaranÄ±z": 5736,
      "malarÄ±": 5737,
      "ĠyÃ¼rÃ¼yÃ¼n": 5738,
      "303": 5739,
      "204": 5740,
      "207": 5741,
      "Ġnoise": 5742,
      "888": 5743,
      "321": 5744,
      "327": 5745,
      "804": 5746,
      "826": 5747,
      "Ġarada": 5748,
      "Ġlowers": 5749,
      "Ġunderstands": 5750,
      "Ġaccusing": 5751,
      "ĠkapalÄ±": 5752,
      "Ġbekleyin": 5753,
      "Ġgetirin": 5754,
      "ĠgerektiÄŁini": 5755,
      "Ġappointments": 5756,
      "Ġpatter": 5757,
      "Ġmultitasking": 5758,
      "eet": 5759,
      "Ãĩ": 5760,
      "Ġnor": 5761,
      "Ġfuture": 5762,
      "ahÃ§": 5763,
      "ĠkÄ±sÄ±t": 5764,
      "Ġkonular": 5765,
      "ĠÃ¶nerisi": 5766,
      "ĠzorluÄŁ": 5767,
      "Ġatarak": 5768,
      "103": 5769,
      "301": 5770,
      "306": 5771,
      "202": 5772,
      "206": 5773,
      "unuzdan": 5774,
      "328": 5775,
      "801": 5776,
      "823": 5777,
      "tadÄ±r": 5778,
      "Ġpriority": 5779,
      "Ġuygulamaya": 5780,
      "Ġetmektir": 5781,
      "Ġtarif": 5782,
      "ĠBelki": 5783,
      "Ġrefle": 5784,
      "ĠkaynaÄŁÄ±": 5785,
      "Ġnearby": 5786,
      "ĠHayat": 5787,
      "Ġpaper": 5788,
      "gon": 5789,
      "Ġbri": 5790,
      "elere": 5791,
      "Ġfam": 5792,
      "esine": 5793,
      "Ġreh": 5794,
      "ĠadÄ±mÄ±nÄ±": 5795,
      "ĠyapabileceÄŁiniz": 5796,
      "ĠÃ¶ncesi": 5797,
      "302": 5798,
      "881": 5799,
      "883": 5800,
      "886": 5801,
      "323": 5802,
      "803": 5803,
      "806": 5804,
      "827": 5805,
      "aÄŁa": 5806,
      "409": 5807,
      "shop": 5808,
      "ĠtemizliÄŁi": 5809,
      "Ġdelay": 5810,
      "ĠbaÅŁlangÄ±c": 5811,
      "licit": 5812,
      "Ġincrease": 5813,
      ".'": 5814,
      "Set": 5815,
      "xim": 5816,
      "titu": 5817,
      "alan": 5818,
      "leas": 5819,
      "ĠyalnÄ±z": 5820,
      "ysanÄ±z": 5821,
      "ersiniz": 5822,
      "Ġark": 5823,
      "884": 5824,
      "802": 5825,
      "822": 5826,
      "828": 5827,
      "ions": 5828,
      "ĠolduÄŁuna": 5829,
      "Ġgerektir": 5830,
      "Ġilerle": 5831,
      "Ġdeciding": 5832,
      "Ġreaching": 5833,
      "ĠAÄŁust": 5834,
      "Avoid": 5835,
      "Ġsust": 5836,
      "ĠEat": 5837,
      "Ġstating": 5838,
      "ĠgÃ¼nler": 5839,
      "Ġrush": 5840,
      "Ġfear": 5841,
      "ilebilir": 5842,
      "celi": 5843,
      "882": 5844,
      "887": 5845,
      "807": 5846,
      "Ġkurul": 5847,
      "ĠÃ¶zg": 5848,
      "Ġhareketleri": 5849,
      "Ġgidip": 5850,
      "Ġbulunan": 5851,
      "ĠsÃ¼rdÃ¼r": 5852,
      "luluk": 5853,
      "Ġbisik": 5854,
      "Ġfore": 5855,
      "lation": 5856,
      "lict": 5857,
      "Ġmovi": 5858,
      "Ġolaca": 5859,
      "Ġdille": 5860,
      "ĠbaÅŁlamayÄ±": 5861,
      "Ġaktif": 5862,
      "ĠyÃ¶nelik": 5863,
      "Ġcommitments": 5864,
      "ĠyapÄ±sÄ±nÄ±": 5865,
      "ĠUyk": 5866,
      "Ġhappy": 5867,
      "Ġintense": 5868,
      "ĠÃ¶nceliklendir": 5869,
      "Ġdeadline": 5870,
      "Ġsearch": 5871,
      "aygÄ±n": 5872,
      "Ġnormal": 5873,
      "erken": 5874,
      "uge": 5875,
      "ĠiÃ§erek": 5876,
      "ĠgÃ¼ne": 5877,
      "ĠÄ°kincisi": 5878,
      "Ġyapmam": 5879,
      "Ġanlamaya": 5880,
      "ĠplanlÄ±": 5881,
      "Ġseven": 5882,
      "check": 5883,
      "Ġalmost": 5884,
      "Ġfriendships": 5885,
      "Ġnotice": 5886,
      "ĠFr": 5887,
      "night": 5888,
      "elerini": 5889,
      "ĠhaftalÄ±k": 5890,
      "Ġgarden": 5891,
      "ĠolmasÄ±nÄ±": 5892,
      "ĠolanÄ±": 5893,
      "ĠtÃ¼rden": 5894,
      "Ġconflict": 5895,
      "Ġrutini": 5896,
      "Ġinitially": 5897,
      "Ġcategorize": 5898,
      "Ġtidying": 5899,
      "ĠÃ¶ÄŁleden": 5900,
      "Ġmissing": 5901,
      "Ġkavram": 5902,
      "ĠharitasÄ±": 5903,
      "Ġsignificantly": 5904,
      "top": 5905,
      "Ġmix": 5906,
      "Ġstoring": 5907,
      "Ġ200": 5908,
      "ĠbaÅŁÄ±nÄ±za": 5909,
      "Ġyazarak": 5910,
      "Ġsuda": 5911,
      "ĠgeÃ§miÅŁ": 5912,
      "ĠkonuÅŁmalar": 5913,
      "ĠuygulamalarÄ±": 5914,
      "ĠÄ±s": 5915,
      "...\")": 5916,
      "Ġhiking": 5917,
      "ĠkolaylaÅŁtÄ±rmak": 5918,
      "hotoshop": 5919,
      "Ġstructure": 5920,
      "Sadece": 5921,
      "kward": 5922,
      "erti": 5923,
      "Ġpa": 5924,
      "Ã¼yor": 5925,
      "urn": 5926,
      "vest": 5927,
      "Ġfla": 5928,
      "ĠiÃ§i": 5929,
      "olog": 5930,
      "oci": 5931,
      "bilirsin": 5932,
      "Ä±ldÄ±": 5933,
      "ĠyÃ¶ntemdir": 5934,
      "Ġconfus": 5935,
      "Ġtakv": 5936,
      "ĠErken": 5937,
      "ĠaydÄ±rdÄ±": 5938,
      "Ġparaphrasing": 5939,
      "Ġprati": 5940,
      "Ġgrate": 5941,
      "ÄŁe": 5942,
      "Ã¶yle": 5943,
      "lerken": 5944,
      "old": 5945,
      "ups": 5946,
      "cies": 5947,
      "229": 5948,
      "ĠÅŁeyin": 5949,
      "siyon": 5950,
      "rack": 5951,
      "Ġawkward": 5952,
      "Ġhareketi": 5953,
      "ĠsaÄŁlayan": 5954,
      "Ġobs": 5955,
      "Ġobject": 5956,
      "Ġswims": 5957,
      "ĠiÃ§eren": 5958,
      "Ġindirip": 5959,
      "Ġmalzemeleri": 5960,
      "Ġcontinue": 5961,
      "Ġjargon": 5962,
      "Ġgrateful": 5963,
      "ame": 5964,
      "Ġtu": 5965,
      "Ġtuz": 5966,
      "ounda": 5967,
      "Ġdizi": 5968,
      "Ġfounda": 5969,
      "umlu": 5970,
      "ÄŁine": 5971,
      "ĠSÄ±k": 5972,
      "Ġbey": 5973,
      "ĠayÄ±rt": 5974,
      "enizin": 5975,
      "Ġistiyor": 5976,
      "ored": 5977,
      "ĠKayÄ±t": 5978,
      "Ġtrips": 5979,
      "609": 5980,
      "709": 5981,
      "Ġcommitment": 5982,
      "Ġmessy": 5983,
      "Ġhissetti": 5984,
      "Ġhissetmeye": 5985,
      "ĠsÄ±kÄ±cÄ±": 5986,
      "Ġassoci": 5987,
      "Ġdikkatli": 5988,
      "ĠyaÅŁa": 5989,
      "Ġpassively": 5990,
      "Ġamount": 5991,
      "Ġavailable": 5992,
      "Ġdefteri": 5993,
      "iliar": 5994,
      "Ġdahil": 5995,
      "eÃ§": 5996,
      "ned": 5997,
      "yÄ±m": 5998,
      "isidir": 5999,
      "Ġdiz": 6000,
      "temelen": 6001,
      "Ġmist": 6002,
      "Ġsomut": 6003,
      "omatik": 6004,
      "889": 6005,
      "Ġworkday": 6006,
      "Ġsaatlerinizi": 6007,
      "ĠÃĸncelik": 6008,
      "Ġistek": 6009,
      "509": 6010,
      "704": 6011,
      "Ġimpul": 6012,
      "Ġhaline": 6013,
      "Ġformulating": 6014,
      "Ġinitiating": 6015,
      "Ġyorgunluk": 6016,
      "Ġduygusal": 6017,
      "ĠsÃ¼recini": 6018,
      "ĠÅŁeklinde": 6019,
      "Ġlikely": 6020,
      "ĠAÄŁustos": 6021,
      "can": 6022,
      "eak": 6023,
      "ism": 6024,
      "alama": 6025,
      "ÄŁa": 6026,
      "ĠÃ¶nerileri": 6027,
      "Ġtrusted": 6028,
      "Ġdeneyerek": 6029,
      "Ġkolayca": 6030,
      "ĠÃĸnceki": 6031,
      "abilecek": 6032,
      "Ġpopular": 6033,
      "Ġonunla": 6034,
      "ĠamaÃ§la": 6035,
      "ĠparÃ§alara": 6036,
      "Ġnedeni": 6037,
      "Ġupdates": 6038,
      "Ġkafa": 6039,
      "One": 6040,
      "cu": 6041,
      "Ġoto": 6042,
      "Ġpil": 6043,
      "Ġport": 6044,
      "orm": 6045,
      "ĠyaygÄ±n": 6046,
      "Ġmas": 6047,
      "Ġcome": 6048,
      "Ġvo": 6049,
      "Ġkalma": 6050,
      "ĠAyda": 6051,
      "ĠyÃ¼rÃ¼yÃ¼ÅŁÃ¼": 6052,
      "Ġcompletion": 6053,
      "ĠsaÄŁlamak": 6054,
      "408": 6055,
      "Ġaccount": 6056,
      "ĠMotivasyon": 6057,
      "Ġizlemek": 6058,
      "Ġshows": 6059,
      "ĠbÃ¶lÃ¼n": 6060,
      "Ġrefresh": 6061,
      "Ġdisrupt": 6062,
      "Ġcombat": 6063,
      "Eat": 6064,
      "habit": 6065,
      "kt": 6066,
      "pr": 6067,
      "isf": 6068,
      "Ġsul": 6069,
      "ĠEvet": 6070,
      "Ġfar": 6071,
      "ĠBasit": 6072,
      "Ġshower": 6073,
      "uyg": 6074,
      "ĠfotoÄŁrafÄ±": 6075,
      "portun": 6076,
      "ĠdoÄŁa": 6077,
      "Ġtempt": 6078,
      "Ġreducing": 6079,
      "Ġopportun": 6080,
      "Ġenerjinizi": 6081,
      "Ãĸner": 6082,
      "Ġmaxim": 6083,
      "ĠaraÃ§larÄ±": 6084,
      "Ġmedya": 6085,
      "Ġdisrupts": 6086,
      "Ġengaging": 6087,
      "Ġtavsiy": 6088,
      "ĠbÃ¼tÃ§enizi": 6089,
      "ĠtÃ¼ket": 6090,
      "Ġlezzet": 6091,
      "Ġbildirim": 6092,
      "Ġtuval": 6093,
      "App": 6094,
      "Durum": 6095,
      "break": 6096,
      "oz": 6097,
      "ises": 6098,
      "Ġtou": 6099,
      "cept": 6100,
      "Ġmask": 6101,
      "ĠBatch": 6102,
      "Ġinerti": 6103,
      "aten": 6104,
      "asÄ±n": 6105,
      "Ã¼kemm": 6106,
      "ayÄ±f": 6107,
      "ayÄ±m": 6108,
      "Ġveren": 6109,
      "Ġresearch": 6110,
      "thinking": 6111,
      "ters": 6112,
      "Ġ48": 6113,
      "Ġalso": 6114,
      "ĠbaÅŁlayabilirsin": 6115,
      "Ġettir": 6116,
      "ĠÃ§ekmeye": 6117,
      "Ġinteres": 6118,
      "504": 6119,
      "705": 6120,
      "ĠnetleÅŁtir": 6121,
      "Ġortadan": 6122,
      "Ġrelated": 6123,
      "ĠgerÃ§ekleÅŁ": 6124,
      "Ġkaynat": 6125,
      "Ġbitirin": 6126,
      "Ġconcent": 6127,
      "ĠolduÄŁunca": 6128,
      "ĠMevcut": 6129,
      "Ġinertia": 6130,
      "Not": 6131,
      "masÄ±na": 6132,
      "wake": 6133,
      "Ġ$": 6134,
      "racak": 6135,
      "Ġnut": 6136,
      "ÅŁe": 6137,
      "lasik": 6138,
      "ĠgÃ¼nlerde": 6139,
      "ĠÄ°ste": 6140,
      "Ġlun": 6141,
      "ĠÃ¶nlemek": 6142,
      "Ġhedefinize": 6143,
      "228": 6144,
      "tedir": 6145,
      "Ġexpand": 6146,
      "ĠodaklanÄ±p": 6147,
      "607": 6148,
      "231": 6149,
      "Ġlose": 6150,
      "ĠdÃ¼ÅŁÃ¼nce": 6151,
      "Ġdinner": 6152,
      "osing": 6153,
      "Ġaddress": 6154,
      "larÄ±nÄ±za": 6155,
      "ĠkitabÄ±n": 6156,
      "ĠiÃ§erik": 6157,
      "Ġaktiviteleri": 6158,
      "ĠTelefonu": 6159,
      "Ġsatisf": 6160,
      "ĠsÃ¶yleyin": 6161,
      "olute": 6162,
      "Ġabsolute": 6163,
      "you": 6164,
      "ĠÃ¼rÃ¼n": 6165,
      "Ä±ndaki": 6166,
      "reci": 6167,
      "ĠkÄ±r": 6168,
      "ilere": 6169,
      "uma": 6170,
      "ĠbeÄŁ": 6171,
      "ĠGÃ¶r": 6172,
      "ĠBundle": 6173,
      "eceÄŁiniz": 6174,
      "ĠgÃ¶ÄŁ": 6175,
      "Ġworri": 6176,
      "Ġyerinde": 6177,
      "009": 6178,
      "celer": 6179,
      "Ġkendiniz": 6180,
      "222": 6181,
      "224": 6182,
      "225": 6183,
      "226": 6184,
      "Ġelinizde": 6185,
      "ĠbaÅŁlamalÄ±sÄ±nÄ±z": 6186,
      "Ġkuru": 6187,
      "ĠdÃ¼zenleyin": 6188,
      "Ġappreci": 6189,
      "ĠuygulamayÄ±": 6190,
      "ĠoluÅŁturur": 6191,
      "Ġhareketler": 6192,
      "Ġyetenek": 6193,
      "osity": 6194,
      "Ġairlines": 6195,
      "bbing": 6196,
      "ĠbahÃ§enize": 6197,
      "Ġmakinesini": 6198,
      "Ġistersiniz": 6199,
      "ĠÃĸneri": 6200,
      "ĠTVs": 6201,
      "Ġnavigate": 6202,
      "ĠiÅŁlemi": 6203,
      "Ġmuhtemelen": 6204,
      "ĠFrog": 6205,
      "du": 6206,
      "miss": 6207,
      "Ġpod": 6208,
      "veya": 6209,
      "Ġfour": 6210,
      "active": 6211,
      "ĠanlÄ±": 6212,
      "ĠGÃ¼ven": 6213,
      "ept": 6214,
      "start": 6215,
      "sÄ±yla": 6216,
      "Ġresmi": 6217,
      "ĠdeÄŁerli": 6218,
      "Ġplanlamak": 6219,
      "mall": 6220,
      "ĠÃ¶ÄŁrenmenin": 6221,
      "402": 6222,
      "608": 6223,
      "505": 6224,
      "508": 6225,
      "Ġensures": 6226,
      "Ġyatmak": 6227,
      "mÄ±ÅŁtÄ±r": 6228,
      "Ġstopping": 6229,
      "Ġbulunur": 6230,
      "ĠÅŀimdi": 6231,
      "ĠyaptÄ±ÄŁÄ±nÄ±zÄ±": 6232,
      "ĠkiÅŁiyle": 6233,
      "ĠkarÅŁÄ±laÅŁacak": 6234,
      "ĠSoru": 6235,
      "Ġmonths": 6236,
      "ĠdÃ¼zelt": 6237,
      "ĠyumuÅŁak": 6238,
      "Ġbelirtilen": 6239,
      "dil": 6240,
      "Ã¼cut": 6241,
      "urance": 6242,
      "ecause": 6243,
      "ĠplanÄ±nÄ±": 6244,
      "ĠfotoÄŁrafÃ§Ä±": 6245,
      "000": 6246,
      "anÄ±za": 6247,
      "Ġworkout": 6248,
      "ĠeriÅŁ": 6249,
      "Ġtelefonla": 6250,
      "401": 6251,
      "405": 6252,
      "501": 6253,
      "702": 6254,
      "703": 6255,
      "uzu": 6256,
      "acaÄŁÄ±m": 6257,
      "Ġimproves": 6258,
      "Ġsites": 6259,
      "Ġcuriosity": 6260,
      "Ġkonaklama": 6261,
      "Pair": 6262,
      "pit": 6263,
      "pause": 6264,
      "suz": 6265,
      "va": 6266,
      "anti": 6267,
      "Ġclu": 6268,
      "endir": 6269,
      "Ġprefer": 6270,
      "ĠTrack": 6271,
      "ÄŁinize": 6272,
      "Ä±rsÄ±nÄ±z": 6273,
      "Ä±rsanÄ±z": 6274,
      "ndeki": 6275,
      "ĠyaÄŁ": 6276,
      "Ġbulmaya": 6277,
      "Ġspread": 6278,
      "Ġ143": 6279,
      "ĠyerleÅŁtir": 6280,
      "Ġsaatlerini": 6281,
      "221": 6282,
      "ĠkaydÄ±n": 6283,
      "tÄ±cÄ±": 6284,
      "Ġekleyip": 6285,
      "604": 6286,
      "605": 6287,
      "507": 6288,
      "708": 6289,
      "alarÄ±nÄ±": 6290,
      "Ġdinlemek": 6291,
      "diÄŁini": 6292,
      "Ġcompli": 6293,
      "Ġliving": 6294,
      "Ġtelefonunuzdaki": 6295,
      "ĠsaÄŁlayarak": 6296,
      "oÄŁu": 6297,
      "Ġfailure": 6298,
      "Ġvalidate": 6299,
      "tÄ±ÄŁÄ±nÄ±zda": 6300,
      "titude": 6301,
      "Ġpodcast": 6302,
      "Ġmekan": 6303,
      "mekle": 6304,
      "Ġneg": 6305,
      "Ġbuy": 6306,
      "223": 6307,
      "ĠsabahÄ±": 6308,
      "ĠdoÄŁrul": 6309,
      "elerle": 6310,
      "elerinizi": 6311,
      "lenmiÅŁ": 6312,
      "406": 6313,
      "407": 6314,
      "601": 6315,
      "602": 6316,
      "603": 6317,
      "503": 6318,
      "506": 6319,
      "706": 6320,
      "Ġawake": 6321,
      "Ġsorunun": 6322,
      "Ġknowledge": 6323,
      "ĠKendine": 6324,
      "ĠbaÅŁarÄ±lar": 6325,
      "ĠuyanÄ±ÅŁ": 6326,
      "Ġclarify": 6327,
      "ĠkurallarÄ±nÄ±": 6328,
      "ĠgÃ¶zlemleyin": 6329,
      "ĠduyduÄŁunuz": 6330,
      "Ġdraining": 6331,
      "Ġclub": 6332,
      "Merhaba": 6333,
      "Zaman": 6334,
      "cri": 6335,
      "gre": 6336,
      "veni": 6337,
      "anÄ±ÅŁ": 6338,
      "Ġblo": 6339,
      "ale": 6340,
      "usuna": 6341,
      "yse": 6342,
      "Ġ188": 6343,
      "Ġ189": 6344,
      "ĠuyanÄ±p": 6345,
      "Ġovercome": 6346,
      "Ġlists": 6347,
      "ĠyÃ¼zey": 6348,
      "Ġbahs": 6349,
      "227": 6350,
      "Ġexplicit": 6351,
      "404": 6352,
      "606": 6353,
      "502": 6354,
      "707": 6355,
      "Ġhissini": 6356,
      "Ġdedicating": 6357,
      "Ġgrabbing": 6358,
      "Ġtelefonunuza": 6359,
      "ĠConsistent": 6360,
      "Ġexperience": 6361,
      "Ġkutular": 6362,
      "Ġchoosing": 6363,
      "Ġnutri": 6364,
      "ules": 6365,
      "Ġikinci": 6366,
      "Ġdish": 6367,
      "Ġface": 6368,
      "acaÄŁÄ±": 6369,
      "ĠayrÄ±": 6370,
      "Ġstack": 6371,
      "Ġsoli": 6372,
      "ĠayÄ±rdÄ±ÄŁÄ±nÄ±": 6373,
      "ĠÃ§Ã¶": 6374,
      "Ġyerleri": 6375,
      "008": 6376,
      "ĠiÅŁin": 6377,
      "Ġduruma": 6378,
      "ĠdÃ¼ÅŁÃ¼k": 6379,
      "403": 6380,
      "701": 6381,
      "Ġconnectivity": 6382,
      "diÄŁin": 6383,
      "Ġsenary": 6384,
      "ĠgÃ¶revler": 6385,
      "Ġparal": 6386,
      "Ġinterrupt": 6387,
      "acaÄŁÄ±nÄ±": 6388,
      "larÄ±nÄ±zla": 6389,
      "Ġexercises": 6390,
      "Ġdecisions": 6391,
      "ĠeÅŁyalarÄ±": 6392,
      "Ġbenz": 6393,
      "Ġetkinlik": 6394,
      "Ġaccumulating": 6395,
      "Ġtwenty": 6396,
      "Ġslip": 6397,
      "Google": 6398,
      "Ġotob": 6399,
      "Ġsolid": 6400,
      "Do": 6401,
      "gÃ¶r": 6402,
      "tuÄŁ": 6403,
      "yan": 6404,
      "Ġbol": 6405,
      "ceed": 6406,
      "Ġdal": 6407,
      "ĠDÃ¼zen": 6408,
      "Ġwould": 6409,
      "asÄ±nÄ±n": 6410,
      "Ġrules": 6411,
      "ĠbaÅŁlatmak": 6412,
      "Ã¼ÅŁÃ¼n": 6413,
      "ĠÃ¶ÄŁÃ¼n": 6414,
      "Ġdurumunuzu": 6415,
      "ĠbaÅŁlamanÄ±zÄ±": 6416,
      "Ġyoldur": 6417,
      "Ġeklemek": 6418,
      "ĠgÃ¶rÃ¼nÃ¼": 6419,
      "ÄŁÄ±nÄ±zda": 6420,
      "ĠhazÄ±rlamak": 6421,
      "Ġolursa": 6422,
      "Ġhalf": 6423,
      "ĠboÅŁluk": 6424,
      "Ġtespit": 6425,
      "Ġfacts": 6426,
      "Ġkilit": 6427,
      "Ġmovie": 6428,
      "Ġvoice": 6429,
      "cting": 6430,
      "kes": 6431,
      "lilik": 6432,
      "ms": 6433,
      "sen": 6434,
      "yÃ¼z": 6435,
      "isin": 6436,
      "onu": 6437,
      "inct": 6438,
      "Ġsuy": 6439,
      "rete": 6440,
      "Ġhit": 6441,
      "around": 6442,
      "ĠBecause": 6443,
      "ĠSur": 6444,
      "lies": 6445,
      "Ġtip": 6446,
      "Ġyapmaktan": 6447,
      "ĠalmanÄ±z": 6448,
      "Ġkalp": 6449,
      "ĠKah": 6450,
      "ĠFin": 6451,
      "lights": 6452,
      "ĠÃ§alÄ±ÅŁarak": 6453,
      "249": 6454,
      "Ġtamamlamak": 6455,
      "Ġhata": 6456,
      "Ġazaltmak": 6457,
      "Ġreviewing": 6458,
      "Ġparkta": 6459,
      "Ġtarget": 6460,
      "ĠanlaÅŁÄ±lÄ±r": 6461,
      "ĠkÄ±smÄ±nÄ±": 6462,
      "imdilik": 6463,
      "Ã¼kemmel": 6464,
      "In": 6465,
      "keep": 6466,
      "of": 6467,
      "oot": 6468,
      "vis": 6469,
      "inÃ§": 6470,
      "res": 6471,
      "Ġconve": 6472,
      "tionally": 6473,
      "Ġ185": 6474,
      "Ġfiyat": 6475,
      "lated": 6476,
      "Ġneut": 6477,
      "Ġanswers": 6478,
      "ĠdeÄŁiÅŁtirmek": 6479,
      "Ġetmeyi": 6480,
      "Ġkullanabilirsiniz": 6481,
      "Ġelde": 6482,
      "Ġgerekebilir": 6483,
      "ĠkonuÅŁun": 6484,
      "Ġbigger": 6485,
      "menizdir": 6486,
      "Ġyakal": 6487,
      "ĠhoÅŁ": 6488,
      "Ġiyisidir": 6489,
      "landÄ±rma": 6490,
      "ĠuyandÄ±": 6491,
      "ĠbaskÄ±": 6492,
      "Ġconsider": 6493,
      "Ġwebsites": 6494,
      "Ġtype": 6495,
      "Ġinsurance": 6496,
      "Ġbisiklet": 6497,
      "gency": 6498,
      "nasÄ±l": 6499,
      "Ġsunu": 6500,
      "Ġrely": 6501,
      "ĠGen": 6502,
      "Ġonay": 6503,
      "Ġkonul": 6504,
      "Ã¼zik": 6505,
      "Ġ103": 6506,
      "ĠÃľ": 6507,
      "Ġyerlere": 6508,
      "uduÄŁ": 6509,
      "ĠsorularÄ±": 6510,
      "ĠettiÄŁiniz": 6511,
      "ĠdÃ¼zenlemek": 6512,
      "Ġspaces": 6513,
      "ĠhazÄ±rlan": 6514,
      "Ġmesajlar": 6515,
      "Ġvisually": 6516,
      "Ġsana": 6517,
      "abileceÄŁin": 6518,
      "Ġalanda": 6519,
      "ĠgeÃ§irmek": 6520,
      "Ġsamimiyet": 6521,
      "Ġconcer": 6522,
      "Ġconcrete": 6523,
      "Ġcolor": 6524,
      "Ġharcam": 6525,
      "ĠsoÄŁuk": 6526,
      "Ġinceleyerek": 6527,
      "ĠSurround": 6528,
      "gth": 6529,
      "ote": 6530,
      "Ġaff": 6531,
      "isine": 6532,
      "Ġtenc": 6533,
      "Ġklasik": 6534,
      "lease": 6535,
      "sam": 6536,
      "ĠYe": 6537,
      "Ġ187": 6538,
      "Ä±nca": 6539,
      "Ġadedi": 6540,
      "Ã¼nc": 6541,
      "Ġ212": 6542,
      "ĠMain": 6543,
      "ective": 6544,
      "str": 6545,
      "ĠkonularÄ±": 6546,
      "ĠÃ§ab": 6547,
      "oken": 6548,
      "Ġvs": 6549,
      "ĠvÃ¼cut": 6550,
      "Ġanlama": 6551,
      "ĠbaÅŁlatabilirsiniz": 6552,
      "ĠatÄ±ÅŁ": 6553,
      "ĠkalmayÄ±": 6554,
      "Ġlistesi": 6555,
      "anÄ±zda": 6556,
      "Ġkurt": 6557,
      "Ġfinal": 6558,
      "Ġdinlendir": 6559,
      "ĠbÄ±rakmak": 6560,
      "Ġbeklemek": 6561,
      "ebilirsin": 6562,
      "ÃĸrneÄŁin": 6563,
      "Ġidea": 6564,
      "ĠHafif": 6565,
      "Ġpassive": 6566,
      "soli": 6567,
      "Ġsinir": 6568,
      "Ġtotaling": 6569,
      "Ġkaybol": 6570,
      "Ġelectronics": 6571,
      "Ġacknowledge": 6572,
      "Ġflash": 6573,
      "Ġfoundation": 6574,
      "Ġlunch": 6575,
      "Ġneutral": 6576,
      "ĠMaintain": 6577,
      "Cevap": 6578,
      "How": 6579,
      "iyle": 6580,
      "sApp": 6581,
      "tÄ±ktan": 6582,
      "Ä±ÄŁÄ±": 6583,
      "Ġcent": 6584,
      "ĠEt": 6585,
      "Ġice": 6586,
      "Ä±rÄ±": 6587,
      "Ã¼ny": 6588,
      "ĠÃ¶dev": 6589,
      "ading": 6590,
      "mede": 6591,
      "ĠÃ¶neriye": 6592,
      "the": 6593,
      "Ġbura": 6594,
      "ĠiyileÅŁtirmek": 6595,
      "tiÅŁime": 6596,
      "ĠSabahÄ±n": 6597,
      "ĠalanÄ±nÄ±zÄ±": 6598,
      "ĠÃ¶zellik": 6599,
      "essential": 6600,
      "Ġdinleyin": 6601,
      "Ġrewarding": 6602,
      "Ġplanda": 6603,
      "Ġarrival": 6604,
      "Ġkaliteli": 6605,
      "Ġsustain": 6606,
      "Ġspreadsh": 6607,
      "gn": 6608,
      "minizi": 6609,
      "ĠÃ¼st": 6610,
      "Ġsens": 6611,
      "Ġign": 6612,
      "Ġnotlar": 6613,
      "Ġ186": 6614,
      "ugh": 6615,
      "chedule": 6616,
      "Ġ**\"": 6617,
      "005": 6618,
      "Ġstead": 6619,
      "Ġotomatik": 6620,
      "ĠÃ§alÄ±ÅŁan": 6621,
      "Ġdurumun": 6622,
      "Ġdurun": 6623,
      "Ġtrivi": 6624,
      "phone": 6625,
      "ĠsÄ±fÄ±r": 6626,
      "ĠbaÄŁlam": 6627,
      "Ġgratitude": 6628,
      "ĠÄ±ÅŁÄ±ÄŁÄ±nÄ±": 6629,
      "ĠvÃ¼cudun": 6630,
      "Ġduvara": 6631,
      "Ġdepends": 6632,
      "Ġbitkileri": 6633,
      "Ġmesafe": 6634,
      "Ã¼nden": 6635,
      "Ġsnacks": 6636,
      "ĠfÄ±rsat": 6637,
      "Ġmaruz": 6638,
      "Ġopportunities": 6639,
      "yoga": 6640,
      "insel": 6641,
      "related": 6642,
      "rating": 6643,
      "Ġyu": 6644,
      "Ġdele": 6645,
      "ĠTÃ¼m": 6646,
      "Ġmark": 6647,
      "lanacak": 6648,
      "ict": 6649,
      "ĠnumarasÄ±nÄ±": 6650,
      "ĠCÃ¼m": 6651,
      "Ġcha": 6652,
      "Ġrot": 6653,
      "ĠyazÄ±p": 6654,
      "ĠHareket": 6655,
      "layabilirsiniz": 6656,
      "ĠÃ¶nem": 6657,
      "ification": 6658,
      "Ġbelirtir": 6659,
      "ĠiyileÅŁ": 6660,
      "ĠfotoÄŁrafÄ±nÄ±zÄ±": 6661,
      "Ġdownload": 6662,
      "Ġyolda": 6663,
      "Ġdistinct": 6664,
      "ĠolduÄŁunda": 6665,
      "Ã¶zellikle": 6666,
      "Ġolmadan": 6667,
      "ĠtÃ¼rÃ¼nÃ¼": 6668,
      "ĠdÃ¼ÅŁÃ¼nmek": 6669,
      "mesine": 6670,
      "Ġgrand": 6671,
      "ĠpaylaÅŁmak": 6672,
      "ĠgÃ¶ndererek": 6673,
      "mamak": 6674,
      "Ġmemorize": 6675,
      "ĠSpeak": 6676,
      "Ġseferinde": 6677,
      "Ġtrivial": 6678,
      "Focus": 6679,
      "roc": 6680,
      "ĠyanÄ±": 6681,
      "sak": 6682,
      "urt": 6683,
      "Ġmen": 6684,
      "Ġgaps": 6685,
      "ĠkÄ±ya": 6686,
      "ade": 6687,
      "Ġveriler": 6688,
      "Ġyaprak": 6689,
      "Ġreserv": 6690,
      "amanÄ±z": 6691,
      "ike": 6692,
      "ĠbuluÅŁuyor": 6693,
      "Ġimkan": 6694,
      "Ġ121": 6695,
      "Ġbeli": 6696,
      "Ġdakikadan": 6697,
      "ĠfotoÄŁraflarÄ±": 6698,
      "003": 6699,
      "004": 6700,
      "006": 6701,
      "007": 6702,
      "portant": 6703,
      "ĠiÅŁinizi": 6704,
      "Ġnews": 6705,
      "ĠsabahÄ±n": 6706,
      "Ġistey": 6707,
      "azÄ±r": 6708,
      "Ġtelefonun": 6709,
      "ĠgÃ¶rd": 6710,
      "Ġlearns": 6711,
      "Ġland": 6712,
      "ounts": 6713,
      "Ġyani": 6714,
      "ĠuzaklaÅŁ": 6715,
      "fety": 6716,
      "ĠsevdiÄŁiniz": 6717,
      "Ġshoes": 6718,
      "ĠsÄ±rasÄ±nda": 6719,
      "Ġconsci": 6720,
      "Ġsituation": 6721,
      "Ġcabinet": 6722,
      "Ãĸneri": 6723,
      "ĠgÃ¶rÃ¼nÃ¼yor": 6724,
      "eys": 6725,
      "wor": 6726,
      "timi": 6727,
      "rame": 6728,
      "Ġneyi": 6729,
      "late": 6730,
      "Ġequ": 6731,
      "Ġstrugg": 6732,
      "Ġ43": 6733,
      "ĠHav": 6734,
      "Ġ108": 6735,
      "Ġevin": 6736,
      "ĠaralÄ±k": 6737,
      "Ġoverthinking": 6738,
      "001": 6739,
      "Ġedil": 6740,
      "ĠsÃ¼reyi": 6741,
      "ĠÅŁeyden": 6742,
      "Ġdeneyimi": 6743,
      "ĠyÃ¶nel": 6744,
      "Ġloop": 6745,
      "Ġeffici": 6746,
      "ĠayarlarÄ±nÄ±": 6747,
      "larÄ±nÄ±zda": 6748,
      "ynam": 6749,
      "Ġteknikleri": 6750,
      "Ġempt": 6751,
      "Ġnavigation": 6752,
      "Ġincelemek": 6753,
      "cks": 6754,
      "ham": 6755,
      "telefon": 6756,
      "Ġpleas": 6757,
      "Ġsuyla": 6758,
      "ories": 6759,
      "ĠTreat": 6760,
      "ĠzayÄ±f": 6761,
      "imle": 6762,
      "ĠkÄ±sÄ±": 6763,
      "asing": 6764,
      "ĠÄ°lg": 6765,
      "ĠÄ°liÅŁ": 6766,
      "Ä±nÄ±zdan": 6767,
      "Ġsafety": 6768,
      "002": 6769,
      "ildi": 6770,
      "ĠHerhangi": 6771,
      "ĠalÄ±ÅŁtÄ±r": 6772,
      "Ġmatch": 6773,
      "ĠkarÅŁÄ±lÄ±klÄ±": 6774,
      "ĠistediÄŁini": 6775,
      "Ġderinlik": 6776,
      "ĠuyanÄ±k": 6777,
      "Ġphotos": 6778,
      "ĠgÃ¼nÃ¼nÃ¼zÃ¼": 6779,
      "ĠZorluk": 6780,
      "ĠtasarÄ±m": 6781,
      "Ġkalitesini": 6782,
      "ĠiliÅŁkil": 6783,
      "Ġrehber": 6784,
      "Ġmistakes": 6785,
      "Ġnedeniyle": 6786,
      "ĠFinally": 6787,
      "Her": 6788,
      "onda": 6789,
      "ranÄ±": 6790,
      "yer": 6791,
      "tile": 6792,
      "Ġbard": 6793,
      "Ġkick": 6794,
      "Ġhiz": 6795,
      "ĠDef": 6796,
      "ĠDuolingo": 6797,
      "Ġ184": 6798,
      "Ġstays": 6799,
      "ical": 6800,
      "Ġdevice": 6801,
      "usuz": 6802,
      "Ġ123": 6803,
      "Ã¼yÃ¼": 6804,
      "Ġsorul": 6805,
      "Ġdenem": 6806,
      "ĠhaftanÄ±n": 6807,
      "Ġdiving": 6808,
      "ĠsÄ±vÄ±": 6809,
      "Ġvisa": 6810,
      "ĠBaÅŁka": 6811,
      "ĠkiÅŁiler": 6812,
      "ĠbaÅŁarÄ±yÄ±": 6813,
      "Ġclarification": 6814,
      "Ġdiscard": 6815,
      "Ġassign": 6816,
      "Ġegzersizleri": 6817,
      "Ġeliminating": 6818,
      "ĠkarÄ±ÅŁtÄ±r": 6819,
      "Ġchallenges": 6820,
      "Ġseems": 6821,
      "Ġaccusations": 6822,
      "Ġrisk": 6823,
      "ĠeÄŁlenceli": 6824,
      "ĠÃ§imen": 6825,
      "kendi": 6826,
      "GÃ¼nlÃ¼k": 6827,
      "ĠnazikÃ§e": 6828,
      "pass": 6829,
      "Ġdile": 6830,
      "yseniz": 6831,
      "Ġfits": 6832,
      "Ġgiy": 6833,
      "ĠSecond": 6834,
      "Ġ210": 6835,
      "Ġtim": 6836,
      "Ġche": 6837,
      "**'": 6838,
      "ĠExp": 6839,
      "Ġsprin": 6840,
      "ĠKal": 6841,
      "Ġdiler": 6842,
      "ĠsonrasÄ±": 6843,
      "Ġarama": 6844,
      "Ġtelefonunu": 6845,
      "Ġolanak": 6846,
      "ĠyÃ¶ntemle": 6847,
      "Ġhappiness": 6848,
      "ĠsÄ±caklÄ±ÄŁÄ±na": 6849,
      "ĠbaÄŁlantÄ±": 6850,
      "Ġkorun": 6851,
      "ĠyaratÄ±r": 6852,
      "ĠdÄ±ÅŁarÄ±da": 6853,
      "Ġenerjiyi": 6854,
      "ĠMesajÄ±nÄ±zÄ±": 6855,
      "Ġclothing": 6856,
      "Ġfrustration": 6857,
      "Ġuygulayarak": 6858,
      "Ġmade": 6859,
      "Ġmerk": 6860,
      "Ġwebsite": 6861,
      "Ġconcentration": 6862,
      "\").": 6863,
      "134": 6864,
      "plan": 6865,
      "rod": 6866,
      "ero": 6867,
      "aling": 6868,
      "urun": 6869,
      "ĠmÃ¼kemmel": 6870,
      "Ġekip": 6871,
      "Ġyast": 6872,
      "Ġsharp": 6873,
      "mektedir": 6874,
      "Ġolsa": 6875,
      "Ġolay": 6876,
      "Ġzamanla": 6877,
      "Ġsaving": 6878,
      "Ġboo": 6879,
      "Ġevinizdeki": 6880,
      "Ġtutmaya": 6881,
      "Ġ175": 6882,
      "Ġrepla": 6883,
      "Ġfinished": 6884,
      "ĠkiÅŁinin": 6885,
      "ĠkalkÄ±n": 6886,
      "Ġsanat": 6887,
      "Ġsanki": 6888,
      "Ġuyumlu": 6889,
      "Ġmutfak": 6890,
      "Ġhavada": 6891,
      "Ġlabels": 6892,
      "Ġwashing": 6893,
      "ĠgÃ¼Ã§lendirmek": 6894,
      "Ãĸnce": 6895,
      "ĠbirleÅŁecek": 6896,
      "Ġcloser": 6897,
      "Ġstraight": 6898,
      "Ġbeklenti": 6899,
      "Ġspreadsheet": 6900,
      "Ġsteady": 6901,
      "Ġempty": 6902,
      "Kend": 6903,
      "kÃ¼r": 6904,
      "kitap": 6905,
      "ysis": 6906,
      "Ġstren": 6907,
      "ĠiÃ§inden": 6908,
      "ĠLÃ¼tfen": 6909,
      "Ġisim": 6910,
      "Ġyapabilir": 6911,
      "emiz": 6912,
      "Ġtips": 6913,
      "Ġ(\"": 6914,
      "Ġsays": 6915,
      "Ġ153": 6916,
      "Ġyear": 6917,
      "Ġ113": 6918,
      "Ġlistesini": 6919,
      "bilirim": 6920,
      "Ġpost": 6921,
      "ĠyÃ¶nlendir": 6922,
      "ĠsorunlarÄ±nÄ±": 6923,
      "Ġbeklen": 6924,
      "Ġhafifle": 6925,
      "Ġearli": 6926,
      "Ġtranslation": 6927,
      "undry": 6928,
      "Ġsayfa": 6929,
      "ĠyolculuÄŁ": 6930,
      "Ġreminders": 6931,
      "ĠsaÄŁlayacaktÄ±r": 6932,
      "Ġsaatinde": 6933,
      "Ġalert": 6934,
      "Ġalerts": 6935,
      "ĠeÄŁitimi": 6936,
      "Ġseasons": 6937,
      "Ġemergency": 6938,
      "ĠuÄŁraÅŁ": 6939,
      "Ġview": 6940,
      "Ġflashc": 6941,
      "pam": 6942,
      "Ġversa": 6943,
      "erilen": 6944,
      "Ġtour": 6945,
      "alling": 6946,
      "rabilirsiniz": 6947,
      "teki": 6948,
      "urg": 6949,
      "Ġdeniz": 6950,
      "ogn": 6951,
      "Ġoyun": 6952,
      "Ġbirer": 6953,
      "lamasÄ±": 6954,
      "Ä°kinci": 6955,
      "ekkÃ¼r": 6956,
      "Ġyapman": 6957,
      "Ġ33": 6958,
      "Ġbuying": 6959,
      "eynman": 6960,
      "Ġcannot": 6961,
      "ĠAyÄ±": 6962,
      "igning": 6963,
      "ĠdoÄŁum": 6964,
      "road": 6965,
      "ĠkaygÄ±": 6966,
      "ĠduruÅŁ": 6967,
      "Ġlaundry": 6968,
      "ĠhissettiÄŁiniz": 6969,
      "ĠrahatÃ§a": 6970,
      "Ġstresli": 6971,
      "Ġdetaylar": 6972,
      "Ġkeyif": 6973,
      "ĠHaftalÄ±k": 6974,
      "Ġmutlu": 6975,
      "Ġstronger": 6976,
      "tries": 6977,
      "Ġsuppor": 6978,
      "Ġrecei": 6979,
      "Ġcomputers": 6980,
      "Ġboosts": 6981,
      "Ġour": 6982,
      "Ġcrow": 6983,
      "Ġkeys": 6984,
      "Ã§Ä±k": 6985,
      "ĠThat": 6986,
      "Ġflo": 6987,
      "ĠBahÃ§": 6988,
      "ĠiletiÅŁime": 6989,
      "stac": 6990,
      "Ġzorunlu": 6991,
      "Ġdopam": 6992,
      "Ġartar": 6993,
      "ĠfotoÄŁraflar": 6994,
      "Ġ199": 6995,
      "Ġdurmak": 6996,
      "ĠgÃ¼c": 6997,
      "ĠkaranlÄ±k": 6998,
      "yorsan": 6999,
      "Ġimpact": 7000,
      "landÄ±rm": 7001,
      "Ġglasses": 7002,
      "Ġpresence": 7003,
      "Ġobstac": 7004,
      "Ġgeneral": 7005,
      "ĠyaptÄ±m": 7006,
      "ĠetkileÅŁ": 7007,
      "Ġibarettir": 7008,
      "Ġeylem": 7009,
      "Ġforecast": 7010,
      "Ġbardak": 7011,
      "An": 7012,
      "Pause": 7013,
      "Schedule": 7014,
      "baÅŁ": 7015,
      "fic": 7016,
      "Ġnes": 7017,
      "Ġthrow": 7018,
      "Ã¶ÄŁ": 7019,
      "ĠbaÅŁta": 7020,
      "lÄ±ÄŁÄ±nÄ±z": 7021,
      "lerinizden": 7022,
      "Ġ158": 7023,
      "Ġovernight": 7024,
      "ĠkitaplarÄ±": 7025,
      "Ġtetik": 7026,
      "Ġbasic": 7027,
      "Ä±nav": 7028,
      "ĠbaÅŁlamaya": 7029,
      "Ġ190": 7030,
      "Ġ195": 7031,
      "ĠgeÃ§ire": 7032,
      "lemeniz": 7033,
      "ĠaÃ§mak": 7034,
      "Ġrecent": 7035,
      "Ġbilgisi": 7036,
      "ĠseÃ§mekten": 7037,
      "Ġvalues": 7038,
      "Ġlives": 7039,
      "Ġinterruption": 7040,
      "Ġsunar": 7041,
      "Ġdeliber": 7042,
      "Ġassigning": 7043,
      "Ġuyanmak": 7044,
      "Ġrental": 7045,
      "Ġbarda": 7046,
      "Ġjudging": 7047,
      "ĠkaÄŁÄ±da": 7048,
      "ĠdaÄŁÄ±t": 7049,
      "box": 7050,
      "ĠsÄ±ral": 7051,
      "ĠyetiÅŁtir": 7052,
      "Ã¼lebilir": 7053,
      "Ġsuppresses": 7054,
      "Ġopinion": 7055,
      "Break": 7056,
      "IM": 7057,
      "sue": 7058,
      "Ġhuge": 7059,
      "Ġhorm": 7060,
      "uses": 7061,
      "ĠTell": 7062,
      "ĠYÃ¼z": 7063,
      "Ġgec": 7064,
      "ĠadÄ±ma": 7065,
      "Ġbegins": 7066,
      "Ġyazmaya": 7067,
      "ĠÃ¶nÃ¼ne": 7068,
      "Ġevinizin": 7069,
      "mediÄŁiniz": 7070,
      "Ġliste": 7071,
      "Ġdilde": 7072,
      "Ġdurdur": 7073,
      "Ġkurmaya": 7074,
      "Ġsorarak": 7075,
      "Ġlosing": 7076,
      "Ġhedeflerinize": 7077,
      "Ġknowing": 7078,
      "Ġnokta": 7079,
      "Ġsupporting": 7080,
      "ĠLearn": 7081,
      "Ġdeneme": 7082,
      "ĠSizinle": 7083,
      "Ġsebze": 7084,
      "ĠgeliÅŁtirmek": 7085,
      "ĠSÄ±ra": 7086,
      "Ġfactors": 7087,
      "Ġparalysis": 7088,
      "Ġstrength": 7089,
      "BÃ¼yÃ¼k": 7090,
      "dle": 7091,
      "meni": 7092,
      "Ġtel": 7093,
      "Ġtutu": 7094,
      "rep": 7095,
      "ĠEÄŁ": 7096,
      "Ġileri": 7097,
      "Ġ180": 7098,
      "itch": 7099,
      "Ġever": 7100,
      "daha": 7101,
      "ĠiÃ§ip": 7102,
      "Ġquanti": 7103,
      "Ġcost": 7104,
      "Ġ600": 7105,
      "eceÄŁinizi": 7106,
      "Ġaloud": 7107,
      "Ġ128": 7108,
      "erseniz": 7109,
      "Ġodada": 7110,
      "amera": 7111,
      "tÄ±p": 7112,
      "Ġride": 7113,
      "Ġolmam": 7114,
      "Ġtamamlan": 7115,
      "ĠdÃ¼ÅŁÃ¼nerek": 7116,
      "Ġdinle": 7117,
      "Ġconnected": 7118,
      "Ġmindset": 7119,
      "ĠWhatsApp": 7120,
      "Ġhaval": 7121,
      "Ġolmaktan": 7122,
      "Ġbiriyle": 7123,
      "Ġmetre": 7124,
      "ĠÃ§Ä±karÄ±n": 7125,
      "ĠaydÄ±nlÄ±k": 7126,
      "ĠbelirtilmiÅŁtir": 7127,
      "Ġidealdir": 7128,
      "Ġvalued": 7129,
      "ĠAccept": 7130,
      "Ġmaximize": 7131,
      "Ġexplicitly": 7132,
      "ĠotobÃ¼s": 7133,
      "ĠkÄ±yafet": 7134,
      "Ġearlier": 7135,
      "Ġflashcards": 7136,
      "Keep": 7137,
      "Total": 7138,
      "kal": 7139,
      "kisi": 7140,
      "sc": 7141,
      "vely": 7142,
      "Ġ07": 7143,
      "ndi": 7144,
      "ince": 7145,
      "ani": 7146,
      "Ġdrop": 7147,
      "akt": 7148,
      "orth": 7149,
      "Ġzero": 7150,
      "ected": 7151,
      "Ġkonuyla": 7152,
      "uÅŁtur": 7153,
      "lerinden": 7154,
      "Ġ58": 7155,
      "Ġ500": 7156,
      "think": 7157,
      "Ġ327": 7158,
      "Ġ93": 7159,
      "ify": 7160,
      "ocuk": 7161,
      "Ġbelirleme": 7162,
      "Ġ176": 7163,
      "Ġkurgu": 7164,
      "ĠekranÄ±": 7165,
      "Ġstresi": 7166,
      "Ġkapak": 7167,
      "ensive": 7168,
      "ĠyapÄ±sÄ±": 7169,
      "ĠhazÄ±rla": 7170,
      "Ġhissetmek": 7171,
      "Ġhissettir": 7172,
      "ĠsÄ±kÄ±l": 7173,
      "Ġengage": 7174,
      "ĠÃ§ekip": 7175,
      "Ġeser": 7176,
      "Ġsoruda": 7177,
      "Ġperfectly": 7178,
      "Ġsucceed": 7179,
      "Ġminimal": 7180,
      "ĠaÄŁÄ±r": 7181,
      "Ġbunlar": 7182,
      "ĠkalÄ±p": 7183,
      "Ġcontinuing": 7184,
      "Ġoccas": 7185,
      "Ġkanal": 7186,
      "Ġkonsept": 7187,
      "ĠDefine": 7188,
      "Ġmerkez": 7189,
      "Ġreplacing": 7190,
      "cal": 7191,
      "pect": 7192,
      "var": 7193,
      "Ġpot": 7194,
      "Ġsend": 7195,
      "Ġsmo": 7196,
      "Ġizmir": 7197,
      "Ġ234": 7198,
      "Ġyazma": 7199,
      "Ġ148": 7200,
      "Ġ133": 7201,
      "anÄ±zÄ±n": 7202,
      "iÄŁinizi": 7203,
      "Ġ207": 7204,
      "ĠÃĸnemli": 7205,
      "Ġexplo": 7206,
      "ĠkurmayÄ±": 7207,
      "manÄ±zdÄ±r": 7208,
      "ĠkonuÅŁacak": 7209,
      "ĠdÃ¼ÅŁÃ¼nceler": 7210,
      "ĠyatÄ±n": 7211,
      "uktan": 7212,
      "ĠkalkÄ±ÅŁ": 7213,
      "ĠkalkmayÄ±": 7214,
      "ĠdÄ±ÅŁÄ±nda": 7215,
      "ĠnoktasÄ±nÄ±": 7216,
      "Ġkapatmak": 7217,
      "Ġsizinle": 7218,
      "lÄ±ÄŁÄ±n": 7219,
      "Ġeski": 7220,
      "ĠnoktasÄ±dÄ±r": 7221,
      "Ġmetab": 7222,
      "Ä±lmÄ±ÅŁtÄ±r": 7223,
      "ĠkaynaÄŁÄ±nÄ±": 7224,
      "dÄ±ktan": 7225,
      "ĠtarafÄ±ndan": 7226,
      "Ġmadd": 7227,
      "Ġnedir": 7228,
      "Ġmerak": 7229,
      "Ġworried": 7230,
      "Ġversatile": 7231,
      "Ġquantity": 7232,
      "EÄŁer": 7233,
      "Eisenhower": 7234,
      "dak": 7235,
      "¸ı": 7236,
      "ï¸ı": 7237,
      "Ġskip": 7238,
      "Ġdik": 7239,
      "ĠTurn": 7240,
      "itab": 7241,
      "Ġgrup": 7242,
      "amik": 7243,
      "imiz": 7244,
      "ĠgÃ¼ncel": 7245,
      "ĠbaÅŁÄ±nÄ±zÄ±": 7246,
      "eyle": 7247,
      "Ġveril": 7248,
      "Ġ63": 7249,
      "ĠNot": 7250,
      "Ġnoon": 7251,
      "ĠFeynman": 7252,
      "andÄ±": 7253,
      "Ġ177": 7254,
      "Ġ179": 7255,
      "ilecek": 7256,
      "geÃ§": 7257,
      "ĠgeÃ§en": 7258,
      "ĠtamamÄ±nÄ±": 7259,
      "Ġtemelini": 7260,
      "ĠkarÅŁÄ±laÅŁtÄ±r": 7261,
      "ĠsayÄ±sÄ±nÄ±": 7262,
      "ĠsÄ±caklÄ±k": 7263,
      "Ġusual": 7264,
      "eyebilirsiniz": 7265,
      "Ġhands": 7266,
      "ĠkazandÄ±r": 7267,
      "Ġpassport": 7268,
      "Ġsepet": 7269,
      "tÄ±rabilirsiniz": 7270,
      "Ġcorre": 7271,
      "Ġaccusatory": 7272,
      "Ġsupplies": 7273,
      "Ġconfusion": 7274,
      "Ġconvey": 7275,
      "184": 7276,
      "Prac": 7277,
      "Sabah": 7278,
      "fast": 7279,
      "ices": 7280,
      "Ġtelef": 7281,
      "Ġku": 7282,
      "Ã§alÄ±ÅŁ": 7283,
      "Ġhelping": 7284,
      "ĠiÃ§ecek": 7285,
      "ĠGec": 7286,
      "ases": 7287,
      "Ġ225": 7288,
      "Ġ237": 7289,
      "Ġmey": 7290,
      "arat": 7291,
      "maktadÄ±r": 7292,
      "Ġ384": 7293,
      "Ġdos": 7294,
      "Ġ83": 7295,
      "Ġistiyorsunuz": 7296,
      "ĠanlamÄ±": 7297,
      "ĠatÄ±p": 7298,
      "Ġsever": 7299,
      "Ġtopra": 7300,
      "ĠÃ§ekme": 7301,
      "Ä±lmasÄ±": 7302,
      "ĠÃ§Ä±kmak": 7303,
      "Ġolursunuz": 7304,
      "ĠbaÅŁarÄ±larÄ±": 7305,
      "bette": 7306,
      "Ġeffortless": 7307,
      "dÄ±ÄŁÄ±nÄ±zdan": 7308,
      "ĠdÃ¶k": 7309,
      "Ġhayata": 7310,
      "Ġoturmak": 7311,
      "dÄ±ÄŁÄ±n": 7312,
      "Ġguide": 7313,
      "Ġmiktarda": 7314,
      "Ġservice": 7315,
      "Ġbozul": 7316,
      "ĠduygularÄ±nÄ±zÄ±": 7317,
      "ĠkarÄ±ÅŁÄ±k": 7318,
      "mission": 7319,
      "Ġnegative": 7320,
      "Ġcheap": 7321,
      "Practice": 7322,
      "bugÃ¼n": 7323,
      "nable": 7324,
      "ube": 7325,
      "ÉĻ": 7326,
      "Ġ%": 7327,
      "Ġsak": 7328,
      "Ã¼me": 7329,
      "verbal": 7330,
      "Ġdistant": 7331,
      "ÅŁu": 7332,
      "Ġways": 7333,
      "Ġinsp": 7334,
      "ayÄ±p": 7335,
      "Ġ38": 7336,
      "Ġrere": 7337,
      "Ġplanlayarak": 7338,
      "ĠlÃ¼tfen": 7339,
      "ĠÅŁÄ±k": 7340,
      "Ġintent": 7341,
      "Ġtrue": 7342,
      "ource": 7343,
      "Ġbreakfast": 7344,
      "ĠseÃ§ebilirsiniz": 7345,
      "ĠFirst": 7346,
      "duÄŁu": 7347,
      "ĠkonuÅŁurken": 7348,
      "ĠgÃ¼venilir": 7349,
      "essiz": 7350,
      "Ġdetail": 7351,
      "shoot": 7352,
      "Ġuyumaya": 7353,
      "Ġphotoshoot": 7354,
      "ĠyÃ¼rÃ¼mek": 7355,
      "Ġdenemek": 7356,
      "Ġmodel": 7357,
      "Ġederim": 7358,
      "ĠkeÅŁfetmek": 7359,
      "Ġchoice": 7360,
      "Ġuygulayabilirsiniz": 7361,
      "tirip": 7362,
      "ĠtatlÄ±": 7363,
      "ĠseÃ§eneÄŁi": 7364,
      "Ġtouch": 7365,
      "Ġoccasion": 7366,
      "Ġrereading": 7367,
      "ski": 7368,
      "syon": 7369,
      "tarÄ±": 7370,
      "ances": 7371,
      "Ġcram": 7372,
      "tesi": 7373,
      "ĠDerin": 7374,
      "ayarak": 7375,
      "Ġfa": 7376,
      "ĠBlock": 7377,
      "ĠSab": 7378,
      "ĠSmall": 7379,
      "Ġinitiate": 7380,
      "important": 7381,
      "ĠonlarÄ±": 7382,
      "Ġverme": 7383,
      "sÄ±ndan": 7384,
      "Ġcondi": 7385,
      "Ġ53": 7386,
      "Ġ73": 7387,
      "ĠaldÄ±": 7388,
      "Ġalmaya": 7389,
      "Ġunf": 7390,
      "mited": 7391,
      "ĠsÃ¼resi": 7392,
      "Ġ194": 7393,
      "Ġpermission": 7394,
      "Ġcluttering": 7395,
      "Ġuzman": 7396,
      "Ġdinleme": 7397,
      "ĠInvest": 7398,
      "ĠbÄ±rakarak": 7399,
      "Ġbakmak": 7400,
      "Ġtalep": 7401,
      "ĠaÃ§Ä±kÃ§a": 7402,
      "Ã¼lt": 7403,
      "Ġuyumak": 7404,
      "Ġmuscle": 7405,
      "Ġcurrently": 7406,
      "ĠkalanlarÄ±": 7407,
      "Ġbitirmek": 7408,
      "Ġwinnable": 7409,
      "ĠsonuÃ§lar": 7410,
      "ĠgÃ¶rÃ¼ÅŁecek": 7411,
      "Ġrefer": 7412,
      "ĠTrans": 7413,
      "Ġsistemi": 7414,
      "Ġokuyacak": 7415,
      "Ġpath": 7416,
      "Ġzihn": 7417,
      "Ġquitting": 7418,
      "Ġprovide": 7419,
      "olojik": 7420,
      "Ġstimulating": 7421,
      "ĠkÄ±sÄ±m": 7422,
      "Ġmetabol": 7423,
      "'m": 7424,
      "Ne": 7425,
      "lÃ¼m": 7426,
      "meler": 7427,
      "ptions": 7428,
      "sÄ±nÄ±n": 7429,
      "Ġcould": 7430,
      "Ġbike": 7431,
      "ract": 7432,
      "Ġneler": 7433,
      "Ġfel": 7434,
      "Ġfund": 7435,
      "Ġmail": 7436,
      "ĠayÄ±rÄ±p": 7437,
      "Ġ215": 7438,
      "ĠPhotoshop": 7439,
      "Ġ314": 7440,
      "Ġolabilirsiniz": 7441,
      "Ġbelirlen": 7442,
      "Ġiyidir": 7443,
      "steps": 7444,
      "Ġdilden": 7445,
      "miyor": 7446,
      "Ġodaklanmaya": 7447,
      "Ġyoldan": 7448,
      "Ġ197": 7449,
      "lenme": 7450,
      "ĠgÃ¶rmek": 7451,
      "ĠyÃ¶ntemler": 7452,
      "lendire": 7453,
      "Ġmentally": 7454,
      "Ġlocations": 7455,
      "Ġleaves": 7456,
      "Ġkaydede": 7457,
      "malÄ±sÄ±n": 7458,
      "Ġkorum": 7459,
      "ĠseÃ§enekler": 7460,
      "Ġsilent": 7461,
      "ĠkoÅŁu": 7462,
      "ĠaltÄ±na": 7463,
      "Ġdergi": 7464,
      "Ġairports": 7465,
      "Ġblame": 7466,
      "ĠyarÄ±sÄ±nÄ±": 7467,
      "Ġfueled": 7468,
      "Ġilgin": 7469,
      "ĠuÃ§uÅŁ": 7470,
      "ĠkayÄ±da": 7471,
      "Ġobligation": 7472,
      "Ġalign": 7473,
      "ĠanlÄ±yorum": 7474,
      "Ġdopamine": 7475,
      "ften": 7476,
      "kÄ±": 7477,
      "Ġpsik": 7478,
      "ĠYÃ¼r": 7479,
      "ÄŁÄ±m": 7480,
      "ÄŁinde": 7481,
      "ÄŁinden": 7482,
      "ized": 7483,
      "Ġsok": 7484,
      "Ġsometimes": 7485,
      "Ġforces": 7486,
      "Ġuyar": 7487,
      "Ġdayan": 7488,
      "Ġkafe": 7489,
      "ĠOffer": 7490,
      "ĠzamanÄ±nÄ±": 7491,
      "Ġdoor": 7492,
      "Ġdolu": 7493,
      "Ġ78": 7494,
      "Ġ98": 7495,
      "layabilir": 7496,
      "Ġ101": 7497,
      "Ġevden": 7498,
      "Ġtrains": 7499,
      "Ġasist": 7500,
      "Ġsong": 7501,
      "ources": 7502,
      "Ġyerin": 7503,
      "Ġ163": 7504,
      "udum": 7505,
      "ĠbahÃ§enin": 7506,
      "ĠodanÄ±zÄ±": 7507,
      "ĠÃ§alÄ±ÅŁtÄ±": 7508,
      "tÄ±l": 7509,
      "ĠakÄ±cÄ±": 7510,
      "Ġ192": 7511,
      "Ġtelefonu": 7512,
      "Ġhaft": 7513,
      "Ġdistracted": 7514,
      "ĠÃ§Ä±kÄ±n": 7515,
      "Ġoption": 7516,
      "Ġdiet": 7517,
      "Ġortaya": 7518,
      "Ġeasiest": 7519,
      "Ġachieving": 7520,
      "tikten": 7521,
      "sÄ±zlÄ±k": 7522,
      "Ġscheduled": 7523,
      "Ġreviews": 7524,
      "Ġbilgilerle": 7525,
      "ĠbÃ¼tÃ§e": 7526,
      "Ġmissed": 7527,
      "Ġspontaneity": 7528,
      "Ãĸncelikle": 7529,
      "Ġbank": 7530,
      "Ġoccur": 7531,
      "gra": 7532,
      "iyorsunuz": 7533,
      "ym": 7534,
      "ðŁ": 7535,
      "tiÄŁi": 7536,
      "Ġsind": 7537,
      "ĠEff": 7538,
      "iring": 7539,
      "Ġ182": 7540,
      "itting": 7541,
      "ĠSay": 7542,
      "Ġinside": 7543,
      "lanma": 7544,
      "Ġolumlu": 7545,
      "Ġori": 7546,
      "Ġresult": 7547,
      "ĠÃ§ub": 7548,
      "Ġ316": 7549,
      "Ġ324": 7550,
      "Ġanswering": 7551,
      "ikay": 7552,
      "Ä±za": 7553,
      "Ġ414": 7554,
      "Ġ435": 7555,
      "oms": 7556,
      "ĠÅŁunu": 7557,
      "arÄ±nda": 7558,
      "Ġyerini": 7559,
      "Ġtutma": 7560,
      "Ġ209": 7561,
      "ĠiÅŁini": 7562,
      "Ġ174": 7563,
      "ĠÃĸncel": 7564,
      "ĠkolaydÄ±r": 7565,
      "ĠkontrolÃ¼": 7566,
      "ĠmesajÄ±nÄ±zÄ±": 7567,
      "Ġgidin": 7568,
      "Ġizleyerek": 7569,
      "Ġgroups": 7570,
      "ĠsÄ±caklÄ±ÄŁÄ±": 7571,
      "Ġlimited": 7572,
      "Ġsurround": 7573,
      "ĠyanÄ±na": 7574,
      "noon": 7575,
      "Ġvisualize": 7576,
      "ĠihtiyacÄ±": 7577,
      "ĠgÃ¶sterir": 7578,
      "Ġloved": 7579,
      "ĠsakinleÅŁ": 7580,
      "Ġstrategy": 7581,
      "Ġemp": 7582,
      "Ġbitire": 7583,
      "Ġchallenge": 7584,
      "Ġrelationships": 7585,
      "Ġbelongs": 7586,
      "Ġbeklemeyin": 7587,
      "Ġphrases": 7588,
      "Ġtakvim": 7589,
      "struc": 7590,
      "Ġobstacles": 7591,
      "Tube": 7592,
      "Yap": 7593,
      "comm": 7594,
      "eb": 7595,
      "iren": 7596,
      "Ġcup": 7597,
      "ĠtanÄ±t": 7598,
      "Ġdynam": 7599,
      "Ġfare": 7600,
      "Ġfalling": 7601,
      "Ġmay": 7602,
      "Ġgev": 7603,
      "ĠSh": 7604,
      "aber": 7605,
      "nded": 7606,
      "ĠayÄ±rdÄ±r": 7607,
      "medik": 7608,
      "Ġ325": 7609,
      "Ġ800": 7610,
      "ĠplanlayÄ±p": 7611,
      "ĠDenizle": 7612,
      "eniyor": 7613,
      "karak": 7614,
      "Ġkullanmadan": 7615,
      "Ġ206": 7616,
      "ĠÃ¶ÄŁrenmektir": 7617,
      "roup": 7618,
      "Ġalanlarda": 7619,
      "ĠmesajÄ±": 7620,
      "ĠmesajlaÅŁma": 7621,
      "layÄ±sÄ±yla": 7622,
      "ĠBaÅŁlamak": 7623,
      "Ġihtimal": 7624,
      "Ġbehind": 7625,
      "Ġkalkmak": 7626,
      "Ġalabilirsiniz": 7627,
      "Ä±lÄ±m": 7628,
      "ĠyÃ¼kÃ¼": 7629,
      "ĠpaylaÅŁarak": 7630,
      "ĠÃ¶zelliÄŁini": 7631,
      "ĠÄ±sÄ±t": 7632,
      "ĠYatak": 7633,
      "ĠkurallarÄ±": 7634,
      "Ġpromise": 7635,
      "Ġpromote": 7636,
      "ĠeÄŁitim": 7637,
      "ĠHaftada": 7638,
      "Ġdishes": 7639,
      "Ġekipman": 7640,
      "ĠEffective": 7641,
      "gum": 7642,
      "yl": 7643,
      "ysa": 7644,
      "incisi": 7645,
      "Ġpan": 7646,
      "Ġbored": 7647,
      "Ġkim": 7648,
      "used": 7649,
      "sab": 7650,
      "Ġdikk": 7651,
      "ĠDuyg": 7652,
      "Ġwere": 7653,
      "ayacak": 7654,
      "ilmesi": 7655,
      "ĠeÄŁer": 7656,
      "ĠBilg": 7657,
      "ĠSlow": 7658,
      "ĠadÄ±mdan": 7659,
      "Ġ216": 7660,
      "Ġ217": 7661,
      "Ġ236": 7662,
      "ĠÃ¶nerebilirim": 7663,
      "ems": 7664,
      "ĠkaÃ§Ä±nÄ±": 7665,
      "Ġ336": 7666,
      "Ġ68": 7667,
      "ĠÃ¶nler": 7668,
      "Ġitself": 7669,
      "ours": 7670,
      "Ġokuyarak": 7671,
      "ĠÃ§ekmeyi": 7672,
      "ĠÃ§ektirecek": 7673,
      "Ġsaatinizi": 7674,
      "ĠÃ§alÄ±ÅŁmayÄ±n": 7675,
      "Ġgear": 7676,
      "Ġswap": 7677,
      "ĠdÃ¼zenlem": 7678,
      "Ġrooms": 7679,
      "ĠÅŁeker": 7680,
      "Ġyetene": 7681,
      "Ġhafiflet": 7682,
      "Åŀu": 7683,
      "ĠmÄ±sÄ±nÄ±z": 7684,
      "Ġstresini": 7685,
      "ĠvÃ¼cudunu": 7686,
      "Ġcycles": 7687,
      "melisin": 7688,
      "Ġlimiting": 7689,
      "Ġtaze": 7690,
      "ĠkarmaÅŁ": 7691,
      "ĠbaÅŁlarsanÄ±z": 7692,
      "Ġpurch": 7693,
      "ĠcÃ¼mleleri": 7694,
      "ĠgereÄŁi": 7695,
      "ĠSÄ±fÄ±r": 7696,
      "ublic": 7697,
      "Ġwindows": 7698,
      "Ġtablet": 7699,
      "ĠtaÅŁÄ±": 7700,
      "Ġpreparing": 7701,
      "Ġpatient": 7702,
      "Ġpausing": 7703,
      "Ġconscious": 7704,
      "Ġsprints": 7705,
      "Ġdilerim": 7706,
      "The": 7707,
      "sinde": 7708,
      "traf": 7709,
      "uff": 7710,
      "Ä±nd": 7711,
      "any": 7712,
      "Ġpace": 7713,
      "Ġpublic": 7714,
      "Ġtep": 7715,
      "ĠBana": 7716,
      "ĠayÄ±rmak": 7717,
      "ĠGroup": 7718,
      "Ġ224": 7719,
      "Ġonlara": 7720,
      "eyim": 7721,
      "ĠyapÄ±ÅŁtÄ±r": 7722,
      "Ġzorlam": 7723,
      "ĠzorlandÄ±": 7724,
      "usunda": 7725,
      "Ġ585": 7726,
      "Ġ526": 7727,
      "ĠExpress": 7728,
      "Ġbeginners": 7729,
      "Ġ684": 7730,
      "Ġ626": 7731,
      "Ġ714": 7732,
      "Ġ900": 7733,
      "eceÄŁim": 7734,
      "Ġexci": 7735,
      "ĠdakikasÄ±": 7736,
      "ĠiyileÅŁtir": 7737,
      "biliriz": 7738,
      "ĠseÃ§melisiniz": 7739,
      "iÄŁin": 7740,
      "ĠiÅŁinize": 7741,
      "Ġsaatine": 7742,
      "ĠÃ§alÄ±ÅŁÄ±rken": 7743,
      "why": 7744,
      "Ġwall": 7745,
      "ĠmesajlarÄ±": 7746,
      "diÄŁinizde": 7747,
      "Ġhighest": 7748,
      "Ġdiscover": 7749,
      "ĠaÅŁmak": 7750,
      "Ġaltyap": 7751,
      "Ġalternatif": 7752,
      "ĠkÃ¶ÅŁ": 7753,
      "ĠElbette": 7754,
      "ĠkolaylaÅŁtÄ±racak": 7755,
      "Ġseninle": 7756,
      "ĠadÄ±na": 7757,
      "Ġtatmin": 7758,
      "Ġilham": 7759,
      "Ġadapt": 7760,
      "Ġbazen": 7761,
      "Ġbeceriler": 7762,
      "Ġpatterns": 7763,
      "ĠpratiÄŁi": 7764,
      "traffic": 7765,
      "esap": 7766,
      "fron": 7767,
      "lil": 7768,
      "ture": 7769,
      "Ġpage": 7770,
      "ĠsÄ±nÄ±": 7771,
      "ray": 7772,
      "Ġkart": 7773,
      "ĠEski": 7774,
      "Ġworth": 7775,
      "aket": 7776,
      "Ġfer": 7777,
      "ĠBen": 7778,
      "amaz": 7779,
      "ator": 7780,
      "adaki": 7781,
      "ĠOften": 7782,
      "Ġ534": 7783,
      "Ġ300": 7784,
      "Ġ385": 7785,
      "terek": 7786,
      "Ġ826": 7787,
      "ĠaralÄ±": 7788,
      "udaki": 7789,
      "Ġsorunuz": 7790,
      "ĠbaÅŁlayacak": 7791,
      "selves": 7792,
      "Ġhedefiniz": 7793,
      "ĠiÅŁlerini": 7794,
      "ĠpiÅŁirin": 7795,
      "Ġdescri": 7796,
      "Ġafternoon": 7797,
      "tuk": 7798,
      "edicate": 7799,
      "Ġelsewhere": 7800,
      "ĠbakÄ±m": 7801,
      "doÄŁ": 7802,
      "Ġharf": 7803,
      "ĠAlso": 7804,
      "ĠeÄŁit": 7805,
      "ĠyemeÄŁini": 7806,
      "Ġcausing": 7807,
      "Ġperfectionism": 7808,
      "Ġsessizlik": 7809,
      "Ġheading": 7810,
      "ĠtarafÄ±n": 7811,
      "Ġfilm": 7812,
      "Ġadap": 7813,
      "Ġvaluable": 7814,
      "ĠYemek": 7815,
      "Ġdeleg": 7816,
      "ĠTranslate": 7817,
      "case": 7818,
      "Ġ/": 7819,
      "ĠðŁ": 7820,
      "ont": 7821,
      "Ġcam": 7822,
      "tiÄŁini": 7823,
      "Ġsel": 7824,
      "uru": 7825,
      "Ġdue": 7826,
      "ĠDedicate": 7827,
      "Ġfi": 7828,
      "ĠmÃ¼zik": 7829,
      "action": 7830,
      "Ġez": 7831,
      "amam": 7832,
      "Ġ289": 7833,
      "Ġmotive": 7834,
      "lerek": 7835,
      "Ġ515": 7836,
      "Ġ387": 7837,
      "Ġ386": 7838,
      "Ġ687": 7839,
      "Ġ624": 7840,
      "ĠanlamÄ±na": 7841,
      "ĠadÄ±mlara": 7842,
      "malara": 7843,
      "Ã¼rken": 7844,
      "Ġalloc": 7845,
      "Ġargum": 7846,
      "Ġoda": 7847,
      "Ġdurumunuz": 7848,
      "Ġheart": 7849,
      "Ġsessizce": 7850,
      "Ġdistracting": 7851,
      "ĠalanÄ±nÄ±": 7852,
      "ĠdeÄŁilse": 7853,
      "ĠkarÅŁÄ±lÄ±k": 7854,
      "Ġortalama": 7855,
      "Ġdarkness": 7856,
      "Ġayarla": 7857,
      "Ġdefa": 7858,
      "ĠaÃ§Ä±klayÄ±n": 7859,
      "Ġkelimesini": 7860,
      "icial": 7861,
      "ĠyavaÅŁlat": 7862,
      "Ġmusunuz": 7863,
      "Ġregarding": 7864,
      "Ġagainst": 7865,
      "ĠgÃ¶stermek": 7866,
      "Ġkaydederek": 7867,
      "Ġbaskets": 7868,
      "ĠolduÄŁunuzda": 7869,
      "Ġbright": 7870,
      "Ġtemptation": 7871,
      "ĠÄ°stediÄŁiniz": 7872,
      "ï¸ıâ": 7873,
      "front": 7874,
      "Ay": 7875,
      "ute": 7876,
      "ĥ£": 7877,
      "Ġcut": 7878,
      "Ġcell": 7879,
      "Ġcard": 7880,
      "Ġbana": 7881,
      "Ġkok": 7882,
      "Ġkomp": 7883,
      "tep": 7884,
      "oru": 7885,
      "ĠYouTube": 7886,
      "Ġfly": 7887,
      "Ġfakt": 7888,
      "Ġinf": 7889,
      "ĠAt": 7890,
      "liyor": 7891,
      "Ġ288": 7892,
      "lamalar": 7893,
      "Ġkonunun": 7894,
      "lerseniz": 7895,
      "ĠÃ¶neriyle": 7896,
      "Ġ514": 7897,
      "Ġ524": 7898,
      "Ġ536": 7899,
      "Ġ388": 7900,
      "Ġ326": 7901,
      "Ġ360": 7902,
      "ĠzorlanÄ±yorsanÄ±z": 7903,
      "ĠkayÄ±tlarda": 7904,
      "ĠdolaÅŁ": 7905,
      "Ġ480": 7906,
      "Ġ419": 7907,
      "Ġ725": 7908,
      "ĠdeÄŁiÅŁtirin": 7909,
      "Ġ151": 7910,
      "olding": 7911,
      "Ġ118": 7912,
      "Ġtraff": 7913,
      "Ġbelirsiz": 7914,
      "step": 7915,
      "Ġoturarak": 7916,
      "Ġtutar": 7917,
      "ĠtutarlÄ±": 7918,
      "Ġedersiniz": 7919,
      "Ġwalks": 7920,
      "duÄŁunuz": 7921,
      "sively": 7922,
      "Ġistem": 7923,
      "ĠWhere": 7924,
      "Ġyoludur": 7925,
      "ĠgeÃ§ici": 7926,
      "Ä±lma": 7927,
      "Ġapply": 7928,
      "Ġyatarken": 7929,
      "Ġfixing": 7930,
      "Ġterms": 7931,
      "Ġsunabilirim": 7932,
      "Ġhob": 7933,
      "Ġfrequent": 7934,
      "ivid": 7935,
      "Ġcircle": 7936,
      "Ġbaggage": 7937,
      "Ġgerektiren": 7938,
      "ĠSleeping": 7939,
      "ĠkolaylaÅŁÄ±r": 7940,
      "ĠhatÄ±rlatÄ±n": 7941,
      "ĠdÃ¶nÃ¼ÅŁtÃ¼r": 7942,
      "Ġexclus": 7943,
      "Ġbilimsel": 7944,
      "ĠhedeflediÄŁiniz": 7945,
      "Ġpatience": 7946,
      "Ġrepeatedly": 7947,
      "Ġnoktalar": 7948,
      "ĠÃĸzellikle": 7949,
      "ĠDÃ¼zenli": 7950,
      "Ġcenter": 7951,
      "Ġfloor": 7952,
      "Ġsurroundings": 7953,
      "ï¸ıâĥ£": 7954,
      "Ġtraffic": 7955,
      "nation": 7956,
      "put": 7957,
      "Ġcap": 7958,
      "enda": 7959,
      "Ġbuna": 7960,
      "ants": 7961,
      "Ġtoile": 7962,
      "eting": 7963,
      "lab": 7964,
      "ĠmÃ¼": 7965,
      "Ġmiy": 7966,
      "ĠBilgi": 7967,
      "rip": 7968,
      "Ġ285": 7969,
      "Ġuyul": 7970,
      "Ġ520": 7971,
      "Ġ527": 7972,
      "Ġ615": 7973,
      "Ġ625": 7974,
      "Ġ416": 7975,
      "Ġ485": 7976,
      "Ġmanz": 7977,
      "Ġspoken": 7978,
      "Ġsaves": 7979,
      "Ġbelirley": 7980,
      "ĠkullanmanÄ±z": 7981,
      "ĠdoÄŁrult": 7982,
      "ĠalÄ±ÅŁkanlÄ±klarÄ±": 7983,
      "Ġmotivasyonunuzu": 7984,
      "Ġgeliyor": 7985,
      "Ġpeace": 7986,
      "ĠdÃ¼ÅŁÃ¼nÃ¼": 7987,
      "weight": 7988,
      "Ġgiderek": 7989,
      "Ġunexpectedly": 7990,
      "ĠartÄ±rmak": 7991,
      "ĠsaÄŁlayabilirsiniz": 7992,
      "Ã¼nÃ¼zde": 7993,
      "Ġdirekt": 7994,
      "Ġrequirements": 7995,
      "Ġgetirmek": 7996,
      "ĠyaklaÅŁÄ±k": 7997,
      "Ġilerlemeler": 7998,
      "ĠbaÅŁlarsÄ±nÄ±z": 7999,
      "ĠsÄ±rayla": 8000,
      "ĠClean": 8001,
      "imdiden": 8002,
      "Ġelectronic": 8003,
      "Ġsituations": 8004,
      "Ġstacking": 8005,
      "ĠGenellikle": 8006,
      "repare": 8007,
      "Ġexclusively": 8008,
      "Make": 8009,
      "cking": 8010,
      "yim": 8011,
      "Ġcities": 8012,
      "Ġtech": 8013,
      "Ġbacak": 8014,
      "ved": 8015,
      "itation": 8016,
      "ilim": 8017,
      "Ġfight": 8018,
      "Ġga": 8019,
      "Ġstuff": 8020,
      "ĠkÄ±la": 8021,
      "larÄ±m": 8022,
      "Ġ296": 8023,
      "ĠverdiÄŁiniz": 8024,
      "Ġdemektir": 8025,
      "Ġkare": 8026,
      "Ġcop": 8027,
      "ĠÃ§alÄ±": 8028,
      "Ġ584": 8029,
      "Ġ516": 8030,
      "Ġ310": 8031,
      "Ġ315": 8032,
      "Ġvict": 8033,
      "Ġ415": 8034,
      "Ġ425": 8035,
      "Ġ715": 8036,
      "Ġ785": 8037,
      "Ġ88": 8038,
      "eceÄŁini": 8039,
      "ĠÃ¶ÄŁlen": 8040,
      "Ġ111": 8041,
      "Ġarm": 8042,
      "ganize": 8043,
      "anÄ±zdaki": 8044,
      "ĠtoplamÄ±": 8045,
      "asÄ±ndan": 8046,
      "ĠdÃ¼zeniyle": 8047,
      "ecektir": 8048,
      "tÄ±ÄŁÄ±": 8049,
      "ĠÃ§Ä±kan": 8050,
      "Ġrecip": 8051,
      "Ġstressful": 8052,
      "Ġagree": 8053,
      "Ġagenda": 8054,
      "Ġefforts": 8055,
      "Ãĸz": 8056,
      "Ġuykuyu": 8057,
      "ĠtadÄ±": 8058,
      "ĠAlÄ±ÅŁkanlÄ±klarÄ±": 8059,
      "Ġbags": 8060,
      "Ġreminder": 8061,
      "Ġgrows": 8062,
      "Ġhydration": 8063,
      "Ġlisteley": 8064,
      "Ġobserv": 8065,
      "Ġimpulsively": 8066,
      "Ġappreciation": 8067,
      "Ġsuyunu": 8068,
      "Ġkurtul": 8069,
      "Ġbelirtirseniz": 8070,
      "Ġdeliberate": 8071,
      "KÄ±sa": 8072,
      "dim": 8073,
      "gel": 8074,
      "rt": 8075,
      "tiniz": 8076,
      "Ġprop": 8077,
      "Ġbildir": 8078,
      "ĠdanÄ±ÅŁ": 8079,
      "Ġ181": 8080,
      "ĠAdÄ±m": 8081,
      "ahmin": 8082,
      "Ġ230": 8083,
      "Ġ226": 8084,
      "Ġ227": 8085,
      "ĠyapmanÄ±zÄ±": 8086,
      "lerdeki": 8087,
      "ĠnumarasÄ±nÄ±z": 8088,
      "Ġ334": 8089,
      "Ġ317": 8090,
      "Ġ389": 8091,
      "Ġ335": 8092,
      "Ġleg": 8093,
      "Ġ424": 8094,
      "Ġ436": 8095,
      "Ġ426": 8096,
      "Ġ405": 8097,
      "Ġ816": 8098,
      "Ġ1034": 8099,
      "Ġfeet": 8100,
      "care": 8101,
      "ĠseÃ§tiÄŁiniz": 8102,
      "Ġunrelated": 8103,
      "Ġ205": 8104,
      "zeti": 8105,
      "Ġelinize": 8106,
      "ĠWell": 8107,
      "Ġgereksin": 8108,
      "Ġekra": 8109,
      "ĠgÃ¶rÃ¼": 8110,
      "ĠbÃ¶lerek": 8111,
      "ĠkarÅŁÄ±sÄ±nda": 8112,
      "Ġdisag": 8113,
      "ĠakÅŁamÄ±": 8114,
      "diÄŁinizi": 8115,
      "ĠayardÄ±": 8116,
      "ĠbakÄ±ÅŁ": 8117,
      "ukarÄ±": 8118,
      "Ġenvironmental": 8119,
      "Ġparlak": 8120,
      "Ġmethods": 8121,
      "Ġcarefully": 8122,
      "Ġsabitleyin": 8123,
      "lÄ±ÄŁa": 8124,
      "lÄ±ÄŁÄ±nÄ±zÄ±": 8125,
      "ĠkÃ¶k": 8126,
      "Ġzihinsel": 8127,
      "Ġchoices": 8128,
      "Ġbarriers": 8129,
      "ĠkullanÄ±mÄ±nÄ±": 8130,
      "mayacak": 8131,
      "Ġbany": 8132,
      "Ġnutriti": 8133,
      "Ġsunuyorum": 8134,
      "Ġstruggle": 8135,
      "ĠfaktÃ¶r": 8136,
      "ĠdoÄŁrultusunda": 8137,
      "Pick": 8138,
      "ctions": 8139,
      "hour": 8140,
      "hazÄ±r": 8141,
      "lÄ±n": 8142,
      "inc": 8143,
      "Ä±ÄŁÄ±nÄ±": 8144,
      "ulation": 8145,
      "ural": 8146,
      "Ġdenize": 8147,
      "ĠdÃ¼ny": 8148,
      "ÅŁa": 8149,
      "ĠTid": 8150,
      "ĠTaking": 8151,
      "ayken": 8152,
      "Ġ183": 8153,
      "Ġmara": 8154,
      "ĠSessiz": 8155,
      "ĠAM": 8156,
      "Ġanah": 8157,
      "larken": 8158,
      "Ġ284": 8159,
      "lerinde": 8160,
      "ĠzorlandÄ±ÄŁÄ±nÄ±z": 8161,
      "ĠzamanÄ±n": 8162,
      "Ġ517": 8163,
      "Ġ525": 8164,
      "Ġ616": 8165,
      "Ġ617": 8166,
      "Ġ400": 8167,
      "Ġ489": 8168,
      "Ġ437": 8169,
      "Ġ700": 8170,
      "Ġ789": 8171,
      "Ġ924": 8172,
      "Ġ926": 8173,
      "Ġ960": 8174,
      "Ġ888": 8175,
      "ĠplanlanmÄ±ÅŁ": 8176,
      "Ġlink": 8177,
      "Ġrare": 8178,
      "ĠPrag": 8179,
      "Ġ1384": 8180,
      "ĠartÄ±rarak": 8181,
      "Ġbelirten": 8182,
      "Ġupfront": 8183,
      "Ġsettle": 8184,
      "ĠalÄ±m": 8185,
      "ĠiÅŁlerinizi": 8186,
      "ĠÃ§alÄ±ÅŁÄ±r": 8187,
      "Ġhearing": 8188,
      "Ġilerleyebilirsiniz": 8189,
      "ĠÃ§Ä±kara": 8190,
      "ĠÃ§Ä±kÄ±ÅŁ": 8191,
      "ĠolanlarÄ±": 8192,
      "ĠalanÄ±nÄ±za": 8193,
      "diÄŁinde": 8194,
      "Ġstressed": 8195,
      "Ã¼cad": 8196,
      "ĠsÄ±kÄ±ÅŁ": 8197,
      "ĠÃĩev": 8198,
      "Ġenerjisini": 8199,
      "Ġ455": 8200,
      "Ġgrab": 8201,
      "ĠÃĸÄŁrenmeyi": 8202,
      "Ġachievement": 8203,
      "Ġlooks": 8204,
      "Ġalarms": 8205,
      "Ġprocrastin": 8206,
      "Ġcontainer": 8207,
      "ĠUykuya": 8208,
      "ĠsÃ¼recin": 8209,
      "Ġtekniklerini": 8210,
      "ĠÃ§evren": 8211,
      "Ġkazanmak": 8212,
      "Ġincreasing": 8213,
      "ĠkaÃ§Ä±nmak": 8214,
      "Ġsounding": 8215,
      "Ġprepare": 8216,
      "Ġyiyecek": 8217,
      "ĠkeÅŁfedin": 8218,
      "Ġfamily": 8219,
      "Ġtuvalet": 8220,
      "Ġinteresting": 8221,
      "ĠgÃ¶ÄŁÃ¼s": 8222,
      "Ġsenaryo": 8223,
      "Ġefficiently": 8224,
      "Ġsmooth": 8225,
      "Ġnutritious": 8226,
      "bilg": 8227,
      "cÃ¼k": 8228,
      "io": 8229,
      "Ġ[": 8230,
      "isc": 8231,
      "Ġila": 8232,
      "ayÄ±r": 8233,
      "Ġgems": 8234,
      "izin": 8235,
      "Ġinvite": 8236,
      "amiliar": 8237,
      "Ġstory": 8238,
      "Ġ235": 8239,
      "Ã¼ksek": 8240,
      "lerinin": 8241,
      "lerinizin": 8242,
      "Ġabroad": 8243,
      "Ġ537": 8244,
      "Ġ376": 8245,
      "Ġ636": 8246,
      "Ġ488": 8247,
      "Ġ427": 8248,
      "Ġ724": 8249,
      "Ġ927": 8250,
      "Ġ81": 8251,
      "Ġ814": 8252,
      "Ġ815": 8253,
      "Ġ885": 8254,
      "Ġ836": 8255,
      "layalÄ±m": 8256,
      "eceÄŁin": 8257,
      "Ġ1200": 8258,
      "ĠdÃ¼zeninde": 8259,
      "Ġ204": 8260,
      "ĠkaydÄ±r": 8261,
      "ĠyaÅŁamÄ±": 8262,
      "Ġ193": 8263,
      "Ġertesi": 8264,
      "ĠkonuÅŁarak": 8265,
      "Ġspeed": 8266,
      "ĠÃ§Ä±karÄ±": 8267,
      "Ġlightweight": 8268,
      "Ġdetours": 8269,
      "ĠkapÄ±": 8270,
      "Ġmesajda": 8271,
      "ditionally": 8272,
      "Ġtemizlemek": 8273,
      "Ġcontent": 8274,
      "meyecek": 8275,
      "Ġseeing": 8276,
      "ĠAdditionally": 8277,
      "ĠuyumayÄ±": 8278,
      "Ġgirmeden": 8279,
      "ĠÃ§ekici": 8280,
      "Ġformat": 8281,
      "Ġobj": 8282,
      "ĠgÃ¶rÃ¼nen": 8283,
      "tirebilir": 8284,
      "tirebilirsiniz": 8285,
      "Ġgrounding": 8286,
      "ĠÃ¼zerindeki": 8287,
      "Ġassumptions": 8288,
      "ĠsÄ±nÄ±rlÄ±": 8289,
      "Ġcolle": 8290,
      "ĠaydÄ±nlatma": 8291,
      "ĠiliÅŁki": 8292,
      "Ġlisteleyin": 8293,
      "dikten": 8294,
      "ĠplanlÄ±yor": 8295,
      "Ġaccountability": 8296,
      "Ġchaos": 8297,
      "ĠbardaÄŁÄ±": 8298,
      "kalem": 8299,
      "Ġunfamiliar": 8300,
      "Ġdikkate": 8301,
      "Ġtechn": 8302,
      "Ġmarath": 8303,
      "Hedef": 8304,
      "hum": 8305,
      "manÄ±": 8306,
      "orate": 8307,
      "Ġsar": 8308,
      "Ġski": 8309,
      "Ġsix": 8310,
      "Ġbot": 8311,
      "rat": 8312,
      "ello": 8313,
      "Ġname": 8314,
      "teÅŁ": 8315,
      "lediÄŁiniz": 8316,
      "Ġfile": 8317,
      "Ġfig": 8318,
      "Ġoyn": 8319,
      "ĠayarÄ±": 8320,
      "ĠGreat": 8321,
      "Ġ211": 8322,
      "Ġ214": 8323,
      "Ġ286": 8324,
      "Ġ297": 8325,
      "ĠuyarÄ±": 8326,
      "Ġ535": 8327,
      "Ġ546": 8328,
      "Ġ329": 8329,
      "Ġ347": 8330,
      "Ġ396": 8331,
      "ikten": 8332,
      "ĠRut": 8333,
      "Ġ635": 8334,
      "Ġ484": 8335,
      "Ġ487": 8336,
      "Ġ404": 8337,
      "Ġ734": 8338,
      "Ġ786": 8339,
      "Ġ727": 8340,
      "Ġ915": 8341,
      "Ġ916": 8342,
      "Ġ817": 8343,
      "Ġ824": 8344,
      "Ġ837": 8345,
      "eceÄŁi": 8346,
      "Ġ1084": 8347,
      "Ġ1085": 8348,
      "Ġ1089": 8349,
      "Ġ1534": 8350,
      "ondan": 8351,
      "ĠÃ¶ÄŁret": 8352,
      "Ġevi": 8353,
      "Ġbelirleyebilirsiniz": 8354,
      "Ġ255": 8355,
      "Ġediyor": 8356,
      "Ġedici": 8357,
      "Ġelb": 8358,
      "Ġdurumlarda": 8359,
      "ĠodaklanmÄ±ÅŁ": 8360,
      "Ġ196": 8361,
      "Ġkurma": 8362,
      "Ġ276": 8363,
      "Ġrestore": 8364,
      "ĠdÃ¼zenlemeye": 8365,
      "ĠalanÄ±na": 8366,
      "ĠbÃ¶lÃ¼": 8367,
      "ĠdÃ¼ÅŁÃ¼nelim": 8368,
      "ĠyarÄ±m": 8369,
      "Ġgidiyor": 8370,
      "ĠgÃ¶revlerin": 8371,
      "oughly": 8372,
      "Ġpencer": 8373,
      "Ġenerjisi": 8374,
      "ĠgerÃ§ekleÅŁtir": 8375,
      "Ġ456": 8376,
      "ebiliriz": 8377,
      "Ãĸrn": 8378,
      "Ġdriven": 8379,
      "ĠEvde": 8380,
      "Ġkelimesi": 8381,
      "aÄŁÄ±daki": 8382,
      "ĠÃ§izgi": 8383,
      "ĠgÃ¶ndermek": 8384,
      "ĠsÃ¼recinde": 8385,
      "Ġkoyup": 8386,
      "Ġvakti": 8387,
      "ĠÃ§evre": 8388,
      "Ġhavuzu": 8389,
      "ĠyarÄ±sÄ±": 8390,
      "ĠSÄ±cak": 8391,
      "Ġkaydetmek": 8392,
      "Ġtonunu": 8393,
      "ĠoluÅŁturarak": 8394,
      "ĠÃ§eviri": 8395,
      "ĠnoktalarÄ±": 8396,
      "ology": 8397,
      "Ġtencer": 8398,
      "Ġsindirim": 8399,
      "Ä±ra": 8400,
      "ancing": 8401,
      "tiren": 8402,
      "Ġpages": 8403,
      "ouble": 8404,
      "Ġneye": 8405,
      "tecek": 8406,
      "tegor": 8407,
      "Ġhop": 8408,
      "orba": 8409,
      "ably": 8410,
      "Ġrelease": 8411,
      "nerek": 8412,
      "ĠGer": 8413,
      "Ġmem": 8414,
      "edir": 8415,
      "Ġvere": 8416,
      "ĠyapmayÄ±n": 8417,
      "Ġkategor": 8418,
      "ĠPrepare": 8419,
      "Ġ507": 8420,
      "Ġ566": 8421,
      "Ġ330": 8422,
      "Ġ320": 8423,
      "Ġbeginning": 8424,
      "Ġ634": 8425,
      "Ġ627": 8426,
      "Ġ784": 8427,
      "Ġ726": 8428,
      "Ġ934": 8429,
      "Ġ834": 8430,
      "Ġ827": 8431,
      "Ġspir": 8432,
      "Ġ1000": 8433,
      "Ġ1016": 8434,
      "Ġ1035": 8435,
      "Ġ1026": 8436,
      "deep": 8437,
      "Ġrap": 8438,
      "ĠÅŁef": 8439,
      "ĠalÄ±rken": 8440,
      "Ġboard": 8441,
      "Ġ1134": 8442,
      "Ġtracking": 8443,
      "beti": 8444,
      "ĠkullandÄ±ÄŁÄ±nÄ±z": 8445,
      "Ġhedefleri": 8446,
      "Ġuns": 8447,
      "ording": 8448,
      "Ġedilen": 8449,
      "Ġoutdo": 8450,
      "Ã¼rekli": 8451,
      "ĠiÅŁlerin": 8452,
      "Ġ265": 8453,
      "Ġ274": 8454,
      "ĠThey": 8455,
      "Ġroad": 8456,
      "Ġlaugh": 8457,
      "Ġrecomm": 8458,
      "Ġvisits": 8459,
      "ĠduyarlÄ±": 8460,
      "Ġhedeflerin": 8461,
      "ĠsÄ±kÄ±": 8462,
      "Ġkahves": 8463,
      "ĠÅŁunlar": 8464,
      "ĠUyan": 8465,
      "Ġyoktur": 8466,
      "ĠÅŀehir": 8467,
      "Ġ357": 8468,
      "ĠyanÄ±nda": 8469,
      "ĠuyanÄ±nca": 8470,
      "Ġmisin": 8471,
      "ĠdeÄŁiÅŁir": 8472,
      "Ġinitiative": 8473,
      "mezsiniz": 8474,
      "Ġkaba": 8475,
      "Ġmalze": 8476,
      "bilmek": 8477,
      "Ġchats": 8478,
      "ĠkaÄŁÄ±dÄ±": 8479,
      "ĠduyduÄŁun": 8480,
      "Ġforced": 8481,
      "Ġpicture": 8482,
      "ĠbaÅŁlÄ±yorsanÄ±z": 8483,
      "Ġhydrated": 8484,
      "ĠcevabÄ±": 8485,
      "Ġportre": 8486,
      "ĠfotoÄŁrafÃ§Ä±lÄ±k": 8487,
      "Ġyuvar": 8488,
      "Ġempat": 8489,
      "Ġferah": 8490,
      "Uy": 8491,
      "gien": 8492,
      "how": 8493,
      "ious": 8494,
      "ox": 8495,
      "ring": 8496,
      "van": 8497,
      "Ġaile": 8498,
      "ering": 8499,
      "oda": 8500,
      "elisiniz": 8501,
      "Ġhep": 8502,
      "Ġhaber": 8503,
      "arant": 8504,
      "ĠDolayÄ±sÄ±yla": 8505,
      "Ġthir": 8506,
      "ĠSeÃ§": 8507,
      "Ã¼nÃ¼n": 8508,
      "ĠanlarÄ±": 8509,
      "ĠGel": 8510,
      "Ġ287": 8511,
      "Ġ229": 8512,
      "Ġ349": 8513,
      "Ġ370": 8514,
      "Ġ346": 8515,
      "Ġ366": 8516,
      "enizden": 8517,
      "Ġ614": 8518,
      "ĠyazdÄ±ÄŁÄ±nÄ±z": 8519,
      "Ġvac": 8520,
      "Ġ486": 8521,
      "Ġ444": 8522,
      "Ġ407": 8523,
      "Ġ477": 8524,
      "Ġ736": 8525,
      "Ġ737": 8526,
      "Ġ984": 8527,
      "Ġ987": 8528,
      "Ġ936": 8529,
      "Ġ935": 8530,
      "Ġ835": 8531,
      "suna": 8532,
      "Ġjok": 8533,
      "ĠanlamlÄ±": 8534,
      "omb": 8535,
      "Ġ1024": 8536,
      "Ġ1584": 8537,
      "Ġ1524": 8538,
      "Ġ1234": 8539,
      "Ġ1224": 8540,
      "Ġkalmaya": 8541,
      "Ġ1114": 8542,
      "Ġ1125": 8543,
      "Ġbelirgin": 8544,
      "Ġokun": 8545,
      "Ġinternation": 8546,
      "Ġthemselves": 8547,
      "Ġ250": 8548,
      "ĠkullanÄ±p": 8549,
      "Ġsuit": 8550,
      "Ġelinde": 8551,
      "ĠyaÅŁamak": 8552,
      "Ġkurs": 8553,
      "ĠkuralÄ±": 8554,
      "Ġ267": 8555,
      "ĠSabahÄ±": 8556,
      "alarÄ±na": 8557,
      "Ġgiden": 8558,
      "earching": 8559,
      "Ġseviyenize": 8560,
      "ĠprogramÄ±nÄ±": 8561,
      "ĠEvdeki": 8562,
      "ĠvÃ¼cudunuza": 8563,
      "ĠRespect": 8564,
      "ĠortamÄ±": 8565,
      "Ġoturun": 8566,
      "ĠkiÅŁiyi": 8567,
      "Ġmoder": 8568,
      "Ġdefterine": 8569,
      "Ġencourages": 8570,
      "Ġhygien": 8571,
      "ĠÃ¶lÃ§Ã¼n": 8572,
      "ĠHayÄ±r": 8573,
      "ĠÄ°ÅŁte": 8574,
      "ĠiÅŁlev": 8575,
      "ĠBaÅŁarÄ±lÄ±": 8576,
      "gencies": 8577,
      "Ġsounds": 8578,
      "Ġchargers": 8579,
      "Ġkenar": 8580,
      "oloji": 8581,
      "Ġemergencies": 8582,
      "Ġcountry": 8583,
      "Ġwillingness": 8584,
      "ĠGÃ¶revlerinizi": 8585,
      "ĠKahvaltÄ±": 8586,
      "Ġtoiletries": 8587,
      "Ġhygiene": 8588,
      "tra": 8589,
      "isk": 8590,
      "Ġpl": 8591,
      "ĠtÄ±k": 8592,
      "Ġbiber": 8593,
      "ĠkÃ¼Ã§": 8594,
      "Ġkase": 8595,
      "Ġkura": 8596,
      "aris": 8597,
      "ĠdediÄŁ": 8598,
      "irs": 8599,
      "Ã§ok": 8600,
      "ĠDoÄŁ": 8601,
      "lations": 8602,
      "Ġmile": 8603,
      "Ġstreak": 8604,
      "Ġstories": 8605,
      "ĠAra": 8606,
      "Ġ222": 8607,
      "Ä°ÅŁ": 8608,
      "Ġresearching": 8609,
      "Ġ532": 8610,
      "Ġ582": 8611,
      "Ġ594": 8612,
      "ĠRe": 8613,
      "Ġleft": 8614,
      "Ġ630": 8615,
      "Ġ685": 8616,
      "Ġ605": 8617,
      "Ġ420": 8618,
      "Ġ470": 8619,
      "Ġ445": 8620,
      "Ġ464": 8621,
      "Ġ788": 8622,
      "Ġ716": 8623,
      "Ġ914": 8624,
      "Ġ985": 8625,
      "Ġ884": 8626,
      "Ġ887": 8627,
      "Ġ886": 8628,
      "Ġ805": 8629,
      "Ġplanlar": 8630,
      "Ġ1086": 8631,
      "Ġ1284": 8632,
      "Ġkalab": 8633,
      "Ġmanaging": 8634,
      "Ġ1414": 8635,
      "Ġ1436": 8636,
      "Ġtran": 8637,
      "Ġ1188": 8638,
      "Ġ138": 8639,
      "Ġ1334": 8640,
      "Ġword": 8641,
      "ĠKaf": 8642,
      "Ġlistele": 8643,
      "ĠbaÅŁlayabileceÄŁiniz": 8644,
      "Ġinterfer": 8645,
      "arakter": 8646,
      "Ġfront": 8647,
      "ĠÃ§alÄ±ÅŁtÄ±r": 8648,
      "Ġ173": 8649,
      "Ġelinizi": 8650,
      "clear": 8651,
      "ĠalÄ±ÅŁkanlÄ±ÄŁÄ±nÄ±": 8652,
      "Ġ306": 8653,
      "ĠakÄ±l": 8654,
      "Ġdurup": 8655,
      "Ġ279": 8656,
      "akkab": 8657,
      "ĠdÃ¼zenlemeyi": 8658,
      "Ġopening": 8659,
      "ĠhÄ±zlandÄ±": 8660,
      "ĠtÃ¼rÃ¼ne": 8661,
      "ĠsorunlarÄ±nÄ±z": 8662,
      "ĠoluÅŁturmaya": 8663,
      "ĠyatÄ±p": 8664,
      "Ġhedeflere": 8665,
      "Ġenjo": 8666,
      "Ġaggre": 8667,
      "Ġtelefonunuzdan": 8668,
      "value": 8669,
      "ĠiÃ§erir": 8670,
      "mamÄ±ÅŁ": 8671,
      "ĠanlatÄ±m": 8672,
      "Ġmutluluk": 8673,
      "istics": 8674,
      "Ġengagement": 8675,
      "ĠdeÄŁerlendirin": 8676,
      "ĠteÅŁekkÃ¼r": 8677,
      "ĠsÃ¶zlÃ¼k": 8678,
      "ĠgÃ¼Ã§lendirir": 8679,
      "urable": 8680,
      "Ġharcamak": 8681,
      "ĠuÃ§ak": 8682,
      "coming": 8683,
      "Ġlogistics": 8684,
      "Ġreflecting": 8685,
      "Ġtelev": 8686,
      "ĠilginÃ§": 8687,
      "Ġdynamic": 8688,
      "ĠsÄ±nÄ±f": 8689,
      "Ġrarely": 8690,
      "Ġaggreg": 8691,
      "asa": 8692,
      "bile": 8693,
      "focus": 8694,
      "rit": 8695,
      "Ġseni": 8696,
      "reement": 8697,
      "ĠkaÅŁ": 8698,
      "ĠDikkat": 8699,
      "Ġfoto": 8700,
      "ĠbirleÅŁtir": 8701,
      "amÄ±yorum": 8702,
      "ĠAk": 8703,
      "Ġadim": 8704,
      "Ġzem": 8705,
      "Ġforg": 8706,
      "Ġ282": 8707,
      "ĠbaÅŁÄ±ndan": 8708,
      "lamanÄ±z": 8709,
      "Ġissue": 8710,
      "Ġkonudaki": 8711,
      "ĠzorlaÅŁtÄ±r": 8712,
      "Ġ51": 8713,
      "Ġ586": 8714,
      "Ġ589": 8715,
      "Ġ577": 8716,
      "Ġ340": 8717,
      "Ġ319": 8718,
      "Ġ61": 8719,
      "Ġ688": 8720,
      "Ġ686": 8721,
      "Ġ637": 8722,
      "Ġ607": 8723,
      "Ġ606": 8724,
      "Ġ695": 8725,
      "Ġ406": 8726,
      "Ġ717": 8727,
      "Ġ787": 8728,
      "Ġ735": 8729,
      "Ġ705": 8730,
      "Ġ774": 8731,
      "Ġ912": 8732,
      "Ġ917": 8733,
      "Ġ986": 8734,
      "Ġ904": 8735,
      "Ġ820": 8736,
      "ertain": 8737,
      "Ġ1017": 8738,
      "Ġ1037": 8739,
      "Ġhass": 8740,
      "Ġ1288": 8741,
      "Ġ1216": 8742,
      "Ġ1236": 8743,
      "Ġkalkarak": 8744,
      "Ġ1116": 8745,
      "Ġ1127": 8746,
      "Ġ1314": 8747,
      "Ġ1324": 8748,
      "velop": 8749,
      "Ġexha": 8750,
      "Ġsona": 8751,
      "inyal": 8752,
      "Ġoversp": 8753,
      "Ġ161": 8754,
      "Ġsorusuna": 8755,
      "ĠFlights": 8756,
      "Ġhedefini": 8757,
      "ĠsuÃ§": 8758,
      "ĠBirincisi": 8759,
      "Ġ246": 8760,
      "Ġ275": 8761,
      "ĠbaÅŁlayanlar": 8762,
      "Ġyararlan": 8763,
      "ĠnetleÅŁ": 8764,
      "Ġfollowing": 8765,
      "ĠakÅŁamlarÄ±": 8766,
      "ĠbÄ±rakmayÄ±n": 8767,
      "Ġactual": 8768,
      "ĠUygul": 8769,
      "ĠbaÅŁarÄ±lÄ±": 8770,
      "ĠbaÅŁarÄ±sÄ±z": 8771,
      "masÄ±dÄ±r": 8772,
      "Ġsunmak": 8773,
      "Ġrealis": 8774,
      "Ġ756": 8775,
      "Ġ855": 8776,
      "Ġendor": 8777,
      "dÄ±ÄŁÄ±na": 8778,
      "Ġedebilir": 8779,
      "Ġsohbeti": 8780,
      "ĠgÃ¶steren": 8781,
      "Ġdesignate": 8782,
      "ĠkaynaklarÄ±": 8783,
      "Ġdocument": 8784,
      "Ġcountertop": 8785,
      "tÄ±rabilir": 8786,
      "tirici": 8787,
      "Ġguilty": 8788,
      "ĠarayÄ±n": 8789,
      "Ġvadede": 8790,
      "Ġgathering": 8791,
      "Ġcompliments": 8792,
      "Ġburada": 8793,
      "urgent": 8794,
      "\".": 8795,
      "Son": 8796,
      "gÃ¶z": 8797,
      "win": 8798,
      "Ä±yorsunuz": 8799,
      "Ġside": 8800,
      "resim": 8801,
      "Ġneyin": 8802,
      "urther": 8803,
      "ÅŁek": 8804,
      "ĠYour": 8805,
      "Ġfurther": 8806,
      "ĠSw": 8807,
      "ither": 8808,
      "Ġinstant": 8809,
      "ahÃ§e": 8810,
      "Ġanlar": 8811,
      "Ġ295": 8812,
      "Ġmoves": 8813,
      "ĠyapÄ±mÄ±": 8814,
      "ĠÃ¶neriniz": 8815,
      "Ġ540": 8816,
      "Ġ549": 8817,
      "Ġ544": 8818,
      "Ġ545": 8819,
      "Ġ504": 8820,
      "Ġ595": 8821,
      "Ġ519": 8822,
      "Ġ567": 8823,
      "Ġ382": 8824,
      "Ġ390": 8825,
      "Ġ337": 8826,
      "Ġ350": 8827,
      "Ġ344": 8828,
      "Ġ374": 8829,
      "Ġ365": 8830,
      "Ġ620": 8831,
      "Ġ609": 8832,
      "Ġ41": 8833,
      "Ġ434": 8834,
      "Ġ417": 8835,
      "Ġ749": 8836,
      "Ġ796": 8837,
      "Ġ932": 8838,
      "Ġ882": 8839,
      "Ġ889": 8840,
      "Ġ825": 8841,
      "Ġ844": 8842,
      "Ġbuz": 8843,
      "Ġbypass": 8844,
      "Ġseek": 8845,
      "Ġ1015": 8846,
      "Ġ1535": 8847,
      "Ġ1289": 8848,
      "Ġ1237": 8849,
      "Ġ141": 8850,
      "Ġ1488": 8851,
      "Ġ1485": 8852,
      "Ġ1486": 8853,
      "Ġ1489": 8854,
      "Ġ1184": 8855,
      "Ġ1300": 8856,
      "Ġ1385": 8857,
      "Ġ1325": 8858,
      "Ã¼yÃ¼ÅŁ": 8859,
      "ĠdakikasÄ±nÄ±": 8860,
      "Ġkendinizle": 8861,
      "Ġ208": 8862,
      "arklÄ±": 8863,
      "Ġ305": 8864,
      "Ġ307": 8865,
      "Ġ247": 8866,
      "Ġduran": 8867,
      "azen": 8868,
      "Ġease": 8869,
      "ĠdÃ¼ÅŁÃ¼nme": 8870,
      "Ġuzat": 8871,
      "Ġfolding": 8872,
      "Ġdinamik": 8873,
      "Ġhareketlerle": 8874,
      "Ġhissetmeniz": 8875,
      "Ġbudgeting": 8876,
      "ĠaÃ§Ä±klayÄ±cÄ±": 8877,
      "ĠbaÄŁÄ±m": 8878,
      "abilmek": 8879,
      "Ġ354": 8880,
      "Ã¼nÃ¼zÃ¼n": 8881,
      "Ġincelem": 8882,
      "Ġ554": 8883,
      "Ġendless": 8884,
      "Ġifadeler": 8885,
      "Ġsoruya": 8886,
      "ĠgÃ¶rÃ¼nÃ¼m": 8887,
      "Ġgetirir": 8888,
      "Ġsohbetler": 8889,
      "Ġsabr": 8890,
      "melidir": 8891,
      "ĠKonuyu": 8892,
      "Ġextend": 8893,
      "ĠamacÄ±": 8894,
      "Ġbilgilerin": 8895,
      "Ġminimum": 8896,
      "Ġhavuzun": 8897,
      "ĠAlÄ±ÅŁkanlÄ±klar": 8898,
      "Ġestablishing": 8899,
      "Ġzihni": 8900,
      "trip": 8901,
      "ĠuygulamalarÄ±nÄ±": 8902,
      "Ġprovides": 8903,
      "ĠyÃ¼rÃ¼menizi": 8904,
      "Ġlayers": 8905,
      "kenden": 8906,
      "ĠMayayla": 8907,
      "Ġpattern": 8908,
      "visit": 8909,
      "Ġtimers": 8910,
      "Ġcorrect": 8911,
      "Ġrealistically": 8912,
      "nun": 8913,
      "Ġaud": 8914,
      "isy": 8915,
      "Ġcross": 8916,
      "Ġsinyal": 8917,
      "Ġkop": 8918,
      "Ġkarakter": 8919,
      "ĠEyl": 8920,
      "ĠyukarÄ±": 8921,
      "ĠTwo": 8922,
      "aklaÅŁ": 8923,
      "izyon": 8924,
      "abl": 8925,
      "kiÅŁ": 8926,
      "Ġzaten": 8927,
      "ĠadÄ±mlÄ±": 8928,
      "Ġ290": 8929,
      "ĠbaÅŁÄ±nÄ±": 8930,
      "ĠMix": 8931,
      "Ġmola": 8932,
      "ĠOl": 8933,
      "amanÄ±zÄ±": 8934,
      "ĠÃ§ant": 8935,
      "Ġ588": 8936,
      "Ġ587": 8937,
      "Ġ569": 8938,
      "ĠgÃ¼nÃ¼m": 8939,
      "Ġ369": 8940,
      "Ġ689": 8941,
      "Ġ670": 8942,
      "Ġ619": 8943,
      "ĠyazÄ±m": 8944,
      "Ġ432": 8945,
      "Ġ460": 8946,
      "Ġ475": 8947,
      "ĠHang": 8948,
      "Ġ709": 8949,
      "Ġ747": 8950,
      "Ġ91": 8951,
      "Ġ920": 8952,
      "Ġ988": 8953,
      "Ġ980": 8954,
      "Ġ925": 8955,
      "Ġ909": 8956,
      "Ġ812": 8957,
      "Ġ804": 8958,
      "Ġ1014": 8959,
      "Ġ1036": 8960,
      "Ġ1515": 8961,
      "Ġ1536": 8962,
      "Ġ1525": 8963,
      "olun": 8964,
      "ĠalÄ±r": 8965,
      "Ġ1214": 8966,
      "Ġ1215": 8967,
      "Ġ1285": 8968,
      "Ġ1226": 8969,
      "Ġ1424": 8970,
      "Ġ1427": 8971,
      "Ġ1135": 8972,
      "Ġ1137": 8973,
      "Ġ1126": 8974,
      "Ġ1389": 8975,
      "Ġ1327": 8976,
      "Ġyemekler": 8977,
      "Ġhedefleyerek": 8978,
      "ĠsaÄŁla": 8979,
      "Ġdeepen": 8980,
      "ĠgÃ¼lÃ¼m": 8981,
      "Ġerkenden": 8982,
      "Ġspeech": 8983,
      "Ġtamamlayarak": 8984,
      "Ġnefesini": 8985,
      "Ġfinally": 8986,
      "Ġhissetme": 8987,
      "Ġpressured": 8988,
      "Ġthoughtful": 8989,
      "ĠÅŁeylerden": 8990,
      "Ġ659": 8991,
      "Ġkoruyarak": 8992,
      "ĠyansÄ±": 8993,
      "Ġ856": 8994,
      "ĠendiÅŁ": 8995,
      "ĠseÃ§enektir": 8996,
      "ĠkatÄ±lacak": 8997,
      "ĠdÃ¶nem": 8998,
      "Ġminor": 8999,
      "Ġindivid": 9000,
      "Ġreplacement": 9001,
      "Ġderail": 9002,
      "ĠSorun": 9003,
      "Ġsummarize": 9004,
      "ĠtanÄ±mlayÄ±n": 9005,
      "ĠÃĸnerim": 9006,
      "ĠanlaÅŁÄ±l": 9007,
      "Ġhesaplama": 9008,
      "Ġkaybetmeden": 9009,
      "ĠmantÄ±klÄ±sÄ±": 9010,
      "Ġgeneric": 9011,
      "Ġboyut": 9012,
      "Ġremaining": 9013,
      "Ġfamiliar": 9014,
      "Ġobjects": 9015,
      "Ġsulama": 9016,
      "ozisyon": 9017,
      "Ã¼ncÃ¼": 9018,
      "Ġexplore": 9019,
      "Ġdiscoveries": 9020,
      "Ġempathy": 9021,
      "Ġenjoying": 9022,
      "ĠEylÃ¼l": 9023,
      "HÄ±zlÄ±": 9024,
      "cy": 9025,
      "dge": 9026,
      "iÃ§": 9027,
      "igh": 9028,
      "kon": 9029,
      "neden": 9030,
      "erf": 9031,
      "Ġserin": 9032,
      "Ġbay": 9033,
      "Ġidi": 9034,
[...]
