{
  "version": "1.0",
  "truncation": null,
  "padding": null,
  "added_tokens": [
    {
      "id": 0,
      "content": "<unk>",
      "single_word": false,
      "lstrip": false,
      "rstrip": false,
      "normalized": false,
      "special": true
    },
    {
      "id": 1,
      "content": "<s>",
      "single_word": false,
      "lstrip": false,
      "rstrip": false,
      "normalized": false,
      "special": true
    },
    {
      "id": 2,
      "content": "</s>",
      "single_word": false,
      "lstrip": false,
      "rstrip": false,
      "normalized": false,
      "special": true
    },
    {
      "id": 3,
      "content": "<pad>",
      "single_word": false,
      "lstrip": false,
      "rstrip": false,
      "normalized": false,
      "special": true
    },
    {
      "id": 4,
      "content": "<|system|>",
      "single_word": false,
      "lstrip": false,
      "rstrip": false,
      "normalized": false,
      "special": true
    },
    {
      "id": 5,
      "content": "<|user|>",
      "single_word": false,
      "lstrip": false,
      "rstrip": false,
      "normalized": false,
      "special": true
    },
    {
      "id": 6,
      "content": "<|assistant|>",
      "single_word": false,
      "lstrip": false,
      "rstrip": false,
      "normalized": false,
      "special": true
    },
    {
      "id": 7,
      "content": "<|end|>",
      "single_word": false,
      "lstrip": false,
      "rstrip": false,
      "normalized": false,
      "special": true
    },
    {
      "id": 8,
      "content": "<|code|>",
      "single_word": false,
      "lstrip": false,
      "rstrip": false,
      "normalized": false,
      "special": true
    }
  ],
  "normalizer": null,
  "pre_tokenizer": {
    "type": "Sequence",
    "pretokenizers": [
      {
        "type": "Split",
        "pattern": {
          "Regex": "'(?i:[sdmt]|ll|ve|re)|[^\\r\\n\\p{L}\\p{N}]?+\\p{L}++|\\p{N}{1,3}+| ?[^\\s\\p{L}\\p{N}]++[\\r\\n]*+|\\s*[\\r\\n]|\\s+(?!\\S)|\\s+"
        },
        "behavior": "Isolated",
        "invert": false
      },
      {
        "type": "ByteLevel",
        "add_prefix_space": false,
        "trim_offsets": true,
        "use_regex": false
      }
    ]
  },
  "post_processor": {
    "type": "ByteLevel",
    "add_prefix_space": true,
    "trim_offsets": false,
    "use_regex": true
  },
  "decoder": {
    "type": "ByteLevel",
    "add_prefix_space": true,
    "trim_offsets": true,
    "use_regex": true
  },
  "model": {
    "type": "BPE",
    "dropout": null,
    "unk_token": "<unk>",
    "continuing_subword_prefix": null,
    "end_of_word_suffix": null,
    "fuse_unk": false,
    "byte_fallback": false,
    "ignore_merges": false,
    "vocab": {
      "<unk>": 0,
      "<s>": 1,
      "</s>": 2,
      "<pad>": 3,
      "<|system|>": 4,
      "<|user|>": 5,
      "<|assistant|>": 6,
      "<|end|>": 7,
      "<|code|>": 8,
      "!": 9,
      "\"": 10,
      "#": 11,
      "$": 12,
      "%": 13,
      "&": 14,
      "'": 15,
      "(": 16,
      ")": 17,
      "*": 18,
      "+": 19,
      ",": 20,
      "-": 21,
      ".": 22,
      "/": 23,
      "0": 24,
      "1": 25,
      "2": 26,
      "3": 27,
      "4": 28,
      "5": 29,
      "6": 30,
      "7": 31,
      "8": 32,
      "9": 33,
      ":": 34,
      ";": 35,
      "<": 36,
      "=": 37,
      ">": 38,
      "?": 39,
      "@": 40,
      "A": 41,
      "B": 42,
      "C": 43,
      "D": 44,
      "E": 45,
      "F": 46,
      "G": 47,
      "H": 48,
      "I": 49,
      "J": 50,
      "K": 51,
      "L": 52,
      "M": 53,
      "N": 54,
      "O": 55,
      "P": 56,
      "Q": 57,
      "R": 58,
      "S": 59,
      "T": 60,
      "U": 61,
      "V": 62,
      "W": 63,
      "X": 64,
      "Y": 65,
      "Z": 66,
      "[": 67,
      "\\": 68,
      "]": 69,
      "^": 70,
      "_": 71,
      "`": 72,
      "a": 73,
      "b": 74,
      "c": 75,
      "d": 76,
      "e": 77,
      "f": 78,
      "g": 79,
      "h": 80,
      "i": 81,
      "j": 82,
      "k": 83,
      "l": 84,
      "m": 85,
      "n": 86,
      "o": 87,
      "p": 88,
      "q": 89,
      "r": 90,
      "s": 91,
      "t": 92,
      "u": 93,
      "v": 94,
      "w": 95,
      "x": 96,
      "y": 97,
      "z": 98,
      "{": 99,
      "|": 100,
      "}": 101,
      "~": 102,
      "¡": 103,
      "¢": 104,
      "£": 105,
      "¤": 106,
      "¥": 107,
      "¦": 108,
      "§": 109,
      "¨": 110,
      "©": 111,
      "ª": 112,
      "«": 113,
      "¬": 114,
      "®": 115,
      "¯": 116,
      "°": 117,
      "±": 118,
      "²": 119,
      "³": 120,
      "´": 121,
      "µ": 122,
      "¶": 123,
      "·": 124,
      "¸": 125,
      "¹": 126,
      "º": 127,
      "»": 128,
      "¼": 129,
      "½": 130,
      "¾": 131,
      "¿": 132,
      "À": 133,
      "Á": 134,
      "Â": 135,
      "Ã": 136,
      "Ä": 137,
      "Å": 138,
      "Æ": 139,
      "Ç": 140,
      "È": 141,
      "É": 142,
      "Ê": 143,
      "Ë": 144,
      "Ì": 145,
      "Í": 146,
      "Î": 147,
      "Ï": 148,
      "Ð": 149,
      "Ñ": 150,
      "Ò": 151,
      "Ó": 152,
      "Ô": 153,
      "Õ": 154,
      "Ö": 155,
      "×": 156,
      "Ø": 157,
      "Ù": 158,
      "Ú": 159,
      "Û": 160,
      "Ü": 161,
      "Ý": 162,
      "Þ": 163,
      "ß": 164,
      "à": 165,
      "á": 166,
      "â": 167,
      "ã": 168,
      "ä": 169,
      "å": 170,
      "æ": 171,
      "ç": 172,
      "è": 173,
      "é": 174,
      "ê": 175,
      "ë": 176,
      "ì": 177,
      "í": 178,
      "î": 179,
      "ï": 180,
      "ð": 181,
      "ñ": 182,
      "ò": 183,
      "ó": 184,
      "ô": 185,
      "õ": 186,
      "ö": 187,
      "÷": 188,
      "ø": 189,
      "ù": 190,
      "ú": 191,
      "û": 192,
      "ü": 193,
      "ý": 194,
      "þ": 195,
      "ÿ": 196,
      "Ā": 197,
      "ā": 198,
      "Ă": 199,
      "ă": 200,
      "Ą": 201,
      "ą": 202,
      "Ć": 203,
      "ć": 204,
      "Ĉ": 205,
      "ĉ": 206,
      "Ċ": 207,
      "ċ": 208,
      "Č": 209,
      "č": 210,
      "Ď": 211,
      "ď": 212,
      "Đ": 213,
      "đ": 214,
      "Ē": 215,
      "ē": 216,
      "Ĕ": 217,
      "ĕ": 218,
      "Ė": 219,
      "ė": 220,
      "Ę": 221,
      "ę": 222,
      "Ě": 223,
      "ě": 224,
      "Ĝ": 225,
      "ĝ": 226,
      "Ğ": 227,
      "ğ": 228,
      "Ġ": 229,
      "ġ": 230,
      "Ģ": 231,
      "ģ": 232,
      "Ĥ": 233,
      "ĥ": 234,
      "Ħ": 235,
      "ħ": 236,
      "Ĩ": 237,
      "ĩ": 238,
      "Ī": 239,
      "ī": 240,
      "Ĭ": 241,
      "ĭ": 242,
      "Į": 243,
      "į": 244,
      "İ": 245,
      "ı": 246,
      "Ĳ": 247,
      "ĳ": 248,
      "Ĵ": 249,
      "ĵ": 250,
      "Ķ": 251,
      "ķ": 252,
      "ĸ": 253,
      "Ĺ": 254,
      "ĺ": 255,
      "Ļ": 256,
      "ļ": 257,
      "Ľ": 258,
      "ľ": 259,
      "Ŀ": 260,
      "ŀ": 261,
      "Ł": 262,
      "ł": 263,
      "Ń": 264,
      "Ġa": 265,
      "<|": 266,
      "|>": 267,
      "is": 268,
      "nd": 269,
      "on": 270,
      "in": 271,
      "er": 272,
      "Ä±": 273,
      "an": 274,
      "Ġc": 275,
      "end": 276,
      "ĠĊ": 277,
      "|>:": 278,
      "|>Ċ": 279,
      "ti": 280,
      "Ġp": 281,
      "Ġs": 282,
      "ing": 283,
      "Ġt": 284,
      "Ġpr": 285,
      "ss": 286,
      "ist": 287,
      "re": 288,
      "Ġb": 289,
      "Ġcon": 290,
      "ant": 291,
      "ou": 292,
      "al": 293,
      "od": 294,
      "istant": 295,
      "ssistant": 296,
      "ish": 297,
      "en": 298,
      "ra": 299,
      "el": 300,
      "Ġk": 301,
      "tion": 302,
      "Ġn": 303,
      "te": 304,
      "ul": 305,
      "Ġh": 306,
      "Ã¼": 307,
      "us": 308,
      "ce": 309,
      "ver": 310,
      "ĠE": 311,
      "le": 312,
      "or": 313,
      "Ġy": 314,
      "me": 315,
      "ar": 316,
      "sa": 317,
      "Ġi": 318,
      "Ġd": 319,
      "ur": 320,
      "Ġand": 321,
      "ir": 322,
      "ĠD": 323,
      "gl": 324,
      "ÅŁ": 325,
      "ot": 326,
      "Ã§": 327,
      "user": 328,
      "assistant": 329,
      "og": 330,
      "mm": 331,
      "cis": 332,
      "ĠT": 333,
      "Ġconcis": 334,
      "tem": 335,
      "ĠY": 336,
      "Ġare": 337,
      "ys": 338,
      "Ġw": 339,
      "ĠEn": 340,
      "Ġnot": 341,
      "Ġhel": 342,
      "Ġhelp": 343,
      "ful": 344,
      "ogra": 345,
      "ĠDo": 346,
      "versa": 347,
      "uce": 348,
      "versation": 349,
      "Ġconversation": 350,
      "mming": 351,
      "ĠYou": 352,
      "ystem": 353,
      "Ġprogra": 354,
      "Ġprod": 355,
      "urk": 356,
      "ode": 357,
      "Ġassistant": 358,
      "Ġcode": 359,
      "Ġconcise": 360,
      "glish": 361,
      "ĠEnglish": 362,
      "Ġhelpful": 363,
      "Ġprogramming": 364,
      "Ġproduce": 365,
      "Ġconversational": 366,
      "system": 367,
      "ĠTurk": 368,
      "ĠTurkish": 369,
      "ve": 370,
      "ay": 371,
      "ak": 372,
      "it": 373,
      "Ġto": 374,
      "et": 375,
      "il": 376,
      "dÄ±": 377,
      "Ġf": 378,
      "la": 379,
      "Ġth": 380,
      "Ġm": 381,
      "Ä±n": 382,
      "es": 383,
      "Ġg": 384,
      "um": 385,
      "ac": 386,
      "ÄŁ": 387,
      "Ġo": 388,
      "Ġe": 389,
      "Ġyou": 390,
      "ĠB": 391,
      "ĠS": 392,
      "un": 393,
      "Ã¶": 394,
      "iz": 395,
      "Ġbir": 396,
      "ug": 397,
      "Ġay": 398,
      "ab": 399,
      "ith": 400,
      "Ġwith": 401,
      "Ä±r": 402,
      "Ġve": 403,
      "Ġin": 404,
      "da": 405,
      "one": 406,
      "am": 407,
      "at": 408,
      "Ġst": 409,
      "nde": 410,
      "ĠiÃ§": 411,
      "estion": 412,
      "out": 413,
      "lan": 414,
      "ĠA": 415,
      "ri": 416,
      "Ġso": 417,
      "ĠiÃ§in": 418,
      "Ġre": 419,
      "Ġbe": 420,
      "ah": 421,
      "Ġad": 422,
      "ĠÃ¶": 423,
      "ki": 424,
      "Ã¼n": 425,
      "Ġya": 426,
      "li": 427,
      "Ġan": 428,
      "ĠayÄ±r": 429,
      "ort": 430,
      "Ġadet": 431,
      "Ġthe": 432,
      "ple": 433,
      "ĠayÄ±rdÄ±": 434,
      "Ġz": 435,
      "Ġsh": 436,
      "im": 437,
      "tic": 438,
      "Ġyour": 439,
      "ilir": 440,
      "ner": 441,
      "dÄ±m": 442,
      "ĠkÄ±": 443,
      "ĠkÄ±sa": 444,
      "ĠG": 445,
      "as": 446,
      "ĠadÄ±m": 447,
      "Ġu": 448,
      "ly": 449,
      "lar": 450,
      "Ġsome": 451,
      "wo": 452,
      ".Ċ": 453,
      "Ġnum": 454,
      "ive": 455,
      "ĠSc": 456,
      "Ġfor": 457,
      "Ġtwo": 458,
      "Ġshort": 459,
      "Ġme": 460,
      "aÅŁ": 461,
      "ari": 462,
      "ine": 463,
      "Ä±nÄ±": 464,
      "abilir": 465,
      "estions": 466,
      "Ġsomeone": 467,
      "Ġprac": 468,
      "tical": 469,
      "Ġstr": 470,
      "ugg": 471,
      "ya": 472,
      "enti": 473,
      "ep": 474,
      "Ġsugg": 475,
      "gling": 476,
      "uggling": 477,
      "enari": 478,
      "enario": 479,
      "ĠGive": 480,
      "Ġstruggling": 481,
      "Ġpractical": 482,
      "Ġsuggestions": 483,
      "ĠScenario": 484,
      "ara": 485,
      "ed": 486,
      "ĠbaÅŁ": 487,
      "ĠgÃ¼n": 488,
      "ĠM": 489,
      "mek": 490,
      "Ġmo": 491,
      "lam": 492,
      "ic": 493,
      "Ġkenti": 494,
      "Ġkentinde": 495,
      "Ã¼k": 496,
      "ef": 497,
      "Ġuy": 498,
      "Ġile": 499,
      "Ġday": 500,
      "ey": 501,
      "Ġon": 502,
      "alÄ±": 503,
      "very": 504,
      "ent": 505,
      "Ġevery": 506,
      "ek": 507,
      "ĠL": 508,
      "Ä°": 509,
      "ec": 510,
      "ad": 511,
      "st": 512,
      "Ġne": 513,
      "ĠÄ°": 514,
      "ayÄ±": 515,
      "ut": 516,
      "nda": 517,
      "Ġis": 518,
      "Ġol": 519,
      "ow": 520,
      "qu": 521,
      "ation": 522,
      "Ġde": 523,
      "lk": 524,
      "Ġver": 525,
      "Ġkon": 526,
      "Ġor": 527,
      "yi": 528,
      "Ġyap": 529,
      "Ġit": 530,
      "lÄ±": 531,
      "med": 532,
      "mak": 533,
      "iÅŁ": 534,
      "unu": 535,
      "Ġuyg": 536,
      "sÄ±": 537,
      "ĠÃ¶ner": 538,
      "em": 539,
      "Ġof": 540,
      "Ġka": 541,
      "ĠO": 542,
      "uÅŁ": 543,
      "Ġres": 544,
      "urum": 545,
      "iniz": 546,
      "'s": 547,
      "Ġab": 548,
      "Ġqu": 549,
      "acak": 550,
      "Ã¼Ã§": 551,
      "ĠÄ°lk": 552,
      "ler": 553,
      "Ġzor": 554,
      "Ġti": 555,
      "Ġabout": 556,
      "ĠÃ¶neri": 557,
      "Ġco": 558,
      "Ġsim": 559,
      "Ġiki": 560,
      "aman": 561,
      "ĠP": 562,
      "Ġuygul": 563,
      "Ã¼Ã§Ã¼k": 564,
      "ĠÃ§": 565,
      "yor": 566,
      "ĠBu": 567,
      "tir": 568,
      "Ġzaman": 569,
      "Ġwh": 570,
      "usu": 571,
      "Ġbul": 572,
      "ĠC": 573,
      "ĠkaÃ§": 574,
      "ĠkÃ¼Ã§Ã¼k": 575,
      "ely": 576,
      "aha": 577,
      "Ġnumara": 578,
      "Ġsimple": 579,
      "Ġen": 580,
      "ĠnumarasÄ±": 581,
      "mir": 582,
      "th": 583,
      "ĠDurum": 584,
      "Ġtime": 585,
      "ĠgÃ¼nÃ¼": 586,
      "wer": 587,
      "aya": 588,
      "Ġdaha": 589,
      "Ġnumar": 590,
      "Ġone": 591,
      "Ġzorlan": 592,
      "usunda": 593,
      "Ġ\"": 594,
      "Ġuygulan": 595,
      "ĠnumaralÄ±": 596,
      "Ġch": 597,
      "rief": 598,
      "Ġuygulanabilir": 599,
      "Ġkonusunda": 600,
      "gin": 601,
      "ok": 602,
      "Ġmeet": 603,
      "ĠayÄ±n": 604,
      "swer": 605,
      "**": 606,
      "ĠI": 607,
      "ĠkayÄ±": 608,
      "Ġzorlanan": 609,
      "Ä±m": 610,
      "Ġbirine": 611,
      "ĠkayÄ±t": 612,
      "Ġquestion": 613,
      "Ġbegin": 614,
      "ik": 615,
      "riefly": 616,
      "day": 617,
      "Ã¼m": 618,
      "Ġanswer": 619,
      "lat": 620,
      "id": 621,
      "ĠdeÄŁ": 622,
      "ning": 623,
      "Ġwithout": 624,
      "xam": 625,
      "xample": 626,
      "Ġbeginner": 627,
      "Ã¼z": 628,
      "Ġeveryday": 629,
      "ĠExample": 630,
      "ĠBriefly": 631,
      "ĠbuluÅŁ": 632,
      "Ġr": 633,
      "Ġkentindeki": 634,
      "ĠR": 635,
      "ter": 636,
      "ĠbuluÅŁacak": 637,
      "ĠgÃ¼nÃ¼nde": 638,
      "Ä±z": 639,
      "Ġdo": 640,
      "tiv": 641,
      "Ġle": 642,
      "eniz": 643,
      "Ġ(": 644,
      "lo": 645,
      "ĠSon": 646,
      "Ġyaz": 647,
      "Ġv": 648,
      "ang": 649,
      "ĠAn": 650,
      "ĠH": 651,
      "Ġj": 652,
      "yorum": 653,
      "Ġac": 654,
      "ĠbaÅŁlat": 655,
      "'d": 656,
      "lik": 657,
      "ill": 658,
      "ack": 659,
      "sun": 660,
      "larda": 661,
      "Ġisti": 662,
      "ore": 663,
      "ate": 664,
      "ĠdeÄŁiÅŁ": 665,
      "Ġanlam": 666,
      "Ġolsun": 667,
      "inu": 668,
      "ĠOn": 669,
      "ĠadÄ±mla": 670,
      "ĠBunu": 671,
      "ĠbaÅŁlatabilir": 672,
      "Ġistiyorum": 673,
      "ĠcÃ¼m": 674,
      "Ġzamanlarda": 675,
      "inute": 676,
      "ĠadÄ±mÄ±m": 677,
      "Ġbu": 678,
      "Ġwill": 679,
      "meden": 680,
      "leyi": 681,
      "ĠbaÅŁlatabiliriz": 682,
      "Ġman": 683,
      "ag": 684,
      "gh": 685,
      "Ä±nÄ±z": 686,
      "ĠdeÄŁiÅŁtir": 687,
      "se": 688,
      "Ġplan": 689,
      "lif": 690,
      "ap": 691,
      "abit": 692,
      "ĠanlamÄ±nÄ±": 693,
      "ĠZ": 694,
      "ĠcÃ¼mleyi": 695,
      "Ġsp": 696,
      "ĠdeÄŁiÅŁtirmeden": 697,
      "ĠMaya": 698,
      "ĠN": 699,
      "fore": 700,
      "Ġbefore": 701,
      "Ġby": 702,
      "ĠMer": 703,
      "ĠAr": 704,
      "Ġat": 705,
      "erve": 706,
      "ĠMert": 707,
      "ol": 708,
      "Ġreserve": 709,
      "ĠElif": 710,
      "eyn": 711,
      "ĠCan": 712,
      "ĠZeyn": 713,
      "ĠZeynep": 714,
      "Ġhabit": 715,
      "art": 716,
      "ĠNo": 717,
      "10": 718,
      "Ġveya": 719,
      "om": 720,
      "ĠEce": 721,
      "ĠNoah": 722,
      "ĠLin": 723,
      "ĠEmir": 724,
      "ĠLina": 725,
      "ask": 726,
      "ece": 727,
      "ĠÃ¶n": 728,
      "ĠAda": 729,
      "Ġchang": 730,
      "Ġl": 731,
      "Ġmore": 732,
      "all": 733,
      "Ã¼r": 734,
      "20": 735,
      "Ġsa": 736,
      "ust": 737,
      "ĠArda": 738,
      "Ġse": 739,
      "reak": 740,
      "Ġfe": 741,
      "Ġtask": 742,
      "ends": 743,
      "ĠDeniz": 744,
      "de": 745,
      "Ġthis": 746,
      "Ġsm": 747,
      "if": 748,
      "Ġyapmak": 749,
      "ue": 750,
      "Ġthat": 751,
      "leep": 752,
      "Ġthan": 753,
      "Ġra": 754,
      "Ġim": 755,
      "ch": 756,
      "Ġmean": 757,
      "rak": 758,
      "ip": 759,
      "Ġola": 760,
      "lay": 761,
      "30": 762,
      "ew": 763,
      "ĠÃ": 764,
      "15": 765,
      "rite": 766,
      "ren": 767,
      "ond": 768,
      "ght": 769,
      "ake": 770,
      "Ġmeaning": 771,
      "oc": 772,
      "Ġye": 773,
      "Ġgo": 774,
      "Ġits": 775,
      "Ġha": 776,
      "like": 777,
      "Ġvar": 778,
      "Ġsleep": 779,
      "ĠÅŁ": 780,
      "Ġchanging": 781,
      "Ġsmall": 782,
      "Ġfeel": 783,
      "Ġal": 784,
      "Ġlear": 785,
      "ĠRew": 786,
      "Ġconcisely": 787,
      "ĠRewrite": 788,
      "Ġbo": 789,
      "ule": 790,
      "utu": 791,
      "ĠgÃ¶": 792,
      "Ã¼ÅŁ": 793,
      "Ġint": 794,
      "Ġ**": 795,
      "ini": 796,
      "Ġev": 797,
      "ĠÃ¶ÄŁ": 798,
      "25": 799,
      "ĠPra": 800,
      "eni": 801,
      "dÄ±r": 802,
      "ma": 803,
      "Ġtr": 804,
      "Ġminute": 805,
      "ther": 806,
      "Ġmotiv": 807,
      "Ġkal": 808,
      "ocus": 809,
      "ev": 810,
      "Ġrather": 811,
      "ment": 812,
      "ne": 813,
      "Ġfri": 814,
      "28": 815,
      "Ġjust": 816,
      "Ġmanag": 817,
      "Ġkutu": 818,
      "ach": 819,
      "Ġreserved": 820,
      "Ġtra": 821,
      "ain": 822,
      "ell": 823,
      "lÄ±k": 824,
      "vi": 825,
      "Ġminutes": 826,
      "Ġda": 827,
      "ting": 828,
      "Ġar": 829,
      "ers": 830,
      "ĠÃĸ": 831,
      "Ã¼y": 832,
      "Ġinto": 833,
      "13": 834,
      "ĠU": 835,
      "Ġcomm": 836,
      "lin": 837,
      "vel": 838,
      "Ġrout": 839,
      "14": 840,
      "able": 841,
      "12": 842,
      "king": 843,
      "arÄ±": 844,
      "ĠÃ¶ÄŁren": 845,
      "Ġlearning": 846,
      "ca": 847,
      "Ġkutuda": 848,
      "Ġroutine": 849,
      "Ġas": 850,
      "iti": 851,
      "Ġson": 852,
      "kara": 853,
      "hip": 854,
      "Ġtop": 855,
      "uy": 856,
      "ilg": 857,
      "Ġbel": 858,
      "ome": 859,
      "Ä±k": 860,
      "erlin": 861,
      "ĠeÅŁ": 862,
      "Ġbed": 863,
      "17": 864,
      "ĠBerlin": 865,
      "slo": 866,
      "ard": 867,
      "ĠOslo": 868,
      "ĠAnkara": 869,
      "18": 870,
      "thing": 871,
      "endship": 872,
      "23": 873,
      "tal": 874,
      "ĠdÃ¼z": 875,
      "oto": 876,
      "24": 877,
      "Ġcan": 878,
      "iny": 879,
      "ile": 880,
      "ye": 881,
      "16": 882,
      "our": 883,
      "medi": 884,
      "Ġtiny": 885,
      "erek": 886,
      "ĠyÃ¼r": 887,
      "Ġhabits": 888,
      "tÄ±r": 889,
      "ĠÃ¶nce": 890,
      "ĠLond": 891,
      "na": 892,
      "Ġtravel": 893,
      "Ġwor": 894,
      "inizi": 895,
      "bon": 896,
      "ib": 897,
      "ĠLondon": 898,
      "ĠLis": 899,
      "Ġdak": 900,
      "talya": 901,
      "ĠLisbon": 902,
      "ĠAntalya": 903,
      "gue": 904,
      "Ġdakik": 905,
      "Ġolarak": 906,
      "gan": 907,
      "Ġex": 908,
      "stan": 909,
      "ĠK": 910,
      "zmir": 911,
      "Ġover": 912,
      "Ġimmedi": 913,
      "ganiz": 914,
      "bul": 915,
      "ĠeÅŁya": 916,
      "Ġyer": 917,
      "ien": 918,
      "stanbul": 919,
      "Ġorganiz": 920,
      "Ġlike": 921,
      "her": 922,
      "ication": 923,
      "raf": 924,
      "Ġbelir": 925,
      "-b": 926,
      "Ġtasks": 927,
      "ĠUse": 928,
      "up": 929,
      "eep": 930,
      "26": 931,
      "27": 932,
      "Ġspec": 933,
      "larÄ±": 934,
      "ific": 935,
      "Ġcom": 936,
      "Ġiyi": 937,
      "ĠPrague": 938,
      "Ä±ÅŁ": 939,
      "Ġplanning": 940,
      "otoÄŁ": 941,
      "otoÄŁraf": 942,
      "ps": 943,
      "Ġkit": 944,
      "ĠV": 945,
      "Ġfriendship": 946,
      "ud": 947,
      "Ġfocus": 948,
      "adece": 949,
      "ure": 950,
      "lang": 951,
      "Ġsor": 952,
      "ying": 953,
      "Ġhome": 954,
      "oga": 955,
      "'t": 956,
      "Ġwell": 957,
      "Ġspecific": 958,
      "ĠIzmir": 959,
      "ĠHow": 960,
      "ĠyÃ¼rÃ¼y": 961,
      "lÃ¼k": 962,
      "Ġeach": 963,
      "unication": 964,
      "ste": 965,
      "ienna": 966,
      "ĠVienna": 967,
      "Ġwe": 968,
      "ĠAy": 969,
      "Ġlist": 970,
      "ĠyÃ¼z": 971,
      "edule": 972,
      "ĠfotoÄŁraf": 973,
      "Ġmotivation": 974,
      "Ġyoga": 975,
      "ilgi": 976,
      "est": 977,
      "ĠbaÅŁlay": 978,
      "Ġwhat": 979,
      "ka": 980,
      "Ġph": 981,
      "Ġbreak": 982,
      "eing": 983,
      "stead": 984,
      "tick": 985,
      "bilir": 986,
      "lg": 987,
      "anÄ±z": 988,
      "ind": 989,
      "ley": 990,
      "-being": 991,
      "ĠSt": 992,
      "ĠyÃ¼rÃ¼yÃ¼ÅŁ": 993,
      "Ġok": 994,
      "Ġot": 995,
      "ately": 996,
      "Ġcommunication": 997,
      "Ġdil": 998,
      "Ġstart": 999,
      "Ġimmediately": 1000,
      "Ġsonra": 1001,
      "Ġinstead": 1002,
      "ĠIstanbul": 1003,
      "Ġste": 1004,
      "cel": 1005,
      "ening": 1006,
      "abah": 1007,
      "Ġbah": 1008,
      "ement": 1009,
      "ild": 1010,
      "Ġgoal": 1011,
      "Ġtoplam": 1012,
      "ig": 1013,
      "Ġno": 1014,
      "Ġmany": 1015,
      "cak": 1016,
      "19": 1017,
      "ĠvardÄ±r": 1018,
      "Ġet": 1019,
      "33": 1020,
      "Ġkend": 1021,
      "ĠHer": 1022,
      "Ġmanagement": 1023,
      "Ġtut": 1024,
      "Ġyemek": 1025,
      "ĠBreak": 1026,
      "ĠÃ§ek": 1027,
      "avi": 1028,
      "Ġkitap": 1029,
      "Ġsadece": 1030,
      "ally": 1031,
      "Ġilg": 1032,
      "Ġorganization": 1033,
      "Ġitem": 1034,
      "22": 1035,
      "Ġher": 1036,
      "Ġbook": 1037,
      "uÄŁ": 1038,
      "-m": 1039,
      "ĠgÃ¼nlÃ¼k": 1040,
      "ĠbahÃ§": 1041,
      "reate": 1042,
      "vo": 1043,
      "inde": 1044,
      "void": 1045,
      "siniz": 1046,
      "ity": 1047,
      "nal": 1048,
      "ick": 1049,
      "-minute": 1050,
      "40": 1051,
      "Ġus": 1052,
      "sel": 1053,
      "unuz": 1054,
      "ĠseÃ§": 1055,
      "Ġcle": 1056,
      "ress": 1057,
      "edef": 1058,
      "ĠF": 1059,
      "ĠStart": 1060,
      "aking": 1061,
      "Ġset": 1062,
      "Ġweek": 1063,
      "Ä±nÄ±zÄ±": 1064,
      "ily": 1065,
      "ĠpiÅŁ": 1066,
      "ĠyÃ¶": 1067,
      "Ġup": 1068,
      "Ġcomple": 1069,
      "Ġkalem": 1070,
      "Ġkul": 1071,
      "Ġwhen": 1072,
      "iÄŁ": 1073,
      "tions": 1074,
      "48": 1075,
      "ten": 1076,
      "den": 1077,
      "Ġmeets": 1078,
      "asÄ±": 1079,
      "ord": 1080,
      "ĠdÃ¼zeni": 1081,
      "Ġsilgi": 1082,
      "reen": 1083,
      "50": 1084,
      "sist": 1085,
      "Ġinter": 1086,
      "port": 1087,
      "Ġdid": 1088,
      "11": 1089,
      "Ġun": 1090,
      "Ġresim": 1091,
      "Ġtrying": 1092,
      "Ġkullan": 1093,
      "Ġwork": 1094,
      "loc": 1095,
      "Ġhedef": 1096,
      "Ġactiv": 1097,
      "alÄ±ÅŁ": 1098,
      "Ġthem": 1099,
      "ings": 1100,
      "Ġback": 1101,
      "60": 1102,
      "arak": 1103,
      "Ġed": 1104,
      "Ġte": 1105,
      "ecord": 1106,
      "ĠalÄ±": 1107,
      "ĠRecord": 1108,
      "ere": 1109,
      "Ġokum": 1110,
      "29": 1111,
      "Ġilgil": 1112,
      "Ġdakika": 1113,
      "Ġbas": 1114,
      "light": 1115,
      "ndan": 1116,
      "ÄŁin": 1117,
      "Ã¼re": 1118,
      "Ġif": 1119,
      "ÅŁam": 1120,
      "Ġeven": 1121,
      "Ä±nda": 1122,
      "irst": 1123,
      "Ġout": 1124,
      "49": 1125,
      "Ġmoment": 1126,
      "ci": 1127,
      "asy": 1128,
      "ĠiÅŁ": 1129,
      "Ġfr": 1130,
      "and": 1131,
      "Ġdaily": 1132,
      "Ġcev": 1133,
      "Ä±zÄ±": 1134,
      "Ġconsist": 1135,
      "Ä±rm": 1136,
      "Ġthen": 1137,
      "ken": 1138,
      "op": 1139,
      "37": 1140,
      "Ġhour": 1141,
      "ĠpiÅŁir": 1142,
      "Ġsteps": 1143,
      "38": 1144,
      "Ġfirst": 1145,
      "Ġod": 1146,
      "Ġtem": 1147,
      "Ġbuild": 1148,
      "ĠÃ§alÄ±ÅŁ": 1149,
      "ĠÃĸn": 1150,
      "ĠgÃ¶re": 1151,
      "are": 1152,
      "Ġclear": 1153,
      "kan": 1154,
      "ving": 1155,
      "ĠdoÄŁ": 1156,
      "58": 1157,
      "Ġmavi": 1158,
      "ÅŁim": 1159,
      "ff": 1160,
      "leri": 1161,
      "nder": 1162,
      "Ġitems": 1163,
      "Ġsaat": 1164,
      "Ġcevap": 1165,
      "eri": 1166,
      "Ä±rmÄ±zÄ±": 1167,
      "laÅŁ": 1168,
      "own": 1169,
      "age": 1170,
      "Ġ=": 1171,
      "ĠkÄ±rmÄ±zÄ±": 1172,
      "yaz": 1173,
      "36": 1174,
      "Ġonce": 1175,
      "Ġneed": 1176,
      "ĠÃ¶ÄŁrenmek": 1177,
      "langÄ±": 1178,
      "tive": 1179,
      "Ġfrom": 1180,
      "si": 1181,
      "wh": 1182,
      ":Ċ": 1183,
      "rne": 1184,
      "Ġget": 1185,
      "Ġsu": 1186,
      "leyin": 1187,
      "celik": 1188,
      "ÅŁil": 1189,
      "Ġread": 1190,
      "yle": 1191,
      "ÄŁÄ±": 1192,
      "rneÄŁin": 1193,
      "ĠyeÅŁil": 1194,
      "tice": 1195,
      "Ġilk": 1196,
      "tiÅŁim": 1197,
      "Ġred": 1198,
      "Ġaz": 1199,
      "ku": 1200,
      "Ġkeep": 1201,
      "Ġhem": 1202,
      "Ġbeyaz": 1203,
      "21": 1204,
      "Ġnew": 1205,
      "Ġoverwh": 1206,
      "Ġconsistent": 1207,
      "Ġoverwhel": 1208,
      "ro": 1209,
      "ingle": 1210,
      "rar": 1211,
      "ark": 1212,
      "Ġwal": 1213,
      "ĠÅŁey": 1214,
      "ĠÃ§ok": 1215,
      "35": 1216,
      "Ġsingle": 1217,
      "Ġbasit": 1218,
      "Ä±na": 1219,
      "ĠSch": 1220,
      "ĠSchedule": 1221,
      "self": 1222,
      "ĠBir": 1223,
      "ilece": 1224,
      "Ġyourself": 1225,
      "34": 1226,
      "ÅŁkan": 1227,
      "oriti": 1228,
      "ĠsÃ¼re": 1229,
      "Ġge": 1230,
      "maya": 1231,
      "nÄ±z": 1232,
      "Ġel": 1233,
      "Ġsc": 1234,
      "mi": 1235,
      "ecek": 1236,
      "Ġavoid": 1237,
      "ĠsarÄ±": 1238,
      "Ġdoing": 1239,
      "duÄŁ": 1240,
      "ÄŁi": 1241,
      "ook": 1242,
      "ze": 1243,
      "ĠPick": 1244,
      "ĠÃ§ekmek": 1245,
      "langÄ±Ã§": 1246,
      "ĠbahÃ§ey": 1247,
      "anÄ±": 1248,
      "ted": 1249,
      "Ġkay": 1250,
      "uyu": 1251,
      "reat": 1252,
      "alnÄ±z": 1253,
      "aki": 1254,
      "Ġodak": 1255,
      "Ġden": 1256,
      "ree": 1257,
      "amer": 1258,
      "cle": 1259,
      "lu": 1260,
      "ect": 1261,
      "daÅŁ": 1262,
      "Ġnote": 1263,
      "kadaÅŁ": 1264,
      "Ġokumak": 1265,
      "Ġdown": 1266,
      "ĠiletiÅŁim": 1267,
      "ta": 1268,
      "Ġbi": 1269,
      "Ġmanage": 1270,
      "Ġeverything": 1271,
      "ĠbahÃ§eyle": 1272,
      "ĠpiÅŁirmek": 1273,
      "alnÄ±zca": 1274,
      "mayÄ±": 1275,
      "Ġsabah": 1276,
      "ĠYalnÄ±zca": 1277,
      "Ġyeni": 1278,
      "Ġtutmak": 1279,
      "ge": 1280,
      "rou": 1281,
      "ĠCreate": 1282,
      "ace": 1283,
      "Ġist": 1284,
      "ĠAyÄ±n": 1285,
      "Ġtek": 1286,
      "ĠalÄ±ÅŁkan": 1287,
      "Ġdurum": 1288,
      "ibi": 1289,
      "Ġexp": 1290,
      "Ġother": 1291,
      "Ġtick": 1292,
      "Ġonly": 1293,
      "tÄ±": 1294,
      "Ġyerine": 1295,
      "celikle": 1296,
      "Ġticket": 1297,
      "cÄ±": 1298,
      "nderst": 1299,
      "Ġuyku": 1300,
      "ni": 1301,
      "asyon": 1302,
      "Ġilgilen": 1303,
      "tain": 1304,
      "ĠsaÄŁ": 1305,
      "ĠSet": 1306,
      "ĠbaÅŁlam": 1307,
      "ycle": 1308,
      "ion": 1309,
      "low": 1310,
      "Ġthey": 1311,
      "Ġmanageable": 1312,
      "Ġgibi": 1313,
      "tan": 1314,
      "ct": 1315,
      "Ġany": 1316,
      "ĠW": 1317,
      "Ġodaklan": 1318,
      "Ġgoals": 1319,
      "Ġsay": 1320,
      "Ġtack": 1321,
      "ide": 1322,
      "book": 1323,
      "Ġscreen": 1324,
      "oritize": 1325,
      "ĠbaÅŁlangÄ±Ã§": 1326,
      "utter": 1327,
      "ĠÃ¶ÄŁrenme": 1328,
      "Ġsch": 1329,
      "lutter": 1330,
      "ks": 1331,
      "Ġuygun": 1332,
      "Ġpers": 1333,
      "ible": 1334,
      "Ġilgilenmek": 1335,
      "ahat": 1336,
      "Ġmomentum": 1337,
      "Ġlistening": 1338,
      "inin": 1339,
      "eyahat": 1340,
      "ĠarkadaÅŁ": 1341,
      "lant": 1342,
      "elef": 1343,
      "Ġpo": 1344,
      "ven": 1345,
      "Ġsomething": 1346,
      "Ġdeep": 1347,
      "ĠyÃ¼zmek": 1348,
      "ite": 1349,
      "Ġrule": 1350,
      "Ġara": 1351,
      "Ġreading": 1352,
      "Ġunderst": 1353,
      "Ġyol": 1354,
      "Ġchec": 1355,
      "80": 1356,
      "hat": 1357,
      "47": 1358,
      "ire": 1359,
      "Ġak": 1360,
      "pack": 1361,
      "Ġnotebook": 1362,
      "ech": 1363,
      "Ġsiz": 1364,
      "Ġpro": 1365,
      "Ġreg": 1366,
      "Ġlam": 1367,
      "Ġbackpack": 1368,
      "Ġkur": 1369,
      "Ġhe": 1370,
      "Ġgen": 1371,
      "pp": 1372,
      "elefon": 1373,
      "ĠolduÄŁ": 1374,
      "Ġjack": 1375,
      "Ġri": 1376,
      "ular": 1377,
      "ĠyaÅŁam": 1378,
      "Ġjacket": 1379,
      "Ġkol": 1380,
      "Ġwake": 1381,
      "ĠgeÃ§": 1382,
      "Ġbl": 1383,
      "Ġlow": 1384,
      "dan": 1385,
      "ĠgÃ¼": 1386,
      "leme": 1387,
      "Ġtea": 1388,
      "ĠKeep": 1389,
      "ĠdoÄŁr": 1390,
      "Ġplant": 1391,
      "lem": 1392,
      "39": 1393,
      "inize": 1394,
      "Ġmost": 1395,
      "Ġ+": 1396,
      "Ġdur": 1397,
      "Ġgerek": 1398,
      "niqu": 1399,
      "echniqu": 1400,
      "ctice": 1401,
      "Ġer": 1402,
      "adan": 1403,
      "ĠyÃ¶ne": 1404,
      "46": 1405,
      "Ġdon": 1406,
      "Ã¶rneÄŁin": 1407,
      "00": 1408,
      "ary": 1409,
      "Ġsame": 1410,
      "xt": 1411,
      "ĠalÄ±ÅŁkanlÄ±k": 1412,
      "ĠyÃ¶neti": 1413,
      "45": 1414,
      "Ġtheir": 1415,
      "Ġresp": 1416,
      "alÄ±k": 1417,
      "ĠPractice": 1418,
      "Ġunderstand": 1419,
      "bilece": 1420,
      "Ġseyahat": 1421,
      "rn": 1422,
      "Ġoff": 1423,
      "Ġbet": 1424,
      "icycle": 1425,
      "Ġperson": 1426,
      "Ġweekends": 1427,
      "Ġbicycle": 1428,
      "Ġusing": 1429,
      "Ġmotivasyon": 1430,
      "Ġfive": 1431,
      "manÄ±z": 1432,
      "rac": 1433,
      "eler": 1434,
      "use": 1435,
      "ĠdÃ¼ÅŁ": 1436,
      "Ġscreens": 1437,
      "az": 1438,
      "Ġtam": 1439,
      "Ġblue": 1440,
      "Ġsess": 1441,
      "Ġdist": 1442,
      "Ġmain": 1443,
      "Ġkar": 1444,
      "Ġcamer": 1445,
      "Ä±p": 1446,
      "ĠyÃ¶netimi": 1447,
      "uage": 1448,
      "Ġlang": 1449,
      "Ġschedule": 1450,
      "Ġlanguage": 1451,
      "fter": 1452,
      "rioritize": 1453,
      "ÄŁÄ±nÄ±z": 1454,
      "ong": 1455,
      "echnique": 1456,
      "ose": 1457,
      "ry": 1458,
      "dÄ±ndan": 1459,
      "Ġrest": 1460,
      "angi": 1461,
      "ts": 1462,
      "enc": 1463,
      "akk": 1464,
      "Ġkolay": 1465,
      "Ġmake": 1466,
      "ĠFocus": 1467,
      "Ġdeney": 1468,
      "Ġhemen": 1469,
      "ati": 1470,
      "Ġmat": 1471,
      "Ġjour": 1472,
      "oy": 1473,
      "abilirsiniz": 1474,
      "ĠPrioritize": 1475,
      "ph": 1476,
      "Ġsw": 1477,
      "Ġtri": 1478,
      "Ġedin": 1479,
      "ĠPa": 1480,
      "tur": 1481,
      "Ġafter": 1482,
      "ich": 1483,
      "88": 1484,
      "Ġgel": 1485,
      "anÄ±t": 1486,
      "Ġhaf": 1487,
      "Ġhakk": 1488,
      "Ġrep": 1489,
      "Ä±l": 1490,
      "ĠkonuÅŁ": 1491,
      "ĠplanÄ±": 1492,
      "Ġdes": 1493,
      "ĠSabah": 1494,
      "orning": 1495,
      "Ġmorning": 1496,
      "Ġspe": 1497,
      "Ġprev": 1498,
      "Ġimport": 1499,
      "akes": 1500,
      "ĠarkadaÅŁlÄ±k": 1501,
      "ĠhakkÄ±nda": 1502,
      "Ġthree": 1503,
      "59": 1504,
      "Ġprevent": 1505,
      "leÅŁ": 1506,
      "ĠaÃ§": 1507,
      "Ġwhich": 1508,
      "ight": 1509,
      "ĠdÃ¼zen": 1510,
      "57": 1511,
      "ast": 1512,
      "Ġek": 1513,
      "Ġall": 1514,
      "Ġener": 1515,
      "lemek": 1516,
      "Ġactivity": 1517,
      "ĠyanÄ±t": 1518,
      "Ġright": 1519,
      "ces": 1520,
      "kin": 1521,
      "til": 1522,
      "ĠyÃ¶n": 1523,
      "Ġtelefon": 1524,
      "Ġjournal": 1525,
      "Ġkad": 1526,
      "ĠalÄ±ÅŁkanlÄ±klar": 1527,
      "ination": 1528,
      "ody": 1529,
      "Ġfeeling": 1530,
      "32": 1531,
      "Ġwhere": 1532,
      ":**": 1533,
      "Ġhis": 1534,
      "ede": 1535,
      "rol": 1536,
      "reath": 1537,
      "Ġtackle": 1538,
      "Ġbody": 1539,
      "Ġactive": 1540,
      "Ġop": 1541,
      "act": 1542,
      "ĠgÃ¶r": 1543,
      "Ġpri": 1544,
      "bilirsiniz": 1545,
      "Ġbreath": 1546,
      "Ġyapacak": 1547,
      "ĠGÃ¼n": 1548,
      "ward": 1549,
      "als": 1550,
      "odor": 1551,
      "Ġro": 1552,
      "odoro": 1553,
      "meye": 1554,
      "ĠyapÄ±n": 1555,
      "56": 1556,
      "omodoro": 1557,
      "rnek": 1558,
      "Ġiler": 1559,
      "ĠgÃ¼nÃ¼n": 1560,
      "Ġmaintain": 1561,
      "alar": 1562,
      "time": 1563,
      "Ġkadar": 1564,
      "Ġnef": 1565,
      "ating": 1566,
      "Ã¶z": 1567,
      "ĠadÄ±mÄ±nÄ±z": 1568,
      "Ġbur": 1569,
      "ĠTh": 1570,
      "Ġphone": 1571,
      "-p": 1572,
      "Ġstud": 1573,
      "kil": 1574,
      "uz": 1575,
      "Ġwalk": 1576,
      "ated": 1577,
      "Ġsession": 1578,
      "Ġolm": 1579,
      "Ġdistrac": 1580,
      "Ġhow": 1581,
      "Ġpain": 1582,
      "31": 1583,
      "aÄŁ": 1584,
      "layÄ±n": 1585,
      "ound": 1586,
      "Ġnefes": 1587,
      "Ġoften": 1588,
      "Ġuse": 1589,
      "Ġimportant": 1590,
      "Ġfin": 1591,
      "Ġeas": 1592,
      "Ġgard": 1593,
      "Ġnext": 1594,
      "Ġtake": 1595,
      "ÅŁÄ±": 1596,
      "Ġcook": 1597,
      "Ġtemel": 1598,
      "iner": 1599,
      "Ġyarar": 1600,
      "Ġsoruyu": 1601,
      "Ġla": 1602,
      "Ġthings": 1603,
      "Ġtamam": 1604,
      "for": 1605,
      "Ġaw": 1606,
      "ayÄ±n": 1607,
      "ĠbÃ¶": 1608,
      "Ġstre": 1609,
      "Ġacc": 1610,
      "Ġreduce": 1611,
      "Ġper": 1612,
      "ĠÃ§Ä±k": 1613,
      "ĠbaÅŁlayan": 1614,
      "Ġsora": 1615,
      "emli": 1616,
      "Ġalan": 1617,
      "Ġlearn": 1618,
      "ĠÄ±ÅŁ": 1619,
      "dir": 1620,
      "len": 1621,
      "Ġcal": 1622,
      "saj": 1623,
      "Ġshare": 1624,
      "ance": 1625,
      "Ġitiner": 1626,
      "Ġcomplete": 1627,
      "Ġoverwhelmed": 1628,
      "Ġcheck": 1629,
      "Ġaction": 1630,
      "set": 1631,
      "Ġbirinin": 1632,
      "Ġroom": 1633,
      "ĠÃ¶z": 1634,
      "ĠgÃ¼ven": 1635,
      "ays": 1636,
      "Ġolacak": 1637,
      "ĠÃĸnce": 1638,
      "ĠÃĸncelikle": 1639,
      "Ġclutter": 1640,
      "omm": 1641,
      "rek": 1642,
      "trol": 1643,
      "Ġolan": 1644,
      "Ġapp": 1645,
      "ĠdeÄŁil": 1646,
      "Ġlamp": 1647,
      "ĠiÃ§inde": 1648,
      "Ġharek": 1649,
      "Ã§im": 1650,
      "bileceÄŁi": 1651,
      "wn": 1652,
      "ĠhÄ±z": 1653,
      "Ġflight": 1654,
      "ÄŁÄ±nÄ±": 1655,
      "Ġdi": 1656,
      "Ġgood": 1657,
      "Ġbelirleyin": 1658,
      "hi": 1659,
      "Ġbig": 1660,
      "Ġlight": 1661,
      "Ġmoving": 1662,
      "ĠbiÃ§im": 1663,
      "Ġgardening": 1664,
      "ually": 1665,
      "ĠÃ¶nemli": 1666,
      "44": 1667,
      "ĠÃĸrnek": 1668,
      "Ġpe": 1669,
      "ĠyararlÄ±": 1670,
      "eli": 1671,
      "Ġmaking": 1672,
      "ĠyanÄ±tla": 1673,
      "ĠsorabileceÄŁi": 1674,
      "Ġens": 1675,
      "ĠbiÃ§imde": 1676,
      "ĠÅŁek": 1677,
      "Ġkendi": 1678,
      "tely": 1679,
      "Ġlo": 1680,
      "Ġdet": 1681,
      "larÄ±nÄ±": 1682,
      "lerinizi": 1683,
      "Ġtechnique": 1684,
      "ĠoluÅŁ": 1685,
      "Ġbreaks": 1686,
      "ĠkarÅŁÄ±": 1687,
      "-up": 1688,
      "Ġhave": 1689,
      "Ġduring": 1690,
      "ĠtÃ¼r": 1691,
      "Ġcreate": 1692,
      "Ġthing": 1693,
      "Ġoverwhelm": 1694,
      "Ġconn": 1695,
      "madan": 1696,
      "Ġsig": 1697,
      "Ġsorun": 1698,
      "Ġleast": 1699,
      "Ġachi": 1700,
      "Ġitinerary": 1701,
      "ĠTake": 1702,
      "Ġspace": 1703,
      "Ġcompletely": 1704,
      "ĠdÃ¼ÅŁÃ¼n": 1705,
      "Ġgreen": 1706,
      "ĠStick": 1707,
      "ĠbaÅŁlayÄ±n": 1708,
      "90": 1709,
      "ĠbaÅŁlamak": 1710,
      "ĠardÄ±ndan": 1711,
      "Ġwhite": 1712,
      "Ġjournaling": 1713,
      "iting": 1714,
      "Ġwat": 1715,
      "Ġkap": 1716,
      "ÄŁer": 1717,
      "Ġstri": 1718,
      "Ġbox": 1719,
      "rain": 1720,
      "Ġcommit": 1721,
      "lock": 1722,
      "Ġdest": 1723,
      "Ġwant": 1724,
      "Ġpainting": 1725,
      "ĠÃ¼z": 1726,
      "ĠÅŁu": 1727,
      "rough": 1728,
      "Ġcooking": 1729,
      "ediÄŁ": 1730,
      "Ġthrough": 1731,
      "Ġwhile": 1732,
      "Ã¼yÃ¼k": 1733,
      "ess": 1734,
      "rin": 1735,
      "lace": 1736,
      "Ġrespond": 1737,
      "ĠsÄ±": 1738,
      "Ġfinish": 1739,
      "Ġdestination": 1740,
      "mo": 1741,
      "rup": 1742,
      "Ġfocused": 1743,
      "Ġaway": 1744,
      "ÄŁiniz": 1745,
      "edic": 1746,
      "uc": 1747,
      "lex": 1748,
      "Ġkontrol": 1749,
      "Ġstrict": 1750,
      "Ġnet": 1751,
      "erin": 1752,
      "Ġuygulam": 1753,
      "Ġcamera": 1754,
      "ffe": 1755,
      "Ġhaz": 1756,
      "meyi": 1757,
      "Ġstudy": 1758,
      "Ġdistractions": 1759,
      "Ġdin": 1760,
      "Ġhangi": 1761,
      "Ġyell": 1762,
      "ities": 1763,
      "Ġarea": 1764,
      "ĠPomodoro": 1765,
      "Ġyellow": 1766,
      "ellik": 1767,
      "Ġquestions": 1768,
      "cess": 1769,
      "asÄ±nÄ±": 1770,
      "ĠMo": 1771,
      "ĠSonra": 1772,
      "Ġact": 1773,
      "Ġchange": 1774,
      "Ġhours": 1775,
      "av": 1776,
      "Ġyak": 1777,
      "Ġflex": 1778,
      "Ġdark": 1779,
      "Ġeff": 1780,
      "ĠÅŁekil": 1781,
      "ix": 1782,
      "ople": 1783,
      "Ġyar": 1784,
      "ether": 1785,
      "ents": 1786,
      "ĠhazÄ±r": 1787,
      "ass": 1788,
      "Ġerken": 1789,
      "Ġpeople": 1790,
      "Ġmind": 1791,
      "ĠistediÄŁ": 1792,
      "ĠsayÄ±": 1793,
      "08": 1794,
      "Ġama": 1795,
      "get": 1796,
      "sh": 1797,
      "Ġnat": 1798,
      "yors": 1799,
      "Ġfol": 1800,
      "Ġuz": 1801,
      "ĠyapÄ±": 1802,
      "ĠIt": 1803,
      "Ġwalking": 1804,
      "line": 1805,
      "unca": 1806,
      "Ġconnec": 1807,
      "Ġayda": 1808,
      "Ġboy": 1809,
      "Ġsignal": 1810,
      "Ġbest": 1811,
      "ysic": 1812,
      "otogra": 1813,
      "Ä±nÄ±n": 1814,
      "Ġtimes": 1815,
      "Ġhareket": 1816,
      "meniz": 1817,
      "ĠyÃ¶ntem": 1818,
      "Ġ*": 1819,
      "ans": 1820,
      "likte": 1821,
      "Ġfeels": 1822,
      "Ġphysic": 1823,
      "kinci": 1824,
      "Ġhi": 1825,
      "room": 1826,
      "Ġregular": 1827,
      "form": 1828,
      "ĠoluÅŁtur": 1829,
      "we": 1830,
      "ins": 1831,
      "read": 1832,
      "mes": 1833,
      "Ġdedic": 1834,
      "ressure": 1835,
      "ĠMotiv": 1836,
      "ĠgÃ¶z": 1837,
      "-pressure": 1838,
      "cut": 1839,
      "Ġrec": 1840,
      "Ġetkil": 1841,
      "ĠÅŁekilde": 1842,
      "ush": 1843,
      "Ġcool": 1844,
      "rÄ±": 1845,
      "iler": 1846,
      "Ġstarting": 1847,
      "ellikle": 1848,
      "Ġmesaj": 1849,
      "ylece": 1850,
      "di": 1851,
      "Ġort": 1852,
      "Ġyat": 1853,
      "Ġphotogra": 1854,
      "Ġphotograph": 1855,
      "Ġsup": 1856,
      "lish": 1857,
      "ĠEÄŁer": 1858,
      "lerini": 1859,
      "ĠCh": 1860,
      "ĠIn": 1861,
      "udan": 1862,
      "Ġeasi": 1863,
      "Ġwater": 1864,
      "pec": 1865,
      "Ġenti": 1866,
      "ous": 1867,
      "ĠAvoid": 1868,
      "Ġhelps": 1869,
      "Ġess": 1870,
      "Ġphotography": 1871,
      "ens": 1872,
      "Ġsonraki": 1873,
      "Ġentire": 1874,
      "Ġduy": 1875,
      "Ġless": 1876,
      "Ġresponding": 1877,
      "ĠdakikalÄ±k": 1878,
      "Ġbrain": 1879,
      "Ġessenti": 1880,
      "ils": 1881,
      "Ġbedroom": 1882,
      "Ġimp": 1883,
      "ĠWhat": 1884,
      "oth": 1885,
      "Ġolur": 1886,
      "unda": 1887,
      "Ġtemiz": 1888,
      "Ġelse": 1889,
      "luk": 1890,
      "ize": 1891,
      "Ġlong": 1892,
      "ching": 1893,
      "Ġtry": 1894,
      "gy": 1895,
      "iff": 1896,
      "Ġfeelings": 1897,
      "ĠolacaktÄ±r": 1898,
      "lama": 1899,
      "layÄ±": 1900,
      "now": 1901,
      "Ġbut": 1902,
      "Ġtickets": 1903,
      "Ġdis": 1904,
      "ower": 1905,
      "app": 1906,
      "Ġetkili": 1907,
      "Ġdiff": 1908,
      "Ġnow": 1909,
      "deki": 1910,
      "Ġfollow": 1911,
      "aster": 1912,
      "ĠyardÄ±m": 1913,
      "ĠMotivation": 1914,
      "ency": 1915,
      "Ġchun": 1916,
      "ĠÃ¼zer": 1917,
      "sÄ±nÄ±z": 1918,
      "Ġvis": 1919,
      "ween": 1920,
      "Ġtod": 1921,
      "Ġactivities": 1922,
      "Ġbetween": 1923,
      "leÅŁtir": 1924,
      "Ġensure": 1925,
      "ĠGo": 1926,
      "Ġasking": 1927,
      "Ġeasier": 1928,
      "Ġbek": 1929,
      "Ġmatter": 1930,
      "Ġtoday": 1931,
      "ĠTry": 1932,
      "Ġmove": 1933,
      "70": 1934,
      "Ä±rak": 1935,
      "land": 1936,
      "mÄ±ÅŁ": 1937,
      "Ġtekrar": 1938,
      "diÄŁ": 1939,
      "eÅŁ": 1940,
      "Ġdec": 1941,
      "Ġunderstanding": 1942,
      "Ġwho": 1943,
      "uyun": 1944,
      "ĠakÅŁam": 1945,
      "Ġflexible": 1946,
      "ual": 1947,
      "Ġuntil": 1948,
      "Ã¼c": 1949,
      "Ġment": 1950,
      "Ġmess": 1951,
      "ĠÃ§alÄ±ÅŁÄ±n": 1952,
      "Ġburn": 1953,
      "Ġchunks": 1954,
      "lend": 1955,
      "denti": 1956,
      "ĠbÄ±rak": 1957,
      "55": 1958,
      "68": 1959,
      "ling": 1960,
      "Ġstress": 1961,
      "Ġphysical": 1962,
      "dentif": 1963,
      "ld": 1964,
      "oose": 1965,
      "ĠPair": 1966,
      "mer": 1967,
      "rate": 1968,
      "ĠgÃ¼venli": 1969,
      "ear": 1970,
      "ĠÄ°kinci": 1971,
      "Ġnight": 1972,
      "Ġbilg": 1973,
      "Ġboyunca": 1974,
      "iy": 1975,
      "Ġburnout": 1976,
      "Ġmu": 1977,
      "Ġgoing": 1978,
      "asÄ±l": 1979,
      "'re": 1980,
      "Ġcont": 1981,
      "ogether": 1982,
      "Ġilgili": 1983,
      "Ġbak": 1984,
      "Ġgid": 1985,
      "ffee": 1986,
      "man": 1987,
      "pt": 1988,
      "uk": 1989,
      "Ġtogether": 1990,
      "ĠhÄ±zlÄ±": 1991,
      "Ġanything": 1992,
      "vir": 1993,
      "Ġyet": 1994,
      "Ġinc": 1995,
      "viron": 1996,
      "Ġbr": 1997,
      "Ġcoffee": 1998,
      "vironment": 1999,
      "Ġiz": 2000,
      "Ġimmediate": 2001,
      "Ġhisset": 2002,
      "Ġur": 2003,
      "Ġbud": 2004,
      "isi": 2005,
      "ĠdoÄŁrudan": 2006,
      "ĠbÃ¼yÃ¼k": 2007,
      "ĠBaÅŁ": 2008,
      "Ġstay": 2009,
      "Ġolabilir": 2010,
      "ĠbaÅŁlayabilirsiniz": 2011,
      "Ġbilgi": 2012,
      "Ġconf": 2013,
      "Ġenergy": 2014,
      "Ġwa": 2015,
      "Ġmev": 2016,
      "Ã¼nde": 2017,
      "Ã§ek": 2018,
      "ways": 2019,
      "ves": 2020,
      "Ġbirlikte": 2021,
      "Ġyapmaya": 2022,
      "Ġbedtime": 2023,
      "Ġdeneyin": 2024,
      "Ġmental": 2025,
      "Ġenvironment": 2026,
      "Ġhav": 2027,
      "Ġrepe": 2028,
      "ĠkiÅŁ": 2029,
      "min": 2030,
      "enin": 2031,
      "Ġayar": 2032,
      "Ġhedefler": 2033,
      "Ġspeaking": 2034,
      "78": 2035,
      "kÃ¼": 2036,
      "Ġthou": 2037,
      "Ġenj": 2038,
      "hti": 2039,
      "Ġloc": 2040,
      "ence": 2041,
      "ĠadÄ±mÄ±": 2042,
      "ĠÄ°stanbul": 2043,
      "ĠFri": 2044,
      "Ġbudget": 2045,
      "..": 2046,
      "98": 2047,
      "miÅŁ": 2048,
      "Ġgrou": 2049,
      "ĠÃ§Ã¶z": 2050,
      "Ġazal": 2051,
      "Ġnatur": 2052,
      "Ġfriend": 2053,
      "kaÃ§": 2054,
      "Ġtrip": 2055,
      "atik": 2056,
      "Ġmevcut": 2057,
      "imming": 2058,
      "Ġrahat": 2059,
      "unuzu": 2060,
      "Ġflights": 2061,
      "Ġthought": 2062,
      "Ġknow": 2063,
      "inden": 2064,
      "ĠÃ¶ncelikle": 2065,
      "Ġbetter": 2066,
      "Ġopen": 2067,
      "ĠyardÄ±mcÄ±": 2068,
      "ĠComm": 2069,
      "Ġswimming": 2070,
      "Ġjackets": 2071,
      "Ã¼t": 2072,
      "cek": 2073,
      "Ġstep": 2074,
      "Ġachiev": 2075,
      "âĢ": 2076,
      "Ġlar": 2077,
      "Ġhigh": 2078,
      "hers": 2079,
      "Ġrela": 2080,
      "Ġpress": 2081,
      "oun": 2082,
      "Ġfix": 2083,
      "Ġihti": 2084,
      "lara": 2085,
      "aps": 2086,
      "Ġothers": 2087,
      "Ġhafif": 2088,
      "Ġenjoy": 2089,
      "eki": 2090,
      "Ġactually": 2091,
      ".\"": 2092,
      "Ġhard": 2093,
      "imi": 2094,
      "ele": 2095,
      "Ġmaster": 2096,
      "Ġsize": 2097,
      "Ġful": 2098,
      "ĠgÃ¶rev": 2099,
      "rÄ±ca": 2100,
      "ĠsÄ±k": 2101,
      "Ã§e": 2102,
      "Ġpressure": 2103,
      "ger": 2104,
      "yla": 2105,
      "eleri": 2106,
      "Ġeasy": 2107,
      "ĠÅŁeyi": 2108,
      "dentify": 2109,
      "ugÃ¼n": 2110,
      "ssible": 2111,
      "Ġise": 2112,
      "Ġstop": 2113,
      "ough": 2114,
      "Ġnok": 2115,
      "Ġhal": 2116,
      "ĠAyrÄ±ca": 2117,
      "Ġsuch": 2118,
      "lendir": 2119,
      "Ġbloc": 2120,
      "come": 2121,
      "Ġdef": 2122,
      "ĠadÄ±mlar": 2123,
      "Ġhat": 2124,
      "Ġway": 2125,
      "sts": 2126,
      "Ġbunu": 2127,
      "Ġetmek": 2128,
      "Ġcalm": 2129,
      "Ġachievable": 2130,
      "Ġtal": 2131,
      ").": 2132,
      "Ġkah": 2133,
      "leyerek": 2134,
      "Ġsupport": 2135,
      "ital": 2136,
      "aries": 2137,
      "Ġlet": 2138,
      "ĠnasÄ±l": 2139,
      "Ġfark": 2140,
      "ĠaÃ§Ä±k": 2141,
      "Ġdedicated": 2142,
      "Ġtak": 2143,
      "Ġhapp": 2144,
      "Ġyok": 2145,
      "Ġkendine": 2146,
      "Ġsaatler": 2147,
      "ĠÄ±ÅŁÄ±k": 2148,
      "Ġown": 2149,
      "Ġbeh": 2150,
      "lamak": 2151,
      "?\"": 2152,
      "Ġdrin": 2153,
      "Ġsevi": 2154,
      "ĠPause": 2155,
      "54": 2156,
      "eden": 2157,
      "ations": 2158,
      "Ġquick": 2159,
      "una": 2160,
      "Ġsimp": 2161,
      "ĠKend": 2162,
      "Ġinternal": 2163,
      "Ġtan": 2164,
      "Ġtaking": 2165,
      "ĠÃĩ": 2166,
      "-d": 2167,
      "unlar": 2168,
      "Ġsta": 2169,
      "Ġshow": 2170,
      "mayÄ±n": 2171,
      "Ġbound": 2172,
      "rage": 2173,
      "Ġfind": 2174,
      "Ġger": 2175,
      "Ġtrans": 2176,
      "ĠseÃ§mek": 2177,
      "os": 2178,
      "Ġpractice": 2179,
      "Ġactively": 2180,
      "Ġfre": 2181,
      "Ġshared": 2182,
      "ready": 2183,
      "ĠFriendship": 2184,
      "ail": 2185,
      "Ġstick": 2186,
      "Ġalready": 2187,
      "ĠseÃ§in": 2188,
      "Ġsayede": 2189,
      "sin": 2190,
      "Åŀ": 2191,
      "Ġsmal": 2192,
      "ĠÃĹ": 2193,
      "siz": 2194,
      "Ġcur": 2195,
      "Ġderin": 2196,
      "maktÄ±r": 2197,
      "Ġfocusing": 2198,
      "Ġgenellikle": 2199,
      "ĠdoÄŁru": 2200,
      "ĠChoose": 2201,
      "ĠDay": 2202,
      "ĠSadece": 2203,
      "Ġsto": 2204,
      "luÄŁ": 2205,
      "Ġag": 2206,
      "elim": 2207,
      "Ġtimer": 2208,
      "ck": 2209,
      "ĠtÃ¼m": 2210,
      "aring": 2211,
      "Ġfollowed": 2212,
      "ds": 2213,
      "Ġdu": 2214,
      "Ġmakes": 2215,
      "Ġreward": 2216,
      "ĠÃ¶nceki": 2217,
      "Ġurg": 2218,
      "ĠadÄ±mÄ±nÄ±zÄ±": 2219,
      "ĠIdentify": 2220,
      "Ġlea": 2221,
      "Ġworking": 2222,
      "Ġsessions": 2223,
      "ran": 2224,
      "Ġair": 2225,
      "Ġpratik": 2226,
      "Ġreset": 2227,
      "Ġkalk": 2228,
      "Ġfriends": 2229,
      "Ġbooks": 2230,
      "Ġdays": 2231,
      "Ġnon": 2232,
      "ĠmÄ±": 2233,
      "ablish": 2234,
      "load": 2235,
      "Ġstatem": 2236,
      "Ġaut": 2237,
      "Ġsun": 2238,
      "Ġwaiting": 2239,
      "daki": 2240,
      "ogress": 2241,
      "econd": 2242,
      "Ġtrust": 2243,
      "Ġprogress": 2244,
      "Ġkonu": 2245,
      "ness": 2246,
      "Ġnotebooks": 2247,
      "avior": 2248,
      "nÄ±": 2249,
      "Ġear": 2250,
      "Ġspot": 2251,
      "Ġcomp": 2252,
      "Ġkayd": 2253,
      "Ġplants": 2254,
      "ĠsÄ±cak": 2255,
      "Ġbehavior": 2256,
      "ĠUy": 2257,
      "Ġbooking": 2258,
      "Ġsimply": 2259,
      "ject": 2260,
      "Ġlif": 2261,
      "Ġsetting": 2262,
      "ĠolduÄŁu": 2263,
      "ĠbÃ¶ylece": 2264,
      "Ġclar": 2265,
      "Ġses": 2266,
      "int": 2267,
      "Ġput": 2268,
      "Ġter": 2269,
      "Ġfaz": 2270,
      "ĠbirkaÃ§": 2271,
      "Ġconnection": 2272,
      "ĠgerÃ§ek": 2273,
      "Ġmis": 2274,
      "ÄŁini": 2275,
      "abilece": 2276,
      "Ġwithin": 2277,
      "Ġenerj": 2278,
      "Ġoverwhelming": 2279,
      "Ġboxes": 2280,
      "Ġeffort": 2281,
      "Ġthoughts": 2282,
      "erli": 2283,
      "laÅŁtÄ±r": 2284,
      "ob": 2285,
      "mey": 2286,
      "Ġolmak": 2287,
      "Ġkendinize": 2288,
      "Ġfazla": 2289,
      "tik": 2290,
      "Ġpack": 2291,
      "ĠsaÄŁlar": 2292,
      "Ġspeak": 2293,
      "Ġsan": 2294,
      "Ġhay": 2295,
      "enizi": 2296,
      "Ġfew": 2297,
      "sk": 2298,
      "Ġpar": 2299,
      "Ġinterrup": 2300,
      "Ġstres": 2301,
      "Ġli": 2302,
      "Ġusu": 2303,
      "Ġgra": 2304,
      "Ġlarge": 2305,
      "Ġhot": 2306,
      "Ġyor": 2307,
      "ikk": 2308,
      "itiate": 2309,
      "Ġinterest": 2310,
      "Ġchecking": 2311,
      "ĠsayÄ±sÄ±": 2312,
      "hy": 2313,
      "rix": 2314,
      "ĠEv": 2315,
      "Ġbelirlemek": 2316,
      "-in": 2317,
      "af": 2318,
      "ĠdÃ¶": 2319,
      "unun": 2320,
      "Ġinform": 2321,
      "Ġancak": 2322,
      "Ġgetting": 2323,
      "Ġmuch": 2324,
      "dÄ±ÄŁÄ±nÄ±z": 2325,
      "ates": 2326,
      "Ġlisten": 2327,
      "Ġdurumu": 2328,
      "Ġperf": 2329,
      "ended": 2330,
      "Ġboth": 2331,
      "ult": 2332,
      "ĠbaÅŁarÄ±": 2333,
      "Ġclean": 2334,
      "Ġbackpacks": 2335,
      "Ġautom": 2336,
      "Ġinformation": 2337,
      "Ġbit": 2338,
      "Ã¼nÃ¼": 2339,
      "yorsanÄ±z": 2340,
      "Ġhotel": 2341,
      "43": 2342,
      "bet": 2343,
      "hower": 2344,
      "isen": 2345,
      "ĠdÄ±ÅŁ": 2346,
      "isenhower": 2347,
      "alarÄ±": 2348,
      "Ġthere": 2349,
      "Ġrut": 2350,
      "iye": 2351,
      "tes": 2352,
      "Ġadd": 2353,
      "ĠMake": 2354,
      "ĠÅŁeyler": 2355,
      "Ġgenu": 2356,
      "Ġdetay": 2357,
      "Ġseviy": 2358,
      "lÄ±ÄŁÄ±": 2359,
      "Ġsizi": 2360,
      "layÄ±p": 2361,
      "bir": 2362,
      "ĠÃĸÄŁ": 2363,
      "Ġstatements": 2364,
      "ex": 2365,
      "yon": 2366,
      "Ġpay": 2367,
      "ĠbaÄŁ": 2368,
      "Ġbeing": 2369,
      "Ġlife": 2370,
      "ebilir": 2371,
      "ase": 2372,
      "ĠÃĸrneÄŁin": 2373,
      "Ġkapat": 2374,
      "Ġsystem": 2375,
      "Ġbad": 2376,
      "Ġtackling": 2377,
      "Ġstret": 2378,
      "âĢĶ": 2379,
      "Ġautoma": 2380,
      "masÄ±": 2381,
      "erv": 2382,
      "Ġpenc": 2383,
      "other": 2384,
      "plement": 2385,
      "ĠMat": 2386,
      "Ġtrig": 2387,
      "Ġgece": 2388,
      "ign": 2389,
      "ulaÅŁ": 2390,
      "Ġunex": 2391,
      "pected": 2392,
      "ĠAsk": 2393,
      "Ġmessage": 2394,
      "Ġboundaries": 2395,
      "ĠMatrix": 2396,
      "Ġunexpected": 2397,
      "yÄ±": 2398,
      "larÄ±nÄ±z": 2399,
      "Ġsets": 2400,
      "Ġcameras": 2401,
      "Ãĸ": 2402,
      "ĠulaÅŁ": 2403,
      "ould": 2404,
      "Ġdra": 2405,
      "ĠolduÄŁunu": 2406,
      "Ä±lÄ±": 2407,
      "Ã¼l": 2408,
      "Ġanother": 2409,
      "Ġunut": 2410,
      "Ġala": 2411,
      "Ġval": 2412,
      "Ġdrinking": 2413,
      "side": 2414,
      "Ġsur": 2415,
      "raz": 2416,
      "less": 2417,
      "ĠIm": 2418,
      "Ġallow": 2419,
      "Ġlamps": 2420,
      "ĠÄ±ÅŁÄ±": 2421,
      "Ġlocal": 2422,
      "onn": 2423,
      "Ġkamer": 2424,
      "Ġdri": 2425,
      "Ġthin": 2426,
      "Ġreal": 2427,
      "inizde": 2428,
      "Ġdoable": 2429,
      "ĠyÃ¼zme": 2430,
      "'n": 2431,
      "ies": 2432,
      "Ġprogram": 2433,
      "Ġbulun": 2434,
      "Ġblocks": 2435,
      "Ġusually": 2436,
      "Ġhar": 2437,
      "Ã¼nkÃ¼": 2438,
      "Ġask": 2439,
      "ushing": 2440,
      "Ġnokt": 2441,
      "-ended": 2442,
      "Ġclock": 2443,
      "Ġwaking": 2444,
      "Ġwords": 2445,
      "Ġneeds": 2446,
      "Ġtoo": 2447,
      "Ġexpress": 2448,
      "ĠgeÃ§ir": 2449,
      "Ġrelax": 2450,
      "),": 2451,
      "ĠÅŀ": 2452,
      "Ġtakes": 2453,
      "Ġcontact": 2454,
      "Ġnaturally": 2455,
      "mor": 2456,
      "row": 2457,
      "ĠEisenhower": 2458,
      "Ã§a": 2459,
      "abil": 2460,
      "ĠbaÅŁla": 2461,
      "Ġenough": 2462,
      "ause": 2463,
      "sp": 2464,
      "Ġsuyun": 2465,
      "ulti": 2466,
      "ĠYes": 2467,
      "ĠalÄ±n": 2468,
      "Ġstorage": 2469,
      "endar": 2470,
      "Ġwind": 2471,
      "ĠDown": 2472,
      "Ġearly": 2473,
      "ikkat": 2474,
      "iet": 2475,
      "malÄ±": 2476,
      "vam": 2477,
      "esi": 2478,
      "Ġbiri": 2479,
      "ĠsaÄŁlay": 2480,
      "Ġbicycles": 2481,
      "ĠImplement": 2482,
      "iyor": 2483,
      "Ġmulti": 2484,
      "larÄ±n": 2485,
      "sÄ±nÄ±": 2486,
      "Ġsen": 2487,
      "Ġconce": 2488,
      "alth": 2489,
      "Ġide": 2490,
      "Ġtamamen": 2491,
      "ĠÃ¶zel": 2492,
      "ĠDownload": 2493,
      "Ġconversations": 2494,
      "Ġgive": 2495,
      "ĠkayÄ±ta": 2496,
      "Ġexist": 2497,
      "ĠThe": 2498,
      "akin": 2499,
      "Ġadv": 2500,
      "Ġsee": 2501,
      "ĠalÄ±p": 2502,
      "Ġaktiv": 2503,
      "ĠyakÄ±n": 2504,
      "**:": 2505,
      "Ġdeclutter": 2506,
      "mesi": 2507,
      "Ã¼nÃ¼z": 2508,
      "ĠseÃ§en": 2509,
      "Ġlast": 2510,
      "ĠInitiate": 2511,
      ".,": 2512,
      "ones": 2513,
      "elf": 2514,
      "Ġhas": 2515,
      "Ġyan": 2516,
      "Ġorganize": 2517,
      "Ġilgi": 2518,
      "Ġcalendar": 2519,
      "Ġessential": 2520,
      "Ġdisc": 2521,
      "ĠpaylaÅŁ": 2522,
      "ayan": 2523,
      "ama": 2524,
      "Ġbecome": 2525,
      "asers": 2526,
      "ĠartÄ±r": 2527,
      "Ġhealth": 2528,
      "Ġerasers": 2529,
      "ĠaynÄ±": 2530,
      "Ġform": 2531,
      "eyi": 2532,
      "ĠiÅŁe": 2533,
      "Ġpencils": 2534,
      "Ġexisting": 2535,
      "go": 2536,
      "tin": 2537,
      "Ġbile": 2538,
      "rarak": 2539,
      "ez": 2540,
      "Ġhob": 2541,
      "ĠyÃ¼k": 2542,
      "Ġgir": 2543,
      "ĠAd": 2544,
      "ĠgÃ¶st": 2545,
      "Ġuzun": 2546,
      "Ġdrawer": 2547,
      "Ġgl": 2548,
      "Ġpart": 2549,
      "Ġtur": 2550,
      "Ġma": 2551,
      "Ġmaps": 2552,
      "Ġeye": 2553,
      "Ġuyum": 2554,
      "ĠÃ§Ã¼nkÃ¼": 2555,
      "Ġexact": 2556,
      "Ġentirely": 2557,
      "Ġdiffer": 2558,
      "eleb": 2559,
      "Ġzorluk": 2560,
      "Ġkendinizi": 2561,
      "onnect": 2562,
      "Ġkoy": 2563,
      "Ġincel": 2564,
      "Ġyeterli": 2565,
      "Ġadvance": 2566,
      "42": 2567,
      "ost": 2568,
      "ĠĠ": 2569,
      "Ġap": 2570,
      "Ġneden": 2571,
      "larÄ±nÄ±zÄ±": 2572,
      "cial": 2573,
      "Ġass": 2574,
      "ulate": 2575,
      "Ġthose": 2576,
      "stant": 2577,
      "Ġdevam": 2578,
      "Ġchanges": 2579,
      "ĠÅŁunlar": 2580,
      "ĠThis": 2581,
      "landÄ±": 2582,
      "Ġx": 2583,
      "Ġpla": 2584,
      "Ġkeli": 2585,
      "Ġdel": 2586,
      "Ġoffline": 2587,
      "Ġtelefonunuz": 2588,
      "'in": 2589,
      "Ġsharing": 2590,
      "ently": 2591,
      "Ġalways": 2592,
      ".g": 2593,
      "eve": 2594,
      "Ġeng": 2595,
      "ĠolmalÄ±": 2596,
      "Ġes": 2597,
      "ĠÃ§iz": 2598,
      "Ġkitab": 2599,
      "Ġclearly": 2600,
      "ĠÃ¼zerine": 2601,
      "und": 2602,
      "Ġkey": 2603,
      "ather": 2604,
      "Ġavoiding": 2605,
      "Ġsaying": 2606,
      "Ġsizin": 2607,
      "ĠÃĸÄŁren": 2608,
      "Ġob": 2609,
      "Ġrequ": 2610,
      "Ġmatters": 2611,
      "Ġglass": 2612,
      "uly": 2613,
      "ilt": 2614,
      "Ġmi": 2615,
      "Ġmus": 2616,
      "ĠAl": 2617,
      "Ġremo": 2618,
      ").Ċ": 2619,
      "ĠÄ±": 2620,
      "Ġkor": 2621,
      "ĠDaha": 2622,
      "dÄ±n": 2623,
      "Ġtruly": 2624,
      "igital": 2625,
      "ĠodaklanÄ±n": 2626,
      "Ġclo": 2627,
      "tif": 2628,
      "Ġproduc": 2629,
      "lere": 2630,
      "Ġaside": 2631,
      "reating": 2632,
      "ĠÃ§Ã¶zÃ¼m": 2633,
      "Ġclarif": 2634,
      "Ġcare": 2635,
      "ĠdeÄŁer": 2636,
      "Ġdifferent": 2637,
      "aÄŁÄ±": 2638,
      "Ġdoes": 2639,
      "ersiz": 2640,
      "-t": 2641,
      "ime": 2642,
      "Ä±cÄ±": 2643,
      "\":": 2644,
      "'i": 2645,
      "cing": 2646,
      "Ġend": 2647,
      "Ġceleb": 2648,
      "Ġzi": 2649,
      "Ġones": 2650,
      "ĠRes": 2651,
      "Ġhand": 2652,
      "Ġconsistently": 2653,
      "Ġurgent": 2654,
      "Ġdikkat": 2655,
      "Ġgi": 2656,
      "ĠÃ§eki": 2657,
      "Ġgroup": 2658,
      "ogle": 2659,
      "stablish": 2660,
      "lerin": 2661,
      "ĠKÃ¼Ã§Ã¼k": 2662,
      "Ġoutside": 2663,
      "ĠGÃ¼nlÃ¼k": 2664,
      "Ġkahve": 2665,
      "ber": 2666,
      "val": 2667,
      "leye": 2668,
      "eye": 2669,
      "leyip": 2670,
      "ĠArdÄ±ndan": 2671,
      "Ġotur": 2672,
      "Ġkullanarak": 2673,
      "Ġpossible": 2674,
      "Ġproject": 2675,
      "-f": 2676,
      "vals": 2677,
      "ĠEstablish": 2678,
      "ĠvÃ¼c": 2679,
      "Ġalmak": 2680,
      "anÄ±zÄ±": 2681,
      "Ġoffer": 2682,
      "Ġprices": 2683,
      "Ġlat": 2684,
      "Ġcoun": 2685,
      "Ġplace": 2686,
      "Ġwr": 2687,
      "ilen": 2688,
      "ĠeÄŁ": 2689,
      "ĠyÃ¼zecek": 2690,
      "Ġmateri": 2691,
      "vaÅŁ": 2692,
      "ĠbugÃ¼n": 2693,
      "Ã¶r": 2694,
      "icro": 2695,
      "iden": 2696,
      "Ġimpro": 2697,
      "gun": 2698,
      "lud": 2699,
      "Ġbil": 2700,
      "Ġeg": 2701,
      "ĠList": 2702,
      "Ġintervals": 2703,
      "Ġdeta": 2704,
      "lÃ¼": 2705,
      "Ġten": 2706,
      "Ġcomes": 2707,
      "tention": 2708,
      "cih": 2709,
      "oplam": 2710,
      "Ġfull": 2711,
      "ĠvÃ¼cud": 2712,
      "ood": 2713,
      "Ġsol": 2714,
      "Ä±mÄ±": 2715,
      "Ġsonu": 2716,
      "ĠkullanÄ±n": 2717,
      "Ġlater": 2718,
      "ĠadÄ±mlarÄ±": 2719,
      "inizin": 2720,
      "87": 2721,
      "fort": 2722,
      "Ġtopic": 2723,
      "Ġkayn": 2724,
      "Ġdiffic": 2725,
      "Ġagain": 2726,
      "ĠÅŁunlardÄ±r": 2727,
      "41": 2728,
      "Ġsk": 2729,
      "Ġreach": 2730,
      "liÄŁi": 2731,
      "Ġmeth": 2732,
      "sÄ±z": 2733,
      "Ä±nÄ±za": 2734,
      "opt": 2735,
      "Ġtercih": 2736,
      "Ġegz": 2737,
      "Ġdifficult": 2738,
      "Ġmethod": 2739,
      ",\"": 2740,
      "anÄ±n": 2741,
      "ĠdoÄŁal": 2742,
      "Ġinclud": 2743,
      "'ve": 2744,
      "red": 2745,
      "irm": 2746,
      "Ġsocial": 2747,
      "ici": 2748,
      "Ġprocess": 2749,
      "Ġessentials": 2750,
      "Ġstretching": 2751,
      "face": 2752,
      "Ġsecond": 2753,
      "Ġpres": 2754,
      "Ġdigital": 2755,
      "eth": 2756,
      "lying": 2757,
      "ĠLear": 2758,
      "Ġkaz": 2759,
      "Ġregularly": 2760,
      "Ġazalt": 2761,
      "Ġrutin": 2762,
      "Ġko": 2763,
      "Ġolun": 2764,
      "Ġbuilds": 2765,
      "Ġcelebrate": 2766,
      "tek": 2767,
      "ĠTechnique": 2768,
      "acaÄŁ": 2769,
      "mektir": 2770,
      "idir": 2771,
      "ĠgÃ¶nder": 2772,
      "itive": 2773,
      "Ġifad": 2774,
      "oÄŁ": 2775,
      "Ġsabit": 2776,
      "Ġhik": 2777,
      "Ġede": 2778,
      "ĠiÃ§er": 2779,
      "omp": 2780,
      "200": 2781,
      "Ġprob": 2782,
      "Ġheard": 2783,
      "Ġswim": 2784,
      "Ġhayat": 2785,
      "Ġskill": 2786,
      "mam": 2787,
      "onin": 2788,
      "Ġemo": 2789,
      "lÄ±ÄŁ": 2790,
      "Ġplans": 2791,
      "Ġsaid": 2792,
      "Ġsoru": 2793,
      "Ġkeeping": 2794,
      "Ġegzersiz": 2795,
      "-ne": 2796,
      "Ä±la": 2797,
      "Ġsort": 2798,
      "irim": 2799,
      "ĠyapmayÄ±": 2800,
      "manÄ±zÄ±": 2801,
      "Ġhafta": 2802,
      "Ġautomatic": 2803,
      "Ġhobb": 2804,
      "86": 2805,
      "Bu": 2806,
      "ouse": 2807,
      "Ġhouse": 2808,
      "mez": 2809,
      "esini": 2810,
      "ĠyavaÅŁ": 2811,
      "Ġregard": 2812,
      "Ġlook": 2813,
      "goti": 2814,
      "yac": 2815,
      "Ä±ndan": 2816,
      "Ġkat": 2817,
      "Ġrit": 2818,
      "Ġlevel": 2819,
      "ments": 2820,
      "Ġdesk": 2821,
      "Ġbursts": 2822,
      "Ġortam": 2823,
      "Ġsurface": 2824,
      "-negoti": 2825,
      "53": 2826,
      "ĠTo": 2827,
      "ĠyaÅŁ": 2828,
      "Ġtekn": 2829,
      "Ġwhole": 2830,
      "meyin": 2831,
      "Ġconcept": 2832,
      "Ġmaterial": 2833,
      "-negotiable": 2834,
      "84": 2835,
      "ndaki": 2836,
      "Ġtari": 2837,
      "100": 2838,
      "Ġevening": 2839,
      "Ġapps": 2840,
      "Ġproblem": 2841,
      "Ġkelim": 2842,
      "Ġdire": 2843,
      "ĠzorluÄŁ": 2844,
      "Ġteeth": 2845,
      "Ġgelecek": 2846,
      "Ġdiye": 2847,
      "Ġquickly": 2848,
      "gor": 2849,
      "dÄ±ÄŁ": 2850,
      "Ġbeca": 2851,
      "sÄ±nda": 2852,
      "Ġaround": 2853,
      "Ġpoz": 2854,
      "ĠgÃ¶rÃ¼n": 2855,
      "ommod": 2856,
      "ĠGoogle": 2857,
      "ĠCommit": 2858,
      "Ġduv": 2859,
      "-s": 2860,
      "sanÄ±z": 2861,
      "elat": 2862,
      "Ġki": 2863,
      "ileri": 2864,
      "Ġmelat": 2865,
      "Ġkonuyu": 2866,
      "Ġprioriti": 2867,
      "Ġprioritize": 2868,
      "ĠdÃ¶n": 2869,
      "Ġgenuine": 2870,
      "ĠAdopt": 2871,
      "Ġbecause": 2872,
      "85": 2873,
      "ĠĠĊ": 2874,
      "ise": 2875,
      "Ġyara": 2876,
      "ĠyaptÄ±": 2877,
      "ĠHaf": 2878,
      "ĠAralÄ±k": 2879,
      "lemeyi": 2880,
      "Ġgerekir": 2881,
      "ĠkolaylaÅŁtÄ±r": 2882,
      "Ġekran": 2883,
      "Ġfixed": 2884,
      "Ġyoksa": 2885,
      "Ġgiving": 2886,
      "Ġmelatonin": 2887,
      "81": 2888,
      "each": 2889,
      "ĠJ": 2890,
      "rast": 2891,
      "Ġdone": 2892,
      "Ġyeme": 2893,
      "irecek": 2894,
      "Ġaccommod": 2895,
      "Ġuzak": 2896,
      "diÄŁiniz": 2897,
      "Ġrequire": 2898,
      "su": 2899,
      "ercis": 2900,
      "Ġpass": 2901,
      "Ġbrief": 2902,
      "Ġactions": 2903,
      "ĠbahÃ§e": 2904,
      "Ġbiraz": 2905,
      "Ġachieve": 2906,
      "ĠCommunication": 2907,
      "ĠhatÄ±r": 2908,
      "Ġcurren": 2909,
      "sÄ±n": 2910,
      "Ġbriefly": 2911,
      "Ġold": 2912,
      "layarak": 2913,
      "180": 2914,
      "Ġregulate": 2915,
      "tar": 2916,
      "ons": 2917,
      "ining": 2918,
      "yaÃ§": 2919,
      "ĠyÃ¼rÃ¼yÃ¼ÅŁe": 2920,
      "ĠistediÄŁinizi": 2921,
      "Ġbrushing": 2922,
      "ha": 2923,
      "Ġcar": 2924,
      "Ġiy": 2925,
      "Ġverin": 2926,
      "ĠÃ¶ncelik": 2927,
      "ocrast": 2928,
      "...\"": 2929,
      "Ġsense": 2930,
      "Ġexactly": 2931,
      "'Ä±n": 2932,
      "83": 2933,
      "Ä±lan": 2934,
      "Ġsam": 2935,
      "Ġprocrast": 2936,
      "Ġbat": 2937,
      "Ġanlat": 2938,
      "Ġtid": 2939,
      "Ġweather": 2940,
      "Ġihtiyac": 2941,
      "ĠdÄ±ÅŁarÄ±": 2942,
      "ebilirsiniz": 2943,
      "Ġdates": 2944,
      "Ġyaparak": 2945,
      "lÄ±ÄŁÄ±nÄ±": 2946,
      "Ġbreaking": 2947,
      "ĠbahÃ§eniz": 2948,
      "ĠfarklÄ±": 2949,
      "ĠseÃ§enek": 2950,
      "82": 2951,
      "ĠaÅŁ": 2952,
      "Ġtalk": 2953,
      "Ġimprove": 2954,
      "fet": 2955,
      "taki": 2956,
      "Ġkab": 2957,
      "Ġkez": 2958,
      "led": 2959,
      "Ġmut": 2960,
      "Ġiniti": 2961,
      "Ġsoh": 2962,
      "Ġshould": 2963,
      "Ġtrack": 2964,
      "Ġconsistency": 2965,
      "Ġdestek": 2966,
      "Ġrepeating": 2967,
      "space": 2968,
      "89": 2969,
      "no": 2970,
      "its": 2971,
      "Ġemin": 2972,
      "Ġduyg": 2973,
      "Ġleave": 2974,
      "Ġputting": 2975,
      "ĠÃĸÄŁrenme": 2976,
      "bu": 2977,
      "ĠgÃ¼Ã§": 2978,
      "ĠSiz": 2979,
      "izing": 2980,
      "Ġinten": 2981,
      "Ġkalan": 2982,
      "ĠseÃ§ip": 2983,
      "Ġreduces": 2984,
      "ĠistediÄŁiniz": 2985,
      "Ġenerji": 2986,
      "Ġkamera": 2987,
      "kli": 2988,
      "sini": 2989,
      "arm": 2990,
      "Ã¼ne": 2991,
      "edul": 2992,
      "Ġbreathing": 2993,
      "ĠihtiyaÃ§": 2994,
      "Ġyorgun": 2995,
      "Ġcurrent": 2996,
      "ĠyÃ¼rÃ¼": 2997,
      "ĠsÃ¼rec": 2998,
      "Ġpos": 2999,
      "Ġthroughout": 3000,
      "yorsunuz": 3001,
      "Ġfresh": 3002,
      "eh": 3003,
      "Ġbins": 3004,
      "Ġmed": 3005,
      "ategor": 3006,
      "Ġfinishing": 3007,
      "Ġtrigger": 3008,
      "asÄ±na": 3009,
      "lardan": 3010,
      "inizdeki": 3011,
      "Ġexercis": 3012,
      "Ġphoto": 3013,
      "sion": 3014,
      "Ġgets": 3015,
      "'nÄ±n": 3016,
      "ĠListen": 3017,
      "Ġregardless": 3018,
      "tim": 3019,
      "Ġkind": 3020,
      "oring": 3021,
      "Ġgu": 3022,
      "imin": 3023,
      "ĠgÃ¼neÅŁ": 3024,
      "300": 3025,
      "Ġclearing": 3026,
      "ĠyaklaÅŁ": 3027,
      "Ġsmaller": 3028,
      "Ġinterests": 3029,
      "Ġmultiple": 3030,
      "ĠgÃ¶ster": 3031,
      "Ġcategor": 3032,
      "Ġbal": 3033,
      "ĠRule": 3034,
      "ĠAncak": 3035,
      "Ġschedul": 3036,
      "Ġconfirm": 3037,
      "Ġpositive": 3038,
      "kÃ¼n": 3039,
      "masÄ±nÄ±": 3040,
      "Ġsit": 3041,
      "ĠsÃ¶": 3042,
      "Ġcontain": 3043,
      "ration": 3044,
      "let": 3045,
      "uring": 3046,
      "ĠGet": 3047,
      "Ġquiet": 3048,
      "lerden": 3049,
      "ĠkayÄ±tta": 3050,
      "280": 3051,
      "Ġmovement": 3052,
      "Ġtransport": 3053,
      "Ġpresent": 3054,
      "ĠLearning": 3055,
      "Pomodoro": 3056,
      "san": 3057,
      "Ġcycle": 3058,
      "arken": 3059,
      "Ġfall": 3060,
      "Ġfree": 3061,
      "Ġmin": 3062,
      "Ġspend": 3063,
      "locking": 3064,
      "Ġyolu": 3065,
      "Ġdesire": 3066,
      "ĠnoktasÄ±": 3067,
      "tional": 3068,
      "ĠBel": 3069,
      "ĠBÃ¶": 3070,
      "izce": 3071,
      "Ġmemor": 3072,
      "ĠÄ°n": 3073,
      "Ä±nÄ±zda": 3074,
      "chang": 3075,
      "view": 3076,
      "Ġcompleting": 3077,
      "ĠaraÃ§": 3078,
      "Ġkayded": 3079,
      "Ġseconds": 3080,
      "110": 3081,
      "men": 3082,
      "ove": 3083,
      "sing": 3084,
      "Ġcomfort": 3085,
      "Ġworkspace": 3086,
      "Ġbased": 3087,
      "Ġkural": 3088,
      "Ã¼cre": 3089,
      "earch": 3090,
      "Ġkara": 3091,
      "ĠEach": 3092,
      "larm": 3093,
      "Ġonu": 3094,
      "chor": 3095,
      "ffer": 3096,
      "Ġpoint": 3097,
      "Ġeasily": 3098,
      "abileceÄŁiniz": 3099,
      "Ġsah": 3100,
      "ÄŁinizi": 3101,
      "eyin": 3102,
      "Ġexchang": 3103,
      "iÄŁer": 3104,
      "ĠBaÅŁlangÄ±Ã§": 3105,
      "Ġsaatlerinde": 3106,
      "Ġmusic": 3107,
      "mel": 3108,
      "Ġca": 3109,
      "Ġsab": 3110,
      "Ġtav": 3111,
      "cision": 3112,
      "Ġreview": 3113,
      "Ġattention": 3114,
      "Ġbelirli": 3115,
      "Ġbackup": 3116,
      "Ġvisual": 3117,
      "ĠUyku": 3118,
      "sed": 3119,
      "Ġam": 3120,
      "Ġalarm": 3121,
      "Ġblam": 3122,
      "lest": 3123,
      "ĠMe": 3124,
      "ection": 3125,
      "Ġolma": 3126,
      "ĠbÃ¶l": 3127,
      "Ġsmallest": 3128,
      "Ġbecomes": 3129,
      "Ġblaming": 3130,
      "'ya": 3131,
      "yn": 3132,
      "tiÄŁiniz": 3133,
      "Ġpark": 3134,
      "Ġsil": 3135,
      "istem": 3136,
      "Ġblock": 3137,
      "Ġind": 3138,
      "ĠApp": 3139,
      "Ġuyan": 3140,
      "Ġnever": 3141,
      "inizden": 3142,
      "ĠRep": 3143,
      "vice": 3144,
      "Ġyerel": 3145,
      "Ġdakikada": 3146,
      "Ġbuilding": 3147,
      "Ġgereken": 3148,
      "gil": 3149,
      "ĠÃ¼cre": 3150,
      "mem": 3151,
      "Ġfik": 3152,
      "Ġfati": 3153,
      "ĠIf": 3154,
      "Ġdene": 3155,
      "Ġbitir": 3156,
      "Ġeffec": 3157,
      "ĠkiÅŁi": 3158,
      "stantly": 3159,
      "Ġsohbet": 3160,
      "Ġwin": 3161,
      "Ä±rken": 3162,
      "Ġdead": 3163,
      "Ġatt": 3164,
      "Ġgetir": 3165,
      "ĠKendi": 3166,
      "-down": 3167,
      "Ġwriting": 3168,
      "ĠsonuÃ§": 3169,
      "ĠBÃ¶ylece": 3170,
      "Ġfatigue": 3171,
      "onsist": 3172,
      "ĠkeÅŁ": 3173,
      "ĠTime": 3174,
      "itap": 3175,
      "Ġzone": 3176,
      "Ã¼mkÃ¼n": 3177,
      "Ġsev": 3178,
      "Ġelimin": 3179,
      "tsiz": 3180,
      "Ġoptions": 3181,
      "otal": 3182,
      "larÄ±na": 3183,
      "emove": 3184,
      "ĠpiÅŁirecek": 3185,
      "Ġinterac": 3186,
      "Ġexper": 3187,
      "Ġgenel": 3188,
      "Ġaccomp": 3189,
      "Ġhotels": 3190,
      "Ġkaynak": 3191,
      "Ġlevels": 3192,
      "Ġaccomplish": 3193,
      "64": 3194,
      "tire": 3195,
      "Ġwarm": 3196,
      "urken": 3197,
      "Ġdecision": 3198,
      "Ġtutun": 3199,
      "Ġreplace": 3200,
      "Ġdesign": 3201,
      "Ġperfect": 3202,
      "Ġthinking": 3203,
      "ĠAlways": 3204,
      "114": 3205,
      "Ġpush": 3206,
      "Ġgeri": 3207,
      "Ġanchor": 3208,
      "ĠayÄ±rÄ±n": 3209,
      "imdi": 3210,
      "ĠPack": 3211,
      "ĠRemove": 3212,
      "ĠiÅŁlem": 3213,
      "tane": 3214,
      "uzur": 3215,
      "Ġensuring": 3216,
      "Ġdrive": 3217,
      "Ġprocrastination": 3218,
      "ĠApply": 3219,
      "-st": 3220,
      ".)": 3221,
      "130": 3222,
      "bel": 3223,
      "dur": 3224,
      "lak": 3225,
      "Ġcas": 3226,
      "Ġsat": 3227,
      "Ġsuyu": 3228,
      "ĠTelefon": 3229,
      "unlarÄ±": 3230,
      "larla": 3231,
      "-blocking": 3232,
      "Ġsaatte": 3233,
      "Ġsuc": 3234,
      "ĠgeliÅŁ": 3235,
      "landÄ±r": 3236,
      "Ġinterrupting": 3237,
      "Ġlim": 3238,
      "ĠReplace": 3239,
      "just": 3240,
      "Ġvery": 3241,
      "ĠDon": 3242,
      "Ġwins": 3243,
      "Ġuyk": 3244,
      "ĠÄ°zmir": 3245,
      "Ġsave": 3246,
      "Ġsonunda": 3247,
      "Ġgidecek": 3248,
      "Ġfully": 3249,
      "Ġtakip": 3250,
      "ĠÃ¼cretsiz": 3251,
      "120": 3252,
      "210": 3253,
      "ana": 3254,
      "Ġcl": 3255,
      "Ã¼s": 3256,
      "ĠToplam": 3257,
      "ĠAnswer": 3258,
      "ĠKon": 3259,
      "ĠkonuÅŁma": 3260,
      "ĠÃ§Ä±kar": 3261,
      "230": 3262,
      "?Ċ": 3263,
      "fe": 3264,
      "gÃ¼n": 3265,
      "hen": 3266,
      "isini": 3267,
      "Ġcall": 3268,
      "Ġsep": 3269,
      "Ġdep": 3270,
      "Ġmet": 3271,
      "ĠÃ¶neriler": 3272,
      "ĠZaman": 3273,
      "Ġdirect": 3274,
      "Ġexperien": 3275,
      "hing": 3276,
      "isay": 3277,
      "Ã¼ÄŁ": 3278,
      "Ġyen": 3279,
      "dÄ±ÄŁÄ±nÄ±": 3280,
      "Ġshelf": 3281,
      "arika": 3282,
      "ĠConsist": 3283,
      "Ġvide": 3284,
      "Ġtrain": 3285,
      "aret": 3286,
      "Ġsumm": 3287,
      "Ġdoesn": 3288,
      "ĠSizin": 3289,
      "-out": 3290,
      "125": 3291,
      "cum": 3292,
      "hangi": 3293,
      "ossible": 3294,
      "two": 3295,
      "ret": 3296,
      "alÄ±m": 3297,
      "ĠboÅŁ": 3298,
      "lines": 3299,
      "Ġasleep": 3300,
      "ĠGÃ¼nÃ¼n": 3301,
      "Ġcluttered": 3302,
      "ously": 3303,
      "-do": 3304,
      "Ġnedenle": 3305,
      "07": 3306,
      "63": 3307,
      "be": 3308,
      "tu": 3309,
      "ĠTr": 3310,
      "ĠfÄ±r": 3311,
      "ĠBe": 3312,
      "izi": 3313,
      "ĠgÃ¶rÃ¼ÅŁ": 3314,
      "ĠMesaj": 3315,
      "128": 3316,
      "air": 3317,
      "ĠdiÄŁer": 3318,
      "ĠYat": 3319,
      "Ġfail": 3320,
      "Ġema": 3321,
      "Ġinv": 3322,
      "ĠiÃ§ine": 3323,
      "aÅŁÄ±k": 3324,
      "lerde": 3325,
      "Ġvak": 3326,
      "Ġyere": 3327,
      "Ġlower": 3328,
      "Ġprevents": 3329,
      "Ġbreathe": 3330,
      "mesini": 3331,
      "Ġsamimi": 3332,
      "Ġkut": 3333,
      "Ġmon": 3334,
      "Ġgit": 3335,
      "yarak": 3336,
      "ĠkayÄ±ttaki": 3337,
      "ĠeÅŁy": 3338,
      "Ġdestinations": 3339,
      "Ġimpossible": 3340,
      "Ġcleaning": 3341,
      "Ġdelays": 3342,
      "Ġsorting": 3343,
      "Ġminim": 3344,
      "Ġkarar": 3345,
      "Ġsistem": 3346,
      "Ġmakin": 3347,
      "aba": 3348,
      "Ġrou": 3349,
      "Ġdocum": 3350,
      "iÄŁi": 3351,
      "ĠdÃ¼ÅŁÃ¼nÃ¼n": 3352,
      "Ġreconnect": 3353,
      "ĠbÄ±rakÄ±n": 3354,
      "Ġhava": 3355,
      "Ġfrequ": 3356,
      "ĠunutmayÄ±n": 3357,
      "Ġoffering": 3358,
      "Ġteknik": 3359,
      "cul": 3360,
      "ilar": 3361,
      "Ġmicro": 3362,
      "Ġsimilar": 3363,
      "Ġokuma": 3364,
      "ĠsaÄŁlÄ±k": 3365,
      "lemeniz": 3366,
      "Ġbilgiyi": 3367,
      "Ġaktivit": 3368,
      "Ġkazan": 3369,
      "Ġyeniden": 3370,
      "istic": 3371,
      "Ġcreating": 3372,
      "ram": 3373,
      "Ġkes": 3374,
      "letiÅŁim": 3375,
      "Ġanda": 3376,
      "Ġrelying": 3377,
      "Ġmeals": 3378,
      "maktan": 3379,
      "Ġtidy": 3380,
      "-on": 3381,
      "212": 3382,
      "so": 3383,
      "Ġbus": 3384,
      "Ġders": 3385,
      "ĠayÄ±": 3386,
      "Ġreli": 3387,
      "eck": 3388,
      "Ġext": 3389,
      "ĠalÄ±ÅŁ": 3390,
      "lemeye": 3391,
      "Ġhappens": 3392,
      "Ġairport": 3393,
      "Ġrelaxing": 3394,
      "ĠkoÅŁ": 3395,
      "ĠzorluÄŁu": 3396,
      "'e": 3397,
      "117": 3398,
      "atch": 3399,
      "lerle": 3400,
      "oman": 3401,
      "400": 3402,
      "Ġswit": 3403,
      "Ġlabel": 3404,
      "-free": 3405,
      "Ġhikay": 3406,
      "112": 3407,
      "116": 3408,
      "gers": 3409,
      "ĠaÄŁ": 3410,
      "Ġhuzur": 3411,
      "Ġren": 3412,
      "Ġforward": 3413,
      "ĠÃ§ev": 3414,
      "thm": 3415,
      "Ġrhy": 3416,
      "ĠHem": 3417,
      "Ġalt": 3418,
      "Ġkarm": 3419,
      "Ġizin": 3420,
      "Ġperfection": 3421,
      "Ġclarifying": 3422,
      "Ġrhythm": 3423,
      "muÅŁ": 3424,
      "onse": 3425,
      "Ġmutu": 3426,
      "ĠmÃ¼mkÃ¼n": 3427,
      "Ġvb": 3428,
      "ĠArkadaÅŁ": 3429,
      "Ġcommun": 3430,
      "tÄ±ra": 3431,
      "Ġhobby": 3432,
      "Ġtavsi": 3433,
      "ll": 3434,
      "malar": 3435,
      "Ġpop": 3436,
      "Ġmik": 3437,
      "Ġstar": 3438,
      "Ġref": 3439,
      "Ġsho": 3440,
      "lÄ±ÅŁkan": 3441,
      "ĠPlan": 3442,
      "Ġbulmak": 3443,
      "Ġbuilt": 3444,
      "ages": 3445,
      "129": 3446,
      "480": 3447,
      "Ġresponse": 3448,
      "Ġrecall": 3449,
      "manÄ±n": 3450,
      "Ġground": 3451,
      "Ġadding": 3452,
      "Ġziya": 3453,
      "115": 3454,
      "113": 3455,
      "314": 3456,
      "327": 3457,
      "ice": 3458,
      "Ġmal": 3459,
      "Ġmust": 3460,
      "209": 3461,
      "Ġboost": 3462,
      "ĠÃ¶ÄŁle": 3463,
      "187": 3464,
      "udy": 3465,
      "500": 3466,
      "Ġdeneyim": 3467,
      "ĠkarÅŁÄ±laÅŁ": 3468,
      "Ġsent": 3469,
      "Ġslow": 3470,
      "ĠBook": 3471,
      "ĠSor": 3472,
      "ĠSÃ¼re": 3473,
      "ĠbaÅŁlangÄ±": 3474,
      "Ġonun": 3475,
      "ĠÃ¶neririm": 3476,
      "ĠkaÄŁÄ±": 3477,
      "inizle": 3478,
      "Ġaccess": 3479,
      "107": 3480,
      "chen": 3481,
      "Ġbelirle": 3482,
      "Ġbelirtil": 3483,
      "Ġkitchen": 3484,
      "Ġtutacak": 3485,
      "Ġnatural": 3486,
      "Ġincludes": 3487,
      "Ġduvar": 3488,
      "gilizce": 3489,
      "isayar": 3490,
      "Ġmutual": 3491,
      "'ll": 3492,
      "-M": 3493,
      "213": 3494,
      "iv": 3495,
      "list": 3496,
      "ping": 3497,
      "ron": 3498,
      "ĠbÃ¼t": 3499,
      "Ġfav": 3500,
      "ĠÄ°letiÅŁim": 3501,
      "**.": 3502,
      "109": 3503,
      "Ã¼rk": 3504,
      "189": 3505,
      "ĠdakikayÄ±": 3506,
      "Ġnotes": 3507,
      "Ä±lmÄ±ÅŁ": 3508,
      "-Minute": 3509,
      "225": 3510,
      "217": 3511,
      "bil": 3512,
      "ork": 3513,
      "ĠaydÄ±n": 3514,
      "ĠbaÅŁlar": 3515,
      "Ġmood": 3516,
      "ĠcÃ¼mle": 3517,
      "207": 3518,
      "136": 3519,
      "udg": 3520,
      "600": 3521,
      "ĠadÄ±mlarla": 3522,
      "Ġturning": 3523,
      "-stakes": 3524,
      "Ġsummar": 3525,
      "Ġfavor": 3526,
      "215": 3527,
      "329": 3528,
      "416": 3529,
      "tle": 3530,
      "yal": 3531,
      "Ġpur": 3532,
      "oud": 3533,
      "Ġder": 3534,
      "ĠadÄ±mda": 3535,
      "Ġmesa": 3536,
      "ecting": 3537,
      "ĠÄ°yi": 3538,
      "Ġtoprak": 3539,
      "Ġweekly": 3540,
      "Ġdinlen": 3541,
      "Ġideas": 3542,
      "Ġcounter": 3543,
      "216": 3544,
      "349": 3545,
      "414": 3546,
      "aÄŁÄ±nÄ±z": 3547,
      "Ġcri": 3548,
      "Ġpause": 3549,
      "Ġbar": 3550,
      "ory": 3551,
      "Ä±nÄ±r": 3552,
      "Ġeveryone": 3553,
      "Ġlead": 3554,
      "here": 3555,
      "Ġneeding": 3556,
      "ĠsÃ¼reci": 3557,
      "ĠamaÃ§": 3558,
      "Ġhavuz": 3559,
      "Ġkonuda": 3560,
      "Ġproduction": 3561,
      "Ġindir": 3562,
      "Ġfikir": 3563,
      "220": 3564,
      "415": 3565,
      "haba": 3566,
      "Ġperi": 3567,
      "Ġbond": 3568,
      "Ġtool": 3569,
      "ÄŁÄ±na": 3570,
      "Ġadjust": 3571,
      "ĠbaÅŁlayÄ±p": 3572,
      "Ġvarsa": 3573,
      "Ġokumaya": 3574,
      "Ġodaklanma": 3575,
      "ĠThen": 3576,
      "ĠÃ§Ä±kacak": 3577,
      "Ġhale": 3578,
      "leyebilirsiniz": 3579,
      "Ġbath": 3580,
      "Ġbalance": 3581,
      "Ġcloth": 3582,
      "Ġstarted": 3583,
      "315": 3584,
      "316": 3585,
      "Two": 3586,
      "ction": 3587,
      "net": 3588,
      "seniz": 3589,
      "Ä±yor": 3590,
      "Ġsin": 3591,
      "imli": 3592,
      "Ġetmeye": 3593,
      "Ġperspec": 3594,
      "Ġheav": 3595,
      "Ġhareke": 3596,
      "Ġtarih": 3597,
      "Ġprioritiz": 3598,
      "Ġperspective": 3599,
      "-siz": 3600,
      "224": 3601,
      "sap": 3602,
      "dÄ±ÄŁÄ±": 3603,
      "ĠAlÄ±ÅŁkan": 3604,
      "liÅŁ": 3605,
      "Ġmedi": 3606,
      "Ġverir": 3607,
      "ĠHabit": 3608,
      "188": 3609,
      "237": 3610,
      "Ġtoplamda": 3611,
      "Ġcomplex": 3612,
      "Ġeder": 3613,
      "ĠgÃ¼nde": 3614,
      "Ġmaintaining": 3615,
      "Ġleaving": 3616,
      "ĠBelir": 3617,
      "ĠÄ°ngilizce": 3618,
      "melis": 3619,
      "Ġvideo": 3620,
      "-sized": 3621,
      "310": 3622,
      "437": 3623,
      "526": 3624,
      "oin": 3625,
      "oint": 3626,
      "Ġcir": 3627,
      "Ġstil": 3628,
      "Ġtar": 3629,
      "Ã¼nd": 3630,
      "Ġmod": 3631,
      "Ġstore": 3632,
      "Ġjudg": 3633,
      "ĠNum": 3634,
      "137": 3635,
      "ĠStudy": 3636,
      "ĠiÅŁi": 3637,
      "ĠÃ§alÄ±ÅŁma": 3638,
      "Ġsayf": 3639,
      "Ġekleyin": 3640,
      "ĠolmasÄ±": 3641,
      "Ġlove": 3642,
      "Ġmindful": 3643,
      "Ġdisrup": 3644,
      "Ġdefter": 3645,
      "ĠÃĩok": 3646,
      "Ġritual": 3647,
      "Ġheavy": 3648,
      "'inde": 3649,
      "228": 3650,
      "214": 3651,
      "Ġconc": 3652,
      "ilik": 3653,
      "ĠSeyahat": 3654,
      "Ġchat": 3655,
      "Ġroman": 3656,
      "ĠReach": 3657,
      "106": 3658,
      "Ġmeans": 3659,
      "Ġhaving": 3660,
      "uyla": 3661,
      "ĠÃ§alÄ±ÅŁmak": 3662,
      "Ġbite": 3663,
      "ĠsaÄŁlayÄ±n": 3664,
      "Ġstrictly": 3665,
      "ĠgÃ¶zlem": 3666,
      "ĠGood": 3667,
      "malÄ±sÄ±nÄ±z": 3668,
      "Ġdecluttering": 3669,
      "Ġprojects": 3670,
      "Ġexercise": 3671,
      "317": 3672,
      "514": 3673,
      "he": 3674,
      "ĠEli": 3675,
      "ese": 3676,
      "lanmÄ±ÅŁ": 3677,
      "ĠGÃ¼nde": 3678,
      "term": 3679,
      "tively": 3680,
      "108": 3681,
      "Ġseb": 3682,
      "ĠyÃ¼zden": 3683,
      "Ġstarts": 3684,
      "Ġtemp": 3685,
      "ĠsabahlarÄ±": 3686,
      "ĠbaÅŁlangÄ±Ã§tÄ±r": 3687,
      "Ġbreaths": 3688,
      "Ġconfid": 3689,
      "Ġrepeti": 3690,
      "ehir": 3691,
      "Ġfavorite": 3692,
      "Ġperiod": 3693,
      "-term": 3694,
      "324": 3695,
      "429": 3696,
      "jor": 3697,
      "mal": 3698,
      "Ġmant": 3699,
      "Ä±ntÄ±": 3700,
      "ĠanlaÅŁ": 3701,
      "tically": 3702,
      "Ġenc": 3703,
      "ĠcÃ¼ml": 3704,
      "149": 3705,
      "126": 3706,
      "186": 3707,
      "Ġused": 3708,
      "380": 3709,
      "Ġiste": 3710,
      "ĠWhy": 3711,
      "Ġkurun": 3712,
      "ĠÄ±ÅŁÄ±ÄŁÄ±": 3713,
      "Ġengag": 3714,
      "tification": 3715,
      "325": 3716,
      "ave": 3717,
      "Ġbag": 3718,
      "ulating": 3719,
      "Ġareas": 3720,
      "Ġwas": 3721,
      "Ġgent": 3722,
      "lic": 3723,
      "Ġbuffer": 3724,
      "306": 3725,
      "Ġarri": 3726,
      "127": 3727,
      "unuza": 3728,
      "unuzda": 3729,
      "Ġstudying": 3730,
      "Ġdiy": 3731,
      "ĠgÃ¶zden": 3732,
      "ĠÃ¼zerinde": 3733,
      "Ġtalking": 3734,
      "ĠtanÄ±m": 3735,
      "Ġmajor": 3736,
      "ĠkitabÄ±": 3737,
      "Ġcommunic": 3738,
      "ĠAlÄ±ÅŁkanlÄ±k": 3739,
      "Ġmedia": 3740,
      "Ġgentle": 3741,
      "-one": 3742,
      "223": 3743,
      "330": 3744,
      "417": 3745,
      "517": 3746,
      "527": 3747,
      "ĠTÃ¼rk": 3748,
      "ĠkÄ±s": 3749,
      "ĠHangi": 3750,
      "Ġjoy": 3751,
      "208": 3752,
      "580": 3753,
      "ĠsÃ¼reÃ§": 3754,
      "Ġbilgiler": 3755,
      "Ġgrad": 3756,
      "Ġbitkil": 3757,
      "Ġallowing": 3758,
      "Ġmonth": 3759,
      "Ġdocuments": 3760,
      "ĠNumara": 3761,
      "227": 3762,
      "328": 3763,
      "425": 3764,
      "isyon": 3765,
      "Ġtotal": 3766,
      "Ġkri": 3767,
      "Ġnerv": 3768,
      "using": 3769,
      "ility": 3770,
      "abilirsin": 3771,
      "Ġcosts": 3772,
      "maz": 3773,
      "Ä±ktan": 3774,
      "229": 3775,
      "Ġkullanmak": 3776,
      "Ġaktivite": 3777,
      "Ġdetails": 3778,
      "Ġiyisi": 3779,
      "Ġmedit": 3780,
      "Ġexperiences": 3781,
      "Ġbusy": 3782,
      "Ġnervous": 3783,
      "323": 3784,
      "326": 3785,
      "449": 3786,
      "516": 3787,
      "529": 3788,
      "549": 3789,
      "You": 3790,
      "uyor": 3791,
      "Ġaim": 3792,
      "Ġcase": 3793,
      "Ġben": 3794,
      "ality": 3795,
      "Ã¶rn": 3796,
      "Ä±nÄ±zÄ±n": 3797,
      "ĠplanlayÄ±n": 3798,
      "206": 3799,
      "Ġalter": 3800,
      "Ġevde": 3801,
      "ĠÃĸner": 3802,
      "Ġisters": 3803,
      "Ġexpla": 3804,
      "Ġgerekti": 3805,
      "Ġrespect": 3806,
      "Ġreply": 3807,
      "ĠdÃ¼zenli": 3808,
      "rink": 3809,
      "Ġsupp": 3810,
      "Ġthink": 3811,
      "Ġhandle": 3812,
      "Ġsuccess": 3813,
      "Ġrepetition": 3814,
      "226": 3815,
      "515": 3816,
      "524": 3817,
      "537": 3818,
      "ding": 3819,
      "sÄ±na": 3820,
      "ues": 3821,
      "Ġtes": 3822,
      "ĠkÃ¶": 3823,
      "Ġner": 3824,
      "Ġnothing": 3825,
      "Ġstrate": 3826,
      "ĠÃ¶d": 3827,
      "309": 3828,
      "Ġorganized": 3829,
      "Ġbelirt": 3830,
      "ĠkaydÄ±": 3831,
      "ĠWhen": 3832,
      "ÄŁÄ±nÄ±zda": 3833,
      "menizi": 3834,
      "Ġortak": 3835,
      "Ġbilgisayar": 3836,
      "Ġsaniye": 3837,
      "ability": 3838,
      "Ġkritik": 3839,
      "424": 3840,
      "427": 3841,
      "536": 3842,
      "ever": 3843,
      "gÄ±": 3844,
      "ih": 3845,
      "ida": 3846,
      "rying": 3847,
      "Ġtas": 3848,
      "ults": 3849,
      "ĠDrink": 3850,
      "ili": 3851,
      "mekten": 3852,
      "efer": 3853,
      "307": 3854,
      "308": 3855,
      "Ġdav": 3856,
      "Ġweb": 3857,
      "336": 3858,
      "Ġmoments": 3859,
      "Ġodaklanmak": 3860,
      "Ġdeeply": 3861,
      "Ġcreates": 3862,
      "Ġnature": 3863,
      "leÅŁtirin": 3864,
      "Ġproblems": 3865,
      "ĠkarmaÅŁÄ±k": 3866,
      "Ġencou": 3867,
      "520": 3868,
      "inter": 3869,
      "Ġcons": 3870,
      "ularÄ±": 3871,
      "Ã¼ph": 3872,
      "ors": 3873,
      "ata": 3874,
      "ĠÃ¶l": 3875,
      "ĠÃ¶neriyi": 3876,
      "ĠzamanÄ±": 3877,
      "288": 3878,
      "Ġbelki": 3879,
      "Ġdakikalar": 3880,
      "ures": 3881,
      "unuzun": 3882,
      "Ġgelen": 3883,
      "Ġnefesinizi": 3884,
      "ĠsÄ±ra": 3885,
      "ffeine": 3886,
      "Ġtriggers": 3887,
      "ĠaÅŁaÄŁÄ±": 3888,
      "Ġcaffeine": 3889,
      "Ġeliminate": 3890,
      "ĠTrue": 3891,
      "Ġmiktar": 3892,
      "Ġgradually": 3893,
      "426": 3894,
      "435": 3895,
      "525": 3896,
      "zem": 3897,
      "ĠSleep": 3898,
      "Ġona": 3899,
      "lerine": 3900,
      "ternal": 3901,
      "ĠyazÄ±lÄ±": 3902,
      "olu": 3903,
      "289": 3904,
      "Ġarka": 3905,
      "337": 3906,
      "Ġhedeflerinizi": 3907,
      "Ġkayna": 3908,
      "ĠgÃ¼nÃ¼nÃ¼z": 3909,
      "ĠtanÄ±ÅŁ": 3910,
      "Ġpacking": 3911,
      "Ġrealistic": 3912,
      "ĠResearch": 3913,
      "Ġsahip": 3914,
      "Ġsummarizing": 3915,
      "Ġdavran": 3916,
      "\")": 3917,
      "320": 3918,
      "312": 3919,
      "430": 3920,
      "413": 3921,
      "436": 3922,
      "Ġav": 3923,
      "Ġpick": 3924,
      "Ġtara": 3925,
      "Ġbin": 3926,
      "Ġkas": 3927,
      "ority": 3928,
      "arge": 3929,
      "Ġtoward": 3930,
      "ĠSayÄ±n": 3931,
      "Ġshif": 3932,
      "tivity": 3933,
      "Ġsear": 3934,
      "mand": 3935,
      "Ġexternal": 3936,
      "Ġspecifically": 3937,
      "Ġnotification": 3938,
      "190": 3939,
      "408": 3940,
      "ĠparÃ§": 3941,
      "Ġifade": 3942,
      "ĠbahÃ§enizin": 3943,
      "elik": 3944,
      "Ġdate": 3945,
      "Ġwrite": 3946,
      "acaÄŁÄ±nÄ±z": 3947,
      "Ġreac": 3948,
      "Ġadvice": 3949,
      "Ġdemand": 3950,
      "ĠkaÃ§Ä±nÄ±n": 3951,
      "236": 3952,
      "iled": 3953,
      "Ġlisting": 3954,
      "409": 3955,
      "Ġneeded": 3956,
      "tanÄ±n": 3957,
      "ĠiÃ§indeki": 3958,
      "Ġlights": 3959,
      "ĠyapÄ±la": 3960,
      "Ġvalida": 3961,
      "Ġcasual": 3962,
      "Ġvakit": 3963,
      "313": 3964,
      "sine": 3965,
      "cisi": 3966,
      "Ġsos": 3967,
      "Ġchore": 3968,
      "287": 3969,
      "vices": 3970,
      "Ġsorunu": 3971,
      "ĠarasÄ±nda": 3972,
      "times": 3973,
      "Ġbilgiye": 3974,
      "minate": 3975,
      "ĠsÄ±kÄ±ntÄ±": 3976,
      "Ġcompare": 3977,
      "Ġfrequently": 3978,
      "Ġprioritizing": 3979,
      "'nde": 3980,
      "420": 3981,
      "428": 3982,
      "433": 3983,
      "510": 3984,
      "523": 3985,
      "Ġsenin": 3986,
      "ĠyarÄ±": 3987,
      "ÄŁÄ±nÄ±zÄ±": 3988,
      "ĠSp": 3989,
      "lig": 3990,
      "eclutter": 3991,
      "488": 3992,
      "Ġtext": 3993,
      "Ġready": 3994,
      "Ġdurumunu": 3995,
      "Ġaraya": 3996,
      "Ġsessiz": 3997,
      "ĠoluÅŁturun": 3998,
      "Ġyatmadan": 3999,
      "iyet": 4000,
      "Ġhappen": 4001,
      "Ġrewards": 4002,
      "Ġdetailed": 4003,
      "Ġaccommodation": 4004,
      "Ġcomfortable": 4005,
      "ĠgeliÅŁtir": 4006,
      "Ġextra": 4007,
      "528": 4008,
      "menin": 4009,
      "ub": 4010,
      "ints": 4011,
      "Ã¼ler": 4012,
      "Ġanki": 4013,
      "ĠbaÅŁÄ±na": 4014,
      "Ġworrying": 4015,
      "507": 4016,
      "ĠalÄ±ÅŁkanlÄ±ÄŁÄ±": 4017,
      "ĠWrite": 4018,
      "Ġolmayan": 4019,
      "Ġchecklist": 4020,
      "Ġappoint": 4021,
      "ĠhiÃ§": 4022,
      "ĠduyduÄŁ": 4023,
      "layÄ±cÄ±": 4024,
      "Ġurgency": 4025,
      "ĠsÄ±caklÄ±ÄŁÄ±nÄ±": 4026,
      "Ġremove": 4027,
      "Ġcommunicate": 4028,
      "ĠÃ¶lÃ§": 4029,
      "410": 4030,
      "Ġbirini": 4031,
      "oney": 4032,
      "imp": 4033,
      "yand": 4034,
      "Ġquality": 4035,
      "ĠuygulayÄ±n": 4036,
      "ĠdeÄŁiÅŁik": 4037,
      "ĠZor": 4038,
      "Ġdair": 4039,
      "249": 4040,
      "establish": 4041,
      "ĠpiÅŁirme": 4042,
      "Ġunderstood": 4043,
      "Ġilerlem": 4044,
      "Ġstaying": 4045,
      "Ġalarak": 4046,
      "Ġeffectively": 4047,
      "Ġconfidence": 4048,
      "Ġalterna": 4049,
      "'u": 4050,
      "533": 4051,
      "jital": 4052,
      "mind": 4053,
      "ending": 4054,
      "Ġplat": 4055,
      "ĠsÃ¼": 4056,
      "Ġsakin": 4057,
      "Ġaren": 4058,
      "286": 4059,
      "ĠÃ¶nceden": 4060,
      "Ġbelirleyerek": 4061,
      "Ġphones": 4062,
      "ĠÃ§eker": 4063,
      "407": 4064,
      "508": 4065,
      "ĠteÅŁ": 4066,
      "Ġhesap": 4067,
      "Ġpaint": 4068,
      "Ġdecide": 4069,
      "ĠsaÄŁlayacak": 4070,
      "ĠartÄ±rÄ±r": 4071,
      "-to": 4072,
      "Ä±labilir": 4073,
      "ĠJoin": 4074,
      "Ġreliable": 4075,
      "Ġmalzem": 4076,
      "ĠTÃ¼rkÃ§e": 4077,
      "-w": 4078,
      "ft": 4079,
      "inely": 4080,
      "Ġbla": 4081,
      "ĠkÃ¼t": 4082,
      "Ġtomor": 4083,
      "Ġmoney": 4084,
      "Ġanx": 4085,
      "Ġverimli": 4086,
      "Ġresults": 4087,
      "121": 4088,
      "arÄ±ÅŁ": 4089,
      "406": 4090,
      "489": 4091,
      "506": 4092,
      "509": 4093,
      "ĠÃ¶zet": 4094,
      "Ġlost": 4095,
      "uck": 4096,
      "Ġdedicate": 4097,
      "Ġgenuinely": 4098,
      "Ġassum": 4099,
      "Ġsolely": 4100,
      "Ġedebilirsiniz": 4101,
      "Ġyarat": 4102,
      "haul": 4103,
      "ĠyaklaÅŁÄ±m": 4104,
      "Ġdeadlines": 4105,
      "ĠkeÅŁfet": 4106,
      "Ġtomorrow": 4107,
      "530": 4108,
      "535": 4109,
      "ns": 4110,
      "ĠadÄ±": 4111,
      "Ġtable": 4112,
      "Ġthese": 4113,
      "Ġretur": 4114,
      "ĠCle": 4115,
      "Ġoverhaul": 4116,
      "Ġokuy": 4117,
      "ildir": 4118,
      "asÄ±nda": 4119,
      "miÅŁtir": 4120,
      "Ġkabul": 4121,
      "build": 4122,
      "Ġsepara": 4123,
      "Ġaktiviteler": 4124,
      "ĠHemen": 4125,
      "Ġnotifications": 4126,
      "'Ã¼nde": 4127,
      ".**": 4128,
      "412": 4129,
      "513": 4130,
      "gi": 4131,
      "Ġestablish": 4132,
      "Ġcue": 4133,
      "Ġsight": 4134,
      "Ġatmak": 4135,
      "Ġsorular": 4136,
      "ĠiÅŁleri": 4137,
      "387": 4138,
      "Ġpoints": 4139,
      "Ġhissi": 4140,
      "ĠoluÅŁturmak": 4141,
      "osure": 4142,
      "ĠkalkÄ±p": 4143,
      "Ġyeterlidir": 4144,
      "Ġlooking": 4145,
      "Ġdesignated": 4146,
      "ĠConsistency": 4147,
      "ĠArkadaÅŁlÄ±k": 4148,
      "Ã¼phan": 4149,
      "Ġplatform": 4150,
      "06": 4151,
      "423": 4152,
      "aat": 4153,
      "Ġpara": 4154,
      "ĠsÃ¼r": 4155,
      "Ġmer": 4156,
      "esif": 4157,
      "ĠSÄ±": 4158,
      "Ġremind": 4159,
      "Ġrebuild": 4160,
      "Ġspesif": 4161,
      "charge": 4162,
      "ĠdÃ¼zel": 4163,
      "ibility": 4164,
      "Ġyerde": 4165,
      "Ġorganizing": 4166,
      "larÄ±nda": 4167,
      "487": 4168,
      "386": 4169,
      "388": 4170,
      "Ġkeeps": 4171,
      "Ġkaybet": 4172,
      "Ġhear": 4173,
      "Ġpersonal": 4174,
      "ĠkolaylaÅŁ": 4175,
      "ĠaÃ§Ä±": 4176,
      "Ġincre": 4177,
      "ount": 4178,
      "Ġspeaker": 4179,
      "Ġkelime": 4180,
      "Ġtopics": 4181,
      "ĠEliminate": 4182,
      "ĠÃ¶dÃ¼l": 4183,
      "Ġspesifik": 4184,
      "sek": 4185,
      "Ġait": 4186,
      "Ġsec": 4187,
      "Ġbask": 4188,
      "elen": 4189,
      "Ġhy": 4190,
      "usal": 4191,
      "ĠDeclutter": 4192,
      "dÄ±k": 4193,
      "ÄŁÄ±n": 4194,
      "amak": 4195,
      "ĠiÃ§mek": 4196,
      "Ġuyand": 4197,
      "ĠbaÅŁka": 4198,
      "Ġabs": 4199,
      "Ġcho": 4200,
      "Ä±zlÄ±": 4201,
      "ĠHedef": 4202,
      "ĠHave": 4203,
      "Ġsaati": 4204,
      "ĠyapmaktÄ±r": 4205,
      "udur": 4206,
      "ĠStop": 4207,
      "Ġotel": 4208,
      "486": 4209,
      "Ġederek": 4210,
      "389": 4211,
      "Ġdeng": 4212,
      "Ġexposure": 4213,
      "Ġimportance": 4214,
      "Ġlate": 4215,
      "ĠbÃ¶lg": 4216,
      "ĠÃ¼zere": 4217,
      "Ġbring": 4218,
      "Ġrahatlat": 4219,
      "Ġmastering": 4220,
      "Ġletting": 4221,
      "Ġfinding": 4222,
      "Ġemotions": 4223,
      "Ġcontainers": 4224,
      "Ġjudgment": 4225,
      "Ġtaraf": 4226,
      "-time": 4227,
      "ging": 4228,
      "Â°": 4229,
      "Ġ-": 4230,
      "Ä±sa": 4231,
      "Ġpic": 4232,
      "Ġsal": 4233,
      "ĠEl": 4234,
      "Ġgere": 4235,
      "ĠÅŁimdi": 4236,
      "ĠsÃ¼reli": 4237,
      "round": 4238,
      "Ġuygulama": 4239,
      "Ġcontinu": 4240,
      "ĠhafifÃ§e": 4241,
      "Ġsaatlerde": 4242,
      "ĠdetaylÄ±": 4243,
      "Ġharit": 4244,
      "iety": 4245,
      "Ġremoving": 4246,
      "Ġzih": 4247,
      "Ġpozisyon": 4248,
      "ĠpopÃ¼ler": 4249,
      "Ġmindfulness": 4250,
      "Ġavail": 4251,
      "\",": 4252,
      "Ġpile": 4253,
      "ĠsÄ±nÄ±r": 4254,
      "Ġtreating": 4255,
      "Ã§i": 4256,
      "ÄŁÄ±nda": 4257,
      "Ġeating": 4258,
      "yap": 4259,
      "edi": 4260,
      "Ġonline": 4261,
      "Ġyapma": 4262,
      "Ġkav": 4263,
      "Ġzorunda": 4264,
      "ĠBuild": 4265,
      "Ġchoose": 4266,
      "Ġplanlama": 4267,
      "Ġmeaningful": 4268,
      "132": 4269,
      "ibly": 4270,
      "Ġherhangi": 4271,
      "Ġhedefe": 4272,
      "Ġexpect": 4273,
      "ucu": 4274,
      "Ġbrings": 4275,
      "Ãĸn": 4276,
      "Ã¼nÃ¼zÃ¼": 4277,
      "Ġcarry": 4278,
      "ĠgÃ¼Ã§lendir": 4279,
      "Ġexchanging": 4280,
      "Ġcritical": 4281,
      "Ġclothes": 4282,
      "Ġdiyerek": 4283,
      "Ġtasar": 4284,
      "Ġanxiety": 4285,
      "534": 4286,
      "ial": 4287,
      "ura": 4288,
      "underst": 4289,
      "ines": 4290,
      "Ġcor": 4291,
      "ĠkalÄ±": 4292,
      "ĠkarÄ±ÅŁ": 4293,
      "Ġfood": 4294,
      "ticing": 4295,
      "Ġdevices": 4296,
      "Ġuygulay": 4297,
      "Ġalong": 4298,
      "Ġmotivated": 4299,
      "Ġbelong": 4300,
      "Ġweeks": 4301,
      "ĠbaÅŁlamanÄ±z": 4302,
      "ĠÃ¶ÄŁrenmeye": 4303,
      "rolling": 4304,
      "Ġperform": 4305,
      "Ġconnections": 4306,
      "Ġurge": 4307,
      "ĠgÃ¶revleri": 4308,
      "Ġblocking": 4309,
      "Ġsunlight": 4310,
      "Ġsesli": 4311,
      "Ġmisunderst": 4312,
      "Ġdirectly": 4313,
      "melisiniz": 4314,
      "-imp": 4315,
      "09": 4316,
      "434": 4317,
      "dÃ¼r": 4318,
      "Ġent": 4319,
      "Ġpat": 4320,
      "Ġser": 4321,
      "Ġmak": 4322,
      "Ġrecharge": 4323,
      "adi": 4324,
      "Ġnear": 4325,
      "ĠyapmanÄ±z": 4326,
      "ange": 4327,
      "Ġevdeki": 4328,
      "Ġyerden": 4329,
      "Ġuninter": 4330,
      "ĠkullanmayÄ±": 4331,
      "ĠiÅŁler": 4332,
      "Ġsaatlik": 4333,
      "ĠInstead": 4334,
      "Ġtransit": 4335,
      "ĠkapatÄ±n": 4336,
      "ĠprogramÄ±": 4337,
      "ĠÅŀu": 4338,
      "Ġhealthy": 4339,
      "Ġkelimeler": 4340,
      "ledge": 4341,
      "Ġguilt": 4342,
      "ĠGetting": 4343,
      "ĠsabÄ±r": 4344,
      "04": 4345,
      "do": 4346,
      "ket": 4347,
      "where": 4348,
      "tiri": 4349,
      "Ġstuck": 4350,
      "lanÄ±r": 4351,
      "kip": 4352,
      "Ġzama": 4353,
      "Ġstrong": 4354,
      "104": 4355,
      "Ġlit": 4356,
      "203": 4357,
      "Ġbelirtin": 4358,
      "ĠbaÅŁlayarak": 4359,
      "avig": 4360,
      "Ġwhenever": 4361,
      "Ġedip": 4362,
      "Ġteach": 4363,
      "586": 4364,
      "587": 4365,
      "589": 4366,
      "ĠazÄ±ndan": 4367,
      "Ġyolcul": 4368,
      "rupted": 4369,
      "Ġuygulamalar": 4370,
      "ĠdeÄŁerlendir": 4371,
      "ĠbÃ¶lÃ¼m": 4372,
      "Ġinvol": 4373,
      "Ġbarri": 4374,
      "Ġstill": 4375,
      "Ġuninterrupted": 4376,
      "05": 4377,
      "118": 4378,
      "der": 4379,
      "Ġlock": 4380,
      "Ġbiti": 4381,
      "Ġnavig": 4382,
      "ĠEx": 4383,
      "Ġfay": 4384,
      "Ġstand": 4385,
      "Ġversion": 4386,
      "Ã¼zel": 4387,
      "ĠHarika": 4388,
      "ĠatÄ±n": 4389,
      "ĠÃ¶ÄŁrenin": 4390,
      "Ġinternet": 4391,
      "ĠdÃ¼ÅŁÃ¼r": 4392,
      "Ä±lÄ±r": 4393,
      "ĠdÃ¼zenini": 4394,
      "Ġdistraction": 4395,
      "ĠÃ¼zerinden": 4396,
      "Ġenjoyable": 4397,
      "Ġkaydet": 4398,
      "Ġharc": 4399,
      "Ġemotional": 4400,
      "Ġsilence": 4401,
      "Ġdepart": 4402,
      "Ġreturn": 4403,
      "512": 4404,
      "ba": 4405,
      "ru": 4406,
      "Ġtechniqu": 4407,
      "ladÄ±ÄŁÄ±nÄ±z": 4408,
      "Ġmad": 4409,
      "Ġmid": 4410,
      "Ġgrow": 4411,
      "ats": 4412,
      "Ġbec": 4413,
      "Ġuyuy": 4414,
      "enize": 4415,
      "ĠÅŁehir": 4416,
      "133": 4417,
      "ĠiÅŁle": 4418,
      "588": 4419,
      "ross": 4420,
      "bilecek": 4421,
      "ĠkonuÅŁmak": 4422,
      "Ġekleyerek": 4423,
      ".\"Ċ": 4424,
      "Ġhaftada": 4425,
      "Ġdesired": 4426,
      "Ġattrac": 4427,
      "ĠbaÅŁlangÄ±cÄ±": 4428,
      "Ġtechniques": 4429,
      "ges": 4430,
      "yin": 4431,
      "Ġcra": 4432,
      "Ġsl": 4433,
      "Ġmap": 4434,
      "Ġforce": 4435,
      "sÄ±t": 4436,
      "Ġbulund": 4437,
      "ĠHay": 4438,
      "102": 4439,
      "105": 4440,
      "ĠKitap": 4441,
      "leyen": 4442,
      "609": 4443,
      "ĠalanÄ±": 4444,
      "Ġwait": 4445,
      "Ġhardest": 4446,
      "Ġclarity": 4447,
      "Ġautomatically": 4448,
      "Ġwindow": 4449,
      "ĠyemeÄŁi": 4450,
      "Ġrequires": 4451,
      "Ġmemory": 4452,
      "ĠYatmadan": 4453,
      "Ġroute": 4454,
      "Ġshoot": 4455,
      "Ġmesaf": 4456,
      "-impact": 4457,
      "Ġzamanda": 4458,
      "fÄ±r": 4459,
      "hand": 4460,
      "ĠiliÅŁ": 4461,
      "ĠSaat": 4462,
      "lanan": 4463,
      "Ġbeen": 4464,
      "ĠanlÄ±k": 4465,
      "ĠGÃ¶z": 4466,
      "ĠÄ°ÅŁ": 4467,
      "Ġyapabilirsiniz": 4468,
      "ĠNe": 4469,
      "101": 4470,
      "allen": 4471,
      "Ġboz": 4472,
      "Ġintens": 4473,
      "Ġcommon": 4474,
      "Ġbelirleyip": 4475,
      "Ġetkin": 4476,
      "ĠÃ§ekecek": 4477,
      "Ġsaatini": 4478,
      "Ġkurmak": 4479,
      "pping": 4480,
      "reading": 4481,
      "Ġkindness": 4482,
      "ĠsÃ¶yle": 4483,
      "ĠkoÅŁul": 4484,
      "ĠbÃ¼tÃ§": 4485,
      "ĠmantÄ±k": 4486,
      "ĠcÃ¼mleler": 4487,
      "Ġsosyal": 4488,
      "ĠsÃ¼ren": 4489,
      "'a": 4490,
      "ada": 4491,
      "pose": 4492,
      "zet": 4493,
      "Ġstic": 4494,
      "Ġsefer": 4495,
      "Ġprom": 4496,
      "Ġned": 4497,
      "ĠBÃ¼yÃ¼k": 4498,
      "Ġcol": 4499,
      "Ġchallen": 4500,
      "layan": 4501,
      "Ġalma": 4502,
      "Ġfriction": 4503,
      "ĠUz": 4504,
      "124": 4505,
      "183": 4506,
      "607": 4507,
      "Ġexpecting": 4508,
      "ĠsaÄŁlam": 4509,
      "Ġodaklanarak": 4510,
      "Ġhissed": 4511,
      "Ġincred": 4512,
      "ĠkiÅŁiye": 4513,
      "âĢĵ": 4514,
      "ĠgeÃ§irin": 4515,
      "Ġideal": 4516,
      "Ġsolve": 4517,
      "Ġsurfaces": 4518,
      "Ġtavsiye": 4519,
      "Ġnerede": 4520,
      "Ġdemanding": 4521,
      "Ġblack": 4522,
      "Ġsticking": 4523,
      "Ġincredibly": 4524,
      "340": 4525,
      "St": 4526,
      "back": 4527,
      "cadi": 4528,
      "iraz": 4529,
      "sunuz": 4530,
      "to": 4531,
      "ĠÃ¼Ã§": 4532,
      "Ġcues": 4533,
      "tiÅŁ": 4534,
      "ties": 4535,
      "Ġconstantly": 4536,
      "ences": 4537,
      "Ã¼st": 4538,
      "Ã¼ven": 4539,
      "ĠDes": 4540,
      "ĠTV": 4541,
      "Ġexample": 4542,
      "ĠGÃ¶": 4543,
      "Ġpracticing": 4544,
      "ĠyapÄ±p": 4545,
      "ĠplanÄ±nÄ±zÄ±": 4546,
      "123": 4547,
      "181": 4548,
      "ĠFotoÄŁraf": 4549,
      "Ġscrolling": 4550,
      "ĠdÃ¼zenleme": 4551,
      "Ġilerlemek": 4552,
      "Ġconnect": 4553,
      "ĠCheck": 4554,
      "Ġcalming": 4555,
      "valtÄ±": 4556,
      "ĠeÄŁlen": 4557,
      "oÄŁun": 4558,
      "ĠsÃ¶y": 4559,
      "Ġemail": 4560,
      "Ġkesin": 4561,
      "Ġcircadi": 4562,
      "Ġaiming": 4563,
      "ihaz": 4564,
      "Ġshift": 4565,
      "Ġcircadian": 4566,
      ")**": 4567,
      "01": 4568,
      "65": 4569,
      "zerv": 4570,
      "ontane": 4571,
      "Ġem": 4572,
      "Ġinstantly": 4573,
      "Ġrezerv": 4574,
      "Ġisn": 4575,
      "Ġdemek": 4576,
      "Ġkonum": 4577,
      "Ġquit": 4578,
      "ĠkaÃ§Ä±n": 4579,
      "Ġru": 4580,
      "ĠistiyorsanÄ±z": 4581,
      "Ġspontane": 4582,
      "Ġbeforehand": 4583,
      "Ġattem": 4584,
      "ĠÅŁunlarÄ±": 4585,
      "Ġalone": 4586,
      "Ġkalite": 4587,
      "135": 4588,
      "147": 4589,
      "185": 4590,
      "ĠgÃ¶revi": 4591,
      "Ġister": 4592,
      "Ġprote": 4593,
      "Ġhead": 4594,
      "Ġlarger": 4595,
      "Ġdisconnect": 4596,
      "Ġplacing": 4597,
      "ĠkolaylaÅŁtÄ±rÄ±r": 4598,
      "ĠJust": 4599,
      "ĠaydÄ±nlat": 4600,
      "Ġwebsi": 4601,
      "ĠdavranÄ±ÅŁ": 4602,
      "Ġmisunderstand": 4603,
      "Ġslot": 4604,
      "03": 4605,
      "aÃ§": 4606,
      "gu": 4607,
      "Ġ\\": 4608,
      "Ġsure": 4609,
      "ĠsÃ¶z": 4610,
      "Ġboring": 4611,
      "les": 4612,
      "Ġmight": 4613,
      "ĠÃ¶rnek": 4614,
      "ason": 4615,
      "Ġunder": 4616,
      "Ġyaparken": 4617,
      "Ġtired": 4618,
      "103": 4619,
      "ĠkaldÄ±r": 4620,
      "134": 4621,
      "234": 4622,
      "Ġspecial": 4623,
      "ĠyÃ¼rÃ¼yerek": 4624,
      "ĠbahÃ§ede": 4625,
      "ĠgÃ¶rsel": 4626,
      "menize": 4627,
      "Ġtemizlik": 4628,
      "Ġvisit": 4629,
      "Ġmessages": 4630,
      "ĠBaÅŁarÄ±": 4631,
      "ĠayarlayÄ±n": 4632,
      "Ġharder": 4633,
      "Ġtane": 4634,
      "ĠolduÄŁundan": 4635,
      "Ġvalue": 4636,
      "Ġbilet": 4637,
      "Ġaccommodations": 4638,
      "Ġpurpose": 4639,
      "Ġtools": 4640,
      "BugÃ¼n": 4641,
      "over": 4642,
      "sik": 4643,
      "vik": 4644,
      "ink": 4645,
      "Ġtat": 4646,
      "ĠbirleÅŁ": 4647,
      "ĠaydÄ±r": 4648,
      "liÄŁ": 4649,
      "abilirim": 4650,
      "lamayÄ±": 4651,
      "Ġuyuyun": 4652,
      "Ä°lk": 4653,
      "Ġyapmadan": 4654,
      "ĠPut": 4655,
      "Ġwhether": 4656,
      "Ġchar": 4657,
      "Ġsleeping": 4658,
      "285": 4659,
      "140": 4660,
      "Ġcomb": 4661,
      "Ġkendini": 4662,
      "ĠFor": 4663,
      "iÄŁini": 4664,
      "111": 4665,
      "ĠkullanÄ±mÄ±": 4666,
      "Ġedecek": 4667,
      "ĠiÅŁaret": 4668,
      "Ġaraz": 4669,
      "ĠSabahlarÄ±": 4670,
      "Ġdijital": 4671,
      "ĠuygulamasÄ±": 4672,
      "Ġyatak": 4673,
      "leÅŁtirmek": 4674,
      "Ġbekleme": 4675,
      "ĠÃĩalÄ±ÅŁ": 4676,
      "Ġstretch": 4677,
      "Ġallows": 4678,
      "Ġkoyun": 4679,
      "Ġincluding": 4680,
      "Ġscheduling": 4681,
      "Ġtransportation": 4682,
      "Ġpushes": 4683,
      "ĠkÃ¼tÃ¼phan": 4684,
      "Ġrezervasyon": 4685,
      "447": 4686,
      "lul": 4687,
      "Ġcatch": 4688,
      "Ġcihaz": 4689,
      "Ġtell": 4690,
      "ĠEr": 4691,
      "ĠTek": 4692,
      "Ġeks": 4693,
      "Ġana": 4694,
      "ĠGece": 4695,
      "ĠMaps": 4696,
      "Ġrushing": 4697,
      "ĠÃ¶ne": 4698,
      "202": 4699,
      "205": 4700,
      "184": 4701,
      "Ä±ÅŁtÄ±r": 4702,
      "ĠsÃ¼rede": 4703,
      "ĠhafÄ±z": 4704,
      "ĠÃ§Ä±kÄ±p": 4705,
      "Ġbilgileri": 4706,
      "Ġgives": 4707,
      "tirecek": 4708,
      "ĠsatÄ±n": 4709,
      "ĠdeÄŁiÅŁiklik": 4710,
      "Ġalternative": 4711,
      "348": 4712,
      "360": 4713,
      "615": 4714,
      "626": 4715,
      "bing": 4716,
      "uish": 4717,
      "inguish": 4718,
      "Ġton": 4719,
      "Ġtest": 4720,
      "Ġbunun": 4721,
      "Ġfill": 4722,
      "ÄŁim": 4723,
      "Ġinsan": 4724,
      "ĠsoÄŁ": 4725,
      "kim": 4726,
      "ĠayÄ±rd": 4727,
      "Ġforcing": 4728,
      "eyerek": 4729,
      "ague": 4730,
      "Ġspark": 4731,
      "ĠÃ¶ncel": 4732,
      "304": 4733,
      "182": 4734,
      "ĠseÃ§erek": 4735,
      "Ġfrust": 4736,
      "ĠÃ§alÄ±ÅŁmaya": 4737,
      "ĠbaÅŁlamadan": 4738,
      "ĠodaklanmayÄ±": 4739,
      "ĠarasÄ±": 4740,
      "ĠakÄ±ÅŁ": 4741,
      "ĠgeniÅŁ": 4742,
      "Ġrid": 4743,
      "Ġblok": 4744,
      "lemesine": 4745,
      "Ġdistinguish": 4746,
      "Ġilerlemeyi": 4747,
      "Ġflexibility": 4748,
      "ĠbakÄ±n": 4749,
      "Ġairline": 4750,
      "ĠgerÃ§ekten": 4751,
      "ĠÄ±ÅŁÄ±ÄŁÄ±na": 4752,
      "Ġkork": 4753,
      "Ġinteractions": 4754,
      "Ġbalanced": 4755,
      "ĠkÄ±sm": 4756,
      "ĠteÅŁvik": 4757,
      "02": 4758,
      "119": 4759,
      "311": 4760,
      "625": 4761,
      "bo": 4762,
      "must": 4763,
      "power": 4764,
      "task": 4765,
      "talÄ±k": 4766,
      "yes": 4767,
      "Ä±yorum": 4768,
      "ĠtaÅŁ": 4769,
      "aliz": 4770,
      "ulan": 4771,
      "ĠduÅŁ": 4772,
      "ilmiÅŁ": 4773,
      "Ġeden": 4774,
      "Ġayr": 4775,
      "ĠÃ¶rneÄŁin": 4776,
      "ĠuÃ§": 4777,
      "iness": 4778,
      "Ġyapt": 4779,
      "ĠÃ§ay": 4780,
      "iding": 4781,
      "Ġfeed": 4782,
      "ĠdaÄŁÄ±": 4783,
      "Ġart": 4784,
      "122": 4785,
      "Ġsonuna": 4786,
      "199": 4787,
      "Ġetki": 4788,
      "ĠkullanÄ±lan": 4789,
      "Ġdurumda": 4790,
      "Ġgener": 4791,
      "Ġgerekli": 4792,
      "Ġpreventing": 4793,
      "ĠbaÅŁlamaktÄ±r": 4794,
      "ĠyapÄ±lan": 4795,
      "Ġmasa": 4796,
      "Ġclose": 4797,
      "acaÄŁÄ±nÄ±zÄ±": 4798,
      "ĠihtiyacÄ±nÄ±z": 4799,
      "Ġintention": 4800,
      "ĠfÄ±rsa": 4801,
      "ĠtanÄ±ÅŁacak": 4802,
      "Ġeksik": 4803,
      "-c": 4804,
      "446": 4805,
      "548": 4806,
      "532": 4807,
      "gid": 4808,
      "ney": 4809,
      "Ġada": 4810,
      "Ä±yorsanÄ±z": 4811,
      "endi": 4812,
      "arlÄ±": 4813,
      "acts": 4814,
      "Ġmeal": 4815,
      "uggage": 4816,
      "ĠbaÅŁa": 4817,
      "ĠbaÅŁlÄ±": 4818,
      "ĠbaÅŁlatÄ±n": 4819,
      "Ġseem": 4820,
      "ĠalmayÄ±": 4821,
      "281": 4822,
      "Ġokuyun": 4823,
      "608": 4824,
      "ĠÅŁeyleri": 4825,
      "Ġaccum": 4826,
      "ĠÃ¶nemlidir": 4827,
      "Ġwatching": 4828,
      "ĠyapÄ±yor": 4829,
      "Ġvisible": 4830,
      "Ġgider": 4831,
      "Ġseviyenizi": 4832,
      "ĠkapatÄ±p": 4833,
      "Ġturn": 4834,
      "ĠÄ±lÄ±k": 4835,
      "ĠResim": 4836,
      "ĠgÃ¶nderin": 4837,
      "Ġmutlak": 4838,
      "ively": 4839,
      "Ġencourage": 4840,
      "ĠClear": 4841,
      "'le": 4842,
      "-ins": 4843,
      "322": 4844,
      "547": 4845,
      "629": 4846,
      "fer": 4847,
      "uel": 4848,
      "Ã¢": 4849,
      "ĠyoÄŁun": 4850,
      "Ġgest": 4851,
      "Ġbeyn": 4852,
      "ĠanÄ±nda": 4853,
      "imit": 4854,
      "ĠbaÅŁar": 4855,
      "ĠgÃ¼nkÃ¼": 4856,
      "ĠMart": 4857,
      "lÄ±ÅŁ": 4858,
      "ĠdeÄŁildir": 4859,
      "ĠyazÄ±n": 4860,
      "Ġvague": 4861,
      "Ġanlamak": 4862,
      "Ġluggage": 4863,
      "204": 4864,
      "305": 4865,
      "Ġevent": 4866,
      "ĠkalÄ±n": 4867,
      "vite": 4868,
      "235": 4869,
      "247": 4870,
      "indeki": 4871,
      "404": 4872,
      "Ġkullanmaya": 4873,
      "ĠpiÅŁiriyor": 4874,
      "Ġprof": 4875,
      "ĠyÃ¶net": 4876,
      "Ġcommitting": 4877,
      "Ġlonger": 4878,
      "Ġcurtain": 4879,
      "Ġmisiniz": 4880,
      "Ġgrab": 4881,
      "ĠbaÄŁlÄ±": 4882,
      "Ġmultitask": 4883,
      "ĠyavaÅŁÃ§a": 4884,
      "Ġexchange": 4885,
      "Ġinteraction": 4886,
      "Ġharekete": 4887,
      "Ġperiods": 4888,
      "Ġteaching": 4889,
      "Ġattractions": 4890,
      "Ġblackout": 4891,
      "ble": 4892,
      "mini": 4893,
      "nack": 4894,
      "ola": 4895,
      "rend": 4896,
      "Ġpi": 4897,
      "Ġty": 4898,
      "ĠtÃ¼k": 4899,
      "Ġcontrol": 4900,
      "ullan": 4901,
      "ultane": 4902,
      "Ã¼p": 4903,
      "Ġdim": 4904,
      "Ġfaster": 4905,
      "Ġsolu": 4906,
      "ĠbaÅŁÄ±nda": 4907,
      "ĠHÄ±zlÄ±": 4908,
      "ĠMerhaba": 4909,
      "284": 4910,
      "131": 4911,
      "233": 4912,
      "iber": 4913,
      "ificant": 4914,
      "Ġcevab": 4915,
      "Ġsuya": 4916,
      "Ġkayb": 4917,
      "ĠiletiÅŁimi": 4918,
      "Ġrigid": 4919,
      "Ġileride": 4920,
      "ĠtÃ¼rÃ¼": 4921,
      "Ġsign": 4922,
      "ĠsorunlarÄ±": 4923,
      "Ġsignals": 4924,
      "ĠazaltÄ±r": 4925,
      "Ġrelations": 4926,
      "Ġshowing": 4927,
      "Ġbitki": 4928,
      "Ġexpressing": 4929,
      "Ġbilim": 4930,
      "Ġkelimeleri": 4931,
      "Ġpriorities": 4932,
      "ĠaltÄ±nda": 4933,
      "Ġtarz": 4934,
      "head": 4935,
      "Ġsebz": 4936,
      "Ġmeditation": 4937,
      "ĠyapÄ±lacak": 4938,
      "ĠmantÄ±klÄ±": 4939,
      "ultaneously": 4940,
      "211": 4941,
      "440": 4942,
      "448": 4943,
      "439": 4944,
      "617": 4945,
      "616": 4946,
      "627": 4947,
      "637": 4948,
      "fen": 4949,
      "gen": 4950,
      "iyorum": 4951,
      "tri": 4952,
      "Ġ'": 4953,
      "Ġahead": 4954,
      "Ġcity": 4955,
      "Ġsnack": 4956,
      "Ġtough": 4957,
      "text": 4958,
      "Ġfun": 4959,
      "Ġfuel": 4960,
      "Ġstate": 4961,
      "liÄŁini": 4962,
      "ics": 4963,
      "efore": 4964,
      "ĠLimit": 4965,
      "Ġsimultaneously": 4966,
      "Ġvad": 4967,
      "177": 4968,
      "ardan": 4969,
      "Ġbelirlemeniz": 4970,
      "Ġlistel": 4971,
      "Ġhedefinizi": 4972,
      "Ġexpens": 4973,
      "Ġilerleme": 4974,
      "ĠalanlarÄ±": 4975,
      "Ġdimming": 4976,
      "Ġyeten": 4977,
      "Ġlistener": 4978,
      "ignate": 4979,
      "ĠseÃ§ene": 4980,
      "landÄ±ÄŁÄ±nÄ±z": 4981,
      "ĠÃ§izim": 4982,
      "Ġinitial": 4983,
      "Ġschedules": 4984,
      "Ġswitch": 4985,
      "Ġswitching": 4986,
      "Ġhikaye": 4987,
      "ĠÃ§evir": 4988,
      "Ġassuming": 4989,
      "Ġrelationship": 4990,
      "522": 4991,
      "540": 4992,
      "539": 4993,
      "614": 4994,
      "624": 4995,
      "KÃ¼Ã§Ã¼k": 4996,
      "may": 4997,
      "meli": 4998,
      "uyarak": 4999,
      "Ġnod": 5000,
      "Ġyum": 5001,
      "Ġyiy": 5002,
      "Ġidentif": 5003,
      "Ã§Ä±": 5004,
      "ĠYaz": 5005,
      "Ġemer": 5006,
      "unlu": 5007,
      "Ã¶n": 5008,
      "Ġzek": 5009,
      "Ġshel": 5010,
      "Ġnumber": 5011,
      "Ġmetin": 5012,
      "alÄ±sÄ±nÄ±z": 5013,
      "Ġolup": 5014,
      "Ġyapay": 5015,
      "Ġresist": 5016,
      "Ġcover": 5017,
      "Ġmeeting": 5018,
      "Ġdold": 5019,
      "Ġplanla": 5020,
      "282": 5021,
      "148": 5022,
      "Ġexc": 5023,
      "ĠseÃ§im": 5024,
      "Ġupda": 5025,
      "484": 5026,
      "502": 5027,
      "Ġhedefi": 5028,
      "Ġuykuya": 5029,
      "Ġaray": 5030,
      "-post": 5031,
      "Ġactionable": 5032,
      "ĠhazÄ±rlayÄ±n": 5033,
      "apping": 5034,
      "Ġizleyin": 5035,
      "Ã¼tfen": 5036,
      "Ġdefining": 5037,
      "Ġstops": 5038,
      "yonel": 5039,
      "ĠgiriÅŁ": 5040,
      "Ġengel": 5041,
      "ĠÃ§ekiyor": 5042,
      "ĠhatÄ±rlat": 5043,
      "ĠyorgunluÄŁ": 5044,
      "ĠyÃ¼rÃ¼me": 5045,
      "member": 5046,
      "ĠeÅŁyalar": 5047,
      "Ġfayd": 5048,
      "Start": 5049,
      "Ġfeedback": 5050,
      "Ġmutlaka": 5051,
      "Ġidentifying": 5052,
      "-reading": 5053,
      "tÃ¼r": 5054,
      "isel": 5055,
      "ensi": 5056,
      "Ġdrain": 5057,
      "vet": 5058,
      "Ġmy": 5059,
      "ĠBiraz": 5060,
      "Ġayak": 5061,
      "Ġstabil": 5062,
      "ĠAÄŁ": 5063,
      "asit": 5064,
      "ĠbaÅŁk": 5065,
      "lamaya": 5066,
      "ĠÄ°ki": 5067,
      "ĠyapÄ±l": 5068,
      "ĠÃ§i": 5069,
      "Ġacross": 5070,
      "Ġrates": 5071,
      "301": 5072,
      "283": 5073,
      "Ġroutines": 5074,
      "Ġsonucu": 5075,
      "Ġdili": 5076,
      "Ġdilin": 5077,
      "Ġtutarak": 5078,
      "uÄŁu": 5079,
      "485": 5080,
      "606": 5081,
      "Ġdeneyebilirsiniz": 5082,
      "ĠkonuÅŁmayÄ±": 5083,
      "Ġtelefonunuzu": 5084,
      "Ġrepeat": 5085,
      "Ġpartner": 5086,
      "Ġcloset": 5087,
      "ĠeÄŁiti": 5088,
      "Ġskills": 5089,
      "Ġtesting": 5090,
      "Ġstratej": 5091,
      "ĠyazÄ±lÄ±m": 5092,
      "ĠSpend": 5093,
      "Ġsecure": 5094,
      "Ġlittle": 5095,
      "Ġcramming": 5096,
      "Ġintensity": 5097,
      "Ġcurtains": 5098,
      "Ġsignificant": 5099,
      "460": 5100,
      "559": 5101,
      "630": 5102,
      "ially": 5103,
      "pts": 5104,
      "ty": 5105,
      "urarak": 5106,
      "Ġself": 5107,
      "Ġta": 5108,
      "Ġpre": 5109,
      "Ġbaz": 5110,
      "Ġfiz": 5111,
      "esyonel": 5112,
      "ature": 5113,
      "ĠolmanÄ±z": 5114,
      "Ġkonfor": 5115,
      "ĠOk": 5116,
      "Ġspor": 5117,
      "302": 5118,
      "Ġevents": 5119,
      "ĠÃ¶ÄŁre": 5120,
      "Ġyeri": 5121,
      "ĠÃ§ekin": 5122,
      "504": 5123,
      "ĠkullanmaktÄ±r": 5124,
      "Ġworks": 5125,
      "Ġsub": 5126,
      "Ġkayda": 5127,
      "ĠolduÄŁunuz": 5128,
      "ĠgeÃ§mek": 5129,
      "kincisi": 5130,
      "Ġappro": 5131,
      "pecially": 5132,
      "ĠseÃ§mektir": 5133,
      "Ġinterruptions": 5134,
      "Ġespecially": 5135,
      "ĠazaltÄ±n": 5136,
      "-second": 5137,
      "ĠdÃ¶nÃ¼ÅŁ": 5138,
      "Ġduygular": 5139,
      "Ġspending": 5140,
      "Ġkaydedin": 5141,
      "ĠkaÄŁÄ±t": 5142,
      "Ġmisunderstandings": 5143,
      "Ġprofesyonel": 5144,
      "Ġtyp": 5145,
      "-se": 5146,
      "419": 5147,
      "557": 5148,
      "620": 5149,
      "613": 5150,
      "Bir": 5151,
      "pting": 5152,
      "Ãĩ": 5153,
      "ĠaÅŁam": 5154,
      "Ġsli": 5155,
      "Ġsound": 5156,
      "Ġtone": 5157,
      "rated": 5158,
      "Ġhang": 5159,
      "usted": 5160,
      "Ġdata": 5161,
      "Ġfit": 5162,
      "Ġmar": 5163,
      "unting": 5164,
      "Ġremember": 5165,
      "Ġvererek": 5166,
      "Ġyapar": 5167,
      "leriniz": 5168,
      "303": 5169,
      "Ġgoes": 5170,
      "Ġdaunting": 5171,
      "139": 5172,
      "232": 5173,
      "ĠyÃ¼rÃ¼m": 5174,
      "Ġetme": 5175,
      "334": 5176,
      "335": 5177,
      "ĠkullanÄ±m": 5178,
      "605": 5179,
      "ĠBirkaÃ§": 5180,
      "Ġelect": 5181,
      "Ġproj": 5182,
      "bileceÄŁiniz": 5183,
      "phones": 5184,
      "ĠgÃ¼nÃ¼nÃ¼": 5185,
      "Ġaccus": 5186,
      "ĠkarÅŁÄ±lÄ±k": 5187,
      "Ġdeciding": 5188,
      "ĠhÄ±zlÄ±ca": 5189,
      "Ġdrink": 5190,
      "ĠyÃ¼ksek": 5191,
      "Ġincele": 5192,
      "Ġortamda": 5193,
      "Ġlimits": 5194,
      "Ġcalls": 5195,
      "Ġemails": 5196,
      "Ġmakinesi": 5197,
      "ĠsaÄŁlÄ±klÄ±": 5198,
      "Ġsentences": 5199,
      "Ġslowly": 5200,
      "ĠBelirli": 5201,
      "Ġcorner": 5202,
      "Ġbarrier": 5203,
      "Ġdeparture": 5204,
      "ĠUzun": 5205,
      "438": 5206,
      "Mer": 5207,
      "eet": 5208,
      "gul": 5209,
      "sim": 5210,
      "work": 5211,
      "Ġtreat": 5212,
      "Ġbunlar": 5213,
      "Ġhon": 5214,
      "lediÄŁiniz": 5215,
      "Ġil": 5216,
      "Ġfil": 5217,
      "Ġins": 5218,
      "ĠuÄŁ": 5219,
      "ĠMayÄ±": 5220,
      "ĠPM": 5221,
      "ĠbuluÅŁma": 5222,
      "Ġvo": 5223,
      "Ġplanner": 5224,
      "201": 5225,
      "Ġtraveling": 5226,
      "ĠeÅŁyadÄ±r": 5227,
      "197": 5228,
      "ĠseÃ§imi": 5229,
      "iÄŁiniz": 5230,
      "585": 5231,
      "ĠBirlikte": 5232,
      "ĠsÃ¼rekli": 5233,
      "veness": 5234,
      "ĠgeÃ§iÅŁ": 5235,
      "Ġitineraries": 5236,
      "Ġdefensi": 5237,
      "Ġetmektir": 5238,
      "Ġcuri": 5239,
      "Ġvalu": 5240,
      "Ġinceleyin": 5241,
      "Ġhobbies": 5242,
      "ĠHaftanÄ±n": 5243,
      "ĠBaÅŁlangÄ±Ã§ta": 5244,
      "ĠayÄ±rarak": 5245,
      "Ġziyade": 5246,
      "Ġaccessible": 5247,
      "Ġdinlenme": 5248,
      "Ġexplaining": 5249,
      "ĠHayat": 5250,
      "Ġprotect": 5251,
      "Ġshelves": 5252,
      "Ġelectron": 5253,
      "519": 5254,
      "546": 5255,
      "lus": 5256,
      "infor": 5257,
      "Ġsite": 5258,
      "Ġstim": 5259,
      "Ġbis": 5260,
      "Ġconstant": 5261,
      "Ġken": 5262,
      "Ġnaz": 5263,
      "leÅŁim": 5264,
      "Ġib": 5265,
      "Ġdah": 5266,
      "irken": 5267,
      "riority": 5268,
      "Ġrece": 5269,
      "Ġreinfor": 5270,
      "ĠayÄ±rdÄ±ÄŁÄ±": 5271,
      "ĠMay": 5272,
      "icul": 5273,
      "idden": 5274,
      "Ġsafe": 5275,
      "Ġolaca": 5276,
      "231": 5277,
      "ĠKÄ±sa": 5278,
      "ĠyÃ¼ze": 5279,
      "Ġbookings": 5280,
      "Ġcompleted": 5281,
      "604": 5282,
      "Ġoutcome": 5283,
      "ĠbaÅŁlangÄ±Ã§ta": 5284,
      "ĠaraÅŁ": 5285,
      "ĠkonuÅŁmaya": 5286,
      "ĠdÃ¼zeninizi": 5287,
      "Ġlearned": 5288,
      "ĠuygulamasÄ±nÄ±": 5289,
      "Ġphysically": 5290,
      "ĠtemizliÄŁi": 5291,
      "Ġbakarak": 5292,
      "dÄ±ÄŁÄ±nÄ±zda": 5293,
      "Ġdrives": 5294,
      "Ġconcepts": 5295,
      "ĠyanlÄ±ÅŁ": 5296,
      "ĠpaylaÅŁÄ±n": 5297,
      "Ġdrawers": 5298,
      "ĠzorluklarÄ±": 5299,
      "Ġplaces": 5300,
      "Ġkelimeyi": 5301,
      "Ġtelefonunuzun": 5302,
      "-task": 5303,
      "acaÄŁÄ±m": 5304,
      "Ġlabeled": 5305,
      "Ġsentence": 5306,
      "Ġseparate": 5307,
      "Ġpicking": 5308,
      "Ġavailability": 5309,
      "Ġridicul": 5310,
      "Ġstabilize": 5311,
      "Ġdefensiveness": 5312,
      "538": 5313,
      "558": 5314,
      "610": 5315,
      "Ben": 5316,
      "GÃ¼n": 5317,
      "Set": 5318,
      "iyle": 5319,
      "nece": 5320,
      "ĠtanÄ±": 5321,
      "Ġban": 5322,
      "Ġcontext": 5323,
      "alt": 5324,
      "ravel": 5325,
      "Ġharika": 5326,
      "ĠDil": 5327,
      "ĠTeach": 5328,
      "Ġwon": 5329,
      "Ġanaliz": 5330,
      "ĠadÄ±mÄ±n": 5331,
      "ĠbaÅŁlÄ±k": 5332,
      "ĠbaÅŁtan": 5333,
      "Ġvermek": 5334,
      "Ġzorlu": 5335,
      "ĠÃ§im": 5336,
      "Ġrun": 5337,
      "ĠÃ¶nÃ¼nde": 5338,
      "Ġlay": 5339,
      "157": 5340,
      "248": 5341,
      "160": 5342,
      "ĠyÃ¼zmeye": 5343,
      "Ġphra": 5344,
      "405": 5345,
      "Ġunnece": 5346,
      "laÅŁma": 5347,
      "manÄ±za": 5348,
      "Ġafterward": 5349,
      "Ä±ldÄ±": 5350,
      "ĠGÃ¼neÅŁ": 5351,
      "-priority": 5352,
      "ĠtamamlayÄ±n": 5353,
      "Ġlocation": 5354,
      "Ġparties": 5355,
      "ĠolmadÄ±ÄŁÄ±nÄ±": 5356,
      "Ġziyaret": 5357,
      "Ġgestures": 5358,
      "Ġpiece": 5359,
      "Ġzeka": 5360,
      "Ġapproach": 5361,
      "ĠMayÄ±s": 5362,
      "Ġunnecess": 5363,
      "'nda": 5364,
      "'unda": 5365,
      "318": 5366,
      "628": 5367,
      "633": 5368,
      "Toplam": 5369,
      "ative": 5370,
      "cast": 5371,
      "hoto": 5372,
      "ora": 5373,
      "Ġpati": 5374,
      "Ã¼le": 5375,
      "veriÅŁ": 5376,
      "Ġyes": 5377,
      "Ġflow": 5378,
      "imd": 5379,
      "Ġvers": 5380,
      "ĠÃ¶nerisi": 5381,
      "acaktÄ±r": 5382,
      "Ġcore": 5383,
      "Ġjum": 5384,
      "ĠOnce": 5385,
      "Ġwillpower": 5386,
      "Ġloud": 5387,
      "150": 5388,
      "oci": 5389,
      "Ġworry": 5390,
      "Ġdille": 5391,
      "333": 5392,
      "221": 5393,
      "481": 5394,
      "505": 5395,
      "Ġhedefleyin": 5396,
      "384": 5397,
      "385": 5398,
      "347": 5399,
      "anÄ±p": 5400,
      "cture": 5401,
      "Ġprov": 5402,
      "ĠdÃ¼ÅŁÃ¼nd": 5403,
      "phra": 5404,
      "Ġbekl": 5405,
      "diÄŁi": 5406,
      "ĠFriends": 5407,
      "Ġduration": 5408,
      "Ġhayal": 5409,
      "ĠolmalÄ±dÄ±r": 5410,
      "dÄ±ÄŁÄ±nda": 5411,
      "Ġeffective": 5412,
      "Ġlimit": 5413,
      "Ġrenk": 5414,
      "ĠHabits": 5415,
      "Ġarrive": 5416,
      "ĠDesignate": 5417,
      "Ġdoldur": 5418,
      "-posta": 5419,
      "ĠÃ§iÃ§ek": 5420,
      "Ġunnecessary": 5421,
      "358": 5422,
      "450": 5423,
      "Use": 5424,
      "com": 5425,
      "erken": 5426,
      "Ġcab": 5427,
      "Ġtw": 5428,
      "arp": 5429,
      "Ġdok": 5430,
      "ysanÄ±z": 5431,
      "esinde": 5432,
      "Ġrema": 5433,
      "ĠayÄ±rdÄ±ÄŁÄ±nÄ±": 5434,
      "Ġzones": 5435,
      "ĠgÃ¼ne": 5436,
      "ĠÄ°Ã§": 5437,
      "Ġvi": 5438,
      "ackle": 5439,
      "Ä±nÄ±zla": 5440,
      "aper": 5441,
      "Ġseti": 5442,
      "Ġseven": 5443,
      "158": 5444,
      "Ġhaven": 5445,
      "Ġark": 5446,
      "240": 5447,
      "Ġcancel": 5448,
      "168": 5449,
      "leyici": 5450,
      "Ġbahset": 5451,
      "331": 5452,
      "332": 5453,
      "222": 5454,
      "402": 5455,
      "Ġcompletion": 5456,
      "482": 5457,
      "501": 5458,
      "ĠÃ§alÄ±ÅŁmayÄ±": 5459,
      "Ġelinizdeki": 5460,
      "tadÄ±r": 5461,
      "Ġunderstands": 5462,
      "most": 5463,
      "ĠChange": 5464,
      "ĠazalÄ±r": 5465,
      "ĠgÃ¶revlerinizi": 5466,
      "Ġspots": 5467,
      "ĠgerÃ§ekÃ§i": 5468,
      "ĠdetaylarÄ±": 5469,
      "ĠulaÅŁÄ±labilir": 5470,
      "Ġassoci": 5471,
      "Ġoblig": 5472,
      "sues": 5473,
      "Ġduygusal": 5474,
      "Ġaccomplishment": 5475,
      "Ġgitmek": 5476,
      "Ġroutes": 5477,
      "tÄ±racak": 5478,
      "Ġsince": 5479,
      "Ġisterseniz": 5480,
      "Ġreacting": 5481,
      "Ġhyd": 5482,
      "Ġmultitasking": 5483,
      "Ġfizik": 5484,
      "ĠuÄŁra": 5485,
      "Ġvoice": 5486,
      "Ġnazik": 5487,
      "319": 5488,
      "350": 5489,
      "518": 5490,
      "550": 5491,
      "545": 5492,
      "636": 5493,
      "know": 5494,
      "rop": 5495,
      "ĠÃ¼re": 5496,
      "Ġaler": 5497,
      "Ġslight": 5498,
      "Ġkan": 5499,
      "sad": 5500,
      "uma": 5501,
      "acÄ±": 5502,
      "ĠBunun": 5503,
      "Ġbirbir": 5504,
      "atory": 5505,
      "Ġissues": 5506,
      "Ġbulup": 5507,
      "Ġlez": 5508,
      "Ġfees": 5509,
      "Ġoverall": 5510,
      "Ġyerinizi": 5511,
      "267": 5512,
      "Ġupon": 5513,
      "483": 5514,
      "503": 5515,
      "Ġinteres": 5516,
      "601": 5517,
      "andÄ±r": 5518,
      "382": 5519,
      "584": 5520,
      "ĠodaklÄ±": 5521,
      "ĠdoÄŁrusu": 5522,
      "Ġjourney": 5523,
      "ĠÃ¶zg": 5524,
      "Ġspaced": 5525,
      "iyat": 5526,
      "ĠkiÅŁisel": 5527,
      "Ġboundary": 5528,
      "Ġkonuya": 5529,
      "'nin": 5530,
      "ĠgÃ¶sterin": 5531,
      "Ġcount": 5532,
      "ĠyaÅŁayan": 5533,
      "ĠyaptÄ±ÄŁÄ±nÄ±z": 5534,
      "Ġsitu": 5535,
      "Ġdeadline": 5536,
      "gÃ¼nlÃ¼k": 5537,
      "Ġminimize": 5538,
      "ĠalÄ±ÅŁveriÅŁ": 5539,
      "Ġhuzurlu": 5540,
      "Ġtemper": 5541,
      "Ġchores": 5542,
      "Ġinvolves": 5543,
      "Ġattempting": 5544,
      "Ġnodding": 5545,
      "Ġhonest": 5546,
      "Ġridiculously": 5547,
      "Ġversus": 5548,
      "Ġcabin": 5549,
      "-ste": 5550,
      "218": 5551,
      "219": 5552,
      "556": 5553,
      "cas": 5554,
      "kward": 5555,
      "Ġpair": 5556,
      "racak": 5557,
      "Ġkil": 5558,
      "usunu": 5559,
      "met": 5560,
      "ayla": 5561,
      "lation": 5562,
      "Ġstoring": 5563,
      "Ġsoon": 5564,
      "kiyor": 5565,
      "Ġkons": 5566,
      "Ġorder": 5567,
      "Ġmeetings": 5568,
      "Ġlog": 5569,
      "ĠyetiÅŁ": 5570,
      "Ġtrash": 5571,
      "bilirsin": 5572,
      "Ġokay": 5573,
      "Ġstepping": 5574,
      "401": 5575,
      "403": 5576,
      "370": 5577,
      "Ġgez": 5578,
      "Ġdeeper": 5579,
      "ĠkolayÄ±": 5580,
      "ĠgeÃ§in": 5581,
      "Ġopini": 5582,
      "Ġawkward": 5583,
      "ucing": 5584,
      "Ġolabilirim": 5585,
      "ĠkahvaltÄ±": 5586,
      "Ġderinlemesine": 5587,
      "ĠulaÅŁÄ±m": 5588,
      "ĠÄ±sÄ±": 5589,
      "Ġclarify": 5590,
      "lÄ±ÄŁÄ±na": 5591,
      "ĠkatÄ±l": 5592,
      "ĠHafta": 5593,
      "ĠÃ¶ncelikli": 5594,
      "Ġcategory": 5595,
      "Ã¼ÄŁÃ¼nÃ¼z": 5596,
      "ĠgerektiÄŁini": 5597,
      "Ġsearch": 5598,
      "Â°F": 5599,
      "Ġcontinue": 5600,
      "Ġpiles": 5601,
      "Ġexpectations": 5602,
      "Ġentry": 5603,
      "Ġyolculuk": 5604,
      "Ġruh": 5605,
      "Ġbisik": 5606,
      "Ġibaret": 5607,
      "Ġdahil": 5608,
      "sadece": 5609,
      "Ġcabinet": 5610,
      "422": 5611,
      "458": 5612,
      "432": 5613,
      "67": 5614,
      "Pair": 5615,
      "tÃ¼": 5616,
      "uss": 5617,
      "titu": 5618,
      "ĠsÄ±r": 5619,
      "Ġtab": 5620,
      "Ġprep": 5621,
      "ĠTackle": 5622,
      "ĠYeni": 5623,
      "Ġmas": 5624,
      "Ġmapping": 5625,
      "Ġgreat": 5626,
      "umlu": 5627,
      "ÄŁe": 5628,
      "ĠBefore": 5629,
      "ĠayÄ±nda": 5630,
      "Ġsoft": 5631,
      "Ġreally": 5632,
      "Ġbeats": 5633,
      "asÄ±n": 5634,
      "ĠadÄ±mdÄ±r": 5635,
      "Ġstru": 5636,
      "ĠMev": 5637,
      "Ġwhy": 5638,
      "ĠnumaranÄ±z": 5639,
      "ides": 5640,
      "loj": 5641,
      "Ġyazar": 5642,
      "uture": 5643,
      "ĠÃ¶ÄŁrend": 5644,
      "Ġtrusted": 5645,
      "Ġkalit": 5646,
      "179": 5647,
      "279": 5648,
      "ĠyÃ¼rÃ¼yÃ¼n": 5649,
      "383": 5650,
      "Ġtempt": 5651,
      "Ġsaatleri": 5652,
      "470": 5653,
      "rack": 5654,
      "Ġawake": 5655,
      "Ġuygulamaya": 5656,
      "Ġbekle": 5657,
      "ĠbÄ±rakÄ±p": 5658,
      "Ġmuh": 5659,
      "Ġhissetmeye": 5660,
      "ĠKendinize": 5661,
      "ebilirim": 5662,
      "Ġalacak": 5663,
      "Ġtelefonunuzda": 5664,
      "Ġobject": 5665,
      "ĠkolaylaÅŁtÄ±rmak": 5666,
      "ĠÃ¶nceliklendir": 5667,
      "ĠsÃ¼reÃ§te": 5668,
      "Ġgerekiyor": 5669,
      "ĠExp": 5670,
      "Ġspontaneous": 5671,
      "Ġslightly": 5672,
      "Ġtemperature": 5673,
      "418": 5674,
      "411": 5675,
      "560": 5676,
      "531": 5677,
      "emm": 5678,
      "fak": 5679,
      "gest": 5680,
      "masÄ±na": 5681,
      "onu": 5682,
      "Ġcent": 5683,
      "Ġpil": 5684,
      "resh": 5685,
      "radan": 5686,
      "orm": 5687,
      "Ġyay": 5688,
      "lasik": 5689,
      "Ġoc": 5690,
      "Ġeyle": 5691,
      "ĠBah": 5692,
      "Ã¶yle": 5693,
      "ĠkÄ±ya": 5694,
      "enty": 5695,
      "Ġnecess": 5696,
      "lerken": 5697,
      "**,": 5698,
      "Ġyazmak": 5699,
      "Ġacknow": 5700,
      "Ġplanlamak": 5701,
      "check": 5702,
      "159": 5703,
      "339": 5704,
      "603": 5705,
      "ĠdoÄŁa": 5706,
      "581": 5707,
      "582": 5708,
      "583": 5709,
      "357": 5710,
      "ĠbahÃ§eye": 5711,
      "Ġexpand": 5712,
      "477": 5713,
      "ĠolduÄŁunuzu": 5714,
      "Ġlowers": 5715,
      "468": 5716,
      "Ġdonate": 5717,
      "lenen": 5718,
      "ĠoluÅŁtu": 5719,
      "Ġsorunun": 5720,
      "ĠnetleÅŁtirin": 5721,
      "Ġnoktal": 5722,
      "Ġhappy": 5723,
      "Ġdiscuss": 5724,
      "Ġproductivity": 5725,
      "Ġwrong": 5726,
      "Ä±lacak": 5727,
      "Ġcategories": 5728,
      "ĠkeÅŁf": 5729,
      "ĠÃ¶ÄŁleden": 5730,
      "ĠSÃ¼rekli": 5731,
      "Ġleads": 5732,
      "Ġindirin": 5733,
      "Ġhareketi": 5734,
      "Ġbitkiler": 5735,
      "olute": 5736,
      "Ġparaphra": 5737,
      "Ġabsolute": 5738,
      "Ġbecer": 5739,
      "ĠÃĩalÄ±ÅŁma": 5740,
      "ĠaraÅŁtÄ±r": 5741,
      "79": 5742,
      "mut": 5743,
      "micro": 5744,
      "ser": 5745,
      "erti": 5746,
      "Ġpast": 5747,
      "Ġpower": 5748,
      "rev": 5749,
      "Ġhidden": 5750,
      "ĠTravel": 5751,
      "Ġfuture": 5752,
      "Ġstra": 5753,
      "Ġreh": 5754,
      "Ġbey": 5755,
      "ĠayÄ±rt": 5756,
      "ĠadÄ±mÄ±nÄ±": 5757,
      "larÄ±nÄ±n": 5758,
      "ecause": 5759,
      "ĠÄ°kincisi": 5760,
      "ayÄ±t": 5761,
      "Ġdeals": 5762,
      "Ġkonular": 5763,
      "ĠÃ¶nerim": 5764,
      "Ġresearch": 5765,
      "ĠyazÄ±": 5766,
      "ĠHare": 5767,
      "Ġatarak": 5768,
      "Ã¼ÅŁÃ¼n": 5769,
      "257": 5770,
      "evap": 5771,
      "169": 5772,
      "Ġbelirlem": 5773,
      "ĠbaÅŁlayabilir": 5774,
      "leyecek": 5775,
      "Ġettir": 5776,
      "Ġweekend": 5777,
      "602": 5778,
      "369": 5779,
      "ĠkaydÄ±n": 5780,
      "tÄ±ÄŁÄ±nÄ±zda": 5781,
      "lantÄ±": 5782,
      "ĠaracÄ±": 5783,
      "Ġgerektir": 5784,
      "Ġgerekecek": 5785,
      "elerden": 5786,
      "Ġdeneyerek": 5787,
      "Ġgelir": 5788,
      "aÄŁa": 5789,
      "ĠÃ¶zen": 5790,
      "902": 5791,
      "909": 5792,
      "Ġdinner": 5793,
      "709": 5794,
      "684": 5795,
      "687": 5796,
      "Ġbelirlemektir": 5797,
      "âĢĶlike": 5798,
      "Ġoturup": 5799,
      "lÃ¼ÄŁ": 5800,
      "Ġswims": 5801,
      "Ġtarif": 5802,
      "dÄ±ÄŁÄ±nÄ±zÄ±": 5803,
      "Ġamount": 5804,
      "Ġdefteri": 5805,
      "Ġengaging": 5806,
      "Ġsearching": 5807,
      "Ġappointments": 5808,
      "ĠkalÄ±cÄ±": 5809,
      "ĠaydÄ±rdÄ±": 5810,
      "Ġexpenses": 5811,
      "ĠfaydalÄ±": 5812,
      "52": 5813,
      "Can": 5814,
      "Sadece": 5815,
      "ben": 5816,
      "cu": 5817,
      "mayan": 5818,
      "ral": 5819,
      "ses": 5820,
      "yan": 5821,
      "nden": 5822,
      "inking": 5823,
      "Ġbri": 5824,
      "ĠEat": 5825,
      "vest": 5826,
      "Ġeat": 5827,
      "ĠBecause": 5828,
      "Ġinerti": 5829,
      "Ġstating": 5830,
      "Ġrele": 5831,
      "ined": 5832,
      "ĠÃ¶nerileri": 5833,
      "lerinize": 5834,
      "ider": 5835,
      "Ã¼zen": 5836,
      "dev": 5837,
      "250": 5838,
      "259": 5839,
      "269": 5840,
      "larÄ±ndan": 5841,
      "Ġsormak": 5842,
      "celi": 5843,
      "Ġetmeniz": 5844,
      "Ġkitaplar": 5845,
      "359": 5846,
      "ĠsÃ¼resini": 5847,
      "ĠalÄ±ÅŁkanlÄ±ÄŁ": 5848,
      "tÄ±ÄŁÄ±nÄ±z": 5849,
      "ĠbaÅŁlamalÄ±sÄ±nÄ±z": 5850,
      "804": 5851,
      "ĠolduÄŁuna": 5852,
      "397": 5853,
      "Ġmotivasyonu": 5854,
      "ĠkonuÅŁmalar": 5855,
      "ĠGÃ¼ne": 5856,
      "Ġfinal": 5857,
      "Ġcommitment": 5858,
      "Ġdinlendir": 5859,
      "ĠyÃ¶ntemdir": 5860,
      "Ġtemizleyin": 5861,
      "mÄ±ÅŁtÄ±r": 5862,
      "Ġmessy": 5863,
      "984": 5864,
      "abilecek": 5865,
      "meyen": 5866,
      "Ġsaniy": 5867,
      "ĠulaÅŁmak": 5868,
      "ĠÅŀimdi": 5869,
      "Ġhiking": 5870,
      "Ġegzersizi": 5871,
      "Ġcategorize": 5872,
      "ĠaÄŁaÃ§": 5873,
      "Ġconcer": 5874,
      "Ġmonths": 5875,
      "Ġappointment": 5876,
      "Ġincrease": 5877,
      "Ġnedeni": 5878,
      "Ġslots": 5879,
      "Ġsolutions": 5880,
      "ĠyumuÅŁ": 5881,
      "Ġsignificantly": 5882,
      "-see": 5883,
      "Ġfiziksel": 5884,
      "Ġstructure": 5885,
      "Ġinertia": 5886,
      "623": 5887,
      "Create": 5888,
      "dil": 5889,
      "dik": 5890,
      "eti": 5891,
      "ete": 5892,
      "gÄ±n": 5893,
      "oloj": 5894,
      "top": 5895,
      "you": 5896,
      "ndle": 5897,
      "ounda": 5898,
      "alara": 5899,
      "Ġkod": 5900,
      "Ġhit": 5901,
      "Ġyola": 5902,
      "ĠYap": 5903,
      "Ġfounda": 5904,
      "esine": 5905,
      "Ġgently": 5906,
      "ĠgÃ¼zel": 5907,
      "Ġretention": 5908,
      "ĠbeÅŁ": 5909,
      "ĠGÃ¼ven": 5910,
      "asons": 5911,
      "mekle": 5912,
      "ĠÃ¶nerilir": 5913,
      "Ġbulmaya": 5914,
      "Ġjo": 5915,
      "ĠplanlÄ±": 5916,
      "Ġspread": 5917,
      "layacak": 5918,
      "Ġkutudaki": 5919,
      "138": 5920,
      "uyg": 5921,
      "239": 5922,
      "167": 5923,
      "ĠÃ¶ncesi": 5924,
      "ĠKal": 5925,
      "Ġoturum": 5926,
      "Ġnoise": 5927,
      "Ġetti": 5928,
      "377": 5929,
      "381": 5930,
      "night": 5931,
      "ions": 5932,
      "Ġaktif": 5933,
      "Ġkurul": 5934,
      "elerin": 5935,
      "569": 5936,
      "Ġilerleyin": 5937,
      "Ġpeak": 5938,
      "Ġhareketleri": 5939,
      "Ġimpul": 5940,
      "leÅŁtirerek": 5941,
      "704": 5942,
      "706": 5943,
      "685": 5944,
      "785": 5945,
      "983": 5946,
      "ĠsÄ±kÄ±cÄ±": 5947,
      "ĠbaÅŁarÄ±lar": 5948,
      "larÄ±nÄ±zÄ±n": 5949,
      "Ġunutma": 5950,
      "Ġplanda": 5951,
      "Ġproductive": 5952,
      "Ġtension": 5953,
      "Ġbitirin": 5954,
      "licit": 5955,
      "Ġexplain": 5956,
      "Ġconsci": 5957,
      "ĠbÃ¼tÃ§enizi": 5958,
      "Ġvadeli": 5959,
      "Ġupdates": 5960,
      "Ġmuhtem": 5961,
      "ĠyaygÄ±n": 5962,
      "ĠkÄ±yafet": 5963,
      "69": 5964,
      "One": 5965,
      "bal": 5966,
      "gage": 5967,
      "not": 5968,
      "uol": 5969,
      "uval": 5970,
      "veni": 5971,
      "Ġpod": 5972,
      "Ġport": 5973,
      "Ġtuval": 5974,
      "ĠbunlarÄ±": 5975,
      "rada": 5976,
      "elere": 5977,
      "Ġga": 5978,
      "Ġgather": 5979,
      "aten": 5980,
      "ĠiÃ§erek": 5981,
      "ĠAc": 5982,
      "rip": 5983,
      "Ġsomut": 5984,
      "ĠbeÄŁ": 5985,
      "ĠanÄ±": 5986,
      "Ġanla": 5987,
      "asing": 5988,
      "Ġmekan": 5989,
      "edin": 5990,
      "Ġverilen": 5991,
      "Ġyapmam": 5992,
      "enizin": 5993,
      "ored": 5994,
      "ĠOne": 5995,
      "karak": 5996,
      "ĠKullan": 5997,
      "277": 5998,
      "ĠbaÅŁlayabilirsin": 5999,
      "198": 6000,
      "Ġkullanabilirsiniz": 6001,
      "ĠkullanÄ±l": 6002,
      "367": 6003,
      "800": 6004,
      "809": 6005,
      "399": 6006,
      "577": 6007,
      "uzu": 6008,
      "Ġalana": 6009,
      "ĠÃĸnceki": 6010,
      "Ġbiggest": 6011,
      "901": 6012,
      "907": 6013,
      "908": 6014,
      "ĠyÃ¶ntemi": 6015,
      "ĠInvite": 6016,
      "686": 6017,
      "Ġconfus": 6018,
      "784": 6019,
      "986": 6020,
      "987": 6021,
      "Ġstopping": 6022,
      "osing": 6023,
      "Ġbehaviors": 6024,
      "Ġsenary": 6025,
      "ĠartÄ±rÄ±n": 6026,
      "ĠÃ§ekim": 6027,
      "Ġreaching": 6028,
      "-sleep": 6029,
      "ĠgÃ¼Ã§lÃ¼": 6030,
      "Ġintentional": 6031,
      "soli": 6032,
      "ĠmÃ¼mkÃ¼nse": 6033,
      "Ġrefresh": 6034,
      "Ġvalidating": 6035,
      "luluk": 6036,
      "Ġreinforce": 6037,
      "Ġjumping": 6038,
      ".'": 6039,
      "321": 6040,
      "431": 6041,
      "511": 6042,
      "521": 6043,
      "634": 6044,
      "can": 6045,
      "isf": 6046,
      "isk": 6047,
      "inci": 6048,
      "ingo": 6049,
      "Ã¼yor": 6050,
      "ĠEkim": 6051,
      "arg": 6052,
      "Ġdizi": 6053,
      "ĠTrack": 6054,
      "ilere": 6055,
      "Ġmask": 6056,
      "Ġmix": 6057,
      "ÄŁine": 6058,
      "Ġeyes": 6059,
      "ĠBatch": 6060,
      "amili": 6061,
      "lim": 6062,
      "lict": 6063,
      "Ġforget": 6064,
      "ĠgÃ¼nler": 6065,
      "stac": 6066,
      "ayÄ±m": 6067,
      "Ġistiyor": 6068,
      "Ġanlamaya": 6069,
      "Ġlun": 6070,
      "Ġalmost": 6071,
      "ĠÃ¶ÄŁÃ¼n": 6072,
      "170": 6073,
      "270": 6074,
      "Ġsorul": 6075,
      "ĠfotoÄŁrafÃ§Ä±": 6076,
      "ĠyÃ¼rÃ¼yÃ¼ÅŁÃ¼": 6077,
      "Ġstead": 6078,
      "ĠFind": 6079,
      "Ġhedefinize": 6080,
      "299": 6081,
      "Ġsaatlerinizi": 6082,
      "Ġelinizde": 6083,
      "tÄ±cÄ±": 6084,
      "Ġarada": 6085,
      "ĠaÃ§Ä±p": 6086,
      "567": 6087,
      "alarÄ±nÄ±": 6088,
      "Ġtemelini": 6089,
      "Ġaccusing": 6090,
      "ĠhÄ±zlandÄ±r": 6091,
      "ĠtÃ¼rden": 6092,
      "903": 6093,
      "904": 6094,
      "905": 6095,
      "906": 6096,
      "ĠuygulamalarÄ±": 6097,
      "701": 6098,
      "702": 6099,
      "703": 6100,
      "705": 6101,
      "707": 6102,
      "682": 6103,
      "689": 6104,
      "Ġconflict": 6105,
      "781": 6106,
      "783": 6107,
      "789": 6108,
      "Ġcomput": 6109,
      "ĠgerÃ§ekleÅŁ": 6110,
      "larÄ±nÄ±zda": 6111,
      "Ġobstac": 6112,
      "ĠyaÅŁa": 6113,
      "Ġpassively": 6114,
      "Ġsitting": 6115,
      "Ġsatisf": 6116,
      "Ġtavsiy": 6117,
      "Ġindirip": 6118,
      "ĠaÅŁaÄŁÄ±daki": 6119,
      "ĠhiÃ§bir": 6120,
      "ĠharitasÄ±": 6121,
      "Ġgrabbing": 6122,
      "Ġresistance": 6123,
      "Ġmaruz": 6124,
      "Ġbisiklet": 6125,
      "Ġnecessary": 6126,
      "uolingo": 6127,
      "amiliar": 6128,
      "544": 6129,
      "Not": 6130,
      "Zaman": 6131,
      "card": 6132,
      "gre": 6133,
      "kez": 6134,
      "of": 6135,
      "pr": 6136,
      "isidir": 6137,
      "Ġsust": 6138,
      "Ġsending": 6139,
      "Ġtuz": 6140,
      "Ġprati": 6141,
      "ceed": 6142,
      "cept": 6143,
      "around": 6144,
      "Ġmode": 6145,
      "ĠiÃ§i": 6146,
      "linde": 6147,
      "ĠkÄ±sÄ±t": 6148,
      "ential": 6149,
      "Ġkonak": 6150,
      "Ġkaf": 6151,
      "ĠzamanÄ±nÄ±zÄ±": 6152,
      "Ġrot": 6153,
      "Ġyazma": 6154,
      "eceÄŁiniz": 6155,
      "ustos": 6156,
      "ĠalÄ±r": 6157,
      "ĠÃĸz": 6158,
      "178": 6159,
      "Ġworri": 6160,
      "278": 6161,
      "ĠyÃ¼zey": 6162,
      "Ġworkday": 6163,
      "298": 6164,
      "cies": 6165,
      "368": 6166,
      "ĠÅŁeyin": 6167,
      "Ġistek": 6168,
      "ĠbaÅŁlamayÄ±": 6169,
      "ĠÃ¶ÄŁrenmeyi": 6170,
      "803": 6171,
      "805": 6172,
      "808": 6173,
      "467": 6174,
      "457": 6175,
      "Ġpriority": 6176,
      "ĠÃ¶zellikle": 6177,
      "ĠistediÄŁin": 6178,
      "sheet": 6179,
      "ĠoluÅŁturur": 6180,
      "Ġyatmak": 6181,
      "786": 6182,
      "985": 6183,
      "ĠÃ§Ã¶zmek": 6184,
      "Ġshows": 6185,
      "osity": 6186,
      "Ġrewarding": 6187,
      "Ġairlines": 6188,
      "Ġbulunan": 6189,
      "Ġbulunur": 6190,
      "Ġrelaxation": 6191,
      "ĠsaÄŁlayan": 6192,
      "ĠyÃ¼ksel": 6193,
      "Ġinceleyerek": 6194,
      "ĠvÃ¼cudunuzun": 6195,
      "Ġkoyarak": 6196,
      "Ġsoruda": 6197,
      "Ġinitially": 6198,
      "Ġintense": 6199,
      "Ġenerjiyi": 6200,
      "ĠbÃ¶lÃ¼n": 6201,
      "ĠKonuÅŁ": 6202,
      "ĠSoru": 6203,
      "Ġdisrupt": 6204,
      "Ġlezzet": 6205,
      "titude": 6206,
      "Ġmuhtemelen": 6207,
      "'Ä±": 6208,
      "'yla": 6209,
      "421": 6210,
      "445": 6211,
      "62": 6212,
      "622": 6213,
      "by": 6214,
      "eys": 6215,
      "kÃ¼Ã§Ã¼k": 6216,
      "mis": 6217,
      "oÅŁ": 6218,
      "pause": 6219,
      "sal": 6220,
      "Ġalig": 6221,
      "ises": 6222,
      "Ġsunu": 6223,
      "Ġtenc": 6224,
      "res": 6225,
      "Ġbes": 6226,
      "urance": 6227,
      "ÅŁe": 6228,
      "ĠYoga": 6229,
      "Ġnotlar": 6230,
      "Ġfar": 6231,
      "Ġfore": 6232,
      "Ġfact": 6233,
      "ÄŁinize": 6234,
      "ĠBugÃ¼n": 6235,
      "ĠBasit": 6236,
      "Ġstack": 6237,
      "Ġadedi": 6238,
      "ept": 6239,
      "ĠbaÅŁÄ±nÄ±za": 6240,
      "Ã¼kemm": 6241,
      "ĠuyanÄ±p": 6242,
      "Ġonay": 6243,
      "start": 6244,
      "ayÄ±f": 6245,
      "Ġveriler": 6246,
      "ĠyapabileceÄŁiniz": 6247,
      "Ġresmi": 6248,
      "Ġrush": 6249,
      "Ġwilling": 6250,
      "ĠplanÄ±nÄ±": 6251,
      "Ġplanlam": 6252,
      "olog": 6253,
      "omatik": 6254,
      "Ã¼rÃ¼n": 6255,
      "Ġyapmaktan": 6256,
      "238": 6257,
      "268": 6258,
      "unuzdan": 6259,
      "ĠFr": 6260,
      "290": 6261,
      "297": 6262,
      "498": 6263,
      "499": 6264,
      "Ġreducing": 6265,
      "ĠWork": 6266,
      "Ġyoldur": 6267,
      "ĠolduÄŁunca": 6268,
      "Ġgerekebilir": 6269,
      "elerini": 6270,
      "887": 6271,
      "599": 6272,
      "ĠdÃ¼zenleyin": 6273,
      "ĠyÃ¶nelik": 6274,
      "Ġgarden": 6275,
      "Ġtamamla": 6276,
      "Ġtamamlamak": 6277,
      "Ġdiving": 6278,
      "ĠkapalÄ±": 6279,
      "Ġyakal": 6280,
      "681": 6281,
      "683": 6282,
      "Ġhissetti": 6283,
      "782": 6284,
      "787": 6285,
      "981": 6286,
      "982": 6287,
      "989": 6288,
      "Ġhalinde": 6289,
      "abileceÄŁin": 6290,
      "Ġseviyesini": 6291,
      "larÄ±nÄ±za": 6292,
      "Ġyani": 6293,
      "Ġformulating": 6294,
      "ĠÄ±s": 6295,
      "Ġazaltmak": 6296,
      "Ġhayatta": 6297,
      "Ġreviewing": 6298,
      "ĠMesajÄ±nÄ±zÄ±": 6299,
      "ĠanlaÅŁÄ±lÄ±r": 6300,
      "ĠNumarasÄ±": 6301,
      "ĠÃĸneri": 6302,
      "Ġkavram": 6303,
      "Ġpatter": 6304,
      "Ġmade": 6305,
      "ĠfÄ±rsat": 6306,
      "Ġcuriosity": 6307,
      "Ġspreadsheet": 6308,
      "Ġpodcast": 6309,
      "Ġlunch": 6310,
      "-h": 6311,
      "612": 6312,
      "635": 6313,
      "gÃ¶r": 6314,
      "oot": 6315,
      "onda": 6316,
      "pass": 6317,
      "tÄ±ktan": 6318,
      "xim": 6319,
      "Ġlik": 6320,
      "enden": 6321,
      "Ġplay": 6322,
      "Ġpaper": 6323,
      "ale": 6324,
      "Ġklasik": 6325,
      "Ġnut": 6326,
      "ules": 6327,
      "usuna": 6328,
      "sak": 6329,
      "itch": 6330,
      "ĠAÅŁ": 6331,
      "ĠgÃ¼nlerde": 6332,
      "Ġmovi": 6333,
      "ĠÄ°lg": 6334,
      "ĠkonularÄ±": 6335,
      "Ġreserv": 6336,
      "Ġzorunlu": 6337,
      "Ġcome": 6338,
      "usuz": 6339,
      "Ã¼zik": 6340,
      "ĠbuluÅŁuyor": 6341,
      "Ġrules": 6342,
      "ĠbaÅŁlatabilirsiniz": 6343,
      "ĠÅŁudur": 6344,
      "ĠalmanÄ±z": 6345,
      "258": 6346,
      "Ġbelirleme": 6347,
      "260": 6348,
      "Ġlistesini": 6349,
      "Ġkendiniz": 6350,
      "lights": 6351,
      "Ġdurumun": 6352,
      "ĠbaÅŁlamanÄ±zÄ±": 6353,
      "801": 6354,
      "Ġkuru": 6355,
      "390": 6356,
      "Ġgereksiz": 6357,
      "459": 6358,
      "885": 6359,
      "leÅŁtiri": 6360,
      "578": 6361,
      "579": 6362,
      "Ġeklemek": 6363,
      "568": 6364,
      "Ġaccount": 6365,
      "shop": 6366,
      "ĠyapÄ±sÄ±nÄ±": 6367,
      "Ġdedicating": 6368,
      "Ġbekleyin": 6369,
      "Ġizlemek": 6370,
      "ĠKendine": 6371,
      "Ġderinlik": 6372,
      "Ġparal": 6373,
      "âĢĶand": 6374,
      "âĢĶto": 6375,
      "Ġdelay": 6376,
      "leyebilir": 6377,
      "ĠiÃ§eren": 6378,
      "Ġtidying": 6379,
      "ĠbahÃ§enize": 6380,
      "Ġmedya": 6381,
      "Ġmemorize": 6382,
      "Ġrefle": 6383,
      "Ġsebze": 6384,
      "Ġengaged": 6385,
      "Ġmalzemeleri": 6386,
      "Ġmerkez": 6387,
      "Ġuygulayarak": 6388,
      "Ġnavigate": 6389,
      "Ġharcam": 6390,
      "ĠeÄŁlenceli": 6391,
      "Ġcombat": 6392,
      "ĠtÃ¼ket": 6393,
      "Ġslip": 6394,
      "Ġinsurance": 6395,
      "Ġsteady": 6396,
      "'Ã¼": 6397,
      "'Ã¼n": 6398,
      "632": 6399,
      "Eat": 6400,
      "Go": 6401,
      "bi": 6402,
      "gency": 6403,
      "iyi": 6404,
      "sen": 6405,
      "suz": 6406,
      "vÄ±": 6407,
      "Ġoto": 6408,
      "isine": 6409,
      "erilen": 6410,
      "anti": 6411,
      "endir": 6412,
      "Ġsul": 6413,
      "Ġtour": 6414,
      "sam": 6415,
      "urn": 6416,
      "Ġfiyat": 6417,
      "Ġoy": 6418,
      "Ġinitiate": 6419,
      "Ġstays": 6420,
      "Ġveren": 6421,
      "sÄ±yla": 6422,
      "Ġyazarak": 6423,
      "ĠyazÄ±p": 6424,
      "Ġjarg": 6425,
      "Ġfear": 6426,
      "ersiniz": 6427,
      "Ġfriendships": 6428,
      "Ġlistesi": 6429,
      "ildirim": 6430,
      "ĠHerhangi": 6431,
      "378": 6432,
      "Ġsaatlerini": 6433,
      "siyon": 6434,
      "tedir": 6435,
      "ĠsabahÄ±n": 6436,
      "ĠbaÅŁlamaya": 6437,
      "806": 6438,
      "479": 6439,
      "ĠgeÃ§miÅŁ": 6440,
      "Ġdurun": 6441,
      "Ġrespons": 6442,
      "Ġtrips": 6443,
      "882": 6444,
      "ĠhaftalÄ±k": 6445,
      "598": 6446,
      "570": 6447,
      "ĠgÃ¶rÃ¼nÃ¼": 6448,
      "ĠolmasÄ±nÄ±": 6449,
      "Ġdinlemek": 6450,
      "ĠistediÄŁini": 6451,
      "Ġconnectivity": 6452,
      "Ġtranslation": 6453,
      "Ġcompli": 6454,
      "Ġgratitude": 6455,
      "ĠsaÄŁlayarak": 6456,
      "Ġphotos": 6457,
      "Ġeliminating": 6458,
      "ĠboÅŁluk": 6459,
      "Ġtarget": 6460,
      "Ġreminders": 6461,
      "ĠdÃ¼zelt": 6462,
      "Ġchoosing": 6463,
      "ĠAÄŁustos": 6464,
      "Ġkilit": 6465,
      "ĠMevcut": 6466,
      "Ġrehber": 6467,
      "Ġnedeniyle": 6468,
      "licitly": 6469,
      "Ġjargon": 6470,
      "'ye": 6471,
      "77": 6472,
      "99": 6473,
      "An": 6474,
      "How": 6475,
      "What": 6476,
      "lilik": 6477,
      "yer": 6478,
      "yÄ±m": 6479,
      "Ġ$": 6480,
      "ero": 6481,
      "Ġpa": 6482,
      "Ġhol": 6483,
      "Ã¼cut": 6484,
      "ĠEvet": 6485,
      "ĠyalnÄ±z": 6486,
      "Ġidentify": 6487,
      "Ġdele": 6488,
      "yse": 6489,
      "ilerin": 6490,
      "Ġfour": 6491,
      "uge": 6492,
      "ĠayrÄ±": 6493,
      "ndeki": 6494,
      "lies": 6495,
      "Ġuyud": 6496,
      "ading": 6497,
      "Ġolay": 6498,
      "ĠBundle": 6499,
      "ĠCÃ¼m": 6500,
      "chedule": 6501,
      "Ġ**\"": 6502,
      "vial": 6503,
      "ĠÃ¶ÄŁrenmenin": 6504,
      "Ġoverth": 6505,
      "Ġovernight": 6506,
      "ĠAyda": 6507,
      "338": 6508,
      "ĠFin": 6509,
      "portun": 6510,
      "379": 6511,
      "ĠÃĸncelik": 6512,
      "ĠsabahÄ±": 6513,
      "Ġduruma": 6514,
      "ĠodaklanÄ±p": 6515,
      "478": 6516,
      "Ġkurt": 6517,
      "Ġkolayca": 6518,
      "Ġtrivial": 6519,
      "883": 6520,
      "884": 6521,
      "888": 6522,
      "889": 6523,
      "ĠgeldiÄŁ": 6524,
      "ĠkonuÅŁun": 6525,
      "ĠaÃ§Ä±n": 6526,
      "Ġekleyip": 6527,
      "Ġtelefonla": 6528,
      "Ġopportun": 6529,
      "Ġolmadan": 6530,
      "lenmiÅŁ": 6531,
      "Ġcommitments": 6532,
      "Ġhareketler": 6533,
      "mesine": 6534,
      "Ġvisa": 6535,
      "Ġgidip": 6536,
      "Ġrepeated": 6537,
      "Ġrelated": 6538,
      "Ġhappiness": 6539,
      "ĠUyk": 6540,
      "Ġsanki": 6541,
      "Ġinterrupt": 6542,
      "Ãĸner": 6543,
      "ÃĸrneÄŁin": 6544,
      "Ġsurround": 6545,
      "Ġidea": 6546,
      "ĠkitabÄ±n": 6547,
      "ĠuzaklaÅŁ": 6548,
      "Ġiyisidir": 6549,
      "ĠsÃ¼recini": 6550,
      "Ġgetirin": 6551,
      "Ġdisrupts": 6552,
      "Ġsuppress": 6553,
      "ĠkaynaÄŁÄ±": 6554,
      "ĠZorluk": 6555,
      "ĠtasarÄ±m": 6556,
      "ĠErken": 6557,
      "ĠuÃ§uÅŁ": 6558,
      "Ġaccumulating": 6559,
      "hotoshop": 6560,
      "Ġbeklenti": 6561,
      "Ġacknowledge": 6562,
      "Ġfoundation": 6563,
      "Ġconscious": 6564,
      "Ġobstacles": 6565,
      "Ã¼kemmel": 6566,
      "ĠFrog": 6567,
      "App": 6568,
      "In": 6569,
      "du": 6570,
      "eak": 6571,
      "kisi": 6572,
      "kendi": 6573,
      "malarÄ±": 6574,
      "pam": 6575,
      "roc": 6576,
      "way": 6577,
      "yÃ¼z": 6578,
      "Ġcard": 6579,
      "Ġclu": 6580,
      "Ġcrow": 6581,
      "Ġtel": 6582,
      "Ġtutu": 6583,
      "Ġbol": 6584,
      "Ġconve": 6585,
      "Ġkeys": 6586,
      "Ġneyi": 6587,
      "Ġdal": 6588,
      "Ġdiz": 6589,
      "urg": 6590,
      "ĠDef": 6591,
      "Ġfits": 6592,
      "lanacak": 6593,
      "ĠGÃ¶r": 6594,
      "Ġstrugg": 6595,
      "ĠMain": 6596,
      "ĠLÃ¼tfen": 6597,
      "Ġneut": 6598,
      "ĠÄ°ste": 6599,
      "ĠÃ§ab": 6600,
      "oken": 6601,
      "**'": 6602,
      "Ġdopam": 6603,
      "ocuk": 6604,
      "ĠKah": 6605,
      "Ġotomatik": 6606,
      "ĠsonrasÄ±": 6607,
      "ĠokumayÄ±": 6608,
      "490": 6609,
      "amera": 6610,
      "tÄ±rarak": 6611,
      "802": 6612,
      "807": 6613,
      "398": 6614,
      "469": 6615,
      "881": 6616,
      "886": 6617,
      "597": 6618,
      "Ġland": 6619,
      "ĠalanÄ±nÄ±zÄ±": 6620,
      "Ġlearns": 6621,
      "ĠÅŁeklinde": 6622,
      "Ġlose": 6623,
      "ĠdÃ¼ÅŁÃ¼nerek": 6624,
      "Ġensures": 6625,
      "Ġbilgisi": 6626,
      "ĠgÃ¶revler": 6627,
      "Ġhalf": 6628,
      "ĠKendinizi": 6629,
      "Ġsana": 6630,
      "Ġsanat": 6631,
      "ĠbaÄŁlam": 6632,
      "ebilirsin": 6633,
      "larÄ±nÄ±zla": 6634,
      "ĠvÃ¼cudun": 6635,
      "ĠiÃ§erik": 6636,
      "Ġpassive": 6637,
      "ĠkurallarÄ±nÄ±": 6638,
      "Ġparkta": 6639,
      "ĠTelefonu": 6640,
      "Ġsucceed": 6641,
      "landÄ±rma": 6642,
      "Ġmetab": 6643,
      "Ġkutular": 6644,
      "Ġhavada": 6645,
      "Ġonunla": 6646,
      "Ġbelirtilen": 6647,
      "Ġsinir": 6648,
      "Ġconsider": 6649,
      "Ġsaatinde": 6650,
      "Ġwebsite": 6651,
      "Ġwebsites": 6652,
      "Ġemergency": 6653,
      "ĠnazikÃ§e": 6654,
      "Ġnutri": 6655,
      "Ġotob": 6656,
      "Ġclub": 6657,
      "ĠMaintain": 6658,
      "-day": 6659,
      "/no": 6660,
      "611": 6661,
      "Avoid": 6662,
      "Cevap": 6663,
      "gth": 6664,
      "keep": 6665,
      "kitap": 6666,
      "mall": 6667,
      "nasÄ±l": 6668,
      "oz": 6669,
      "ski": 6670,
      "ture": 6671,
      "telefon": 6672,
      "yoga": 6673,
      "inÃ§": 6674,
      "ani": 6675,
      "Ġskip": 6676,
      "Ġtou": 6677,
      "rabilirsiniz": 6678,
      "Ġkum": 6679,
      "Ã¼me": 6680,
      "Ġface": 6681,
      "late": 6682,
      "Ġgiy": 6683,
      "ĠSur": 6684,
      "ĠSÄ±k": 6685,
      "ugh": 6686,
      "orth": 6687,
      "ict": 6688,
      "mede": 6689,
      "ters": 6690,
      "ĠvÃ¼cut": 6691,
      "Ġbuy": 6692,
      "ĠdeÄŁiÅŁtirmek": 6693,
      "ĠatÄ±p": 6694,
      "ĠÃ¶nlemek": 6695,
      "Ġyear": 6696,
      "Ġevinizdeki": 6697,
      "Ġkalma": 6698,
      "143": 6699,
      "ilebilir": 6700,
      "Ġyerlere": 6701,
      "Ġbelirtir": 6702,
      "Ġlists": 6703,
      "Ġokud": 6704,
      "497": 6705,
      "ĠiÅŁin": 6706,
      "ĠdoÄŁum": 6707,
      "ĠsÃ¼reyi": 6708,
      "009": 6709,
      "phone": 6710,
      "Ġhissini": 6711,
      "Ġbigger": 6712,
      "ĠsÄ±fÄ±r": 6713,
      "ĠhazÄ±rla": 6714,
      "ĠsayÄ±sÄ±nÄ±": 6715,
      "Ġolursa": 6716,
      "Ġvisually": 6717,
      "diÄŁin": 6718,
      "Ġknowing": 6719,
      "Ġhafifle": 6720,
      "Ġterm": 6721,
      "Ġlives": 6722,
      "Ġmaxim": 6723,
      "Ġeski": 6724,
      "ĠgÃ¶ndererek": 6725,
      "ĠyaratÄ±r": 6726,
      "Ġsamim": 6727,
      "ĠihtiyacÄ±": 6728,
      "Ġinitiating": 6729,
      "Ġexercises": 6730,
      "ĠBelki": 6731,
      "ĠkiÅŁiyle": 6732,
      "ĠeÅŁyalarÄ±": 6733,
      "Ġteknikleri": 6734,
      "Ġlabels": 6735,
      "Ġpopular": 6736,
      "ĠamaÃ§la": 6737,
      "Ġarrival": 6738,
      "Ġencoura": 6739,
      "ĠparÃ§alara": 6740,
      "Ġmerak": 6741,
      "ĠbaskÄ±": 6742,
      "ĠuyandÄ±": 6743,
      "ĠuyandÄ±ktan": 6744,
      "Ãĸnce": 6745,
      "ĠiliÅŁkil": 6746,
      "ĠsÃ¶yleyin": 6747,
      "Ġyetenek": 6748,
      "Ġdraining": 6749,
      "Ġsubject": 6750,
      "Ġtype": 6751,
      "Ġview": 6752,
      "ĠuÄŁraÅŁ": 6753,
      "Ġparaphrasing": 6754,
      "ĠyumuÅŁak": 6755,
      "Ġlikely": 6756,
      "ĠgÃ¶rÃ¼nÃ¼yor": 6757,
      "Ġneutral": 6758,
      "Ġmetabol": 6759,
      "'yi": 6760,
      "631": 6761,
      "Durum": 6762,
      "Her": 6763,
      "Sor": 6764,
      "eÃ§": 6765,
      "kes": 6766,
      "meni": 6767,
      "rt": 6768,
      "va": 6769,
      "Ġour": 6770,
      "ĠÃ¼st": 6771,
      "insel": 6772,
      "Ġcould": 6773,
      "Ġblo": 6774,
      "Ġbard": 6775,
      "ĠkÄ±r": 6776,
      "Ġhep": 6777,
      "ysis": 6778,
      "Ġwould": 6779,
      "fully": 6780,
      "ilmesi": 6781,
      "Ġfla": 6782,
      "acaÄŁÄ±": 6783,
      "Ġsoli": 6784,
      "Ġreason": 6785,
      "ĠÃ¶dev": 6786,
      "ĠayÄ±rÄ±p": 6787,
      "ĠzayÄ±f": 6788,
      "Ġzero": 6789,
      "Ġshower": 6790,
      "Ġsharp": 6791,
      "ĠGen": 6792,
      "Ġdayan": 6793,
      "ade": 6794,
      "ĠÄ°liÅŁ": 6795,
      "Ġdos": 6796,
      "Ġanlama": 6797,
      "ĠanlamÄ±": 6798,
      "Ġimkan": 6799,
      "ĠÃľ": 6800,
      "ĠkalmayÄ±": 6801,
      "Ġyerinde": 6802,
      "ĠfotoÄŁrafÄ±nÄ±zÄ±": 6803,
      "anÄ±za": 6804,
      "Ġnotice": 6805,
      "Ġetmeyi": 6806,
      "ĠkitaplarÄ±": 6807,
      "Ġworkout": 6808,
      "ĠÅŁeyden": 6809,
      "Ġelde": 6810,
      "ĠgeÃ§en": 6811,
      "ĠeriÅŁ": 6812,
      "000": 6813,
      "ĠyÃ¶nel": 6814,
      "Ġtelefonun": 6815,
      "ĠgÃ¶rd": 6816,
      "Ġprice": 6817,
      "ĠÃ¶zellik": 6818,
      "Ġlosing": 6819,
      "ĠhazÄ±rlan": 6820,
      "ĠhazÄ±rlamak": 6821,
      "ĠmesajÄ±nÄ±zÄ±": 6822,
      "Ġortaya": 6823,
      "ĠyatÄ±n": 6824,
      "Ġknowledge": 6825,
      "Ġtakv": 6826,
      "Ġmissing": 6827,
      "Ġliving": 6828,
      "Ġalanda": 6829,
      "Ġtelefonunuzdaki": 6830,
      "ĠLearn": 6831,
      "mamak": 6832,
      "ĠdÄ±ÅŁarÄ±da": 6833,
      "ĠgÃ¶stermek": 6834,
      "ĠaraÃ§larÄ±": 6835,
      "Ġfailure": 6836,
      "tÄ±rabilirsiniz": 6837,
      "ĠkarÅŁÄ±laÅŁacak": 6838,
      "Ġederim": 6839,
      "Ġloved": 6840,
      "Ġbitkileri": 6841,
      "Ġistersiniz": 6842,
      "Ġmiktarda": 6843,
      "ĠgeliÅŁtirmek": 6844,
      "ĠiÅŁlemi": 6845,
      "ĠGÃ¶rev": 6846,
      "Ġfrustrated": 6847,
      "Merhaba": 6848,
      "Ġkaliteli": 6849,
      "Ġcenter": 6850,
      "Ġkonaklama": 6851,
      "ĠFinally": 6852,
      "Ġsurroundings": 6853,
      "ĠSurround": 6854,
      "Ġsamimiyet": 6855,
      "Ġsolid": 6856,
      ")Ċ": 6857,
      "Pause": 6858,
      "kÄ±": 6859,
      "ned": 6860,
      "pit": 6861,
      "tuÄŁ": 6862,
      "ism": 6863,
      "tile": 6864,
      "Ġple": 6865,
      "ĠsÄ±nÄ±": 6866,
      "reci": 6867,
      "aling": 6868,
      "alama": 6869,
      "teki": 6870,
      "ĠhoÅŁ": 6871,
      "Ġyu": 6872,
      "Ġikinci": 6873,
      "ĠDÃ¼zen": 6874,
      "ÅŁu": 6875,
      "ogn": 6876,
      "ĠYe": 6877,
      "veya": 6878,
      "Ġfacts": 6879,
      "lacing": 6880,
      "Ġmark": 6881,
      "ĠmÃ¼kemmel": 6882,
      "Ġgrate": 6883,
      "Ġekip": 6884,
      "izmet": 6885,
      "ĠyaÄŁ": 6886,
      "imle": 6887,
      "ases": 6888,
      "asÄ±nÄ±n": 6889,
      "ĠbaÅŁta": 6890,
      "ĠzorlandÄ±": 6891,
      "ĠÃ§Ä±": 6892,
      "ĠÃ§Ã¶": 6893,
      "the": 6894,
      "ike": 6895,
      "Ġrere": 6896,
      "ĠÃ¶nler": 6897,
      "ĠÃ¶nÃ¼ne": 6898,
      "Ġalso": 6899,
      "Ġaloud": 6900,
      "Ġboo": 6901,
      "ĠgÃ¶ÄŁ": 6902,
      "ĠkalÄ±r": 6903,
      "Ġyerleri": 6904,
      "ĠsorularÄ±": 6905,
      "ĠAyÄ±": 6906,
      "ĠyÃ¼zer": 6907,
      "celer": 6908,
      "ĠettiÄŁiniz": 6909,
      "Ġtetik": 6910,
      "Ġsuda": 6911,
      "Ä±nav": 6912,
      "ilecek": 6913,
      "Ġdurumunuzu": 6914,
      "Ġpost": 6915,
      "Ġyolda": 6916,
      "Ġkurgu": 6917,
      "008": 6918,
      "ĠhaftanÄ±n": 6919,
      "Ġreplacing": 6920,
      "590": 6921,
      "Ġilerle": 6922,
      "ĠalanÄ±nÄ±": 6923,
      "Ġappreci": 6924,
      "ĠtÃ¼rÃ¼nÃ¼": 6925,
      "Ġfinished": 6926,
      "Ġeffici": 6927,
      "Ġconnected": 6928,
      "ĠMotivasyon": 6929,
      "ĠhissettiÄŁiniz": 6930,
      "ĠayarlarÄ±nÄ±": 6931,
      "ounts": 6932,
      "Ġhaline": 6933,
      "Ġsunabilirim": 6934,
      "ĠsÄ±caklÄ±k": 6935,
      "ĠdÃ¶k": 6936,
      "Ġrutini": 6937,
      "ĠÄ±ÅŁÄ±ÄŁÄ±nÄ±": 6938,
      "Ġuyumlu": 6939,
      "Ġdeliber": 6940,
      "Ġtelefonunuza": 6941,
      "Ġobs": 6942,
      "Ġkaynat": 6943,
      "oÄŁu": 6944,
      "ĠyaptÄ±ÄŁÄ±nÄ±zÄ±": 6945,
      "Ġyorgunluk": 6946,
      "ĠuyanÄ±ÅŁ": 6947,
      "Ġmetre": 6948,
      "ĠkaÄŁÄ±da": 6949,
      "ĠgÃ¼nÃ¼nÃ¼zÃ¼": 6950,
      "ĠduyduÄŁunuz": 6951,
      "Ġilerlemenizi": 6952,
      "Â°C": 6953,
      "Ġetkinlik": 6954,
      "Ġcolor": 6955,
      "ĠyaptÄ±m": 6956,
      "Ġkaybol": 6957,
      "Ġaccusatory": 6958,
      "Ġsites": 6959,
      "Ġrecei": 6960,
      "Ã¼lebilir": 6961,
      "Ġtwenty": 6962,
      "ĠyetiÅŁtir": 6963,
      "ĠBahÃ§": 6964,
      "Ġgrateful": 6965,
      "Ġrereading": 6966,
      "640": 6967,
      "649": 6968,
      "639": 6969,
      "Schedule": 6970,
      "cri": 6971,
      "ptions": 6972,
      "ranÄ±": 6973,
      "ym": 6974,
      "zer": 6975,
      "ðŁ": 6976,
      "Ġversa": 6977,
      "ĠÃ¼rÃ¼n": 6978,
      "ince": 6979,
      "Ä±ÄŁÄ±": 6980,
      "Ä±ndaki": 6981,
      "anlÄ±k": 6982,
      "Ġsour": 6983,
      "Ġsens": 6984,
      "Ġnes": 6985,
      "uses": 6986,
      "ĠEski": 6987,
      "Ġizmir": 6988,
      "Ġdeniz": 6989,
      "Ġdikk": 6990,
      "Ġdrop": 6991,
      "itab": 6992,
      "Ġfund": 6993,
      "Ġmist": 6994,
      "Ġrely": 6995,
      "ĠanlÄ±": 6996,
      "ĠkÄ±sÄ±": 6997,
      "ĠadÄ±ma": 6998,
      "Ġsometimes": 6999,
      "Ġmey": 7000,
      "ĠbaÅŁÄ±nÄ±zÄ±": 7001,
      "ected": 7002,
      "Ġyaprak": 7003,
      "maktadÄ±r": 7004,
      "uÅŁtur": 7005,
      "Ġzorlam": 7006,
      "Ġtim": 7007,
      "Ġzamanla": 7008,
      "Ġcha": 7009,
      "ĠdeÄŁerli": 7010,
      "Ġbuying": 7011,
      "ĠplanlanmÄ±ÅŁ": 7012,
      "Ġsprin": 7013,
      "ĠatÄ±ÅŁ": 7014,
      "Ġkalp": 7015,
      "ĠyÃ¼rÃ¼r": 7016,
      "ĠKaf": 7017,
      "Ġovercome": 7018,
      "ĠiyileÅŁtirmek": 7019,
      "ĠfotoÄŁrafÄ±": 7020,
      "ĠseÃ§ebilirsiniz": 7021,
      "Ġnews": 7022,
      "road": 7023,
      "miyor": 7024,
      "ĠolduÄŁunda": 7025,
      "ĠdoÄŁrul": 7026,
      "Ġdeneyimi": 7027,
      "Ġmatch": 7028,
      "Ġswap": 7029,
      "ĠkonuÅŁurken": 7030,
      "ĠdÃ¼zenlemeye": 7031,
      "Ã¶zellikle": 7032,
      "Ġrooms": 7033,
      "Ġolanak": 7034,
      "ĠkarÅŁÄ±laÅŁtÄ±r": 7035,
      "Ġspaces": 7036,
      "ĠuygulamayÄ±": 7037,
      "089": 7038,
      "yorsan": 7039,
      "Ġolursunuz": 7040,
      "uktan": 7041,
      "ĠBaÅŁka": 7042,
      "Ġlocations": 7043,
      "Ġgroups": 7044,
      "Ġnokta": 7045,
      "ĠseÃ§mekten": 7046,
      "Ġstatement": 7047,
      "Ġenerjinizi": 7048,
      "Ġenerjisini": 7049,
      "Ġgrand": 7050,
      "Ġkapatmak": 7051,
      "Ġharf": 7052,
      "malÄ±sÄ±n": 7053,
      "ĠÃ¶zelliÄŁini": 7054,
      "Ġdiscard": 7055,
      "Ġmuscle": 7056,
      "Ġhayata": 7057,
      "Ġegzersizleri": 7058,
      "dÄ±ÄŁÄ±n": 7059,
      "Ġpassport": 7060,
      "Ġguide": 7061,
      "Ġdecisions": 7062,
      "Ġdepends": 7063,
      "Ġaktiviteleri": 7064,
      "ĠbelirtilmiÅŁtir": 7065,
      "Ġmesafe": 7066,
      "Ġtespit": 7067,
      "ĠkaynaÄŁÄ±nÄ±": 7068,
      "ĠsÃ¼rdÃ¼r": 7069,
      "Ġnearby": 7070,
      "Ġidealdir": 7071,
      "ĠcevabÄ±": 7072,
      "Ġsnacks": 7073,
      "GÃ¼nlÃ¼k": 7074,
      "imdiden": 7075,
      "ĠHareket": 7076,
      "Ġconfusion": 7077,
      "Ġsustain": 7078,
      "Ġparalysis": 7079,
      "Ġconvey": 7080,
      "ĠDefine": 7081,
      "Ġdopamine": 7082,
      "Ġbardak": 7083,
      "619": 7084,
      "Do": 7085,
      "baÅŁ": 7086,
      "bilg": 7087,
      "ctions": 7088,
      "ices": 7089,
      "lÃ¼m": 7090,
      "rod": 7091,
      "sue": 7092,
      "sApp": 7093,
      "ube": 7094,
      "var": 7095,
      "ĠðŁ": 7096,
      "timi": 7097,
      "Ġsuy": 7098,
      "Ġsix": 7099,
      "Ġbildirim": 7100,
      "alan": 7101,
      "Ġkim": 7102,
      "tep": 7103,
      "ories": 7104,
      "ĠyanÄ±": 7105,
      "Ġdish": 7106,
      "ĠTell": 7107,
      "yseniz": 7108,
      "Ġfel": 7109,
      "Ġflo": 7110,
      "ÄŁa": 7111,
      "Ġez": 7112,
      "Ġbirer": 7113,
      "Ä±rÄ±": 7114,
      "daha": 7115,
      "ĠiÃ§inden": 7116,
      "Ã¼ny": 7117,
      "lardÄ±r": 7118,
      "ical": 7119,
      "ĠuyanÄ±n": 7120,
      "ective": 7121,
      "Ġtip": 7122,
      "ĠÃ¶neriye": 7123,
      "ĠzamanÄ±n": 7124,
      "Ġche": 7125,
      "Ġdoor": 7126,
      "ĠbaÅŁlatmak": 7127,
      "ĠÃ¶nem": 7128,
      "Ġitself": 7129,
      "Ġevin": 7130,
      "ĠaralÄ±k": 7131,
      "erseniz": 7132,
      "ĠKayÄ±t": 7133,
      "ĠyerleÅŁtir": 7134,
      "Ġtutma": 7135,
      "ĠiÅŁinizi": 7136,
      "ĠÃ§alÄ±ÅŁan": 7137,
      "ĠÃ§alÄ±ÅŁÄ±rken": 7138,
      "Ġistey": 7139,
      "Ġexplo": 7140,
      "006": 7141,
      "Ä±lmasÄ±": 7142,
      "ĠaÃ§mak": 7143,
      "Ġdistracted": 7144,
      "Ġpermis": 7145,
      "ĠolanÄ±": 7146,
      "ĠdÃ¼ÅŁÃ¼nce": 7147,
      "ĠkapÄ±": 7148,
      "Ġdinleyin": 7149,
      "Ġmindset": 7150,
      "081": 7151,
      "082": 7152,
      "084": 7153,
      "085": 7154,
      "shoot": 7155,
      "menizdir": 7156,
      "ĠoluÅŁturmaya": 7157,
      "Ġortadan": 7158,
      "diÄŁini": 7159,
      "ĠbÄ±rakmak": 7160,
      "ĠbÄ±rakarak": 7161,
      "Ġhata": 7162,
      "ĠkalkÄ±n": 7163,
      "Ġkaydede": 7164,
      "ĠbaÅŁarÄ±yÄ±": 7165,
      "ĠbaÄŁlantÄ±": 7166,
      "ĠgeÃ§irmek": 7167,
      "ĠpaylaÅŁmak": 7168,
      "ĠartÄ±rmak": 7169,
      "Ġeser": 7170,
      "undry": 7171,
      "Ġkorun": 7172,
      "Ġcloser": 7173,
      "Ġhands": 7174,
      "eyebilirsiniz": 7175,
      "Ġoturmak": 7176,
      "Ġduvara": 7177,
      "Ġphotoshoot": 7178,
      "ĠnoktasÄ±dÄ±r": 7179,
      "Ġdeneme": 7180,
      "ĠConsistent": 7181,
      "Ġminimum": 7182,
      "ĠaÄŁÄ±r": 7183,
      "Ġrental": 7184,
      "Ġclothing": 7185,
      "Ã¼nden": 7186,
      "Ġsuppor": 7187,
      "ĠSpeak": 7188,
      "ĠÃ¶lÃ§Ã¼n": 7189,
      ".**Ċ": 7190,
      "ĠgÃ¼Ã§lendirmek": 7191,
      "Ġnavigation": 7192,
      "ĠsoÄŁuk": 7193,
      "ĠkÄ±smÄ±nÄ±": 7194,
      "Ġbazen": 7195,
      "ĠkarÅŁÄ±lÄ±klÄ±": 7196,
      "Ġinteresting": 7197,
      "Ġopinion": 7198,
      "Ġtemptation": 7199,
      "Ġfactors": 7200,
      "Ġboosts": 7201,
      "Ġpermission": 7202,
      "61": 7203,
      "621": 7204,
      "Pra": 7205,
      "dle": 7206,
      "kt": 7207,
      "vely": 7208,
      "¸ı": 7209,
      "ï¸ı": 7210,
      "ont": 7211,
      "Ä±ÄŁÄ±nÄ±": 7212,
      "Ġsend": 7213,
      "Ġsuyla": 7214,
      "Ġtep": 7215,
      "ĠtanÄ±t": 7216,
      "rete": 7217,
      "Ġbored": 7218,
      "ants": 7219,
      "rabilir": 7220,
      "ract": 7221,
      "Ġkick": 7222,
      "tionally": 7223,
      "Ġnor": 7224,
      "Ġice": 7225,
      "Ġdile": 7226,
      "ĠTÃ¼m": 7227,
      "Ġhelping": 7228,
      "lated": 7229,
      "Ġmen": 7230,
      "Ġgem": 7231,
      "active": 7232,
      "ÄŁinden": 7233,
      "Ġever": 7234,
      "Ġstren": 7235,
      "ĠGec": 7236,
      "larken": 7237,
      "Ġolsa": 7238,
      "Ġori": 7239,
      "lÄ±ÄŁÄ±nÄ±z": 7240,
      "ĠnumarasÄ±nÄ±": 7241,
      "ĠzorlanÄ±yorsanÄ±z": 7242,
      "ginÃ§": 7243,
      "Ġanswers": 7244,
      "Ġalmaya": 7245,
      "Ġevden": 7246,
      "145": 7247,
      "arÄ±nda": 7248,
      "Ġsong": 7249,
      "mediÄŁiniz": 7250,
      "Ġyerini": 7251,
      "Ġdiler": 7252,
      "Ġdilden": 7253,
      "ildi": 7254,
      "ildiÄŁ": 7255,
      "ĠtutarlÄ±": 7256,
      "ĠFirst": 7257,
      "Ġunf": 7258,
      "Ġbasic": 7259,
      "ĠiÅŁinize": 7260,
      "ĠÃ§alÄ±ÅŁarak": 7261,
      "duÄŁunuz": 7262,
      "Ġistem": 7263,
      "Ġexplicitly": 7264,
      "irebilirsiniz": 7265,
      "echn": 7266,
      "Ġkurmaya": 7267,
      "Ġdurdur": 7268,
      "001": 7269,
      "002": 7270,
      "003": 7271,
      "004": 7272,
      "005": 7273,
      "007": 7274,
      "ĠdÃ¼zenlemek": 7275,
      "Ġtelefonunu": 7276,
      "Ġhiss": 7277,
      "Ġolmam": 7278,
      "Ġlaundry": 7279,
      "Ġtamamlan": 7280,
      "ĠdÃ¼ÅŁÃ¼nmek": 7281,
      "083": 7282,
      "086": 7283,
      "087": 7284,
      "ĠyÃ¶ntemler": 7285,
      "Ġbakmak": 7286,
      "ĠbakÄ±ÅŁ": 7287,
      "Ġhaval": 7288,
      "ĠaÃ§Ä±klayÄ±cÄ±": 7289,
      "ĠsÄ±caklÄ±ÄŁÄ±na": 7290,
      "Ġmiss": 7291,
      "Ġbiriyle": 7292,
      "Ġgirmeden": 7293,
      "'inle": 7294,
      "Ġkeyif": 7295,
      "Ġdikkatli": 7296,
      "sÄ±zlÄ±k": 7297,
      "acaÄŁÄ±nÄ±": 7298,
      "mezsiniz": 7299,
      "ĠHafif": 7300,
      "Ġachievement": 7301,
      "Ġmutfak": 7302,
      "ynam": 7303,
      "Ġuyanmak": 7304,
      "ĠTrans": 7305,
      "Ġmakinesini": 7306,
      "Ġbarda": 7307,
      "melisin": 7308,
      "Ġconcrete": 7309,
      "Ġwashing": 7310,
      "Ġsupplies": 7311,
      "ĠkÃ¶k": 7312,
      "Ġvalidate": 7313,
      "Ġilerlemeler": 7314,
      "Ġmalzemeler": 7315,
      "Ġzihn": 7316,
      "ĠkarÄ±ÅŁÄ±k": 7317,
      "Ġstronger": 7318,
      "Ġbozul": 7319,
      "Ġchallenges": 7320,
      "Ġkalitesini": 7321,
      "ĠbirleÅŁecek": 7322,
      "Ġelectronic": 7323,
      "ĠÃ§imen": 7324,
      "Ġkonsept": 7325,
      "ĠkeÅŁfedin": 7326,
      "ĠAccept": 7327,
      "Ġkafa": 7328,
      "Ġmovie": 7329,
      "ĠotobÃ¼s": 7330,
      "ĠsÄ±nÄ±f": 7331,
      "Ġversatile": 7332,
      "638": 7333,
      "Break": 7334,
      "Keep": 7335,
      "Tube": 7336,
      "down": 7337,
      "doÄŁ": 7338,
      "minizi": 7339,
      "ox": 7340,
      "sÄ±nÄ±n": 7341,
      "syon": 7342,
      "Ġ%": 7343,
      "erah": 7344,
      "Ġcam": 7345,
      "enda": 7346,
      "tiren": 7347,
      "Ġtechn": 7348,
      "rep": 7349,
      "related": 7350,
      "rating": 7351,
      "memek": 7352,
      "Ġdik": 7353,
      "urun": 7354,
      "iring": 7355,
      "Ã§Ä±k": 7356,
      "ĠTreat": 7357,
      "ĠThat": 7358,
      "eting": 7359,
      "iliÄŁ": 7360,
      "Ġferah": 7361,
      "Ġgec": 7362,
      "ĠBilgi": 7363,
      "ĠSab": 7364,
      "Ġinf": 7365,
      "amam": 7366,
      "ĠiÃ§ecek": 7367,
      "liyor": 7368,
      "imiz": 7369,
      "ayÄ±p": 7370,
      "Ġisim": 7371,
      "Ġkonul": 7372,
      "Ġyapman": 7373,
      "sÄ±ndan": 7374,
      "Ġkare": 7375,
      "ĠOffer": 7376,
      "lerinizden": 7377,
      "Ġtips": 7378,
      "ĠzamanÄ±nÄ±": 7379,
      "terek": 7380,
      "Ġmanz": 7381,
      "Ġplanlayarak": 7382,
      "oms": 7383,
      "Ġsever": 7384,
      "156": 7385,
      "Ġevi": 7386,
      "Ġtrac": 7387,
      "ĠaralÄ±": 7388,
      "Ġasist": 7389,
      "ĠfotoÄŁraflar": 7390,
      "Ġbahsed": 7391,
      "ĠÃ§ekmeye": 7392,
      "ĠÃ§ektirecek": 7393,
      "ĠseÃ§melisiniz": 7394,
      "portant": 7395,
      "Ġhedefle": 7396,
      "Ġhedefiniz": 7397,
      "cited": 7398,
      "ĠÃĸnemli": 7399,
      "ĠkaygÄ±": 7400,
      "Ġdenem": 7401,
      "Ġdownload": 7402,
      "tÄ±l": 7403,
      "ĠakÄ±cÄ±": 7404,
      "ĠkurmayÄ±": 7405,
      "ĠdoÄŁrult": 7406,
      "azÄ±r": 7407,
      "ĠdÃ¼zenlemeyi": 7408,
      "ĠekranÄ±": 7409,
      "Ġilerlemeniz": 7410,
      "ĠÃ§Ä±kmak": 7411,
      "ĠsorunlarÄ±nÄ±": 7412,
      "ĠInvest": 7413,
      "Ġelsewhere": 7414,
      "Ġbeklen": 7415,
      "ĠakÅŁamÄ±": 7416,
      "Ġmentally": 7417,
      "Ġcontacts": 7418,
      "Ġgidin": 7419,
      "Ġachieving": 7420,
      "Ġyoktur": 7421,
      "Ġagenda": 7422,
      "Ġusual": 7423,
      "Ġaddress": 7424,
      "Ġunexpectedly": 7425,
      "Ä±lÄ±m": 7426,
      "Ġalabilirsiniz": 7427,
      "Ġsizinle": 7428,
      "Ġglasses": 7429,
      "ĠÃ§ekip": 7430,
      "lÄ±ÄŁÄ±n": 7431,
      "ĠHaftalÄ±k": 7432,
      "ĠyemeÄŁini": 7433,
      "...\")": 7434,
      "Ġprocrastin": 7435,
      "Ġkaba": 7436,
      "ĠgÃ¶sterir": 7437,
      "ĠkurallarÄ±": 7438,
      "ĠuyanÄ±k": 7439,
      "Ġdenemek": 7440,
      "Ġperfectly": 7441,
      "Ġexperience": 7442,
      "ĠgÃ¶rÃ¼ÅŁecek": 7443,
      "Ġminimal": 7444,
      "Ġpurch": 7445,
      "Ġdergi": 7446,
      "Ġconcent": 7447,
      "ĠgÃ¶zlemleyin": 7448,
      "ĠÃ¼zerindeki": 7449,
      "-wake": 7450,
      "Ġtablet": 7451,
      "Ġavailable": 7452,
      "Ġwindows": 7453,
      "Ġnedir": 7454,
      "ĠTVs": 7455,
      "Ġquitting": 7456,
      "Ġbeklemeyin": 7457,
      "ĠtaÅŁÄ±": 7458,
      "Ġadap": 7459,
      "Ġseems": 7460,
      "ĠeÄŁitim": 7461,
      "Ġvalued": 7462,
      "Ġkanal": 7463,
      "Ġsituation": 7464,
      "Ġbright": 7465,
      "Ġopportunities": 7466,
      "Ãĸneri": 7467,
      "Ġdikkate": 7468,
      "Ġnormal": 7469,
      "Ġstrength": 7470,
      "'un": 7471,
      "EÄŁer": 7472,
      "IM": 7473,
      "Total": 7474,
      "bah": 7475,
      "bugÃ¼n": 7476,
      "fast": 7477,
      "ham": 7478,
      "ote": 7479,
      "pect": 7480,
      "vis": 7481,
      "Ġ[": 7482,
      "ances": 7483,
      "Ġcram": 7484,
      "Ġpot": 7485,
      "ray": 7486,
      "rame": 7487,
      "elis": 7488,
      "Ġna": 7489,
      "Ġneyin": 7490,
      "ulation": 7491,
      "Ġhur": 7492,
      "Ġileri": 7493,
      "Ġdan": 7494,
      "ĠDedic": 7495,
      "Ã§alÄ±ÅŁ": 7496,
      "akt": 7497,
      "aktan": 7498,
      "ilim": 7499,
      "Ġfig": 7500,
      "Ġequ": 7501,
      "Ã¶ÄŁ": 7502,
      "izlik": 7503,
      "aber": 7504,
      "ĠiÃ§ip": 7505,
      "ahmin": 7506,
      "Ġyast": 7507,
      "ĠayÄ±rdÄ±r": 7508,
      "Ġuyar": 7509,
      "Ġonlara": 7510,
      "adaki": 7511,
      "Ġneg": 7512,
      "Ġdevice": 7513,
      "Ġkonusu": 7514,
      "Ġresult": 7515,
      "ĠkayÄ±da": 7516,
      "Ġbegins": 7517,
      "Ä±za": 7518,
      "ĠdeÄŁiÅŁir": 7519,
      "ĠdeÄŁiÅŁtirin": 7520,
      "eceÄŁim": 7521,
      "Ġsafet": 7522,
      "Ġseason": 7523,
      "Ġfeet": 7524,
      "ĠaldÄ±": 7525,
      "Ġintent": 7526,
      "144": 7527,
      "Ġbeli": 7528,
      "Ġcannot": 7529,
      "ups": 7530,
      "ĠfotoÄŁraflarÄ±": 7531,
      "anÄ±zÄ±n": 7532,
      "anÄ±zda": 7533,
      "Ġdilde": 7534,
      "ĠÃ§ekme": 7535,
      "ĠhedeflediÄŁiniz": 7536,
      "Ġoda": 7537,
      "ĠÃ§alÄ±ÅŁÄ±r": 7538,
      "Ġsaatinizi": 7539,
      "tÄ±ÄŁÄ±nÄ±": 7540,
      "ĠWhere": 7541,
      "Ġarama": 7542,
      "ĠgÃ¼c": 7543,
      "Ä±lma": 7544,
      "ĠkonuÅŁacak": 7545,
      "ĠSabahÄ±n": 7546,
      "Ġroad": 7547,
      "Ġilerleyebilirsiniz": 7548,
      "ĠtamamÄ±nÄ±": 7549,
      "Ġstresi": 7550,
      "Ġloop": 7551,
      "ansÃ¶r": 7552,
      "Ġrecip": 7553,
      "ĠmesajÄ±": 7554,
      "Ġmesajlar": 7555,
      "ĠWhatsApp": 7556,
      "layÄ±sÄ±yla": 7557,
      "Ġbeklemek": 7558,
      "Ġgiderek": 7559,
      "pty": 7560,
      "Ġhissettir": 7561,
      "ĠkiÅŁinin": 7562,
      "Ġsunar": 7563,
      "Ġearli": 7564,
      "Ġolmaktan": 7565,
      "ĠEvdeki": 7566,
      "ĠbaÅŁarÄ±larÄ±": 7567,
      "Ãĸrn": 7568,
      "Ã¼lt": 7569,
      "ĠyansÄ±": 7570,
      "ĠpaylaÅŁarak": 7571,
      "Ġendless": 7572,
      "Ġimproves": 7573,
      "ĠkatÄ±lacak": 7574,
      "ĠaÅŁmak": 7575,
      "ĠyÃ¼rÃ¼mek": 7576,
      "ĠamacÄ±": 7577,
      "Ġairports": 7578,
      "ĠbaÅŁlangÄ±c": 7579,
      "Ä±lmÄ±ÅŁtÄ±r": 7580,
      "ĠbaÅŁlarsÄ±nÄ±z": 7581,
      "Ġmoder": 7582,
      "Ġstrategy": 7583,
      "Ġassumptions": 7584,
      "ĠadÄ±na": 7585,
      "Ġparag": 7586,
      "Ġincreasing": 7587,
      "dÄ±ktan": 7588,
      "ĠdaÄŁÄ±t": 7589,
      "Ġadapt": 7590,
      "tries": 7591,
      "Ġfueled": 7592,
      "ĠseÃ§eneÄŁi": 7593,
      "Ġelectronics": 7594,
      "Ġstimulating": 7595,
      "Ġpatience": 7596,
      "Ġrefreshed": 7597,
      "Ġworried": 7598,
      "Ġflash": 7599,
      "Ġpleas": 7600,
      "ĠkÄ±sÄ±m": 7601,
      "ĠDedicate": 7602,
      "Ġsafety": 7603,
      "'li": 7604,
      "680": 7605,
      "BÃ¼yÃ¼k": 7606,
      "Ne": 7607,
      "Sabah": 7608,
      "cting": 7609,
      "eb": 7610,
      "hol": 7611,
      "meler": 7612,
      "nation": 7613,
      "rang": 7614,
      "uff": 7615,
      "van": 7616,
      "zaman": 7617,
      "Ġ/": 7618,
      "Ġaff": 7619,
      "incisi": 7620,
      "erf": 7621,
      "ering": 7622,
      "Ġsak": 7623,
      "Ġtelef": 7624,
      "Ġprefer": 7625,
      "Ġku": 7626,
      "tesi": 7627,
      "Ġhuge": 7628,
      "ĠEt": 7629,
      "orba": 7630,
      "Ġila": 7631,
      "ĠDuyg": 7632,
      "ĠDuolingo": 7633,
      "Ġwall": 7634,
      "ayÄ±r": 7635,
      "ayarak": 7636,
      "ÄŁinde": 7637,
      "ĠBen": 7638,
      "ĠSlow": 7639,
      "ĠSecond": 7640,
      "Ġinst": 7641,
      "ĠAt": 7642,
      "Ġforces": 7643,
      "ĠgÃ¼ncel": 7644,
      "Ġmotive": 7645,
      "eyle": 7646,
      "Ä°kinci": 7647,
      "ĠyapÄ±mÄ±": 7648,
      "Ġkafe": 7649,
      "Ġabroad": 7650,
      "Ġcost": 7651,
      "Ġbulur": 7652,
      "ĠkaÃ§Ä±nÄ±": 7653,
      "Ä±mda": 7654,
      "Ġanswering": 7655,
      "ĠRut": 7656,
      "Ġlink": 7657,
      "Ġsaving": 7658,
      "Ġseeing": 7659,
      "Ġseasons": 7660,
      "Ġsmo": 7661,
      "layabilir": 7662,
      "Ġartar": 7663,
      "Ġdakikadan": 7664,
      "ĠiyileÅŁ": 7665,
      "Ġbreakfast": 7666,
      "Ġnoon": 7667,
      "Ġinterfer": 7668,
      "ĠÃĸncel": 7669,
      "ĠÃ¶ÄŁrenmektir": 7670,
      "Ġwalks": 7671,
      "ĠsÃ¼resi": 7672,
      "duÄŁu": 7673,
      "zeti": 7674,
      "geÃ§": 7675,
      "Ġdurumlarda": 7676,
      "ĠsaÄŁlamak": 7677,
      "ĠWell": 7678,
      "Ġyoldan": 7679,
      "Ġmotivasyonunuzu": 7680,
      "ĠkolaydÄ±r": 7681,
      "Ġafterno": 7682,
      "ĠyÃ¶nlendir": 7683,
      "ĠgÃ¶rÃ¼": 7684,
      "Ġdiet": 7685,
      "ĠkarÅŁÄ±sÄ±nda": 7686,
      "ĠkontrolÃ¼": 7687,
      "Ġdinle": 7688,
      "ĠyÃ¶ntemle": 7689,
      "ĠortasÄ±nda": 7690,
      "Ġeasiest": 7691,
      "leÅŁtirme": 7692,
      "Ġgiden": 7693,
      "Ġenvironmental": 7694,
      "Ġhedeflerin": 7695,
      "ĠrahatÃ§a": 7696,
      "Ġkahves": 7697,
      "ĠaÃ§Ä±kÃ§a": 7698,
      "Ġbehind": 7699,
      "ĠkalkÄ±ÅŁ": 7700,
      "ĠkalkmayÄ±": 7701,
      "Ġinterruption": 7702,
      "Ġstresli": 7703,
      "bette": 7704,
      "Ġdetaylar": 7705,
      "ebiliriz": 7706,
      "ĠnoktasÄ±nÄ±": 7707,
      "Ġdiscover": 7708,
      "Ġuyumak": 7709,
      "Ġinceley": 7710,
      "Ġkelimesi": 7711,
      "ĠAlso": 7712,
      "Ġkorum": 7713,
      "ĠvÃ¼cudunu": 7714,
      "Ġagainst": 7715,
      "Ġpresence": 7716,
      "ĠgÃ¶ndermek": 7717,
      "mamÄ±ÅŁ": 7718,
      "Ġfalling": 7719,
      "ĠsevdiÄŁiniz": 7720,
      "Ġcasually": 7721,
      "ĠaltÄ±na": 7722,
      "tÄ±rabilir": 7723,
      "Ġshoes": 7724,
      "ĠaydÄ±nlÄ±k": 7725,
      "Ġmodel": 7726,
      "lanmÄ±ÅŁtÄ±r": 7727,
      "ĠkÃ¶ÅŁ": 7728,
      "ĠsÄ±rasÄ±nda": 7729,
      "olume": 7730,
      "Ġseninle": 7731,
      "ublic": 7732,
      "Ġchoice": 7733,
      "ĠtarafÄ±n": 7734,
      "Ġbelongs": 7735,
      "Ġgrows": 7736,
      "ĠÄ°ÅŁte": 7737,
      "Ġseferinde": 7738,
      "Ġempty": 7739,
      "ĠtatlÄ±": 7740,
      "ĠÃ¶nceliÄŁ": 7741,
      "Ġfrustration": 7742,
      "ĠetkileÅŁim": 7743,
      "ĠfÄ±rsatÄ±": 7744,
      "Ġphrases": 7745,
      "Ġobligation": 7746,
      "Ġalerts": 7747,
      "-steps": 7748,
      "Ġoccas": 7749,
      "Ġnoktalar": 7750,
      "Ġconcerns": 7751,
      "Ġimpulsi": 7752,
      "ĠÃĸzellikle": 7753,
      "Ġstacking": 7754,
      "Google": 7755,
      "Ġmetaboliz": 7756,
      "ĠGenellikle": 7757,
      "Ġekipman": 7758,
      "Ġsuyunu": 7759,
      "Practice": 7760,
      "Ġgems": 7761,
      "ĠTranslate": 7762,
      "ĠdoÄŁrultusunda": 7763,
      "-S": 7764,
      "51": 7765,
      "688": 7766,
      "Eisenhower": 7767,
      "Focus": 7768,
      "Yap": 7769,
      "case": 7770,
      "dak": 7771,
      "fron": 7772,
      "gn": 7773,
      "how": 7774,
      "sinde": 7775,
      "tarÄ±": 7776,
      "ndi": 7777,
      "Ġcap": 7778,
      "tinde": 7779,
      "Ġpure": 7780,
      "Ġpublic": 7781,
      "Ġbacak": 7782,
      "Ġconsoli": 7783,
      "oda": 7784,
      "Ġkart": 7785,
      "Ġneler": 7786,
      "Ġhub": 7787,
      "memiÅŁ": 7788,
      "Ġign": 7789,
      "Ġdue": 7790,
      "ĠDerin": 7791,
      "Ġwere": 7792,
      "Ġworth": 7793,
      "ĠYouTube": 7794,
      "aket": 7795,
      "Ġfa": 7796,
      "Ġfight": 7797,
      "Ġmara": 7798,
      "Ġgaps": 7799,
      "ĠeÄŁer": 7800,
      "ĠBaz": 7801,
      "ĠSort": 7802,
      "Ġinsp": 7803,
      "amik": 7804,
      "ator": 7805,
      "nded": 7806,
      "Ġmem": 7807,
      "eyim": 7808,
      "Ġveril": 7809,
      "Ġkonuyla": 7810,
      "ĠyapÄ±ÅŁtÄ±r": 7811,
      "Ġquanti": 7812,
      "ĠzamanlÄ±": 7813,
      "ikten": 7814,
      "ĠyazÄ±m": 7815,
      "Ġyazmaya": 7816,
      "Ġvac": 7817,
      "ĠHav": 7818,
      "Ġistiyorsunuz": 7819,
      "Ä±nÄ±zdan": 7820,
      "eceÄŁinizi": 7821,
      "ify": 7822,
      "layabilirsiniz": 7823,
      "ĠÅŁÄ±k": 7824,
      "Ġalloc": 7825,
      "ĠalÄ±rken": 7826,
      "eniyor": 7827,
      "ĠkaldÄ±": 7828,
      "Ġarm": 7829,
      "ĠdÃ¼zgÃ¼n": 7830,
      "242": 7831,
      "Ġyerin": 7832,
      "Ġbelirten": 7833,
      "Ġbelirleyebilirsiniz": 7834,
      "Ġokuyarak": 7835,
      "igning": 7836,
      "Ġtutmaya": 7837,
      "ĠFlights": 7838,
      "Ġsettle": 7839,
      "ĠdÃ¼zeninde": 7840,
      "ĠkullanmanÄ±z": 7841,
      "arakter": 7842,
      "Ġedil": 7843,
      "ĠÃ§alÄ±ÅŁtÄ±r": 7844,
      "kanlÄ±k": 7845,
      "Ġsuit": 7846,
      "arklÄ±": 7847,
      "Ġelinize": 7848,
      "tÄ±p": 7849,
      "Ġodaklanmaya": 7850,
      "Ġyoludur": 7851,
      "Ġgeliyor": 7852,
      "Ġhaft": 7853,
      "Ġspeed": 7854,
      "Ġfinally": 7855,
      "Ġtamamlayarak": 7856,
      "ĠgÃ¼venilir": 7857,
      "Ġdetail": 7858,
      "ĠdÃ¼ÅŁÃ¼nme": 7859,
      "ĠyapÄ±sÄ±": 7860,
      "Ġimpact": 7861,
      "Ġizleyerek": 7862,
      "Ġfixing": 7863,
      "Ġkalkmak": 7864,
      "ĠsÄ±caklÄ±ÄŁÄ±": 7865,
      "ĠUyan": 7866,
      "Ġsesini": 7867,
      "Ġmissed": 7868,
      "Ġeffortless": 7869,
      "ĠdÄ±ÅŁÄ±nda": 7870,
      "Ġvalues": 7871,
      "Ġformat": 7872,
      "ĠyÃ¼kÃ¼": 7873,
      "Ġassign": 7874,
      "Ġassigning": 7875,
      "ĠÃ§izgi": 7876,
      "ĠÃĸÄŁrenmeyi": 7877,
      "Ġsabitleyin": 7878,
      "lÄ±ÄŁa": 7879,
      "Ġlooks": 7880,
      "Ġekranlardan": 7881,
      "Ġrequirements": 7882,
      "Ġmutlu": 7883,
      "Ġinitiative": 7884,
      "Ġcausing": 7885,
      "Ġsilent": 7886,
      "memiz": 7887,
      "ĠsonuÃ§lar": 7888,
      "ĠkaynaklanÄ±r": 7889,
      "Ġsistemi": 7890,
      "Ġfrequent": 7891,
      "ĠkoÅŁu": 7892,
      "ĠbaÅŁlarsanÄ±z": 7893,
      "Ġsayfa": 7894,
      "ĠAlÄ±ÅŁkanlÄ±klar": 7895,
      "Ġtotaling": 7896,
      "ĠyarÄ±sÄ±nÄ±": 7897,
      "Ġsessizlik": 7898,
      "Ġbasket": 7899,
      "Ġsalata": 7900,
      "Ġcontinuing": 7901,
      "ĠkalÄ±p": 7902,
      "Ġmadd": 7903,
      "Ġpromise": 7904,
      "Ġfilling": 7905,
      "Ġyetene": 7906,
      "ĠdÃ¶nÃ¼ÅŁtÃ¼r": 7907,
      "Ġincelemek": 7908,
      "Ġfilm": 7909,
      "Ġbank": 7910,
      "Ġibarettir": 7911,
      "Ġeylem": 7912,
      "Ġstraight": 7913,
      "ĠfotoÄŁrafÃ§Ä±lÄ±k": 7914,
      "Ġalign": 7915,
      "Ġtencer": 7916,
      "ology": 7917,
      "Ġaccountability": 7918,
      "Ġdeleg": 7919,
      "Ġoverthinking": 7920,
      "Ġsuppresses": 7921,
      "Ġnutriti": 7922,
      "repare": 7923,
      "Ġearlier": 7924,
      "Ġafternoon": 7925,
      "Ġimpulsively": 7926,
      "front": 7927,
      "Ġconsolida": 7928,
      "-light": 7929,
      "618": 7930,
      "643": 7931,
      "76": 7932,
      "Ay": 7933,
      "KÄ±sa": 7934,
      "cÃ¼": 7935,
      "ften": 7936,
      "gum": 7937,
      "gien": 7938,
      "hare": 7939,
      "kal": 7940,
      "kur": 7941,
      "kÃ¼r": 7942,
      "lit": 7943,
      "lÄ±n": 7944,
      "nable": 7945,
      "ool": 7946,
      "orar": 7947,
      "pat": 7948,
      "ruc": 7949,
      "zor": 7950,
      "ÉĻ": 7951,
      "âĥ": 7952,
      "Ġum": 7953,
      "isy": 7954,
      "Ä±nd": 7955,
      "Ġcities": 7956,
      "tiÄŁi": 7957,
      "Ġpan": 7958,
      "ĠtÄ±k": 7959,
      "Ġbana": 7960,
      "ĠkaÅŁ": 7961,
      "Ġneye": 7962,
      "Ġhorm": 7963,
      "aris": 7964,
      "ĠdediÄŁ": 7965,
      "ÅŁek": 7966,
      "ĠYÃ¼z": 7967,
      "ayacak": 7968,
      "Ġmail": 7969,
      "ĠmÃ¼zik": 7970,
      "Ġgrup": 7971,
      "action": 7972,
      "ÄŁÄ±m": 7973,
      "ĠBunlar": 7974,
      "ĠBana": 7975,
      "ĠSw": 7976,
      "ĠSess": 7977,
      "ĠSmall": 7978,
      "izyon": 7979,
      "abl": 7980,
      "Ġstuff": 7981,
      "rid": 7982,
      "Ġsok": 7983,
      "Ġzaten": 7984,
      "arat": 7985,
      "ĠbaÅŁÄ±nÄ±": 7986,
      "Ġolumlu": 7987,
      "Ġverecek": 7988,
      "Ġkonunun": 7989,
      "ĠyapacaÄŁÄ±nÄ±z": 7990,
      "ĠOften": 7991,
      "ĠPrepare": 7992,
      "ĠÃ§ub": 7993,
      "**.Ċ": 7994,
      "ikay": 7995,
      "Ġbeginners": 7996,
      "Ġdolu": 7997,
      "Ġ(\"": 7998,
      "Ġvs": 7999,
      "Ġvict": 8000,
      "suna": 8001,
      "ĠanlamÄ±na": 8002,
      "ĠOna": 8003,
      "ĠplanlayÄ±p": 8004,
      "ĠNot": 8005,
      "eynman": 8006,
      "Ġlot": 8007,
      "ĠlÃ¼tfen": 8008,
      "Ġsays": 8009,
      "Ġrare": 8010,
      "Ġboard": 8011,
      "Ġevinizin": 8012,
      "Ġargum": 8013,
      "Ġtopra": 8014,
      "172": 8015,
      "inyal": 8016,
      "ĠdakikasÄ±": 8017,
      "ganize": 8018,
      "Ġbelirgin": 8019,
      "Ġbelirley": 8020,
      "udaki": 8021,
      "Ġliste": 8022,
      "Ġoturarak": 8023,
      "selves": 8024,
      "ĠdÃ¼zeniyle": 8025,
      "Ġinternation": 8026,
      "Ġkullanmadan": 8027,
      "Ġedilen": 8028,
      "Ã¼rekli": 8029,
      "ĠiÅŁlerini": 8030,
      "ĠodanÄ±zÄ±": 8031,
      "Ġsaatine": 8032,
      "Ġgear": 8033,
      "Ġkurma": 8034,
      "ĠolduÄŁunuzda": 8035,
      "ĠyaÅŁamak": 8036,
      "ĠgeÃ§ici": 8037,
      "ĠduruÅŁ": 8038,
      "Ġsessizce": 8039,
      "ĠgÃ¶rmek": 8040,
      "ĠtamamladÄ±ÄŁÄ±nÄ±z": 8041,
      "ĠalanlarÄ±nÄ±": 8042,
      "Ġcluttering": 8043,
      "ĠhÄ±zlandÄ±": 8044,
      "Ġdarkness": 8045,
      "Ġrecent": 8046,
      "Ġtemizlemek": 8047,
      "Ġhissetmek": 8048,
      "ĠBaÅŁlamak": 8049,
      "Ġayarla": 8050,
      "Ġhighest": 8051,
      "Ġtalep": 8052,
      "ĠaÃ§Ä±klayÄ±n": 8053,
      "luÄŁu": 8054,
      "ĠmÄ±sÄ±nÄ±z": 8055,
      "ĠgerÃ§ekleÅŁtir": 8056,
      "tikten": 8057,
      "Ġparlak": 8058,
      "Ġstresini": 8059,
      "ĠEvde": 8060,
      "Ġrutine": 8061,
      "Ġseviyede": 8062,
      "Ãĸz": 8063,
      "ĠyanÄ±nda": 8064,
      "ĠyanÄ±na": 8065,
      "Ġuyumaya": 8066,
      "Ġengage": 8067,
      "unday": 8068,
      "Ġmusunuz": 8069,
      "ĠÄ±sÄ±t": 8070,
      "Ġclosing": 8071,
      "Ġclarification": 8072,
      "ĠÃ§ekici": 8073,
      "icial": 8074,
      "ĠiÃ§erir": 8075,
      "Ġregarding": 8076,
      "Ġscheduled": 8077,
      "Ġbitirmek": 8078,
      "Ġsohbetler": 8079,
      "Ġwinnable": 8080,
      "Ġuykuyu": 8081,
      "Ġuykusuz": 8082,
      "Ġsepet": 8083,
      "ĠSizinle": 8084,
      "Ġdocument": 8085,
      "Ġkazanmak": 8086,
      "istics": 8087,
      "ĠalÄ±ÅŁtÄ±r": 8088,
      "ivid": 8089,
      "Ġhavuzu": 8090,
      "malara": 8091,
      "ĠcÃ¼mleleri": 8092,
      "ĠkÄ±salt": 8093,
      "Ġhesaplama": 8094,
      "ĠkeÅŁfetmek": 8095,
      "Ġhygien": 8096,
      "Ġpicture": 8097,
      "Ġzihni": 8098,
      "Ġzihinsel": 8099,
      "Ãĸncelikle": 8100,
      "Ġcorre": 8101,
      "Ġinvolve": 8102,
      "ĠiÅŁlev": 8103,
      "ĠeÄŁitimi": 8104,
      "ĠduygularÄ±nÄ±zÄ±": 8105,
      "Ġvaluable": 8106,
      "ĠdÃ¼ÅŁÃ¼ndÃ¼ÄŁ": 8107,
      "tÄ±racaktÄ±r": 8108,
      "Ġalert": 8109,
      "ĠÃ¶zgÃ¼": 8110,
      "-step": 8111,
      "Ġlogistics": 8112,
      "ĠsÄ±ral": 8113,
      "Ġportre": 8114,
      "Ġsenaryo": 8115,
      "Ġcomputers": 8116,
      "ĠpratiÄŁi": 8117,
      "Ġpatterns": 8118,
      "Ġtourist": 8119,
      "urgent": 8120,
      "Ġstruggle": 8121,
      "Ġtouch": 8122,
      "Ġdeliberate": 8123,
      "cribe": 8124,
      "Ġmistakes": 8125,
      "Ġfloor": 8126,
      "ï¸ıâĥ": 8127,
      "Ġtracking": 8128,
      "Ġflashcard": 8129,
      "Ġmarath": 8130,
      "Ġnutritious": 8131,
      "Ġhygiene": 8132,
      "ï¸ıâĥ£": 8133,
      "\"**": 8134,
      "'m": 8135,
      "'Ä±nda": 8136,
      "-a": 8137,
      "-ess": 8138,
      "cks": 8139,
      "io": 8140,
      "iyorsunuz": 8141,
      "tuk": 8142,
      "yl": 8143,
      "yim": 8144,
      "inct": 8145,
      "Ä±yorsunuz": 8146,
      "Ġcut": 8147,
      "ssing": 8148,
      "Ġbot": 8149,
      "Ġbay": 8150,
      "Ġbuna": 8151,
      "Ġbike": 8152,
      "ener": 8153,
      "Ġkarakter": 8154,
      "verbal": 8155,
      "Ġways": 8156,
      "dÄ±nÄ±": 8157,
      "Ġmiy": 8158,
      "ĠBy": 8159,
      "ĠayarÄ±": 8160,
      "Ġstory": 8161,
      "ĠAk": 8162,
      "important": 8163,
      "Ġyours": 8164,
      "ĠGreat": 8165,
      "ĠadÄ±mdan": 8166,
      "Ġforg": 8167,
      "lamasÄ±": 8168,
      "Ġvere": 8169,
      "Ġverme": 8170,
      "ĠverdiÄŁiniz": 8171,
      "lerinden": 8172,
      "Ġcondi": 8173,
      "Ġvari": 8174,
      "ĠHang": 8175,
      "Ġseek": 8176,
      "ĠDenizle": 8177,
      "ondan": 8178,
      "Ġhass": 8179,
      "ĠÅŁunu": 8180,
      "Ġkalab": 8181,
      "Ġkalkarak": 8182,
      "Ã¼yÃ¼": 8183,
      "146": 8184,
      "ĠasansÃ¶r": 8185,
      "ĠeÅŁit": 8186,
      "246": 8187,
      "ĠdakikasÄ±nÄ±": 8188,
      "Ġexha": 8189,
      "Ġbelirlen": 8190,
      "Ġbelirsiz": 8191,
      "ĠfotoÄŁrafÄ±nÄ±": 8192,
      "ĠbaÅŁlayacak": 8193,
      "Ġtutar": 8194,
      "ĠbahÃ§enin": 8195,
      "ĠkullandÄ±ÄŁÄ±nÄ±z": 8196,
      "ording": 8197,
      "ĠkullanÄ±p": 8198,
      "Ġhedefini": 8199,
      "Ġfront": 8200,
      "andÄ±": 8201,
      "ĠpiÅŁirin": 8202,
      "Ġodada": 8203,
      "mited": 8204,
      "ĠkaydÄ±r": 8205,
      "roup": 8206,
      "tÄ±ÄŁÄ±": 8207,
      "Ġpoor": 8208,
      "Ġyolunu": 8209,
      "ĠakÄ±l": 8210,
      "Ġdurmak": 8211,
      "Ġerk": 8212,
      "Ġopening": 8213,
      "ĠÃ§Ä±kan": 8214,
      "Ġsorarak": 8215,
      "Ġalanlarda": 8216,
      "ĠdeÄŁilse": 8217,
      "ĠsorunlarÄ±nÄ±z": 8218,
      "ĠdÃ¼ÅŁÃ¼nÃ¼": 8219,
      "Ġkapak": 8220,
      "ĠsÄ±vÄ±": 8221,
      "ĠnetleÅŁtir": 8222,
      "Ġhareketlerle": 8223,
      "diÄŁinizde": 8224,
      "ĠbakÄ±m": 8225,
      "Ġhissetme": 8226,
      "ĠkiÅŁiler": 8227,
      "ĠayardÄ±": 8228,
      "Ġbudgeting": 8229,
      "ĠsÄ±kÃ§a": 8230,
      "ĠadÄ±mlarÄ±nÄ±zÄ±": 8231,
      "?\",": 8232,
      "Ġleaves": 8233,
      "Ġsesi": 8234,
      "meyecek": 8235,
      "ĠEvinizin": 8236,
      "Ġseviyeniz": 8237,
      "ĠRespect": 8238,
      "Ġifadeler": 8239,
      "Ġedebilir": 8240,
      "Ġsoruya": 8241,
      "Ġcurrently": 8242,
      "ĠaraÃ§larÄ±nÄ±": 8243,
      "Ġreviews": 8244,
      "Ġvisualize": 8245,
      "Ġolmasa": 8246,
      "Ġattack": 8247,
      "Ġdesignate": 8248,
      "ĠÃ§Ä±karÄ±n": 8249,
      "Ġinviting": 8250,
      "ĠkarmaÅŁ": 8251,
      "Ġrefer": 8252,
      "Ġhavuzun": 8253,
      "Ġverirken": 8254,
      "Ġjudging": 8255,
      "Ġbaggage": 8256,
      "Ġgerektiren": 8257,
      "ĠSleeping": 8258,
      "Ġalternatif": 8259,
      "ĠClean": 8260,
      "ĠkolaylaÅŁÄ±r": 8261,
      "yapÄ±": 8262,
      "Ġchallenge": 8263,
      "tiÅŁime": 8264,
      "Ġexclus": 8265,
      "ĠhatÄ±rlatÄ±n": 8266,
      "Ġtaze": 8267,
      "Ġsounds": 8268,
      "Ġilham": 8269,
      "Ġlayover": 8270,
      "Ġpatient": 8271,
      "Ġsituations": 8272,
      "Ġpreparing": 8273,
      "ĠExpress": 8274,
      "Ġpilav": 8275,
      "Ġkonularda": 8276,
      "Ġrelease": 8277,
      "Ġtuvalet": 8278,
      "Ġconflicts": 8279,
      "Ġsatisfying": 8280,
      "Ġsunuyorum": 8281,
      "ĠAÅŁaÄŁÄ±": 8282,
      "Ġtelev": 8283,
      "Ġbelirtirseniz": 8284,
      "Ġterms": 8285,
      "Ġobserv": 8286,
      "ĠanlÄ±yorum": 8287,
      "Ġdishes": 8288,
      "Ġezber": 8289,
      "Ġexplore": 8290,
      "Ġorigin": 8291,
      "Ġdilerim": 8292,
      "ĠbardaÄŁÄ±": 8293,
      "Ġmanzara": 8294,
      "Ġconcentration": 8295,
      "Ġoccasion": 8296,
      "ĠBazen": 8297,
      "Ġquantity": 8298,
      "Ġexclusively": 8299,
      "\".": 8300,
      "72": 8301,
      "95": 8302,
      "Pick": 8303,
      "aise": 8304,
      "cal": 8305,
      "fic": 8306,
      "fotoÄŁraf": 8307,
      "habit": 8308,
      "put": 8309,
      "ute": 8310,
      "istik": 8311,
      "Ġpant": 8312,
      "Ġpsik": 8313,
      "Ġski": 8314,
      "Ġsind": 8315,
      "Ġsinyal": 8316,
      "Ġpraise": 8317,
      "Ġbildir": 8318,
      "ene": 8319,
      "rat": 8320,
      "Ġkok": 8321,
      "Ġhop": 8322,
      "Ġhitap": 8323,
      "ĠhÃ¢": 8324,
      "ĠEff": 8325,
      "Ġdam": 8326,
      "Ġdynam": 8327,
      "urther": 8328,
      "irs": 8329,
      "ĠDÃ¼ÅŁÃ¼n": 8330,
      "ĠTurn": 8331,
      "ĠDoÄŁ": 8332,
      "Ġtoile": 8333,
      "Ġfly": 8334,
      "Ġfakt": 8335,
      "Ġfurther": 8336,
      "Ġora": 8337,
      "ĠBilg": 8338,
      "ĠSay": 8339,
      "ĠSÄ±nÄ±r": 8340,
      "izin": 8341,
      "ither": 8342,
      "Ġinner": 8343,
      "Ġstreak": 8344,
      "lanma": 8345,
      "ĠAM": 8346,
      "Ġanah": 8347,
      "Ġformed": 8348,
      "aÅŁÄ±r": 8349,
      "ĠbaÅŁlÄ±ÄŁÄ±": 8350,
      "ĠMix": 8351,
      "lamalar": 8352,
      "Ġuyul": 8353,
      "Ġuyurken": 8354,
      "ĠonlarÄ±": 8355,
      "Ġissue": 8356,
      "Ġverebilirim": 8357,
      "ĠyapmayÄ±n": 8358,
      "ĠÃ¶neriniz": 8359,
      "ĠÃ¶nerebilirim": 8360,
      "Ġresear": 8361,
      "lerseniz": 8362,
      "Ġcold": 8363,
      "ĠPhotoshop": 8364,
      "ĠÃ§aÄŁ": 8365,
      "ĠÃ§ocuk": 8366,
      "ĠBuy": 8367,
      "ĠdolaÅŁ": 8368,
      "Ġleg": 8369,
      "Ġvolume": 8370,
      "Ġspoken": 8371,
      "Ġbypass": 8372,
      "eceÄŁini": 8373,
      "Ġsav": 8374,
      "deep": 8375,
      "layalÄ±m": 8376,
      "154": 8377,
      "ĠÃ¶ÄŁlen": 8378,
      "Ġtrue": 8379,
      "Ġtrains": 8380,
      "lÄ±klÄ±": 8381,
      "Ġarise": 8382,
      "174": 8383,
      "ardaki": 8384,
      "243": 8385,
      "ĠLondra": 8386,
      "Ġyerler": 8387,
      "ĠiyileÅŁtir": 8388,
      "Ġsorusu": 8389,
      "Ġdilinizi": 8390,
      "ĠtoplamÄ±": 8391,
      "193": 8392,
      "ĠÃ§ekmeyi": 8393,
      "unuzla": 8394,
      "Ġupfront": 8395,
      "Ġunrelated": 8396,
      "Ġhedefleyerek": 8397,
      "ĠalÄ±m": 8398,
      "ĠÃ§alÄ±ÅŁmayÄ±n": 8399,
      "why": 8400,
      "ĠBirincisi": 8401,
      "clear": 8402,
      "Ġanywhere": 8403,
      "Ġdeepen": 8404,
      "Ġlamba": 8405,
      "Ġkurs": 8406,
      "Ġhearing": 8407,
      "manÄ±zdÄ±r": 8408,
      "Ġspeech": 8409,
      "ĠdÃ¼zenlem": 8410,
      "Ġekra": 8411,
      "kinlik": 8412,
      "ĠThey": 8413,
      "Ġdistracting": 8414,
      "ĠÃ§Ä±kÄ±ÅŁ": 8415,
      "ĠalanÄ±nÄ±za": 8416,
      "Ġlighting": 8417,
      "Ġdetour": 8418,
      "ĠdÃ¼ÅŁÃ¼nÃ¼r": 8419,
      "Ġconnecting": 8420,
      "Ġboyu": 8421,
      "weight": 8422,
      "ĠgÃ¶zlerinizi": 8423,
      "ĠmesajlaÅŁma": 8424,
      "ditionally": 8425,
      "ensive": 8426,
      "ĠbÄ±rakmayÄ±n": 8427,
      "Ġstressed": 8428,
      "Ġbilgilerin": 8429,
      "ukarÄ±": 8430,
      "Ġhedeflerinize": 8431,
      "Ġthoughtful": 8432,
      "ĠgÃ¶revlerin": 8433,
      "ĠsÄ±kÄ±": 8434,
      "Ġsupporting": 8435,
      "ĠaÃ§Ä±klama": 8436,
      "Ġaggre": 8437,
      "Ġmisin": 8438,
      "Ġefforts": 8439,
      "Ġlimited": 8440,
      "Ġyorul": 8441,
      "ĠÃĸÄŁle": 8442,
      "Ġpencer": 8443,
      "Ġrealis": 8444,
      "ĠgeÃ§irmeye": 8445,
      "ĠAdditionally": 8446,
      "Ġkoruyarak": 8447,
      "Ġoturun": 8448,
      "ĠvÃ¼cudunuzu": 8449,
      "ĠvÃ¼cudunuza": 8450,
      "ĠkazandÄ±r": 8451,
      "Ġazaltarak": 8452,
      "dÄ±ÄŁÄ±m": 8453,
      "ĠgÃ¶rÃ¼nÃ¼m": 8454,
      "ĠkolaylaÅŁtÄ±rÄ±n": 8455,
      "Ġpasses": 8456,
      "Ġcarri": 8457,
      "ĠseÃ§enektir": 8458,
      "ĠkalanlarÄ±": 8459,
      "ĠsÃ¼recin": 8460,
      "Ġcontainer": 8461,
      "Ġkaydedip": 8462,
      "ĠkiÅŁiyi": 8463,
      "Ġgetirir": 8464,
      "Ġgetirmek": 8465,
      "tirebilir": 8466,
      "beti": 8467,
      "ĠfÄ±rÄ±n": 8468,
      "Ġinvit": 8469,
      "Ġtekniklerini": 8470,
      "ĠSÃ¼reÃ§": 8471,
      "Ġcountertop": 8472,
      "Ġcircle": 8473,
      "Ġdefterine": 8474,
      "ĠanlaÅŁÄ±l": 8475,
      "Ġbags": 8476,
      "ĠtanÄ±mlayÄ±n": 8477,
      "ĠAlÄ±ÅŁkanlÄ±klarÄ±": 8478,
      "ĠsÄ±rayla": 8479,
      "Ġplatforms": 8480,
      "ĠSÄ±radan": 8481,
      "ĠtarafÄ±ndan": 8482,
      "ĠkarÄ±ÅŁtÄ±r": 8483,
      "ĠyolculuÄŁ": 8484,
      "Ġbarriers": 8485,
      "Ġbitire": 8486,
      "Ġkaydetmek": 8487,
      "ĠiliÅŁki": 8488,
      "Ġcolle": 8489,
      "Ġchallenging": 8490,
      "Ġheading": 8491,
      "Ġtatmin": 8492,
      "Ġtonunu": 8493,
      "box": 8494,
      "ĠuÃ§ak": 8495,
      "Ġgeneral": 8496,
      "ĠHÄ±zlÄ±ca": 8497,
      "gencies": 8498,
      "ĠÃ§eviri": 8499,
      "mayacak": 8500,
      "Ġyiyecek": 8501,
      "Ġemergencies": 8502,
      "ĠbazÄ±": 8503,
      "Ġaccusations": 8504,
      "ĠbunlarÄ±n": 8505,
      "ĠilginÃ§": 8506,
      "Ġlayers": 8507,
      "Ġprovide": 8508,
      "Ġhydration": 8509,
      "ĠÃ¼ret": 8510,
      "Ġocc": 8511,
      "Ġbeceriler": 8512,
      "olojik": 8513,
      "ĠplanlÄ±yor": 8514,
      "ĠkavramlarÄ±": 8515,
      "ĠÄ°lgili": 8516,
      "leÅŁtirici": 8517,
      "Ġoyun": 8518,
      "Ġpausing": 8519,
      "ĠgeldiÄŁinde": 8520,
      "Ġmaximize": 8521,
      "Ġencourages": 8522,
      "Ġdosy": 8523,
      "Ġyuvar": 8524,
      "Ġsprints": 8525,
      "Ġunfamiliar": 8526,
      "Ġtechnology": 8527,
      "Ġname": 8528,
      "Ġsmooth": 8529,
      "Ġflashcards": 8530,
      "-essential": 8531,
      "ĠEffective": 8532,
      "Ġresearching": 8533,
      "Ġaggreg": 8534,
      "-O": 8535,
      "645": 8536,
      "DoÄŁ": 8537,
      "Kendi": 8538,
      "NasÄ±l": 8539,
      "The": 8540,
      "esap": 8541,
      "gÃ¼": 8542,
      "igh": 8543,
      "iren": 8544,
      "iyorsanÄ±z": 8545,
      "kys": 8546,
      "yken": 8547,
      "Ġaile": 8548,
      "isan": 8549,
      "tiÄŁini": 8550,
      "Ġpace": 8551,
      "Ġpages": 8552,
      "Ġside": 8553,
      "ĠsÄ±nav": 8554,
      "Ġprim": 8555,
      "ouble": 8556,
      "ala": 8557,
      "tecek": 8558,
      "ulu": 8559,
      "used": 8560,
      "ĠEÄŁ": 8561,
      "Ġdistant": 8562,
      "urb": 8563,
      "uru": 8564,
      "ĠYÃ¼r": 8565,
      "ĠDolayÄ±sÄ±yla": 8566,
      "Ġfi": 8567,
      "Ġfirm": 8568,
      "Ġfamiliar": 8569,
      "Ġthrow": 8570,
      "Ġgue": 8571,
      "ÄŁÄ±nÄ±n": 8572,
      "ĠSÃ¶z": 8573,
      "ĠSkys": 8574,
      "ized": 8575,
      "Ġinvite": 8576,
      "amaz": 8577,
      "ĠÃ¶v": 8578,
      "Ã¼nÃ¼n": 8579,
      "ĠanlarÄ±": 8580,
      "ĠayÄ±rda": 8581,
      "ĠkÄ±la": 8582,
      "ĠGroup": 8583,
      "ĠadÄ±mlÄ±": 8584,
      "ĠMÃ¼": 8585,
      "Ã¼ksek": 8586,
      "Ġyapan": 8587,
      "Ġyapabilir": 8588,
      "Ġresour": 8589,
      "Ġrested": 8590,
      "ĠÃ¶neriyle": 8591,
      "Ġcop": 8592,
      "ĠÃ§ant": 8593,
      "ĠÃ§alÄ±": 8594,
      "ĠzamanÄ±nÄ±z": 8595,
      "ĠnumarasÄ±nÄ±z": 8596,
      "think": 8597,
      "ĠayÄ±nÄ±n": 8598,
      "ĠkayÄ±tlarda": 8599,
      "Ġbeginning": 8600,
      "Ġris": 8601,
      "Ġjok": 8602,
      "Ġjob": 8603,
      "Ġacqu": 8604,
      "Ġplanlar": 8605,
      "Ġspir": 8606,
      "Ġsplit": 8607,
      "Ġsmart": 8608,
      "ĠÅŁabl": 8609,
      "Ġkalacak": 8610,
      "Ġkalmaya": 8611,
      "ĠÃĸzet": 8612,
      "Ġsona": 8613,
      "Ġbeden": 8614,
      "245": 8615,
      "raffic": 8616,
      "Ġbelirti": 8617,
      "Ġiyidir": 8618,
      "Ġsorusuna": 8619,
      "195": 8620,
      "Ġetmeyin": 8621,
      "Ġkendisini": 8622,
      "ĠseÃ§erken": 8623,
      "ĠFeynman": 8624,
      "Ġuns": 8625,
      "ĠkullanÄ±cÄ±": 8626,
      "ĠkullanÄ±rken": 8627,
      "Ġthemselves": 8628,
      "Ġediyor": 8629,
      "Ġedersiniz": 8630,
      "ĠiÅŁini": 8631,
      "ĠiÅŁlerin": 8632,
      "ĠgÃ¶rece": 8633,
      "what": 8634,
      "ĠsÃ¼reyle": 8635,
      "ĠWa": 8636,
      "ĠkuralÄ±": 8637,
      "Ġride": 8638,
      "ĠgÃ¼lÃ¼m": 8639,
      "Ġgereksin": 8640,
      "Ġreplying": 8641,
      "ĠSabahÄ±": 8642,
      "Ġtelefonu": 8643,
      "Ġoption": 8644,
      "Ġfinan": 8645,
      "ĠbÃ¶lÃ¼": 8646,
      "Ġpeace": 8647,
      "ĠdÃ¼ÅŁÃ¼nelim": 8648,
      "Ġfinishes": 8649,
      "ĠyarÄ±m": 8650,
      "Ġuzman": 8651,
      "ĠoluÅŁturup": 8652,
      "Ġortalama": 8653,
      "ĠyataÄŁa": 8654,
      "Ġdisag": 8655,
      "Ġfollows": 8656,
      "landÄ±rm": 8657,
      "Ã¼cad": 8658,
      "Ġstressful": 8659,
      "Ġizleyebilirsiniz": 8660,
      "ĠayarlayÄ±p": 8661,
      "ĠrahatsÄ±z": 8662,
      "Ġhafiflet": 8663,
      "ĠsÄ±kÄ±ÅŁ": 8664,
      "Ġspeaks": 8665,
      "ĠdÃ¶kÃ¼": 8666,
      "dÄ±ÄŁÄ±nÄ±zdan": 8667,
      "ĠbulunmaktadÄ±r": 8668,
      "ĠÅŀehir": 8669,
      "ĠsaÄŁlayabilirsiniz": 8670,
      "Ġkoyup": 8671,
      "Ġkelimesini": 8672,
      "Ġrequiring": 8673,
      "-traffic": 8674,
      "Ġendor": 8675,
      "ĠeÄŁit": 8676,
      "ĠseÃ§enekleri": 8677,
      "Ġmutluluk": 8678,
      "Ġtracker": 8679,
      "ĠyaklaÅŁÄ±k": 8680,
      "ĠgÃ¶steren": 8681,
      "Ġkaydederek": 8682,
      "Ã¼sÃ¼nÃ¼": 8683,
      "ĠKonuyu": 8684,
      "ĠÃ§evren": 8685,
      "Ġengagement": 8686,
      "Ġbenim": 8687,
      "ĠsaÄŁlayacaktÄ±r": 8688,
      "ĠSÄ±fÄ±r": 8689,
      "Ġreminder": 8690,
      "Ġkaybetmeden": 8691,
      "Ġchoices": 8692,
      "ĠrahatlatÄ±cÄ±": 8693,
      "ĠElbette": 8694,
      "Ġservice": 8695,
      "Ġmiddle": 8696,
      "Ġbeceri": 8697,
      "ĠsÃ¶ylemek": 8698,
      "Ġseferde": 8699,
      "Ã¼stÃ¼": 8700,
      "Ġempat": 8701,
      "liÄŁinde": 8702,
      "ĠbaÅŁlÄ±yorsanÄ±z": 8703,
      "Ġbilimsel": 8704,
      "Ġsebzeleri": 8705,
      "Ġlisteleyin": 8706,
      "ĠkullanÄ±mÄ±nÄ±": 8707,
      "Ġkenar": 8708,
      "ĠMayayla": 8709,
      "ĠolacaÄŁÄ±nÄ±": 8710,
      "imdilik": 8711,
      "Ġhydrated": 8712,
      "Ġinterested": 8713,
      "ĠHaftada": 8714,
      "Ġobjects": 8715,
      "Ġexpanding": 8716,
      "Ġjoining": 8717,
      "canner": 8718,
      "Ġdelayed": 8719,
      "ĠÄ°stediÄŁiniz": 8720,
      "ĠiliÅŁkiler": 8721,
      "Ġtakvim": 8722,
      "ĠYemek": 8723,
      "ĠÃ§Ä±kara": 8724,
      "Ġappreciation": 8725,
      "ĠuyanÄ±nca": 8726,
      "Ġcheap": 8727,
      "ĠBilgiyi": 8728,
      "Ġseveral": 8729,
      "elisiniz": 8730,
      "Ġmodern": 8731,
      "Ġkahvesini": 8732,
      "Ġsuitcase": 8733,
      "ĠSwitch": 8734,
      "Ġrarely": 8735,
      "Ġcorrect": 8736,
      "Ġforgot": 8737,
      "Ġerkenden": 8738,
      "Ġoriginal": 8739,
      "Ġsindirim": 8740,
      "Ġrealistically": 8741,
      "Ġoccur": 8742,
      "Ġprimary": 8743,
      "ĠSkyscanner": 8744,
      "'y": 8745,
      "-go": 8746,
      "-verbal": 8747,
      "Take": 8748,
      "Uy": 8749,
      "aj": 8750,
      "asa": 8751,
      "best": 8752,
      "bÃ¼yÃ¼k": 8753,
      "digital": 8754,
      "fix": 8755,
      "kyÃ¼z": 8756,
      "orate": 8757,
      "uya": 8758,
      "Ġaud": 8759,
      "Ä±yla": 8760,
      "any": 8761,
      "Ġpage": 8762,
      "Ġserv": 8763,
      "ante": 8764,
      "ĠkÃ¼Ã§": 8765,
      "Ġkomp": 8766,
      "ĠkaÅŁÄ±k": 8767,
      "Ġhaber": 8768,
      "ĠEyl": 8769,
      "orb": 8770,
      "Ġyed": 8771,
      "arÄ±m": 8772,
      "arsanÄ±z": 8773,
      "ÅŁa": 8774,
      "Ã§ok": 8775,
      "ĠTwo": 8776,
      "temel": 8777,
      "Ġfam": 8778,
      "Ġfare": 8779,
      "lations": 8780,
      "Ġthir": 8781,
      "Ġmass": 8782,
      "Ġgev": 8783,
      "ĠBlock": 8784,
      "ĠSan": 8785,
      "ĠSes": 8786,
      "amÄ±yorum": 8787,
      "lanÄ±n": 8788,
      "lanabilir": 8789,
      "lanmasÄ±": 8790,
      "ĠAra": 8791,
      "rik": 8792,
      "Ġbeyin": 8793,
      "Ġadim": 8794,
      "kiÅŁ": 8795,
      "ĠyaÅŁÄ±": 8796,
      "ĠayÄ±rmak": 8797,
      "nerek": 8798,
      "ĠbaÅŁÄ±ndan": 8799,
      "ĠiletiÅŁime": 8800,
      "ĠdayalÄ±": 8801,
      "ekkÃ¼r": 8802,
      "Ġnem": 8803,
      "ĠÄ°z": 8804,
      "Ġdemektir": 8805,
      "Ġkonudaki": 8806,
      "ĠyapacaÄŁÄ±nÄ±zÄ±": 8807,
      "medik": 8808,
      "ĠOr": 8809,
      "lerek": 8810,
      "lerinin": 8811,
      "lerinizin": 8812,
      "lerinizle": 8813,
      "Ġuygula": 8814,
      "ĠzamanÄ±nda": 8815,
      "Ġente": 8816,
      "ĠnumaranÄ±zÄ±": 8817,
      "Ġrisk": 8818,
      "Ġvur": 8819,
      "omb": 8820,
      "ĠalgÄ±": 8821,
      "ĠÃ¶ÄŁret": 8822,
      "velop": 8823,
      "yeti": 8824,
      "mediÄŁi": 8825,
      "Ġworld": 8826,
      "Ġoversp": 8827,
      "ĠVerilen": 8828,
      "ĠbaÅŁlayabileceÄŁiniz": 8829,
      "anÄ±zdaki": 8830,
      "Ġkendisi": 8831,
      "Ġedelim": 8832,
      "Ġedici": 8833,
      "ĠiÅŁten": 8834,
      "Ġkayg": 8835,
      "Ġanyone": 8836,
      "ĠodaklanmaktÄ±r": 8837,
      "Ġkursu": 8838,
      "Ġkursuna": 8839,
      "Ġheart": 8840,
      "ĠgÃ¼veni": 8841,
      "Ġdurup": 8842,
      "bileceÄŁini": 8843,
      "Ġdistinct": 8844,
      "ĠdÃ¼zenle": 8845,
      "Ġekle": 8846,
      "ĠgÃ¶rÃ¼r": 8847,
      "Ġburning": 8848,
      "uza": 8849,
      "Ġlaugh": 8850,
      "ĠbÃ¶lerek": 8851,
      "lenebilir": 8852,
      "Ġapply": 8853,
      "Ġlightweight": 8854,
      "ĠtÃ¼rÃ¼ne": 8855,
      "ĠdÃ¼ÅŁÃ¼nceler": 8856,
      "Ġwanting": 8857,
      "Ġuygulamak": 8858,
      "Ġdinleme": 8859,
      "Ġdinamik": 8860,
      "ĠSonraki": 8861,
      "ĠyapÄ±yÄ±": 8862,
      "Ġboyut": 8863,
      "Ġmoves": 8864,
      "Ġbrisk": 8865,
      "Ġhissetmeniz": 8866,
      "Ġdefa": 8867,
      "Ġsaatlerine": 8868,
      "ĠÄ±ÅŁÄ±klarÄ±": 8869,
      "543": 8870,
      "ĠÃĩev": 8871,
      "Åŀu": 8872,
      "Ġdurak": 8873,
      "ĠkalktÄ±ktan": 8874,
      "ĠbaÅŁarÄ±lÄ±": 8875,
      "ĠbaÅŁarÄ±sÄ±z": 8876,
      "Ġseviyes": 8877,
      "Ġsurpr": 8878,
      "Ġdriven": 8879,
      "Ã¼nÃ¼zÃ¼n": 8880,
      "Ã¼nÃ¼zde": 8881,
      "Ġobj": 8882,
      "ĠdeÄŁerini": 8883,
      "Ġdikkatle": 8884,
      "ĠÃ§ekimi": 8885,
      "Ġmaterials": 8886,
      "ĠyavaÅŁlat": 8887,
      "ĠhatÄ±rlayÄ±n": 8888,
      "Ġanlatmak": 8889,
      "ĠihtiyacÄ±nÄ±": 8890,
      "Ġsohbeti": 8891,
      "ĠihtiyaÃ§larÄ±nÄ±zÄ±": 8892,
      "Ġcycles": 8893,
      "Ġminor": 8894,
      "Ġamac": 8895,
      "Ġindivid": 8896,
      "Ġuyanma": 8897,
      "Ġreplacement": 8898,
      "ĠiÅŁlemleri": 8899,
      "Ġuykudan": 8900,
      "Ġcloud": 8901,
      "Ġkutunun": 8902,
      "ĠkazanÄ±r": 8903,
      "ĠbelirtildiÄŁi": 8904,
      "Ġhavuzda": 8905,
      "Ġtemporar": 8906,
      "Ġbilgilerle": 8907,
      "ĠÃĸnerim": 8908,
      "ĠaÅŁaÄŁÄ±da": 8909,
      "ĠyarÄ±sÄ±": 8910,
      "Ġokuyacak": 8911,
      "Ġsalat": 8912,
      "ĠElinizde": 8913,
      "Ġuygulayabilirsiniz": 8914,
      "Ġpath": 8915,
      "Ġguilty": 8916,
      "Ġstanding": 8917,
      "Ġharcamak": 8918,
      "Ġpromote": 8919,
      "Ġspontaneity": 8920,
      "ĠdavranÄ±ÅŁÄ±": 8921,
      "liÄŁine": 8922,
      "Ġcharger": 8923,
      "Ġsparked": 8924,
      "ĠyÃ¶netmek": 8925,
      "ĠmantÄ±klÄ±sÄ±": 8926,
      "Ġrelationships": 8927,
      "ĠyorgunluÄŁu": 8928,
      "Ġsounding": 8929,
      "Ġbany": 8930,
      "Ġdoldurun": 8931,
      "Ġopinions": 8932,
      "ĠnoktalarÄ±": 8933,
      "Ġbeyne": 8934,
      "Ġgerektirir": 8935,
      "Ġstructured": 8936,
      "dikten": 8937,
      "oloji": 8938,
      "Ġgame": 8939,
      "ĠbeÄŁend": 8940,
      "ĠyaÅŁadÄ±ÄŁÄ±nÄ±z": 8941,
      "Ġtavsiyeler": 8942,
      "Ġreservation": 8943,
      "Ġreservations": 8944,
      "Ġcompliments": 8945,
      "Ġkurtul": 8946,
      "Soru": 8947,
      "ognitive": 8948,
      "Ġefficiently": 8949,
      "Ġsustainable": 8950,
      "Ġfelt": 8951,
      "ĠdanÄ±ÅŁ": 8952,
      "Ġnegative": 8953,
      "ĠRutin": 8954,
      "Ġinvolved": 8955,
      "Ġmarathon": 8956,
      "Ġtelevizyon": 8957,
      "Ġpantry": 8958,
      "ĠfaktÃ¶r": 8959,
      "Ġdetours": 8960,
      "Ġsmoothly": 8961,
      "-Out": 8962,
      "Ġempathy": 8963,
      "Ġforgotten": 8964,
      "ĠEylÃ¼l": 8965,
      "Ġmassive": 8966,
      "\").Ċ": 8967,
      "-at": 8968,
      "-val": 8969,
      "-In": 8970,
      "644": 8971,
      "642": 8972,
      ">Ċ": 8973,
      "Duy": 8974,
      "Make": 8975,
      "Son": 8976,
      "Th": 8977,
      "Verilen": 8978,
      "Yani": 8979,
      "aur": 8980,
      "don": 8981,
      "dum": 8982,
      "dim": 8983,
      "ealing": 8984,
      "focus": 8985,
      "hazÄ±r": 8986,
      "kisini": 8987,
      "mark": 8988,
      "neden": 8989,
      "plan": 8990,
      "pro": 8991,
      "sually": 8992,
      "tiniz": 8993,
      "tren": 8994,
      "tÄ±k": 8995,
      "tuÄŁu": 8996,
      "uÃ§": 8997,
      "xting": 8998,
      "isinin": 8999,
      "ndÃ¼r": 9000,
      "inc": 9001,
      "inle": 9002,
      "Ä±ra": 9003,
      "anlÄ±": 9004,
      "Ġcell": 9005,
      "Ġclim": 9006,
      "Ġcognitive": 9007,
      "Ġpitch": 9008,
      "Ġsel": 9009,
      "reset": 9010,
[...]
