{
  "version": "1.0",
  "truncation": null,
  "padding": null,
  "added_tokens": [
    {
      "id": 0,
      "content": "<unk>",
      "single_word": false,
      "lstrip": false,
      "rstrip": false,
      "normalized": false,
      "special": true
    },
    {
      "id": 1,
      "content": "<s>",
      "single_word": false,
      "lstrip": false,
      "rstrip": false,
      "normalized": false,
      "special": true
    },
    {
      "id": 2,
      "content": "</s>",
      "single_word": false,
      "lstrip": false,
      "rstrip": false,
      "normalized": false,
      "special": true
    },
    {
      "id": 3,
      "content": "<pad>",
      "single_word": false,
      "lstrip": false,
      "rstrip": false,
      "normalized": false,
      "special": true
    },
    {
      "id": 4,
      "content": "<|system|>",
      "single_word": false,
      "lstrip": false,
      "rstrip": false,
      "normalized": false,
      "special": true
    },
    {
      "id": 5,
      "content": "<|user|>",
      "single_word": false,
      "lstrip": false,
      "rstrip": false,
      "normalized": false,
      "special": true
    },
    {
      "id": 6,
      "content": "<|assistant|>",
      "single_word": false,
      "lstrip": false,
      "rstrip": false,
      "normalized": false,
      "special": true
    },
    {
      "id": 7,
      "content": "<|end|>",
      "single_word": false,
      "lstrip": false,
      "rstrip": false,
      "normalized": false,
      "special": true
    },
    {
      "id": 8,
      "content": "<|code|>",
      "single_word": false,
      "lstrip": false,
      "rstrip": false,
      "normalized": false,
      "special": true
    }
  ],
  "normalizer": null,
  "pre_tokenizer": {
    "type": "Sequence",
    "pretokenizers": [
      {
        "type": "Split",
        "pattern": {
          "Regex": "'(?i:[sdmt]|ll|ve|re)|[^\\r\\n\\p{L}\\p{N}]?+\\p{L}++|\\p{N}{1,3}+| ?[^\\s\\p{L}\\p{N}]++[\\r\\n]*+|\\s*[\\r\\n]|\\s+(?!\\S)|\\s+"
        },
        "behavior": "Isolated",
        "invert": false
      },
      {
        "type": "ByteLevel",
        "add_prefix_space": false,
        "trim_offsets": true,
        "use_regex": false
      }
    ]
  },
  "post_processor": {
    "type": "ByteLevel",
    "add_prefix_space": true,
    "trim_offsets": false,
    "use_regex": true
  },
  "decoder": {
    "type": "ByteLevel",
    "add_prefix_space": true,
    "trim_offsets": true,
    "use_regex": true
  },
  "model": {
    "type": "BPE",
    "dropout": null,
    "unk_token": "<unk>",
    "continuing_subword_prefix": null,
    "end_of_word_suffix": null,
    "fuse_unk": false,
    "byte_fallback": false,
    "ignore_merges": false,
    "vocab": {
      "<unk>": 0,
      "<s>": 1,
      "</s>": 2,
      "<pad>": 3,
      "<|system|>": 4,
      "<|user|>": 5,
      "<|assistant|>": 6,
      "<|end|>": 7,
      "<|code|>": 8,
      "!": 9,
      "\"": 10,
      "#": 11,
      "$": 12,
      "%": 13,
      "&": 14,
      "'": 15,
      "(": 16,
      ")": 17,
      "*": 18,
      "+": 19,
      ",": 20,
      "-": 21,
      ".": 22,
      "/": 23,
      "0": 24,
      "1": 25,
      "2": 26,
      "3": 27,
      "4": 28,
      "5": 29,
      "6": 30,
      "7": 31,
      "8": 32,
      "9": 33,
      ":": 34,
      ";": 35,
      "<": 36,
      "=": 37,
      ">": 38,
      "?": 39,
      "@": 40,
      "A": 41,
      "B": 42,
      "C": 43,
      "D": 44,
      "E": 45,
      "F": 46,
      "G": 47,
      "H": 48,
      "I": 49,
      "J": 50,
      "K": 51,
      "L": 52,
      "M": 53,
      "N": 54,
      "O": 55,
      "P": 56,
      "Q": 57,
      "R": 58,
      "S": 59,
      "T": 60,
      "U": 61,
      "V": 62,
      "W": 63,
      "X": 64,
      "Y": 65,
      "Z": 66,
      "[": 67,
      "\\": 68,
      "]": 69,
      "^": 70,
      "_": 71,
      "`": 72,
      "a": 73,
      "b": 74,
      "c": 75,
      "d": 76,
      "e": 77,
      "f": 78,
      "g": 79,
      "h": 80,
      "i": 81,
      "j": 82,
      "k": 83,
      "l": 84,
      "m": 85,
      "n": 86,
      "o": 87,
      "p": 88,
      "q": 89,
      "r": 90,
      "s": 91,
      "t": 92,
      "u": 93,
      "v": 94,
      "w": 95,
      "x": 96,
      "y": 97,
      "z": 98,
      "{": 99,
      "|": 100,
      "}": 101,
      "~": 102,
      "¡": 103,
      "¢": 104,
      "£": 105,
      "¤": 106,
      "¥": 107,
      "¦": 108,
      "§": 109,
      "¨": 110,
      "©": 111,
      "ª": 112,
      "«": 113,
      "¬": 114,
      "®": 115,
      "¯": 116,
      "°": 117,
      "±": 118,
      "²": 119,
      "³": 120,
      "´": 121,
      "µ": 122,
      "¶": 123,
      "·": 124,
      "¸": 125,
      "¹": 126,
      "º": 127,
      "»": 128,
      "¼": 129,
      "½": 130,
      "¾": 131,
      "¿": 132,
      "À": 133,
      "Á": 134,
      "Â": 135,
      "Ã": 136,
      "Ä": 137,
      "Å": 138,
      "Æ": 139,
      "Ç": 140,
      "È": 141,
      "É": 142,
      "Ê": 143,
      "Ë": 144,
      "Ì": 145,
      "Í": 146,
      "Î": 147,
      "Ï": 148,
      "Ð": 149,
      "Ñ": 150,
      "Ò": 151,
      "Ó": 152,
      "Ô": 153,
      "Õ": 154,
      "Ö": 155,
      "×": 156,
      "Ø": 157,
      "Ù": 158,
      "Ú": 159,
      "Û": 160,
      "Ü": 161,
      "Ý": 162,
      "Þ": 163,
      "ß": 164,
      "à": 165,
      "á": 166,
      "â": 167,
      "ã": 168,
      "ä": 169,
      "å": 170,
      "æ": 171,
      "ç": 172,
      "è": 173,
      "é": 174,
      "ê": 175,
      "ë": 176,
      "ì": 177,
      "í": 178,
      "î": 179,
      "ï": 180,
      "ð": 181,
      "ñ": 182,
      "ò": 183,
      "ó": 184,
      "ô": 185,
      "õ": 186,
      "ö": 187,
      "÷": 188,
      "ø": 189,
      "ù": 190,
      "ú": 191,
      "û": 192,
      "ü": 193,
      "ý": 194,
      "þ": 195,
      "ÿ": 196,
      "Ā": 197,
      "ā": 198,
      "Ă": 199,
      "ă": 200,
      "Ą": 201,
      "ą": 202,
      "Ć": 203,
      "ć": 204,
      "Ĉ": 205,
      "ĉ": 206,
      "Ċ": 207,
      "ċ": 208,
      "Č": 209,
      "č": 210,
      "Ď": 211,
      "ď": 212,
      "Đ": 213,
      "đ": 214,
      "Ē": 215,
      "ē": 216,
      "Ĕ": 217,
      "ĕ": 218,
      "Ė": 219,
      "ė": 220,
      "Ę": 221,
      "ę": 222,
      "Ě": 223,
      "ě": 224,
      "Ĝ": 225,
      "ĝ": 226,
      "Ğ": 227,
      "ğ": 228,
      "Ġ": 229,
      "ġ": 230,
      "Ģ": 231,
      "ģ": 232,
      "Ĥ": 233,
      "ĥ": 234,
      "Ħ": 235,
      "ħ": 236,
      "Ĩ": 237,
      "ĩ": 238,
      "Ī": 239,
      "ī": 240,
      "Ĭ": 241,
      "ĭ": 242,
      "Į": 243,
      "į": 244,
      "İ": 245,
      "ı": 246,
      "Ĳ": 247,
      "ĳ": 248,
      "Ĵ": 249,
      "ĵ": 250,
      "Ķ": 251,
      "ķ": 252,
      "ĸ": 253,
      "Ĺ": 254,
      "ĺ": 255,
      "Ļ": 256,
      "ļ": 257,
      "Ľ": 258,
      "ľ": 259,
      "Ŀ": 260,
      "ŀ": 261,
      "Ł": 262,
      "ł": 263,
      "Ń": 264,
      "Ġa": 265,
      "<|": 266,
      "|>": 267,
      "Ä±": 268,
      "is": 269,
      "nd": 270,
      "on": 271,
      "in": 272,
      "er": 273,
      "an": 274,
      "Ġc": 275,
      "end": 276,
      "ĠĊ": 277,
      "|>:": 278,
      "|>Ċ": 279,
      "ti": 280,
      "Ġp": 281,
      "Ġb": 282,
      "ra": 283,
      "de": 284,
      "Ġk": 285,
      "ist": 286,
      "ss": 287,
      "Ġs": 288,
      "ant": 289,
      "ro": 290,
      "istant": 291,
      "ssistant": 292,
      "Ġcon": 293,
      "Ã¼": 294,
      "Ġpro": 295,
      "ish": 296,
      "ing": 297,
      "re": 298,
      "Ġt": 299,
      "al": 300,
      "Ġn": 301,
      "ce": 302,
      "ou": 303,
      "ul": 304,
      "ir": 305,
      "el": 306,
      "ÅŁ": 307,
      "Ġi": 308,
      "Ġh": 309,
      "la": 310,
      "us": 311,
      "te": 312,
      "le": 313,
      "sa": 314,
      "ĠE": 315,
      "Ã§": 316,
      "tion": 317,
      "Ġy": 318,
      "ver": 319,
      "me": 320,
      "ur": 321,
      "ĠD": 322,
      "da": 323,
      "Ġand": 324,
      "or": 325,
      "en": 326,
      "gl": 327,
      "ma": 328,
      "ot": 329,
      "user": 330,
      "assistant": 331,
      "Ġco": 332,
      "du": 333,
      "ĠT": 334,
      "ĠY": 335,
      "mm": 336,
      "cis": 337,
      "tem": 338,
      "dÄ±": 339,
      "Ġconcis": 340,
      "sy": 341,
      "ĠEn": 342,
      "yÄ±": 343,
      "Ġare": 344,
      "gra": 345,
      "Ġnot": 346,
      "Ġhel": 347,
      "Ġhelp": 348,
      "ful": 349,
      "ĠDo": 350,
      "versa": 351,
      "duce": 352,
      "versation": 353,
      "Ġconversation": 354,
      "mming": 355,
      "Ġprogra": 356,
      "ĠYou": 357,
      "stem": 358,
      "urk": 359,
      "Ġassistant": 360,
      "glish": 361,
      "ĠEnglish": 362,
      "Ġhelpful": 363,
      "Ġconcise": 364,
      "Ġcode": 365,
      "Ġproduce": 366,
      "Ġprogramming": 367,
      "Ġconversational": 368,
      "urkish": 369,
      "system": 370,
      "ĠTurkish": 371,
      "ve": 372,
      "il": 373,
      "ÄŁ": 374,
      "ar": 375,
      "Ġg": 376,
      "Ã¶": 377,
      "Ġbir": 378,
      "Ġw": 379,
      "Ġo": 380,
      "iz": 381,
      "un": 382,
      "ĠayÄ±": 383,
      "Ġve": 384,
      "it": 385,
      "Ä±n": 386,
      "ya": 387,
      "ĠB": 388,
      "Ġto": 389,
      "ki": 390,
      "Ġf": 391,
      "Ġe": 392,
      "ab": 393,
      "nde": 394,
      "ĠiÃ§": 395,
      "Ġya": 396,
      "ĠiÃ§in": 397,
      "Ġka": 398,
      "Ġba": 399,
      "Ġd": 400,
      "ĠS": 401,
      "lan": 402,
      "rdÄ±": 403,
      "Ã¼n": 404,
      "ĠÃ¶": 405,
      "Ġda": 406,
      "det": 407,
      "Ġth": 408,
      "ak": 409,
      "ĠkÄ±": 410,
      "Ġadet": 411,
      "es": 412,
      "ĠayÄ±rdÄ±": 413,
      "ĠA": 414,
      "uma": 415,
      "lÄ±": 416,
      "Ġz": 417,
      "ilir": 418,
      "um": 419,
      "dÄ±m": 420,
      "ĠkÄ±sa": 421,
      "ĠadÄ±m": 422,
      "Ġm": 423,
      "li": 424,
      "am": 425,
      "umara": 426,
      "lar": 427,
      "Ġyou": 428,
      "Ġnumara": 429,
      "ug": 430,
      "Ä±nÄ±": 431,
      "Ġu": 432,
      "ĠÃ¶n": 433,
      "ac": 434,
      "abilir": 435,
      "et": 436,
      "ith": 437,
      "Ġwith": 438,
      "Ġan": 439,
      "ĠgÃ¼n": 440,
      "eri": 441,
      "ĠbaÅŁ": 442,
      "at": 443,
      "mek": 444,
      "Ġde": 445,
      "enti": 446,
      "Ġin": 447,
      "ine": 448,
      "Ã¼k": 449,
      "im": 450,
      "mak": 451,
      "Ġkenti": 452,
      "Ġkentinde": 453,
      "one": 454,
      "Ġile": 455,
      "Ġuy": 456,
      "sÄ±": 457,
      "Ġst": 458,
      "Ä°": 459,
      "Ġbe": 460,
      "ri": 461,
      "yi": 462,
      "Ġre": 463,
      "Ġso": 464,
      "nda": 465,
      "ut": 466,
      "ĠÄ°": 467,
      "estion": 468,
      "ne": 469,
      "Ġol": 470,
      "lk": 471,
      "Ġver": 472,
      "Ġkon": 473,
      "ĠbaÅŁla": 474,
      "ĠM": 475,
      "Ġne": 476,
      ".Ċ": 477,
      "ort": 478,
      "Ġyap": 479,
      "Ġuyg": 480,
      "lam": 481,
      "iÅŁ": 482,
      "cti": 483,
      "unu": 484,
      "ek": 485,
      "out": 486,
      "den": 487,
      "ĠL": 488,
      "uÅŁ": 489,
      "iniz": 490,
      "urum": 491,
      "Ġthe": 492,
      "ĠG": 493,
      "ha": 494,
      "ple": 495,
      "Ã¼Ã§": 496,
      "ĠÄ°lk": 497,
      "Ġyour": 498,
      "ĠÃ¶neri": 499,
      "Ġzor": 500,
      "Ġis": 501,
      "Ġme": 502,
      "Ġiki": 503,
      "Ġsh": 504,
      "acak": 505,
      "Ġuygul": 506,
      "aman": 507,
      "Ã¼Ã§Ã¼k": 508,
      "ĠÃ§": 509,
      "yor": 510,
      "Ġbul": 511,
      "tir": 512,
      "Ġzaman": 513,
      "st": 514,
      "unda": 515,
      "ĠBu": 516,
      "ly": 517,
      "ĠkaÃ§": 518,
      "Ġsome": 519,
      "ĠkÃ¼Ã§Ã¼k": 520,
      "Ġsa": 521,
      "ĠnumarasÄ±": 522,
      "wo": 523,
      "ĠDurum": 524,
      "ĠgÃ¼nÃ¼": 525,
      "racti": 526,
      "ive": 527,
      "cal": 528,
      "Ġfor": 529,
      "Ġtwo": 530,
      "ari": 531,
      "Ġdaha": 532,
      "Ġshort": 533,
      "ka": 534,
      "Ġkonus": 535,
      "ĠayÄ±n": 536,
      "Ġuygulan": 537,
      "Ġzorlan": 538,
      "Ġkonusunda": 539,
      "ey": 540,
      "Ġuygulanabilir": 541,
      "estions": 542,
      "Ġzorlanan": 543,
      "Ġbirine": 544,
      "Ġpracti": 545,
      "Ġsomeone": 546,
      "Ä±m": 547,
      "ĠnumaralÄ±": 548,
      "ĠdeÄŁ": 549,
      "Ã¼m": 550,
      "yÄ±t": 551,
      "Ġstr": 552,
      "Ġmo": 553,
      "cen": 554,
      "ugg": 555,
      "ĠkayÄ±t": 556,
      "ĠbuluÅŁ": 557,
      "Ġsugg": 558,
      "gling": 559,
      "uggling": 560,
      "ario": 561,
      "cenario": 562,
      "ĠGive": 563,
      "Ġstruggling": 564,
      "Ġpractical": 565,
      "Ġsuggestions": 566,
      "ĠScenario": 567,
      "**": 568,
      "Ã¼z": 569,
      "ah": 570,
      "ler": 571,
      "Ä±z": 572,
      "ĠbuluÅŁacak": 573,
      "Ġkentindeki": 574,
      "ĠgÃ¼nÃ¼nde": 575,
      "Ġyaz": 576,
      "mir": 577,
      "Ġen": 578,
      "ĠSon": 579,
      "ic": 580,
      "Ġon": 581,
      "nt": 582,
      "'d": 583,
      "ĠbaÅŁlat": 584,
      "yorum": 585,
      "Ġday": 586,
      "larda": 587,
      "sun": 588,
      "Ġisti": 589,
      "rak": 590,
      "lo": 591,
      "iÅŁtir": 592,
      "Ġolsun": 593,
      "leyi": 594,
      "ĠcÃ¼m": 595,
      "meden": 596,
      "ĠadÄ±mla": 597,
      "ĠBunu": 598,
      "ĠbaÅŁlatabilir": 599,
      "Ġistiyorum": 600,
      "Ġzamanlarda": 601,
      "ĠadÄ±mÄ±m": 602,
      "very": 603,
      "ĠbaÅŁlatabiliriz": 604,
      "Ä±r": 605,
      "Ġevery": 606,
      "ĠO": 607,
      "Ġanlam": 608,
      "Ġv": 609,
      "ĠdeÄŁiÅŁtir": 610,
      "Ä±nÄ±z": 611,
      "ĠC": 612,
      "ok": 613,
      "10": 614,
      "lik": 615,
      "ĠanlamÄ±nÄ±": 616,
      "ĠcÃ¼mleyi": 617,
      "ĠdeÄŁiÅŁtirmeden": 618,
      "Ġ\"": 619,
      "em": 620,
      "Ġ(": 621,
      "Ġti": 622,
      "Ġse": 623,
      "Ġres": 624,
      "va": 625,
      "ĠP": 626,
      "gi": 627,
      "qu": 628,
      "ĠI": 629,
      "Ġor": 630,
      "ef": 631,
      "Ġveya": 632,
      "aya": 633,
      "ed": 634,
      "15": 635,
      "Ġit": 636,
      "ĠH": 637,
      "Ġdo": 638,
      "ina": 639,
      "Ã¼r": 640,
      "Ġof": 641,
      "eniz": 642,
      "ĠN": 643,
      "12": 644,
      "13": 645,
      "ĠZ": 646,
      "'s": 647,
      "ec": 648,
      "lif": 649,
      "Ġbu": 650,
      "Ġab": 651,
      "ep": 652,
      "Ġqu": 653,
      "ĠMaya": 654,
      "Ġyapmak": 655,
      "as": 656,
      "ĠMer": 657,
      "Ġsim": 658,
      "ĠNo": 659,
      "Ġabout": 660,
      "wer": 661,
      "ĠElif": 662,
      "eyne": 663,
      "ĠZeyne": 664,
      "14": 665,
      "ĠNoah": 666,
      "ĠZeynep": 667,
      "ĠMert": 668,
      "ĠAda": 669,
      "Ġola": 670,
      "ĠEce": 671,
      "ĠCan": 672,
      "ĠLina": 673,
      "ĠÃ": 674,
      "Ġye": 675,
      "Ä±ÅŁ": 676,
      "Ġvar": 677,
      "ĠEmir": 678,
      "Ġwh": 679,
      "th": 680,
      "ĠAr": 681,
      "ely": 682,
      "Ġsimple": 683,
      "Ġtime": 684,
      "ĠÅŁ": 685,
      "ren": 686,
      "day": 687,
      "Ġplan": 688,
      "ner": 689,
      "ck": 690,
      "utu": 691,
      "Ã¼ÅŁ": 692,
      "ĠArda": 693,
      "ge": 694,
      "gin": 695,
      "Ä±k": 696,
      "Ġkal": 697,
      "Ġone": 698,
      "ĠDeniz": 699,
      "ye": 700,
      "rief": 701,
      "Ġmeet": 702,
      "ĠÃ¶ÄŁ": 703,
      "swer": 704,
      "Ġch": 705,
      "yÄ±n": 706,
      "lÄ±k": 707,
      "ning": 708,
      "Ġha": 709,
      "ĠgÃ¶": 710,
      "Ġbegin": 711,
      "Ġquestion": 712,
      "riefly": 713,
      "Ġanswer": 714,
      "Ġkutu": 715,
      "eni": 716,
      "ini": 717,
      "ĠEx": 718,
      "Ġwithout": 719,
      "ĠÃ¶nce": 720,
      "ample": 721,
      "Ġbeginner": 722,
      "Ġma": 723,
      "Ġeveryday": 724,
      "ca": 725,
      "di": 726,
      "Ġ**": 727,
      "ĠExample": 728,
      "ĠBriefly": 729,
      "ĠR": 730,
      "Ġyo": 731,
      "vi": 732,
      "Ġhe": 733,
      "mal": 734,
      "Ġle": 735,
      "Ġj": 736,
      "Ġkutuda": 737,
      "ter": 738,
      "Ġbo": 739,
      "ment": 740,
      "dÄ±r": 741,
      "Ã¼y": 742,
      "ĠÃĸ": 743,
      "bilir": 744,
      "se": 745,
      "oto": 746,
      "ĠÃ¶ÄŁren": 747,
      "16": 748,
      "ch": 749,
      "ĠeÅŁ": 750,
      "ill": 751,
      "ute": 752,
      "ue": 753,
      "arÄ±": 754,
      "ore": 755,
      "Ġat": 756,
      "ĠOn": 757,
      "ond": 758,
      "tÄ±r": 759,
      "dece": 760,
      "Ġson": 761,
      "inute": 762,
      "Ġbel": 763,
      "ĠeÅŁya": 764,
      "ation": 765,
      "Ġman": 766,
      "Ġwill": 767,
      "ad": 768,
      "ĠdÃ¼z": 769,
      "men": 770,
      "Ġtop": 771,
      "inizi": 772,
      "ĠyÃ¼r": 773,
      "Ġsp": 774,
      "ay": 775,
      "abit": 776,
      "ate": 777,
      "erek": 778,
      "Ġdaki": 779,
      "dan": 780,
      "ap": 781,
      "ack": 782,
      "Ġby": 783,
      "raf": 784,
      "fore": 785,
      "20": 786,
      "Ġbefore": 787,
      "larÄ±": 788,
      "Ġolarak": 789,
      "erl": 790,
      "id": 791,
      "ĠAn": 792,
      "Ġbelir": 793,
      "ta": 794,
      "Ġiyi": 795,
      "tiva": 796,
      "30": 797,
      "bi": 798,
      "lÃ¼k": 799,
      "11": 800,
      "Ġal": 801,
      "age": 802,
      "art": 803,
      "si": 804,
      "otoÄŁ": 805,
      "otoÄŁraf": 806,
      "yin": 807,
      "Ġyer": 808,
      "ven": 809,
      "ow": 810,
      "cak": 811,
      "Ġkit": 812,
      "Ġsor": 813,
      "ntal": 814,
      "if": 815,
      "na": 816,
      "erve": 817,
      "len": 818,
      "ĠyÃ¼rÃ¼y": 819,
      "Ġreserve": 820,
      "rne": 821,
      "ask": 822,
      "ilgi": 823,
      "Ġchan": 824,
      "gh": 825,
      "ĠyÃ¼z": 826,
      "erlin": 827,
      "Ġra": 828,
      "ĠBerlin": 829,
      "Ġhabit": 830,
      "ga": 831,
      "ĠfotoÄŁraf": 832,
      "slo": 833,
      "Ġmore": 834,
      "ĠOslo": 835,
      "kara": 836,
      "Ġtask": 837,
      "ĠLond": 838,
      "Ġil": 839,
      "zmir": 840,
      "ĠLondon": 841,
      "reak": 842,
      "ĠAnkara": 843,
      "bon": 844,
      "ust": 845,
      "ĠLis": 846,
      "stan": 847,
      "Ġro": 848,
      "anÄ±z": 849,
      "gue": 850,
      "Ġmotiva": 851,
      "ĠLisbon": 852,
      "bul": 853,
      "Ġdil": 854,
      "uy": 855,
      "Ġfe": 856,
      "ĠyÃ¼rÃ¼yÃ¼ÅŁ": 857,
      "stanbul": 858,
      "Ġbah": 859,
      "Ġok": 860,
      "ntalya": 861,
      "ĠAntalya": 862,
      "Ġsmal": 863,
      "abah": 864,
      "ĠK": 865,
      "Ġthis": 866,
      "Ġtoplam": 867,
      "ends": 868,
      "ĠHer": 869,
      "ĠvardÄ±r": 870,
      "Ġim": 871,
      "17": 872,
      "ip": 873,
      "Ġthat": 874,
      "ging": 875,
      "ĠPra": 876,
      "Ġthan": 877,
      "Ġkitap": 878,
      "leep": 879,
      "ĠPrague": 880,
      "Ġsonra": 881,
      "ĠV": 882,
      "Ġtut": 883,
      "Ġsadece": 884,
      "siniz": 885,
      "Ġmean": 886,
      "Ġar": 887,
      "ĠgÃ¼nlÃ¼k": 888,
      "ĠIzmir": 889,
      "Ġyemek": 890,
      "ien": 891,
      "ik": 892,
      "ĠbahÃ§": 893,
      "ew": 894,
      "Ġet": 895,
      "lang": 896,
      "Ġbi": 897,
      "lu": 898,
      "rite": 899,
      "ienna": 900,
      "Ġkend": 901,
      "ĠVienna": 902,
      "ĠÃ§ek": 903,
      "Ġay": 904,
      "Ġsmall": 905,
      "Ġdakika": 906,
      "ĠseÃ§": 907,
      "Ġyoga": 908,
      "Ġgo": 909,
      "Ġher": 910,
      "def": 911,
      "Ġmeaning": 912,
      "Ġits": 913,
      "Ġlear": 914,
      "lece": 915,
      "like": 916,
      "Ġkalem": 917,
      "ght": 918,
      "Ġchanging": 919,
      "Ġfeel": 920,
      "Ġsleep": 921,
      "Ġl": 922,
      "hat": 923,
      "cus": 924,
      "25": 925,
      "ĠRew": 926,
      "Ġconcisely": 927,
      "ĠRewrite": 928,
      "Ġsilgi": 929,
      "ÄŁi": 930,
      "ĠyÃ¶": 931,
      "ĠU": 932,
      "Ä±nÄ±zÄ±": 933,
      "to": 934,
      "ÄŁin": 935,
      "23": 936,
      "ule": 937,
      "ĠalÄ±": 938,
      "ers": 939,
      "leri": 940,
      "isten": 941,
      "unuz": 942,
      "ĠpiÅŁ": 943,
      "Ġkul": 944,
      "ocus": 945,
      "Ġhedef": 946,
      "maya": 947,
      "Ġge": 948,
      "28": 949,
      "ĠdÃ¼zeni": 950,
      "ther": 951,
      "alÄ±ÅŁ": 952,
      "Ġminute": 953,
      "Ġrather": 954,
      "ĠIstanbul": 955,
      "likle": 956,
      "Ä±nda": 957,
      "Ġresim": 958,
      "Ġtr": 959,
      "Ġmanage": 960,
      "Ġkullan": 961,
      "Ġgi": 962,
      "Ġko": 963,
      "Ġokuma": 964,
      "ndan": 965,
      "ting": 966,
      "nce": 967,
      "up": 968,
      "ach": 969,
      "Ġce": 970,
      "Ġjust": 971,
      "24": 972,
      "Ġfri": 973,
      "vap": 974,
      "Ã¼re": 975,
      "Ġminutes": 976,
      "Ġtra": 977,
      "ĠiÅŁ": 978,
      "Ġbelirle": 979,
      "18": 980,
      "Ä±zÄ±": 981,
      "ÅŁam": 982,
      "Ġinto": 983,
      "Ġbas": 984,
      "Ġsaat": 985,
      "hip": 986,
      "Ġcevap": 987,
      "ĠÃ§alÄ±ÅŁ": 988,
      "tiÅŁ": 989,
      "ci": 990,
      "Ġrout": 991,
      "rar": 992,
      "ĠpiÅŁir": 993,
      "ken": 994,
      "Ġreserved": 995,
      ":Ċ": 996,
      "vel": 997,
      "ama": 998,
      "Ġlearning": 999,
      "ĠdoÄŁ": 1000,
      "tÄ±": 1001,
      "ĠkÄ±r": 1002,
      "kan": 1003,
      "Ġcomm": 1004,
      "ĠÃ¶ÄŁrenmek": 1005,
      "Ġroutine": 1006,
      "'t": 1007,
      "mÄ±zÄ±": 1008,
      "langÄ±": 1009,
      "cek": 1010,
      "ten": 1011,
      "medi": 1012,
      "Ġho": 1013,
      "ÅŁil": 1014,
      "Ġoda": 1015,
      "ku": 1016,
      "Ġilgi": 1017,
      "33": 1018,
      "laÅŁ": 1019,
      "able": 1020,
      "Ġ=": 1021,
      "rneÄŁin": 1022,
      "ĠyeÅŁil": 1023,
      "mayÄ±": 1024,
      "ake": 1025,
      "Ġr": 1026,
      "ĠÃĸnce": 1027,
      "Ġmavi": 1028,
      "ĠkÄ±rmÄ±zÄ±": 1029,
      "mi": 1030,
      "yaz": 1031,
      "ÄŁÄ±": 1032,
      "Ġilk": 1033,
      "ste": 1034,
      "thing": 1035,
      "ĠgÃ¶re": 1036,
      "Ġcan": 1037,
      "Ġbed": 1038,
      "Ġaz": 1039,
      "tiÅŁim": 1040,
      "bilirsiniz": 1041,
      "Ġex": 1042,
      "ĠÃ§ok": 1043,
      "26": 1044,
      "nÄ±z": 1045,
      "Ġyeni": 1046,
      "Ġev": 1047,
      "endship": 1048,
      "gan": 1049,
      "ĠalÄ±ÅŁ": 1050,
      "Ġno": 1051,
      "27": 1052,
      "Ġas": 1053,
      "Ġwor": 1054,
      "Ä±na": 1055,
      "duÄŁ": 1056,
      "iny": 1057,
      "Ġbeyaz": 1058,
      "ying": 1059,
      "ps": 1060,
      "alnÄ±z": 1061,
      "ganiz": 1062,
      "Ġtem": 1063,
      "Ġtravel": 1064,
      "ere": 1065,
      "Ġte": 1066,
      "Ġac": 1067,
      "od": 1068,
      "ĠsÃ¼re": 1069,
      "Ġorganiz": 1070,
      "Ġtiny": 1071,
      "ĠbahÃ§ey": 1072,
      "our": 1073,
      "Ġbasit": 1074,
      "ĠsarÄ±": 1075,
      "ell": 1076,
      "Ġimmedi": 1077,
      "syon": 1078,
      "Ġover": 1079,
      "Ġtasks": 1080,
      "Ġodak": 1081,
      "langÄ±Ã§": 1082,
      "om": 1083,
      "anÄ±": 1084,
      "low": 1085,
      "Ġhabits": 1086,
      "ĠÃ§ekmek": 1087,
      "Ġfocus": 1088,
      "Ġlike": 1089,
      "Ġokumak": 1090,
      "Ġed": 1091,
      "Ġbook": 1092,
      "ication": 1093,
      "daÅŁ": 1094,
      "alnÄ±zca": 1095,
      "Ġspec": 1096,
      "ili": 1097,
      "ched": 1098,
      "ĠBir": 1099,
      "-b": 1100,
      "kadaÅŁ": 1101,
      "ÄŁiniz": 1102,
      "Ġacti": 1103,
      "ĠYalnÄ±zca": 1104,
      "uyu": 1105,
      "eep": 1106,
      "ĠUse": 1107,
      "ĠbahÃ§eyle": 1108,
      "lay": 1109,
      "king": 1110,
      "Ġkay": 1111,
      "Ġot": 1112,
      "Ġset": 1113,
      "Ġcom": 1114,
      "ĠiletiÅŁim": 1115,
      "Ġtutmak": 1116,
      "Ġara": 1117,
      "Ġspecif": 1118,
      "cÄ±": 1119,
      "Ġplanning": 1120,
      "29": 1121,
      "Ġsabah": 1122,
      "ure": 1123,
      "ress": 1124,
      "her": 1125,
      "Ġhome": 1126,
      "ĠpiÅŁirmek": 1127,
      "Ġwell": 1128,
      "ĠalÄ±ÅŁkan": 1129,
      "Ġmak": 1130,
      "Ġuyku": 1131,
      "Ġwe": 1132,
      "inde": 1133,
      "80": 1134,
      "Ġyerine": 1135,
      "Ġeach": 1136,
      "ĠAyÄ±n": 1137,
      "19": 1138,
      "Ġilgilen": 1139,
      "ĠsaÄŁ": 1140,
      "unication": 1141,
      "sel": 1142,
      "Ġfriendship": 1143,
      "Ġdurum": 1144,
      "Ġspecific": 1145,
      "chedule": 1146,
      "Ġtek": 1147,
      "Ġback": 1148,
      "elef": 1149,
      "34": 1150,
      "Ġist": 1151,
      "Ġbreak": 1152,
      "Ġmotivation": 1153,
      "ĠHow": 1154,
      "Ġus": 1155,
      "Ġgibi": 1156,
      "Ġodaklan": 1157,
      "Ġwhat": 1158,
      "ĠÃ¶ÄŁrenme": 1159,
      "Ġdene": 1160,
      "Ġph": 1161,
      "manÄ±z": 1162,
      "Ġilgilenmek": 1163,
      "22": 1164,
      "eing": 1165,
      "Ġak": 1166,
      "Ġuygun": 1167,
      "tions": 1168,
      "elefon": 1169,
      "ĠyÃ¼zmek": 1170,
      "stead": 1171,
      "ĠarkadaÅŁ": 1172,
      "-being": 1173,
      "ĠbaÅŁlangÄ±Ã§": 1174,
      "inin": 1175,
      "ately": 1176,
      "ild": 1177,
      "ĠAy": 1178,
      "yan": 1179,
      "tan": 1180,
      "Ġimmediately": 1181,
      "Ġcommunication": 1182,
      "bilece": 1183,
      "Ġste": 1184,
      "89": 1185,
      "ĠgeÃ§": 1186,
      "Ġmanagement": 1187,
      "36": 1188,
      "yahat": 1189,
      "Ġgoal": 1190,
      "Ġstart": 1191,
      "35": 1192,
      "Ġun": 1193,
      "Ġsiz": 1194,
      "iti": 1195,
      "Ġinstead": 1196,
      "ol": 1197,
      "Ġitem": 1198,
      "ĠolduÄŁ": 1199,
      "37": 1200,
      "Ġdi": 1201,
      "ĠSt": 1202,
      "ĠF": 1203,
      "Ġkar": 1204,
      "Ġorganization": 1205,
      "00": 1206,
      "reate": 1207,
      "Ġeven": 1208,
      "ru": 1209,
      "timi": 1210,
      "ĠyaÅŁam": 1211,
      "Ã¶rneÄŁin": 1212,
      "ĠgÃ¼": 1213,
      "ĠBreak": 1214,
      "Ġsu": 1215,
      "-m": 1216,
      "leme": 1217,
      "49": 1218,
      "aÅŁ": 1219,
      "wn": 1220,
      "ĠyÃ¶ne": 1221,
      "arak": 1222,
      "Ġ+": 1223,
      "vo": 1224,
      "ĠalÄ±ÅŁkanlÄ±k": 1225,
      "-minute": 1226,
      "Ġgerek": 1227,
      "cle": 1228,
      "ity": 1229,
      "Ġmany": 1230,
      "ind": 1231,
      "Ġmotivasyon": 1232,
      "Ġcle": 1233,
      "void": 1234,
      "ĠdÃ¼ÅŁ": 1235,
      "ily": 1236,
      "ick": 1237,
      "ook": 1238,
      "Ġdu": 1239,
      "ĠÅŁey": 1240,
      "88": 1241,
      "angi": 1242,
      "Ġweek": 1243,
      "leÅŁ": 1244,
      "Ġup": 1245,
      "ĠStart": 1246,
      "ĠyÃ¶netimi": 1247,
      "lant": 1248,
      "Ġmeets": 1249,
      "inize": 1250,
      "Ġgen": 1251,
      "Ġinter": 1252,
      "ycle": 1253,
      "Ġseyahat": 1254,
      "Ġif": 1255,
      "Ġnote": 1256,
      "Ġcomple": 1257,
      "sisten": 1258,
      "nal": 1259,
      "Ġel": 1260,
      "meniz": 1261,
      "Ä±p": 1262,
      "ard": 1263,
      "21": 1264,
      "nder": 1265,
      "Ġgel": 1266,
      "rdÄ±ndan": 1267,
      "dy": 1268,
      "cre": 1269,
      "yle": 1270,
      "Ġek": 1271,
      "ĠkonuÅŁ": 1272,
      "kÄ±nda": 1273,
      "era": 1274,
      "Ġwhen": 1275,
      "Ġhak": 1276,
      "eler": 1277,
      "cket": 1278,
      "port": 1279,
      "Ġwork": 1280,
      "Ġlam": 1281,
      "Ġtrying": 1282,
      "Ġthem": 1283,
      "Ġtelefon": 1284,
      "Ġkolay": 1285,
      "ÄŁÄ±nÄ±z": 1286,
      "ĠSabah": 1287,
      "Ġedin": 1288,
      "Ġyol": 1289,
      "Ġticket": 1290,
      "uz": 1291,
      "ecek": 1292,
      "Ġhemen": 1293,
      "ĠarkadaÅŁlÄ±k": 1294,
      "ĠhakkÄ±nda": 1295,
      "ts": 1296,
      "anÄ±t": 1297,
      "book": 1298,
      "ĠplanÄ±": 1299,
      "pack": 1300,
      "op": 1301,
      "kal": 1302,
      "ings": 1303,
      "Ġhaf": 1304,
      "ord": 1305,
      "Ġbackpack": 1306,
      "Ġtea": 1307,
      ":**": 1308,
      "madan": 1309,
      "dir": 1310,
      "Ġdaily": 1311,
      "Ġplant": 1312,
      "dar": 1313,
      "ĠdÃ¼zen": 1314,
      "ĠdoÄŁru": 1315,
      "ĠbaÅŁlaya": 1316,
      "ĠyÃ¶n": 1317,
      "Ġdid": 1318,
      "Ã¶z": 1319,
      "Ġhis": 1320,
      "60": 1321,
      "Ġbic": 1322,
      "Ġout": 1323,
      "light": 1324,
      "ĠyanÄ±t": 1325,
      "Ġnotebook": 1326,
      "ĠalÄ±ÅŁkanlÄ±klar": 1327,
      "Ġconsisten": 1328,
      "Ġbicycle": 1329,
      "ving": 1330,
      "Ġyapacak": 1331,
      "40": 1332,
      "ĠGÃ¼n": 1333,
      "layÄ±n": 1334,
      "meye": 1335,
      "irst": 1336,
      "ĠaÃ§": 1337,
      "Ġpa": 1338,
      "Ġmoment": 1339,
      "Ġkadar": 1340,
      "Ġitems": 1341,
      "rek": 1342,
      "leyin": 1343,
      "ecord": 1344,
      "ĠadÄ±mÄ±nÄ±z": 1345,
      "Ġer": 1346,
      "ĠRecord": 1347,
      "ble": 1348,
      "Ġhour": 1349,
      "Ġkur": 1350,
      "tur": 1351,
      "Ġjack": 1352,
      "ze": 1353,
      "Ġlo": 1354,
      "Ġbuild": 1355,
      "Ġjacket": 1356,
      "wh": 1357,
      "tik": 1358,
      "rom": 1359,
      "ĠgÃ¶r": 1360,
      "res": 1361,
      "rnek": 1362,
      "Ġclear": 1363,
      "ÄŁer": 1364,
      "rior": 1365,
      "Ġsteps": 1366,
      "pp": 1367,
      "Ġcam": 1368,
      "Ġiler": 1369,
      "Ġthen": 1370,
      "Ġfirst": 1371,
      "ĠÃ§Ä±k": 1372,
      "50": 1373,
      "sÄ±nÄ±": 1374,
      "kin": 1375,
      "ĠgÃ¼nÃ¼n": 1376,
      "Ġnef": 1377,
      "ssi": 1378,
      "ĠyapÄ±n": 1379,
      "Ġfrom": 1380,
      "lama": 1381,
      "and": 1382,
      "Ġsora": 1383,
      "ÅŁÄ±": 1384,
      "Ġolan": 1385,
      "Ġdur": 1386,
      "ĠbaÅŁlayan": 1387,
      "ular": 1388,
      "Ġlisten": 1389,
      "Ġyarar": 1390,
      "Ġtama": 1391,
      "Ġsoruyu": 1392,
      "Ġnefes": 1393,
      "ff": 1394,
      "32": 1395,
      "84": 1396,
      "Ġalan": 1397,
      "ĠhÄ±z": 1398,
      "87": 1399,
      "Ġfa": 1400,
      "Ġbirinin": 1401,
      "ct": 1402,
      "Ġonce": 1403,
      "ĠbÃ¶": 1404,
      "Ġget": 1405,
      "Ġtemel": 1406,
      "Ġbelirleyin": 1407,
      "lerinizi": 1408,
      "ura": 1409,
      "ni": 1410,
      "Ġconsistent": 1411,
      "saj": 1412,
      "iler": 1413,
      "Ġread": 1414,
      "Ġoverwh": 1415,
      "Ġoverwhel": 1416,
      "90": 1417,
      "Ġolacak": 1418,
      "rioriti": 1419,
      "ĠÃ¶nem": 1420,
      "ĠÃ¶z": 1421,
      "bileceÄŁi": 1422,
      "85": 1423,
      "imde": 1424,
      "ĠSchedule": 1425,
      "Ġkeep": 1426,
      "ĠiÃ§inde": 1427,
      "ĠyanÄ±tla": 1428,
      "ĠÄ±ÅŁ": 1429,
      "ĠÅŁek": 1430,
      "ĠsÄ±": 1431,
      "larÄ±nÄ±": 1432,
      "ÄŁÄ±nÄ±": 1433,
      "man": 1434,
      "ĠbiÃ§": 1435,
      "Ġlamp": 1436,
      "Ġwal": 1437,
      "Ġbil": 1438,
      "edi": 1439,
      "ĠÃĸrnek": 1440,
      "ĠÃĸncelikle": 1441,
      "ingle": 1442,
      "ĠÅŁu": 1443,
      "laya": 1444,
      "ĠyararlÄ±": 1445,
      "Ġta": 1446,
      "ĠgÃ¼ven": 1447,
      "ĠbiÃ§imde": 1448,
      "Ġsingle": 1449,
      "ĠbaÅŁlamak": 1450,
      "ĠsorabileceÄŁi": 1451,
      "ted": 1452,
      "Ġpo": 1453,
      "ĠoluÅŁ": 1454,
      "Ġharek": 1455,
      "ual": 1456,
      "ĠardÄ±ndan": 1457,
      "ree": 1458,
      "70": 1459,
      "86": 1460,
      "est": 1461,
      "rol": 1462,
      "ĠPick": 1463,
      "self": 1464,
      "Ġdakikal": 1465,
      "ens": 1466,
      "ĠÃ¶nemli": 1467,
      "Ġyourself": 1468,
      "ĠdeÄŁil": 1469,
      "Ġneed": 1470,
      "rÄ±": 1471,
      "Ġavoid": 1472,
      "Ġnew": 1473,
      "malÄ±": 1474,
      "yerek": 1475,
      "Ġkendi": 1476,
      "asÄ±": 1477,
      "ĠtÃ¼r": 1478,
      "ĠdÃ¼ÅŁÃ¼n": 1479,
      "reat": 1480,
      "sanÄ±z": 1481,
      "ĠkarÅŁÄ±": 1482,
      "ĠyapÄ±": 1483,
      "Ġdoing": 1484,
      "ĠbaÅŁlayÄ±n": 1485,
      "Ġsorun": 1486,
      "yun": 1487,
      "ĠÃ¶ner": 1488,
      "Ġdown": 1489,
      "31": 1490,
      "Ġnet": 1491,
      "Ġuz": 1492,
      "set": 1493,
      "Ġhangi": 1494,
      "ĠCreate": 1495,
      "Ġexp": 1496,
      "aking": 1497,
      "ĠSa": 1498,
      "meyi": 1499,
      "Ġonly": 1500,
      "trol": 1501,
      "Ġwhi": 1502,
      "Ġeverything": 1503,
      "Ġener": 1504,
      "Ã¼yÃ¼k": 1505,
      "Ġama": 1506,
      "Ġcamera": 1507,
      "tain": 1508,
      "ĠÃ¼z": 1509,
      "Ġactiv": 1510,
      "mes": 1511,
      "Ġkap": 1512,
      "nderst": 1513,
      "Ġistedi": 1514,
      "ĠsayÄ±": 1515,
      "lock": 1516,
      "ark": 1517,
      "zÄ±r": 1518,
      "rioritize": 1519,
      "ĠW": 1520,
      "Ġpre": 1521,
      "ĠSet": 1522,
      "Ġetk": 1523,
      "tick": 1524,
      "Ġtack": 1525,
      "Ġgoals": 1526,
      "Ġlist": 1527,
      "utter": 1528,
      "ĠÅŁekil": 1529,
      "lutter": 1530,
      "lemek": 1531,
      "Ġother": 1532,
      "ent": 1533,
      "ace": 1534,
      "Ġmanageable": 1535,
      "ĠayÄ±r": 1536,
      "Ġdin": 1537,
      "way": 1538,
      "Ġyar": 1539,
      "cu": 1540,
      "Ġlistening": 1541,
      "eyi": 1542,
      "Ġsomething": 1543,
      "Ġayda": 1544,
      "Ġort": 1545,
      "Ä±nÄ±n": 1546,
      "Ġscre": 1547,
      "lerini": 1548,
      "eli": 1549,
      "Ġzorlu": 1550,
      "ĠÅŁekilde": 1551,
      "Ġthey": 1552,
      "Ġmomentum": 1553,
      "ĠyÃ¶ntem": 1554,
      "Ġad": 1555,
      "Ġkontrol": 1556,
      "hni": 1557,
      "Ġilg": 1558,
      "ĠSonra": 1559,
      "cut": 1560,
      "ĠgÃ¶z": 1561,
      "Ġerken": 1562,
      "Ġany": 1563,
      "ĠhazÄ±r": 1564,
      "ev": 1565,
      "ĠEÄŁer": 1566,
      "Ġolma": 1567,
      "Ġdeep": 1568,
      "Ġunderst": 1569,
      "ylece": 1570,
      "ĠoluÅŁtur": 1571,
      "Ġpers": 1572,
      "Ġmesaj": 1573,
      "deki": 1574,
      "Ġhareket": 1575,
      "sÄ±nÄ±z": 1576,
      "Ġsi": 1577,
      "ellikle": 1578,
      "45": 1579,
      "Ġreading": 1580,
      "Ġrule": 1581,
      "Ġhi": 1582,
      "Ġetkili": 1583,
      "kinci": 1584,
      "Ġolur": 1585,
      "likte": 1586,
      "Ġchec": 1587,
      "echni": 1588,
      "ĠbÄ±": 1589,
      "ĠakÅŁam": 1590,
      "eÅŁ": 1591,
      "Ġusing": 1592,
      "lem": 1593,
      "Ġreg": 1594,
      "ĠdakikalÄ±k": 1595,
      "echniqu": 1596,
      "erin": 1597,
      "Ġdist": 1598,
      "ĠolacaktÄ±r": 1599,
      "get": 1600,
      "ractice": 1601,
      "Ġwake": 1602,
      "mÄ±ÅŁ": 1603,
      "ĠhÄ±zlÄ±": 1604,
      "Ġri": 1605,
      "ary": 1606,
      "ĠKeep": 1607,
      "Ġbek": 1608,
      "fter": 1609,
      "Ġ*": 1610,
      "leÅŁtir": 1611,
      "lat": 1612,
      "ph": 1613,
      "Ġduy": 1614,
      "Ġhedefler": 1615,
      "imi": 1616,
      "isi": 1617,
      "83": 1618,
      "ĠPractice": 1619,
      "Ġsonraki": 1620,
      "Ġtemiz": 1621,
      "ÄŁini": 1622,
      "ĠyardÄ±m": 1623,
      "Ġlea": 1624,
      "Ġilgili": 1625,
      "land": 1626,
      "Ġmost": 1627,
      "Ġoff": 1628,
      "Ġfive": 1629,
      "Ġdet": 1630,
      "ressure": 1631,
      "Ġweekends": 1632,
      "Ġsame": 1633,
      "xt": 1634,
      "ĠBaÅŁ": 1635,
      "ĠbÄ±rak": 1636,
      "Ġhem": 1637,
      "Ġyak": 1638,
      "Ġunderstand": 1639,
      "lamak": 1640,
      "uyun": 1641,
      "Ġresp": 1642,
      "Ġayar": 1643,
      "rac": 1644,
      "Ã¼nde": 1645,
      "alar": 1646,
      "Ġtekrar": 1647,
      "Ġrest": 1648,
      "Ġboyun": 1649,
      "Ġdeneyin": 1650,
      "ĠbaÅŁlayabilirsiniz": 1651,
      "Ġdon": 1652,
      "oo": 1653,
      "Ġboyunca": 1654,
      "Ġla": 1655,
      "Ġbet": 1656,
      "ĠkiÅŁ": 1657,
      "echnique": 1658,
      "ĠÃ§alÄ±ÅŁÄ±n": 1659,
      "Ã§ek": 1660,
      "ĠÃ§Ã¶z": 1661,
      "Ġolabilir": 1662,
      "Ġtheir": 1663,
      "Ġmain": 1664,
      "Ġscreens": 1665,
      "til": 1666,
      "Ġperson": 1667,
      "endir": 1668,
      "Ġiz": 1669,
      "ret": 1670,
      "ĠbÃ¼yÃ¼k": 1671,
      "Ä±l": 1672,
      "ĠgÃ¼venli": 1673,
      "Ġbilg": 1674,
      "ĠPrioritize": 1675,
      "ÄŁinizi": 1676,
      "uage": 1677,
      "Ġlang": 1678,
      "Ġmev": 1679,
      "Ġpreven": 1680,
      "Ġlanguage": 1681,
      "Ġstu": 1682,
      "yla": 1683,
      "use": 1684,
      "44": 1685,
      "Ġhisset": 1686,
      "tif": 1687,
      "Ġbl": 1688,
      "for": 1689,
      "orning": 1690,
      "Ġsw": 1691,
      "ry": 1692,
      "Ġschedule": 1693,
      "ong": 1694,
      "Ġmorning": 1695,
      "ĠÄ°stanbul": 1696,
      "ssion": 1697,
      "Ġtri": 1698,
      "Ġblue": 1699,
      "kÃ¼": 1700,
      "ich": 1701,
      "Ġpra": 1702,
      "ĠÄ°kinci": 1703,
      "oro": 1704,
      "Ġimport": 1705,
      "Ã§e": 1706,
      "ĠPa": 1707,
      "Ġmat": 1708,
      "Ġmevcut": 1709,
      "Ġsize": 1710,
      "ster": 1711,
      "ran": 1712,
      "Ġcal": 1713,
      "ĠdoÄŁrudan": 1714,
      "Ġazal": 1715,
      "Ġbilgi": 1716,
      "eleri": 1717,
      "Ġrahat": 1718,
      "odoro": 1719,
      "ĠFocus": 1720,
      "Ġwhich": 1721,
      "-p": 1722,
      "Ã¼t": 1723,
      "Ġtamam": 1724,
      "82": 1725,
      "eki": 1726,
      "Ġyat": 1727,
      "omodoro": 1728,
      "Ġbirlikte": 1729,
      "Ġmake": 1730,
      "Ġafter": 1731,
      "rÄ±ca": 1732,
      "Ġspe": 1733,
      "Ġtackle": 1734,
      "kaÃ§": 1735,
      "hti": 1736,
      "Ġall": 1737,
      "ĠyardÄ±mcÄ±": 1738,
      "ugÃ¼n": 1739,
      "Ġthree": 1740,
      "Ġbody": 1741,
      "masÄ±": 1742,
      "Ġrep": 1743,
      "46": 1744,
      "ĠadÄ±mÄ±": 1745,
      "Ġem": 1746,
      "Ġdistrac": 1747,
      "mayÄ±n": 1748,
      "endi": 1749,
      "ĠgÃ¶rev": 1750,
      "unuzu": 1751,
      "Ġyapmaya": 1752,
      "layÄ±": 1753,
      "lara": 1754,
      "Ġsession": 1755,
      "ĠHa": 1756,
      "Ġfeeling": 1757,
      "med": 1758,
      "ĠsÄ±k": 1759,
      "ĠAyrÄ±ca": 1760,
      "asÄ±l": 1761,
      "ĠÃ¶ncelikle": 1762,
      "co": 1763,
      "act": 1764,
      "47": 1765,
      "val": 1766,
      "Ġactivity": 1767,
      "Ġwhere": 1768,
      "ural": 1769,
      "ĠÃĩ": 1770,
      "96": 1771,
      "Ġgar": 1772,
      "Ġnok": 1773,
      "daki": 1774,
      "Ġihti": 1775,
      "yede": 1776,
      "Ġop": 1777,
      "Ġhafif": 1778,
      "ffe": 1779,
      "Ġbur": 1780,
      "Ġactive": 1781,
      "Ġmaintain": 1782,
      "Ġlow": 1783,
      "und": 1784,
      "ĠadÄ±mlar": 1785,
      "ĠseÃ§in": 1786,
      "reath": 1787,
      "nden": 1788,
      "ÄŁu": 1789,
      "Ġphone": 1790,
      "stina": 1791,
      "Ġkah": 1792,
      "ĠseÃ§mek": 1793,
      "ward": 1794,
      "ually": 1795,
      "95": 1796,
      "ĠÃĹ": 1797,
      "Ġbreath": 1798,
      "Ġhal": 1799,
      "76": 1800,
      "Ġhat": 1801,
      "Ġwalk": 1802,
      "Ġkonu": 1803,
      "ating": 1804,
      "Ġgarden": 1805,
      "ĠTh": 1806,
      "Ġbak": 1807,
      "Ġmi": 1808,
      "Ġnext": 1809,
      "75": 1810,
      "sin": 1811,
      "ournal": 1812,
      "Ġcook": 1813,
      "ĠÄ±ÅŁÄ±k": 1814,
      "ĠnasÄ±l": 1815,
      "ĠÅŁun": 1816,
      "Ġjournal": 1817,
      "maktÄ±r": 1818,
      "Ġimportant": 1819,
      "ĠÅŁeyi": 1820,
      "dur": 1821,
      "Ġise": 1822,
      "Ġkalk": 1823,
      "Ġsevi": 1824,
      "Ġright": 1825,
      "Ġreduce": 1826,
      "iner": 1827,
      "ces": 1828,
      "Ġpratik": 1829,
      "erÃ§ek": 1830,
      "Åŀ": 1831,
      "Ġthings": 1832,
      "ments": 1833,
      "Ġpain": 1834,
      "Ġcomplete": 1835,
      "Ġsen": 1836,
      "Ä±lÄ±": 1837,
      "Ã¶r": 1838,
      "ĠadÄ±mÄ±nÄ±zÄ±": 1839,
      "Ġihtiya": 1840,
      "Ġitiner": 1841,
      "Ġoften": 1842,
      "Ġper": 1843,
      "Ġbunu": 1844,
      "red": 1845,
      "Ġuygulama": 1846,
      "Ġetmek": 1847,
      "Ġkendinize": 1848,
      "Ġyet": 1849,
      "Ġoverwhelmed": 1850,
      "zla": 1851,
      "ĠÃ¶nceki": 1852,
      "Ġtan": 1853,
      "Ġuse": 1854,
      "ect": 1855,
      "Ġphoto": 1856,
      "xi": 1857,
      "Ġsayede": 1858,
      "nÄ±": 1859,
      "erli": 1860,
      "Ġfazla": 1861,
      "Ġgardening": 1862,
      "ĠtÃ¼m": 1863,
      "Ġsay": 1864,
      "Ġderin": 1865,
      "81": 1866,
      "Ġgenellikle": 1867,
      "Ġapp": 1868,
      "ize": 1869,
      "Ġfark": 1870,
      "Ġclutter": 1871,
      "Ġbig": 1872,
      "Ġbreaks": 1873,
      "39": 1874,
      "Ġhow": 1875,
      "Ġens": 1876,
      "Ġyok": 1877,
      "tes": 1878,
      "ĠsayÄ±sÄ±": 1879,
      "Ġtake": 1880,
      "ĠaÃ§Ä±k": 1881,
      "Ġaction": 1882,
      "una": 1883,
      "Ġcheck": 1884,
      "enc": 1885,
      "Ġmoving": 1886,
      "Ġkendine": 1887,
      "ĠsÄ±cak": 1888,
      "ĠbaÅŁarÄ±": 1889,
      "Ġrut": 1890,
      "aki": 1891,
      "unun": 1892,
      "Ġeas": 1893,
      "ance": 1894,
      "Ġroom": 1895,
      "Ġsha": 1896,
      "56": 1897,
      "Ġyor": 1898,
      "Ġstres": 1899,
      "ĠmÄ±": 1900,
      "ugh": 1901,
      "Ġduring": 1902,
      "ĠbÃ¶ylece": 1903,
      "ges": 1904,
      "ĠSadece": 1905,
      "ire": 1906,
      "Ġcreate": 1907,
      "leyerek": 1908,
      "Ġenerj": 1909,
      "ĠbaÄŁ": 1910,
      "Ġfin": 1911,
      "Ġtechnique": 1912,
      "miÅŁ": 1913,
      "Ġtak": 1914,
      "ĠolduÄŁu": 1915,
      "time": 1916,
      "Ġitinerary": 1917,
      "Ġala": 1918,
      "Ġgood": 1919,
      "Ġthing": 1920,
      "Ġlight": 1921,
      "Ġflight": 1922,
      "ĠbirkaÃ§": 1923,
      "ĠgerÃ§ek": 1924,
      "ction": 1925,
      "Ġsan": 1926,
      "Ġfi": 1927,
      "Ġlearn": 1928,
      "Ġoverwhelm": 1929,
      "Ġolmak": 1930,
      "chi": 1931,
      "rin": 1932,
      "Ġachi": 1933,
      "Ġul": 1934,
      "ĠUy": 1935,
      "Ġbox": 1936,
      "Ġhar": 1937,
      "Ġfocused": 1938,
      "laÅŁtÄ±r": 1939,
      "Ġhave": 1940,
      "Ġunut": 1941,
      "?\"": 1942,
      "-up": 1943,
      "rk": 1944,
      "Ġdistractions": 1945,
      "Ġprevent": 1946,
      "Ã¼nÃ¼": 1947,
      "ĠStick": 1948,
      "yorsanÄ±z": 1949,
      "Ġmaking": 1950,
      "Ġbit": 1951,
      "ĠulaÅŁ": 1952,
      "77": 1953,
      "Ã¼l": 1954,
      "Ġancak": 1955,
      "ĠsaÄŁlar": 1956,
      "ara": 1957,
      "Ġconne": 1958,
      "dic": 1959,
      "Ġsonu": 1960,
      "bet": 1961,
      "elim": 1962,
      "sk": 1963,
      "iye": 1964,
      "Ġdurumu": 1965,
      "ĠMo": 1966,
      "rup": 1967,
      "Ġpe": 1968,
      "alÄ±": 1969,
      "Ġthro": 1970,
      "sÄ±nda": 1971,
      "dÄ±ÅŁ": 1972,
      "tely": 1973,
      "ĠÃĸrneÄŁin": 1974,
      "ade": 1975,
      "Ġcooking": 1976,
      "Ġakti": 1977,
      "Ġspace": 1978,
      "ÄŁÄ±nÄ±zÄ±": 1979,
      "Ġwhile": 1980,
      "tin": 1981,
      "Ġdik": 1982,
      "Ġbelirlemek": 1983,
      "lÄ±ÄŁÄ±": 1984,
      "cess": 1985,
      "ĠÅŁeyler": 1986,
      "99": 1987,
      "raz": 1988,
      "larÄ±nÄ±z": 1989,
      "ĠolduÄŁunu": 1990,
      "uk": 1991,
      "rain": 1992,
      "Ġprogram": 1993,
      "130": 1994,
      "mer": 1995,
      "ĠÃ¶zel": 1996,
      "ĠPomodoro": 1997,
      "kat": 1998,
      "ÅŁa": 1999,
      "Ġgece": 2000,
      "Ġstudy": 2001,
      "55": 2002,
      "ĠbahÃ§e": 2003,
      "siz": 2004,
      "Ġcommit": 2005,
      "Ãĸ": 2006,
      "ties": 2007,
      "Ġneden": 2008,
      "Ġgre": 2009,
      "ĠdÄ±ÅŁ": 2010,
      "lace": 2011,
      "Ġsizi": 2012,
      "ĠseÃ§en": 2013,
      "mesi": 2014,
      "Ġpainting": 2015,
      "Ġcompletely": 2016,
      "bir": 2017,
      "side": 2018,
      "Ġleast": 2019,
      "Ġuzun": 2020,
      "ated": 2021,
      "larÄ±n": 2022,
      "ĠbÃ¶l": 2023,
      "Ġwant": 2024,
      "Ġtamamen": 2025,
      "Ġdetay": 2026,
      "Ġseviy": 2027,
      "Ġyel": 2028,
      "lexi": 2029,
      "ĠTake": 2030,
      ").": 2031,
      "Ġwat": 2032,
      "Ġfol": 2033,
      "Ġmu": 2034,
      "Ġgreen": 2035,
      "aha": 2036,
      "Ġblock": 2037,
      "Ã¼nkÃ¼": 2038,
      "ĠgeÃ§ir": 2039,
      "Ġkapat": 2040,
      "ĠartÄ±r": 2041,
      "Ġses": 2042,
      "Ġthrough": 2043,
      "line": 2044,
      "Ġsig": 2045,
      "leye": 2046,
      "Ã§a": 2047,
      "Ġtelefonunuz": 2048,
      "ks": 2049,
      "Ġaway": 2050,
      "dÄ±ÄŁÄ±nÄ±z": 2051,
      "stination": 2052,
      "ĠdÃ¶": 2053,
      "Ġstri": 2054,
      "Ġflexi": 2055,
      "ĠMotiva": 2056,
      "Ġbulun": 2057,
      "ĠyÃ¼k": 2058,
      "ĠEv": 2059,
      "Ġred": 2060,
      "ĠyÃ¼rÃ¼": 2061,
      "112": 2062,
      "ight": 2063,
      "Ġjournaling": 2064,
      "ĠalÄ±p": 2065,
      "65": 2066,
      "Ġrespond": 2067,
      "ĠÃĸÄŁ": 2068,
      "100": 2069,
      "fer": 2070,
      "Ġarea": 2071,
      "rdÄ±r": 2072,
      "ĠÄ±ÅŁÄ±": 2073,
      "lish": 2074,
      "abilirsiniz": 2075,
      "Ġwhite": 2076,
      "bil": 2077,
      "Ġince": 2078,
      "ĠvÃ¼": 2079,
      "tive": 2080,
      "97": 2081,
      "lendir": 2082,
      "ĠÅŀ": 2083,
      "Ġpay": 2084,
      "Ġter": 2085,
      "gy": 2086,
      "diÄŁiniz": 2087,
      "ĠolmalÄ±": 2088,
      "Ġtimes": 2089,
      "Ġyellow": 2090,
      "erine": 2091,
      "Ġchange": 2092,
      "ential": 2093,
      "Ġstrict": 2094,
      "ssential": 2095,
      "Ġbest": 2096,
      "iting": 2097,
      "Ġzorluk": 2098,
      "ez": 2099,
      "Ġnat": 2100,
      "ĠaynÄ±": 2101,
      "Ġact": 2102,
      "izi": 2103,
      "ĠKÃ¼Ã§Ã¼k": 2104,
      "ĠWhat": 2105,
      "Ġfinish": 2106,
      "Ã¼nÃ¼z": 2107,
      "ĠodaklanÄ±n": 2108,
      "Ġregular": 2109,
      "'n": 2110,
      "Ġsuyun": 2111,
      "Ġmind": 2112,
      "sunuz": 2113,
      "esi": 2114,
      "Ġhours": 2115,
      "ĠIn": 2116,
      "Ġquestions": 2117,
      "we": 2118,
      "Ġkeli": 2119,
      "dun": 2120,
      "ils": 2121,
      "Ġenti": 2122,
      "Ġfollow": 2123,
      "Ġdis": 2124,
      "Ġhelps": 2125,
      "114": 2126,
      "Ġentire": 2127,
      "Ġdedic": 2128,
      "ĠÃ§Ã¼nkÃ¼": 2129,
      "lere": 2130,
      "66": 2131,
      "ĠIt": 2132,
      "ople": 2133,
      "ĠkayÄ±tta": 2134,
      "Ġlong": 2135,
      "ĠyÃ¼zme": 2136,
      "Ġpeople": 2137,
      "Ġsup": 2138,
      "manÄ±zÄ±": 2139,
      "Ġdark": 2140,
      "lerin": 2141,
      "113": 2142,
      "po": 2143,
      "sical": 2144,
      "Ä±cÄ±": 2145,
      "Ġsaatleri": 2146,
      "ins": 2147,
      "Ġhaya": 2148,
      "liÄŁi": 2149,
      "ĠAvoid": 2150,
      "Ġensure": 2151,
      "..": 2152,
      "ous": 2153,
      "ves": 2154,
      "Ġwalking": 2155,
      "110": 2156,
      "Ġyan": 2157,
      "94": 2158,
      "urg": 2159,
      "lerde": 2160,
      "120": 2161,
      "-pressure": 2162,
      "Ġeg": 2163,
      "Ġyeterli": 2164,
      "ysical": 2165,
      "graph": 2166,
      "Ġphysical": 2167,
      "lardÄ±r": 2168,
      "ÄŁa": 2169,
      "ĠÃ¼zerine": 2170,
      ".\"": 2171,
      "ans": 2172,
      "ĠpaylaÅŁ": 2173,
      "inizde": 2174,
      "ĠCh": 2175,
      "Ġsun": 2176,
      "vaÅŁ": 2177,
      "ush": 2178,
      "oy": 2179,
      "Ġbiri": 2180,
      "74": 2181,
      "ileri": 2182,
      "Ġburn": 2183,
      "menizi": 2184,
      "Ġchun": 2185,
      "Ġflexible": 2186,
      "vam": 2187,
      "layarak": 2188,
      "Ġstarting": 2189,
      "Ġsizin": 2190,
      "Ġpar": 2191,
      "Ġfeels": 2192,
      "Ġphotograph": 2193,
      "Ġessential": 2194,
      "Ġegz": 2195,
      "let": 2196,
      "Ġtoday": 2197,
      "'in": 2198,
      "Ġelse": 2199,
      "ĠyakÄ±n": 2200,
      "Ġstay": 2201,
      "larÄ±nÄ±zÄ±": 2202,
      "room": 2203,
      "Ġfeelings": 2204,
      "read": 2205,
      "vities": 2206,
      "Ġx": 2207,
      "Ġkor": 2208,
      "ally": 2209,
      "Ġsignal": 2210,
      "Ġcool": 2211,
      "ĠalÄ±n": 2212,
      "Ġtry": 2213,
      "Ġactivities": 2214,
      "Ġbrain": 2215,
      "ling": 2216,
      "ĠÄ±": 2217,
      "Ġwho": 2218,
      "Ġburnout": 2219,
      "Ġphotography": 2220,
      "ĠGÃ¼nlÃ¼k": 2221,
      "gun": 2222,
      "oth": 2223,
      "dÄ±n": 2224,
      "Ġstress": 2225,
      "ween": 2226,
      "Ġbetween": 2227,
      "ĠiÅŁe": 2228,
      "Ġresponding": 2229,
      "Ġgro": 2230,
      "Ġdif": 2231,
      "Ġwater": 2232,
      "tic": 2233,
      "ded": 2234,
      "ĠDaha": 2235,
      "ital": 2236,
      "now": 2237,
      "ĠÃ§Ã¶zÃ¼m": 2238,
      "Ġchunks": 2239,
      "Ġbut": 2240,
      "ayÄ±": 2241,
      "Ġdikkat": 2242,
      "Ġmatter": 2243,
      "116": 2244,
      "Ġegzers": 2245,
      "fe": 2246,
      "Ġunderstanding": 2247,
      "Ġgir": 2248,
      "oplam": 2249,
      "san": 2250,
      "Ġolun": 2251,
      "ĠÃ§eki": 2252,
      "Ġrutin": 2253,
      "ĠbugÃ¼n": 2254,
      "az": 2255,
      "Ġzi": 2256,
      "Ġkitab": 2257,
      "ece": 2258,
      "Ġless": 2259,
      "ĠMotivation": 2260,
      "aca": 2261,
      "dentif": 2262,
      "Ġdevam": 2263,
      "ching": 2264,
      "Ġenergy": 2265,
      "Ġkahve": 2266,
      "uya": 2267,
      "Ġki": 2268,
      "Ġuntil": 2269,
      "Ġnokta": 2270,
      "leyip": 2271,
      "ĠĠ": 2272,
      "irim": 2273,
      "are": 2274,
      "Ġede": 2275,
      "gether": 2276,
      "oose": 2277,
      "150": 2278,
      "mo": 2279,
      "decek": 2280,
      "Ġeasi": 2281,
      "Ġgoing": 2282,
      "Ġbedroom": 2283,
      "ĠHe": 2284,
      "ĠvÃ¼cu": 2285,
      "Ġstick": 2286,
      "Ġmess": 2287,
      "ĠTry": 2288,
      "Ġtogether": 2289,
      "ĠÃ¼": 2290,
      "ĠÃĸÄŁren": 2291,
      "luk": 2292,
      "Ġanything": 2293,
      "alarÄ±": 2294,
      "landÄ±": 2295,
      "ĠyavaÅŁ": 2296,
      "ĠyÃ¼rÃ¼yÃ¼ÅŁe": 2297,
      "sÄ±n": 2298,
      "Ġsabit": 2299,
      "Ġrela": 2300,
      "ĠÃ§iz": 2301,
      "ĠkayÄ±ta": 2302,
      "Ġkendinizi": 2303,
      "ĠkullanÄ±n": 2304,
      "136": 2305,
      "ĠyÃ¼zecek": 2306,
      "Ġuyan": 2307,
      "Ġasking": 2308,
      "Ġortam": 2309,
      "Ġspeaking": 2310,
      "79": 2311,
      "Ġmis": 2312,
      "ound": 2313,
      "ĠdoÄŁal": 2314,
      "Ġotur": 2315,
      "Ġden": 2316,
      "Ġmove": 2317,
      "ear": 2318,
      "Ä±nÄ±za": 2319,
      "ways": 2320,
      "âĢ": 2321,
      "Ġimmediate": 2322,
      "ĠAra": 2323,
      "ÄŁÄ±na": 2324,
      "Ġdeney": 2325,
      "imming": 2326,
      "lerden": 2327,
      "lÃ¼": 2328,
      "idir": 2329,
      "Ġgelecek": 2330,
      "ĠÅŁunlardÄ±r": 2331,
      "sÄ±na": 2332,
      "Ġstate": 2333,
      "ĠistediÄŁiniz": 2334,
      "'re": 2335,
      "Ġalmak": 2336,
      "lim": 2337,
      "Ġtickets": 2338,
      "Ġnow": 2339,
      "Ġswimming": 2340,
      "Ġkaz": 2341,
      "Ġedi": 2342,
      "lÄ±ÅŁ": 2343,
      "erinde": 2344,
      "ĠFri": 2345,
      "rate": 2346,
      "Ġkonuyu": 2347,
      "ffee": 2348,
      "ĠgÃ¼Ã§": 2349,
      "Ġtrip": 2350,
      "Ġrepe": 2351,
      "140": 2352,
      "Ġeasier": 2353,
      "Ġbr": 2354,
      "pt": 2355,
      "Ġnight": 2356,
      "ĠseÃ§enek": 2357,
      "kip": 2358,
      "cih": 2359,
      "Ġkayn": 2360,
      "Ġnatural": 2361,
      "Ġconf": 2362,
      "115": 2363,
      "Ä±ndan": 2364,
      "Ġkullanarak": 2365,
      "Ġdiye": 2366,
      "Ġway": 2367,
      "Ġyolu": 2368,
      "Ġhigh": 2369,
      "vir": 2370,
      "Ġcoffee": 2371,
      "ĠgÃ¶nder": 2372,
      "ssible": 2373,
      "Ġuzak": 2374,
      "'i": 2375,
      "38": 2376,
      "tire": 2377,
      "ho": 2378,
      "160": 2379,
      "Ġstep": 2380,
      "48": 2381,
      "Ġmental": 2382,
      "Ġekran": 2383,
      "Ġtercih": 2384,
      "Ġkam": 2385,
      "Ġverin": 2386,
      "Ġkez": 2387,
      "Ġenj": 2388,
      "Ġbedtime": 2389,
      "Ġhafta": 2390,
      "ĠPair": 2391,
      "masÄ±nÄ±": 2392,
      "ĠadÄ±mlarÄ±": 2393,
      "viron": 2394,
      "Ġlar": 2395,
      "gn": 2396,
      "inizin": 2397,
      "abi": 2398,
      "Ġfriend": 2399,
      "Ġbiraz": 2400,
      "Ġilerle": 2401,
      "Ġopen": 2402,
      "135": 2403,
      "Ġwa": 2404,
      "Ġifade": 2405,
      "izin": 2406,
      "Ġfocusing": 2407,
      "Ġpressure": 2408,
      "ĠArdÄ±ndan": 2409,
      "ĠbahÃ§eniz": 2410,
      "lardan": 2411,
      "Ġfix": 2412,
      "Ġkamera": 2413,
      "vironment": 2414,
      "ĠyapmayÄ±": 2415,
      "ele": 2416,
      "ĠyaptÄ±": 2417,
      "ĠdeÄŁiÅŁ": 2418,
      "Ġflights": 2419,
      "Ġsam": 2420,
      "ber": 2421,
      "ĠKend": 2422,
      "ĠvÃ¼cudun": 2423,
      "hers": 2424,
      "**:": 2425,
      "Ġyeme": 2426,
      "Ġhava": 2427,
      "Ġbetter": 2428,
      "do": 2429,
      "Ġknow": 2430,
      "sÄ±z": 2431,
      "ld": 2432,
      "Ġdeste": 2433,
      "Ġsoh": 2434,
      "Ġvis": 2435,
      "Ġothers": 2436,
      "landÄ±r": 2437,
      "ount": 2438,
      "Ġtal": 2439,
      "yen": 2440,
      "Ä±mÄ±": 2441,
      "kli": 2442,
      "Ġthou": 2443,
      "Ġenvironment": 2444,
      "ĠHaf": 2445,
      "Ġsamimi": 2446,
      "fa": 2447,
      "Ġyara": 2448,
      "ĠhatÄ±r": 2449,
      "dentify": 2450,
      "iyor": 2451,
      "Ġbud": 2452,
      "Ġsuch": 2453,
      "evable": 2454,
      "Ġhayat": 2455,
      "Ġachievable": 2456,
      "Ġdestination": 2457,
      "sts": 2458,
      "ĠistediÄŁinizi": 2459,
      "ĠUyku": 2460,
      "ĠkolaylaÅŁtÄ±r": 2461,
      "omm": 2462,
      "tar": 2463,
      "Ġnon": 2464,
      "tÄ±ra": 2465,
      "ĠgÃ¶rÃ¼n": 2466,
      "ĠAralÄ±k": 2467,
      "yon": 2468,
      "Ġmut": 2469,
      "asy": 2470,
      "ĠBaÅŁlangÄ±Ã§": 2471,
      "Ġthought": 2472,
      "gle": 2473,
      "vit": 2474,
      "Ġful": 2475,
      "ines": 2476,
      "ĠComm": 2477,
      "Ġfollowed": 2478,
      "ger": 2479,
      "ĠgÃ¼neÅŁ": 2480,
      "ĠaraÃ§": 2481,
      "Ġemin": 2482,
      "Ġurg": 2483,
      "ĠsÃ¶": 2484,
      "meyin": 2485,
      "Ġbudget": 2486,
      "Ġmaster": 2487,
      "Ġanla": 2488,
      "imdi": 2489,
      "lemeyi": 2490,
      "Ġgerekir": 2491,
      "Ġyorgun": 2492,
      "eye": 2493,
      "Ġactually": 2494,
      "Ġsoru": 2495,
      "tention": 2496,
      "Ġeasy": 2497,
      "Ġtaking": 2498,
      "Ġproj": 2499,
      "Ġiy": 2500,
      "ĠdÄ±ÅŁarÄ±": 2501,
      "abilece": 2502,
      "cing": 2503,
      "ĠFriendship": 2504,
      "kÃ¼n": 2505,
      "Ġyaparak": 2506,
      "106": 2507,
      "Ġtimer": 2508,
      "Ġsessions": 2509,
      "sp": 2510,
      "Ġpoz": 2511,
      "oogle": 2512,
      "Bu": 2513,
      "cisi": 2514,
      "ÄŁÄ±n": 2515,
      "arken": 2516,
      "Ġkalan": 2517,
      "ile": 2518,
      "ĠkiÅŁi": 2519,
      "Ġgra": 2520,
      "Ġimp": 2521,
      "gress": 2522,
      "Ġpractice": 2523,
      "Ġyoksa": 2524,
      "cy": 2525,
      "Ġown": 2526,
      "ablish": 2527,
      "Ġsupport": 2528,
      "Ġacc": 2529,
      "Ġpenc": 2530,
      ").Ċ": 2531,
      "ĠsÄ±ra": 2532,
      "ora": 2533,
      "125": 2534,
      "ĠPause": 2535,
      "Ġsaatlerinde": 2536,
      "mel": 2537,
      "stablish": 2538,
      "),": 2539,
      "eh": 2540,
      "ĠSe": 2541,
      "Ġgetir": 2542,
      "tim": 2543,
      "Ġprogress": 2544,
      "Ġtari": 2545,
      "yÄ±p": 2546,
      "ĠBÃ¶": 2547,
      "Ġkelim": 2548,
      "Ã¼ne": 2549,
      "Ġaktivit": 2550,
      "Ġstop": 2551,
      "Ġsimp": 2552,
      "ĠyaÅŁ": 2553,
      "109": 2554,
      "Ġdestek": 2555,
      "Ġlet": 2556,
      "aring": 2557,
      "Ġreward": 2558,
      "'Ä±n": 2559,
      "'ya": 2560,
      "ÄŁÄ±nda": 2561,
      "ĠÃ¶ncelik": 2562,
      "Ä±la": 2563,
      "mektir": 2564,
      "Ä±nÄ±zda": 2565,
      "Ġtekn": 2566,
      "Ġazalt": 2567,
      "105": 2568,
      "126": 2569,
      "Ġdedicated": 2570,
      "ssiz": 2571,
      "Ġuygula": 2572,
      "seniz": 2573,
      "ĠBel": 2574,
      "ide": 2575,
      "129": 2576,
      "aries": 2577,
      "ness": 2578,
      "Ġactively": 2579,
      "ĠyaklaÅŁ": 2580,
      "Ġsohbet": 2581,
      "Ġworking": 2582,
      "Ġshow": 2583,
      "yorsunuz": 2584,
      "Ġinternal": 2585,
      "Ġshared": 2586,
      "Ġsy": 2587,
      "tiÄŁiniz": 2588,
      "Ġkab": 2589,
      "ĠTelefon": 2590,
      "Ġear": 2591,
      "Ġbound": 2592,
      "Ġdrin": 2593,
      "crets": 2594,
      "larla": 2595,
      "inizden": 2596,
      "Ã¼mkÃ¼n": 2597,
      "Ġyerel": 2598,
      "Ġduyg": 2599,
      "irecek": 2600,
      "Ġsetting": 2601,
      "ĠChoose": 2602,
      "Ġeff": 2603,
      "Ġbitir": 2604,
      "Ġjackets": 2605,
      "malÄ±sÄ±nÄ±z": 2606,
      "Ġput": 2607,
      "Ä±lan": 2608,
      "rix": 2609,
      "Ġreset": 2610,
      "os": 2611,
      "Ġsab": 2612,
      "ĠÄ°zmir": 2613,
      "Ġquick": 2614,
      "hower": 2615,
      "isen": 2616,
      "Ġcalm": 2617,
      "Ġide": 2618,
      "layÄ±p": 2619,
      "havi": 2620,
      "isenhower": 2621,
      "ebilir": 2622,
      "load": 2623,
      "ĠseÃ§ip": 2624,
      "Ġcur": 2625,
      "ood": 2626,
      "mez": 2627,
      "149": 2628,
      "ĠkonuÅŁma": 2629,
      "ready": 2630,
      "ough": 2631,
      "Ġsev": 2632,
      "Ġhav": 2633,
      "Ġegzersiz": 2634,
      "Ġmakes": 2635,
      "havior": 2636,
      "ĠfarklÄ±": 2637,
      "Ġtam": 2638,
      "Ġalready": 2639,
      "Ġboxes": 2640,
      "ĠsaÄŁlaya": 2641,
      "Ġenerji": 2642,
      "cretsiz": 2643,
      "43": 2644,
      "ĠDay": 2645,
      "Ġhapp": 2646,
      "ĠBÃ¶ylece": 2647,
      "Ġbooks": 2648,
      "Ġgeri": 2649,
      "Ġdec": 2650,
      "Ġbehavior": 2651,
      "enizi": 2652,
      "ĠÃĸÄŁrenme": 2653,
      "ding": 2654,
      "ng": 2655,
      "ĠMat": 2656,
      "117": 2657,
      "Ġyapma": 2658,
      "ĠnoktasÄ±": 2659,
      "Ġsimply": 2660,
      "Ġdef": 2661,
      "ĠihtiyaÃ§": 2662,
      "Ġconnection": 2663,
      "137": 2664,
      "int": 2665,
      "ĠIdentify": 2666,
      "Ġtrust": 2667,
      "Ġsaatte": 2668,
      "ĠYat": 2669,
      "ĠAncak": 2670,
      "mesini": 2671,
      "Ġair": 2672,
      "ĠkeÅŁ": 2673,
      "Ġsec": 2674,
      "ĠbÄ±rakÄ±n": 2675,
      "'nÄ±n": 2676,
      "ĠMatrix": 2677,
      "Ġfind": 2678,
      "round": 2679,
      "inizdeki": 2680,
      "ĠgÃ¶ster": 2681,
      "Ġdesi": 2682,
      "Ġgereken": 2683,
      "alÄ±k": 2684,
      "Ġgid": 2685,
      "lÄ±ÄŁÄ±nÄ±": 2686,
      "Ġsonunda": 2687,
      "Ġclean": 2688,
      "ĠsonuÃ§": 2689,
      "ĠMake": 2690,
      "Ġtrans": 2691,
      "Ġgit": 2692,
      "ĠMe": 2693,
      "Ġbelirli": 2694,
      "Ġoverwhelming": 2695,
      "Ġlarge": 2696,
      "Ġonu": 2697,
      "ĠKendi": 2698,
      "ult": 2699,
      "pe": 2700,
      "ĠToplam": 2701,
      "ds": 2702,
      "Ġlif": 2703,
      "Ã¼s": 2704,
      "ected": 2705,
      "Ġspot": 2706,
      "Ġdakikada": 2707,
      "ĠÃ¼cretsiz": 2708,
      "-in": 2709,
      "Ġval": 2710,
      "ĠKon": 2711,
      "kanlÄ±k": 2712,
      "manÄ±n": 2713,
      "ctive": 2714,
      "Ġchecking": 2715,
      "Ġpri": 2716,
      "ĠSizin": 2717,
      "Ġgenel": 2718,
      "Ġtutun": 2719,
      "Ġfew": 2720,
      "su": 2721,
      "ĠunutmayÄ±n": 2722,
      "Ġplants": 2723,
      "fet": 2724,
      "Ġuygulam": 2725,
      "malar": 2726,
      "ĠpiÅŁirecek": 2727,
      "ĠgÃ¶rÃ¼ÅŁ": 2728,
      "Ġcont": 2729,
      "Ġwithin": 2730,
      "Ġinterrup": 2731,
      "ost": 2732,
      "mation": 2733,
      "Ġkarar": 2734,
      "larÄ±na": 2735,
      "Ġbeing": 2736,
      "sh": 2737,
      "itiate": 2738,
      "arika": 2739,
      "lerle": 2740,
      "Ġcomp": 2741,
      "Ġgetting": 2742,
      "ÅŁÄ±k": 2743,
      "Ġgidecek": 2744,
      "Ġteknik": 2745,
      "Ġclar": 2746,
      "uzur": 2747,
      "Ġsystem": 2748,
      "'e": 2749,
      "ĠdoÄŁr": 2750,
      "ime": 2751,
      "urken": 2752,
      "Ġfriends": 2753,
      "Ġrelax": 2754,
      "ĠEisenhower": 2755,
      "ex": 2756,
      "gÃ¼n": 2757,
      "maktan": 2758,
      "ĠiÅŁlem": 2759,
      "vite": 2760,
      "menin": 2761,
      "Ġkoy": 2762,
      "Ġenjoy": 2763,
      "ĠRes": 2764,
      "var": 2765,
      "Ġbooking": 2766,
      "Ġkaynak": 2767,
      "Ġtur": 2768,
      "Ġnotebooks": 2769,
      "146": 2770,
      "ĠkoÅŁ": 2771,
      "145": 2772,
      "ĠÃ¶neriler": 2773,
      "ba": 2774,
      "Ġwaiting": 2775,
      "Ġspeak": 2776,
      "bilirsin": 2777,
      "ĠsÃ¼reci": 2778,
      "ĠdÃ¼ÅŁÃ¼nÃ¼n": 2779,
      "Ġperf": 2780,
      "Ġstatements": 2781,
      "Ġsuyu": 2782,
      "Ġfik": 2783,
      "ĠZaman": 2784,
      "Ġalt": 2785,
      "Ġthoughts": 2786,
      "Ã¼ÄŁ": 2787,
      "ĠbaÅŁlangÄ±": 2788,
      "Ġbile": 2789,
      "ĠÃ§Ä±kar": 2790,
      "ÅŁaÄŁÄ±": 2791,
      "Ġmuch": 2792,
      "cul": 2793,
      "letiÅŁim": 2794,
      "Ġanda": 2795,
      "ĠeÄŁ": 2796,
      "Ġkazan": 2797,
      "other": 2798,
      "Ġthere": 2799,
      "Ġaut": 2800,
      "maz": 2801,
      "dÄ±ÄŁÄ±nÄ±": 2802,
      "Ġinfor": 2803,
      "Ġtakip": 2804,
      "exp": 2805,
      "endar": 2806,
      "ĠadÄ±mda": 2807,
      "ĠmÃ¼mkÃ¼n": 2808,
      "Ġdays": 2809,
      "ĠboÅŁ": 2810,
      "go": 2811,
      "ĠayÄ±rÄ±n": 2812,
      "Ġbilgiler": 2813,
      "aba": 2814,
      "Ġyere": 2815,
      "ose": 2816,
      "Ġpla": 2817,
      "Ġkut": 2818,
      "Ġkural": 2819,
      "Ġgenu": 2820,
      "Ġihtiyac": 2821,
      ".,": 2822,
      "hy": 2823,
      "ĠArkadaÅŁ": 2824,
      "anÄ±zÄ±": 2825,
      "ĠGÃ¼nÃ¼n": 2826,
      "ended": 2827,
      "Ġind": 2828,
      "Ġwind": 2829,
      "Ġbad": 2830,
      "Ġdra": 2831,
      "Ġinformation": 2832,
      "Ġboth": 2833,
      "Ġbackpacks": 2834,
      "Ġexpress": 2835,
      "usu": 2836,
      "Ġaraya": 2837,
      "Ġsur": 2838,
      "Ġdoable": 2839,
      "ĠbÃ¼t": 2840,
      "Ġunexp": 2841,
      "Ġunexpected": 2842,
      "Ġeffort": 2843,
      "istem": 2844,
      "Ġlamps": 2845,
      "Ġhika": 2846,
      "Ġpencils": 2847,
      "con": 2848,
      "Ġallow": 2849,
      "Ġstret": 2850,
      "156": 2851,
      "Ġeras": 2852,
      "ĠÃ¶neririm": 2853,
      "Ġlocal": 2854,
      "Ġlife": 2855,
      "itap": 2856,
      "ones": 2857,
      "Ġwaking": 2858,
      "Ġanother": 2859,
      "155": 2860,
      "Ġorganize": 2861,
      "Ġerasers": 2862,
      "09": 2863,
      "sini": 2864,
      "isay": 2865,
      "ĠsaÄŁlÄ±k": 2866,
      "bileceÄŁiniz": 2867,
      "Ġtav": 2868,
      "Ġbitk": 2869,
      "Ġdeneyim": 2870,
      "Ġnaturally": 2871,
      "fic": 2872,
      "Ġmal": 2873,
      "Ġtrig": 2874,
      "Ġanlat": 2875,
      "ĠÃ¶ÄŁle": 2876,
      "be": 2877,
      "ĠÃ§Ä±kacak": 2878,
      "Ġkarma": 2879,
      "Ġearly": 2880,
      "Ġboundaries": 2881,
      "ĠGoogle": 2882,
      "Ġcalendar": 2883,
      "Ġbulmak": 2884,
      "ĠdeÄŁerl": 2885,
      "ĠÃ§alÄ±ÅŁma": 2886,
      "Ġsets": 2887,
      "Ġtackling": 2888,
      "Ġizin": 2889,
      "Ġnokt": 2890,
      "ĠMesaj": 2891,
      "Ġconversations": 2892,
      "âĢĶ": 2893,
      "Ġnedenle": 2894,
      "Ġclock": 2895,
      "Ġsak": 2896,
      "ĠiÃ§ine": 2897,
      "Ġvak": 2898,
      "Ġsessiz": 2899,
      "ĠaydÄ±n": 2900,
      "iliz": 2901,
      "Ġcas": 2902,
      "Ġpack": 2903,
      "Ġhot": 2904,
      "134": 2905,
      "diÄŁi": 2906,
      "Ġblocks": 2907,
      "oma": 2908,
      ".)": 2909,
      "sik": 2910,
      "Ġhard": 2911,
      "Ġdri": 2912,
      "Ġuya": 2913,
      "ĠbaÅŁlar": 2914,
      "ĠÄ°letiÅŁim": 2915,
      "ĠThe": 2916,
      "Ġcontact": 2917,
      "ĠkarÅŁÄ±laÅŁ": 2918,
      "Ġreal": 2919,
      "plement": 2920,
      "ĠDown": 2921,
      "kÃ§e": 2922,
      "ĠcÃ¼mle": 2923,
      "Ġbicycles": 2924,
      "less": 2925,
      "Ġtutacak": 2926,
      "Ġtakes": 2927,
      "Ġautoma": 2928,
      "ilizce": 2929,
      "ori": 2930,
      "**.": 2931,
      "127": 2932,
      "Ġkonuda": 2933,
      "ĠDownload": 2934,
      "ana": 2935,
      "uyla": 2936,
      "Ġarka": 2937,
      "ĠInitiate": 2938,
      "Ġtoo": 2939,
      "Ġneeds": 2940,
      "yet": 2941,
      "Ġkey": 2942,
      "ulate": 2943,
      "ĠAsk": 2944,
      "ĠÃ¶neriyi": 2945,
      "karak": 2946,
      "Ġwords": 2947,
      "Ġdeclutter": 2948,
      "ĠbaÅŁlayÄ±p": 2949,
      "comm": 2950,
      "Ġthin": 2951,
      "Ġconce": 2952,
      "Ġonun": 2953,
      "107": 2954,
      "Ġvarsa": 2955,
      "mem": 2956,
      "ĠAl": 2957,
      "ĠTÃ¼r": 2958,
      "ĠÄ°yi": 2959,
      "ngilizce": 2960,
      "ould": 2961,
      "Ġhotel": 2962,
      "ĠaÅŁ": 2963,
      "ĠAd": 2964,
      "Ä±nÄ±r": 2965,
      "Ġenough": 2966,
      "Ġshare": 2967,
      "ushing": 2968,
      "Ġmessage": 2969,
      "hangi": 2970,
      "ĠHangi": 2971,
      "ĠsÃ¼rec": 2972,
      "ĠIm": 2973,
      "Ġexact": 2974,
      "ĠzorluÄŁu": 2975,
      "Ġentirely": 2976,
      "ulti": 2977,
      "ĠYes": 2978,
      "Ġdrinking": 2979,
      "als": 2980,
      "Ġexist": 2981,
      "ĠsaÄŁlayÄ±n": 2982,
      "Ġdinlen": 2983,
      "Ġhuzur": 2984,
      "Ġmik": 2985,
      "isayar": 2986,
      "stant": 2987,
      "orage": 2988,
      "esini": 2989,
      "erim": 2990,
      "ĠdeÄŁer": 2991,
      "ĠdÃ¶n": 2992,
      "alth": 2993,
      "Ġkes": 2994,
      "ory": 2995,
      "Ġstorage": 2996,
      "ĠNumara": 2997,
      "Ġkayded": 2998,
      "42": 2999,
      "Ġap": 3000,
      "Ġmulti": 3001,
      "Ġuyum": 3002,
      "ĠkaÃ§Ä±nÄ±n": 3003,
      "onin": 3004,
      "Ġdeta": 3005,
      "ĠÃ§ev": 3006,
      "Ġchanges": 3007,
      "Ġpart": 3008,
      "uly": 3009,
      "Ġthose": 3010,
      "Ġsee": 3011,
      "Ġsistem": 3012,
      "ĠsÃ¼reÃ§": 3013,
      ".g": 3014,
      "eras": 3015,
      "Ġes": 3016,
      "imli": 3017,
      "Ġmet": 3018,
      "ehir": 3019,
      "ĠgÃ¼nde": 3020,
      "Ġziya": 3021,
      "ĠsÃ¶yle": 3022,
      "Ġurgent": 3023,
      "Ġtruly": 3024,
      "Ġokumaya": 3025,
      "Ġindir": 3026,
      "Ġdiffer": 3027,
      "'inde": 3028,
      "uyor": 3029,
      "ĠSor": 3030,
      "Ġmel": 3031,
      "ĠiÅŁi": 3032,
      "Ġexisting": 3033,
      "Ġend": 3034,
      "Ġprodu": 3035,
      "Ġlast": 3036,
      "Ġvide": 3037,
      "ĠadÄ±mlarla": 3038,
      "ĠImplement": 3039,
      "Ġmaps": 3040,
      "Ġtoprak": 3041,
      "ilt": 3042,
      "Ġinc": 3043,
      "Ġadv": 3044,
      "ilik": 3045,
      "Ġrit": 3046,
      "Ġusually": 3047,
      "Ġcameras": 3048,
      "ĠvÃ¼cudunuz": 3049,
      "melis": 3050,
      "Ġtarih": 3051,
      "tle": 3052,
      "Ġgive": 3053,
      "Ġimpro": 3054,
      "muÅŁ": 3055,
      "ĠadÄ±": 3056,
      "Ġpark": 3057,
      "inizle": 3058,
      "Ġyeniden": 3059,
      "conne": 3060,
      "yn": 3061,
      "cial": 3062,
      "Ġask": 3063,
      "ĠfÄ±r": 3064,
      "Ġuyk": 3065,
      "Ġmesa": 3066,
      "Ġplanlama": 3067,
      "Ġhealth": 3068,
      "ĠdiÄŁer": 3069,
      "Ġoffline": 3070,
      "Ġdrawer": 3071,
      "Ġaside": 3072,
      "Ä±ntÄ±": 3073,
      "Ġeye": 3074,
      "Ġmant": 3075,
      "Ġalways": 3076,
      "-ended": 3077,
      "bu": 3078,
      "ĠdakikayÄ±": 3079,
      "Ġmelat": 3080,
      "isini": 3081,
      "ĠbaÅŁka": 3082,
      "ĠÄ°ngilizce": 3083,
      "Ġhas": 3084,
      "eve": 3085,
      "haba": 3086,
      "Ġkayna": 3087,
      "Ġfikir": 3088,
      "lass": 3089,
      "Ġmelatonin": 3090,
      "dÄ±ÄŁÄ±": 3091,
      "ĠkaÄŁÄ±": 3092,
      "Ġmus": 3093,
      "Ġuyuma": 3094,
      "Ġmeth": 3095,
      "layan": 3096,
      "Ġsaniye": 3097,
      "Ġadvance": 3098,
      "Ġmethod": 3099,
      "Ġbun": 3100,
      "elf": 3101,
      "ĠEstablish": 3102,
      "?Ċ": 3103,
      "ĠkÄ±s": 3104,
      "ĠcÃ¼ml": 3105,
      "ĠyÃ¼zden": 3106,
      "ĠgÃ¶zlem": 3107,
      "Ġmed": 3108,
      "face": 3109,
      "sap": 3110,
      "Ġsharing": 3111,
      "lÄ±ÅŁkanlÄ±k": 3112,
      "Ġaya": 3113,
      "lemeye": 3114,
      "Ġhareke": 3115,
      "Ġavoiding": 3116,
      "ĠSayÄ±n": 3117,
      "Ġbilgiyi": 3118,
      "Ġbeco": 3119,
      "icro": 3120,
      "Ġmatters": 3121,
      "vely": 3122,
      "Ġsol": 3123,
      "ĠbaÅŁlangÄ±Ã§tÄ±r": 3124,
      "Ġoutside": 3125,
      "eleb": 3126,
      "gÄ±": 3127,
      "Ġverir": 3128,
      "Ġileri": 3129,
      "Ä±yor": 3130,
      "ĠSÃ¼re": 3131,
      "larÄ±nda": 3132,
      "Ġbelirleyerek": 3133,
      "ĠamaÃ§": 3134,
      "ĠhiÃ§": 3135,
      "Ġremo": 3136,
      "gital": 3137,
      "Ġders": 3138,
      "ather": 3139,
      "ĠzamanÄ±": 3140,
      "Ġevde": 3141,
      "Ġinclu": 3142,
      "ĠGÃ¼nde": 3143,
      "Ã¶rn": 3144,
      "ĠÄ±ÅŁÄ±ÄŁÄ±": 3145,
      "Ġbar": 3146,
      "Ġdesk": 3147,
      "gel": 3148,
      "leÅŁtirin": 3149,
      "Ġuyand": 3150,
      "form": 3151,
      "ĠÃ§alÄ±ÅŁmak": 3152,
      "ĠgÃ¶zden": 3153,
      "Ġaktiviteler": 3154,
      "59": 3155,
      "Ġsat": 3156,
      "ĠTechnique": 3157,
      "Ġglass": 3158,
      "Ġform": 3159,
      "Ġvb": 3160,
      "Ġdoes": 3161,
      "ĠplanlayÄ±n": 3162,
      "Ġduvar": 3163,
      "ÄŁÄ±nÄ±zda": 3164,
      "ĠSeyahat": 3165,
      "Ġtavsi": 3166,
      "ĠThis": 3167,
      "inden": 3168,
      "oda": 3169,
      "yal": 3170,
      "ĠkatÄ±": 3171,
      "liÅŁ": 3172,
      "Ä±ktan": 3173,
      "ularÄ±": 3174,
      "Ġona": 3175,
      "Ġdeneye": 3176,
      "ĠoluÅŁturun": 3177,
      "Ġhale": 3178,
      "ĠBelir": 3179,
      "Ġsecond": 3180,
      "Ġdifferent": 3181,
      "ĠÃ§i": 3182,
      "resh": 3183,
      "ĠaÅŁaÄŁÄ±": 3184,
      "Ġrequ": 3185,
      "Ġhavuz": 3186,
      "connect": 3187,
      "Ġclo": 3188,
      "Ġplace": 3189,
      "tiri": 3190,
      "cally": 3191,
      "Ġtopic": 3192,
      "Ġgelen": 3193,
      "lence": 3194,
      "ĠĠĊ": 3195,
      "Ġsaying": 3196,
      "Ġones": 3197,
      "Ġreach": 3198,
      "ÄŁun": 3199,
      "Ġob": 3200,
      "Ġclearly": 3201,
      "reating": 3202,
      "-ne": 3203,
      "Ġkullanmak": 3204,
      "duÄŁunuz": 3205,
      "Ġodaklanma": 3206,
      "ĠartÄ±rÄ±r": 3207,
      ",\"": 3208,
      "sing": 3209,
      "ĠÃ¼zerinde": 3210,
      "goti": 3211,
      "ĠarasÄ±nda": 3212,
      "ĠolduÄŁunuz": 3213,
      "Ġinterval": 3214,
      "ĠtanÄ±ÅŁ": 3215,
      "tu": 3216,
      "Ġceleb": 3217,
      "Ġdakikalar": 3218,
      "Ġcomes": 3219,
      "Ġsense": 3220,
      "ritik": 3221,
      "Ä±nÄ±zÄ±n": 3222,
      "Ġhedeflerinizi": 3223,
      "Ġoffer": 3224,
      "Ġsurface": 3225,
      "gotiable": 3226,
      "ĠPlan": 3227,
      "Ġpop": 3228,
      "Ġben": 3229,
      "ĠÃ¶zet": 3230,
      "Ġemo": 3231,
      "ĠÅŀu": 3232,
      "-negotiable": 3233,
      "inate": 3234,
      "Ġtrack": 3235,
      "Ġcare": 3236,
      "69": 3237,
      "ĠsÃ¼r": 3238,
      "104": 3239,
      "133": 3240,
      "Ġplanla": 3241,
      "ĠbaÅŁlayarak": 3242,
      "Ġbilgisayar": 3243,
      "67": 3244,
      "Ġprocess": 3245,
      "Ġgroup": 3246,
      "Ġsk": 3247,
      "ĠiÃ§er": 3248,
      "Ġanki": 3249,
      "Ġyolcul": 3250,
      "ĠkayÄ±ttaki": 3251,
      "ĠdeÄŁerlendir": 3252,
      "Ġten": 3253,
      "Ġconsistently": 3254,
      "'Ã¼nde": 3255,
      "ise": 3256,
      "enin": 3257,
      "Ġsahip": 3258,
      "Ġtoplamda": 3259,
      "menize": 3260,
      "min": 3261,
      "Ġcount": 3262,
      "ĠAlÄ±ÅŁkanlÄ±k": 3263,
      "ĠsabahlarÄ±": 3264,
      "...\"": 3265,
      "yo": 3266,
      "ĠdÃ¼zenli": 3267,
      "ĠkarmaÅŁÄ±k": 3268,
      "Ġintervals": 3269,
      "opt": 3270,
      "Ġaktivite": 3271,
      "ĠTÃ¼rkÃ§e": 3272,
      "des": 3273,
      "57": 3274,
      "Ġsort": 3275,
      "147": 3276,
      "own": 3277,
      "Ġetmeye": 3278,
      "Ġekleyin": 3279,
      "ĠsÄ±kÄ±ntÄ±": 3280,
      "Ġiyisi": 3281,
      "Ġclarif": 3282,
      "Ġpres": 3283,
      "Ġhand": 3284,
      "Ġpossible": 3285,
      "elik": 3286,
      "larm": 3287,
      "ĠanlaÅŁ": 3288,
      "132": 3289,
      "ĠiÅŁleri": 3290,
      "ĠkaydÄ±": 3291,
      "Ġiste": 3292,
      "Ġdigital": 3293,
      "Ġkurun": 3294,
      "Ġvideo": 3295,
      "\":": 3296,
      "ercis": 3297,
      "Ġkav": 3298,
      "Ġodaklanmak": 3299,
      "Ġsakin": 3300,
      "Ġsocial": 3301,
      "Ġprices": 3302,
      "Ġgere": 3303,
      "Ġwr": 3304,
      "ĠparÃ§": 3305,
      "Ġskill": 3306,
      "Ġproble": 3307,
      "Ġroman": 3308,
      "Ġhob": 3309,
      "Ġevening": 3310,
      "Ġregulate": 3311,
      "commoda": 3312,
      "he": 3313,
      "Ġalarm": 3314,
      "Ġkritik": 3315,
      "ÄŁÄ±m": 3316,
      "ĠiÃ§eri": 3317,
      "124": 3318,
      "ĠkitabÄ±": 3319,
      "cra": 3320,
      "Ġlater": 3321,
      "Ġbreathing": 3322,
      "rarak": 3323,
      "Ġortak": 3324,
      "ĠÃĩok": 3325,
      "Ġdav": 3326,
      "Ġaccommoda": 3327,
      "Ġswim": 3328,
      "Ġessentials": 3329,
      "Ġwhole": 3330,
      "ĠyemeÄŁi": 3331,
      "Ġapps": 3332,
      "abil": 3333,
      "139": 3334,
      "omp": 3335,
      "tiÄŁi": 3336,
      "Ġbirini": 3337,
      "ĠGece": 3338,
      "Ġbuilds": 3339,
      "Ġprioritize": 3340,
      "all": 3341,
      "Ä±rken": 3342,
      "Ġlower": 3343,
      "ĠolmasÄ±": 3344,
      "Ġkelime": 3345,
      "170": 3346,
      "Ġdiffic": 3347,
      "Ġmateri": 3348,
      "-s": 3349,
      "ĠLear": 3350,
      "Ġdifficult": 3351,
      "no": 3352,
      "ĠyazÄ±lÄ±": 3353,
      "Ġbelki": 3354,
      "gain": 3355,
      "Ġhissi": 3356,
      "Ġfull": 3357,
      "erken": 3358,
      "Ġsorular": 3359,
      "ĠgÃ¼nÃ¼nÃ¼z": 3360,
      "leyebilirsiniz": 3361,
      "net": 3362,
      "Ä±zlÄ±": 3363,
      "Ġkali": 3364,
      "ĠyapÄ±la": 3365,
      "Ġalarak": 3366,
      "Ġharit": 3367,
      "Ã¼ler": 3368,
      "Ã¼ph": 3369,
      "ĠteÅŁ": 3370,
      "ĠArkadaÅŁlÄ±k": 3371,
      "lying": 3372,
      "ons": 3373,
      "erva": 3374,
      "lanmÄ±ÅŁ": 3375,
      "Ä±klÄ±": 3376,
      "ĠHedef": 3377,
      "down": 3378,
      "ĠkÃ¶": 3379,
      "ÄŁim": 3380,
      "ĠÃ¶nceden": 3381,
      "ations": 3382,
      "Ġbelirtin": 3383,
      "119": 3384,
      "Ġsaatlerde": 3385,
      "ĠbahÃ§enizin": 3386,
      "ĠsaÄŁlayacak": 3387,
      "Ġdavran": 3388,
      "157": 3389,
      "Ġheard": 3390,
      "Ġinteres": 3391,
      "'ve": 3392,
      "ati": 3393,
      "fort": 3394,
      "isyon": 3395,
      "erinden": 3396,
      "Ġdurumunu": 3397,
      "Ġconcept": 3398,
      "ouse": 3399,
      "ĠTo": 3400,
      "'nde": 3401,
      "zem": 3402,
      "Ġaround": 3403,
      "Ġhouse": 3404,
      "ĠyarÄ±": 3405,
      "ĠiÃ§mek": 3406,
      "ildir": 3407,
      "Ġsit": 3408,
      "Ġfree": 3409,
      "Ġbursts": 3410,
      "ĠAdopt": 3411,
      "Ġcelebrate": 3412,
      "ĠsÃ¶z": 3413,
      "Ġseb": 3414,
      "Ġbelirt": 3415,
      "Ġfixed": 3416,
      "Ġproblem": 3417,
      "Ġprioriti": 3418,
      "Ġsaid": 3419,
      "ĠsÃ¼reli": 3420,
      "Ġyatmadan": 3421,
      "Ġmiktar": 3422,
      "Ġstretching": 3423,
      ".**": 3424,
      "108": 3425,
      "Ġolmayan": 3426,
      "Ġexactly": 3427,
      "\",": 3428,
      "Ġputting": 3429,
      "-f": 3430,
      "Ġhiss": 3431,
      "Ġreduces": 3432,
      "Ġregularly": 3433,
      "izing": 3434,
      "Ġokuya": 3435,
      "Ġexercis": 3436,
      "Ġachieve": 3437,
      "ĠkeÅŁfet": 3438,
      "Ġvakit": 3439,
      "eth": 3440,
      "sek": 3441,
      "ĠJ": 3442,
      "ĠbaÅŁÄ±na": 3443,
      "ĠkarÄ±ÅŁ": 3444,
      "ĠiÃ§indeki": 3445,
      "Ġdates": 3446,
      "Pomodoro": 3447,
      "Ġca": 3448,
      "Ġblo": 3449,
      "lerine": 3450,
      "ĠgeliÅŁtir": 3451,
      "Ġnefesinizi": 3452,
      "Ä±labilir": 3453,
      "Ġdone": 3454,
      "jital": 3455,
      "tiÄŁini": 3456,
      "ĠsÃ¼": 3457,
      "Ã§i": 3458,
      "ĠSÄ±": 3459,
      "ĠÃ¶d": 3460,
      "asÄ±nÄ±": 3461,
      "Ġsmaller": 3462,
      "ĠHemen": 3463,
      "ĠgÃ¼Ã§lendir": 3464,
      "Ġ-": 3465,
      "Ġbriefly": 3466,
      "Ġactions": 3467,
      "200": 3468,
      "ĠpiÅŁirme": 3469,
      "ĠyaklaÅŁÄ±m": 3470,
      "Ġimprove": 3471,
      "Ġlevel": 3472,
      "tanÄ±n": 3473,
      "Ġlook": 3474,
      "Ġregard": 3475,
      "ĠtanÄ±m": 3476,
      "ĠEl": 3477,
      "yap": 3478,
      "Ġzama": 3479,
      "Ġveri": 3480,
      "ici": 3481,
      "Ġiniti": 3482,
      "159": 3483,
      "ĠeÅŁy": 3484,
      "Ġci": 3485,
      "Ġbreaking": 3486,
      "Ġkeeping": 3487,
      "dÄ±k": 3488,
      "Ġzorunda": 3489,
      "ĠalÄ±ÅŁkanlÄ±ÄŁÄ±": 3490,
      "Ġuygulamalar": 3491,
      "128": 3492,
      "Ġplans": 3493,
      "top": 3494,
      "Ġagain": 3495,
      "ence": 3496,
      "ĠListen": 3497,
      "ĠÅŁimdi": 3498,
      "ateg": 3499,
      "ĠUz": 3500,
      "Ġister": 3501,
      "ĠkolaylaÅŁ": 3502,
      "Ġquickly": 3503,
      "Ġbal": 3504,
      "mar": 3505,
      "ĠGÃ¶": 3506,
      "Ã¼zel": 3507,
      "Ġteeth": 3508,
      "ĠÃ¶ÄŁrenmeye": 3509,
      "urarak": 3510,
      "ĠCommunication": 3511,
      "Ġsho": 3512,
      "ÄŁine": 3513,
      "ĠZor": 3514,
      "Ġsorunu": 3515,
      "ĠYatmadan": 3516,
      "Ġmaterial": 3517,
      "tra": 3518,
      "neri": 3519,
      "Ġverimli": 3520,
      "Ġbekle": 3521,
      "sine": 3522,
      "Ġautomatic": 3523,
      "ĠÃ¶l": 3524,
      "ĠistiyorsanÄ±z": 3525,
      "unuza": 3526,
      "ĠkalkÄ±p": 3527,
      "Ġsenin": 3528,
      "irm": 3529,
      "Ġmin": 3530,
      "Ġprocra": 3531,
      "syal": 3532,
      "Ġmem": 3533,
      "ĠFotoÄŁraf": 3534,
      "layÄ±cÄ±": 3535,
      "Ġedip": 3536,
      "melisiniz": 3537,
      "each": 3538,
      "Ġposi": 3539,
      "Ġthroughout": 3540,
      "Ġhesap": 3541,
      "209": 3542,
      "erseniz": 3543,
      "ĠÃ¼zere": 3544,
      "Ġyarat": 3545,
      "abileceÄŁiniz": 3546,
      "Ġmalzem": 3547,
      "Ġayak": 3548,
      "rent": 3549,
      "sar": 3550,
      "ĠkullanmayÄ±": 3551,
      "ĠiÅŁle": 3552,
      "Ġbask": 3553,
      "Ġederek": 3554,
      "Ġtaraf": 3555,
      "Ġbilgiye": 3556,
      "ĠÅŁunlarÄ±": 3557,
      "ĠÄ±sÄ±": 3558,
      "Ġcurrent": 3559,
      "ining": 3560,
      "cel": 3561,
      "Ġdelay": 3562,
      "Ġcateg": 3563,
      "ĠyapmanÄ±z": 3564,
      "Ġuygulaya": 3565,
      "valtÄ±": 3566,
      "ove": 3567,
      "ĠCon": 3568,
      "ency": 3569,
      "ĠazÄ±ndan": 3570,
      "Ġgenuine": 3571,
      "Ġconsistency": 3572,
      "Ġren": 3573,
      "Ġalma": 3574,
      "ĠoluÅŁturmak": 3575,
      "ĠÃĩalÄ±ÅŁ": 3576,
      "07": 3577,
      "Ġrepeating": 3578,
      "Ġbrushing": 3579,
      "Ġvisual": 3580,
      "ram": 3581,
      "Ġfresh": 3582,
      "Ġseconds": 3583,
      "230": 3584,
      "Ġser": 3585,
      "ĠsÄ±nÄ±r": 3586,
      "Ġdair": 3587,
      "Ġgiving": 3588,
      "Ġbeca": 3589,
      "ĠtanÄ±": 3590,
      "alÄ±m": 3591,
      "Ġsaati": 3592,
      "ĠÅŁehir": 3593,
      "view": 3594,
      "Ġsaatini": 3595,
      "Ġkabul": 3596,
      "space": 3597,
      "Ġbecause": 3598,
      "Ġkind": 3599,
      "rect": 3600,
      "Ġnere": 3601,
      "usal": 3602,
      "ĠanÄ±nda": 3603,
      "189": 3604,
      "ĠkonuÅŁmak": 3605,
      "ĠdÃ¼zenleme": 3606,
      "Ġedebilirsiniz": 3607,
      "vice": 3608,
      "its": 3609,
      "yarak": 3610,
      "Ġeffe": 3611,
      "mekten": 3612,
      "chedul": 3613,
      "ĠgÃ¶revleri": 3614,
      "Ã¼phan": 3615,
      "ĠÃ¶lÃ§": 3616,
      "ron": 3617,
      "Ġbins": 3618,
      "Ġleave": 3619,
      "-down": 3620,
      "dÃ¼r": 3621,
      "Ġbrief": 3622,
      "lest": 3623,
      "Ġder": 3624,
      "Ġincre": 3625,
      "haz": 3626,
      "ĠuygulamasÄ±": 3627,
      "Ã¼nÃ¼zÃ¼": 3628,
      "54": 3629,
      "64": 3630,
      "Ġtar": 3631,
      "locking": 3632,
      "Ġoto": 3633,
      "Ä±sa": 3634,
      "Ġcontain": 3635,
      "Ġweather": 3636,
      "Ġekleyerek": 3637,
      "Ġclearing": 3638,
      "ĠpopÃ¼ler": 3639,
      "Ġinterac": 3640,
      "ebilirsiniz": 3641,
      "Ġkas": 3642,
      "akes": 3643,
      "Ġyerden": 3644,
      "bilecek": 3645,
      "ĠdÃ¼ÅŁÃ¼r": 3646,
      "tane": 3647,
      "'u": 3648,
      "by": 3649,
      "lanan": 3650,
      "ĠHarika": 3651,
      "ĠayrÄ±": 3652,
      "Ġotel": 3653,
      "Ġmakin": 3654,
      "Ġmultiple": 3655,
      "ĠcÃ¼mleler": 3656,
      "ĠLearning": 3657,
      "Ġzamanda": 3658,
      "ĠEach": 3659,
      "144": 3660,
      "ĠCommit": 3661,
      "180": 3662,
      "Ġkaybet": 3663,
      "Ġdiyerek": 3664,
      "stantly": 3665,
      "Ġlim": 3666,
      "Ġuyuyun": 3667,
      "ects": 3668,
      "Ġqui": 3669,
      "Ġattention": 3670,
      "Ġeder": 3671,
      "Ġrespon": 3672,
      "ĠdetaylÄ±": 3673,
      "Ġmovement": 3674,
      "Ġpresent": 3675,
      "ĠÃ¼Ã§": 3676,
      "Ġcycle": 3677,
      "Ġfay": 3678,
      "ĠkÄ±sÄ±": 3679,
      "Ġyerde": 3680,
      "Ġelim": 3681,
      "ĠSaat": 3682,
      "Ġsal": 3683,
      "row": 3684,
      "Ġscreen": 3685,
      "Ġschedul": 3686,
      "Ġkonum": 3687,
      "ĠdÃ¼zel": 3688,
      "Ġkaydet": 3689,
      "ĠsabÄ±r": 3690,
      "ĠbaÅŁlangÄ±cÄ±": 3691,
      "Ġtrigger": 3692,
      "ila": 3693,
      "ending": 3694,
      "laming": 3695,
      "Ġaccomp": 3696,
      "Ġquiet": 3697,
      "212": 3698,
      "Ġblaming": 3699,
      "ĠyoÄŁun": 3700,
      "ĠaÃ§Ä±": 3701,
      "Ġyeterlidir": 3702,
      "ĠbÃ¼tÃ§": 3703,
      "ĠÃ¶dÃ¼l": 3704,
      "Ġaccomplish": 3705,
      "Ġpositive": 3706,
      "Ġbelirtil": 3707,
      "Ġkoyun": 3708,
      "ĠdeÄŁiÅŁik": 3709,
      "so": 3710,
      "Ġzone": 3711,
      "Ġnever": 3712,
      "Ġshould": 3713,
      "anÄ±n": 3714,
      "ĠkÃ¼t": 3715,
      "Ġboz": 3716,
      "ĠatÄ±n": 3717,
      "ĠuygulayÄ±n": 3718,
      "ĠkÄ±sm": 3719,
      "uring": 3720,
      ")**": 3721,
      "ĠApp": 3722,
      "Ġana": 3723,
      "ĠyapmaktÄ±r": 3724,
      "ĠÃ¶ÄŁre": 3725,
      "Ġsaatlik": 3726,
      "ĠgÃ¶revi": 3727,
      "Ġfati": 3728,
      "ĠdÃ¼ÅŁÃ¼nce": 3729,
      "ĠyapÄ±lan": 3730,
      "ĠprogramÄ±": 3731,
      "ĠkolaylaÅŁtÄ±rÄ±r": 3732,
      "bel": 3733,
      "ĠRule": 3734,
      "Ġpara": 3735,
      "Ġodaklanarak": 3736,
      "Ġcompleting": 3737,
      "Ġfatigue": 3738,
      "330": 3739,
      "ĠGet": 3740,
      "Ġsep": 3741,
      "Ġbuilding": 3742,
      "210": 3743,
      "iyle": 3744,
      "miÅŁtir": 3745,
      "Ġait": 3746,
      "ĠÄ°ÅŁ": 3747,
      "emove": 3748,
      "154": 3749,
      "ĠgÃ¶st": 3750,
      "Ġilerlemeyi": 3751,
      "ĠBaÅŁarÄ±": 3752,
      "ĠmantÄ±klÄ±": 3753,
      "Ġregardless": 3754,
      "Ġcar": 3755,
      "ĠNe": 3756,
      "Ġeasily": 3757,
      "talÄ±k": 3758,
      "ĠTime": 3759,
      "237": 3760,
      "Ġhedefe": 3761,
      "ĠiÅŁler": 3762,
      "Ġtamamla": 3763,
      "ĠbaÄŁlÄ±": 3764,
      "ĠbÃ¶lÃ¼m": 3765,
      "Ġass": 3766,
      "Ġgu": 3767,
      "kim": 3768,
      "ĠyapÄ±p": 3769,
      "Ġworkspace": 3770,
      "ĠalanÄ±": 3771,
      "Ġwin": 3772,
      "Ġema": 3773,
      "ĠRemove": 3774,
      "Ã¼p": 3775,
      "led": 3776,
      "Ä°lk": 3777,
      "Ġreview": 3778,
      "Ġyapaca": 3779,
      "Ġdol": 3780,
      "Ġetkin": 3781,
      "Ġtalk": 3782,
      "ĠkoÅŁul": 3783,
      "-do": 3784,
      "Ġdestina": 3785,
      "ĠConsisten": 3786,
      "dying": 3787,
      "lmÄ±ÅŁ": 3788,
      "Ġplat": 3789,
      "vet": 3790,
      "Ġgets": 3791,
      "ĠhafifÃ§e": 3792,
      "ĠgÃ¶nderin": 3793,
      "Ġrelaxing": 3794,
      "ĠsÃ¼ren": 3795,
      "ĠbaÅŁlamanÄ±z": 3796,
      "Ġbelirleyip": 3797,
      "ĠodaklanmayÄ±": 3798,
      "ĠÃ¼zerinden": 3799,
      "Ġtemizlik": 3800,
      "ĠayarlayÄ±n": 3801,
      "ĠgeÃ§irin": 3802,
      "Ġconfirm": 3803,
      "Ġbitkiler": 3804,
      "Ġcluttered": 3805,
      "fÄ±r": 3806,
      "Ġbunun": 3807,
      "esif": 3808,
      "Ġdecisi": 3809,
      "Ġsosyal": 3810,
      "Ġbulund": 3811,
      "Ġspesif": 3812,
      "Ġherhangi": 3813,
      "Ġhedefle": 3814,
      "Ġgidi": 3815,
      "Ġkelimeler": 3816,
      "Ġcihaz": 3817,
      "Ġspesifik": 3818,
      "oring": 3819,
      "ilar": 3820,
      "Ã¼nd": 3821,
      "Ġtes": 3822,
      "Ġodan": 3823,
      "Ġsimilar": 3824,
      "dik": 3825,
      "sion": 3826,
      "otal": 3827,
      "Ġexperi": 3828,
      "Ġfinishing": 3829,
      "ĠBÃ¼yÃ¼k": 3830,
      "ĠanlÄ±k": 3831,
      "234": 3832,
      "ĠkonuÅŁmayÄ±": 3833,
      "Ġbeklen": 3834,
      "ĠsÄ±caklÄ±ÄŁÄ±nÄ±": 3835,
      "Ġprocrastination": 3836,
      "Ġsin": 3837,
      "arm": 3838,
      "ĠRep": 3839,
      "Ġinterests": 3840,
      "830": 3841,
      "ĠyaÅŁa": 3842,
      "ĠÃ¶rneÄŁin": 3843,
      "Ġatmak": 3844,
      "Ġetki": 3845,
      "Ġkendini": 3846,
      "ĠÃ§eker": 3847,
      "Ġhedefinizi": 3848,
      "ĠdÃ¼zenini": 3849,
      "ffer": 3850,
      "Ġpoint": 3851,
      "Ġyatak": 3852,
      "Ġhaftada": 3853,
      "ĠAlways": 3854,
      "Ġmer": 3855,
      "111": 3856,
      "Ġsmallest": 3857,
      "Ġcomfort": 3858,
      "ĠApply": 3859,
      "Ġli": 3860,
      "ÄŁe": 3861,
      "Ġyapabilirsiniz": 3862,
      "236": 3863,
      "Ġkurmak": 3864,
      "Ġtasar": 3865,
      "leÅŁtirmek": 3866,
      "Ġdoesn": 3867,
      "Ġlevels": 3868,
      "ĠBe": 3869,
      "-st": 3870,
      "aret": 3871,
      "bilirim": 3872,
      "ĠkiÅŁiye": 3873,
      "ĠgerÃ§ekten": 3874,
      "Ġconnec": 3875,
      "Ġsesli": 3876,
      "Ġpozisyon": 3877,
      "ĠGo": 3878,
      "chan": 3879,
      "Ġoptions": 3880,
      "ously": 3881,
      "ĠaÄŁ": 3882,
      "Ġnuma": 3883,
      "Ġyapt": 3884,
      "Ġyaparken": 3885,
      "ĠAnswer": 3886,
      "ĠKa": 3887,
      "Ġevdeki": 3888,
      "Ġgerekli": 3889,
      "ĠkapatÄ±n": 3890,
      "Ġperfect": 3891,
      "833": 3892,
      "Ġstrate": 3893,
      "Ġalter": 3894,
      "bility": 3895,
      "Ġtat": 3896,
      "yÄ±m": 3897,
      "Ġwarm": 3898,
      "Ġyete": 3899,
      "Ġdili": 3900,
      "Ġkayb": 3901,
      "Ġkayde": 3902,
      "Ä±lÄ±r": 3903,
      "Ġminim": 3904,
      "Ġwins": 3905,
      "Ġfre": 3906,
      "235": 3907,
      "Ġplatform": 3908,
      "Ġner": 3909,
      "ĠKitap": 3910,
      "Ġbased": 3911,
      "ĠaraÅŁ": 3912,
      "ĠazaltÄ±r": 3913,
      "tirecek": 3914,
      "Ġresponse": 3915,
      "Ġmode": 3916,
      "-blocking": 3917,
      "tesi": 3918,
      "Ġbackup": 3919,
      "earch": 3920,
      "ĠaltÄ±nda": 3921,
      "cer": 3922,
      "Ġdirect": 3923,
      "Ġensuring": 3924,
      "'a": 3925,
      "ĠiliÅŁ": 3926,
      "ĠdaÄŁÄ±": 3927,
      "ĠbaÅŁlatÄ±n": 3928,
      "tÄ±cÄ±": 3929,
      "Ġilerlemek": 3930,
      "Ġfully": 3931,
      "ĠtanÄ±ÅŁacak": 3932,
      "ud": 3933,
      "times": 3934,
      "ĠBi": 3935,
      "Ġinsan": 3936,
      "103": 3937,
      "Ġadd": 3938,
      "Ġreplace": 3939,
      "08": 3940,
      "Ġanlamak": 3941,
      "ĠÃ¶ÄŁrenin": 3942,
      "ĠiÅŁaret": 3943,
      "ĠhafÄ±z": 3944,
      "-post": 3945,
      "Ġtransport": 3946,
      "Ġinterrupting": 3947,
      "Ġnerede": 3948,
      "Ġdead": 3949,
      "123": 3950,
      "809": 3951,
      "lul": 3952,
      "tÃ¼r": 3953,
      "Ġyum": 3954,
      "Ġkamer": 3955,
      "vik": 3956,
      "Ġinternet": 3957,
      "Ġsayf": 3958,
      "Ġprevents": 3959,
      "Sa": 3960,
      "two": 3961,
      "Ġprofe": 3962,
      "ĠeÄŁi": 3963,
      "leriniz": 3964,
      "ĠyazÄ±n": 3965,
      "ĠÃ§alÄ±ÅŁmaya": 3966,
      "ĠuygulamasÄ±nÄ±": 3967,
      "Ãĸnce": 3968,
      "ĠihtiyacÄ±nÄ±z": 3969,
      "Ġcleaning": 3970,
      "Ġsorting": 3971,
      "289": 3972,
      "Ġanal": 3973,
      "Ġexchan": 3974,
      "Ġideal": 3975,
      "Ġkullanmaya": 3976,
      "Ġzih": 3977,
      "Ġortamda": 3978,
      "233": 3979,
      "Ġsuc": 3980,
      "ĠReplace": 3981,
      "lines": 3982,
      "ĠdeÄŁildir": 3983,
      "chor": 3984,
      "232": 3985,
      "manÄ±za": 3986,
      "ĠgÃ¶rsel": 3987,
      "Ġreli": 3988,
      "Ġrez": 3989,
      "Ġvade": 3990,
      "ĠPack": 3991,
      "ĠartÄ±ra": 3992,
      "ĠbaÅŁlamaktÄ±r": 3993,
      "ĠyavaÅŁÃ§a": 3994,
      "Ġharekete": 3995,
      "-free": 3996,
      "ĠUzun": 3997,
      "Ġbus": 3998,
      "Ġdep": 3999,
      "tence": 4000,
      "ĠbaÅŁlÄ±": 4001,
      "Ġolup": 4002,
      "ĠHÄ±zlÄ±": 4003,
      "lemesine": 4004,
      "ĠResim": 4005,
      "ĠteÅŁvik": 4006,
      "gu": 4007,
      "Ġmusic": 4008,
      "\")": 4009,
      "just": 4010,
      "zet": 4011,
      "elen": 4012,
      "Ġdemek": 4013,
      "ĠplanÄ±nÄ±zÄ±": 4014,
      "ĠÃ§ekecek": 4015,
      "Ġru": 4016,
      "ĠWh": 4017,
      "ĠhÄ±zlÄ±ca": 4018,
      "Ġbekleme": 4019,
      "Ġkelimeleri": 4020,
      "Ġtavsiye": 4021,
      "ping": 4022,
      "Ġcreating": 4023,
      "ration": 4024,
      "249": 4025,
      "BugÃ¼n": 4026,
      "ĠbaÅŁÄ±nda": 4027,
      "ĠGÃ¶z": 4028,
      "Ġbahset": 4029,
      "ĠSabahlarÄ±": 4030,
      "ĠÃ§ekiyor": 4031,
      "Ġmisiniz": 4032,
      "Ġhikaye": 4033,
      "Ġprofesyon": 4034,
      "Ġcl": 4035,
      "Ġmood": 4036,
      "ulan": 4037,
      "ĠBook": 4038,
      "Ġsave": 4039,
      "Ġatt": 4040,
      "ĠÅŁeyleri": 4041,
      "ĠdÃ¼zeninizi": 4042,
      "ĠGÃ¼neÅŁ": 4043,
      "Ġbitki": 4044,
      "Ġtelefonunuzun": 4045,
      "Ġbecomes": 4046,
      "Ġoffering": 4047,
      "Ġmaintaining": 4048,
      "Ġdelays": 4049,
      "ĠakÄ±ÅŁ": 4050,
      "409": 4051,
      "Ġturning": 4052,
      "ĠdavranÄ±ÅŁ": 4053,
      "rken": 4054,
      "ality": 4055,
      "Ġshelf": 4056,
      "pping": 4057,
      "Toplam": 4058,
      "iden": 4059,
      "Ġeden": 4060,
      "ĠIf": 4061,
      "Ġbilet": 4062,
      "tÄ±p": 4063,
      "Ġilerleme": 4064,
      "ĠhazÄ±rlayÄ±n": 4065,
      "ĠÄ±lÄ±k": 4066,
      "Ġyorgunlu": 4067,
      "ervasyon": 4068,
      "Ġexercise": 4069,
      "Ġpush": 4070,
      "riti": 4071,
      "Ã¼ven": 4072,
      "lanÄ±r": 4073,
      "Ġinten": 4074,
      "ĠkaldÄ±r": 4075,
      "Ġdilin": 4076,
      "Ġtelefonunuzu": 4077,
      "Ġtane": 4078,
      "ĠkapatÄ±p": 4079,
      "Ġkork": 4080,
      "Ġrezervasyon": 4081,
      "thm": 4082,
      "Ġrhy": 4083,
      "Ġrhythm": 4084,
      "Ġyeri": 4085,
      "ĠTek": 4086,
      "ĠbirleÅŁ": 4087,
      "Ġzek": 4088,
      "102": 4089,
      "349": 4090,
      "ĠÃ§Ä±kÄ±p": 4091,
      "dÄ±ÄŁÄ±nÄ±zda": 4092,
      "Ġfayd": 4093,
      "Ġyetene": 4094,
      "Ġprofesyonel": 4095,
      "Ġboost": 4096,
      "609": 4097,
      "der": 4098,
      "meli": 4099,
      "isel": 4100,
      "ullan": 4101,
      "yat": 4102,
      "Ã¼ke": 4103,
      "ĠkaÃ§Ä±n": 4104,
      "Ġokuyun": 4105,
      "Ġdrive": 4106,
      "Ġthinking": 4107,
      "'nda": 4108,
      "ll": 4109,
      "ection": 4110,
      "Ġbuilt": 4111,
      "Ġweb": 4112,
      "Ġton": 4113,
      "ĠtaÅŁ": 4114,
      "Ġmicro": 4115,
      "ĠkullanÄ±m": 4116,
      "ĠpiÅŁiriyor": 4117,
      "ĠarasÄ±": 4118,
      "lemeler": 4119,
      "Ġdesign": 4120,
      "Ġileride": 4121,
      "ĠsatÄ±n": 4122,
      "Ġnumar": 4123,
      "ned": 4124,
      "ilmiÅŁ": 4125,
      "ÄŁunu": 4126,
      "Ġmutu": 4127,
      "loj": 4128,
      "adan": 4129,
      "309": 4130,
      "ĠsÃ¼rede": 4131,
      "ĠgeÃ§mek": 4132,
      "ĠoluÅŁt": 4133,
      "Ġbilgileri": 4134,
      "Ġsonucu": 4135,
      "ĠbahÃ§ede": 4136,
      "ĠBiraz": 4137,
      "gers": 4138,
      "KÃ¼Ã§Ã¼k": 4139,
      "av": 4140,
      "fi": 4141,
      "istic": 4142,
      "veriÅŁ": 4143,
      "Ġareas": 4144,
      "Ġfiz": 4145,
      "Ġrelying": 4146,
      "Ġkonfor": 4147,
      "Ġengel": 4148,
      "lÄ±klÄ±": 4149,
      "ĠaydÄ±": 4150,
      "Ġfail": 4151,
      "Ä±lmÄ±ÅŁ": 4152,
      "Ġunutma": 4153,
      "ĠBaÅŁlangÄ±Ã§ta": 4154,
      "Ġprioritiz": 4155,
      "Ġdestinations": 4156,
      "Ġperi": 4157,
      "Ġanchor": 4158,
      "Ġreconnect": 4159,
      "ĠsaÄŁlam": 4160,
      "ĠÃ§iÃ§ek": 4161,
      "Ġwriting": 4162,
      "Ġstil": 4163,
      "ĠDon": 4164,
      "ork": 4165,
      "131": 4166,
      "Ġadding": 4167,
      "310": 4168,
      "fen": 4169,
      "lebilir": 4170,
      "Ġmon": 4171,
      "Ġvermek": 4172,
      "ĠseÃ§imi": 4173,
      "509": 4174,
      "Ġgider": 4175,
      "ĠdÃ¶nÃ¼ÅŁ": 4176,
      "Ġdeneyebilirsiniz": 4177,
      "ĠdeÄŁiÅŁiklik": 4178,
      "ĠaraÅŁtÄ±r": 4179,
      "Ġmutual": 4180,
      "Ġdocu": 4181,
      "280": 4182,
      "Ġideas": 4183,
      "-out": 4184,
      "Ġmek": 4185,
      "matik": 4186,
      "ÄŁunuz": 4187,
      "ĠbaÅŁtan": 4188,
      "biliriz": 4189,
      "ĠalmayÄ±": 4190,
      "Ġhedefi": 4191,
      "336": 4192,
      "Ġdurumda": 4193,
      "ĠgeÃ§in": 4194,
      "ĠÃ¶nemlidir": 4195,
      "ĠkÃ¼tÃ¼phan": 4196,
      "chen": 4197,
      "Ġlabel": 4198,
      "Ġhotels": 4199,
      "Ã¢": 4200,
      "linde": 4201,
      "ĠÃ§ay": 4202,
      "Ġlead": 4203,
      "ayan": 4204,
      "ĠseÃ§im": 4205,
      "Ġkol": 4206,
      "Ġaraz": 4207,
      "ĠduÅŁ": 4208,
      "Ġ\\": 4209,
      "Ġsum": 4210,
      "Ġkitchen": 4211,
      "Ġneeding": 4212,
      "possible": 4213,
      "Ġmedit": 4214,
      "Ġincludes": 4215,
      "oga": 4216,
      "ĠbuluÅŁma": 4217,
      "erleri": 4218,
      "Ġdijital": 4219,
      "Ġdinle": 4220,
      "ĠyÃ¼ksek": 4221,
      "ĠÄ±ÅŁÄ±ÄŁÄ±na": 4222,
      "Ġmutla": 4223,
      "Ġanaliz": 4224,
      "'ll": 4225,
      "229": 4226,
      "Ġpur": 4227,
      "Ġken": 4228,
      "ĠAÄŁ": 4229,
      "ĠbaÅŁa": 4230,
      "ĠsÃ¼rekli": 4231,
      "Ġweekly": 4232,
      "ĠsorunlarÄ±": 4233,
      "Ã¼tfen": 4234,
      "Ġsentence": 4235,
      "ĠseÃ§ene": 4236,
      "Ġkesin": 4237,
      "Ġbarda": 4238,
      "-M": 4239,
      "hing": 4240,
      "Ġhaving": 4241,
      "tification": 4242,
      "Ġfrequ": 4243,
      "Bir": 4244,
      "kiyor": 4245,
      "ĠÃ¶rnek": 4246,
      "ĠayÄ±rdÄ±ÄŁÄ±": 4247,
      "nem": 4248,
      "ĠolmanÄ±z": 4249,
      "Ġyapay": 4250,
      "ĠHabit": 4251,
      "ĠyÃ¼rÃ¼yerek": 4252,
      "Ġuykuya": 4253,
      "ĠhÄ±zlandÄ±r": 4254,
      "ĠolduÄŁundan": 4255,
      "ĠyapÄ±lacak": 4256,
      "Ġalterna": 4257,
      "-posta": 4258,
      "teri": 4259,
      "Ġinterest": 4260,
      "Ġleaving": 4261,
      "arlÄ±": 4262,
      "liÄŁini": 4263,
      "Ġbeyn": 4264,
      "Ġvery": 4265,
      "ĠMart": 4266,
      "ĠkullanÄ±lan": 4267,
      "ĠalÄ±ÅŁkanlÄ±": 4268,
      "800": 4269,
      "ĠbaÅŁlangÄ±Ã§ta": 4270,
      "Ġbreathe": 4271,
      "ĠThen": 4272,
      "ĠolmalÄ±dÄ±r": 4273,
      "ĠsaÄŁlÄ±klÄ±": 4274,
      "Ġdinlenme": 4275,
      "Ġintention": 4276,
      "Ġold": 4277,
      "167": 4278,
      "Ġroute": 4279,
      "334": 4280,
      "Ġswit": 4281,
      "Ġcall": 4282,
      "ĠgÃ¼nkÃ¼": 4283,
      "Ġtidy": 4284,
      "Ġhedefleyin": 4285,
      "ĠalÄ±ÅŁveriÅŁ": 4286,
      "ĠtÃ¼rÃ¼": 4287,
      "ĠseÃ§mektir": 4288,
      "rink": 4289,
      "Ġgerekiyor": 4290,
      "-stakes": 4291,
      "ida": 4292,
      "list": 4293,
      "rev": 4294,
      "ences": 4295,
      "Ġeveryone": 4296,
      "Ġimpossible": 4297,
      "Ġperfection": 4298,
      "'le": 4299,
      "lamayÄ±": 4300,
      "ĠYaz": 4301,
      "ĠBirkaÃ§": 4302,
      "ĠgeniÅŁ": 4303,
      "ĠkonuÅŁmaya": 4304,
      "Ġseviyenizi": 4305,
      "ĠhatÄ±rlat": 4306,
      "You": 4307,
      "ese": 4308,
      "Ġproduction": 4309,
      "sÄ±l": 4310,
      "Ġyapmadan": 4311,
      "ĠMerhaba": 4312,
      "709": 4313,
      "Ġharca": 4314,
      "ĠÃ§evir": 4315,
      "Ġmutlaka": 4316,
      "-on": 4317,
      "834": 4318,
      "eck": 4319,
      "143": 4320,
      "Ġjud": 4321,
      "216": 4322,
      "812": 4323,
      "lak": 4324,
      "Ġkonular": 4325,
      "ĠÃ¶ÄŁr": 4326,
      "ĠBirlikte": 4327,
      "ĠyapÄ±yor": 4328,
      "gÃ¼nlÃ¼k": 4329,
      "Ġhikay": 4330,
      "Ġkaydedin": 4331,
      "Ġmesaf": 4332,
      "Ġdoldur": 4333,
      "-Minute": 4334,
      "Ġasleep": 4335,
      "Ġclarifying": 4336,
      "Ġkura": 4337,
      "Ġanlama": 4338,
      "eyin": 4339,
      "165": 4340,
      "aps": 4341,
      "ĠkahvaltÄ±": 4342,
      "ĠgiriÅŁ": 4343,
      "815": 4344,
      "Ġcomplex": 4345,
      "Ġharika": 4346,
      "Ġstar": 4347,
      "tÄ±ÄŁÄ±nÄ±z": 4348,
      "335": 4349,
      "ĠyÃ¶net": 4350,
      "909": 4351,
      "ĠgerÃ§ekÃ§i": 4352,
      "ĠulaÅŁÄ±labilir": 4353,
      "Ġduygular": 4354,
      "ĠaydÄ±nlat": 4355,
      "Ġdecluttering": 4356,
      "Ġcounter": 4357,
      "Ġmindful": 4358,
      "Ġdisrup": 4359,
      "tÃ¼": 4360,
      "Ġsc": 4361,
      "atch": 4362,
      "Ġmasa": 4363,
      "Ġspor": 4364,
      "ĠÃ§alÄ±ÅŁmayÄ±": 4365,
      "Ġilerleyin": 4366,
      "alara": 4367,
      "ĠYeni": 4368,
      "ĠuÃ§": 4369,
      "ĠbaÅŁar": 4370,
      "Ġvererek": 4371,
      "ĠbaÅŁlamadan": 4372,
      "lerinize": 4373,
      "ĠyazÄ±": 4374,
      "Ġquality": 4375,
      "ĠkalÄ±cÄ±": 4376,
      "Ġchat": 4377,
      "Ġtutarak": 4378,
      "ĠseÃ§erek": 4379,
      "Ġnotification": 4380,
      "Ġmakines": 4381,
      "menizdir": 4382,
      "Ġbilim": 4383,
      "ĠbÄ±rakÄ±p": 4384,
      "ĠtamamlayÄ±n": 4385,
      "ĠbakÄ±n": 4386,
      "ĠgÃ¼Ã§lÃ¼": 4387,
      "Ġcloth": 4388,
      "gen": 4389,
      "tly": 4390,
      "231": 4391,
      "185": 4392,
      "Ġpause": 4393,
      "Ġprojects": 4394,
      "Ġfall": 4395,
      "vaila": 4396,
      "ĠReach": 4397,
      "Ä±ndaki": 4398,
      "Ġeksik": 4399,
      "ĠduyduÄŁ": 4400,
      "ĠyanlÄ±ÅŁ": 4401,
      "ĠÃ§izim": 4402,
      "Ġhappens": 4403,
      "Ġritual": 4404,
      "ĠÃĩalÄ±ÅŁma": 4405,
      "ĠyumuÅŁ": 4406,
      "810": 4407,
      "816": 4408,
      "ĠDrink": 4409,
      "Ġtool": 4410,
      "Ġbath": 4411,
      "Ġbite": 4412,
      "337": 4413,
      "Ġnotes": 4414,
      "Ġperspe": 4415,
      "Ġlights": 4416,
      "Ġallowing": 4417,
      "217": 4418,
      "314": 4419,
      "iy": 4420,
      "ice": 4421,
      "mut": 4422,
      "vity": 4423,
      "Ġiba": 4424,
      "Ã§Ä±": 4425,
      "mayan": 4426,
      "ĠÃ¶ne": 4427,
      "ĠeÅŁyadÄ±r": 4428,
      "300": 4429,
      "Ġairport": 4430,
      "Ġfizik": 4431,
      "ĠyetiÅŁ": 4432,
      "Ġvalida": 4433,
      "312": 4434,
      "jor": 4435,
      "ĠYap": 4436,
      "Ġedecek": 4437,
      "caktÄ±r": 4438,
      "Ġetme": 4439,
      "ĠkullanmaktÄ±r": 4440,
      "ĠgÃ¼nÃ¼nÃ¼": 4441,
      "ĠayÄ±rd": 4442,
      "landÄ±ÄŁÄ±nÄ±z": 4443,
      "Ġoturup": 4444,
      "Ġmakinesi": 4445,
      "Ġnerv": 4446,
      "Ġsummar": 4447,
      "Ġibaret": 4448,
      "Ġaim": 4449,
      "Ġgentle": 4450,
      "Ġnervous": 4451,
      "837": 4452,
      "sÄ±nÄ±n": 4453,
      "Ġslow": 4454,
      "irken": 4455,
      "Ġmust": 4456,
      "Ġmajor": 4457,
      "laÅŁma": 4458,
      "ĠzorluklarÄ±": 4459,
      "Ġblok": 4460,
      "Ġrenk": 4461,
      "Ġzeka": 4462,
      "Ġfrequent": 4463,
      "Ġrespect": 4464,
      "ically": 4465,
      "ĠÃ¶nÃ¼nde": 4466,
      "ĠÃ¶ncesi": 4467,
      "Ġbelirti": 4468,
      "ĠyÃ¼ze": 4469,
      "ĠkullanÄ±mÄ±": 4470,
      "333": 4471,
      "ĠolduÄŁun": 4472,
      "ĠyapÄ±l": 4473,
      "ĠyÃ¼rÃ¼me": 4474,
      "Ġemotion": 4475,
      "Ġdecision": 4476,
      "Ġruh": 4477,
      "814": 4478,
      "Mer": 4479,
      "yÃ¼z": 4480,
      "met": 4481,
      "Ġorganized": 4482,
      "Two": 4483,
      "task": 4484,
      "Ä±yorum": 4485,
      "tiren": 4486,
      "Ġpat": 4487,
      "duk": 4488,
      "esinde": 4489,
      "Ġmedi": 4490,
      "Ġforward": 4491,
      "Ġonline": 4492,
      "Ä±nÄ±zla": 4493,
      "econd": 4494,
      "Ġkalma": 4495,
      "Ġhayal": 4496,
      "Ġgez": 4497,
      "ĠiletiÅŁimi": 4498,
      "Ġisterseniz": 4499,
      "Ġexpla": 4500,
      "Ġkonuya": 4501,
      "215": 4502,
      "317": 4503,
      "Ġcir": 4504,
      "Ġbin": 4505,
      "Ġbond": 4506,
      "Ġadjust": 4507,
      "329": 4508,
      "836": 4509,
      "sal": 4510,
      "Ġtotal": 4511,
      "Ġora": 4512,
      "ĠÄ°ki": 4513,
      "166": 4514,
      "ĠbahÃ§eye": 4515,
      "ĠeÄŁlence": 4516,
      "849": 4517,
      "Ġna": 4518,
      "ctively": 4519,
      "187": 4520,
      "âĢĵ": 4521,
      "Ġcasual": 4522,
      "ĠayÄ±rarak": 4523,
      "ĠBunun": 4524,
      "Ġyapabilir": 4525,
      "Ġmeals": 4526,
      "Ġbulup": 4527,
      "Ġyazmak": 4528,
      "Ġsonuna": 4529,
      "ĠÃ§ekin": 4530,
      "lecek": 4531,
      "ĠodaklÄ±": 4532,
      "lantÄ±": 4533,
      "Ġfav": 4534,
      "Ġhayatta": 4535,
      "ĠdoÄŁrusu": 4536,
      "Ġbalance": 4537,
      "Ġperiod": 4538,
      "213": 4539,
      "316": 4540,
      "pa": 4541,
      "211": 4542,
      "eded": 4543,
      "fak": 4544,
      "hoto": 4545,
      "Ä±yorsanÄ±z": 4546,
      "sadece": 4547,
      "dÄ±ÄŁÄ±nÄ±zÄ±": 4548,
      "dÄ±ÄŁÄ±nda": 4549,
      "Ġinv": 4550,
      "Ġref": 4551,
      "Ġrecal": 4552,
      "ase": 4553,
      "Ġmeans": 4554,
      "Ġaccus": 4555,
      "Ġtelefonunuzda": 4556,
      "Ġkelimeyi": 4557,
      "ĠsÃ¼reÃ§te": 4558,
      "Ġaccommodation": 4559,
      "214": 4560,
      "817": 4561,
      "ulating": 4562,
      "Ġsupp": 4563,
      "829": 4564,
      "ang": 4565,
      "Ġnaz": 4566,
      "ĠMayÄ±": 4567,
      "asit": 4568,
      "ĠkalÄ±n": 4569,
      "ĠyÃ¼zmeye": 4570,
      "ĠgeÃ§iÅŁ": 4571,
      "Ġsolely": 4572,
      "Ġstarted": 4573,
      "Ġnotifications": 4574,
      "udy": 4575,
      "Ġhappen": 4576,
      "Ġproblems": 4577,
      "Ġbusy": 4578,
      "Ġperspective": 4579,
      "lendi": 4580,
      "ĠDil": 4581,
      "Ġveril": 4582,
      "Ġheav": 4583,
      "Ġtrain": 4584,
      "Ġground": 4585,
      "Ġgitmek": 4586,
      "ĠfÄ±rsa": 4587,
      "Ġsuccess": 4588,
      "Ġprioritizing": 4589,
      "rying": 4590,
      "yim": 4591,
      "Ġavaila": 4592,
      "Ġbakarak": 4593,
      "Ġstore": 4594,
      "leyici": 4595,
      "Ä±ÅŁtÄ±r": 4596,
      "Ġkitaplar": 4597,
      "184": 4598,
      "Ġlistel": 4599,
      "Ġstudying": 4600,
      "ĠartÄ±rÄ±n": 4601,
      "'nin": 4602,
      "Ġthink": 4603,
      "Ġziyaret": 4604,
      "Ġtarz": 4605,
      "313": 4606,
      "Ġmoments": 4607,
      "Ġhobby": 4608,
      "-siz": 4609,
      "ft": 4610,
      "yg": 4611,
      "ulama": 4612,
      "lamaya": 4613,
      "Ġyu": 4614,
      "ĠadÄ±mÄ±n": 4615,
      "Ġmetin": 4616,
      "caÄŁÄ±nÄ±z": 4617,
      "Ġjoy": 4618,
      "ternal": 4619,
      "Ġelinizdeki": 4620,
      "ĠÃ§Ã¶zmek": 4621,
      "Ġalacak": 4622,
      "ĠulaÅŁmak": 4623,
      "ĠyÃ¼ksel": 4624,
      "Ġurgency": 4625,
      "ĠaÅŁaÄŁÄ±daki": 4626,
      "Ġyolculuk": 4627,
      "Ġrecall": 4628,
      "term": 4629,
      "Ġarri": 4630,
      "Ġused": 4631,
      "-term": 4632,
      "835": 4633,
      "Ben": 4634,
      "GÃ¼n": 4635,
      "Ġbirbir": 4636,
      "lÄ±yor": 4637,
      "Ġretur": 4638,
      "icate": 4639,
      "ĠÃ¶nerilir": 4640,
      "ĠkiÅŁisel": 4641,
      "Ġegzersizi": 4642,
      "ĠHaftanÄ±n": 4643,
      "ories": 4644,
      "Ġstratej": 4645,
      "-sized": 4646,
      "207": 4647,
      "Ġdedicate": 4648,
      "Ġcase": 4649,
      "Ġeliminate": 4650,
      "Ġdocuments": 4651,
      "389": 4652,
      "tÄ±n": 4653,
      "ĠayÄ±nda": 4654,
      "ĠGood": 4655,
      "edin": 4656,
      "169": 4657,
      "larÄ±ndan": 4658,
      "ĠkullanÄ±l": 4659,
      "Ġcev": 4660,
      "ĠÃ¶nerileri": 4661,
      "ĠolmadÄ±ÄŁÄ±nÄ±": 4662,
      "Ġolabilirim": 4663,
      "Ġbelirlemektir": 4664,
      "Ġrewards": 4665,
      "Ġziyade": 4666,
      "Ġexperiences": 4667,
      "oint": 4668,
      "Ġneeded": 4669,
      "122": 4670,
      "'Ã¼": 4671,
      "ages": 4672,
      "Ġkan": 4673,
      "ĠuÄŁ": 4674,
      "ĠzamanÄ±nÄ±zÄ±": 4675,
      "Ġlez": 4676,
      "Ġsormak": 4677,
      "ĠKÄ±sa": 4678,
      "186": 4679,
      "Ġkayda": 4680,
      "Ġsuya": 4681,
      "reket": 4682,
      "Ġlove": 4683,
      "riority": 4684,
      "ĠnetleÅŁtirin": 4685,
      "ĠdetaylarÄ±": 4686,
      "ĠkaÄŁÄ±t": 4687,
      "Ġeffectively": 4688,
      "Ġfiziksel": 4689,
      "Ġnazik": 4690,
      "Ġheavy": 4691,
      "ues": 4692,
      "Ġcriti": 4693,
      "Ġtable": 4694,
      "Ġwas": 4695,
      "Ġexternal": 4696,
      "Ġmedia": 4697,
      "06": 4698,
      "813": 4699,
      "Ġdok": 4700,
      "Ġdefter": 4701,
      "Ġuyuya": 4702,
      "Ġistiyor": 4703,
      "ecting": 4704,
      "Ġsorus": 4705,
      "anÄ±p": 4706,
      "ĠgeliÅŁ": 4707,
      "ĠkonuÅŁmalar": 4708,
      "Ġpass": 4709,
      "ĠulaÅŁÄ±m": 4710,
      "Ġstrictly": 4711,
      "Ġrepeti": 4712,
      "Ġconfiden": 4713,
      "Ġrealistic": 4714,
      "ĠMayÄ±s": 4715,
      "Ġris": 4716,
      "Ġtalking": 4717,
      "Ġfavori": 4718,
      "315": 4719,
      "hil": 4720,
      "meler": 4721,
      "ĠgÃ¼zel": 4722,
      "Ġtoward": 4723,
      "Ġreac": 4724,
      "Ġyazar": 4725,
      "Ġyola": 4726,
      "tarak": 4727,
      "ĠaÃ§Ä±n": 4728,
      "cessary": 4729,
      "ĠazaltÄ±n": 4730,
      "imp": 4731,
      "yÄ±r": 4732,
      "206": 4733,
      "Ġart": 4734,
      "kincisi": 4735,
      "andÄ±r": 4736,
      "Ġinceleyin": 4737,
      "Ġincelemek": 4738,
      "ĠvÃ¼cudunuzun": 4739,
      "ĠbunlarÄ±": 4740,
      "ĠyazÄ±lÄ±m": 4741,
      "Ġbla": 4742,
      "orrow": 4743,
      "mand": 4744,
      "haul": 4745,
      "148": 4746,
      "Ġpaint": 4747,
      "vÄ±": 4748,
      "ĠÃ¶de": 4749,
      "ĠbaÅŁlay": 4750,
      "ĠÃ§o": 4751,
      "Ã¼zen": 4752,
      "Ã¼rÃ¼n": 4753,
      "ĠdoÄŁa": 4754,
      "ĠGÃ¼ne": 4755,
      "ĠaÃ§Ä±p": 4756,
      "ĠalanlarÄ±": 4757,
      "Ġadvice": 4758,
      "ĠazalÄ±r": 4759,
      "Ġbreaths": 4760,
      "ĠÅŀimdi": 4761,
      "ĠyaptÄ±ÄŁÄ±nÄ±z": 4762,
      "ĠyaÅŁayan": 4763,
      "ĠkolaylaÅŁtÄ±ra": 4764,
      "Ġmonth": 4765,
      "Ġlost": 4766,
      "Ġdetails": 4767,
      "'ye": 4768,
      "cou": 4769,
      "ĠÃ¼re": 4770,
      "Ġcor": 4771,
      "meyen": 4772,
      "arge": 4773,
      "ĠbaÅŁlÄ±k": 4774,
      "Ġyerinizi": 4775,
      "ĠkolayÄ±": 4776,
      "Ġspecifically": 4777,
      "ĠolduÄŁunuzu": 4778,
      "Ġgereksiz": 4779,
      "ĠistediÄŁin": 4780,
      "ĠKendinize": 4781,
      "ĠaÅŁama": 4782,
      "Ġreliable": 4783,
      "Ġfavorite": 4784,
      "ĠTr": 4785,
      "iled": 4786,
      "ĠYoga": 4787,
      "Ġdate": 4788,
      "Ġbuffer": 4789,
      "malarÄ±": 4790,
      "Ġkutudaki": 4791,
      "ĠyerleÅŁ": 4792,
      "Ġizleyin": 4793,
      "ĠgÃ¶revlerinizi": 4794,
      "larÄ±nÄ±zÄ±n": 4795,
      "Ġilerlemenizi": 4796,
      "ĠmÃ¼mkÃ¼nse": 4797,
      "Ġsebz": 4798,
      "ĠfaydalÄ±": 4799,
      "ĠuÄŁra": 4800,
      "-one": 4801,
      "uol": 4802,
      "Ġam": 4803,
      "Ġcommun": 4804,
      "Ġoverhaul": 4805,
      "Ġtriggers": 4806,
      "328": 4807,
      "dÃ¼ÄŁ": 4808,
      "morrow": 4809,
      "ors": 4810,
      "Ġtomorrow": 4811,
      "lic": 4812,
      "ĠÄ°Ã§": 4813,
      "Ġyapar": 4814,
      "Ġimportance": 4815,
      "Ġdistraction": 4816,
      "Ġappoint": 4817,
      "ĠpaylaÅŁÄ±n": 4818,
      "ĠConsistency": 4819,
      "Ġcevab": 4820,
      "889": 4821,
      "Ġbag": 4822,
      "Ġremi": 4823,
      "Ġphones": 4824,
      "Ġdetailed": 4825,
      "Ġtopics": 4826,
      "coura": 4827,
      "435": 4828,
      "58": 4829,
      "resi": 4830,
      "unlu": 4831,
      "ĠBugÃ¼n": 4832,
      "Ġestablish": 4833,
      "Ġbaz": 4834,
      "Ġthese": 4835,
      "Ġkonak": 4836,
      "Ġseti": 4837,
      "Ġchore": 4838,
      "Ġkoyarak": 4839,
      "Ġgelir": 4840,
      "Ġlock": 4841,
      "ĠKendinizi": 4842,
      "Ġmesafe": 4843,
      "811": 4844,
      "ingo": 4845,
      "Ġtest": 4846,
      "ĠTrue": 4847,
      "uolingo": 4848,
      "cÃ¼": 4849,
      "dually": 4850,
      "sÄ±yla": 4851,
      "Ġkons": 4852,
      "unuzun": 4853,
      "Ġextra": 4854,
      "Ġworrying": 4855,
      "Ġorganizing": 4856,
      "Ġoturum": 4857,
      "Ġstarts": 4858,
      "ĠStudy": 4859,
      "ĠÃ¶zen": 4860,
      "Ġtemizleyin": 4861,
      "ĠHafta": 4862,
      "ĠkatÄ±l": 4863,
      "ĠBelirli": 4864,
      "ĠWhen": 4865,
      "gage": 4866,
      "inter": 4867,
      "oud": 4868,
      "ĠTV": 4869,
      "Ġwrite": 4870,
      "Ġremove": 4871,
      "Ġhandle": 4872,
      "inely": 4873,
      "ĠbeÅŁ": 4874,
      "ndaki": 4875,
      "ctivity": 4876,
      "ĠÃ¶nerim": 4877,
      "ĠÃĸneri": 4878,
      "331": 4879,
      "ĠdÃ¼ÅŁÃ¼nd": 4880,
      "ĠKonuÅŁ": 4881,
      "Ġgenuinely": 4882,
      "ĠuyandÄ±ktan": 4883,
      "ĠeÅŁyalar": 4884,
      "ever": 4885,
      "ĠCle": 4886,
      "Ġblocking": 4887,
      "Ġsepara": 4888,
      "-to": 4889,
      "evap": 4890,
      "ink": 4891,
      "ĠadÄ±mdÄ±r": 4892,
      "larÄ±nÄ±n": 4893,
      "ĠanÄ±": 4894,
      "Ġbelirleye": 4895,
      "ĠÃ¶ÄŁrenmeyi": 4896,
      "Ġmotivasyonu": 4897,
      "uzu": 4898,
      "ĠÅŁudur": 4899,
      "Ġhareketleri": 4900,
      "Ġsight": 4901,
      "ffeine": 4902,
      "ĠsÄ±caklÄ±": 4903,
      "pose": 4904,
      "Ġpacking": 4905,
      "Ġcaffeine": 4906,
      "ĠGÃ¶rev": 4907,
      "ĠgÃ¶sterin": 4908,
      "05": 4909,
      "68": 4910,
      "gment": 4911,
      "Ġanxi": 4912,
      "Ġready": 4913,
      "ben": 4914,
      "ults": 4915,
      "ĠEkim": 4916,
      "Ġcosts": 4917,
      "ildirim": 4918,
      "Ġalana": 4919,
      "Ġhalinde": 4920,
      "Ġderinlemesine": 4921,
      "Ġchecklist": 4922,
      "Ġseviyeniz": 4923,
      "ÄŁaÃ§": 4924,
      "ĠResearch": 4925,
      "ĠNumarasÄ±": 4926,
      "Ġverilen": 4927,
      "eclutter": 4928,
      "208": 4929,
      "Ġexpos": 4930,
      "Ġag": 4931,
      "masÄ±na": 4932,
      "Ġfil": 4933,
      "ĠMev": 4934,
      "Ġoku": 4935,
      "188": 4936,
      "ĠyÃ¶ntemi": 4937,
      "Ġunderstood": 4938,
      "Ġseviyesini": 4939,
      "Ġstaying": 4940,
      "liminate": 4941,
      "Ġenjo": 4942,
      "228": 4943,
      "per": 4944,
      "Ġ'": 4945,
      "Ġsummarizing": 4946,
      "'unda": 4947,
      "bly": 4948,
      "ĠaÄŁaÃ§": 4949,
      "anlÄ±k": 4950,
      "tically": 4951,
      "Ġpick": 4952,
      "Ã¼st": 4953,
      "lenen": 4954,
      "183": 4955,
      "Ġweeks": 4956,
      "layacak": 4957,
      "Ġhuzurlu": 4958,
      "ĠSÃ¼rekli": 4959,
      "ĠhiÃ§bir": 4960,
      "ĠaydÄ±rdÄ±": 4961,
      "121": 4962,
      "Ġspend": 4963,
      "Ġcreates": 4964,
      "Ġexposure": 4965,
      "429": 4966,
      "Ġbis": 4967,
      "Ġaren": 4968,
      "ĠOk": 4969,
      "Ġboy": 4970,
      "ĠKullan": 4971,
      "332": 4972,
      "ĠsÃ¼resini": 4973,
      "ĠÃ¶zellikle": 4974,
      "ĠtemizliÄŁi": 4975,
      "Ġrahatla": 4976,
      "Ġbring": 4977,
      "ĠÃ¶ncelikli": 4978,
      "Ġdeadlines": 4979,
      "311": 4980,
      "dum": 4981,
      "205": 4982,
      "Ġkeeps": 4983,
      "Ġreply": 4984,
      "Ġproject": 4985,
      "437": 4986,
      "749": 4987,
      "ns": 4988,
      "sen": 4989,
      "Ġade": 4990,
      "Ġkil": 4991,
      "ĠBun": 4992,
      "Ġdeci": 4993,
      "ĠHaya": 4994,
      "diÄŁin": 4995,
      "ĠokumayÄ±": 4996,
      "Ġarada": 4997,
      "ĠaracÄ±": 4998,
      "Ġgerekecek": 4999,
      "ĠWhy": 5000,
      "Ġnature": 5001,
      "ĠInstead": 5002,
      "Ġbrings": 5003,
      "Ġspeaker": 5004,
      "ĠbaÅŁlangÄ±c": 5005,
      "Ġindirin": 5006,
      "Ġdirectly": 5007,
      "Ġvadeli": 5008,
      "Ġrepetition": 5009,
      "-imp": 5010,
      "oin": 5011,
      "Ġban": 5012,
      "Ġprote": 5013,
      "Ġsear": 5014,
      "come": 5015,
      "kÃ¼Ã§Ã¼k": 5016,
      "Ġtab": 5017,
      "Ġbecer": 5018,
      "ĠyapabileceÄŁiniz": 5019,
      "Ġenga": 5020,
      "diÄŁini": 5021,
      "ĠÃĸz": 5022,
      "siyon": 5023,
      "ĠyÃ¼rÃ¼yÃ¼n": 5024,
      "ĠyÃ¼zer": 5025,
      "ĠgerektiÄŁini": 5026,
      "Ġloca": 5027,
      "ĠkapalÄ±": 5028,
      "Ġdeeply": 5029,
      "Ġbekleyin": 5030,
      "ĠduyduÄŁunuz": 5031,
      "ĠÃ§ekim": 5032,
      "lÃ¼ÄŁ": 5033,
      "ĠsÃ¶y": 5034,
      "Ġgetirin": 5035,
      "Ġletting": 5036,
      "ĠkaynaÄŁÄ±": 5037,
      "Ġyolculu": 5038,
      "ĠnumaranÄ±z": 5039,
      "436": 5040,
      "ial": 5041,
      "ĠSleep": 5042,
      "oney": 5043,
      "Ġlisting": 5044,
      "Ġemotions": 5045,
      "ayÄ±n": 5046,
      "oloj": 5047,
      "ub": 5048,
      "Ãĩ": 5049,
      "Ġcons": 5050,
      "Ġhear": 5051,
      "Ġatarak": 5052,
      "ĠÃ¶nerisi": 5053,
      "Ġetmektir": 5054,
      "Ġrutini": 5055,
      "ĠbÃ¶lg": 5056,
      "Ġuygulamaya": 5057,
      "ĠBelki": 5058,
      "ĠJust": 5059,
      "ĠkÄ±sÄ±t": 5060,
      "Ġinvol": 5061,
      "rust": 5062,
      "Ġbes": 5063,
      "Ġnothing": 5064,
      "Ġfrust": 5065,
      "vices": 5066,
      "Ġgrow": 5067,
      "Ġgradually": 5068,
      "04": 5069,
      "413": 5070,
      "ÅŁe": 5071,
      "lene": 5072,
      "ĠayÄ±rÄ±": 5073,
      "Ġkat": 5074,
      "ĠadÄ±mÄ±nÄ±": 5075,
      "ĠÃ¶nere": 5076,
      "meni": 5077,
      "Ġsaatler": 5078,
      "Ġmuh": 5079,
      "ourne": 5080,
      "ĠTra": 5081,
      "Ġshif": 5082,
      "Ġconnections": 5083,
      "ourney": 5084,
      "ĠyalnÄ±z": 5085,
      "ĠDeclutter": 5086,
      "Ġeating": 5087,
      "Ġdemand": 5088,
      "Ġsefer": 5089,
      "204": 5090,
      "ĠBirin": 5091,
      "ĠolduÄŁuna": 5092,
      "Ġgerektir": 5093,
      "Ġkuru": 5094,
      "Ġhissetmeye": 5095,
      ".\"Ċ": 5096,
      "Ġremoving": 5097,
      "Ġrequi": 5098,
      "ĠiliÅŁk": 5099,
      ".'": 5100,
      "388": 5101,
      "714": 5102,
      "Ġsl": 5103,
      "ĠEliminate": 5104,
      "Ġrec": 5105,
      "Ġstrong": 5106,
      "ĠPut": 5107,
      "ures": 5108,
      "shop": 5109,
      "Ġcontainers": 5110,
      "Ġfrequently": 5111,
      "Ġcritical": 5112,
      "715": 5113,
      "832": 5114,
      "Ġaw": 5115,
      "Ġcra": 5116,
      "Ġeyle": 5117,
      "Ġmoney": 5118,
      "Ġchoose": 5119,
      "ĠÃ¶nceli": 5120,
      "164": 5121,
      "Ġetmeniz": 5122,
      "Ġedil": 5123,
      "805": 5124,
      "ĠÃ¶zg": 5125,
      "Ġbulunan": 5126,
      "ĠsÃ¼rdÃ¼r": 5127,
      "Ġgidip": 5128,
      "luluk": 5129,
      "ĠAÄŁust": 5130,
      "Ġbisik": 5131,
      "Ġdecide": 5132,
      "-impact": 5133,
      "Do": 5134,
      "ints": 5135,
      "ross": 5136,
      "Ġyi": 5137,
      "ĠWrite": 5138,
      "Ġhealthy": 5139,
      "lg": 5140,
      "ĠbaÅŁlamayÄ±": 5141,
      "ahÃ§": 5142,
      "Ġencoura": 5143,
      "158": 5144,
      "Ġspon": 5145,
      "203": 5146,
      "Ġdille": 5147,
      "Ġaktif": 5148,
      "ĠyÃ¶nelik": 5149,
      "Ġkurul": 5150,
      "ĠyapÄ±sÄ±nÄ±": 5151,
      "Ġanlamaya": 5152,
      "ĠÃ¶nceliklendir": 5153,
      "Ġdefteri": 5154,
      "ĠharitasÄ±": 5155,
      "710": 5156,
      "98": 5157,
      "Ġbecome": 5158,
      "Ġassum": 5159,
      "Ġspontane": 5160,
      "'Ä±": 5161,
      "734": 5162,
      "bo": 5163,
      "Ġhy": 5164,
      "orize": 5165,
      "ĠiÃ§i": 5166,
      "ĠiÃ§erek": 5167,
      "ĠgÃ¼ne": 5168,
      "ĠÄ°kincisi": 5169,
      "lerken": 5170,
      "Ġsuda": 5171,
      "ĠhaftalÄ±k": 5172,
      "ĠolanÄ±": 5173,
      "ĠtÃ¼rden": 5174,
      "ĠolmasÄ±nÄ±": 5175,
      "leyecek": 5176,
      "ĠÃ¶ÄŁleden": 5177,
      "charge": 5178,
      "181": 5179,
      "Ġmessages": 5180,
      "410": 5181,
      "415": 5182,
      "489": 5183,
      "78": 5184,
      "ion": 5185,
      "Ġcontin": 5186,
      "mam": 5187,
      "ilg": 5188,
      "ndeki": 5189,
      "ĠbaÅŁÄ±nÄ±za": 5190,
      "**,": 5191,
      "Ġyazarak": 5192,
      "Ġvisi": 5193,
      "Ġmad": 5194,
      "ĠgeÃ§miÅŁ": 5195,
      "Ġsticking": 5196,
      "ĠkolaylaÅŁtÄ±rmak": 5197,
      "ĠuygulamalarÄ±": 5198,
      "Ġkavram": 5199,
      "Ġmalzemeleri": 5200,
      "hotoshop": 5201,
      "729": 5202,
      "Ġresults": 5203,
      "Ġmastering": 5204,
      "Ġdesignated": 5205,
      "789": 5206,
      "735": 5207,
      "aÄŁ": 5208,
      "Ã¼yor": 5209,
      "ĠErken": 5210,
      "ÄŁru": 5211,
      "ety": 5212,
      "Ġreh": 5213,
      "Ġmap": 5214,
      "ĠyÃ¶ntemdir": 5215,
      "Ġtakv": 5216,
      "Sadece": 5217,
      "ygÄ±n": 5218,
      "414": 5219,
      "416": 5220,
      "Ġcue": 5221,
      "ingu": 5222,
      "Ġcompare": 5223,
      "Ġemotional": 5224,
      "831": 5225,
      "manÄ±": 5226,
      "Ġtu": 5227,
      "Ġdizi": 5228,
      "umlu": 5229,
      "Ġforce": 5230,
      "caÄŁÄ±nÄ±": 5231,
      "tadÄ±r": 5232,
      "ĠÃ§ekmeye": 5233,
      "ĠsaÄŁlayan": 5234,
      "ĠÅŁeyin": 5235,
      "Ġtarif": 5236,
      "Ġindirip": 5237,
      "Ġhareketi": 5238,
      "ĠiÃ§eren": 5239,
      "Ġcomfortable": 5240,
      "224": 5241,
      "417": 5242,
      "Ġnear": 5243,
      "ĠKal": 5244,
      "Ġteach": 5245,
      "Ġsunlight": 5246,
      "Ġshoot": 5247,
      "ĠGetting": 5248,
      "Ġmindfulness": 5249,
      "225": 5250,
      "737": 5251,
      "com": 5252,
      "Ġeri": 5253,
      "Ä±nca": 5254,
      "Ġyakal": 5255,
      "ĠSÄ±k": 5256,
      "Ġuyu": 5257,
      "Ġrecharge": 5258,
      "Ġisn": 5259,
      "Ġhead": 5260,
      "Ġmotivated": 5261,
      "Ġexpect": 5262,
      "ĠsÄ±kÄ±cÄ±": 5263,
      "Ġdikkatli": 5264,
      "ĠkeÅŁf": 5265,
      "Ġmedya": 5266,
      "Ġinteractions": 5267,
      "ĠKayÄ±t": 5268,
      "Ġconfidence": 5269,
      "380": 5270,
      "736": 5271,
      "Â°": 5272,
      "Ġfood": 5273,
      "ĠBuild": 5274,
      "Ġtired": 5275,
      "Ġdistingu": 5276,
      "Ġwindow": 5277,
      "Ġemail": 5278,
      "Ġreturn": 5279,
      "Ġslot": 5280,
      "Ġdistinguish": 5281,
      "-time": 5282,
      "412": 5283,
      "434": 5284,
      "449": 5285,
      "hi": 5286,
      "isidir": 5287,
      "Ġpic": 5288,
      "Ġyerinde": 5289,
      "temelen": 5290,
      "Ġinstantly": 5291,
      "Ġsomut": 5292,
      "ason": 5293,
      "asÄ±na": 5294,
      "Ġsaatlerinizi": 5295,
      "Ġaccess": 5296,
      "Ġistek": 5297,
      "ĠÅŁeklinde": 5298,
      "Ġhaline": 5299,
      "Ġyorgunluk": 5300,
      "Ġduygusal": 5301,
      "ĠsÃ¼recini": 5302,
      "ĠAÄŁustos": 5303,
      "430": 5304,
      "ged": 5305,
      "allen": 5306,
      "ether": 5307,
      "Ġsurfaces": 5308,
      "Ġlooking": 5309,
      "Ġanxiety": 5310,
      "03": 5311,
      "asyon": 5312,
      "iyet": 5313,
      "Ġcha": 5314,
      "Ġkafa": 5315,
      "Ġolmaya": 5316,
      "ĠÃ§Ä±": 5317,
      "kay": 5318,
      "vig": 5319,
      "ĠyÃ¼rÃ¼yÃ¼ÅŁÃ¼": 5320,
      "Ġokum": 5321,
      "Ġmeaningful": 5322,
      "ĠÃĸnceki": 5323,
      "Ġtext": 5324,
      "Ġdeneyerek": 5325,
      "Ġkolayca": 5326,
      "Ġaktiviteleri": 5327,
      "Ġkutular": 5328,
      "Ġonunla": 5329,
      "ĠamaÃ§la": 5330,
      "ĠparÃ§alara": 5331,
      "ĠiÅŁlemi": 5332,
      "Ġclothes": 5333,
      "324": 5334,
      "327": 5335,
      "534": 5336,
      "Ġtechniqu": 5337,
      "182": 5338,
      "ĠHave": 5339,
      "Ġtechniques": 5340,
      "sim": 5341,
      "ĠyaygÄ±n": 5342,
      "ĠAyÄ±": 5343,
      "lÄ±m": 5344,
      "Ġbeen": 5345,
      "ĠÃĸncelik": 5346,
      "ĠsaÄŁlamak": 5347,
      "ĠAyda": 5348,
      "Ġizlemek": 5349,
      "tesini": 5350,
      "ĠMotivasyon": 5351,
      "Ġrequire": 5352,
      "tirip": 5353,
      "Ġjudgment": 5354,
      "713": 5355,
      "Ġpile": 5356,
      "Ġcol": 5357,
      "Ġpracticing": 5358,
      "Ġlit": 5359,
      "285": 5360,
      "Ġpurpose": 5361,
      "01": 5362,
      "card": 5363,
      "Ġbildirim": 5364,
      "ĠEvet": 5365,
      "ĠBasit": 5366,
      "lanma": 5367,
      "Ġdahil": 5368,
      "abilirim": 5369,
      "ĠfotoÄŁrafÄ±": 5370,
      "Ġwhenever": 5371,
      "Ġenerjinizi": 5372,
      "ĠaraÃ§larÄ±": 5373,
      "ĠbÃ¼tÃ§enizi": 5374,
      "Ġaiming": 5375,
      "Ġnavig": 5376,
      "Ġlezzet": 5377,
      "Ġtuval": 5378,
      "384": 5379,
      "72": 5380,
      "Ġvalue": 5381,
      "Durum": 5382,
      "dil": 5383,
      "urge": 5384,
      "ilere": 5385,
      "Ġveren": 5386,
      "101": 5387,
      "uyg": 5388,
      "Ġettir": 5389,
      "Ġelinizde": 5390,
      "ĠbaÅŁlayabilirsin": 5391,
      "ĠnetleÅŁtir": 5392,
      "Ġortadan": 5393,
      "Ġpersonal": 5394,
      "ĠgerÃ§ekleÅŁ": 5395,
      "Ġkaynat": 5396,
      "Ġbitirin": 5397,
      "Ġmalzemeler": 5398,
      "Ġexchanging": 5399,
      "Ã¼kemm": 5400,
      "ĠoluÅŁtura": 5401,
      "ĠolduÄŁunca": 5402,
      "ĠMevcut": 5403,
      "Ġada": 5404,
      "Ġstand": 5405,
      "Ġpoints": 5406,
      "712": 5407,
      "Not": 5408,
      "ĠtÃ¼k": 5409,
      "lasik": 5410,
      "Ã¶yle": 5411,
      "Ã¼nya": 5412,
      "ĠÃ¶nlemek": 5413,
      "ĠgÃ¼nlerde": 5414,
      "ĠÄ°ste": 5415,
      "Ġhedefinize": 5416,
      "ĠodaklanÄ±p": 5417,
      "405": 5418,
      "Ġstuck": 5419,
      "ÄŁuk": 5420,
      "larÄ±nÄ±za": 5421,
      "ĠkitabÄ±n": 5422,
      "ĠsÃ¶yleyin": 5423,
      "Ġaccommodations": 5424,
      "717": 5425,
      "929": 5426,
      "ess": 5427,
      "Ġfinding": 5428,
      "716": 5429,
      "935": 5430,
      "underst": 5431,
      "ĠÃ¼rÃ¼n": 5432,
      "ange": 5433,
      "Ġconte": 5434,
      "Ġtuz": 5435,
      "ceÄŁiniz": 5436,
      "ĠmÃ¼": 5437,
      "ĠbaÅŁkal": 5438,
      "ĠbeÄŁ": 5439,
      "ĠbaÅŁlamalÄ±sÄ±nÄ±z": 5440,
      "ĠGÃ¶r": 5441,
      "Ä±za": 5442,
      "Ġresmi": 5443,
      "Ġbura": 5444,
      "ĠgÃ¶ÄŁ": 5445,
      "lenmiÅŁ": 5446,
      "Ġkendiniz": 5447,
      "806": 5448,
      "ĠdÃ¼zenleyin": 5449,
      "ĠoluÅŁturur": 5450,
      "ĠuygulamayÄ±": 5451,
      "ayÄ±f": 5452,
      "ĠbahÃ§enize": 5453,
      "ĠTelefonu": 5454,
      "Ġclarity": 5455,
      "ĠSoru": 5456,
      "build": 5457,
      "Ġistersiniz": 5458,
      "Ġmakinesini": 5459,
      "Ġmuhtemelen": 5460,
      "320": 5461,
      "913": 5462,
      "Can": 5463,
      "dest": 5464,
      "Ġnum": 5465,
      "ets": 5466,
      "Ġdevices": 5467,
      "Ġchallen": 5468,
      "306": 5469,
      "009": 5470,
      "Ġhardest": 5471,
      "Ġmisunderst": 5472,
      "Ġincluding": 5473,
      "ledge": 5474,
      "Ġpushes": 5475,
      "92": 5476,
      "912": 5477,
      "He": 5478,
      "ain": 5479,
      "suz": 5480,
      "tedir": 5481,
      "veya": 5482,
      "Ġrebuild": 5483,
      "ĠGÃ¼ven": 5484,
      "ĠdeÄŁerli": 5485,
      "Ġplanlamak": 5486,
      "ĠÃ¶ÄŁrenmenin": 5487,
      "Ġcommon": 5488,
      "Ġyatmak": 5489,
      "ĠbÃ¶lÃ¼n": 5490,
      "Ġbulunur": 5491,
      "Ã¼nÃ¼zde": 5492,
      "ĠyaptÄ±ÄŁÄ±nÄ±zÄ±": 5493,
      "ĠkiÅŁiyle": 5494,
      "Ġdesired": 5495,
      "Ġtransit": 5496,
      "Ġobj": 5497,
      "ĠiÃ§erik": 5498,
      "ĠdÃ¼zelt": 5499,
      "ĠÃ¶ÄŁrene": 5500,
      "ĠyumuÅŁak": 5501,
      "Ġbelirtilen": 5502,
      "916": 5503,
      "ty": 5504,
      "ĠStop": 5505,
      "Ġunder": 5506,
      "Ġsleeping": 5507,
      "Ġexample": 5508,
      "606": 5509,
      "ĠkarÅŁÄ±laÅŁacak": 5510,
      "Ġkindness": 5511,
      "915": 5512,
      "ysanÄ±z": 5513,
      "Ġconstantly": 5514,
      "imd": 5515,
      "sÄ±ndan": 5516,
      "ĠplanÄ±nÄ±": 5517,
      "dibly": 5518,
      "286": 5519,
      "Ġtelefonla": 5520,
      "ĠbaÅŁlayabilir": 5521,
      "605": 5522,
      "Ġlate": 5523,
      "Ġdisconnect": 5524,
      "Ġrelations": 5525,
      "Ġparkta": 5526,
      "Ġbarri": 5527,
      "ĠuyandÄ±": 5528,
      "Ġkonaklama": 5529,
      "Ġkonsep": 5530,
      "305": 5531,
      "118": 5532,
      "Ġfriction": 5533,
      "rolling": 5534,
      "Ġlarger": 5535,
      "Ġincredibly": 5536,
      "Ġrelationship": 5537,
      "'yla": 5538,
      "02": 5539,
      "433": 5540,
      "432": 5541,
      "kÄ±": 5542,
      "Ġpi": 5543,
      "Ġsus": 5544,
      "ĠyaÄŁ": 5545,
      "Ġbat": 5546,
      "Ġbulmaya": 5547,
      "Ġhaval": 5548,
      "ĠiÅŁin": 5549,
      "Ġsaatlerini": 5550,
      "ĠkaydÄ±n": 5551,
      "ĠsaÄŁlayarak": 5552,
      "ĠFor": 5553,
      "Ġekleyip": 5554,
      "ĠayÄ±rt": 5555,
      "Ġdinlemek": 5556,
      "mÄ±ÅŁtÄ±r": 5557,
      "Ġsayfa": 5558,
      "Ġtelefonunuzdaki": 5559,
      "730": 5560,
      "910": 5561,
      "949": 5562,
      "uel": 5563,
      "Ġurge": 5564,
      "Ġguilt": 5565,
      "Ġdepart": 5566,
      "-w": 5567,
      "325": 5568,
      "934": 5569,
      "936": 5570,
      "App": 5571,
      "Ġneler": 5572,
      "teg": 5573,
      "mekle": 5574,
      "tÄ±ÄŁÄ±nÄ±zda": 5575,
      "ĠsabahÄ±": 5576,
      "Ġdimming": 5577,
      "Ġsorunun": 5578,
      "alarÄ±nÄ±": 5579,
      "ĠbaÅŁarÄ±lar": 5580,
      "ĠuyanÄ±ÅŁ": 5581,
      "ĠKendine": 5582,
      "ĠkurallarÄ±nÄ±": 5583,
      "ĠgÃ¶zlemleyin": 5584,
      "Ġyetenek": 5585,
      "ĠeriÅŁ": 5586,
      "aten": 5587,
      "esign": 5588,
      "Ġstretch": 5589,
      "387": 5590,
      "Zaman": 5591,
      "iyi": 5592,
      "ilen": 5593,
      "pit": 5594,
      "Ġsn": 5595,
      "yable": 5596,
      "Ġyata": 5597,
      "Ġdal": 5598,
      "Ġdiz": 5599,
      "ĠuyanÄ±p": 5600,
      "hand": 5601,
      "Ġsef": 5602,
      "Ġalong": 5603,
      "Ġhissini": 5604,
      "Ġexpecting": 5605,
      "Ġtelefonunuza": 5606,
      "Ġlonger": 5607,
      "Ġgives": 5608,
      "Merhaba": 5609,
      "Ġrequires": 5610,
      "ĠtÃ¼ket": 5611,
      "733": 5612,
      "Ġtreating": 5613,
      "Ġspecial": 5614,
      "406": 5615,
      "705": 5616,
      "Ġsilence": 5617,
      "Ġattrac": 5618,
      "Ġstill": 5619,
      "Ġenjoyable": 5620,
      "52": 5621,
      "937": 5622,
      "Google": 5623,
      "ldÄ±": 5624,
      "rated": 5625,
      "Ġikinci": 5626,
      "Ġyerleri": 5627,
      "arp": 5628,
      "iteli": 5629,
      "ĠayÄ±rdÄ±ÄŁÄ±nÄ±": 5630,
      "ĠdÃ¼ÅŁÃ¼k": 5631,
      "506": 5632,
      "Ġduruma": 5633,
      "Ġpreventing": 5634,
      "Ġsenary": 5635,
      "larÄ±nÄ±zla": 5636,
      "Ġwait": 5637,
      "Ġtavsiy": 5638,
      "Ġbenz": 5639,
      "ĠeÅŁyalarÄ±": 5640,
      "Ġotob": 5641,
      "Ġblack": 5642,
      "Ġcommunicate": 5643,
      "ĠHayat": 5644,
      "53": 5645,
      "914": 5646,
      "Ġuninter": 5647,
      "Ġremind": 5648,
      "411": 5649,
      "930": 5650,
      "ultane": 5651,
      "ĠDÃ¼zen": 5652,
      "mamak": 5653,
      "ĠYe": 5654,
      "ĠbaÅŁlamanÄ±zÄ±": 5655,
      "ĠbaÅŁlatmak": 5656,
      "ĠÃ¶ÄŁÃ¼n": 5657,
      "Ġbol": 5658,
      "ĠyerleÅŁtir": 5659,
      "Ġdurumunuzu": 5660,
      "Ġeklemek": 5661,
      "Ġyoldur": 5662,
      "ĠgÃ¶rÃ¼nÃ¼": 5663,
      "505": 5664,
      "ĠhazÄ±rlamak": 5665,
      "Ġolursa": 5666,
      "Ġhata": 5667,
      "Ġmight": 5668,
      "ĠÄ±s": 5669,
      "ĠboÅŁluk": 5670,
      "Ġallows": 5671,
      "yoga": 5672,
      "Ġcarry": 5673,
      "Ġtespit": 5674,
      "Ġkilit": 5675,
      "Ã¼kemmel": 5676,
      "ultaneously": 5677,
      "326": 5678,
      "826": 5679,
      "Ġfar": 5680,
      "Ġsimultaneously": 5681,
      "dian": 5682,
      "933": 5683,
      "must": 5684,
      "yes": 5685,
      "Ã¼me": 5686,
      "ĠkayÄ±": 5687,
      "lanacak": 5688,
      "ĠkÄ±ya": 5689,
      "Ġyapabilece": 5690,
      "Ġonay": 5691,
      "Ġyapmaktan": 5692,
      "Ã¼ÅŁÃ¼n": 5693,
      "geyi": 5694,
      "Ġkalp": 5695,
      "Ġmeeting": 5696,
      "caÄŁÄ±nÄ±zÄ±": 5697,
      "cadian": 5698,
      "Ġbeforehand": 5699,
      "ĠalmanÄ±z": 5700,
      "ĠKah": 5701,
      "Ġkom": 5702,
      "ĠÃ§alÄ±ÅŁarak": 5703,
      "where": 5704,
      "Ġortal": 5705,
      "Ġtamamlamak": 5706,
      "endiÄŁiniz": 5707,
      "Ġalanda": 5708,
      "landÄ±rma": 5709,
      "Ġazaltmak": 5710,
      "ĠkÄ±smÄ±nÄ±": 5711,
      "Ġtools": 5712,
      "Ġcircadian": 5713,
      "imdilik": 5714,
      "back": 5715,
      "Ġint": 5716,
      "Ġattem": 5717,
      "Ġvisit": 5718,
      "Ġpartner": 5719,
      "Ġperiods": 5720,
      "ĠClear": 5721,
      "'yi": 5722,
      "inÃ§": 5723,
      "leyen": 5724,
      "Ġcover": 5725,
      "Ġverebilir": 5726,
      "Ġshel": 5727,
      "uggage": 5728,
      "ĠdeÄŁiÅŁtirmek": 5729,
      "Ġabs": 5730,
      "Ġetmeyi": 5731,
      "ĠettiÄŁiniz": 5732,
      "Ġkullanabilirsiniz": 5733,
      "ĠhoÅŁ": 5734,
      "Ġgerekebilir": 5735,
      "Ġduva": 5736,
      "885": 5737,
      "Ġelde": 5738,
      "ĠkonuÅŁun": 5739,
      "Ġexpens": 5740,
      "rupted": 5741,
      "Ġiyisidir": 5742,
      "ĠanlaÅŁÄ±lÄ±r": 5743,
      "ĠJoin": 5744,
      "ĠbaskÄ±": 5745,
      "nemli": 5746,
      "Ġalternative": 5747,
      "Ġbisiklet": 5748,
      "Ġmadde": 5749,
      "Ġuninterrupted": 5750,
      "711": 5751,
      "828": 5752,
      "ata": 5753,
      "Ġluggage": 5754,
      "phones": 5755,
      "member": 5756,
      "Ġintens": 5757,
      "Ġcorner": 5758,
      "226": 5759,
      "617": 5760,
      "917": 5761,
      "onu": 5762,
      "Ġsunu": 5763,
      "ulara": 5764,
      "erilen": 5765,
      "ĠsoÄŁuk": 5766,
      "Ã¼zik": 5767,
      "ĠÃľ": 5768,
      "Ġyerlere": 5769,
      "ĠsorularÄ±": 5770,
      "nasÄ±l": 5771,
      "ĠalÄ±r": 5772,
      "Ġekle": 5773,
      "ĠdÃ¼zenlemek": 5774,
      "Ġmesajlar": 5775,
      "Ġhareketler": 5776,
      "Ġsana": 5777,
      "Ġfiyat": 5778,
      "ĠgeÃ§irmek": 5779,
      "Ġinceleyerek": 5780,
      "Ġsamimiyet": 5781,
      "Ġcalming": 5782,
      "Ġbitkileri": 5783,
      "Ġscheduling": 5784,
      "630": 5785,
      "880": 5786,
      "ĠDesign": 5787,
      "Ġva": 5788,
      "202": 5789,
      "Ġsub": 5790,
      "Ġclose": 5791,
      "615": 5792,
      "634": 5793,
      "824": 5794,
      "Ha": 5795,
      "ses": 5796,
      "Ä±ra": 5797,
      "Ġklasik": 5798,
      "Ġsuy": 5799,
      "Ġtenc": 5800,
      "sam": 5801,
      "ĠkonularÄ±": 5802,
      "ĠbaÅŁlatabilirsiniz": 5803,
      "ĠkalmayÄ±": 5804,
      "ĠatÄ±ÅŁ": 5805,
      "Ġbelirlemeniz": 5806,
      "Ġcomb": 5807,
      "Ġlistesi": 5808,
      "Ġdinlendir": 5809,
      "Ġbeklemek": 5810,
      "ĠbÄ±rakmak": 5811,
      "ÃĸrneÄŁin": 5812,
      "Ãĸneri": 5813,
      "ĠvÃ¼cut": 5814,
      "ĠHafif": 5815,
      "Ġinteraction": 5816,
      "Ġetkinlik": 5817,
      "Ġsinir": 5818,
      "Ġadedi": 5819,
      "Ġmisunderstand": 5820,
      "385": 5821,
      "Pa": 5822,
      "St": 5823,
      "isine": 5824,
      "Ġsolu": 5825,
      "Ġseem": 5826,
      "Ġquit": 5827,
      "Ġwhether": 5828,
      "power": 5829,
      "Ġsignals": 5830,
      "Ġsolve": 5831,
      "Ġvisible": 5832,
      "227": 5833,
      "732": 5834,
      "Cevap": 5835,
      "gÃ¶r": 5836,
      "mini": 5837,
      "tÄ±ktan": 5838,
      "ani": 5839,
      "Ġcontrol": 5840,
      "Ġtell": 5841,
      "ĠEt": 5842,
      "lÄ±yorum": 5843,
      "abilirsin": 5844,
      "ĠgÃ¼nler": 5845,
      "Ġrein": 5846,
      "ĠÃ¶neriye": 5847,
      "Ä±rÄ±": 5848,
      "Ġkaliteli": 5849,
      "ĠiyileÅŁtirmek": 5850,
      "tiÅŁime": 5851,
      "ĠolduÄŁunda": 5852,
      "ĠSabahÄ±n": 5853,
      "ĠalanÄ±nÄ±zÄ±": 5854,
      "Ġdinleyin": 5855,
      "ĠgÃ¶revler": 5856,
      "Ġsanat": 5857,
      "ĠÃ¶zellik": 5858,
      "Ġteknikleri": 5859,
      "Ġplanda": 5860,
      "Ġsebze": 5861,
      "Ġkaybol": 5862,
      "Ġkaydedi": 5863,
      "Ġzihn": 5864,
      "ĠtaÅŁÄ±": 5865,
      "ĠÃ¶dev": 5866,
      "ĠdÃ¼ÅŁÃ¼ndÃ¼ÄŁ": 5867,
      "480": 5868,
      "989": 5869,
      "sApp": 5870,
      "enden": 5871,
      "ĠGen": 5872,
      "Ġscrolling": 5873,
      "Ġreinfor": 5874,
      "536": 5875,
      "tarÄ±": 5876,
      "Ġport": 5877,
      "Ġnotlar": 5878,
      "imit": 5879,
      "ĠÃ§ab": 5880,
      "Ġmaru": 5881,
      "ĠUyan": 5882,
      "ĠÃ§alÄ±ÅŁan": 5883,
      "Ġdurumun": 5884,
      "Ġilerlemeler": 5885,
      "Ġdurun": 5886,
      "ĠsÄ±fÄ±r": 5887,
      "mesine": 5888,
      "ĠÄ±ÅŁÄ±ÄŁÄ±nÄ±": 5889,
      "Ġmemory": 5890,
      "Ġotomatik": 5891,
      "Ġcramming": 5892,
      "Ġduvara": 5893,
      "Ġmaruz": 5894,
      "41": 5895,
      "535": 5896,
      "Ġnor": 5897,
      "ĠMaps": 5898,
      "ific": 5899,
      "Ġairline": 5900,
      "Ġaccomplishment": 5901,
      "Ġshelves": 5902,
      "500": 5903,
      "63": 5904,
      "820": 5905,
      "Ne": 5906,
      "pting": 5907,
      "yse": 5908,
      "Ġ$": 5909,
      "insel": 5910,
      "ĠTÃ¼m": 5911,
      "esine": 5912,
      "ĠnumarasÄ±nÄ±": 5913,
      "Ġbey": 5914,
      "Ġolmadan": 5915,
      "Ġversion": 5916,
      "lamanÄ±z": 5917,
      "ĠyazÄ±p": 5918,
      "ĠCÃ¼m": 5919,
      "Ġbelirtir": 5920,
      "ĠiyileÅŁ": 5921,
      "ĠyÃ¼zey": 5922,
      "ĠfotoÄŁrafÄ±nÄ±zÄ±": 5923,
      "Ġyolda": 5924,
      "Ã¶zellikle": 5925,
      "ĠtÃ¼rÃ¼nÃ¼": 5926,
      "ĠdÃ¼ÅŁÃ¼nmek": 5927,
      "ĠHareket": 5928,
      "larÄ±nÄ±zda": 5929,
      "ĠpaylaÅŁmak": 5930,
      "ĠÃ¼st": 5931,
      "ĠgÃ¶ndererek": 5932,
      "ĠsevdiÄŁiniz": 5933,
      "Ġegzersizleri": 5934,
      "Ġhissed": 5935,
      "Ġinitial": 5936,
      "Ġwebsi": 5937,
      "ĠfÄ±rsat": 5938,
      "Ġseferinde": 5939,
      "636": 5940,
      "Ġfit": 5941,
      "Ġacce": 5942,
      "reading": 5943,
      "Ġmiss": 5944,
      "Ġturn": 5945,
      "'Ã¼n": 5946,
      "537": 5947,
      "827": 5948,
      "lilik": 5949,
      "Ġcues": 5950,
      "Ġboring": 5951,
      "Ġprovi": 5952,
      "les": 5953,
      "sak": 5954,
      "Ġyaprak": 5955,
      "ĠbuluÅŁuyor": 5956,
      "Ġresist": 5957,
      "Ġ**\"": 5958,
      "Ġalone": 5959,
      "Ġimkan": 5960,
      "Ġdakikadan": 5961,
      "unuzda": 5962,
      "ĠiÅŁinizi": 5963,
      "Ġevin": 5964,
      "Ġarama": 5965,
      "ĠsabahÄ±n": 5966,
      "Ġtekni": 5967,
      "Ġevent": 5968,
      "Ġtelefonun": 5969,
      "layabilirsiniz": 5970,
      "Ġliste": 5971,
      "ĠhazÄ±rlan": 5972,
      "Ġappro": 5973,
      "ĠbaÄŁlam": 5974,
      "Ġsaniy": 5975,
      "Ġyani": 5976,
      "ĠCheck": 5977,
      "ĠsÄ±rasÄ±nda": 5978,
      "Ġemails": 5979,
      "ĠeÄŁitimi": 5980,
      "Ġdemanding": 5981,
      "ĠgÃ¶rÃ¼nÃ¼yor": 5982,
      "514": 5983,
      "517": 5984,
      "549": 5985,
      "Ġty": 5986,
      "Ġfun": 5987,
      "Ġremember": 5988,
      "Ġforcing": 5989,
      "ics": 5990,
      "ities": 5991,
      "Ġlabeled": 5992,
      "Ġvague": 5993,
      "ops": 5994,
      "endik": 5995,
      "Ġhon": 5996,
      "Ã§Ä±k": 5997,
      "Ġveriler": 5998,
      "Ġneyi": 5999,
      "acaktÄ±r": 6000,
      "gid": 6001,
      "ĠfotoÄŁraflarÄ±": 6002,
      "ĠfotoÄŁrafÃ§Ä±": 6003,
      "ĠsÃ¼reyi": 6004,
      "ĠÅŁeyden": 6005,
      "ĠyÃ¶nel": 6006,
      "ĠBaÅŁka": 6007,
      "ĠayarlarÄ±nÄ±": 6008,
      "Ġdeneyimi": 6009,
      "ĠuzaklaÅŁ": 6010,
      "head": 6011,
      "ĠeÄŁlenceli": 6012,
      "Ġnormal": 6013,
      "220": 6014,
      "400": 6015,
      "515": 6016,
      "635": 6017,
      "73": 6018,
      "oice": 6019,
      "Ġwatching": 6020,
      "Ġexpressing": 6021,
      "529": 6022,
      "629": 6023,
      "kes": 6024,
      "telefon": 6025,
      "Ġahead": 6026,
      "tiÄŁinizi": 6027,
      "Ġsuyla": 6028,
      "Ġcore": 6029,
      "ĠzayÄ±f": 6030,
      "ĠÄ°liÅŁ": 6031,
      "Ġzamanla": 6032,
      "ĠHerhangi": 6033,
      "ĠalÄ±ÅŁtÄ±r": 6034,
      "504": 6035,
      "ĠkarÅŁÄ±lÄ±klÄ±": 6036,
      "ĠistediÄŁini": 6037,
      "Ġrigid": 6038,
      "Ġnedeniyle": 6039,
      "Ġdrink": 6040,
      "Ġcurtain": 6041,
      "ĠgÃ¼nÃ¼nÃ¼zÃ¼": 6042,
      "Ġkalitesini": 6043,
      "ĠZorluk": 6044,
      "Ġattractions": 6045,
      "386": 6046,
      "616": 6047,
      "600": 6048,
      "649": 6049,
      "ham": 6050,
      "using": 6051,
      "mat": 6052,
      "Ġnumber": 6053,
      "Ġsnack": 6054,
      "823": 6055,
      "Her": 6056,
      "kendi": 6057,
      "pts": 6058,
      "Ġcatch": 6059,
      "ula": 6060,
      "Ġik": 6061,
      "Ġhiz": 6062,
      "ĠLimit": 6063,
      "Ġisim": 6064,
      "Ġtutmaya": 6065,
      "duÄŁu": 6066,
      "ĠhaftanÄ±n": 6067,
      "607": 6068,
      "404": 6069,
      "ĠsÄ±vÄ±": 6070,
      "asÄ±nda": 6071,
      "ĠkiÅŁiler": 6072,
      "ĠbaÅŁarÄ±yÄ±": 6073,
      "ĠdÄ±ÅŁarÄ±da": 6074,
      "GÃ¼nlÃ¼k": 6075,
      "ĠnazikÃ§e": 6076,
      "Ġseparate": 6077,
      "613": 6078,
      "637": 6079,
      "93": 6080,
      "not": 6081,
      "Ġali": 6082,
      "Ġidentif": 6083,
      "ĠDuolingo": 6084,
      "Ġfuel": 6085,
      "Ġacross": 6086,
      "Ġactionable": 6087,
      "Ġharder": 6088,
      "ĠÃ§imen": 6089,
      "Ġavailability": 6090,
      "Ġshift": 6091,
      "ĠDesignate": 6092,
      "Start": 6093,
      "614": 6094,
      "Ġaler": 6095,
      "tiÄŁin": 6096,
      "elere": 6097,
      "Ġdrain": 6098,
      "amera": 6099,
      "ats": 6100,
      "**'": 6101,
      "lerinde": 6102,
      "ĠgÃ¼v": 6103,
      "Ġtelefonunu": 6104,
      "Ġolanak": 6105,
      "malÄ±sÄ±n": 6106,
      "cuk": 6107,
      "ĠyÃ¶ntemle": 6108,
      "Ġhafifle": 6109,
      "ĠbaÄŁlantÄ±": 6110,
      "Ġcommitting": 6111,
      "leyebilir": 6112,
      "Ġkorun": 6113,
      "ĠyaratÄ±r": 6114,
      "Ġenerjiyi": 6115,
      "ĠMesajÄ±nÄ±zÄ±": 6116,
      "Ġautomatically": 6117,
      "Ġuyumlu": 6118,
      "ĠSÄ±ra": 6119,
      "Ġuygulayarak": 6120,
      "Ġmerk": 6121,
      "ĠtasarÄ±m": 6122,
      "Ġswitch": 6123,
      "ĠsÄ±caklÄ±ÄŁÄ±na": 6124,
      "Ġassuming": 6125,
      "Ġteaching": 6126,
      "323": 6127,
      "530": 6128,
      "825": 6129,
      "can": 6130,
      "ral": 6131,
      "Ġhik": 6132,
      "ensi": 6133,
      "cast": 6134,
      "Ġlearned": 6135,
      "Ġrushing": 6136,
      "Ġaccum": 6137,
      "Ġdesire": 6138,
      "Ġsentences": 6139,
      "510": 6140,
      "Ġyiye": 6141,
      "Ġgest": 6142,
      "Ġfill": 6143,
      "Ġekip": 6144,
      "Ġyast": 6145,
      "Ġmy": 6146,
      "ĠmÃ¼kemmel": 6147,
      "mektedir": 6148,
      "Ġolsa": 6149,
      "ĠExp": 6150,
      "201": 6151,
      "ĠaldÄ±": 6152,
      "ĠsonrasÄ±": 6153,
      "Ġevinizdeki": 6154,
      "phra": 6155,
      "ĠkiÅŁinin": 6156,
      "ĠkalkÄ±n": 6157,
      "Ġderinlik": 6158,
      "Ġsanki": 6159,
      "Ġhavada": 6160,
      "Ġmutfak": 6161,
      "ĠgÃ¼Ã§lendirmek": 6162,
      "dikten": 6163,
      "Ġbeklenti": 6164,
      "ĠbirleÅŁecek": 6165,
      "Ġinvolves": 6166,
      "513": 6167,
      "pend": 6168,
      "iness": 6169,
      "Ġmeal": 6170,
      "Ġgoes": 6171,
      "Ġsign": 6172,
      "Ġmeditation": 6173,
      "Ġbalanced": 6174,
      "kÃ¼r": 6175,
      "kitap": 6176,
      "Ġassi": 6177,
      "Ġsure": 6178,
      "ĠiÃ§inden": 6179,
      "Ġmid": 6180,
      "lamalar": 6181,
      "ĠLÃ¼tfen": 6182,
      "lerinizden": 6183,
      "efore": 6184,
      "ĠÃĸner": 6185,
      "Ġokuy": 6186,
      "ÄŁinize": 6187,
      "ĠaralÄ±k": 6188,
      "ĠyÃ¶nlendir": 6189,
      "Ġkurg": 6190,
      "lamasÄ±": 6191,
      "ĠsorunlarÄ±nÄ±": 6192,
      "Ġlistesini": 6193,
      "ĠhissettiÄŁiniz": 6194,
      "ĠuyanÄ±k": 6195,
      "Ġmutlu": 6196,
      "ĠsaÄŁlayacaktÄ±r": 6197,
      "ĠkarÄ±ÅŁtÄ±r": 6198,
      "Ġsaatinde": 6199,
      "ĠuÄŁraÅŁ": 6200,
      "Ġblackout": 6201,
      "612": 6202,
      "911": 6203,
      "Ġsound": 6204,
      "acts": 6205,
      "Ġevents": 6206,
      "Ġconnect": 6207,
      "Ġprotect": 6208,
      "725": 6209,
      "minizi": 6210,
      "ysa": 6211,
      "Ġkeyi": 6212,
      "Ã¼nden": 6213,
      "lacak": 6214,
      "teki": 6215,
      "Ġbirer": 6216,
      "Ġoyun": 6217,
      "Ä°kinci": 6218,
      "ĠbaÅŁlamaya": 6219,
      "Ġyapman": 6220,
      "ekkÃ¼r": 6221,
      "ĠzorlandÄ±": 6222,
      "Ġzorunlu": 6223,
      "emiz": 6224,
      "281": 6225,
      "ĠdoÄŁum": 6226,
      "ĠkaygÄ±": 6227,
      "Ġdeneme": 6228,
      "ĠgeÃ§en": 6229,
      "Ġupon": 6230,
      "ĠduruÅŁ": 6231,
      "ĠrahatÃ§a": 6232,
      "Ġstresli": 6233,
      "Ġdetaylar": 6234,
      "Ġdeng": 6235,
      "ĠHaftalÄ±k": 6236,
      "Ġcloset": 6237,
      "Ġidentifying": 6238,
      "223": 6239,
      "micro": 6240,
      "Ġissu": 6241,
      "138": 6242,
      "Ġfeed": 6243,
      "284": 6244,
      "Ġplacing": 6245,
      "Ġencourage": 6246,
      "Ġcurtains": 6247,
      "932": 6248,
      "urun": 6249,
      "ÄŁÄ±nÄ±n": 6250,
      "ĠayÄ±ra": 6251,
      "Ġdata": 6252,
      "lÄ±r": 6253,
      "ĠgÃ¼ncel": 6254,
      "ĠbaÅŁta": 6255,
      "ĠiletiÅŁime": 6256,
      "ĠÃ§Ã¶": 6257,
      "ĠfotoÄŁraflar": 6258,
      "Ġartar": 6259,
      "Ġtema": 6260,
      "ĠsÃ¼resi": 6261,
      "ĠkaranlÄ±k": 6262,
      "Ġupda": 6263,
      "Ġdurmak": 6264,
      "ĠhatÄ±rla": 6265,
      "diÄŁinde": 6266,
      "-second": 6267,
      "ĠetkileÅŁ": 6268,
      "ĠyaptÄ±m": 6269,
      "Ġbardak": 6270,
      "Ġibarettir": 6271,
      "Ġlocation": 6272,
      "Ġrehber": 6273,
      "ificant": 6274,
      "Ġhonest": 6275,
      "Ġkeyif": 6276,
      "610": 6277,
      "Ġtough": 6278,
      "orm": 6279,
      "307": 6280,
      "Ġtraveling": 6281,
      "222": 6282,
      "Ġphotos": 6283,
      "Ġshowing": 6284,
      "Ġsecure": 6285,
      "Ġminimize": 6286,
      "589": 6287,
      "689": 6288,
      "baÅŁ": 6289,
      "ranÄ±": 6290,
      "sla": 6291,
      "anÄ±ÅŁ": 6292,
      "Ã¼lebilir": 6293,
      "alan": 6294,
      "Ġnes": 6295,
      "Ġhang": 6296,
      "Ã¶n": 6297,
      "Ã¶ÄŁ": 6298,
      "imle": 6299,
      "Ġverme": 6300,
      "Ä±nÄ±zdan": 6301,
      "Ġplanner": 6302,
      "Ã¼yÃ¼": 6303,
      "Ġrates": 6304,
      "ĠkitaplarÄ±": 6305,
      "mayacak": 6306,
      "cektir": 6307,
      "Ġtetik": 6308,
      "Ġunne": 6309,
      "Ġelect": 6310,
      "ĠaÃ§mak": 6311,
      "Ä±lma": 6312,
      "Ġbilgisi": 6313,
      "ĠÃĩo": 6314,
      "ĠseÃ§mekten": 6315,
      "Ġsunar": 6316,
      "Ġuyanmak": 6317,
      "ĠkazandÄ±r": 6318,
      "Ġinterruptions": 6319,
      "ĠkaÄŁÄ±da": 6320,
      "Ġdergi": 6321,
      "Ġexplaining": 6322,
      "Ġeylem": 6323,
      "Ġissues": 6324,
      ")Ċ": 6325,
      "512": 6326,
      "62": 6327,
      "Ġvi": 6328,
      "Ġtip": 6329,
      "Ġseven": 6330,
      "804": 6331,
      "Ġfaster": 6332,
      "Ġperform": 6333,
      "Ġrepeat": 6334,
      "Ġgrab": 6335,
      "Ġmultitask": 6336,
      "Ġtransportation": 6337,
      "ĠHabits": 6338,
      "ĠyetiÅŁtir": 6339,
      "533": 6340,
      "Ġsil": 6341,
      "ĠÃ¶nÃ¼ne": 6342,
      "ĠsoÄŁ": 6343,
      "Ġyazmaya": 6344,
      "eci": 6345,
      "Ġdilde": 6346,
      "Ġkod": 6347,
      "mediÄŁiniz": 6348,
      "Ġevinizin": 6349,
      "Ä±nav": 6350,
      "ĠgeÃ§ire": 6351,
      "Ġkurmaya": 6352,
      "Ġsorarak": 6353,
      "Ġdinleme": 6354,
      "ĠhazÄ±rla": 6355,
      "Ġhedeflerinize": 6356,
      "ĠUyk": 6357,
      "diÄŁinizde": 6358,
      "Ġdeniz": 6359,
      "Ġaccount": 6360,
      "ĠSizinle": 6361,
      "Ġmetre": 6362,
      "ĠadÄ±ma": 6363,
      "ĠgeliÅŁtirmek": 6364,
      "Ġschedules": 6365,
      "ĠotobÃ¼s": 6366,
      "Ġmisunderstandings": 6367,
      "tri": 6368,
      "Ġself": 6369,
      "ĠYÃ¼z": 6370,
      "Ġchar": 6371,
      "287": 6372,
      "604": 6373,
      "507": 6374,
      "Ġeffective": 6375,
      "900": 6376,
      "BÃ¼yÃ¼k": 6377,
      "Ġtutu": 6378,
      "daha": 6379,
      "ĠBahÃ§": 6380,
      "ĠiÃ§ip": 6381,
      "153": 6382,
      "ĠkalÄ±p": 6383,
      "caÄŁÄ±m": 6384,
      "lenme": 6385,
      "Ġodada": 6386,
      "Ġdurumunuz": 6387,
      "manÄ±zdÄ±r": 6388,
      "Ġdurdur": 6389,
      "ĠdÃ¼ÅŁÃ¼nerek": 6390,
      "Ġolmaktan": 6391,
      "Ġbiriyle": 6392,
      "ĠÃ§Ä±karÄ±n": 6393,
      "ĠbelirtilmiÅŁtir": 6394,
      "Ġidealdir": 6395,
      "Ġkanal": 6396,
      "Ġrisk": 6397,
      "ĠkÄ±yafet": 6398,
      "Ġintensity": 6399,
      "Ġsignificant": 6400,
      "Ġprom": 6401,
      "Ġzones": 6402,
      "ĠHem": 6403,
      "Ġspending": 6404,
      "veness": 6405,
      "Ġrun": 6406,
      "190": 6407,
      "ĠWhatsApp": 6408,
      "-sleep": 6409,
      "Ġelectron": 6410,
      "526": 6411,
      "uÄŁu": 6412,
      "yken": 6413,
      "yseniz": 6414,
      "Ġpap": 6415,
      "itab": 6416,
      "Ġkase": 6417,
      "Ġkafe": 6418,
      "Ġstresi": 6419,
      "Ġkonuyla": 6420,
      "142": 6421,
      "304": 6422,
      "Ġroutines": 6423,
      "407": 6424,
      "Ġkurgu": 6425,
      "704": 6426,
      "Ġkapak": 6427,
      "Ġhissetmek": 6428,
      "ĠChange": 6429,
      "ĠÃ§ekip": 6430,
      "Ġdefensi": 6431,
      "ĠaydÄ±nlÄ±k": 6432,
      "Ġproductivity": 6433,
      "Ġbunlar": 6434,
      "Ġkonsept": 6435,
      "Ġmerkez": 6436,
      "633": 6437,
      "Ġtreat": 6438,
      "Ġflow": 6439,
      "Ġevi": 6440,
      "Ġdim": 6441,
      "Ġwillpower": 6442,
      "288": 6443,
      "516": 6444,
      "520": 6445,
      "931": 6446,
      "bing": 6447,
      "lus": 6448,
      "Ġizmir": 6449,
      "Ġokay": 6450,
      "ature": 6451,
      "maktadÄ±r": 6452,
      "Ġnedir": 6453,
      "Ġyazma": 6454,
      "cknow": 6455,
      "ĠÃĸn": 6456,
      "ĠÃĸnemli": 6457,
      "Ġspark": 6458,
      "Ġtutma": 6459,
      "ĠÃ§ekme": 6460,
      "miyor": 6461,
      "ĠkonuÅŁacak": 6462,
      "ĠkurmayÄ±": 6463,
      "Ġhissettir": 6464,
      "ĠyatÄ±n": 6465,
      "ĠkalkÄ±ÅŁ": 6466,
      "ĠkalkmayÄ±": 6467,
      "ĠdÄ±ÅŁÄ±nda": 6468,
      "Ġkapatmak": 6469,
      "Ġsizinle": 6470,
      "Ġsoruda": 6471,
      "ĠnoktasÄ±dÄ±r": 6472,
      "Ġspots": 6473,
      "ĠnoktasÄ±nÄ±": 6474,
      "Ġeski": 6475,
      "melisin": 6476,
      "ĠkaynaÄŁÄ±nÄ±": 6477,
      "ĠkÄ±sal": 6478,
      "ĠtarafÄ±ndan": 6479,
      "Ġmerak": 6480,
      "ĠaÄŁÄ±r": 6481,
      "532": 6482,
      "700": 6483,
      "Ġconstant": 6484,
      "Ġtone": 6485,
      "Ġrece": 6486,
      "Ġcompleted": 6487,
      "Ġsitu": 6488,
      "Ġpriorities": 6489,
      "Ġspontaneous": 6490,
      "Ġdefensiveness": 6491,
      "426": 6492,
      "cc": 6493,
      "Ġtel": 6494,
      "ÅŁu": 6495,
      "uru": 6496,
      "ilmesi": 6497,
      "Ġgrup": 6498,
      "Ġwon": 6499,
      "Ġocc": 6500,
      "amik": 6501,
      "ĠbaÅŁÄ±nÄ±zÄ±": 6502,
      "Ä±rsanÄ±z": 6503,
      "geÃ§": 6504,
      "Ġtopra": 6505,
      "Ġkullanaca": 6506,
      "807": 6507,
      "Ġlistener": 6508,
      "Ġtemelini": 6509,
      "ĠyapÄ±sÄ±": 6510,
      "ĠsayÄ±sÄ±nÄ±": 6511,
      "ĠtamamÄ±nÄ±": 6512,
      "ĠsÄ±caklÄ±k": 6513,
      "Ġflexibility": 6514,
      "ĠyÃ¼rÃ¼ye": 6515,
      "Ġparties": 6516,
      "Ġwrong": 6517,
      "Ġparaphra": 6518,
      "Ġsepet": 6519,
      "Ġleads": 6520,
      "ĠseÃ§eneÄŁi": 6521,
      "Ġslowly": 6522,
      "Ġhyd": 6523,
      "Ġpicking": 6524,
      "-reading": 6525,
      "425": 6526,
      "626": 6527,
      "ser": 6528,
      "Ġtw": 6529,
      "Ġmeetings": 6530,
      "Ġjum": 6531,
      "Ġphra": 6532,
      "Ġvalu": 6533,
      "Ġswitching": 6534,
      "Ġabsol": 6535,
      "424": 6536,
      "487": 6537,
      "EÄŁer": 6538,
      "Sabah": 6539,
      "kar": 6540,
      "Ġkim": 6541,
      "Ġtelef": 6542,
      "Ġhid": 6543,
      "Ã§alÄ±ÅŁ": 6544,
      "ĠiÃ§ecek": 6545,
      "Ġstabil": 6546,
      "Ġmey": 6547,
      "Ġistiyorsunuz": 6548,
      "ĠanlamÄ±": 6549,
      "Ġdosy": 6550,
      "Ġdolu": 6551,
      "ĠatÄ±p": 6552,
      "luÄŁu": 6553,
      "ersiz": 6554,
      "282": 6555,
      "ĠÃ§alÄ±ÅŁtÄ±": 6556,
      "Ġnod": 6557,
      "elerini": 6558,
      "408": 6559,
      "ĠÃ§Ä±kmak": 6560,
      "Ġolursunuz": 6561,
      "-priority": 6562,
      "ĠbaÅŁarÄ±larÄ±": 6563,
      "bette": 6564,
      "bilmek": 6565,
      "Ġhayata": 6566,
      "Ġoturmak": 6567,
      "Ġdrives": 6568,
      "Ġuyumaya": 6569,
      "Ġmiktarda": 6570,
      "Ġbozul": 6571,
      "ĠduygularÄ±nÄ±zÄ±": 6572,
      "Ġdeparture": 6573,
      "624": 6574,
      "724": 6575,
      "924": 6576,
      "927": 6577,
      "lent": 6578,
      ".**Ċ": 6579,
      "Ġcalls": 6580,
      "'li": 6581,
      "420": 6582,
      "727": 6583,
      "920": 6584,
      "bugÃ¼n": 6585,
      "ÉĻ": 6586,
      "Ġ%": 6587,
      "Ġkuma": 6588,
      "ĠsÄ±nÄ±": 6589,
      "gram": 6590,
      "Ġsoon": 6591,
      "ĠÅŁÄ±k": 6592,
      "Ġplanlayarak": 6593,
      "ĠkaldÄ±": 6594,
      "Ġalmaya": 6595,
      "ĠseÃ§ebilirsiniz": 6596,
      "ĠlÃ¼tfen": 6597,
      "Ġederim": 6598,
      "Ġbookings": 6599,
      "indeki": 6600,
      "Ġdenemek": 6601,
      "ĠyÃ¶netim": 6602,
      "ĠkonuÅŁurken": 6603,
      "502": 6604,
      "906": 6605,
      "ĠgÃ¼venilir": 6606,
      "ĠdÃ¶k": 6607,
      "ĠyÃ¼rÃ¼mek": 6608,
      "ĠbÃ¼tÃ§e": 6609,
      "Ġconcepts": 6610,
      "Ġhissedi": 6611,
      "ĠkeÅŁfetmek": 6612,
      "Ġuygulayabilirsiniz": 6613,
      "Ġlimit": 6614,
      "Ġreacting": 6615,
      "Ġfeedback": 6616,
      "Ġunnecessary": 6617,
      "382": 6618,
      "427": 6619,
      "488": 6620,
      "Ġlay": 6621,
      "Ġdeals": 6622,
      "886": 6623,
      "501": 6624,
      "Ġdefining": 6625,
      "Ġskills": 6626,
      "Ġcategories": 6627,
      "728": 6628,
      "785": 6629,
      "hal": 6630,
      "ski": 6631,
      "inking": 6632,
      "rakarak": 6633,
      "ĠDerin": 6634,
      "Ġgreat": 6635,
      "lig": 6636,
      "Ġstops": 6637,
      "ĠbaÅŁlama": 6638,
      "ĠonlarÄ±": 6639,
      "Ġsepe": 6640,
      "308": 6641,
      "808": 6642,
      "elerden": 6643,
      "Ġalanlarda": 6644,
      "ĠkarÅŁÄ±laÅŁtÄ±r": 6645,
      "ĠkarÅŁÄ±sÄ±nda": 6646,
      "Ġuzman": 6647,
      "ĠbÄ±rakarak": 6648,
      "Ġafterward": 6649,
      "Ġemer": 6650,
      "Ġbakmak": 6651,
      "ĠaÃ§Ä±kÃ§a": 6652,
      "Ġtalep": 6653,
      "ĠkalanlarÄ±": 6654,
      "Ġbitirmek": 6655,
      "ĠsonuÃ§lar": 6656,
      "ĠgÃ¶rÃ¼ÅŁecek": 6657,
      "Ġsistemi": 6658,
      "Ġokuyacak": 6659,
      "dÄ±ktan": 6660,
      "ĠkÄ±sÄ±m": 6661,
      "ĠtatlÄ±": 6662,
      "Ġexchange": 6663,
      "Ġmekan": 6664,
      "Ġintentional": 6665,
      "ĠuÃ§uÅŁ": 6666,
      "780": 6667,
      "Ġgather": 6668,
      "ĠSpend": 6669,
      "ries": 6670,
      "Ġjourney": 6671,
      "706": 6672,
      "Ġdiscu": 6673,
      "Ġamount": 6674,
      "485": 6675,
      "lÃ¼m": 6676,
      "Ġcity": 6677,
      "ĠYa": 6678,
      "ĠanlÄ±yorum": 6679,
      "Ġuyar": 6680,
      "ĠMay": 6681,
      "Ġmen": 6682,
      "ĠPhotoshop": 6683,
      "152": 6684,
      "Ġolabilirsiniz": 6685,
      "taki": 6686,
      "Ġiyidir": 6687,
      "Ġilgin": 6688,
      "Ġdilden": 6689,
      "Ġodaklanmaya": 6690,
      "221": 6691,
      "ĠekranÄ±": 6692,
      "Ġyoldan": 6693,
      "ĠgÃ¶rÃ¼": 6694,
      "ĠgÃ¶rmek": 6695,
      "ĠayÄ±rÄ±p": 6696,
      "'inle": 6697,
      "landÄ±ra": 6698,
      "ilebilir": 6699,
      "Ġgidin": 6700,
      "ĠkoÅŁu": 6701,
      "ĠaltÄ±na": 6702,
      "Ġuyumak": 6703,
      "ĠyarÄ±sÄ±nÄ±": 6704,
      "duktan": 6705,
      "Ġbarrier": 6706,
      "ĠkayÄ±da": 6707,
      "Ġattempting": 6708,
      "Ġreinforce": 6709,
      "-se": 6710,
      "726": 6711,
      "980": 6712,
      "sur": 6713,
      "ĠTran": 6714,
      "Ġtemper": 6715,
      "Ġgener": 6716,
      "Ġphysically": 6717,
      "Ġlimits": 6718,
      "Ġroutes": 6719,
      "787": 6720,
      "tÃ¶r": 6721,
      "ube": 6722,
      "yelim": 6723,
      "Ġacknow": 6724,
      "Ġpsik": 6725,
      "ĠYÃ¼r": 6726,
      "ĠSab": 6727,
      "ĠzamanÄ±nÄ±": 6728,
      "Ġolay": 6729,
      "illeri": 6730,
      "arÄ±nda": 6731,
      "ĠOnce": 6732,
      "Ġbelong": 6733,
      "Ġyerin": 6734,
      "ĠbahÃ§enin": 6735,
      "Ġloud": 6736,
      "Ġevden": 6737,
      "Ġasist": 6738,
      "ĠakÄ±cÄ±": 6739,
      "tikten": 6740,
      "ĠÃ§Ä±kÄ±n": 6741,
      "ĠWork": 6742,
      "Ġortaya": 6743,
      "Ġdonate": 6744,
      "ĠpratiÄŁi": 6745,
      "ĠyansÄ±": 6746,
      "ĠseÃ§enekler": 6747,
      "sÄ±zlÄ±k": 6748,
      "ĠboÅŁal": 6749,
      "Ġbilgilerle": 6750,
      "ĠcÃ¼mleleri": 6751,
      "Ġtesting": 6752,
      "ĠodanÄ±zÄ±": 6753,
      "Ġkaydede": 6754,
      "Ãĸncelikle": 6755,
      "Ġtakvim": 6756,
      "625": 6757,
      "687": 6758,
      "926": 6759,
      "sus": 6760,
      "Ġpod": 6761,
      "ĠSay": 6762,
      "Ġrema": 6763,
      "Ġorder": 6764,
      "303": 6765,
      "bies": 6766,
      "283": 6767,
      "Ġworry": 6768,
      "803": 6769,
      "603": 6770,
      "Ġcuri": 6771,
      "Ġdrawers": 6772,
      "Ġappointment": 6773,
      "Ġexpenses": 6774,
      "620": 6775,
      "731": 6776,
      "gest": 6777,
      "inle": 6778,
      "Ġsind": 6779,
      "ulu": 6780,
      "abin": 6781,
      "Ġstra": 6782,
      "uÅŁtur": 6783,
      "eyn": 6784,
      "ĠÅŁunu": 6785,
      "diÄŁinizi": 6786,
      "Ġyerini": 6787,
      "ĠiÅŁini": 6788,
      "Ġistey": 6789,
      "Ġgently": 6790,
      "ĠkolaydÄ±r": 6791,
      "Ġhisse": 6792,
      "402": 6793,
      "malÄ±dÄ±r": 6794,
      "ĠkontrolÃ¼": 6795,
      "ĠmesajÄ±nÄ±zÄ±": 6796,
      "Ġizleyerek": 6797,
      "Ġtamamlan": 6798,
      "masÄ±dÄ±r": 6799,
      "layÄ±sÄ±yla": 6800,
      "ĠihtiyacÄ±": 6801,
      "Ġkelimesi": 6802,
      "ĠyanÄ±na": 6803,
      "Ġdenges": 6804,
      "tirebilirsiniz": 6805,
      "Ġboundary": 6806,
      "ĠgÃ¶sterir": 6807,
      "ĠsakinleÅŁ": 6808,
      "ĠkarÄ±ÅŁÄ±k": 6809,
      "Ġbeklemeyin": 6810,
      "Ġlittle": 6811,
      "Ġpsikoloj": 6812,
      "Use": 6813,
      "401": 6814,
      "Ġpati": 6815,
      "904": 6816,
      "786": 6817,
      "Yap": 6818,
      "dim": 6819,
      "lation": 6820,
      "ĠDik": 6821,
      "ĠDuyg": 6822,
      "Ġfoto": 6823,
      "ĠayÄ±rdÄ±r": 6824,
      "Ġuyuy": 6825,
      "Ġolumlu": 6826,
      "Ġsafe": 6827,
      "Ġdayan": 6828,
      "ĠplanlayÄ±p": 6829,
      "ĠDenizle": 6830,
      "Ġkullanmadan": 6831,
      "ĠÃ¶ÄŁrenmektir": 6832,
      "Ġoverall": 6833,
      "ĠdÃ¼zenle": 6834,
      "Ġkurt": 6835,
      "ĠgÃ¶rdÃ¼ÄŁ": 6836,
      "503": 6837,
      "905": 6838,
      "ĠyÃ¶ntemler": 6839,
      "ĠmesajÄ±": 6840,
      "ĠmesajlaÅŁma": 6841,
      "Ġridic": 6842,
      "ĠBaÅŁlamak": 6843,
      "Ġrahatlat": 6844,
      "Ġihtimal": 6845,
      "Ġkalkmak": 6846,
      "Ġitineraries": 6847,
      "ĠsÄ±caklÄ±ÄŁÄ±": 6848,
      "Ġalabilirsiniz": 6849,
      "Ġdikka": 6850,
      "ĠÃ¶zelliÄŁini": 6851,
      "dÄ±ÄŁÄ±nÄ±zdan": 6852,
      "ĠyÃ¼kÃ¼": 6853,
      "ĠpaylaÅŁarak": 6854,
      "most": 6855,
      "ĠYatak": 6856,
      "ĠmantÄ±": 6857,
      "Ġhobbies": 6858,
      "Ġarrive": 6859,
      "Ġchores": 6860,
      "ĠHaftada": 6861,
      "Ġekipman": 6862,
      "Ġtemperature": 6863,
      "Ġridicul": 6864,
      "Tube": 6865,
      "What": 6866,
      "bal": 6867,
      "Ġcabin": 6868,
      "Ġsli": 6869,
      "unting": 6870,
      "Ġretention": 6871,
      "Ġstepping": 6872,
      "708": 6873,
      "Ġrelaxation": 6874,
      "524": 6875,
      "928": 6876,
      "ies": 6877,
      "vis": 6878,
      "yer": 6879,
      "ĠtanÄ±t": 6880,
      "usunda": 6881,
      "sab": 6882,
      "ĠyanÄ±": 6883,
      "ĠTeach": 6884,
      "ÄŁunuzu": 6885,
      "aber": 6886,
      "ĠadÄ±mdan": 6887,
      "Ġuygulaman": 6888,
      "ĠkaÃ§Ä±nÄ±": 6889,
      "nerek": 6890,
      "Ġhaz": 6891,
      "cade": 6892,
      "ackle": 6893,
      "Ġsorunuz": 6894,
      "Ġdilerim": 6895,
      "Ġbahs": 6896,
      "ĠÃ§ekmeyi": 6897,
      "ĠÃ§ektirecek": 6898,
      "Ġgev": 6899,
      "Ġtrash": 6900,
      "Ġsaatinizi": 6901,
      "ĠÃ§alÄ±ÅŁmayÄ±n": 6902,
      "ĠpiÅŁirin": 6903,
      "Ä±narak": 6904,
      "608": 6905,
      "Ġpast": 6906,
      "ĠÅŁeker": 6907,
      "Ġtaze": 6908,
      "Ġprep": 6909,
      "ĠsÄ±kÄ±l": 6910,
      "Ġhafiflet": 6911,
      "Åŀu": 6912,
      "Ġstresini": 6913,
      "ĠmÄ±sÄ±nÄ±z": 6914,
      "ĠvÃ¼cudunu": 6915,
      "ĠkurallarÄ±": 6916,
      "ĠbaÅŁlarsanÄ±z": 6917,
      "ĠgereÄŁi": 6918,
      "Ġokuyarak": 6919,
      "ĠSÄ±fÄ±r": 6920,
      "Ġtatmin": 6921,
      "ĠeÄŁitim": 6922,
      "Ġsebzeler": 6923,
      "ĠÃ¶nerebilirim": 6924,
      "Ġortalama": 6925,
      "Ġaccessible": 6926,
      "Ġapproach": 6927,
      "Ġgestures": 6928,
      "ecially": 6929,
      "428": 6930,
      "720": 6931,
      "987": 6932,
      "Ġwhy": 6933,
      "Ġworks": 6934,
      "508": 6935,
      "cture": 6936,
      "Ġoblig": 6937,
      "Ġsince": 6938,
      "Ġvalidating": 6939,
      "Ġexpectations": 6940,
      "Ġslots": 6941,
      "-ste": 6942,
      "383": 6943,
      "486": 6944,
      "527": 6945,
      "An": 6946,
      "Create": 6947,
      "meleri": 6948,
      "rn": 6949,
      "tuk": 6950,
      "Ġtep": 6951,
      "Ġidentify": 6952,
      "Ġhorm": 6953,
      "dak": 6954,
      "ĠBana": 6955,
      "ĠeÄŁer": 6956,
      "Ġesp": 6957,
      "Ġdaunting": 6958,
      "ĠÃ¶nler": 6959,
      "Ġbeden": 6960,
      "Ġversus": 6961,
      "Ä±zda": 6962,
      "Ġonlara": 6963,
      "ĠOne": 6964,
      "enize": 6965,
      "caÄŁÄ±": 6966,
      "ĠiyileÅŁtir": 6967,
      "Ġilham": 6968,
      "Ġfees": 6969,
      "ĠseÃ§melisiniz": 6970,
      "ĠiÅŁinize": 6971,
      "Ġsaatine": 6972,
      "ĠÃ§alÄ±ÅŁÄ±rken": 6973,
      "801": 6974,
      "Ġdirek": 6975,
      "ĠayÄ±rmak": 6976,
      "ĠmesajlarÄ±": 6977,
      "ĠaÃ§Ä±klayÄ±n": 6978,
      "Ġkoruma": 6979,
      "Ġrepeated": 6980,
      "ĠSessiz": 6981,
      "ĠyaÅŁama": 6982,
      "Ġaltyap": 6983,
      "Ġmalze": 6984,
      "ĠaÅŁmak": 6985,
      "ĠadÄ±na": 6986,
      "ĠanlaÅŁÄ±l": 6987,
      "ĠElbette": 6988,
      "Ġseninle": 6989,
      "Ġcategory": 6990,
      "Ġalternatif": 6991,
      "lendire": 6992,
      "Ġbazen": 6993,
      "Ġespecially": 6994,
      "-ins": 6995,
      "484": 6996,
      "611": 6997,
      "684": 6998,
      "784": 6999,
      "rat": 7000,
      "urt": 7001,
      "Ġengage": 7002,
      "Ġlog": 7003,
      "Ġcomput": 7004,
      "Ġexplain": 7005,
      "Ġridiculously": 7006,
      "'Ä±nda": 7007,
      "431": 7008,
      "525": 7009,
      "788": 7010,
      "822": 7011,
      "lili": 7012,
      "ndÄ±r": 7013,
      "usunu": 7014,
      "ĠEÄŁ": 7015,
      "ĠEski": 7016,
      "oru": 7017,
      "ĠBen": 7018,
      "ĠBilg": 7019,
      "ĠdÃ¼nya": 7020,
      "aket": 7021,
      "lÄ±ÄŁÄ±n": 7022,
      "ĠMÃ¼": 7023,
      "stru": 7024,
      "lerek": 7025,
      "Ä±rt": 7026,
      "terek": 7027,
      "301": 7028,
      "Ġhedefiniz": 7029,
      "ĠiÅŁlerini": 7030,
      "Ġdile": 7031,
      "ĠbaÅŁlayacak": 7032,
      "Ġkoruya": 7033,
      "ĠyemeÄŁini": 7034,
      "ĠdoÄŁrult": 7035,
      "ĠtarafÄ±n": 7036,
      "ĠhedeflediÄŁiniz": 7037,
      "Ġbeceriler": 7038,
      "Ġburada": 7039,
      "ĠYemek": 7040,
      "Ġresistance": 7041,
      "slate": 7042,
      "-h": 7043,
      "511": 7044,
      "585": 7045,
      "632": 7046,
      "rt": 7047,
      "tice": 7048,
      "Ġstim": 7049,
      "raffic": 7050,
      "360": 7051,
      "882": 7052,
      "Ġplaces": 7053,
      "Ġmetab": 7054,
      "Ġsolutions": 7055,
      "Ġhidden": 7056,
      "925": 7057,
      "984": 7058,
      "try": 7059,
      "Ġku": 7060,
      "graf": 7061,
      "ĠBefore": 7062,
      "Ġez": 7063,
      "ĠmÃ¼zik": 7064,
      "atory": 7065,
      "ĠverdiÄŁiniz": 7066,
      "ĠyapÄ±ÅŁtÄ±r": 7067,
      "lerdeki": 7068,
      "ĠadÄ±mlara": 7069,
      "Ä±rsÄ±nÄ±z": 7070,
      "ĠanlamÄ±na": 7071,
      "Ã¼rken": 7072,
      "ĠNot": 7073,
      "malara": 7074,
      "302": 7075,
      "layalÄ±m": 7076,
      "883": 7077,
      "887": 7078,
      "888": 7079,
      "403": 7080,
      "ĠalanÄ±nÄ±": 7081,
      "902": 7082,
      "ĠdeÄŁilse": 7083,
      "ĠkarÅŁÄ±lÄ±k": 7084,
      "Ġkapa": 7085,
      "Ġayarla": 7086,
      "ĠbakÄ±m": 7087,
      "ĠdÃ¶ne": 7088,
      "Ġkelimesini": 7089,
      "ĠgÃ¶stermek": 7090,
      "ĠeÄŁit": 7091,
      "Ġsessizce": 7092,
      "Ġkaydederek": 7093,
      "Ġmusunuz": 7094,
      "ĠolduÄŁunuzda": 7095,
      "Ġengaged": 7096,
      "ĠTravel": 7097,
      "ĠÄ°stediÄŁiniz": 7098,
      "ĠbaÅŁkalar": 7099,
      "ĠTranslate": 7100,
      "Ġpodcast": 7101,
      "584": 7102,
      "923": 7103,
      "¸ı": 7104,
      "ï¸ı": 7105,
      "ndle": 7106,
      "ducing": 7107,
      "arg": 7108,
      "Ġmotive": 7109,
      "601": 7110,
      "Ġpair": 7111,
      "707": 7112,
      "Ġbehaviors": 7113,
      "cÃ¼k": 7114,
      "anti": 7115,
      "tinde": 7116,
      "Ġbana": 7117,
      "Ġkok": 7118,
      "Ġslight": 7119,
      "ĠBilgi": 7120,
      "Ġfak": 7121,
      "umu": 7122,
      "Ġsok": 7123,
      "ĠÄ°lg": 7124,
      "Ġkonunun": 7125,
      "ĠÃ¶neriyle": 7126,
      "ĠÃ§im": 7127,
      "Ġforget": 7128,
      "ĠzorlanÄ±yorsanÄ±z": 7129,
      "eyle": 7130,
      "ĠkayÄ±tlarda": 7131,
      "lerseniz": 7132,
      "ĠdeÄŁiÅŁtirin": 7133,
      "ĠdolaÅŁ": 7134,
      "Ġmask": 7135,
      "Ġwilling": 7136,
      "Ġbelirsiz": 7137,
      "Ġtutar": 7138,
      "ĠtutarlÄ±": 7139,
      "Ġhedefleri": 7140,
      "Ġoturarak": 7141,
      "ĠgeÃ§ici": 7142,
      "Ġgerektiren": 7143,
      "Ġgeliyor": 7144,
      "602": 7145,
      "Ġyatarken": 7146,
      "Ã¼lt": 7147,
      "Ġpeak": 7148,
      "Ġsunabilirim": 7149,
      "ĠFriends": 7150,
      "Ġyoludur": 7151,
      "Ä±lacak": 7152,
      "Ġproductive": 7153,
      "ĠkÃ¶ÅŁ": 7154,
      "ĠkolaylaÅŁÄ±r": 7155,
      "Ġedersiniz": 7156,
      "ĠdÃ¶nÃ¼ÅŁtÃ¼r": 7157,
      "ĠhatÄ±rlatÄ±n": 7158,
      "Ġbilimsel": 7159,
      "Ġrefle": 7160,
      "Ġtablet": 7161,
      "Ġfilm": 7162,
      "ĠÃĸzellikle": 7163,
      "ĠDÃ¼zenli": 7164,
      "Ġ/": 7165,
      "Ġsending": 7166,
      "usted": 7167,
      "ĠYouTube": 7168,
      "Ġrefer": 7169,
      "Ġmapping": 7170,
      "check": 7171,
      "802": 7172,
      "Ġpower": 7173,
      "Ġstatement": 7174,
      "Ġprice": 7175,
      "Ġmodel": 7176,
      "Ġsuppress": 7177,
      "Ġsearching": 7178,
      "Ġfrustrated": 7179,
      "Ġpiles": 7180,
      "Ġjumping": 7181,
      "531": 7182,
      "985": 7183,
      "986": 7184,
      "yl": 7185,
      "inating": 7186,
      "Ġbuna": 7187,
      "ĠTackle": 7188,
      "ilim": 7189,
      "Ġfla": 7190,
      "Ġeyes": 7191,
      "liyor": 7192,
      "asons": 7193,
      "Ġhaven": 7194,
      "Ġmanz": 7195,
      "ĠdakikasÄ±": 7196,
      "Ġkullanma": 7197,
      "ĠkullanmanÄ±z": 7198,
      "tÄ±lmÄ±ÅŁ": 7199,
      "Ġmotivasyonunuzu": 7200,
      "Ġduration": 7201,
      "907": 7202,
      "ĠtadÄ±": 7203,
      "Ġizle": 7204,
      "Ġbiggest": 7205,
      "Ġspaced": 7206,
      "ĠartÄ±rmak": 7207,
      "ĠsÄ±rayla": 7208,
      "Ġgetirmek": 7209,
      "ĠyaklaÅŁÄ±k": 7210,
      "ĠsaÄŁlayabilirsiniz": 7211,
      "Ġgiderek": 7212,
      "ĠbaÅŁlarsÄ±nÄ±z": 7213,
      "ĠkÃ¼tÃ¼phane": 7214,
      "Ġtencere": 7215,
      "ĠGenellikle": 7216,
      "Ġdirekt": 7217,
      "627": 7218,
      "680": 7219,
      "Ġlik": 7220,
      "Ġyes": 7221,
      "Ġreco": 7222,
      "Ġentry": 7223,
      "emi": 7224,
      "ĠFind": 7225,
      "Ġdeeper": 7226,
      "Ġopini": 7227,
      "ĠInvite": 7228,
      "Ġsubj": 7229,
      "'un": 7230,
      "628": 7231,
      "lÄ±n": 7232,
      "work": 7233,
      "ndi": 7234,
      "ince": 7235,
      "Ġbildir": 7236,
      "ĠtÃ¼ke": 7237,
      "dÄ±ÄŁÄ±n": 7238,
      "Ġger": 7239,
      "yacak": 7240,
      "Ġbacak": 7241,
      "Ġdemektir": 7242,
      "Ġnecessary": 7243,
      "Ġstru": 7244,
      "ĠPM": 7245,
      "ĠtoplamÄ±": 7246,
      "ĠdÃ¼zeniyle": 7247,
      "Ġgiy": 7248,
      "iliyor": 7249,
      "bileceÄŁinizi": 7250,
      "ĠgÃ¼c": 7251,
      "ĠalÄ±ÅŁkanlÄ±klarÄ±": 7252,
      "Ġweekend": 7253,
      "Ġhaft": 7254,
      "ĠÃ§Ä±kan": 7255,
      "Ġharf": 7256,
      "Ãĸz": 7257,
      "ĠyanÄ±nda": 7258,
      "Ġdenize": 7259,
      "âĢĶto": 7260,
      "Ġuykuyu": 7261,
      "ĠAlÄ±ÅŁkanlÄ±klarÄ±": 7262,
      "ĠkÃ¶k": 7263,
      "ront": 7264,
      "Â°F": 7265,
      "ĠÃ§Ä±kara": 7266,
      "Ġsenaryo": 7267,
      "Ġsuyunu": 7268,
      "Ġbelirtirseniz": 7269,
      "Ġstabilize": 7270,
      "Ġnodding": 7271,
      "423": 7272,
      "eti": 7273,
      "ene": 7274,
      "fully": 7275,
      "Ġeat": 7276,
      "uture": 7277,
      "340": 7278,
      ":**Ċ": 7279,
      "Ġoutcome": 7280,
      "908": 7281,
      "702": 7282,
      "Ġsitting": 7283,
      "Ġmetabol": 7284,
      "Ġslightly": 7285,
      "-task": 7286,
      "723": 7287,
      "KÄ±sa": 7288,
      "tiniz": 7289,
      "ucu": 7290,
      "Ġfer": 7291,
      "ĠdanÄ±ÅŁ": 7292,
      "ĠAdÄ±m": 7293,
      "larken": 7294,
      "ĠnumarasÄ±nÄ±z": 7295,
      "Ġanah": 7296,
      "ined": 7297,
      "Ġreally": 7298,
      "Ġvere": 7299,
      "ĠyapmanÄ±zÄ±": 7300,
      "hazÄ±r": 7301,
      "ĠkaÃ§Ä±r": 7302,
      "ahmin": 7303,
      "lerinizin": 7304,
      "Ġbelirlen": 7305,
      "Ġbelirten": 7306,
      "ĠseÃ§tiÄŁiniz": 7307,
      "tÄ±ÄŁÄ±": 7308,
      "bileceÄŁin": 7309,
      "Ġgereksin": 7310,
      "Ġelinize": 7311,
      "Ġekra": 7312,
      "Ġkurma": 7313,
      "zeti": 7314,
      "andÄ±": 7315,
      "ĠbÃ¶lerek": 7316,
      "903": 7317,
      "ĠdÃ¼ÅŁÃ¼nÃ¼": 7318,
      "ĠakÅŁamÄ±": 7319,
      "ĠayardÄ±": 7320,
      "Ġhissetme": 7321,
      "ĠsÄ±kÄ±ÅŁ": 7322,
      "ĠbakÄ±ÅŁ": 7323,
      "ukarÄ±": 7324,
      "Ġparlak": 7325,
      "Ġedebi": 7326,
      "Ġsabitleyin": 7327,
      "ĠÃ§izgi": 7328,
      "Ġguide": 7329,
      "lmÄ±ÅŁtÄ±r": 7330,
      "Ġzihinsel": 7331,
      "ĠkullanÄ±mÄ±nÄ±": 7332,
      "Ġpatter": 7333,
      "Ġnearby": 7334,
      "Ġcontext": 7335,
      "Ġsunuyorum": 7336,
      "Ġkurtul": 7337,
      "ĠdoÄŁrultusunda": 7338,
      "ĠfaktÃ¶r": 7339,
      "Set": 7340,
      "cting": 7341,
      "eet": 7342,
      "Ġdefa": 7343,
      "Ġbeats": 7344,
      "Ġsoft": 7345,
      "sta": 7346,
      "240": 7347,
      "Ġnoise": 7348,
      "Ġunderstands": 7349,
      "Ġlowers": 7350,
      "Ġaccusing": 7351,
      "Ġappointments": 7352,
      "Ġmultitasking": 7353,
      "Ġpaper": 7354,
      "-see": 7355,
      "Ġpriority": 7356,
      "usuz": 7357,
      "yak": 7358,
      "Ġfuture": 7359,
      "yip": 7360,
      "Ġrecen": 7361,
      "ĠzamanÄ±n": 7362,
      "lerinin": 7363,
      "Ġ(\"": 7364,
      "ĠplanlanmÄ±ÅŁ": 7365,
      "ĠplanlÄ±yor": 7366,
      "ĠÃ¶ÄŁret": 7367,
      "ĠseÃ§ebilir": 7368,
      "ĠalÄ±m": 7369,
      "lerinden": 7370,
      "ĠiÅŁlerinizi": 7371,
      "ĠÃ§alÄ±ÅŁÄ±r": 7372,
      "medik": 7373,
      "Ġhobi": 7374,
      "884": 7375,
      "ĠbaÅŁlayabileceÄŁiniz": 7376,
      "Ġilerleyebilirsiniz": 7377,
      "ĠÃ§Ä±kÄ±ÅŁ": 7378,
      "ĠolanlarÄ±": 7379,
      "ĠalanÄ±nÄ±za": 7380,
      "Ġtaki": 7381,
      "ĠkapÄ±": 7382,
      "ĠÃĩev": 7383,
      "Ġenerjisini": 7384,
      "ĠÃĸÄŁrenmeyi": 7385,
      "tirebilir": 7386,
      "ĠUykuya": 7387,
      "tÄ±rarak": 7388,
      "Ġtekniklerini": 7389,
      "Ġkazanmak": 7390,
      "Ġsessizlik": 7391,
      "ĠsÃ¼recin": 7392,
      "ĠiliÅŁki": 7393,
      "ĠartÄ±rarak": 7394,
      "ĠkaÃ§Ä±nmak": 7395,
      "ĠbardaÄŁÄ±": 7396,
      "ĠaydÄ±nlatma": 7397,
      "ĠOkuma": 7398,
      "Ġboyut": 7399,
      "ĠkeÅŁfedin": 7400,
      "ĠgÃ¶ÄŁÃ¼s": 7401,
      "Ġyiyecek": 7402,
      "685": 7403,
      "988": 7404,
      "titu": 7405,
      "Ġbri": 7406,
      "ĠTur": 7407,
      "Ġfam": 7408,
      "Ġdele": 7409,
      "168": 7410,
      "iding": 7411,
      "Ġincrease": 7412,
      "licit": 7413,
      "322": 7414,
      "419": 7415,
      "kab": 7416,
      "yna": 7417,
      "Ġila": 7418,
      "leas": 7419,
      "ĠAÅŁ": 7420,
      "Ġza": 7421,
      "Ã¼ksek": 7422,
      "ĠuyarÄ±": 7423,
      "rik": 7424,
      "ĠÃ§alÄ±": 7425,
      "Ġkalmaya": 7426,
      "ĠayarÄ±": 7427,
      "ĠdÃ¼zeninde": 7428,
      "Ġbelirleme": 7429,
      "Ġdurumlarda": 7430,
      "ĠyaÅŁamÄ±": 7431,
      "ĠkonuÅŁarak": 7432,
      "ÄŁÄ±nÄ±za": 7433,
      "kalem": 7434,
      "Ġertesi": 7435,
      "Ġkurs": 7436,
      "ĠÃ§Ä±karÄ±": 7437,
      "Ġmesajda": 7438,
      "Ġtemizlemek": 7439,
      "Ġharc": 7440,
      "bilg": 7441,
      "Ġgirmeden": 7442,
      "ĠÃ§ekici": 7443,
      "ĠgÃ¶rÃ¼nen": 7444,
      "Ġdeciding": 7445,
      "ĠkaÄŁÄ±dÄ±": 7446,
      "ĠuyumayÄ±": 7447,
      "Ġreaching": 7448,
      "ĠÃ¼zerindeki": 7449,
      "Ġtension": 7450,
      "ĠsÄ±nÄ±rlÄ±": 7451,
      "Ġdeadline": 7452,
      "Ġkenar": 7453,
      "Ġlisteleyin": 7454,
      "Ġtuvalet": 7455,
      "Ġdikkate": 7456,
      "Avoid": 7457,
      "ĠEat": 7458,
      "Ġstating": 7459,
      "Ġfear": 7460,
      "Ġrush": 7461,
      "Ġext": 7462,
      "881": 7463,
      "argon": 7464,
      "821": 7465,
      "onda": 7466,
      "van": 7467,
      "yÄ±z": 7468,
      "Ġfore": 7469,
      "larÄ±m": 7470,
      "uge": 7471,
      "Ġuyul": 7472,
      "Ġmovi": 7473,
      "ĠbuluÅŁtu": 7474,
      "Ġvs": 7475,
      "Ġhay": 7476,
      "ĠRut": 7477,
      "ondan": 7478,
      "ÄŁinden": 7479,
      "erece": 7480,
      "Ġedici": 7481,
      "ĠkaydÄ±r": 7482,
      "ĠodaklanmÄ±ÅŁ": 7483,
      "Ġelb": 7484,
      "ĠdÃ¼zenlemeye": 7485,
      "ĠalanÄ±na": 7486,
      "night": 7487,
      "ĠdÃ¼ÅŁÃ¼nme": 7488,
      "ĠdÃ¼ÅŁÃ¼nelim": 7489,
      "Ġlistele": 7490,
      "ĠyarÄ±m": 7491,
      "Ġorta": 7492,
      "ĠgÃ¶revlerin": 7493,
      "Ġseviye": 7494,
      "Ġenerjisi": 7495,
      "ĠgerÃ§ekleÅŁtir": 7496,
      "Ġcommitments": 7497,
      "Ãĸrn": 7498,
      "ĠEvde": 7499,
      "Ġediyor": 7500,
      "ĠgÃ¶ndermek": 7501,
      "Ġkaba": 7502,
      "Ġhappy": 7503,
      "Ġkoyup": 7504,
      "ĠsÃ¼recinde": 7505,
      "ĠnoktalarÄ±": 7506,
      "ĠaydÄ±nla": 7507,
      "Ġesne": 7508,
      "ĠyarÄ±sÄ±": 7509,
      "ĠSÄ±cak": 7510,
      "Ġkaydetmek": 7511,
      "ĠetkinliÄŁi": 7512,
      "Ġgidiyor": 7513,
      "ĠdaÄŁÄ±t": 7514,
      "Ġintense": 7515,
      "Ġtonunu": 7516,
      "ĠoluÅŁturarak": 7517,
      "ĠÃ§eviri": 7518,
      "Ġbelirleyebilirsiniz": 7519,
      "Hedef": 7520,
      "Ġsindirim": 7521,
      "523": 7522,
      "528": 7523,
      "580": 7524,
      "587": 7525,
      "ete": 7526,
      "xim": 7527,
      "rog": 7528,
      "Ġcome": 7529,
      "Ġtidying": 7530,
      "Ġalmost": 7531,
      "Ġnotice": 7532,
      "Ġfriendships": 7533,
      "901": 7534,
      "701": 7535,
      "703": 7536,
      "Ġmix": 7537,
      "Ġmissing": 7538,
      "Ġinitially": 7539,
      "Ġcategorize": 7540,
      "Ġpiece": 7541,
      "Ġsignificantly": 7542,
      "yu": 7543,
      "Ġkum": 7544,
      "teÅŁ": 7545,
      "lek": 7546,
      "orba": 7547,
      "Ġkateg": 7548,
      "ĠAÅŁaÄŁÄ±": 7549,
      "Ġstoring": 7550,
      "Ġneye": 7551,
      "ĠyapmayÄ±n": 7552,
      "ĠsayÄ±n": 7553,
      "icien": 7554,
      "Ġvurg": 7555,
      "enizin": 7556,
      "ĠÅŁef": 7557,
      "ĠÃ¶ÄŁlen": 7558,
      "anÄ±za": 7559,
      "ĠalÄ±rken": 7560,
      "Ã¼rekli": 7561,
      "ĠiÅŁlerin": 7562,
      "cies": 7563,
      "Ġtelefonu": 7564,
      "ĠduyarlÄ±": 7565,
      "Ġhedeflerin": 7566,
      "ĠsÄ±kÄ±": 7567,
      "ĠÅŁunlar": 7568,
      "Ä±lÄ±m": 7569,
      "Ġyoktur": 7570,
      "ĠÅŀehir": 7571,
      "poz": 7572,
      "ĠuyanÄ±nca": 7573,
      "Ġmisin": 7574,
      "Ġedilen": 7575,
      "Ġconfus": 7576,
      "ĠdeÄŁiÅŁir": 7577,
      "melidir": 7578,
      "beti": 7579,
      "...\")": 7580,
      "ĠbaÅŁlÄ±yorsanÄ±z": 7581,
      "ĠduyduÄŁun": 7582,
      "Ġyuvar": 7583,
      "ĠcevabÄ±": 7584,
      "Ġsearch": 7585,
      "ĠKahvaltÄ±": 7586,
      "ĠfotoÄŁrafÃ§Ä±lÄ±k": 7587,
      "Ġhiking": 7588,
      "Ġstructure": 7589,
      "Ġferah": 7590,
      "483": 7591,
      "686": 7592,
      "kward": 7593,
      "oci": 7594,
      "vest": 7595,
      "Ġdeli": 7596,
      "Ġjargon": 7597,
      "ters": 7598,
      "163": 7599,
      "âĢĶlike": 7600,
      "Ġparaphrasing": 7601,
      "ï¸ıâ": 7602,
      "IM": 7603,
      "No": 7604,
      "ceri": 7605,
      "of": 7606,
      "ĥ£": 7607,
      "erti": 7608,
      "Ġcard": 7609,
      "Ġhep": 7610,
      "Ġhaber": 7611,
      "teful": 7612,
      "ĠDolayÄ±sÄ±yla": 7613,
      "Ġfact": 7614,
      "ĠkÄ±la": 7615,
      "lamanÄ±zÄ±": 7616,
      "**.Ċ": 7617,
      "ahÃ§e": 7618,
      "ĠyazdÄ±ÄŁÄ±nÄ±z": 7619,
      "suna": 7620,
      "ĠanlamlÄ±": 7621,
      "Ġbelirgin": 7622,
      "Ġokun": 7623,
      "ĠKar": 7624,
      "ĠkullanÄ±p": 7625,
      "Ġgiden": 7626,
      "Ġkayd": 7627,
      "Ġelinde": 7628,
      "Ġworkday": 7629,
      "ĠSabahÄ±": 7630,
      "ssively": 7631,
      "Ġtemizle": 7632,
      "ĠprogramÄ±nÄ±": 7633,
      "ĠEvdeki": 7634,
      "Ġincele": 7635,
      "ĠvÃ¼cudu": 7636,
      "ĠortamÄ±": 7637,
      "Ġoturun": 7638,
      "ĠkiÅŁiyi": 7639,
      "Ġgrateful": 7640,
      "ĠSeÃ§": 7641,
      "mezsiniz": 7642,
      "ĠÃ§evren": 7643,
      "ĠvÃ¼cudunuza": 7644,
      "Ġhavuzu": 7645,
      "tirici": 7646,
      "Ġswims": 7647,
      "Ġshower": 7648,
      "Ġhesaplama": 7649,
      "ĠiÅŁlev": 7650,
      "ĠÃ¶lÃ§Ã¼n": 7651,
      "ĠÄ°ÅŁte": 7652,
      "ĠBaÅŁarÄ±lÄ±": 7653,
      "ĠkuralÄ±": 7654,
      "Ġdefterine": 7655,
      "ĠGÃ¶revlerinizi": 7656,
      "Ġseviyenize": 7657,
      "Ġawkward": 7658,
      "Ġcontinu": 7659,
      "Ġcontinue": 7660,
      "Ġmanzara": 7661,
      "ï¸ıâĥ£": 7662,
      "ounda": 7663,
      "Ġga": 7664,
      "Ġfounda": 7665,
      "iliar": 7666,
      "Ġpassively": 7667,
      "Ġcommitment": 7668,
      "Ġmessy": 7669,
      "Ġcompli": 7670,
      "Ġassoci": 7671,
      "Ġavailable": 7672,
      "'la": 7673,
      "586": 7674,
      "hum": 7675,
      "ĠkÃ¼Ã§": 7676,
      "Ġkart": 7677,
      "Ã§ok": 7678,
      "izde": 7679,
      "ĠyatÄ±p": 7680,
      "Ġkare": 7681,
      "Ġmist": 7682,
      "lerinizde": 7683,
      "Ġplanlar": 7684,
      "Ġkalab": 7685,
      "ider": 7686,
      "lenmesi": 7687,
      "Ġhold": 7688,
      "ĠalÄ±ÅŁkanlÄ±ÄŁÄ±nÄ±": 7689,
      "ĠakÄ±l": 7690,
      "Ġelinizi": 7691,
      "ĠdÃ¼zenlemeyi": 7692,
      "Ġerk": 7693,
      "Ġdurup": 7694,
      "layabilir": 7695,
      "Ġtara": 7696,
      "ĠtÃ¼rÃ¼ne": 7697,
      "ĠsorunlarÄ±nÄ±z": 7698,
      "ĠoluÅŁturmaya": 7699,
      "Ġhedeflere": 7700,
      "Ġtrips": 7701,
      "ĠHayÄ±r": 7702,
      "Ġkonudaki": 7703,
      "ĠUyg": 7704,
      "Ġtelefonunuzdan": 7705,
      "ĠparÃ§a": 7706,
      "Ġmutluluk": 7707,
      "Ġimpul": 7708,
      "ĠanlatÄ±m": 7709,
      "Ġformulating": 7710,
      "ĠiÃ§erir": 7711,
      "ĠdeÄŁerlendirin": 7712,
      "ĠteÅŁekkÃ¼r": 7713,
      "ĠsÃ¶zlÃ¼k": 7714,
      "ĠgÃ¼Ã§lendirir": 7715,
      "Ġinitiating": 7716,
      "ĠuÃ§ak": 7717,
      "ĠBirinci": 7718,
      "ĠÃ¶nceliÄŁiniz": 7719,
      "ĠilginÃ§": 7720,
      "Ġlikely": 7721,
      "One": 7722,
      "mis": 7723,
      "ech": 7724,
      "Ġtrusted": 7725,
      "Ġexc": 7726,
      "Ġcompletion": 7727,
      "Ġefficien": 7728,
      "Ġpopular": 7729,
      "ability": 7730,
      "Ġupdates": 7731,
      "688": 7732,
      "631": 7733,
      "In": 7734,
      "gÃ¶z": 7735,
      "vuz": 7736,
      "ism": 7737,
      "Ġseni": 7738,
      "Ġsulama": 7739,
      "ĠtÄ±k": 7740,
      "lated": 7741,
      "ĠbirleÅŁtir": 7742,
      "Ġzem": 7743,
      "ĠanlarÄ±": 7744,
      "ĠbaÅŁÄ±ndan": 7745,
      "Ġkalkarak": 7746,
      "Ġsona": 7747,
      "ates": 7748,
      "ĠPrag": 7749,
      "ĠkullandÄ±ÄŁÄ±nÄ±z": 7750,
      "Ġhedefini": 7751,
      "Ġcancel": 7752,
      "inyal": 7753,
      "ĠarayÄ±n": 7754,
      "ĠsaÄŁla": 7755,
      "Ġisters": 7756,
      "000": 7757,
      "ĠsuÃ§": 7758,
      "resim": 7759,
      "ĠbaÅŁlayanlar": 7760,
      "Ġyararlan": 7761,
      "ĠnetleÅŁ": 7762,
      "ĠakÅŁamlarÄ±": 7763,
      "ĠbÄ±rakmayÄ±n": 7764,
      "ĠhatasÄ±": 7765,
      "ĠbaÅŁarÄ±lÄ±": 7766,
      "ĠbaÅŁarÄ±sÄ±z": 7767,
      "Ġsunmak": 7768,
      "Ġparka": 7769,
      "Ġedebilir": 7770,
      "Ġsohbeti": 7771,
      "abilecek": 7772,
      "Ġshows": 7773,
      "Ġyapmam": 7774,
      "ĠgÃ¶steren": 7775,
      "ĠkaynaklarÄ±": 7776,
      "Ġvadede": 7777,
      "Ġdisrupt": 7778,
      "Ġrefresh": 7779,
      "Ġsorusuna": 7780,
      "ĠkolaylaÅŁtÄ±racak": 7781,
      "ĠKonuÅŁma": 7782,
      "ĠBirincisi": 7783,
      "Ġcombat": 7784,
      "ĠÄ°liÅŁk": 7785,
      "ĠDikkat": 7786,
      "cadele": 7787,
      "Eat": 7788,
      "za": 7789,
      "inci": 7790,
      "Ġsar": 7791,
      "Ġtou": 7792,
      "Ġdro": 7793,
      "Ġreducing": 7794,
      "1034": 7795,
      "thinking": 7796,
      "Ġmaxim": 7797,
      "Ġtempo": 7798,
      "Ġtempt": 7799,
      "portun": 7800,
      "Ġopportun": 7801,
      "Ġdisrupts": 7802,
      "Ġengaging": 7803,
      "Ġalign": 7804,
      "445": 7805,
      "983": 7806,
      "Son": 7807,
      "krar": 7808,
      "Ä±yorsunuz": 7809,
      "Ġpila": 7810,
      "anta": 7811,
      "Ġconcen": 7812,
      "ÅŁek": 7813,
      "Ã§ay": 7814,
      "ilendir": 7815,
      "ĠBatch": 7816,
      "Ã¼nÃ¼n": 7817,
      "ĠAk": 7818,
      "Ġanlar": 7819,
      "Ġinerti": 7820,
      "neden": 7821,
      "Ġolman": 7822,
      "Ġneyin": 7823,
      "ĠyapÄ±mÄ±": 7824,
      "Ġzorlama": 7825,
      "ĠzorlaÅŁtÄ±r": 7826,
      "Ġresearch": 7827,
      "ĠMayayla": 7828,
      "think": 7829,
      "Ã¼yÃ¼ÅŁ": 7830,
      "Ġalso": 7831,
      "Ġsoruya": 7832,
      "lenin": 7833,
      "Ġbiber": 7834,
      "Ġkendinizle": 7835,
      "ĠdakikasÄ±nÄ±": 7836,
      "Ġduran": 7837,
      "ĠÃ¶neriniz": 7838,
      "Ġuzat": 7839,
      "ĠamacÄ±": 7840,
      "arklÄ±": 7841,
      "Ġdinamik": 7842,
      "Ġhareketlerle": 7843,
      "Ġhissetmeniz": 7844,
      "masÄ±yla": 7845,
      "ĠHava": 7846,
      "ĠaÃ§Ä±klayÄ±cÄ±": 7847,
      "ĠbaÄŁÄ±m": 7848,
      "ĠyÃ¼rÃ¼menizi": 7849,
      "Ã¼nÃ¼zÃ¼n": 7850,
      "azen": 7851,
      "Ġzihni": 7852,
      "Ġrelated": 7853,
      "Ġilerlemeniz": 7854,
      "ĠgÃ¶rÃ¼nÃ¼m": 7855,
      "Ġgetirir": 7856,
      "Ġsabr": 7857,
      "ĠKonuyu": 7858,
      "ĠgÃ¶rÃ¼ÅŁme": 7859,
      "Ġbilgilerin": 7860,
      "Ġhavuzun": 7861,
      "Ġkavra": 7862,
      "ĠuygulamalarÄ±nÄ±": 7863,
      "ĠÃĸnerim": 7864,
      "Ġinertia": 7865,
      "319": 7866,
      "783": 7867,
      "Ġnut": 7868,
      "1200": 7869,
      "mall": 7870,
      "Ġjo": 7871,
      "Ġlun": 7872,
      "Ġlose": 7873,
      "Ġexpand": 7874,
      "Ġdinner": 7875,
      "Ġsatis": 7876,
      "Ġaddress": 7877,
      "Ġabsolute": 7878,
      "Ġflash": 7879,
      "588": 7880,
      "546": 7881,
      "eÃ§": 7882,
      "sc": 7883,
      "you": 7884,
      "ises": 7885,
      "Ġsinyal": 7886,
      "reci": 7887,
      "ceÄŁinizi": 7888,
      "ĠEyl": 7889,
      "ĠyÄ±": 7890,
      "ĠyukarÄ±": 7891,
      "Ã¶y": 7892,
      "izden": 7893,
      "izyon": 7894,
      "abl": 7895,
      "Ġkarak": 7896,
      "lÄ±ÄŁÄ±nÄ±zÄ±": 7897,
      "lÄ±ÄŁa": 7898,
      "Ġzaten": 7899,
      "ĠadÄ±mlÄ±": 7900,
      "ĠbaÅŁÄ±nÄ±": 7901,
      "Ä°ÅŁ": 7902,
      "ĠBundle": 7903,
      "ĠgÃ¼nÃ¼m": 7904,
      "Ġformat": 7905,
      "eyim": 7906,
      "eyerek": 7907,
      "Ġmola": 7908,
      "lerinizle": 7909,
      "ĠplanlÄ±": 7910,
      "cks": 7911,
      "Ġmark": 7912,
      "Ġhedefleyerek": 7913,
      "ĠFrog": 7914,
      "ĠgÃ¼lÃ¼m": 7915,
      "ÄŁÄ±nÄ±zdan": 7916,
      "Ġnefesini": 7917,
      "ĠzorluÄŁ": 7918,
      "Ġadim": 7919,
      "ĠoluÅŁturma": 7920,
      "Ġtamamlayarak": 7921,
      "Ġappreci": 7922,
      "ĠÅŁeylerden": 7923,
      "acaÄŁÄ±nÄ±": 7924,
      "ĠseÃ§enektir": 7925,
      "Ġsohbetler": 7926,
      "osity": 7927,
      "Ġairlines": 7928,
      "ĠbÃ¼tÃ¼n": 7929,
      "Ġeser": 7930,
      "ĠSorun": 7931,
      "ĠendiÅŁ": 7932,
      "ĠkatÄ±lacak": 7933,
      "ĠAlÄ±ÅŁkanlÄ±klar": 7934,
      "ĠtanÄ±mlayÄ±n": 7935,
      "Ġkaybetmeden": 7936,
      "ĠmantÄ±klÄ±sÄ±": 7937,
      "pause": 7938,
      "ĠTVs": 7939,
      "Ġnavigate": 7940,
      "Ġkompoz": 7941,
      "Ġtelev": 7942,
      "ĠsÄ±nÄ±f": 7943,
      "Ġdiscuss": 7944,
      "Ġkoruyarak": 7945,
      "Ġerkenden": 7946,
      "ĠEylÃ¼l": 7947,
      "683": 7948,
      "918": 7949,
      "Ġclu": 7950,
      "Ġfour": 7951,
      "active": 7952,
      "172": 7953,
      "Ġensures": 7954,
      "Ġstopping": 7955,
      "Ġmonths": 7956,
      "ĠTrack": 7957,
      "Ġfoundation": 7958,
      "545": 7959,
      "747": 7960,
      "HÄ±zlÄ±": 7961,
      "ause": 7962,
      "pr": 7963,
      "Ġserin": 7964,
      "temel": 7965,
      "dÄ±ÄŁÄ±na": 7966,
      "Ġderece": 7967,
      "ĠÃ¶rne": 7968,
      "ĠinÅŁa": 7969,
      "ĠyazÄ±m": 7970,
      "ecause": 7971,
      "162": 7972,
      "ĠeÅŁit": 7973,
      "ĠyerleÅŁtirin": 7974,
      "ĠfotoÄŁrafÃ§": 7975,
      "anÄ±zÄ±n": 7976,
      "anÄ±zdaki": 7977,
      "Ġokur": 7978,
      "Ġbitire": 7979,
      "ĠseÃ§meye": 7980,
      "Ġgide": 7981,
      "Ġkop": 7982,
      "ĠsÃ¼reler": 7983,
      "193": 7984,
      "Ġworkout": 7985,
      "ĠgÃ¶rÃ¼l": 7986,
      "ĠbÃ¶yle": 7987,
      "Ġsorununuz": 7988,
      "ĠortasÄ±nda": 7989,
      "Ġazaltarak": 7990,
      "Ġoption": 7991,
      "ĠbakÄ±p": 7992,
      "ĠÄ±ÅŁÄ±klandÄ±rma": 7993,
      "Ġrutine": 7994,
      "Ġilerleyen": 7995,
      "Ġifadeler": 7996,
      "ĠaraÃ§lar": 7997,
      "ĠkazanÄ±m": 7998,
      "ĠaÅŁÄ±rÄ±": 7999,
      "Ġsistemini": 8000,
      "ĠsÃ¶yleye": 8001,
      "Ġimproves": 8002,
      "muÅŁtur": 8003,
      "ĠsabÄ±rlÄ±": 8004,
      "ĠaÃ§Ä±sÄ±ndan": 8005,
      "Ġliving": 8006,
      "ĠhÄ±zlandÄ±rÄ±r": 8007,
      "Ġharcamak": 8008,
      "ĠÃ¶ÄŁrendik": 8009,
      "ĠaÅŁamada": 8010,
      "ubuk": 8011,
      "Ġyakala": 8012,
      "ĠGÃ¼venli": 8013,
      "Ã¼ÅŁÃ¼nce": 8014,
      "Ġportre": 8015,
      "Ġsaniyelik": 8016,
      "ĠSÄ±radan": 8017,
      "Ġcuriosity": 8018,
      "titude": 8019,
      "Ġclub": 8020,
      "-e": 8021,
      "Ġfel": 8022,
      "1089": 8023,
      "Ġspread": 8024,
      "Ġprefer": 8025,
      "phone": 8026,
      "Ġfailure": 8027,
      "Ġvalidate": 8028,
      "Pair": 8029,
      "ada": 8030,
      "zaman": 8031,
      "Ġsens": 8032,
      "Ã§ak": 8033,
      "ĠyÄ±l": 8034,
      "ĠYol": 8035,
      "lanabilir": 8036,
      "lÄ±nda": 8037,
      "Ġyapan": 8038,
      "ĠbulmanÄ±z": 8039,
      "ĠsadÄ±k": 8040,
      "1035": 8041,
      "1000": 8042,
      "likten": 8043,
      "Ġbuy": 8044,
      "ĠÅŁeh": 8045,
      "Ġkalmak": 8046,
      "Ġchoo": 8047,
      "ĠgÃ¶k": 8048,
      "ĠÃ¶ÄŁrenerek": 8049,
      "Ġsorul": 8050,
      "Ġsormaktan": 8051,
      "Ġkendisi": 8052,
      "ĠseÃ§erken": 8053,
      "Ġherkes": 8054,
      "ĠkullandÄ±": 8055,
      "duÄŁunda": 8056,
      "350": 8057,
      "Ġduya": 8058,
      "Ġdurak": 8059,
      "elerin": 8060,
      "Ġyolunu": 8061,
      "ĠdÃ¼zenleyerek": 8062,
      "Ġalanlara": 8063,
      "ĠoluÅŁturup": 8064,
      "ĠbÄ±rakma": 8065,
      "ĠÃ§Ã¶zÃ¼l": 8066,
      "Ġizleyebilirsiniz": 8067,
      "ĠsÄ±kÃ§a": 8068,
      "Ġkahves": 8069,
      "ĠaÃ§Ä±klama": 8070,
      "Ġsani": 8071,
      "ĠEvinizin": 8072,
      "dunuz": 8073,
      "Ġdikkatinizi": 8074,
      "acaÄŁÄ±": 8075,
      "Ġknowledge": 8076,
      "Ġkutunun": 8077,
      "ĠihtiyacÄ±n": 8078,
      "Ġvakti": 8079,
      "ĠÃ§evre": 8080,
      "Ġclarify": 8081,
      "Ġayakkab": 8082,
      "ĠÄ±sÄ±t": 8083,
      "ĠdÃ¼ÅŁÃ¼rÃ¼r": 8084,
      "ĠdavranÄ±ÅŁÄ±": 8085,
      "Ġyudum": 8086,
      "Ġsorusunu": 8087,
      "Ġawake": 8088,
      "ĠkavramlarÄ±": 8089,
      "Ġdraining": 8090,
      "ĠaltyapÄ±": 8091,
      "482": 8092,
      "519": 8093,
      "Ġstack": 8094,
      "ĠHang": 8095,
      "250": 8096,
      "Ġexplicit": 8097,
      "Ġlists": 8098,
      "Ġdedicating": 8099,
      "ĠConsistent": 8100,
      "Ġexperience": 8101,
      "-wake": 8102,
      "Ġgrabbing": 8103,
      "Ġchoosing": 8104,
      "321": 8105,
      "422": 8106,
      "623": 8107,
      "fotoÄŁraf": 8108,
      "ðŁ": 8109,
      "Ġaile": 8110,
      "Ä±yla": 8111,
      "tima": 8112,
      "Ġterim": 8113,
      "ules": 8114,
      "Ġhitap": 8115,
      "lab": 8116,
      "enek": 8117,
      "arsanÄ±z": 8118,
      "Ġbirinde": 8119,
      "Ġdish": 8120,
      "ĠbaÅŁlÄ±ÄŁÄ±": 8121,
      "Ġsoli": 8122,
      "Ġverecek": 8123,
      "ĠGerÃ§ek": 8124,
      "Ġzamanlar": 8125,
      "Ġsahi": 8126,
      "ĠdeÄŁeri": 8127,
      "Ġmodu": 8128,
      "Ġkalmadan": 8129,
      "ĠRe": 8130,
      "Ġbeli": 8131,
      "ĠdÃ¼zgÃ¼n": 8132,
      "sinde": 8133,
      "Ġdilinizi": 8134,
      "Ġyemekler": 8135,
      "ike": 8136,
      "Ġetmenizi": 8137,
      "Ġhedeflerini": 8138,
      "Ġgire": 8139,
      "ĠiÅŁine": 8140,
      "ĠÃ§alÄ±ÅŁtÄ±r": 8141,
      "mediÄŁi": 8142,
      "ĠsÃ¼rece": 8143,
      "ĠsÃ¼releri": 8144,
      "ĠarayÃ¼z": 8145,
      "Ġuykudan": 8146,
      "Ġisteyin": 8147,
      "ĠodaklanmaktÄ±r": 8148,
      "bileceÄŁini": 8149,
      "lights": 8150,
      "Ġilerlemeye": 8151,
      "Ġpost": 8152,
      "enty": 8153,
      "Ġizleme": 8154,
      "Ġhalf": 8155,
      "Ġconnectivity": 8156,
      "ĠprogramÄ±na": 8157,
      "Ġsesini": 8158,
      "ĠÃ§izmek": 8159,
      "Ġdengeyi": 8160,
      "ĠseÃ§enekleri": 8161,
      "ĠkamerayÄ±": 8162,
      "ĠihtiyaÃ§larÄ±nÄ±": 8163,
      "Ġinterrupt": 8164,
      "ĠvÃ¼cudunuzu": 8165,
      "Ġbenim": 8166,
      "ĠbilgisayarÄ±nÄ±zda": 8167,
      "Ġexercises": 8168,
      "Ġtarget": 8169,
      "Ġbitkilerin": 8170,
      "Ġdecisions": 8171,
      "ĠyorgunluÄŁu": 8172,
      "Ġkonularda": 8173,
      "ĠfÄ±rsatÄ±": 8174,
      "ĠÃ¼ret": 8175,
      "Ġtablo": 8176,
      "Ġseferde": 8177,
      "ĠÃ¶zgÃ¼": 8178,
      "Ġverebilirim": 8179,
      "Ġkaydedip": 8180,
      "Ġaccumulating": 8181,
      "Ġtwenty": 8182,
      "Ġdengesini": 8183,
      "Ġslip": 8184,
      "318": 8185,
      "396": 8186,
      "381": 8187,
      "746": 8188,
      "960": 8189,
      "How": 8190,
      "Ġpan": 8191,
      "Ġwould": 8192,
      "Ġfacts": 8193,
      "Ġreason": 8194,
      "utral": 8195,
      "Ġvoice": 8196,
      "1036": 8197,
      "1534": 8198,
      "Ġrules": 8199,
      "370": 8200,
      "008": 8201,
      "Ġarrival": 8202,
      "Ġmovie": 8203,
      "\"**": 8204,
      "):**": 8205,
      "-c": 8206,
      "-t": 8207,
      "540": 8208,
      "619": 8209,
      "944": 8210,
      "around": 8211,
      "cuz": 8212,
      "diniz": 8213,
      "eb": 8214,
      "gÃ¼": 8215,
      "iÃ§": 8216,
      "ika": 8217,
      "ms": 8218,
      "zor": 8219,
      "memiÅŁ": 8220,
      "Ġbirim": 8221,
      "ĠBazen": 8222,
      "ĠBecause": 8223,
      "ĠkaÅŁÄ±": 8224,
      "ĠSur": 8225,
      "lies": 8226,
      "Ġuyurken": 8227,
      "sÄ±k": 8228,
      "lamalÄ±": 8229,
      "lamalarÄ±": 8230,
      "uÅŁu": 8231,
      "Ġbulabilirsiniz": 8232,
      "ĠzamanlÄ±": 8233,
      "start": 8234,
      "ĠayÄ±nÄ±n": 8235,
      "ĠdeÄŁiÅŁtirerek": 8236,
      "Ġresminizi": 8237,
      "1436": 8238,
      "Ġplana": 8239,
      "yeti": 8240,
      "lÄ±kla": 8241,
      "ĠOna": 8242,
      "Ġtutan": 8243,
      "Ġasans": 8244,
      "Ġmakine": 8245,
      "Ġisteye": 8246,
      "ĠarkadaÅŁÄ±nÄ±zla": 8247,
      "ĠgeÃ§meyi": 8248,
      "Ġyollar": 8249,
      "ĠhÄ±zlandÄ±ra": 8250,
      "ĠsÄ±f": 8251,
      "ĠgÃ¼venle": 8252,
      "Ġsorununu": 8253,
      "ĠgÃ¶zlerinizi": 8254,
      "leÅŁtirme": 8255,
      "ĠadÄ±mlarÄ±nÄ±zÄ±": 8256,
      "ĠbaÅŁarÄ±ya": 8257,
      "ĠÃĸÄŁle": 8258,
      "ĠÄ±ÅŁÄ±ÄŁÄ±nda": 8259,
      "ĠÅŀimdilik": 8260,
      "ĠdoÄŁrul": 8261,
      "ĠkaynaklanÄ±r": 8262,
      "ĠdeÄŁerlendi": 8263,
      "ĠbaÅŁlarken": 8264,
      "ĠPlanlama": 8265,
      "lanmÄ±ÅŁtÄ±r": 8266,
      "ĠbelirtildiÄŁi": 8267,
      "Ġreviewing": 8268,
      "Ġbununla": 8269,
      "ĠyaÅŁamak": 8270,
      "Ġdoldurun": 8271,
      "ĠÃ§oÄŁu": 8272,
      "ĠbaÅŁlangÄ±cÄ±nÄ±": 8273,
      "Ġkeyifli": 8274,
      "Ġhormon": 8275,
      "Ġezber": 8276,
      "Ġmetaboliz": 8277,
      "Ġconcentra": 8278,
      "Ġkompozisyon": 8279,
      "745": 8280,
      "819": 8281,
      "keep": 8282,
      "Ġconve": 8283,
      "ĠDef": 8284,
      "ĠSpe": 8285,
      "Ġinsur": 8286,
      "Ġneutral": 8287,
      "Ġsever": 8288,
      "1234": 8289,
      "Ġanswers": 8290,
      "ĠFin": 8291,
      "Ġface": 8292,
      "Ġbigger": 8293,
      "Ġparaly": 8294,
      "Ġconsider": 8295,
      "Ġcolor": 8296,
      "Ġwebsites": 8297,
      "Ġtype": 8298,
      "Ġsubject": 8299,
      "Ġinsurance": 8300,
      "544": 8301,
      "945": 8302,
      "kon": 8303,
      "uÃ§": 8304,
      "zar": 8305,
      "Ġaff": 8306,
      "istik": 8307,
      "tile": 8308,
      "Ġsunun": 8309,
      "Ġconcre": 8310,
      "Ġconcer": 8311,
      "ceÄŁim": 8312,
      "ÅŁi": 8313,
      "Ġhit": 8314,
      "saÄŁ": 8315,
      "ĠEÅŁ": 8316,
      "ĠgÃ¼r": 8317,
      "Ġtohum": 8318,
      "ĠiÃ§meye": 8319,
      "Ġdaire": 8320,
      "ĠnumarayÄ±": 8321,
      "Ġrely": 8322,
      "ĠolmanÄ±zÄ±": 8323,
      "ĠÃ§arp": 8324,
      "ĠzamanÄ±nÄ±z": 8325,
      "Ġsah": 8326,
      "Ã¼rÃ¼st": 8327,
      "1236": 8328,
      "Ġbuz": 8329,
      "ĠkalÄ±r": 8330,
      "Ġtutul": 8331,
      "Ġkendisini": 8332,
      "Ġhedefin": 8333,
      "ĠkullanÄ±rken": 8334,
      "Ġgidece": 8335,
      "tenizi": 8336,
      "ĠodasÄ±": 8337,
      "Ġdurumunuza": 8338,
      "ĠdiÄŁ": 8339,
      "mesidir": 8340,
      "ĠyÃ¶ntemleri": 8341,
      "ĠolmadÄ±ÄŁÄ±": 8342,
      "Ġsitesi": 8343,
      "ĠÄ°stanbullu": 8344,
      "Ġmiyim": 8345,
      "Ġfinal": 8346,
      "sÄ±ndaki": 8347,
      "Ġspaces": 8348,
      "ĠgeÃ§irmeye": 8349,
      "ĠdÃ¶kÃ¼": 8350,
      "ĠyÃ¼kÃ¼nÃ¼": 8351,
      "ĠekranÄ±nÄ±": 8352,
      "Ġvisually": 8353,
      "ĠgÃ¶rÃ¼nÃ¼r": 8354,
      "ĠgÃ¶rÃ¼ntÃ¼": 8355,
      "ĠaraÃ§larÄ±nÄ±": 8356,
      "Ġanlatmak": 8357,
      "ĠfÄ±rÄ±n": 8358,
      "ĠgÃ¶zlemle": 8359,
      "ĠSÃ¼reÃ§": 8360,
      "yalÄ±m": 8361,
      "ĠaÅŁaÄŁÄ±da": 8362,
      "Ġromanlar": 8363,
      "Ġkalite": 8364,
      "Ġharita": 8365,
      "ĠElinizde": 8366,
      "Ġsalat": 8367,
      "Ġsalata": 8368,
      "ĠBaÅŁarÄ±lar": 8369,
      "Ġbulundurarak": 8370,
      "ĠaÄŁrÄ±": 8371,
      "Ġkonforlu": 8372,
      "Ġmeditasyon": 8373,
      "Ġmesafeyi": 8374,
      "ĠyÃ¶netmek": 8375,
      "ĠÃ§ocuk": 8376,
      "ĠrahatlatÄ±cÄ±": 8377,
      "Ġbeyne": 8378,
      "Ġacknowledge": 8379,
      "ĠtadÄ±nÄ±": 8380,
      "Ġkarakter": 8381,
      "-essential": 8382,
      "ĠSurround": 8383,
      "Ġconcrete": 8384,
      "440": 8385,
      "640": 8386,
      "922": 8387,
      "ctions": 8388,
      "gency": 8389,
      "pam": 8390,
      "inct": 8391,
      "ello": 8392,
      "lease": 8393,
      "ĠMain": 8394,
      "Ġmoder": 8395,
      "1429": 8396,
      "the": 8397,
      "spi": 8398,
      "Ġidea": 8399,
      "Ġtotaling": 8400,
      "Ġpassive": 8401,
      "Â°C": 8402,
      "Ġelectronics": 8403,
      "Ġlunch": 8404,
      "ĠMaintain": 8405,
      "594": 8406,
      "722": 8407,
      "744": 8408,
      "782": 8409,
      "940": 8410,
      "ih": 8411,
      "journey": 8412,
      "ndÄ±": 8413,
      "ceed": 8414,
      "Ġice": 8415,
      "Ã¶nce": 8416,
      "Ġflo": 8417,
      "ĠSÄ±nÄ±r": 8418,
      "ĠÄ°s": 8419,
      "Ġverip": 8420,
      "ĠyapmanÄ±n": 8421,
      "ĠGel": 8422,
      "Ġsaate": 8423,
      "1229": 8424,
      "1329": 8425,
      "ading": 8426,
      "ĠalmanÄ±zÄ±": 8427,
      "anÄ±zda": 8428,
      "Ġyemekleri": 8429,
      "Ġdakikaya": 8430,
      "ĠÃ§alÄ±ÅŁabilirsiniz": 8431,
      "Ġevinizi": 8432,
      "Ġekleme": 8433,
      "Ġyoluyla": 8434,
      "ĠaÃ§Ä±lÄ±": 8435,
      "ĠalanlarÄ±nÄ±": 8436,
      "ĠayÄ±rma": 8437,
      "ĠhazÄ±rlayÄ±p": 8438,
      "lemeleri": 8439,
      "ĠayarlarÄ±": 8440,
      "Ġtamamlama": 8441,
      "ekiÅŁ": 8442,
      "ĠbakmayÄ±": 8443,
      "Ġseviyede": 8444,
      "ĠbÃ¶lge": 8445,
      "ĠHesap": 8446,
      "ĠistediÄŁinize": 8447,
      "Ġrewarding": 8448,
      "Ã¼sÃ¼": 8449,
      "Ã¼sÃ¼nÃ¼": 8450,
      "memiz": 8451,
      "ĠdeÄŁerini": 8452,
      "Ġuykusuz": 8453,
      "ĠplanlamayÄ±": 8454,
      "ĠgÃ¼nÃ¼nÃ¼zÃ¼n": 8455,
      "Ġsiteleri": 8456,
      "Ġayakta": 8457,
      "Ġyataktan": 8458,
      "Ġstrateji": 8459,
      "Ġsustain": 8460,
      "ĠyataÄŁa": 8461,
      "Ġokuyup": 8462,
      "ĠÃĩoÄŁu": 8463,
      "Ġreferans": 8464,
      "ĠRutin": 8465,
      "Sonra": 8466,
      "Ġtelevizyon": 8467,
      "Ġspreadsh": 8468,
      "583": 8469,
      "647": 8470,
      "Focus": 8471,
      "din": 8472,
      "sis": 8473,
      "rame": 8474,
      "Ġign": 8475,
      "Ġinte": 8476,
      "1016": 8477,
      "1529": 8478,
      "1536": 8479,
      "1500": 8480,
      "Ġdopam": 8481,
      "1237": 8482,
      "1449": 8483,
      "Ġstead": 8484,
      "Ġtrivi": 8485,
      "Ġgratitude": 8486,
      "Ġdepends": 8487,
      "coming": 8488,
      "Ġsnacks": 8489,
      "Ġassig": 8490,
      "Ġopportunities": 8491,
      "-a": 8492,
      "219": 8493,
      "390": 8494,
      "460": 8495,
      "470": 8496,
      "577": 8497,
      "538": 8498,
      "648": 8499,
      "840": 8500,
      "Ka": 8501,
      "Uy": 8502,
      "gÃ¶": 8503,
      "yol": 8504,
      "Ġpir": 8505,
      "related": 8506,
      "Ġiti": 8507,
      "ĠDoÄŁru": 8508,
      "ildi": 8509,
      "Ġtoz": 8510,
      "ĠiÃ§e": 8511,
      "ĠkaÅŁÄ±k": 8512,
      "Ġdk": 8513,
      "Ġbeceri": 8514,
      "ĠMak": 8515,
      "Ġzorla": 8516,
      "Ġzorlayan": 8517,
      "ĠÃ§ubuk": 8518,
      "ict": 8519,
      "ĠdayalÄ±": 8520,
      "1030": 8521,
      "1026": 8522,
      "ayarak": 8523,
      "ĠHuzur": 8524,
      "1224": 8525,
      "1289": 8526,
      "1337": 8527,
      "ĠZeyneple": 8528,
      "ĠÅŁan": 8529,
      "ĠÅŁiÅŁ": 8530,
      "ĠÅŁabl": 8531,
      "Ġkalb": 8532,
      "Ġkalacak": 8533,
      "Ã¼yle": 8534,
      "ĠÃ¶ÄŁrenmeniz": 8535,
      "idjourney": 8536,
      "ĠfotoÄŁrafÄ±nÄ±": 8537,
      "Ġdilim": 8538,
      "Ġdilini": 8539,
      "173": 8540,
      "ĠaslÄ±nda": 8541,
      "duÄŁun": 8542,
      "Ġovercome": 8543,
      "ĠAynÄ±": 8544,
      "ĠÃ§Ä±kma": 8545,
      "ĠgÃ¼nÃ¼ne": 8546,
      "malÄ±yÄ±m": 8547,
      "ĠdÃ¼ÅŁÃ¼nmeye": 8548,
      "Ġolmaz": 8549,
      "Ġdistinct": 8550,
      "Ġayarlayarak": 8551,
      "ĠazaltÄ±p": 8552,
      "ĠÄ±ÅŁÄ±klarÄ±": 8553,
      "ĠÅŁeylerin": 8554,
      "ĠdÃ¶ng": 8555,
      "ĠyÃ¼rÃ¼meye": 8556,
      "Ġgirmek": 8557,
      "Ġdenge": 8558,
      "ĠhayatÄ±nÄ±zda": 8559,
      "Ġgrand": 8560,
      "fety": 8561,
      "Ġtarihi": 8562,
      "Ġverirken": 8563,
      "ĠuyandÄ±r": 8564,
      "hedef": 8565,
      "ĠElinizdeki": 8566,
      "Ġmemorize": 8567,
      "ĠaÃ§Ä±dan": 8568,
      "ĠkÄ±smÄ±": 8569,
      "Ġkoltuk": 8570,
      "ĠduyduÄŁu": 8571,
      "Ġoraya": 8572,
      "ĠBunlar": 8573,
      "ĠyapabileceÄŁin": 8574,
      "Ã§alÄ±ÅŁma": 8575,
      "Ġsepete": 8576,
      "ĠDuygusal": 8577,
      "Ġkahvesini": 8578,
      "ĠSpeak": 8579,
      "Ġtrivial": 8580,
      "695": 8581,
      "656": 8582,
      "982": 8583,
      "976": 8584,
      "eving": 8585,
      "Ġland": 8586,
      "orizing": 8587,
      "Ġgaps": 8588,
      "1049": 8589,
      "Ġreserva": 8590,
      "1335": 8591,
      "1300": 8592,
      "1489": 8593,
      "ours": 8594,
      "195": 8595,
      "portant": 8596,
      "Ġnews": 8597,
      "Ġlearns": 8598,
      "Ġshoes": 8599,
      "Ġconsci": 8600,
      "Ġsituation": 8601,
      "Ġcabinet": 8602,
      "-light": 8603,
      "481": 8604,
      "574": 8605,
      "650": 8606,
      "796": 8607,
      "Ay": 8608,
      "AÃ§Ä±k": 8609,
      "Daha": 8610,
      "Kend": 8611,
      "The": 8612,
      "bre": 8613,
      "bÃ¼yÃ¼k": 8614,
      "rit": 8615,
      "ture": 8616,
      "ĠðŁ": 8617,
      "ersiniz": 8618,
      "Ġkurarak": 8619,
      "ĠErk": 8620,
      "ĠElinde": 8621,
      "dÄ±nÄ±z": 8622,
      "iling": 8623,
      "Ġequ": 8624,
      "Ġbaha": 8625,
      "ĠSÃ¶z": 8626,
      "ĠÃ¶v": 8627,
      "Ġucuz": 8628,
      "ĠbaÅŁv": 8629,
      "ĠÄ°l": 8630,
      "ĠÄ°n": 8631,
      "Ġvermeden": 8632,
      "Ġnem": 8633,
      "ĠzorlandÄ±ÄŁÄ±nÄ±z": 8634,
      "Ġstrugg": 8635,
      "1017": 8636,
      "1029": 8637,
      "1037": 8638,
      "Ġtim": 8639,
      "Ġori": 8640,
      "1524": 8641,
      "1280": 8642,
      "1389": 8643,
      "Ġbudur": 8644,
      "ĠÅŁart": 8645,
      "ĠÅŁÃ¶yle": 8646,
      "ĠmasanÄ±z": 8647,
      "dijital": 8648,
      "app": 8649,
      "ĠalgÄ±": 8650,
      "Ġkullanacak": 8651,
      "ĠkullanÄ±la": 8652,
      "ĠÃ§alÄ±ÅŁÄ±p": 8653,
      "syonu": 8654,
      "Ġoverthinking": 8655,
      "Ġkayg": 8656,
      "ĠkarÅŁ": 8657,
      "ÄŁÄ±nÄ±zÄ±n": 8658,
      "Ġkursuna": 8659,
      "Ġloop": 8660,
      "Ġilerleye": 8661,
      "ilerini": 8662,
      "ĠyapÄ±yÄ±": 8663,
      "ĠsayÄ±yÄ±": 8664,
      "Ġsites": 8665,
      "Ġyatma": 8666,
      "htiya": 8667,
      "Ġempt": 8668,
      "Ġhalde": 8669,
      "ĠbaÄŁla": 8670,
      "oyu": 8671,
      "ĠÃ§ekimi": 8672,
      "Ġoturma": 8673,
      "ĠdeÄŁiÅŁim": 8674,
      "ĠkolaylaÅŁtÄ±rÄ±n": 8675,
      "ĠdÄ±ÅŁarÄ±daki": 8676,
      "Ġgetirerek": 8677,
      "ĠTelefonla": 8678,
      "Ġduygu": 8679,
      "ĠsonuÃ§larÄ±": 8680,
      "Ġhavuzda": 8681,
      "duÄŁunuzda": 8682,
      "Ġaktiviteye": 8683,
      "ĠiÃ§eriÄŁini": 8684,
      "soli": 8685,
      "ĠyaptÄ±k": 8686,
      "Ġmodeli": 8687,
      "ĠanlamaktÄ±r": 8688,
      "ĠHÄ±zlÄ±ca": 8689,
      "Ġnavigation": 8690,
      "ĠeriÅŁilebilir": 8691,
      "ĠgÃ¼veni": 8692,
      "ĠkazandÄ±rÄ±r": 8693,
      "582": 8694,
      "595": 8695,
      "740": 8696,
      "Ġ[": 8697,
      "Ġplay": 8698,
      "Ġpleas": 8699,
      "ĠTreat": 8700,
      "Ġdevice": 8701,
      "Ġsafety": 8702,
      "1535": 8703,
      "1324": 8704,
      "1400": 8705,
      "1120": 8706,
      "Ġclarification": 8707,
      "Ġmistakes": 8708,
      "Ġsatisf": 8709,
      "Ġflashcard": 8710,
      "ĠFinally": 8711,
      "622": 8712,
      "776": 8713,
      "775": 8714,
      "Duolingo": 8715,
      "gÃ¼nde": 8716,
      "ket": 8717,
      "tÄ±k": 8718,
      "Ġkick": 8719,
      "ĠsÃ¼z": 8720,
      "cept": 8721,
      "ĠhÃ¢": 8722,
      "mates": 8723,
      "ĠSo": 8724,
      "ĠkÄ±ÅŁ": 8725,
      "sÄ±cak": 8726,
      "ĠÄ°z": 8727,
      "Ġverim": 8728,
      "ĠÃ§aÄŁ": 8729,
      "Ġkonusundaki": 8730,
      "ĠbuluÅŁmasÄ±": 8731,
      "ĠyazmayÄ±": 8732,
      "ĠyazÄ±lmÄ±ÅŁ": 8733,
      "1024": 8734,
      "likleri": 8735,
      "1230": 8736,
      "1249": 8737,
      "1325": 8738,
      "1334": 8739,
      "1336": 8740,
      "1349": 8741,
      "1434": 8742,
      "ĠolacaÄŁÄ±nÄ±": 8743,
      "Ġboya": 8744,
      "ĠÃ¶ÄŁrenmen": 8745,
      "1600": 8746,
      "1189": 8747,
      "ĠraÄŁ": 8748,
      "Ġrota": 8749,
      "ĠyÃ¼rÃ¼yÃ¼ÅŁler": 8750,
      "ĠVerilen": 8751,
      "Ġtuttu": 8752,
      "Ġbelirlemeyi": 8753,
      "tÄ±ÄŁÄ±nda": 8754,
      "ĠsÃ¼recek": 8755,
      "ĠodaklanmanÄ±z": 8756,
      "ĠAyÅŁe": 8757,
      "Ġdiving": 8758,
      "ĠyollarÄ±": 8759,
      "ĠalÄ±ÅŁkanlÄ±klarÄ±nÄ±zÄ±": 8760,
      "Ġkurtar": 8761,
      "ĠgÃ¶rÃ¼r": 8762,
      "lamasÄ±nÄ±": 8763,
      "ĠsorunlarÄ±na": 8764,
      "arkÄ±": 8765,
      "Ġdinlemeye": 8766,
      "ĠSonraki": 8767,
      "ĠolursanÄ±z": 8768,
      "leÅŁtirilmiÅŁ": 8769,
      "alarÄ±n": 8770,
      "ĠbÃ¼yÃ¼klÃ¼ÄŁ": 8771,
      "Ġyormadan": 8772,
      "Ġstays": 8773,
      "ayÄ±p": 8774,
      "Ġdikkatle": 8775,
      "ĠÃ§izimi": 8776,
      "Ġekranlardan": 8777,
      "ĠyaptÄ±ÄŁÄ±nÄ±": 8778,
      "Ġvisa": 8779,
      "Ġdesteklemek": 8780,
      "ĠcÃ¼mlede": 8781,
      "Ġeliminating": 8782,
      "Ġyatakta": 8783,
      "ĠnumaranÄ±zÄ±": 8784,
      "ĠduygularÄ±nÄ±": 8785,
      "Ġaccusations": 8786,
      "Ġbirbirinize": 8787,
      "Ġgerektirir": 8788,
      "ĠkeÅŁfed": 8789,
      "Ġchallenges": 8790,
      "Ġbenzeri": 8791,
      "Ġseems": 8792,
      "ĠtekniÄŁi": 8793,
      "ĠyastÄ±": 8794,
      "Ã¶ÄŁren": 8795,
      "Ġmeyve": 8796,
      "ĠkaÃ§Ä±nÄ±p": 8797,
      "ĠBilgiyi": 8798,
      "Ġgereksinim": 8799,
      "Ġpilav": 8800,
      "ĠgÃ¶kyÃ¼z": 8801,
      "Ġsahibi": 8802,
      "ĠasansÃ¶r": 8803,
      "1130": 8804,
      "418": 8805,
      "660": 8806,
      "Th": 8807,
      "plan": 8808,
      "rating": 8809,
      "Ġfits": 8810,
      "ĠSecond": 8811,
      "1384": 8812,
      "1427": 8813,
      "Ġche": 8814,
      "Ġmas": 8815,
      "Ġmade": 8816,
      "Ġmail": 8817,
      "Ġsprin": 8818,
      "1187": 8819,
      "290": 8820,
      "192": 8821,
      "001": 8822,
      "004": 8823,
      "005": 8824,
      "Ġdeepen": 8825,
      "Ġsilent": 8826,
      "Ġhappiness": 8827,
      "Ġincreas": 8828,
      "Ġclothing": 8829,
      "Ġfrustration": 8830,
      "Ġwebsite": 8831,
      "Ġconcentration": 8832,
      "Ġintent": 8833,
      "690": 8834,
      "644": 8835,
      "721": 8836,
      "Photoshop": 8837,
      "cil": 8838,
      "cÄ±nÄ±n": 8839,
      "mÃ¼ÅŁ": 8840,
      "rul": 8841,
      "ĠÄ±z": 8842,
      "ero": 8843,
      "Ġtren": 8844,
      "ala": 8845,
      "ceÄŁi": 8846,
      "lediÄŁiniz": 8847,
      "Ġbiridir": 8848,
      "Ġoyna": 8849,
      "Ġeki": 8850,
      "nded": 8851,
      "ĠkayÄ±p": 8852,
      "ĠkÄ±l": 8853,
      "amÄ±yorum": 8854,
      "ĠÃ¶ngÃ¶r": 8855,
      "Ä°ki": 8856,
      "Ġbeyin": 8857,
      "Ġveritab": 8858,
      "Ġnega": 8859,
      "Ġsharp": 8860,
      "ĠÃ§a": 8861,
      "Ġbulur": 8862,
      "Ġbulma": 8863,
      "Ġbulacak": 8864,
      "undaki": 8865,
      "Ġsaving": 8866,
      "ĠyazdÄ±r": 8867,
      "ĠPro": 8868,
      "1533": 8869,
      "Ġdost": 8870,
      "ĠElifle": 8871,
      "1435": 8872,
      "1437": 8873,
      "ĠÃ¶nceliÄŁi": 8874,
      "dition": 8875,
      "Ġboo": 8876,
      "ayken": 8877,
      "lenir": 8878,
      "ĠLondra": 8879,
      "Ġetmeyin": 8880,
      "Ġkullanmaktan": 8881,
      "ĠÃ§alÄ±ÅŁmaktÄ±r": 8882,
      "laÅŁÄ±k": 8883,
      "Ġevinizde": 8884,
      "ĠsÃ¼reyle": 8885,
      "Ġaramak": 8886,
      "ĠgeÃ§erek": 8887,
      "006": 8888,
      "Ġdurma": 8889,
      "ĠalanlarÄ±na": 8890,
      "ĠhazÄ±rlÄ±k": 8891,
      "ĠoluÅŁturul": 8892,
      "ĠayarlayÄ±p": 8893,
      "Ġmatch": 8894,
      "Ġrepla": 8895,
      "ĠÃĩÃ¼nkÃ¼": 8896,
      "Åŀimdi": 8897,
      "Ġetmekten": 8898,
      "Ġyorum": 8899,
      "ĠEvin": 8900,
      "ĠzorluklarÄ±nÄ±": 8901,
      "Ġfinished": 8902,
      "Ġedelim": 8903,
      "ĠKendini": 8904,
      "ĠhatÄ±rlayÄ±n": 8905,
      "Ġpencer": 8906,
      "Ġteknoloj": 8907,
      "Ġsabaha": 8908,
      "Ġsevdik": 8909,
      "Ġkaynaklanan": 8910,
      "ĠMesajÄ±nÄ±z": 8911,
      "Ġcloser": 8912,
      "Ġobs": 8913,
      "ĠgÃ¼nÃ¼nÃ¼zde": 8914,
      "ĠkeÅŁfetmeye": 8915,
      "ĠkaslarÄ±nÄ±zÄ±": 8916,
      "ĠkoÅŁullarÄ±": 8917,
      "Ġminimal": 8918,
      "ĠakÄ±ÅŁÄ±": 8919,
      "Ġlabels": 8920,
      "Ġdinlene": 8921,
      "Ġhikayeler": 8922,
      "Ġruhunu": 8923,
      "Ġwashing": 8924,
      "ĠKullanÄ±cÄ±": 8925,
      "ĠÃ¶nceliklendirin": 8926,
      "ĠayÄ±rttÄ±": 8927,
      "Ġtavsiyeler": 8928,
      "Ġbenzer": 8929,
      "Ġview": 8930,
      "Ġstraight": 8931,
      "eynman": 8932,
      "ĠAÅŁaÄŁÄ±daki": 8933,
      "Ġspreadsheet": 8934,
      "Ġsteady": 8935,
      "Ġempty": 8936,
      "ĠraÄŁmen": 8937,
      "547": 8938,
      "670": 8939,
      "682": 8940,
      ">Ċ": 8941,
      "ĠDe": 8942,
      "ĠDi": 8943,
      "Ġod": 8944,
      "Ġstren": 8945,
      "Ġtips": 8946,
      "Ġseasons": 8947,
      "1525": 8948,
      "1537": 8949,
      "1235": 8950,
      "1287": 8951,
      "1327": 8952,
      "Ġyear": 8953,
      "bile": 8954,
      "002": 8955,
      "003": 8956,
      "007": 8957,
      "undry": 8958,
      "Ġsays": 8959,
      "?\"Ċ": 8960,
      "Ġdiscard": 8961,
      "Ġearli": 8962,
      "Ġtranslation": 8963,
      "Ġvalues": 8964,
      "Ġreminders": 8965,
      "Ġalert": 8966,
      "Ġalerts": 8967,
      "Ġemergency": 8968,
      "575": 8969,
      "645": 8970,
      "770": 8971,
      "818": 8972,
      "996": 8973,
      "938": 8974,
      "GÃ¶r": 8975,
      "TÃ¼r": 8976,
      "gth": 8977,
      "lin": 8978,
      "yiz": 8979,
      "Ġversa": 8980,
      "isan": 8981,
      "inen": 8982,
      "road": 8983,
      "tep": 8984,
      "memek": 8985,
      "dÄ±ÄŁÄ±m": 8986,
[...]
