{
  "version": "1.0",
  "truncation": null,
  "padding": null,
  "added_tokens": [
    {
      "id": 0,
      "content": "<unk>",
      "single_word": false,
      "lstrip": false,
      "rstrip": false,
      "normalized": false,
      "special": true
    },
    {
      "id": 1,
      "content": "<s>",
      "single_word": false,
      "lstrip": false,
      "rstrip": false,
      "normalized": false,
      "special": true
    },
    {
      "id": 2,
      "content": "</s>",
      "single_word": false,
      "lstrip": false,
      "rstrip": false,
      "normalized": false,
      "special": true
    },
    {
      "id": 3,
      "content": "<pad>",
      "single_word": false,
      "lstrip": false,
      "rstrip": false,
      "normalized": false,
      "special": true
    },
    {
      "id": 4,
      "content": "<|system|>",
      "single_word": false,
      "lstrip": false,
      "rstrip": false,
      "normalized": false,
      "special": true
    },
    {
      "id": 5,
      "content": "<|user|>",
      "single_word": false,
      "lstrip": false,
      "rstrip": false,
      "normalized": false,
      "special": true
    },
    {
      "id": 6,
      "content": "<|assistant|>",
      "single_word": false,
      "lstrip": false,
      "rstrip": false,
      "normalized": false,
      "special": true
    },
    {
      "id": 7,
      "content": "<|end|>",
      "single_word": false,
      "lstrip": false,
      "rstrip": false,
      "normalized": false,
      "special": true
    },
    {
      "id": 8,
      "content": "<|code|>",
      "single_word": false,
      "lstrip": false,
      "rstrip": false,
      "normalized": false,
      "special": true
    }
  ],
  "normalizer": null,
  "pre_tokenizer": {
    "type": "Sequence",
    "pretokenizers": [
      {
        "type": "Split",
        "pattern": {
          "Regex": "'(?i:[sdmt]|ll|ve|re)|[^\\r\\n\\p{L}\\p{N}]?+\\p{L}++|\\p{N}{1,3}+| ?[^\\s\\p{L}\\p{N}]++[\\r\\n]*+|\\s*[\\r\\n]|\\s+(?!\\S)|\\s+"
        },
        "behavior": "Isolated",
        "invert": false
      },
      {
        "type": "ByteLevel",
        "add_prefix_space": false,
        "trim_offsets": true,
        "use_regex": false
      }
    ]
  },
  "post_processor": {
    "type": "ByteLevel",
    "add_prefix_space": true,
    "trim_offsets": false,
    "use_regex": true
  },
  "decoder": {
    "type": "ByteLevel",
    "add_prefix_space": true,
    "trim_offsets": true,
    "use_regex": true
  },
  "model": {
    "type": "BPE",
    "dropout": null,
    "unk_token": "<unk>",
    "continuing_subword_prefix": null,
    "end_of_word_suffix": null,
    "fuse_unk": false,
    "byte_fallback": false,
    "ignore_merges": false,
    "vocab": {
      "<unk>": 0,
      "<s>": 1,
      "</s>": 2,
      "<pad>": 3,
      "<|system|>": 4,
      "<|user|>": 5,
      "<|assistant|>": 6,
      "<|end|>": 7,
      "<|code|>": 8,
      "!": 9,
      "\"": 10,
      "#": 11,
      "$": 12,
      "%": 13,
      "&": 14,
      "'": 15,
      "(": 16,
      ")": 17,
      "*": 18,
      "+": 19,
      ",": 20,
      "-": 21,
      ".": 22,
      "/": 23,
      "0": 24,
      "1": 25,
      "2": 26,
      "3": 27,
      "4": 28,
      "5": 29,
      "6": 30,
      "7": 31,
      "8": 32,
      "9": 33,
      ":": 34,
      ";": 35,
      "<": 36,
      "=": 37,
      ">": 38,
      "?": 39,
      "@": 40,
      "A": 41,
      "B": 42,
      "C": 43,
      "D": 44,
      "E": 45,
      "F": 46,
      "G": 47,
      "H": 48,
      "I": 49,
      "J": 50,
      "K": 51,
      "L": 52,
      "M": 53,
      "N": 54,
      "O": 55,
      "P": 56,
      "Q": 57,
      "R": 58,
      "S": 59,
      "T": 60,
      "U": 61,
      "V": 62,
      "W": 63,
      "X": 64,
      "Y": 65,
      "Z": 66,
      "[": 67,
      "\\": 68,
      "]": 69,
      "^": 70,
      "_": 71,
      "`": 72,
      "a": 73,
      "b": 74,
      "c": 75,
      "d": 76,
      "e": 77,
      "f": 78,
      "g": 79,
      "h": 80,
      "i": 81,
      "j": 82,
      "k": 83,
      "l": 84,
      "m": 85,
      "n": 86,
      "o": 87,
      "p": 88,
      "q": 89,
      "r": 90,
      "s": 91,
      "t": 92,
      "u": 93,
      "v": 94,
      "w": 95,
      "x": 96,
      "y": 97,
      "z": 98,
      "{": 99,
      "|": 100,
      "}": 101,
      "~": 102,
      "¡": 103,
      "¢": 104,
      "£": 105,
      "¤": 106,
      "¥": 107,
      "¦": 108,
      "§": 109,
      "¨": 110,
      "©": 111,
      "ª": 112,
      "«": 113,
      "¬": 114,
      "®": 115,
      "¯": 116,
      "°": 117,
      "±": 118,
      "²": 119,
      "³": 120,
      "´": 121,
      "µ": 122,
      "¶": 123,
      "·": 124,
      "¸": 125,
      "¹": 126,
      "º": 127,
      "»": 128,
      "¼": 129,
      "½": 130,
      "¾": 131,
      "¿": 132,
      "À": 133,
      "Á": 134,
      "Â": 135,
      "Ã": 136,
      "Ä": 137,
      "Å": 138,
      "Æ": 139,
      "Ç": 140,
      "È": 141,
      "É": 142,
      "Ê": 143,
      "Ë": 144,
      "Ì": 145,
      "Í": 146,
      "Î": 147,
      "Ï": 148,
      "Ð": 149,
      "Ñ": 150,
      "Ò": 151,
      "Ó": 152,
      "Ô": 153,
      "Õ": 154,
      "Ö": 155,
      "×": 156,
      "Ø": 157,
      "Ù": 158,
      "Ú": 159,
      "Û": 160,
      "Ü": 161,
      "Ý": 162,
      "Þ": 163,
      "ß": 164,
      "à": 165,
      "á": 166,
      "â": 167,
      "ã": 168,
      "ä": 169,
      "å": 170,
      "æ": 171,
      "ç": 172,
      "è": 173,
      "é": 174,
      "ê": 175,
      "ë": 176,
      "ì": 177,
      "í": 178,
      "î": 179,
      "ï": 180,
      "ð": 181,
      "ñ": 182,
      "ò": 183,
      "ó": 184,
      "ô": 185,
      "õ": 186,
      "ö": 187,
      "÷": 188,
      "ø": 189,
      "ù": 190,
      "ú": 191,
      "û": 192,
      "ü": 193,
      "ý": 194,
      "þ": 195,
      "ÿ": 196,
      "Ā": 197,
      "ā": 198,
      "Ă": 199,
      "ă": 200,
      "Ą": 201,
      "ą": 202,
      "Ć": 203,
      "ć": 204,
      "Ĉ": 205,
      "ĉ": 206,
      "Ċ": 207,
      "ċ": 208,
      "Č": 209,
      "č": 210,
      "Ď": 211,
      "ď": 212,
      "Đ": 213,
      "đ": 214,
      "Ē": 215,
      "ē": 216,
      "Ĕ": 217,
      "ĕ": 218,
      "Ė": 219,
      "ė": 220,
      "Ę": 221,
      "ę": 222,
      "Ě": 223,
      "ě": 224,
      "Ĝ": 225,
      "ĝ": 226,
      "Ğ": 227,
      "ğ": 228,
      "Ġ": 229,
      "ġ": 230,
      "Ģ": 231,
      "ģ": 232,
      "Ĥ": 233,
      "ĥ": 234,
      "Ħ": 235,
      "ħ": 236,
      "Ĩ": 237,
      "ĩ": 238,
      "Ī": 239,
      "ī": 240,
      "Ĭ": 241,
      "ĭ": 242,
      "Į": 243,
      "į": 244,
      "İ": 245,
      "ı": 246,
      "Ĳ": 247,
      "ĳ": 248,
      "Ĵ": 249,
      "ĵ": 250,
      "Ķ": 251,
      "ķ": 252,
      "ĸ": 253,
      "Ĺ": 254,
      "ĺ": 255,
      "Ļ": 256,
      "ļ": 257,
      "Ľ": 258,
      "ľ": 259,
      "Ŀ": 260,
      "ŀ": 261,
      "Ł": 262,
      "ł": 263,
      "Ń": 264,
      "Ġa": 265,
      "<|": 266,
      "|>": 267,
      "is": 268,
      "nd": 269,
      "on": 270,
      "in": 271,
      "er": 272,
      "Ä±": 273,
      "an": 274,
      "Ġc": 275,
      "end": 276,
      "ĠĊ": 277,
      "|>:": 278,
      "|>Ċ": 279,
      "ti": 280,
      "Ġp": 281,
      "Ġs": 282,
      "ing": 283,
      "Ġt": 284,
      "Ġpr": 285,
      "ss": 286,
      "ist": 287,
      "re": 288,
      "Ġb": 289,
      "Ġcon": 290,
      "ant": 291,
      "ou": 292,
      "od": 293,
      "al": 294,
      "istant": 295,
      "ssistant": 296,
      "ish": 297,
      "en": 298,
      "ra": 299,
      "el": 300,
      "Ġk": 301,
      "tion": 302,
      "Ġn": 303,
      "te": 304,
      "ul": 305,
      "Ġh": 306,
      "Ã¼": 307,
      "us": 308,
      "ce": 309,
      "ver": 310,
      "ĠE": 311,
      "le": 312,
      "or": 313,
      "Ġy": 314,
      "me": 315,
      "sa": 316,
      "ar": 317,
      "Ġi": 318,
      "ur": 319,
      "Ġd": 320,
      "Ġand": 321,
      "ir": 322,
      "ĠD": 323,
      "gl": 324,
      "ÅŁ": 325,
      "ot": 326,
      "Ã§": 327,
      "user": 328,
      "assistant": 329,
      "og": 330,
      "mm": 331,
      "cis": 332,
      "ĠT": 333,
      "Ġconcis": 334,
      "tem": 335,
      "ĠY": 336,
      "Ġare": 337,
      "ys": 338,
      "Ġw": 339,
      "ĠEn": 340,
      "Ġnot": 341,
      "Ġhel": 342,
      "Ġhelp": 343,
      "ful": 344,
      "ogra": 345,
      "ĠDo": 346,
      "versa": 347,
      "uce": 348,
      "versation": 349,
      "Ġconversation": 350,
      "mming": 351,
      "ĠYou": 352,
      "ystem": 353,
      "Ġprogra": 354,
      "Ġprod": 355,
      "urk": 356,
      "ode": 357,
      "Ġassistant": 358,
      "Ġhelpful": 359,
      "Ġconcise": 360,
      "Ġcode": 361,
      "glish": 362,
      "ĠEnglish": 363,
      "Ġproduce": 364,
      "Ġprogramming": 365,
      "Ġconversational": 366,
      "system": 367,
      "urkish": 368,
      "ĠTurkish": 369,
      "ve": 370,
      "ay": 371,
      "ak": 372,
      "it": 373,
      "Ġto": 374,
      "il": 375,
      "et": 376,
      "dÄ±": 377,
      "Ġf": 378,
      "la": 379,
      "Ġth": 380,
      "Ġm": 381,
      "Ä±n": 382,
      "es": 383,
      "Ġg": 384,
      "um": 385,
      "ac": 386,
      "Ġo": 387,
      "ÄŁ": 388,
      "Ġe": 389,
      "Ġyou": 390,
      "ĠB": 391,
      "un": 392,
      "ĠS": 393,
      "iz": 394,
      "Ã¶": 395,
      "ug": 396,
      "Ġbir": 397,
      "Ġay": 398,
      "ab": 399,
      "ith": 400,
      "Ġwith": 401,
      "Ä±r": 402,
      "Ġve": 403,
      "Ġin": 404,
      "da": 405,
      "one": 406,
      "am": 407,
      "at": 408,
      "Ġst": 409,
      "nde": 410,
      "out": 411,
      "estion": 412,
      "ĠiÃ§": 413,
      "lan": 414,
      "ĠA": 415,
      "ri": 416,
      "Ġso": 417,
      "Ġbe": 418,
      "ĠiÃ§in": 419,
      "Ġre": 420,
      "ah": 421,
      "Ġad": 422,
      "Ã¼n": 423,
      "ĠÃ¶": 424,
      "Ġya": 425,
      "Ġan": 426,
      "ki": 427,
      "li": 428,
      "ort": 429,
      "ĠayÄ±r": 430,
      "Ġthe": 431,
      "Ġadet": 432,
      "ple": 433,
      "ĠayÄ±rdÄ±": 434,
      "Ġz": 435,
      "Ġsh": 436,
      "im": 437,
      "tic": 438,
      "Ġyour": 439,
      "ilir": 440,
      "ĠkÄ±": 441,
      "ner": 442,
      "dÄ±m": 443,
      "ĠkÄ±sa": 444,
      "ĠG": 445,
      "Ġu": 446,
      "ĠadÄ±m": 447,
      "as": 448,
      "ly": 449,
      "lar": 450,
      ".Ċ": 451,
      "Ġsome": 452,
      "wo": 453,
      "ive": 454,
      "Ġfor": 455,
      "ĠSc": 456,
      "Ġnum": 457,
      "Ġtwo": 458,
      "Ġshort": 459,
      "Ġme": 460,
      "aÅŁ": 461,
      "ari": 462,
      "ine": 463,
      "Ä±nÄ±": 464,
      "abilir": 465,
      "estions": 466,
      "Ġprac": 467,
      "Ġsomeone": 468,
      "tical": 469,
      "Ġstr": 470,
      "ya": 471,
      "ugg": 472,
      "enti": 473,
      "ep": 474,
      "Ġsugg": 475,
      "gling": 476,
      "uggling": 477,
      "enari": 478,
      "enario": 479,
      "ĠGive": 480,
      "Ġstruggling": 481,
      "Ġpractical": 482,
      "Ġsuggestions": 483,
      "ĠScenario": 484,
      "ara": 485,
      "ed": 486,
      "ĠgÃ¼n": 487,
      "ĠbaÅŁ": 488,
      "mek": 489,
      "ĠM": 490,
      "Ġmo": 491,
      "lam": 492,
      "ic": 493,
      "ef": 494,
      "Ã¼k": 495,
      "Ġkenti": 496,
      "Ġkentinde": 497,
      "Ġuy": 498,
      "Ġile": 499,
      "Ġon": 500,
      "ent": 501,
      "Ġday": 502,
      "very": 503,
      "ey": 504,
      "alÄ±": 505,
      "Ġevery": 506,
      "ec": 507,
      "st": 508,
      "ĠL": 509,
      "Ä°": 510,
      "ek": 511,
      "ad": 512,
      "ut": 513,
      "Ġne": 514,
      "ĠÄ°": 515,
      "ayÄ±": 516,
      "Ġis": 517,
      "nda": 518,
      "Ġol": 519,
      "qu": 520,
      "ation": 521,
      "ow": 522,
      "Ġver": 523,
      "yi": 524,
      "lk": 525,
      "Ġkon": 526,
      "Ġde": 527,
      "Ġor": 528,
      "Ġit": 529,
      "lÄ±": 530,
      "med": 531,
      "Ġyap": 532,
      "sÄ±": 533,
      "Ġuyg": 534,
      "unu": 535,
      "iÅŁ": 536,
      "mak": 537,
      "ĠÃ¶ner": 538,
      "Ġof": 539,
      "em": 540,
      "Ġka": 541,
      "uÅŁ": 542,
      "urum": 543,
      "iniz": 544,
      "ĠO": 545,
      "'s": 546,
      "ler": 547,
      "Ġti": 548,
      "acak": 549,
      "Ġab": 550,
      "Ã¼Ã§": 551,
      "Ġqu": 552,
      "Ġres": 553,
      "ĠÄ°lk": 554,
      "Ġzor": 555,
      "Ġsim": 556,
      "Ġabout": 557,
      "ĠÃ¶neri": 558,
      "Ġiki": 559,
      "Ġco": 560,
      "ĠP": 561,
      "aman": 562,
      "Ġuygul": 563,
      "Ã¼Ã§Ã¼k": 564,
      "ĠÃ§": 565,
      "ĠBu": 566,
      "yor": 567,
      "Ġwh": 568,
      "Ġbul": 569,
      "tir": 570,
      "Ġzaman": 571,
      "usu": 572,
      "Ġnumara": 573,
      "aha": 574,
      "ĠkaÃ§": 575,
      "ely": 576,
      "ĠC": 577,
      "Ġsimple": 578,
      "Ġtime": 579,
      "ĠkÃ¼Ã§Ã¼k": 580,
      "th": 581,
      "ĠnumarasÄ±": 582,
      "ĠDurum": 583,
      "mir": 584,
      "ĠgÃ¼nÃ¼": 585,
      "Ġen": 586,
      "wer": 587,
      "Ġdaha": 588,
      "aya": 589,
      "Ġch": 590,
      "Ġ\"": 591,
      "Ġone": 592,
      "Ġkonusu": 593,
      "Ġuygulan": 594,
      "ĠayÄ±n": 595,
      "Ġzorlan": 596,
      "ĠI": 597,
      "Ġuygulanabilir": 598,
      "rief": 599,
      "Ġkonusunda": 600,
      "Ġmeet": 601,
      "gin": 602,
      "swer": 603,
      "ning": 604,
      "Ġnumar": 605,
      "Ġzorlanan": 606,
      "Ġbirine": 607,
      "Ġbegin": 608,
      "Ä±m": 609,
      "Ġquestion": 610,
      "10": 611,
      "**": 612,
      "Ã¼m": 613,
      "riefly": 614,
      "Ġanswer": 615,
      "ok": 616,
      "day": 617,
      "ĠnumaralÄ±": 618,
      "lat": 619,
      "ĠdeÄŁ": 620,
      "Ġwithout": 621,
      "ik": 622,
      "ayÄ±t": 623,
      "id": 624,
      "ĠEx": 625,
      "ample": 626,
      "Ġbeginner": 627,
      "ĠkayÄ±t": 628,
      "ĠbuluÅŁ": 629,
      "Ġeveryday": 630,
      "ĠExample": 631,
      "ĠBriefly": 632,
      "Ã¼z": 633,
      "Ġr": 634,
      "ter": 635,
      "Ä±z": 636,
      "ĠbuluÅŁacak": 637,
      "Ġkentindeki": 638,
      "tiv": 639,
      "ĠR": 640,
      "ĠgÃ¼nÃ¼nde": 641,
      "Ġle": 642,
      "eniz": 643,
      "Ġ(": 644,
      "lo": 645,
      "Ġdo": 646,
      "Ġyaz": 647,
      "Ġv": 648,
      "ĠSon": 649,
      "ang": 650,
      "ĠH": 651,
      "15": 652,
      "Ġac": 653,
      "'d": 654,
      "ĠbaÅŁlat": 655,
      "yorum": 656,
      "ill": 657,
      "12": 658,
      "larda": 659,
      "lik": 660,
      "sun": 661,
      "Ġisti": 662,
      "ate": 663,
      "ore": 664,
      "ĠAn": 665,
      "Ġj": 666,
      "inu": 667,
      "Ġanlam": 668,
      "iÅŁtir": 669,
      "ack": 670,
      "ĠOn": 671,
      "Ġolsun": 672,
      "ag": 673,
      "ĠcÃ¼m": 674,
      "inute": 675,
      "meden": 676,
      "ĠadÄ±mla": 677,
      "ĠBunu": 678,
      "ĠbaÅŁlatabilir": 679,
      "Ġistiyorum": 680,
      "leyi": 681,
      "Ġzamanlarda": 682,
      "ĠadÄ±mÄ±m": 683,
      "Ġwill": 684,
      "se": 685,
      "ĠbaÅŁlatabiliriz": 686,
      "Ġman": 687,
      "13": 688,
      "Ä±nÄ±z": 689,
      "Ġbu": 690,
      "ĠdeÄŁiÅŁtir": 691,
      "ap": 692,
      "lif": 693,
      "Ġplan": 694,
      "gh": 695,
      "Ġby": 696,
      "ĠanlamÄ±nÄ±": 697,
      "ĠcÃ¼mleyi": 698,
      "ĠdeÄŁiÅŁtirmeden": 699,
      "Ġsp": 700,
      "fore": 701,
      "ĠN": 702,
      "Ġbefore": 703,
      "14": 704,
      "ĠZ": 705,
      "ĠAr": 706,
      "abit": 707,
      "ĠMaya": 708,
      "Ġat": 709,
      "lay": 710,
      "ert": 711,
      "ĠElif": 712,
      "ĠMert": 713,
      "eyn": 714,
      "ask": 715,
      "ĠNo": 716,
      "ĠCan": 717,
      "Ġveya": 718,
      "ĠZeyn": 719,
      "om": 720,
      "ĠAda": 721,
      "ĠZeynep": 722,
      "ĠEce": 723,
      "art": 724,
      "ĠNoah": 725,
      "erve": 726,
      "ĠEmir": 727,
      "mal": 728,
      "ina": 729,
      "Ġreserve": 730,
      "ĠLina": 731,
      "ece": 732,
      "Ġchang": 733,
      "Ġhabit": 734,
      "Ġsa": 735,
      "Ġl": 736,
      "Ġmore": 737,
      "ĠÃ¶n": 738,
      "Ġse": 739,
      "Ã¼r": 740,
      "Ġtask": 741,
      "ĠArda": 742,
      "reak": 743,
      "ust": 744,
      "Ġfe": 745,
      "Ġsmal": 746,
      "Ġthis": 747,
      "de": 748,
      "ends": 749,
      "ĠDeniz": 750,
      "if": 751,
      "ue": 752,
      "Ġim": 753,
      "Ġthat": 754,
      "Ġyapmak": 755,
      "Ġra": 756,
      "Ġthan": 757,
      "ol": 758,
      "leep": 759,
      "16": 760,
      "Ġmean": 761,
      "rak": 762,
      "ip": 763,
      "ren": 764,
      "ew": 765,
      "oc": 766,
      "ch": 767,
      "ĠÃ": 768,
      "rite": 769,
      "ond": 770,
      "Ġola": 771,
      "Ġvar": 772,
      "Ġsmall": 773,
      "Ġgo": 774,
      "Ġye": 775,
      "Ġmeaning": 776,
      "Ġits": 777,
      "Ġlear": 778,
      "like": 779,
      "ght": 780,
      "ake": 781,
      "Ġchanging": 782,
      "ĠÅŁ": 783,
      "Ġfeel": 784,
      "Ġsleep": 785,
      "20": 786,
      "utu": 787,
      "Ġha": 788,
      "ĠRew": 789,
      "Ġconcisely": 790,
      "ĠRewrite": 791,
      "Ġal": 792,
      "Ġbo": 793,
      "ule": 794,
      "Ã¼ÅŁ": 795,
      "Ġint": 796,
      "ocus": 797,
      "ev": 798,
      "ĠÃ¶ÄŁ": 799,
      "ĠPra": 800,
      "dÄ±r": 801,
      "Ġev": 802,
      "ĠgÃ¶": 803,
      "ther": 804,
      "Ġ**": 805,
      "ini": 806,
      "Ġkal": 807,
      "eni": 808,
      "Ġmanag": 809,
      "Ġminute": 810,
      "Ġrather": 811,
      "ma": 812,
      "Ġmotiv": 813,
      "ne": 814,
      "Ġkutu": 815,
      "Ġtr": 816,
      "ment": 817,
      "ach": 818,
      "ain": 819,
      "Ġjust": 820,
      "Ġtra": 821,
      "lÄ±k": 822,
      "Ġfri": 823,
      "ell": 824,
      "ting": 825,
      "30": 826,
      "Ġminutes": 827,
      "ers": 828,
      "Ġar": 829,
      "vi": 830,
      "Ġda": 831,
      "Ġinto": 832,
      "Ã¼y": 833,
      "ĠU": 834,
      "Ġkutuda": 835,
      "Ġrout": 836,
      "ĠÃĸ": 837,
      "able": 838,
      "Ġreserved": 839,
      "Ġlearning": 840,
      "ĠÃ¶ÄŁren": 841,
      "vel": 842,
      "Ġcomm": 843,
      "iti": 844,
      "arÄ±": 845,
      "ca": 846,
      "Ġroutine": 847,
      "lin": 848,
      "17": 849,
      "king": 850,
      "Ġtop": 851,
      "ĠeÅŁ": 852,
      "Ä±k": 853,
      "Ġas": 854,
      "uy": 855,
      "ome": 856,
      "ilg": 857,
      "Ġbed": 858,
      "hip": 859,
      "thing": 860,
      "25": 861,
      "ard": 862,
      "Ġbel": 863,
      "Ġcan": 864,
      "Ġex": 865,
      "oto": 866,
      "Ġson": 867,
      "erlin": 868,
      "ĠBerlin": 869,
      "ile": 870,
      "medi": 871,
      "endship": 872,
      "tÄ±r": 873,
      "na": 874,
      "tal": 875,
      "slo": 876,
      "Ġwor": 877,
      "our": 878,
      "ĠOslo": 879,
      "ĠeÅŁya": 880,
      "ĠdÃ¼z": 881,
      "kara": 882,
      "ĠLond": 883,
      "inizi": 884,
      "ĠyÃ¼r": 885,
      "Ġtravel": 886,
      "ĠLondon": 887,
      "iny": 888,
      "ye": 889,
      "stan": 890,
      "ĠAnkara": 891,
      "ĠÃ¶nce": 892,
      "gan": 893,
      "28": 894,
      "gue": 895,
      "zmir": 896,
      "bul": 897,
      "bon": 898,
      "Ġtiny": 899,
      "ib": 900,
      "ĠLis": 901,
      "ganiz": 902,
      "stanbul": 903,
      "erek": 904,
      "Ġdak": 905,
      "ĠLisbon": 906,
      "ĠK": 907,
      "Ġimmedi": 908,
      "Ġdakik": 909,
      "ien": 910,
      "Ġover": 911,
      "Ġtasks": 912,
      "Ġorganiz": 913,
      "Ġhabits": 914,
      "talya": 915,
      "Ġyer": 916,
      "ific": 917,
      "ĠAntalya": 918,
      "Ġfocus": 919,
      "Ġlike": 920,
      "18": 921,
      "Ġspec": 922,
      "Ġolarak": 923,
      "larÄ±": 924,
      "up": 925,
      "-b": 926,
      "ication": 927,
      "her": 928,
      "raf": 929,
      "eep": 930,
      "ĠUse": 931,
      "Ġbelir": 932,
      "Ġiyi": 933,
      "Ġkit": 934,
      "ĠPrague": 935,
      "Ġspecific": 936,
      "ĠV": 937,
      "lÃ¼k": 938,
      "Ġplanning": 939,
      "Ġcom": 940,
      "ĠIzmir": 941,
      "ps": 942,
      "lang": 943,
      "ure": 944,
      "Ġhome": 945,
      "otoÄŁ": 946,
      "ud": 947,
      "otoÄŁraf": 948,
      "ying": 949,
      "adece": 950,
      "23": 951,
      "oga": 952,
      "Ġwell": 953,
      "Ġsor": 954,
      "ienna": 955,
      "Ġeach": 956,
      "ĠVienna": 957,
      "24": 958,
      "ĠyÃ¼rÃ¼y": 959,
      "unication": 960,
      "Ä±ÅŁ": 961,
      "Ġwe": 962,
      "Ġfriendship": 963,
      "edule": 964,
      "Ġlist": 965,
      "'t": 966,
      "ĠAy": 967,
      "ste": 968,
      "ĠyÃ¼z": 969,
      "ilgi": 970,
      "Ġbreak": 971,
      "ley": 972,
      "Ġmotivation": 973,
      "ĠHow": 974,
      "Ġyoga": 975,
      "ĠbaÅŁlay": 976,
      "ĠfotoÄŁraf": 977,
      "est": 978,
      "Ġph": 979,
      "Ġwhat": 980,
      "eing": 981,
      "ka": 982,
      "anÄ±z": 983,
      "lg": 984,
      "Ġok": 985,
      "bilir": 986,
      "11": 987,
      "ind": 988,
      "stead": 989,
      "ening": 990,
      "-being": 991,
      "ĠIstanbul": 992,
      "tick": 993,
      "ement": 994,
      "Ġdil": 995,
      "ately": 996,
      "Ġbah": 997,
      "ĠyÃ¼rÃ¼yÃ¼ÅŁ": 998,
      "Ġimmediately": 999,
      "ĠSt": 1000,
      "Ġcommunication": 1001,
      "abah": 1002,
      "Ġste": 1003,
      "Ġtoplam": 1004,
      "ild": 1005,
      "Ġmanagement": 1006,
      "Ġgoal": 1007,
      "ĠHer": 1008,
      "ĠvardÄ±r": 1009,
      "Ġstart": 1010,
      "Ġot": 1011,
      "Ġinstead": 1012,
      "Ġitem": 1013,
      "ig": 1014,
      "cel": 1015,
      "Ġkitap": 1016,
      "26": 1017,
      "Ġorganization": 1018,
      "Ġsonra": 1019,
      "Ġtut": 1020,
      "Ġilg": 1021,
      "Ġsadece": 1022,
      "Ġno": 1023,
      "reate": 1024,
      "ĠgÃ¼nlÃ¼k": 1025,
      "-m": 1026,
      "cak": 1027,
      "ĠBreak": 1028,
      "27": 1029,
      "Ġyemek": 1030,
      "ĠbahÃ§": 1031,
      "ress": 1032,
      "Ġus": 1033,
      "Ġet": 1034,
      "uÄŁ": 1035,
      "inde": 1036,
      "-minute": 1037,
      "unuz": 1038,
      "Ġkend": 1039,
      "ĠÃ§ek": 1040,
      "vo": 1041,
      "Ġmany": 1042,
      "void": 1043,
      "Ġher": 1044,
      "ity": 1045,
      "avi": 1046,
      "Ġcle": 1047,
      "ĠseÃ§": 1048,
      "80": 1049,
      "siniz": 1050,
      "edef": 1051,
      "Ġbook": 1052,
      "ily": 1053,
      "tions": 1054,
      "ick": 1055,
      "aking": 1056,
      "ally": 1057,
      "Ġkalem": 1058,
      "ĠF": 1059,
      "Ġweek": 1060,
      "ĠStart": 1061,
      "Ġup": 1062,
      "Ġmeets": 1063,
      "den": 1064,
      "sel": 1065,
      "Ä±nÄ±zÄ±": 1066,
      "Ġsilgi": 1067,
      "ĠyÃ¶": 1068,
      "sist": 1069,
      "iÄŁ": 1070,
      "Ġcomple": 1071,
      "Ġset": 1072,
      "22": 1073,
      "nal": 1074,
      "asÄ±": 1075,
      "ten": 1076,
      "ĠpiÅŁ": 1077,
      "Ġwhen": 1078,
      "Ġkul": 1079,
      "Ġwork": 1080,
      "port": 1081,
      "Ġinter": 1082,
      "Ġtrying": 1083,
      "loc": 1084,
      "reen": 1085,
      "Ġhedef": 1086,
      "Ġun": 1087,
      "Ġthem": 1088,
      "ĠdÃ¼zeni": 1089,
      "ĠalÄ±": 1090,
      "alÄ±ÅŁ": 1091,
      "Ġactiv": 1092,
      "Ġokum": 1093,
      "Ġilgil": 1094,
      "ings": 1095,
      "ÅŁam": 1096,
      "arak": 1097,
      "ord": 1098,
      "Ġresim": 1099,
      "Ġkullan": 1100,
      "ere": 1101,
      "ndan": 1102,
      "ÄŁin": 1103,
      "Ġfr": 1104,
      "Ġdakika": 1105,
      "Ġdaily": 1106,
      "Ġte": 1107,
      "88": 1108,
      "Ä±nda": 1109,
      "Ġdid": 1110,
      "Ġed": 1111,
      "Ġback": 1112,
      "Ġout": 1113,
      "light": 1114,
      "Ġconsist": 1115,
      "Ġeven": 1116,
      "Ġcev": 1117,
      "irst": 1118,
      "asy": 1119,
      "Ã¼re": 1120,
      "Ġbas": 1121,
      "Ġif": 1122,
      "ĠiÅŁ": 1123,
      "Ġitems": 1124,
      "Ġmoment": 1125,
      "ecord": 1126,
      "33": 1127,
      "ĠRecord": 1128,
      "op": 1129,
      "Ġhour": 1130,
      "90": 1131,
      "Ġod": 1132,
      "Ġbuild": 1133,
      "ving": 1134,
      "Ä±rm": 1135,
      "Ġclear": 1136,
      "Ġsaat": 1137,
      "Ġsteps": 1138,
      "ci": 1139,
      "leri": 1140,
      "Ġ=": 1141,
      "and": 1142,
      "Ġcevap": 1143,
      "Ġthen": 1144,
      "Ġfirst": 1145,
      "ĠÃ§alÄ±ÅŁ": 1146,
      "Ä±zÄ±": 1147,
      "nder": 1148,
      ":Ċ": 1149,
      "own": 1150,
      "are": 1151,
      "ĠpiÅŁir": 1152,
      "kan": 1153,
      "tiÅŁ": 1154,
      "ken": 1155,
      "tive": 1156,
      "Ġfrom": 1157,
      "ĠdoÄŁ": 1158,
      "age": 1159,
      "wh": 1160,
      "ĠÃĸn": 1161,
      "leyin": 1162,
      "ff": 1163,
      "Ġtem": 1164,
      "ĠÃ¶ÄŁrenmek": 1165,
      "rne": 1166,
      "tice": 1167,
      "Ġsu": 1168,
      "langÄ±": 1169,
      "60": 1170,
      "40": 1171,
      "ÅŁil": 1172,
      "laÅŁ": 1173,
      "Ä±rmÄ±zÄ±": 1174,
      "rneÄŁin": 1175,
      "ĠyeÅŁil": 1176,
      "eri": 1177,
      "Ġmavi": 1178,
      "Ġonce": 1179,
      "ĠkÄ±rmÄ±zÄ±": 1180,
      "Ġneed": 1181,
      "yaz": 1182,
      "ÄŁÄ±": 1183,
      "Ġilk": 1184,
      "Ġget": 1185,
      "ĠgÃ¶re": 1186,
      "Ġconsistent": 1187,
      "ion": 1188,
      "Ġread": 1189,
      "Ġoverwh": 1190,
      "Ġoverwhel": 1191,
      "oriti": 1192,
      "Ġaz": 1193,
      "ku": 1194,
      "tiÅŁim": 1195,
      "Ġred": 1196,
      "yle": 1197,
      "Ġge": 1198,
      "ĠSch": 1199,
      "ĠÃ§ok": 1200,
      "ĠSchedule": 1201,
      "celik": 1202,
      "Ġkeep": 1203,
      "21": 1204,
      "Ġko": 1205,
      "nÄ±z": 1206,
      "ze": 1207,
      "ro": 1208,
      "Ġwal": 1209,
      "ĠalÄ±ÅŁ": 1210,
      "ingle": 1211,
      "50": 1212,
      "Ġsingle": 1213,
      "19": 1214,
      "Ġbeyaz": 1215,
      "rar": 1216,
      "mi": 1217,
      "Ġhem": 1218,
      "alnÄ±z": 1219,
      "ĠbahÃ§ey": 1220,
      "Ä±na": 1221,
      "maya": 1222,
      "ĠPick": 1223,
      "self": 1224,
      "ĠsÃ¼re": 1225,
      "Ġyourself": 1226,
      "Ġsc": 1227,
      "ĠÅŁey": 1228,
      "Ġavoid": 1229,
      "83": 1230,
      "Ġbasit": 1231,
      "ĠsarÄ±": 1232,
      "ecek": 1233,
      "ree": 1234,
      "ÄŁi": 1235,
      "Ġnew": 1236,
      "Ġden": 1237,
      "Ġodak": 1238,
      "ilece": 1239,
      "langÄ±Ã§": 1240,
      "Ġel": 1241,
      "duÄŁ": 1242,
      "anÄ±": 1243,
      "ĠÃ§ekmek": 1244,
      "Ġokumak": 1245,
      "ect": 1246,
      "uyu": 1247,
      "daÅŁ": 1248,
      "reat": 1249,
      "alnÄ±zca": 1250,
      "ark": 1251,
      "Ġdoing": 1252,
      "ted": 1253,
      "Ġdown": 1254,
      "ĠBir": 1255,
      "cle": 1256,
      "lu": 1257,
      "70": 1258,
      "Ġmanage": 1259,
      "kadaÅŁ": 1260,
      "aki": 1261,
      "Ġbi": 1262,
      "ĠYalnÄ±zca": 1263,
      "Ġkay": 1264,
      "ĠbahÃ§eyle": 1265,
      "ĠCreate": 1266,
      "ook": 1267,
      "Ġyeni": 1268,
      "ĠiletiÅŁim": 1269,
      "mayÄ±": 1270,
      "amer": 1271,
      "84": 1272,
      "Ġexp": 1273,
      "Ġtutmak": 1274,
      "Ġonly": 1275,
      "ta": 1276,
      "si": 1277,
      "Ġeverything": 1278,
      "ace": 1279,
      "Ġdurum": 1280,
      "Ġsabah": 1281,
      "low": 1282,
      "ĠpiÅŁirmek": 1283,
      "ni": 1284,
      "29": 1285,
      "ĠalÄ±ÅŁkan": 1286,
      "tÄ±": 1287,
      "asyon": 1288,
      "Ġyerine": 1289,
      "ĠAyÄ±n": 1290,
      "ge": 1291,
      "ibi": 1292,
      "nderst": 1293,
      "ĠsaÄŁ": 1294,
      "oritize": 1295,
      "Ġilgilen": 1296,
      "Ġnote": 1297,
      "ide": 1298,
      "Ġist": 1299,
      "34": 1300,
      "Ġuyku": 1301,
      "ĠbaÅŁlam": 1302,
      "ycle": 1303,
      "tain": 1304,
      "Ġtack": 1305,
      "Ġtek": 1306,
      "ĠSet": 1307,
      "elef": 1308,
      "Ġgoals": 1309,
      "tan": 1310,
      "cÄ±": 1311,
      "utter": 1312,
      "lutter": 1313,
      "Ġother": 1314,
      "Ġmanageable": 1315,
      "Ġsay": 1316,
      "Ġara": 1317,
      "Ġgibi": 1318,
      "Ġodaklan": 1319,
      "Ġlistening": 1320,
      "celikle": 1321,
      "ct": 1322,
      "ĠÃ¶ÄŁrenme": 1323,
      "Ġsomething": 1324,
      "ticket": 1325,
      "Ġak": 1326,
      "Ġilgilenmek": 1327,
      "Ġscreen": 1328,
      "Ġuygun": 1329,
      "Ġticket": 1330,
      "rou": 1331,
      "Ġthey": 1332,
      "Ġmomentum": 1333,
      "Ġpro": 1334,
      "ks": 1335,
      "ĠW": 1336,
      "elefon": 1337,
      "Ġsch": 1338,
      "ĠyÃ¼zmek": 1339,
      "lant": 1340,
      "ible": 1341,
      "Ġany": 1342,
      "ech": 1343,
      "ĠarkadaÅŁ": 1344,
      "inin": 1345,
      "Ġyol": 1346,
      "ĠbaÅŁlangÄ±Ã§": 1347,
      "Ġdeep": 1348,
      "Ġunderst": 1349,
      "hat": 1350,
      "Ġreg": 1351,
      "Ġpers": 1352,
      "ĠyaÅŁam": 1353,
      "85": 1354,
      "Ġreading": 1355,
      "Ġrule": 1356,
      "pp": 1357,
      "Ġsiz": 1358,
      "ahat": 1359,
      "Ġchec": 1360,
      "ĠgeÃ§": 1361,
      "rac": 1362,
      "book": 1363,
      "Ġdur": 1364,
      "eyahat": 1365,
      "Ġusing": 1366,
      "lem": 1367,
      "niqu": 1368,
      "echniqu": 1369,
      "ire": 1370,
      "Ġhe": 1371,
      "Ġdist": 1372,
      "ular": 1373,
      "ĠolduÄŁ": 1374,
      "35": 1375,
      "Ġlow": 1376,
      "87": 1377,
      "Ġlam": 1378,
      "ven": 1379,
      "36": 1380,
      "Ġpo": 1381,
      "86": 1382,
      "ite": 1383,
      "Ġwake": 1384,
      "89": 1385,
      "Ġ+": 1386,
      "pack": 1387,
      "Ġgen": 1388,
      "ĠKeep": 1389,
      "37": 1390,
      "dan": 1391,
      "Ġbackpack": 1392,
      "Ġplant": 1393,
      "Ã¶rneÄŁin": 1394,
      "inize": 1395,
      "Ġsess": 1396,
      "ĠgÃ¼": 1397,
      "adan": 1398,
      "Ġtea": 1399,
      "ctice": 1400,
      "ĠPractice": 1401,
      "ĠdoÄŁr": 1402,
      "Ġri": 1403,
      "Ġer": 1404,
      "eler": 1405,
      "Ġmost": 1406,
      "ary": 1407,
      "Ġoff": 1408,
      "xt": 1409,
      "Ġkur": 1410,
      "Ġnotebook": 1411,
      "ĠyÃ¶ne": 1412,
      "Ġfive": 1413,
      "49": 1414,
      "Ġbl": 1415,
      "Ġweekends": 1416,
      "ĠalÄ±ÅŁkanlÄ±k": 1417,
      "Ġjack": 1418,
      "Ġsame": 1419,
      "Ġgerek": 1420,
      "Ġjacket": 1421,
      "Ġunderstand": 1422,
      "ĠyÃ¶neti": 1423,
      "Ġbic": 1424,
      "Ġresp": 1425,
      "leme": 1426,
      "Ġmotivasyon": 1427,
      "Ġbicycle": 1428,
      "ĠdÃ¼ÅŁ": 1429,
      "alÄ±k": 1430,
      "manÄ±z": 1431,
      "Ġbet": 1432,
      "enc": 1433,
      "rioritize": 1434,
      "echnique": 1435,
      "rn": 1436,
      "az": 1437,
      "Ġrest": 1438,
      "Ġtheir": 1439,
      "Ġmain": 1440,
      "bilece": 1441,
      "Ġdon": 1442,
      "Ġprev": 1443,
      "Ġscreens": 1444,
      "Ä±p": 1445,
      "angi": 1446,
      "ose": 1447,
      "Ġperson": 1448,
      "ong": 1449,
      "ĠPrioritize": 1450,
      "Ġtam": 1451,
      "ĠyÃ¶netimi": 1452,
      "uage": 1453,
      "Ġlang": 1454,
      "Ġprevent": 1455,
      "Ġlanguage": 1456,
      "use": 1457,
      "Ġseyahat": 1458,
      "leÅŁ": 1459,
      "akk": 1460,
      "abilirsiniz": 1461,
      "orning": 1462,
      "Ġsw": 1463,
      "len": 1464,
      "Ġschedule": 1465,
      "aÄŁ": 1466,
      "Ġmorning": 1467,
      "act": 1468,
      "Ġkar": 1469,
      "dÄ±ndan": 1470,
      "ati": 1471,
      "Ġtri": 1472,
      "Ġdeney": 1473,
      "Ġgel": 1474,
      "Ġblue": 1475,
      "ich": 1476,
      "ĠkonuÅŁ": 1477,
      "Ġcamer": 1478,
      "Ġimport": 1479,
      "fter": 1480,
      "Ġdes": 1481,
      "ph": 1482,
      "Ġmat": 1483,
      "Ġener": 1484,
      "Ġhakk": 1485,
      "Ġtelefon": 1486,
      "Ġcal": 1487,
      "Ġiler": 1488,
      "Ġkolay": 1489,
      "Ġedin": 1490,
      "ĠSabah": 1491,
      "ry": 1492,
      "tur": 1493,
      "Ġwhich": 1494,
      "ĠFocus": 1495,
      "ody": 1496,
      "Ġhemen": 1497,
      "akes": 1498,
      "ĠarkadaÅŁlÄ±k": 1499,
      "Ġmake": 1500,
      "Ġafter": 1501,
      "ĠplanÄ±": 1502,
      "ĠhakkÄ±nda": 1503,
      "anÄ±t": 1504,
      "Ġspe": 1505,
      "Ġtackle": 1506,
      "Ġall": 1507,
      "Ġbody": 1508,
      "Ġthree": 1509,
      ":**": 1510,
      "Ġrep": 1511,
      "Ġhaf": 1512,
      "Ġdistrac": 1513,
      "iss": 1514,
      "ĠPa": 1515,
      "Ä±l": 1516,
      "odor": 1517,
      "Ġpri": 1518,
      "Ġjour": 1519,
      "Ġfeeling": 1520,
      "odoro": 1521,
      "Ġsession": 1522,
      "lemek": 1523,
      "omodoro": 1524,
      "ast": 1525,
      "ĠyÃ¶n": 1526,
      "ĠdÃ¼zen": 1527,
      "ight": 1528,
      "Ġkad": 1529,
      "Ġwhere": 1530,
      "ĠÃ§Ä±k": 1531,
      "Ġactivity": 1532,
      "ĠalÄ±ÅŁkanlÄ±klar": 1533,
      "ĠyanÄ±t": 1534,
      "Ġek": 1535,
      "Ã¶z": 1536,
      "Ġbur": 1537,
      "ces": 1538,
      "Ġyapacak": 1539,
      "ĠGÃ¼n": 1540,
      "Ġactive": 1541,
      "Ġmaintain": 1542,
      "ĠaÃ§": 1543,
      "Ġop": 1544,
      "reath": 1545,
      "ĠadÄ±mÄ±nÄ±z": 1546,
      "Ġphone": 1547,
      "als": 1548,
      "ward": 1549,
      "ating": 1550,
      "Ġkadar": 1551,
      "Ġbreath": 1552,
      "Ġstud": 1553,
      "bilirsiniz": 1554,
      "Ġgard": 1555,
      "layÄ±n": 1556,
      "kil": 1557,
      "ĠgÃ¶r": 1558,
      "ination": 1559,
      "rnek": 1560,
      "Ġnext": 1561,
      "ĠTh": 1562,
      "ts": 1563,
      "Ġacc": 1564,
      "Ġcook": 1565,
      "time": 1566,
      "Ġolm": 1567,
      "-p": 1568,
      "Ġjournal": 1569,
      "Ġimportant": 1570,
      "meye": 1571,
      "ede": 1572,
      "kin": 1573,
      "Ġright": 1574,
      "Ġnef": 1575,
      "ĠgÃ¼nÃ¼n": 1576,
      "Ġreduce": 1577,
      "rol": 1578,
      "Ġro": 1579,
      "ĠyapÄ±n": 1580,
      "iner": 1581,
      "Ġwalk": 1582,
      "Ġpain": 1583,
      "Ġthings": 1584,
      "ayÄ±n": 1585,
      "ÄŁÄ±nÄ±z": 1586,
      "Ġcomplete": 1587,
      "00": 1588,
      "Ġlearn": 1589,
      "ated": 1590,
      "ound": 1591,
      "Ġolan": 1592,
      "Ġsora": 1593,
      "Ġoften": 1594,
      "Ġitiner": 1595,
      "ĠbaÅŁlayan": 1596,
      "til": 1597,
      "Ġoverwhelmed": 1598,
      "Ġyarar": 1599,
      "for": 1600,
      "Ġtamam": 1601,
      "Ġsoruyu": 1602,
      "Ġnefes": 1603,
      "Ġuse": 1604,
      "Ġper": 1605,
      "Ġalan": 1606,
      "ance": 1607,
      "ĠhÄ±z": 1608,
      "Ġgardening": 1609,
      "82": 1610,
      "Ġbirinin": 1611,
      "Ġclutter": 1612,
      "ĠbÃ¶": 1613,
      "Ġstre": 1614,
      "Ġbig": 1615,
      "Ġbreaks": 1616,
      "Ġla": 1617,
      "Ġtemel": 1618,
      "Ġhow": 1619,
      "Ġens": 1620,
      "Ġbelirleyin": 1621,
      "ays": 1622,
      "Ġapp": 1623,
      "45": 1624,
      "Ġtake": 1625,
      "Ġaction": 1626,
      "hi": 1627,
      "omm": 1628,
      "saj": 1629,
      "Ġaw": 1630,
      "emli": 1631,
      "Ġmoving": 1632,
      "ÅŁÄ±": 1633,
      "Ġolacak": 1634,
      "uz": 1635,
      "32": 1636,
      "Ġeas": 1637,
      "wn": 1638,
      "Ġroom": 1639,
      "ĠÃ¶z": 1640,
      "imde": 1641,
      "dir": 1642,
      "lerinizi": 1643,
      "ĠiÃ§inde": 1644,
      "Ġcheck": 1645,
      "Ġduring": 1646,
      "ĠÄ±ÅŁ": 1647,
      "ĠÅŁek": 1648,
      "bileceÄŁi": 1649,
      "Ġcreate": 1650,
      "Ġlamp": 1651,
      "Ġshare": 1652,
      "ĠbiÃ§": 1653,
      "ĠÃĸrnek": 1654,
      "Ġlo": 1655,
      "Ġtechnique": 1656,
      "larÄ±nÄ±": 1657,
      "ĠÃĸncelikle": 1658,
      "ĠgÃ¼ven": 1659,
      "ĠyanÄ±tla": 1660,
      "Ġitinerary": 1661,
      "ĠyararlÄ±": 1662,
      "rek": 1663,
      "ĠbiÃ§imde": 1664,
      "ĠbaÅŁlamak": 1665,
      "Ġgood": 1666,
      "ĠsorabileceÄŁi": 1667,
      "Ġthing": 1668,
      "ĠÃĸnce": 1669,
      "Ġlight": 1670,
      "Ġflight": 1671,
      "ĠoluÅŁ": 1672,
      "Ġdi": 1673,
      "Ġharek": 1674,
      "Ġoverwhelm": 1675,
      "ĠardÄ±ndan": 1676,
      "Ġfin": 1677,
      "Ġachi": 1678,
      "madan": 1679,
      "Ġfocused": 1680,
      "Ġbox": 1681,
      "44": 1682,
      "Ġpe": 1683,
      "Ġhave": 1684,
      "mo": 1685,
      "ĠÃ¶nemli": 1686,
      "Ġdistractions": 1687,
      "-up": 1688,
      "trol": 1689,
      "ĠStick": 1690,
      "Ġmaking": 1691,
      "ĠdeÄŁil": 1692,
      "ess": 1693,
      "Ġconn": 1694,
      "Ġdet": 1695,
      "81": 1696,
      "Ġkendi": 1697,
      "lock": 1698,
      "ĠtÃ¼r": 1699,
      "Ġhiss": 1700,
      "tely": 1701,
      "ĠsÄ±": 1702,
      "Ġcooking": 1703,
      "Ġspace": 1704,
      "Ġwhile": 1705,
      "ĠdÃ¼ÅŁÃ¼n": 1706,
      "Ġnet": 1707,
      "tu": 1708,
      "ĠkarÅŁÄ±": 1709,
      "Ġsorun": 1710,
      "ĠbaÅŁlayÄ±n": 1711,
      "ÄŁer": 1712,
      "Ġuz": 1713,
      "rain": 1714,
      "yun": 1715,
      "eli": 1716,
      "cess": 1717,
      "Ġstudy": 1718,
      "Ġhangi": 1719,
      "ĠÅŁu": 1720,
      "ediÄŁ": 1721,
      "Ġcommit": 1722,
      "ĠPomodoro": 1723,
      "uc": 1724,
      "lace": 1725,
      "lex": 1726,
      "ÄŁÄ±nÄ±": 1727,
      "Ġpainting": 1728,
      "Ġcompletely": 1729,
      "Ġuygulam": 1730,
      "Ġleast": 1731,
      "alar": 1732,
      "ities": 1733,
      "Ġwant": 1734,
      "rin": 1735,
      "ĠTake": 1736,
      "rough": 1737,
      "meyi": 1738,
      "Ġwat": 1739,
      "Ġfol": 1740,
      "Ã¼yÃ¼k": 1741,
      "rup": 1742,
      "Ġcamera": 1743,
      "Ġgreen": 1744,
      "Ġdin": 1745,
      "Ġthrough": 1746,
      "edic": 1747,
      "Ġsig": 1748,
      "ĠÃ¼z": 1749,
      "Ġaway": 1750,
      "Ġstri": 1751,
      "Ġflex": 1752,
      "Ġhi": 1753,
      "iler": 1754,
      "Ġkap": 1755,
      "31": 1756,
      "ether": 1757,
      "Ġjournaling": 1758,
      "Ġdest": 1759,
      "ĠsayÄ±": 1760,
      "Ġrespond": 1761,
      "Ġarea": 1762,
      "mes": 1763,
      "ents": 1764,
      "Ġwhite": 1765,
      "lish": 1766,
      "ellik": 1767,
      "ÄŁiniz": 1768,
      "46": 1769,
      "oy": 1770,
      "Ä±nÄ±n": 1771,
      "ĠMo": 1772,
      "ellow": 1773,
      "ffe": 1774,
      "asÄ±nÄ±": 1775,
      "Ġhaz": 1776,
      "meniz": 1777,
      "Ġtimes": 1778,
      "ĠistediÄŁ": 1779,
      "ĠÅŁekil": 1780,
      "sh": 1781,
      "Ġyellow": 1782,
      "Ġstrict": 1783,
      "Ġchange": 1784,
      "yors": 1785,
      "iting": 1786,
      "ens": 1787,
      "Ġdestination": 1788,
      "Ġbest": 1789,
      "Ġeff": 1790,
      "Ġconnec": 1791,
      "ils": 1792,
      "Ġnat": 1793,
      "47": 1794,
      "Ġfinish": 1795,
      "Ġregular": 1796,
      "ix": 1797,
      "Ġama": 1798,
      "Ġyar": 1799,
      "Ġmind": 1800,
      "ower": 1801,
      "Ġ*": 1802,
      "Ġort": 1803,
      "Ġhours": 1804,
      "Ġetkil": 1805,
      "Ġquestions": 1806,
      "line": 1807,
      "we": 1808,
      "ĠIn": 1809,
      "Ġayda": 1810,
      "Ġenti": 1811,
      "Ġfollow": 1812,
      "Ġhelps": 1813,
      "Ġentire": 1814,
      "ous": 1815,
      "ĠyÃ¶ntem": 1816,
      "Ġdedic": 1817,
      "av": 1818,
      "lerini": 1819,
      "ople": 1820,
      "gy": 1821,
      "Ġkontrol": 1822,
      "Ġlong": 1823,
      "cut": 1824,
      "ĠIt": 1825,
      "ĠgÃ¶z": 1826,
      "Ġpeople": 1827,
      "Ġsup": 1828,
      "ĠSonra": 1829,
      "ĠÅŁekilde": 1830,
      "Ġdark": 1831,
      "ĠyapÄ±": 1832,
      "Ġerken": 1833,
      "ĠMotiv": 1834,
      "ĠoluÅŁtur": 1835,
      "ĠhazÄ±r": 1836,
      "erin": 1837,
      "rÄ±": 1838,
      "ĠAvoid": 1839,
      "Ġensure": 1840,
      "Ġrec": 1841,
      "otogra": 1842,
      "Ġwalking": 1843,
      "Ġimp": 1844,
      "ĠEÄŁer": 1845,
      "Ġyak": 1846,
      "ressure": 1847,
      "ylece": 1848,
      "-pressure": 1849,
      "ass": 1850,
      "ysic": 1851,
      "Ġmesaj": 1852,
      "ins": 1853,
      "Ġhareket": 1854,
      "Ġphysic": 1855,
      "Ġdis": 1856,
      "ellikle": 1857,
      "ĠCh": 1858,
      "Ġburn": 1859,
      "get": 1860,
      "ĠWhat": 1861,
      "Ġess": 1862,
      "ush": 1863,
      "Ġvis": 1864,
      "form": 1865,
      "Ä±rak": 1866,
      "Ġtod": 1867,
      "Ġyat": 1868,
      "Ġchun": 1869,
      "Ġflexible": 1870,
      "Ġetkili": 1871,
      "Ġolur": 1872,
      "ency": 1873,
      "di": 1874,
      "likte": 1875,
      "Ġfeels": 1876,
      "Ġphotogra": 1877,
      "kinci": 1878,
      "luk": 1879,
      "ĠakÅŁam": 1880,
      "eÅŁ": 1881,
      "Ġessenti": 1882,
      "Ġphotograph": 1883,
      "pec": 1884,
      "Ġelse": 1885,
      "Ġtoday": 1886,
      "Ġfeelings": 1887,
      "read": 1888,
      "Ġduy": 1889,
      "ĠdakikalÄ±k": 1890,
      "Ġsignal": 1891,
      "96": 1892,
      "Ġcool": 1893,
      "sÄ±nÄ±z": 1894,
      "Ġbrain": 1895,
      "ĠbÄ±rak": 1896,
      "Ġactivities": 1897,
      "Ġtry": 1898,
      "Ġstarting": 1899,
      "iff": 1900,
      "ves": 1901,
      "room": 1902,
      "diÄŁ": 1903,
      "Ġburnout": 1904,
      "ĠolacaktÄ±r": 1905,
      "Ġphotography": 1906,
      "Ġwho": 1907,
      "oth": 1908,
      "ween": 1909,
      "lend": 1910,
      "Ġbetween": 1911,
      "Ġstress": 1912,
      "Ġresponding": 1913,
      "Ġdiff": 1914,
      "Ġwater": 1915,
      "ling": 1916,
      "ĠhÄ±zlÄ±": 1917,
      "Ġchunks": 1918,
      "Ġmatter": 1919,
      "95": 1920,
      "imi": 1921,
      "Ġunderstanding": 1922,
      "udan": 1923,
      "Ġbek": 1924,
      "lama": 1925,
      "Ġur": 1926,
      "ĠGo": 1927,
      "Ġhedefler": 1928,
      "denti": 1929,
      "ĠyardÄ±m": 1930,
      "layÄ±": 1931,
      "mer": 1932,
      "man": 1933,
      "Ġbut": 1934,
      "inizde": 1935,
      "Ġless": 1936,
      "ĠMotivation": 1937,
      "ual": 1938,
      "Ã¼c": 1939,
      "ching": 1940,
      "leÅŁtir": 1941,
      "dentif": 1942,
      "Ġenergy": 1943,
      "97": 1944,
      "Ġsonraki": 1945,
      "Ġtemiz": 1946,
      "Ġuntil": 1947,
      "Ġilgili": 1948,
      "ĠÃ¼zer": 1949,
      "..": 1950,
      "unda": 1951,
      "now": 1952,
      "ize": 1953,
      "oose": 1954,
      "Ġinc": 1955,
      "app": 1956,
      "Ġeasi": 1957,
      "ogether": 1958,
      "Ġgoing": 1959,
      "Ġbedroom": 1960,
      "Ġmess": 1961,
      "65": 1962,
      "aster": 1963,
      "ans": 1964,
      "Ġtogether": 1965,
      "ĠTry": 1966,
      "ĠBaÅŁ": 1967,
      "Ġgid": 1968,
      "land": 1969,
      "Ġanything": 1970,
      "Ġstay": 1971,
      "uyun": 1972,
      "Ġayar": 1973,
      "Ġrela": 1974,
      "Ã¼nde": 1975,
      "Ġcont": 1976,
      "Ġdec": 1977,
      "Ġtekrar": 1978,
      "Ġyet": 1979,
      "Ġboyun": 1980,
      "Ġspeaking": 1981,
      "Ġasking": 1982,
      "Ġbr": 1983,
      "ĠbaÅŁlayabilirsiniz": 1984,
      "Ġbilg": 1985,
      "Ġdeneyin": 1986,
      "Ġboyunca": 1987,
      "Ġmove": 1988,
      "ways": 1989,
      "Ġbak": 1990,
      "ĠkiÅŁ": 1991,
      "Ġphysical": 1992,
      "Ġimmediate": 1993,
      "Ġmu": 1994,
      "ĠÃ§alÄ±ÅŁÄ±n": 1995,
      "Ã§ek": 1996,
      "asÄ±l": 1997,
      "rate": 1998,
      "Ġolabilir": 1999,
      "imming": 2000,
      "'re": 2001,
      "Ġtickets": 2002,
      "ear": 2003,
      "mÄ±ÅŁ": 2004,
      "Ġnow": 2005,
      "Ġswimming": 2006,
      "ld": 2007,
      "Ġiz": 2008,
      "ĠFri": 2009,
      "ĠbÃ¼yÃ¼k": 2010,
      "ĠgÃ¼venli": 2011,
      "ĠÃ§Ã¶z": 2012,
      "ffee": 2013,
      "Ġtrip": 2014,
      "Ġeasier": 2015,
      "Ġrepe": 2016,
      "pt": 2017,
      "Ġmev": 2018,
      "Ġnight": 2019,
      "Ġconf": 2020,
      "min": 2021,
      "Ġnatur": 2022,
      "75": 2023,
      "Ġbedtime": 2024,
      ".\"": 2025,
      "Ġhisset": 2026,
      "uk": 2027,
      "Ġhigh": 2028,
      "Ġcoffee": 2029,
      "atik": 2030,
      "Ġpress": 2031,
      "ĠÄ°stanbul": 2032,
      "Ġstep": 2033,
      "vir": 2034,
      "Ġment": 2035,
      "Ġachiev": 2036,
      "unuzu": 2037,
      "Ġenj": 2038,
      "ĠPair": 2039,
      "Ġsize": 2040,
      "kÃ¼": 2041,
      "Ġlar": 2042,
      "onment": 2043,
      "vironment": 2044,
      "ĠÄ°kinci": 2045,
      "Ġhav": 2046,
      "Ġfriend": 2047,
      "Ġmevcut": 2048,
      "Ġloc": 2049,
      "Ġfocusing": 2050,
      "Ġpressure": 2051,
      "Ġbud": 2052,
      "isi": 2053,
      "Ġfix": 2054,
      "76": 2055,
      "oun": 2056,
      "cek": 2057,
      "39": 2058,
      "ĠdoÄŁrudan": 2059,
      "Ã§e": 2060,
      "âĢ": 2061,
      "ence": 2062,
      "100": 2063,
      "Ġazal": 2064,
      "Ġenvironment": 2065,
      "Ġflights": 2066,
      "leyerek": 2067,
      "Ġrahat": 2068,
      "120": 2069,
      "Ã¼t": 2070,
      "Ġactu": 2071,
      "hers": 2072,
      "Ġbirlikte": 2073,
      "inden": 2074,
      "Ġsen": 2075,
      "eleri": 2076,
      "Ġbetter": 2077,
      "rÄ±ca": 2078,
      "Ġothers": 2079,
      "hti": 2080,
      "kaÃ§": 2081,
      "ĠyardÄ±mcÄ±": 2082,
      "ugÃ¼n": 2083,
      "ĠadÄ±mÄ±": 2084,
      "iy": 2085,
      "Ġwa": 2086,
      "Ġthou": 2087,
      "lara": 2088,
      "Ġenjoy": 2089,
      "ĠgÃ¶rev": 2090,
      "dentify": 2091,
      "Ġbilgi": 2092,
      "Ġknow": 2093,
      "ele": 2094,
      "aps": 2095,
      "Ġsuch": 2096,
      "ĠsÄ±k": 2097,
      "Ġbloc": 2098,
      "Ġyapmaya": 2099,
      "Ġway": 2100,
      "Ġachievable": 2101,
      "ĠAyrÄ±ca": 2102,
      "Ġopen": 2103,
      "130": 2104,
      "Ġmental": 2105,
      "Ġnon": 2106,
      "ĠÃ¶ncelikle": 2107,
      "lendir": 2108,
      "yla": 2109,
      "Ġthought": 2110,
      "ĠÃĹ": 2111,
      "Ġful": 2112,
      "Ġfollowed": 2113,
      "Ġurg": 2114,
      "ĠComm": 2115,
      "eki": 2116,
      "ĠadÄ±mlar": 2117,
      "Ġhal": 2118,
      "ĠÃĩ": 2119,
      "Ġbudget": 2120,
      "Ġnok": 2121,
      "Ġactually": 2122,
      "Ġihti": 2123,
      "-d": 2124,
      "Ġeasy": 2125,
      "55": 2126,
      "ail": 2127,
      "Ġmaster": 2128,
      "Ġhafif": 2129,
      "ough": 2130,
      "Ġtaking": 2131,
      "Ġsaatler": 2132,
      "ĠFriendship": 2133,
      "ations": 2134,
      "ger": 2135,
      "Ġtimer": 2136,
      "ĠseÃ§in": 2137,
      "Ġsessions": 2138,
      "Ġpractice": 2139,
      "Ġbeh": 2140,
      "?\"": 2141,
      "mayÄ±n": 2142,
      "Ġsta": 2143,
      "lamak": 2144,
      "Ġhard": 2145,
      "Ġkah": 2146,
      "ĠseÃ§mek": 2147,
      "Ġown": 2148,
      "94": 2149,
      "come": 2150,
      "ablish": 2151,
      "Ġsupport": 2152,
      "Ġhat": 2153,
      "sts": 2154,
      "os": 2155,
      "daki": 2156,
      "econd": 2157,
      "66": 2158,
      "ssible": 2159,
      "ital": 2160,
      "ĠKend": 2161,
      "ĠPause": 2162,
      "Ġdef": 2163,
      "ogress": 2164,
      "Ġtan": 2165,
      "eden": 2166,
      "77": 2167,
      "Ġprogress": 2168,
      "Ġreward": 2169,
      "Ġstick": 2170,
      "Ġtak": 2171,
      "Ġstop": 2172,
      "Ġsimp": 2173,
      "ĠÄ±ÅŁÄ±k": 2174,
      "ĠnasÄ±l": 2175,
      "Ġlet": 2176,
      "aring": 2177,
      "ĠÅŁun": 2178,
      "Ġstatem": 2179,
      "Ġgrou": 2180,
      "ĠÅŁeyi": 2181,
      "Ġise": 2182,
      "Ġkalk": 2183,
      "Ġdedicated": 2184,
      "Ġpratik": 2185,
      "Ġsevi": 2186,
      "aries": 2187,
      "Ġfark": 2188,
      "ĠdoÄŁru": 2189,
      "Åŀ": 2190,
      "Ġlea": 2191,
      "Ġactively": 2192,
      "Ġworking": 2193,
      "siz": 2194,
      "Ġshow": 2195,
      "Ġshared": 2196,
      "load": 2197,
      "ĠUy": 2198,
      "Ġinternal": 2199,
      "Ġtal": 2200,
      "Ġear": 2201,
      "Ġbound": 2202,
      "Ġdrin": 2203,
      "ĠadÄ±mÄ±nÄ±zÄ±": 2204,
      "Ġfre": 2205,
      "Ġger": 2206,
      "Ġsetting": 2207,
      "ĠChoose": 2208,
      "Ġjackets": 2209,
      "Ġput": 2210,
      "Ġbunu": 2211,
      "rix": 2212,
      "Ġreset": 2213,
      "Ġquick": 2214,
      "Ġcalm": 2215,
      "Ġetmek": 2216,
      "Ġkendinize": 2217,
      "99": 2218,
      "sin": 2219,
      "ĠÃ¶nceki": 2220,
      "Ġcur": 2221,
      "Ġfaz": 2222,
      "avior": 2223,
      "isen": 2224,
      "hower": 2225,
      "ora": 2226,
      "isenhower": 2227,
      "ck": 2228,
      "ready": 2229,
      "112": 2230,
      "Ġmakes": 2231,
      "Ġbehavior": 2232,
      "elim": 2233,
      "Ġsayede": 2234,
      "Ġboxes": 2235,
      "nÄ±": 2236,
      "Ġalready": 2237,
      "erli": 2238,
      "una": 2239,
      "Ġfazla": 2240,
      "110": 2241,
      "Ġhapp": 2242,
      "ĠDay": 2243,
      "luÄŁ": 2244,
      "ness": 2245,
      "ĠtÃ¼m": 2246,
      "maktÄ±r": 2247,
      "ran": 2248,
      "Ġderin": 2249,
      "Ġgenellikle": 2250,
      "ject": 2251,
      "all": 2252,
      "Ġhay": 2253,
      "114": 2254,
      "Ġsimply": 2255,
      "enizi": 2256,
      "Ġbooks": 2257,
      "Ġconnection": 2258,
      "Ġyok": 2259,
      "ĠMat": 2260,
      "unun": 2261,
      "ĠIdentify": 2262,
      "ĠsayÄ±sÄ±": 2263,
      "ĠaÃ§Ä±k": 2264,
      "ds": 2265,
      "Ġtrust": 2266,
      "Ġair": 2267,
      "Ġpenc": 2268,
      ").": 2269,
      "ĠMatrix": 2270,
      "Ġrut": 2271,
      "Ġbit": 2272,
      "Ġfind": 2273,
      "Ġkendine": 2274,
      "ĠsÄ±cak": 2275,
      "ĠbaÅŁarÄ±": 2276,
      "Ġclean": 2277,
      "Ġkayd": 2278,
      "ĠMake": 2279,
      "Ġcomp": 2280,
      "Ġoverwhelming": 2281,
      "Ġlarge": 2282,
      "56": 2283,
      "Ġyor": 2284,
      "ĠmÄ±": 2285,
      "Ġpar": 2286,
      "masÄ±": 2287,
      "150": 2288,
      "ĠbÃ¶ylece": 2289,
      "Ġkonu": 2290,
      "Ġspot": 2291,
      "mey": 2292,
      "ĠSadece": 2293,
      "Ġlif": 2294,
      "-in": 2295,
      "ĠbaÄŁ": 2296,
      "Ġchecking": 2297,
      "Ġenerj": 2298,
      "43": 2299,
      "Ġfew": 2300,
      "Ġval": 2301,
      "Ġtrans": 2302,
      "113": 2303,
      "Ġli": 2304,
      "160": 2305,
      "Ġplants": 2306,
      "miÅŁ": 2307,
      "Ġag": 2308,
      "Ġwithin": 2309,
      "ates": 2310,
      "Ġinterrup": 2311,
      "ĠolduÄŁu": 2312,
      "int": 2313,
      "acaÄŁ": 2314,
      "Ġul": 2315,
      "Ġter": 2316,
      "laÅŁtÄ±r": 2317,
      "Ġsan": 2318,
      "Ġbeing": 2319,
      "Ġgetting": 2320,
      "ĠbirkaÃ§": 2321,
      "Ġadd": 2322,
      "ĠgerÃ§ek": 2323,
      "Ġsystem": 2324,
      "Ġclar": 2325,
      "itiate": 2326,
      "Ġolmak": 2327,
      "Ġfriends": 2328,
      "Ġrelax": 2329,
      "Ġstres": 2330,
      "Ġsun": 2331,
      "Ġseviy": 2332,
      "ĠEisenhower": 2333,
      "ex": 2334,
      "Ġunut": 2335,
      "side": 2336,
      "Ġbooking": 2337,
      "ÄŁini": 2338,
      "140": 2339,
      "Ġlisten": 2340,
      "yÄ±": 2341,
      "ikk": 2342,
      "row": 2343,
      "Ã¼nÃ¼": 2344,
      "ĠulaÅŁ": 2345,
      "118": 2346,
      "Ġnotebooks": 2347,
      "yorsanÄ±z": 2348,
      "Ġwaiting": 2349,
      "Ġancak": 2350,
      "ĠsaÄŁlar": 2351,
      "bet": 2352,
      "tik": 2353,
      "Ġspeak": 2354,
      "Ġperf": 2355,
      "layÄ±p": 2356,
      "Ġstatements": 2357,
      "Ġdurumu": 2358,
      "Ġthoughts": 2359,
      "abilece": 2360,
      "Ġmuch": 2361,
      "other": 2362,
      "Ġthere": 2363,
      "Ġcontact": 2364,
      "iye": 2365,
      "Ġaut": 2366,
      "ign": 2367,
      "Ġinterest": 2368,
      "Ġdu": 2369,
      "Ġdays": 2370,
      "ĠÃĸrneÄŁin": 2371,
      "Ġaktiv": 2372,
      "48": 2373,
      "endar": 2374,
      "enin": 2375,
      "117": 2376,
      "Ġgenu": 2377,
      "ĠdÄ±ÅŁ": 2378,
      "Ġbelirlemek": 2379,
      "formation": 2380,
      "hy": 2381,
      "Ġbad": 2382,
      "ended": 2383,
      "Ġwind": 2384,
      "Ġinformation": 2385,
      "ĠÅŁeyler": 2386,
      "yon": 2387,
      "Ġboth": 2388,
      "Ġprogram": 2389,
      "lÄ±ÄŁÄ±": 2390,
      "Ġexpress": 2391,
      "Ġbackpacks": 2392,
      "Ġdra": 2393,
      "Ġunex": 2394,
      "tes": 2395,
      "Ġdoable": 2396,
      "pected": 2397,
      "Ġsur": 2398,
      "raz": 2399,
      "ĠolduÄŁunu": 2400,
      "Ġunexpected": 2401,
      "larÄ±nÄ±z": 2402,
      "Ġeffort": 2403,
      "af": 2404,
      "ebilir": 2405,
      "Ġpencils": 2406,
      "Ġgra": 2407,
      "Ġallow": 2408,
      "Ġlamps": 2409,
      "Ġstret": 2410,
      "Ġala": 2411,
      "Ġeras": 2412,
      "dÄ±ÄŁÄ±nÄ±z": 2413,
      "Ġlife": 2414,
      "ones": 2415,
      "Ã¼l": 2416,
      "sk": 2417,
      "erv": 2418,
      "Ġpack": 2419,
      "Ġwaking": 2420,
      "Ġanother": 2421,
      "Ġerasers": 2422,
      "ult": 2423,
      "Ġusu": 2424,
      "enek": 2425,
      "Ġnaturally": 2426,
      "Ãĸ": 2427,
      "ĠartÄ±r": 2428,
      "Ġtrig": 2429,
      "Ġpay": 2430,
      "Ġsizi": 2431,
      "Ġearly": 2432,
      "Ġboundaries": 2433,
      "Ġcalendar": 2434,
      "bir": 2435,
      "Ġsets": 2436,
      "Ġtackling": 2437,
      "116": 2438,
      "Ġconversations": 2439,
      "ase": 2440,
      "Ġdetay": 2441,
      "Ġuzun": 2442,
      "âĢĶ": 2443,
      "esi": 2444,
      "ĠdÃ¶": 2445,
      "Ġtamamen": 2446,
      "go": 2447,
      "Ġho": 2448,
      "Ġnokt": 2449,
      "Ä±lÄ±": 2450,
      "ama": 2451,
      "Ġblocks": 2452,
      "Ã¼nkÃ¼": 2453,
      "larÄ±n": 2454,
      "ĠgeÃ§ir": 2455,
      "Ġkapat": 2456,
      "sp": 2457,
      "akin": 2458,
      "deki": 2459,
      "Ġkamer": 2460,
      "Ġhot": 2461,
      "plement": 2462,
      "ĠdeÄŁer": 2463,
      "67": 2464,
      "Ġclock": 2465,
      "Ġdri": 2466,
      "Ġtelefonunuz": 2467,
      "ĠThe": 2468,
      "Ġlocal": 2469,
      "Ġreal": 2470,
      "ĠDown": 2471,
      "Ġbulun": 2472,
      ".,": 2473,
      "ĠEv": 2474,
      "ĠyÃ¼k": 2475,
      "57": 2476,
      "ies": 2477,
      "Ġtakes": 2478,
      "ĠIm": 2479,
      "Ġautom": 2480,
      "less": 2481,
      "ikkat": 2482,
      "115": 2483,
      "Ġbicycles": 2484,
      "ĠDownload": 2485,
      "Ġtur": 2486,
      "ĠInitiate": 2487,
      "Ġtoo": 2488,
      "ĠalÄ±p": 2489,
      "Ġneeds": 2490,
      "ĠAsk": 2491,
      "ĠÃĸÄŁ": 2492,
      "ĠsaÄŁlay": 2493,
      "Ġwords": 2494,
      "Ġdeclutter": 2495,
      "ĠÄ±ÅŁÄ±": 2496,
      "onn": 2497,
      "Ġhar": 2498,
      "Ġthin": 2499,
      "Ġgece": 2500,
      "Ġconce": 2501,
      "iet": 2502,
      "ould": 2503,
      "Ġenough": 2504,
      "ĠÅŀ": 2505,
      "ushing": 2506,
      "Ġdisc": 2507,
      "Ġmessage": 2508,
      "Ġexist": 2509,
      "Ġhotel": 2510,
      "Ġide": 2511,
      "abil": 2512,
      "ĠAd": 2513,
      "Ġexact": 2514,
      "Ġentirely": 2515,
      "ulti": 2516,
      "ĠYes": 2517,
      "ĠolmalÄ±": 2518,
      "Ġdrinking": 2519,
      "ez": 2520,
      "Ġadv": 2521,
      "mor": 2522,
      "Ã§a": 2523,
      "ulate": 2524,
      "stant": 2525,
      "orage": 2526,
      "ause": 2527,
      "Ġautoma": 2528,
      "alth": 2529,
      "Ġstorage": 2530,
      "Ġzorluk": 2531,
      "**:": 2532,
      "ayan": 2533,
      "Ġmulti": 2534,
      "ĠaynÄ±": 2535,
      "ersiz": 2536,
      "Ġessential": 2537,
      "Ġchanges": 2538,
      "ĠKÃ¼Ã§Ã¼k": 2539,
      "Ġthose": 2540,
      "Ġsee": 2541,
      "ĠalÄ±n": 2542,
      "'n": 2543,
      "Ġses": 2544,
      "Ã¼nÃ¼z": 2545,
      "ĠodaklanÄ±n": 2546,
      "Ġsuyun": 2547,
      "uly": 2548,
      "Ġorganize": 2549,
      "ime": 2550,
      ".g": 2551,
      "Ġkey": 2552,
      "mesi": 2553,
      "Ġurgent": 2554,
      "Ġtruly": 2555,
      "tif": 2556,
      "Ġdiffer": 2557,
      "Ġexisting": 2558,
      "sÄ±nÄ±": 2559,
      "Ġap": 2560,
      "Ġlast": 2561,
      "Ġpart": 2562,
      "ĠImplement": 2563,
      "Ġmaps": 2564,
      "eyi": 2565,
      "ĠÃ§Ã¼nkÃ¼": 2566,
      "rarak": 2567,
      "Ġuyum": 2568,
      "Ġcameras": 2569,
      "Ġusually": 2570,
      "),": 2571,
      "ost": 2572,
      "Ġgive": 2573,
      "Ġimpro": 2574,
      "ĠbaÅŁla": 2575,
      "Ġproduc": 2576,
      "136": 2577,
      "Ġask": 2578,
      "Ġhealth": 2579,
      "Ġoffline": 2580,
      "Ġdrawer": 2581,
      "Ġaside": 2582,
      "Ġhas": 2583,
      "eve": 2584,
      "malÄ±": 2585,
      "alarÄ±": 2586,
      "Ġma": 2587,
      "Ġeye": 2588,
      "ently": 2589,
      "Ġalways": 2590,
      "cial": 2591,
      "onnect": 2592,
      "-ended": 2593,
      "Ġgl": 2594,
      "Ġincel": 2595,
      "ĠyÃ¼zme": 2596,
      "tin": 2597,
      "elf": 2598,
      "Ġeg": 2599,
      "stablish": 2600,
      "Ġyeterli": 2601,
      "Ġmeth": 2602,
      "Ġadvance": 2603,
      "Ġmethod": 2604,
      "Ġx": 2605,
      "ĠEstablish": 2606,
      "ĠgÃ¶st": 2607,
      "106": 2608,
      "ĠÃ¼zerine": 2609,
      "ĠpaylaÅŁ": 2610,
      "Ġdel": 2611,
      "Ġsharing": 2612,
      "ĠÃ¶zel": 2613,
      "face": 2614,
      "lardÄ±r": 2615,
      "Ġavoiding": 2616,
      "Ġbecome": 2617,
      "Ġmatters": 2618,
      "Ġkeli": 2619,
      "lerin": 2620,
      "Ġoutside": 2621,
      "iyor": 2622,
      "eleb": 2623,
      "vam": 2624,
      "ndaki": 2625,
      "Ġbiri": 2626,
      "Ġsizin": 2627,
      "Ġremo": 2628,
      "Ġilgi": 2629,
      "ather": 2630,
      "Ġeng": 2631,
      "125": 2632,
      "oplam": 2633,
      "Ġegz": 2634,
      "'in": 2635,
      "lud": 2636,
      "ilt": 2637,
      "lere": 2638,
      "omp": 2639,
      "vaÅŁ": 2640,
      "ĠAl": 2641,
      "107": 2642,
      "ĠyakÄ±n": 2643,
      "Ä±nÄ±za": 2644,
      "93": 2645,
      "val": 2646,
      "105": 2647,
      "igital": 2648,
      "Ġcare": 2649,
      "red": 2650,
      "Ġkor": 2651,
      "Ġneden": 2652,
      "larÄ±nÄ±zÄ±": 2653,
      "eye": 2654,
      "127": 2655,
      "ĠÄ±": 2656,
      "Ġyan": 2657,
      "dÄ±n": 2658,
      "Ġglass": 2659,
      "Ġass": 2660,
      "ĠTechnique": 2661,
      "Ġdoes": 2662,
      "lÃ¼": 2663,
      "gun": 2664,
      "ĠThis": 2665,
      "tention": 2666,
      "ĠGÃ¼nlÃ¼k": 2667,
      "Ġdesk": 2668,
      "aÄŁÄ±": 2669,
      "Ġsecond": 2670,
      "Ġmi": 2671,
      "ĠiÅŁe": 2672,
      "ĠĠ": 2673,
      "126": 2674,
      "137": 2675,
      "ĠDaha": 2676,
      "Ġrequ": 2677,
      "idir": 2678,
      "ĠÃ§Ã¶zÃ¼m": 2679,
      "bb": 2680,
      "Ġplace": 2681,
      "Ġclo": 2682,
      "135": 2683,
      "Ġtopic": 2684,
      "Ġdikkat": 2685,
      "Ġhayat": 2686,
      "Ġbile": 2687,
      "Ġones": 2688,
      "Ġsaying": 2689,
      "Ġgir": 2690,
      "Ġreach": 2691,
      "Ġolun": 2692,
      "Ġsol": 2693,
      "Ġclearly": 2694,
      "reating": 2695,
      "Ġrutin": 2696,
      "set": 2697,
      "-ne": 2698,
      "ber": 2699,
      "ĠbugÃ¼n": 2700,
      "ogle": 2701,
      "goti": 2702,
      "Ġkitab": 2703,
      "Ġproject": 2704,
      "Ġinclud": 2705,
      "Ġdifferent": 2706,
      "Ġceleb": 2707,
      "anÄ±zÄ±": 2708,
      "Ġegzersiz": 2709,
      ").Ċ": 2710,
      "Ġdevam": 2711,
      "Ġcomes": 2712,
      "ĠvÃ¼c": 2713,
      "Ġsense": 2714,
      "Ġzi": 2715,
      "Ġoffer": 2716,
      "Ġsurface": 2717,
      "gotiable": 2718,
      "onin": 2719,
      "irim": 2720,
      "Ġemo": 2721,
      "Ġsonu": 2722,
      "-negotiable": 2723,
      "ĠÃ§eki": 2724,
      "42": 2725,
      "icro": 2726,
      "vals": 2727,
      "Ġprocess": 2728,
      "Ġkahve": 2729,
      "ĠÃ§iz": 2730,
      "ĠÃĸÄŁren": 2731,
      "Ġconsistently": 2732,
      "Ä±cÄ±": 2733,
      "Ġcoun": 2734,
      "Ġsk": 2735,
      "Ġbil": 2736,
      "ĠvÃ¼cud": 2737,
      "-t": 2738,
      "Ġlat": 2739,
      "Ġform": 2740,
      "su": 2741,
      "Ġintervals": 2742,
      "ici": 2743,
      "ĠgÃ¶nder": 2744,
      "opt": 2745,
      "oÄŁ": 2746,
      "leye": 2747,
      "ĠyavaÅŁ": 2748,
      "ĠyÃ¼rÃ¼yÃ¼ÅŁe": 2749,
      "gor": 2750,
      "Ġsort": 2751,
      "Ġsabit": 2752,
      "Ġmel": 2753,
      "ĠkayÄ±ta": 2754,
      "ĠRes": 2755,
      "Ġkendinizi": 2756,
      "Ġhand": 2757,
      "ĠkullanÄ±n": 2758,
      "Ġpossible": 2759,
      "ood": 2760,
      "Ġend": 2761,
      "Ġdeta": 2762,
      "Ġpres": 2763,
      "ilen": 2764,
      "ĠeÄŁ": 2765,
      "ĠyÃ¼zecek": 2766,
      "ercis": 2767,
      "Ġuyan": 2768,
      "ĠList": 2769,
      "Ġevening": 2770,
      "Ġkayn": 2771,
      "Ġsocial": 2772,
      "Ġprices": 2773,
      "Ġortam": 2774,
      "\":": 2775,
      "Ġdigital": 2776,
      "ments": 2777,
      "Ġwr": 2778,
      "ommod": 2779,
      "Ġskill": 2780,
      "Ġmelat": 2781,
      "lÄ±ÄŁ": 2782,
      "Ġgi": 2783,
      "Ġob": 2784,
      "ĠdoÄŁal": 2785,
      "Ã¶r": 2786,
      "leyip": 2787,
      "Ġbreathing": 2788,
      "Ġlater": 2789,
      "landÄ±": 2790,
      "Ġmelatonin": 2791,
      "Ġswim": 2792,
      "Ġaccommod": 2793,
      "Ġessentials": 2794,
      "Ġwhole": 2795,
      "Ġotur": 2796,
      "Ġgelecek": 2797,
      "ĠÅŁunlardÄ±r": 2798,
      "Ġapps": 2799,
      "Ġes": 2800,
      ",\"": 2801,
      "-s": 2802,
      "Ä±ndan": 2803,
      "Ġalmak": 2804,
      "Ġbuilds": 2805,
      "cing": 2806,
      "Ġprioritize": 2807,
      "Ġmus": 2808,
      "Ġkaz": 2809,
      "Ġdiffic": 2810,
      "Ġtekn": 2811,
      "Ġmateri": 2812,
      "Ġkonuyu": 2813,
      "lÄ±ÅŁ": 2814,
      "Ġdifficult": 2815,
      "ĠgÃ¼Ã§": 2816,
      "inizin": 2817,
      "Ġfull": 2818,
      "Ġregulate": 2819,
      "ĠiÃ§er": 2820,
      "ĠseÃ§enek": 2821,
      "-f": 2822,
      "Ġmis": 2823,
      "cih": 2824,
      "...\"": 2825,
      "tek": 2826,
      "irm": 2827,
      "esini": 2828,
      "lying": 2829,
      "Ġkullanarak": 2830,
      "Ġhik": 2831,
      "Ġdire": 2832,
      "Ġuzak": 2833,
      "Ġcelebrate": 2834,
      "Ġheard": 2835,
      "'i": 2836,
      "'ve": 2837,
      "und": 2838,
      "Ġpla": 2839,
      "sanÄ±z": 2840,
      "ouse": 2841,
      "Ġhouse": 2842,
      "dÄ±ÄŁ": 2843,
      "Ġaround": 2844,
      "Ġifad": 2845,
      "Ġtercih": 2846,
      "ha": 2847,
      "Ġkez": 2848,
      "Ġfree": 2849,
      "ĠLear": 2850,
      "Ġverin": 2851,
      "Ġsoru": 2852,
      "Ġbursts": 2853,
      "Ġconcept": 2854,
      "ĠAdopt": 2855,
      "Ġki": 2856,
      "Ġfixed": 2857,
      "ĠadÄ±mlarÄ±": 2858,
      "manÄ±zÄ±": 2859,
      "Ġprioriti": 2860,
      "Ġsaid": 2861,
      "fort": 2862,
      "Ä±la": 2863,
      "iden": 2864,
      "ĠbahÃ§e": 2865,
      "Ġstretching": 2866,
      "diÄŁiniz": 2867,
      "Ġexactly": 2868,
      "Ġekran": 2869,
      "Ġputting": 2870,
      "ĠTo": 2871,
      "lerden": 2872,
      "Ġreduces": 2873,
      "Ġregularly": 2874,
      "Ġbiraz": 2875,
      "Ġachieve": 2876,
      "eth": 2877,
      "izing": 2878,
      "109": 2879,
      "Ġexercis": 2880,
      "ĠArdÄ±ndan": 2881,
      "Ġdates": 2882,
      "129": 2883,
      "170": 2884,
      "Ġprob": 2885,
      "Ġdone": 2886,
      "sÄ±nda": 2887,
      "Ġsmaller": 2888,
      "Ġinten": 2889,
      "Ġcurren": 2890,
      "Ġbriefly": 2891,
      "ĠyapmayÄ±": 2892,
      "Ġactions": 2893,
      "itive": 2894,
      "Ġede": 2895,
      "ĠyaptÄ±": 2896,
      "ĠĠĊ": 2897,
      "ĠdeÄŁiÅŁ": 2898,
      "ĠaÅŁ": 2899,
      "Ġsam": 2900,
      "Ġiniti": 2901,
      "ĠyaÅŁ": 2902,
      "Ġdiye": 2903,
      "Ġimprove": 2904,
      "lardan": 2905,
      "Ġlevel": 2906,
      "Ġazalt": 2907,
      "mam": 2908,
      "Ġregard": 2909,
      "Ġlook": 2910,
      "rast": 2911,
      "larm": 2912,
      "Ġhafta": 2913,
      "Ġgroup": 2914,
      "Ġsoh": 2915,
      "Ä±mÄ±": 2916,
      "layarak": 2917,
      "38": 2918,
      "Ġalarm": 2919,
      "Ġyeme": 2920,
      "Ġbreaking": 2921,
      "Ġkeeping": 2922,
      "Ġrespon": 2923,
      "Ġbat": 2924,
      "ĠJ": 2925,
      "ise": 2926,
      "ĠHaf": 2927,
      "ategor": 2928,
      "Ġplans": 2929,
      "Ġquickly": 2930,
      "Ġagain": 2931,
      "Ġsamimi": 2932,
      "mektir": 2933,
      "149": 2934,
      "Ġteeth": 2935,
      "ĠCommunication": 2936,
      "ĠhatÄ±r": 2937,
      "Ġyara": 2938,
      "irecek": 2939,
      "Ġtrack": 2940,
      "lemeyi": 2941,
      "Ġmaterial": 2942,
      "ĠkolaylaÅŁtÄ±r": 2943,
      "ĠSiz": 2944,
      "Ġanlat": 2945,
      "147": 2946,
      "ocrast": 2947,
      "ĠistediÄŁinizi": 2948,
      "inizden": 2949,
      "Ġautomatic": 2950,
      "Ġproblem": 2951,
      "Ġkelim": 2952,
      "tional": 2953,
      "each": 2954,
      "sÄ±z": 2955,
      "Ġrit": 2956,
      "Ġprocrast": 2957,
      "ĠAralÄ±k": 2958,
      "ĠgÃ¶rÃ¼n": 2959,
      "Ġmut": 2960,
      "Ġthroughout": 2961,
      "kli": 2962,
      "146": 2963,
      "ĠGoogle": 2964,
      "ĠBaÅŁlangÄ±Ã§": 2965,
      "Ġrequire": 2966,
      "sÄ±n": 2967,
      "ove": 2968,
      "ually": 2969,
      "Ġkat": 2970,
      "led": 2971,
      "145": 2972,
      "Ġphoto": 2973,
      "meyin": 2974,
      "Ġcurrent": 2975,
      "Ġemin": 2976,
      "ĠgÃ¼neÅŁ": 2977,
      "ĠaraÃ§": 2978,
      "Ġcategor": 2979,
      "ĠsÃ¶": 2980,
      "yorsunuz": 2981,
      "yac": 2982,
      "Ġgerekir": 2983,
      "Ġdestek": 2984,
      "Ġyorgun": 2985,
      "Ġgenuine": 2986,
      "Ġconsistency": 2987,
      "Bu": 2988,
      "no": 2989,
      "ration": 2990,
      "arm": 2991,
      "ebilirsiniz": 2992,
      "liÄŁi": 2993,
      "luÄŁu": 2994,
      "Ġiy": 2995,
      "Ġbrushing": 2996,
      "Ġrepeating": 2997,
      "its": 2998,
      "ĠbahÃ§eniz": 2999,
      "Ġvisual": 3000,
      "Ġfresh": 3001,
      "Ġclarif": 3002,
      "ĠdÄ±ÅŁarÄ±": 3003,
      "Ġseconds": 3004,
      "kÃ¼n": 3005,
      "Ġgiving": 3006,
      "Pomodoro": 3007,
      "Ġbeca": 3008,
      "Ġyaparak": 3009,
      "Ġpoz": 3010,
      "ĠdÃ¶n": 3011,
      "tar": 3012,
      "arken": 3013,
      "Ġtid": 3014,
      "Ġbecause": 3015,
      "eh": 3016,
      "Ä±lan": 3017,
      "Ġkind": 3018,
      "Ġkalan": 3019,
      "ining": 3020,
      "tane": 3021,
      "Ġeffec": 3022,
      "Ġpass": 3023,
      "Ġbins": 3024,
      "Ġmed": 3025,
      "edul": 3026,
      "vice": 3027,
      "Ġleave": 3028,
      "Ġyoksa": 3029,
      "ĠListen": 3030,
      "Ġbrief": 3031,
      "Ä±nÄ±zda": 3032,
      "-down": 3033,
      "space": 3034,
      "Ġcontain": 3035,
      "Ġweather": 3036,
      "Ġclearing": 3037,
      "Ġaktivit": 3038,
      "Ġyolu": 3039,
      "104": 3040,
      "Ġinterac": 3041,
      "locking": 3042,
      "Ġsaatlerinde": 3043,
      "Ġgetir": 3044,
      "Ġmultiple": 3045,
      "Ġtari": 3046,
      "ĠEach": 3047,
      "ĠBÃ¶": 3048,
      "156": 3049,
      "ĠCommit": 3050,
      "Ġihtiyac": 3051,
      "anÄ±n": 3052,
      "imin": 3053,
      "stantly": 3054,
      "tire": 3055,
      "ĠgÃ¶ster": 3056,
      "rets": 3057,
      "yaÃ§": 3058,
      "Ġattention": 3059,
      "ĠÃ¶ncelik": 3060,
      "'Ä±n": 3061,
      "'ya": 3062,
      "mem": 3063,
      "ĠCon": 3064,
      "Ġmovement": 3065,
      "ĠUyku": 3066,
      "Ġhobb": 3067,
      "Ġpresent": 3068,
      "Ġcycle": 3069,
      "mez": 3070,
      "Ġpos": 3071,
      "bu": 3072,
      "fet": 3073,
      "124": 3074,
      "Ġschedul": 3075,
      "ĠistediÄŁiniz": 3076,
      "Ġconfirm": 3077,
      "Ġtrigger": 3078,
      "ĠBel": 3079,
      "laming": 3080,
      "Ġquiet": 3081,
      "view": 3082,
      "Ġaccomp": 3083,
      "masÄ±nÄ±": 3084,
      "ending": 3085,
      "Ġblaming": 3086,
      "Ã¼ne": 3087,
      "155": 3088,
      "157": 3089,
      "ĠnoktasÄ±": 3090,
      "Ġaccomplish": 3091,
      "tim": 3092,
      "uring": 3093,
      "cision": 3094,
      "ileri": 3095,
      "ĠyÃ¼rÃ¼": 3096,
      "Ġsohbet": 3097,
      "Ġzone": 3098,
      "Ġshould": 3099,
      "Ġnever": 3100,
      "ĠyaklaÅŁ": 3101,
      "Ġkamera": 3102,
      "Ġsab": 3103,
      "Ġilerlem": 3104,
      "Ġduv": 3105,
      "ĠLearning": 3106,
      "Ġkayded": 3107,
      "yn": 3108,
      "ĠTelefon": 3109,
      "Ġfati": 3110,
      "Ã¼mkÃ¼n": 3111,
      "Ġbitir": 3112,
      "Ġduyg": 3113,
      "Ġbal": 3114,
      "ĠRule": 3115,
      "Ġyerel": 3116,
      "Ġcompleting": 3117,
      "Ġpositive": 3118,
      "Ġfatigue": 3119,
      "Ġsit": 3120,
      "ĠGet": 3121,
      "ĠÄ°zmir": 3122,
      "Ġsev": 3123,
      "Ġbuilding": 3124,
      "men": 3125,
      "Ġsah": 3126,
      "ÄŁinizi": 3127,
      "emove": 3128,
      "134": 3129,
      "Ġregardless": 3130,
      "Ġcar": 3131,
      "Ġkab": 3132,
      "izce": 3133,
      "Ġeasily": 3134,
      "ĠkiÅŁi": 3135,
      "Ġblock": 3136,
      "oring": 3137,
      "ĠseÃ§ip": 3138,
      "Ġsep": 3139,
      "ĠTime": 3140,
      "Ġold": 3141,
      "ĠÃ¼c": 3142,
      "Ġworkspace": 3143,
      "san": 3144,
      "Ġwin": 3145,
      "larla": 3146,
      "ĠRemove": 3147,
      "200": 3148,
      "ĠfarklÄ±": 3149,
      "Ġgu": 3150,
      "ĠApp": 3151,
      "Ġreview": 3152,
      "Ġdesire": 3153,
      "Ġtalk": 3154,
      "retsiz": 3155,
      "ĠBÃ¶ylece": 3156,
      "ĠConsist": 3157,
      "Ġten": 3158,
      "asÄ±na": 3159,
      "Ġgets": 3160,
      "Ġrelaxing": 3161,
      "Ġema": 3162,
      "ĠÃĸÄŁrenme": 3163,
      "tiÄŁiniz": 3164,
      "Ġcluttered": 3165,
      "landÄ±r": 3166,
      "Ġenerji": 3167,
      "Ġdecision": 3168,
      "ĠsÃ¼rec": 3169,
      "Ġdene": 3170,
      "Ġolma": 3171,
      "ĠihtiyaÃ§": 3172,
      "Ġkara": 3173,
      "Ġmin": 3174,
      "Ġcas": 3175,
      "Ġexper": 3176,
      "Ġfinishing": 3177,
      "Ġca": 3178,
      "Ġsaatte": 3179,
      "mesini": 3180,
      "abileceÄŁiniz": 3181,
      "Ġprocrastination": 3182,
      "mel": 3183,
      "ĠYat": 3184,
      "ilar": 3185,
      "ĠAncak": 3186,
      "aret": 3187,
      "Ġlower": 3188,
      "Ġinterests": 3189,
      "ĠkeÅŁ": 3190,
      "lest": 3191,
      "otal": 3192,
      "ĠÃ¶neriler": 3193,
      "Ġsimilar": 3194,
      "ĠRep": 3195,
      "180": 3196,
      "ffer": 3197,
      "ĠbÄ±rakÄ±n": 3198,
      "'nÄ±n": 3199,
      "ĠAlways": 3200,
      "ange": 3201,
      "Ġsmallest": 3202,
      "Ġcomfort": 3203,
      "Ġkoy": 3204,
      "inizdeki": 3205,
      "ĠApply": 3206,
      "Ġexperien": 3207,
      "Ġdoesn": 3208,
      "Ġlevels": 3209,
      "Ġhis": 3210,
      "Ġgereken": 3211,
      "-st": 3212,
      "Ã¼s": 3213,
      "ously": 3214,
      "ĠsonuÃ§": 3215,
      "ĠMe": 3216,
      "Ġbelirli": 3217,
      "Ġoptions": 3218,
      "Ġlim": 3219,
      "let": 3220,
      "Ġind": 3221,
      "Ġgeri": 3222,
      "imdi": 3223,
      "Ġonu": 3224,
      "ĠAnswer": 3225,
      "Ġelimin": 3226,
      "ĠKendi": 3227,
      "Ġperfect": 3228,
      "Ġsil": 3229,
      "ĠToplam": 3230,
      "Ġgit": 3231,
      "ĠÄ°n": 3232,
      "108": 3233,
      "Ġwarm": 3234,
      "Ġdakikada": 3235,
      "ĠÃ¼cretsiz": 3236,
      "ĠKon": 3237,
      "103": 3238,
      "123": 3239,
      "Ġdirect": 3240,
      "Ġresponse": 3241,
      "Ġtav": 3242,
      "Ġwins": 3243,
      "Ġbased": 3244,
      "900": 3245,
      "Ġgenel": 3246,
      "ĠSizin": 3247,
      "Ġtutun": 3248,
      "Ġbackup": 3249,
      "ĠbÃ¶l": 3250,
      "-do": 3251,
      "Ġensuring": 3252,
      "earch": 3253,
      "eyin": 3254,
      "-blocking": 3255,
      "Ġfully": 3256,
      "Ġext": 3257,
      "ĠpiÅŁirecek": 3258,
      "Ġreplace": 3259,
      "ĠgÃ¶rÃ¼ÅŁ": 3260,
      "cul": 3261,
      "gil": 3262,
      "lÄ±ÄŁÄ±nÄ±": 3263,
      "133": 3264,
      "Ġgidecek": 3265,
      "Ġinterrupting": 3266,
      "kanlÄ±k": 3267,
      "taki": 3268,
      "ĠiÅŁlem": 3269,
      "Ġteknik": 3270,
      "?Ċ": 3271,
      "bel": 3272,
      "larÄ±na": 3273,
      "ection": 3274,
      "Ġdead": 3275,
      "128": 3276,
      "Ġpoint": 3277,
      "Ġprevents": 3278,
      "Ġtransport": 3279,
      "Ġmemor": 3280,
      "iÄŁer": 3281,
      "uzur": 3282,
      "98": 3283,
      "Ġcleaning": 3284,
      "ĠunutmayÄ±n": 3285,
      "Ġsorting": 3286,
      "'e": 3287,
      "dur": 3288,
      "two": 3289,
      "urken": 3290,
      "alÄ±m": 3291,
      "Ġdesign": 3292,
      "Ġexch": 3293,
      "Ġkural": 3294,
      "Ġmakin": 3295,
      "arika": 3296,
      "Ġsuc": 3297,
      "Ġam": 3298,
      "dÄ±ÄŁÄ±nÄ±": 3299,
      "Ġdinlen": 3300,
      "Ġkaynak": 3301,
      "ĠReplace": 3302,
      "ana": 3303,
      "yarak": 3304,
      "Ġatt": 3305,
      "chor": 3306,
      "gÃ¼n": 3307,
      "Ġreli": 3308,
      "ret": 3309,
      "ĠPack": 3310,
      "ĠboÅŁ": 3311,
      "ĠkoÅŁ": 3312,
      "Ġbus": 3313,
      "Ġhava": 3314,
      "-free": 3315,
      "Ġsuyu": 3316,
      "Ġuyk": 3317,
      "lines": 3318,
      "ĠdÃ¼ÅŁÃ¼nÃ¼n": 3319,
      "Ġmusic": 3320,
      "just": 3321,
      "Ġfik": 3322,
      "izi": 3323,
      "Ġaccess": 3324,
      "ĠZaman": 3325,
      "Ġsonunda": 3326,
      "be": 3327,
      "isay": 3328,
      "Ġcreating": 3329,
      "Ã¼ÄŁ": 3330,
      "Ġref": 3331,
      "Ġmet": 3332,
      "ĠbaÅŁlangÄ±": 3333,
      "letiÅŁim": 3334,
      "Ġdep": 3335,
      "Ġanda": 3336,
      "Ġtakip": 3337,
      "Ġta": 3338,
      "istem": 3339,
      "Ġmood": 3340,
      "Ġcl": 3341,
      "ĠmÃ¼mkÃ¼n": 3342,
      "aÅŁÄ±k": 3343,
      "Ġsave": 3344,
      "Ġbilgiler": 3345,
      "Ġbecomes": 3346,
      "Ġoffering": 3347,
      "fe": 3348,
      "Ġinv": 3349,
      "ĠayÄ±rÄ±n": 3350,
      "Ġmaintaining": 3351,
      "Ġdelays": 3352,
      "ĠadÄ±mda": 3353,
      "Ġyere": 3354,
      "Ġturning": 3355,
      "Ġkarar": 3356,
      "he": 3357,
      "Ġshelf": 3358,
      "ĠPlan": 3359,
      "ages": 3360,
      "ĠIf": 3361,
      "ĠArkadaÅŁ": 3362,
      "300": 3363,
      "ĠGÃ¼nÃ¼n": 3364,
      "Ġkut": 3365,
      "Ä±rken": 3366,
      "Ġvide": 3367,
      "Ġalt": 3368,
      "Ġexercise": 3369,
      "cum": 3370,
      "Ġpush": 3371,
      "ality": 3372,
      "ĠkonuÅŁma": 3373,
      "ĠÃ§Ä±kar": 3374,
      "ĠbÃ¼t": 3375,
      "ram": 3376,
      "lerle": 3377,
      "thm": 3378,
      "Ġrhy": 3379,
      "Ġrhythm": 3380,
      "lerde": 3381,
      "Ġhikay": 3382,
      "ĠdiÄŁer": 3383,
      "Ġsho": 3384,
      "Ġboost": 3385,
      "ene": 3386,
      "maktan": 3387,
      "ĠÃ¶neririm": 3388,
      "Ġdrive": 3389,
      "Ġthinking": 3390,
      ".)": 3391,
      "itap": 3392,
      "Ġbuilt": 3393,
      "iÄŁi": 3394,
      "ĠsaÄŁlÄ±k": 3395,
      "Ġmal": 3396,
      "Ġmicro": 3397,
      "aba": 3398,
      "ll": 3399,
      "Ġmutu": 3400,
      "ĠÃ§Ä±kacak": 3401,
      "ĠTr": 3402,
      "280": 3403,
      "istic": 3404,
      "Ġsat": 3405,
      "Ġareas": 3406,
      "Ġfail": 3407,
      "Ġrelying": 3408,
      "Ġbulmak": 3409,
      "Ġprioritiz": 3410,
      "ĠMesaj": 3411,
      "ĠkayÄ±tta": 3412,
      "Ġvak": 3413,
      "Ġdestinations": 3414,
      "Ġizin": 3415,
      "Ġnedenle": 3416,
      "Ġsent": 3417,
      "ĠaydÄ±n": 3418,
      "ĠiÃ§ine": 3419,
      "Ġanchor": 3420,
      "Ġdeneyim": 3421,
      "Ġreconnect": 3422,
      "Ġwriting": 3423,
      "hen": 3424,
      "lak": 3425,
      "Ġder": 3426,
      "ĠDon": 3427,
      "Ġadding": 3428,
      "umara": 3429,
      "ĠayÄ±": 3430,
      "Ġokuma": 3431,
      "Ġkarm": 3432,
      "Ġmutual": 3433,
      "Ġvers": 3434,
      "ĠÃ¶ÄŁle": 3435,
      "Ġideas": 3436,
      "-out": 3437,
      "Ġdocum": 3438,
      "gers": 3439,
      "sini": 3440,
      "ĠbaÅŁlar": 3441,
      "ĠÄ°letiÅŁim": 3442,
      "ĠÃ§ev": 3443,
      "chen": 3444,
      "Ġsumm": 3445,
      "Ġlabel": 3446,
      "Ġlead": 3447,
      "Ġhotels": 3448,
      "ossible": 3449,
      "Ġpop": 3450,
      "Ġpark": 3451,
      "Ġren": 3452,
      "ason": 3453,
      "Ġkitchen": 3454,
      "Ġneeding": 3455,
      "Ġincludes": 3456,
      "**.": 3457,
      "ĠÃ§alÄ±ÅŁma": 3458,
      "Ġcounter": 3459,
      "'ll": 3460,
      "bil": 3461,
      "tively": 3462,
      "Ġtutacak": 3463,
      "ĠkarÅŁÄ±laÅŁ": 3464,
      "hing": 3465,
      "Ġpur": 3466,
      "Ã¼rk": 3467,
      "Ġweekly": 3468,
      "yal": 3469,
      "ĠBe": 3470,
      "Ġhaving": 3471,
      "udg": 3472,
      "Ġfrequ": 3473,
      "tification": 3474,
      "Ġminim": 3475,
      "Ġyen": 3476,
      "600": 3477,
      "Ġkazan": 3478,
      "air": 3479,
      "Ġcri": 3480,
      "Ġmon": 3481,
      "ĠÃ¶neriyi": 3482,
      "ĠHabit": 3483,
      "Ġleaving": 3484,
      "-M": 3485,
      "iv": 3486,
      "so": 3487,
      "Ġvery": 3488,
      "Ġsistem": 3489,
      "ĠbaÅŁlayÄ±p": 3490,
      "500": 3491,
      "Ġbreathe": 3492,
      "ĠThen": 3493,
      "Ġonun": 3494,
      "Ġrou": 3495,
      "144": 3496,
      "Ġvarsa": 3497,
      "Ġswit": 3498,
      "ĠsÄ±ra": 3499,
      "Ġnatural": 3500,
      "ron": 3501,
      "ĠBook": 3502,
      "ĠÄ°yi": 3503,
      "malar": 3504,
      "Ġcall": 3505,
      "Ġtidy": 3506,
      "-stakes": 3507,
      "gilizce": 3508,
      "Ġders": 3509,
      "Ġeveryone": 3510,
      "ĠcÃ¼mle": 3511,
      "rink": 3512,
      "Ġimpossible": 3513,
      "Ġperfection": 3514,
      "-on": 3515,
      "hangi": 3516,
      "list": 3517,
      "seniz": 3518,
      "dÄ±ÄŁÄ±": 3519,
      "ĠzorluÄŁu": 3520,
      "ĠHem": 3521,
      "ĠHangi": 3522,
      "menizi": 3523,
      "Ġkonuda": 3524,
      "Ġproduction": 3525,
      "ĠaÄŁ": 3526,
      "400": 3527,
      "Ġhuzur": 3528,
      "Ġmik": 3529,
      "gÄ±": 3530,
      "Ġkes": 3531,
      "ĠsaÄŁlayÄ±n": 3532,
      "-Minute": 3533,
      "54": 3534,
      "Ġperi": 3535,
      "Ġasleep": 3536,
      "Ġclarifying": 3537,
      "ĠkaÃ§Ä±nÄ±n": 3538,
      "You": 3539,
      "Ġav": 3540,
      "Ġslow": 3541,
      "Ġconc": 3542,
      "Ġkol": 3543,
      "800": 3544,
      "Ġcomplex": 3545,
      "92": 3546,
      "atch": 3547,
      "imli": 3548,
      "efer": 3549,
      "ĠsÃ¼reÃ§": 3550,
      "Ġdecluttering": 3551,
      "Ġstar": 3552,
      "ĠNumara": 3553,
      "ĠeÅŁy": 3554,
      "tÄ±ra": 3555,
      "Ġmindful": 3556,
      "Ġdisrup": 3557,
      "ehir": 3558,
      "isayar": 3559,
      "64": 3560,
      "eck": 3561,
      "Ġbitkil": 3562,
      "Ġziya": 3563,
      "ida": 3564,
      "net": 3565,
      "ese": 3566,
      "'inde": 3567,
      "ction": 3568,
      "Ä±nÄ±r": 3569,
      "inizle": 3570,
      "Ġquality": 3571,
      "102": 3572,
      "132": 3573,
      "Ġnotification": 3574,
      "manÄ±n": 3575,
      "Ġcloth": 3576,
      "ory": 3577,
      "Ġtoprak": 3578,
      "uyla": 3579,
      "Ġbelirle": 3580,
      "ĠiÅŁi": 3581,
      "Ġisters": 3582,
      "ĠadÄ±mlarla": 3583,
      "Ġprojects": 3584,
      "Ġpause": 3585,
      "Ġbar": 3586,
      "Ġfall": 3587,
      "unuza": 3588,
      "Ġrespect": 3589,
      "Ġhappens": 3590,
      "Ġindir": 3591,
      "oint": 3592,
      "ork": 3593,
      "ĠDrink": 3594,
      "ĠReach": 3595,
      "enize": 3596,
      "Ġokumaya": 3597,
      "Ġperspec": 3598,
      "Ġlights": 3599,
      "Ġallowing": 3600,
      "Ġbath": 3601,
      "Ġperspective": 3602,
      "ice": 3603,
      "yand": 3604,
      "Ġact": 3605,
      "Ġjudg": 3606,
      "Ġnotes": 3607,
      "Ġairport": 3608,
      "Ġyeniden": 3609,
      "sing": 3610,
      "ĠfÄ±r": 3611,
      "ĠSor": 3612,
      "Ġmesa": 3613,
      "unuzun": 3614,
      "Ä±lmÄ±ÅŁ": 3615,
      "Ġvalida": 3616,
      "jor": 3617,
      "Ġnerv": 3618,
      "Ġmant": 3619,
      "Ä±ntÄ±": 3620,
      "lic": 3621,
      "ĠgÃ¼nde": 3622,
      "Ġsummar": 3623,
      "Ġaim": 3624,
      "Ġtool": 3625,
      "ilik": 3626,
      "Ġgent": 3627,
      "Ġchat": 3628,
      "oman": 3629,
      "maz": 3630,
      "ĠdakikayÄ±": 3631,
      "700": 3632,
      "ability": 3633,
      "Ġnervous": 3634,
      "Ġgentle": 3635,
      "isini": 3636,
      "ĠcÃ¼ml": 3637,
      "Ġalter": 3638,
      "Ġmajor": 3639,
      "ĠÄ°ngilizce": 3640,
      "Ġwas": 3641,
      "Ġmust": 3642,
      "Ġmiss": 3643,
      "ĠkÄ±s": 3644,
      "ecting": 3645,
      "haba": 3646,
      "tivity": 3647,
      "Ġfikir": 3648,
      "ping": 3649,
      "Ġbun": 3650,
      "using": 3651,
      "ĠkaÄŁÄ±": 3652,
      "Ġorganized": 3653,
      "Two": 3654,
      "ete": 3655,
      "Ġforward": 3656,
      "ĠyÃ¼zden": 3657,
      "Ġexpla": 3658,
      "ĠgÃ¶zlem": 3659,
      "Ġsin": 3660,
      "Ġbond": 3661,
      "sap": 3662,
      "Ġadjust": 3663,
      "167": 3664,
      "lÄ±ÅŁkanlÄ±k": 3665,
      "Ġritual": 3666,
      "Ġsupp": 3667,
      "Ġbilgiyi": 3668,
      "malÄ±sÄ±nÄ±z": 3669,
      "ave": 3670,
      "muÅŁ": 3671,
      "Ġcir": 3672,
      "ĠSayÄ±n": 3673,
      "ĠbaÅŁlangÄ±Ã§tÄ±r": 3674,
      "Ġengag": 3675,
      "Ġcasual": 3676,
      "Ġperiod": 3677,
      "Ġmod": 3678,
      "Ġmeals": 3679,
      "Ġverir": 3680,
      "ĠzamanÄ±": 3681,
      "Ġbalance": 3682,
      "Ġben": 3683,
      "ĠSÃ¼re": 3684,
      "anging": 3685,
      "154": 3686,
      "143": 3687,
      "Ġbelirleyerek": 3688,
      "ĠhiÃ§": 3689,
      "ĠamaÃ§": 3690,
      "ĠÄ±ÅŁÄ±ÄŁÄ±": 3691,
      "Ġaktiviteler": 3692,
      "Ġtotal": 3693,
      "Ġmeans": 3694,
      "Ġaccommodation": 3695,
      "ih": 3696,
      "ulating": 3697,
      "ĠTÃ¼rk": 3698,
      "Ã¶rn": 3699,
      "ĠGÃ¼nde": 3700,
      "59": 3701,
      "Ġuyand": 3702,
      "Ġevde": 3703,
      "Ġsayf": 3704,
      "Ġsaniye": 3705,
      "Ġsolely": 3706,
      "Ġvideo": 3707,
      "Ġstarted": 3708,
      "Ġnotifications": 3709,
      "elik": 3710,
      "Ã¼nd": 3711,
      "Ġfav": 3712,
      "udy": 3713,
      "ĠÃ§alÄ±ÅŁmak": 3714,
      "ĠgÃ¶zden": 3715,
      "Ġproblems": 3716,
      "Ġsuccess": 3717,
      "Ġbusy": 3718,
      "uyor": 3719,
      "ĠSeyahat": 3720,
      "Ġvb": 3721,
      "Ġtrain": 3722,
      "ĠsÃ¼reci": 3723,
      "Ġheav": 3724,
      "Ġground": 3725,
      "Ġtavsi": 3726,
      "Ġprioritizing": 3727,
      "Ġfavor": 3728,
      "Ġkas": 3729,
      "122": 3730,
      "ĠplanlayÄ±n": 3731,
      "Ä±ktan": 3732,
      "ĠEli": 3733,
      "Ġstore": 3734,
      "liÅŁ": 3735,
      "Ġmedi": 3736,
      "Ä±nÄ±zÄ±n": 3737,
      "Ġstudying": 3738,
      "leÅŁtirin": 3739,
      "Ġthink": 3740,
      "Ġavail": 3741,
      "ularÄ±": 3742,
      "Ġbite": 3743,
      "ĠoluÅŁturun": 3744,
      "Ġhale": 3745,
      "ĠtanÄ±m": 3746,
      "ĠBelir": 3747,
      "-siz": 3748,
      "rying": 3749,
      "Ġtara": 3750,
      "oud": 3751,
      "ternal": 3752,
      "Ġmoments": 3753,
      "Ġrecall": 3754,
      "Ġhavuz": 3755,
      "Ġurgency": 3756,
      "ĠaÅŁaÄŁÄ±": 3757,
      "Ġona": 3758,
      "term": 3759,
      "Ġarri": 3760,
      "-term": 3761,
      "Ġbask": 3762,
      "Ġretur": 3763,
      "Ġused": 3764,
      "Ġtemp": 3765,
      "Ġaraya": 3766,
      "Ġhobby": 3767,
      "-sized": 3768,
      "Ġcase": 3769,
      "imp": 3770,
      "Ġeliminate": 3771,
      "Ġdocuments": 3772,
      "ues": 3773,
      "Ġkullanmak": 3774,
      "Ġdedicate": 3775,
      "Ġrewards": 3776,
      "Ġexperiences": 3777,
      "Ä±yor": 3778,
      "ority": 3779,
      "abilirsin": 3780,
      "eclutter": 3781,
      "here": 3782,
      "Ġneeded": 3783,
      "ĠÃ¼zerinde": 3784,
      "Ġmedit": 3785,
      "Ġlove": 3786,
      "ĠtanÄ±ÅŁ": 3787,
      "Ġeffectively": 3788,
      "Ġheavy": 3789,
      "ors": 3790,
      "ritik": 3791,
      "Ġexternal": 3792,
      "Ġkayna": 3793,
      "ÅŁtÄ±r": 3794,
      "Ġdakikalar": 3795,
      "Ġhedeflerinizi": 3796,
      "lemeye": 3797,
      "Ġstrictly": 3798,
      "ĠduyduÄŁ": 3799,
      "Ġconfid": 3800,
      "Ġrealistic": 3801,
      "Ġmedia": 3802,
      "ĠÃ¶zet": 3803,
      "ĠÅŀu": 3804,
      "tle": 3805,
      "Ġtoward": 3806,
      "ĠsabahlarÄ±": 3807,
      "Ġsessiz": 3808,
      "Ġtalking": 3809,
      "ĠartÄ±rÄ±r": 3810,
      "69": 3811,
      "ĠsÃ¼r": 3812,
      "Ġreac": 3813,
      "ĠbaÅŁlayarak": 3814,
      "Ġifade": 3815,
      "Ġanki": 3816,
      "ĠkayÄ±ttaki": 3817,
      "139": 3818,
      "establish": 3819,
      "Ġyolcul": 3820,
      "Ġrepeti": 3821,
      "ĠdeÄŁerlendir": 3822,
      "'Ã¼nde": 3823,
      "isiniz": 3824,
      "Ġbla": 3825,
      "ÄŁÄ±na": 3826,
      "Ġrem": 3827,
      "Ġtoplamda": 3828,
      "Ġpaint": 3829,
      "Ġbilgisayar": 3830,
      "leyebilirsiniz": 3831,
      "haul": 3832,
      "Ġsahip": 3833,
      "ĠAlÄ±ÅŁkanlÄ±k": 3834,
      "Ġadvice": 3835,
      "lig": 3836,
      "Ġbreaths": 3837,
      "Ġdiy": 3838,
      "ĠGood": 3839,
      "Ġmonth": 3840,
      "arge": 3841,
      "ĠdÃ¼zenli": 3842,
      "Ġlost": 3843,
      "ĠparÃ§": 3844,
      "Ġaktivite": 3845,
      "Ġdetails": 3846,
      "ĠkarmaÅŁÄ±k": 3847,
      "Ġfavorite": 3848,
      "ding": 3849,
      "erhaba": 3850,
      "iled": 3851,
      "Ġspecifically": 3852,
      "Ġreliable": 3853,
      "ada": 3854,
      "menin": 3855,
      "Ġcor": 3856,
      "ĠÃĸner": 3857,
      "Ġodaklanma": 3858,
      "Ġekleyin": 3859,
      "ĠsÄ±kÄ±ntÄ±": 3860,
      "Ġiyisi": 3861,
      "Ġtes": 3862,
      "Ġbag": 3863,
      "oura": 3864,
      "Ġdate": 3865,
      "Ġkav": 3866,
      "Ġbuffer": 3867,
      "119": 3868,
      "Ġkurun": 3869,
      "Ġgerekti": 3870,
      "-one": 3871,
      "Ġstil": 3872,
      "Ġsakin": 3873,
      "Ġtar": 3874,
      "ata": 3875,
      "Ġcommun": 3876,
      "Ġoverhaul": 3877,
      "Ġweb": 3878,
      "Ġodaklanmak": 3879,
      "Ġtriggers": 3880,
      "74": 3881,
      "ĠkalÄ±": 3882,
      "Ġkritik": 3883,
      "Ġtomor": 3884,
      "Ġgere": 3885,
      "ĠanlaÅŁ": 3886,
      "Ġenc": 3887,
      "Ġbelirlem": 3888,
      "Ġimportance": 3889,
      "Ġdistraction": 3890,
      "Ġappoint": 3891,
      "Ġdefter": 3892,
      "ĠConsistency": 3893,
      "Ġtomorrow": 3894,
      "amak": 3895,
      "Ġroman": 3896,
      "Ġphones": 3897,
      "ĠkaydÄ±": 3898,
      "ĠolduÄŁunuz": 3899,
      "Ġtopics": 3900,
      "ĠkitabÄ±": 3901,
      "Ġdetailed": 3902,
      "oin": 3903,
      "Ġestablish": 3904,
      "ÄŁÄ±nÄ±zÄ±": 3905,
      "Ġchore": 3906,
      "Ġetmeye": 3907,
      "Ġortak": 3908,
      "ĠÃĩok": 3909,
      "Ġduvar": 3910,
      "eti": 3911,
      "ever": 3912,
      "Ġdav": 3913,
      "tÄ±ÄŁÄ±nÄ±z": 3914,
      "ĠTrue": 3915,
      "do": 3916,
      "Ġner": 3917,
      "Ġworrying": 3918,
      "Ġorganizing": 3919,
      "ĠStudy": 3920,
      "Ġstarts": 3921,
      "Ġeder": 3922,
      "Ġextra": 3923,
      "Ġalterna": 3924,
      "Ġremind": 3925,
      "zem": 3926,
      "Ġwrite": 3927,
      "Ġthese": 3928,
      "Ġbirini": 3929,
      "Ġokuy": 3930,
      "Ġgelen": 3931,
      "ĠolmasÄ±": 3932,
      "Ġremove": 3933,
      "Ġhandle": 3934,
      "ĠTÃ¼rkÃ§e": 3935,
      "inely": 3936,
      "ĠyarÄ±": 3937,
      "148": 3938,
      "udur": 3939,
      "Ġgenuinely": 3940,
      "Ġbin": 3941,
      "ĠCle": 3942,
      "minate": 3943,
      "Ġcompare": 3944,
      "Ġtarih": 3945,
      "Ġsepara": 3946,
      ".**": 3947,
      "Ġsight": 3948,
      "Ã¼ler": 3949,
      "Ġbelki": 3950,
      "ĠWhen": 3951,
      "ffeine": 3952,
      "Ġpacking": 3953,
      "Ġcaffeine": 3954,
      "Ġanx": 3955,
      "Ġready": 3956,
      "ĠgÃ¼nÃ¼nÃ¼z": 3957,
      "ults": 3958,
      "Ġcosts": 3959,
      "Ä±zlÄ±": 3960,
      "Ġchecklist": 3961,
      "Ġalarak": 3962,
      "ĠResearch": 3963,
      "Ã¼ph": 3964,
      "tically": 3965,
      "159": 3966,
      "ĠteÅŁ": 3967,
      "Ġharit": 3968,
      "ĠArkadaÅŁlÄ±k": 3969,
      "ft": 3970,
      "ility": 3971,
      "ĠÃ¶d": 3972,
      "ĠyazÄ±lÄ±": 3973,
      "ĠHedef": 3974,
      "Ġexpos": 3975,
      "Ġunderstood": 3976,
      "Ġstaying": 3977,
      "sine": 3978,
      "ĠkÃ¶": 3979,
      "Ġjoy": 3980,
      "ĠÃ¶nceden": 3981,
      "Ġbelirtin": 3982,
      "ĠyapÄ±la": 3983,
      "Ġsaatlerde": 3984,
      "ĠsaÄŁlayacak": 3985,
      "Ä±labilir": 3986,
      "ĠbahÃ§enizin": 3987,
      "Ġsummarizing": 3988,
      "Ġdavran": 3989,
      "Ġ-": 3990,
      "isyon": 3991,
      "Ġpick": 3992,
      "Ġsorular": 3993,
      "Ġweeks": 3994,
      "Ġdurumunu": 3995,
      "Ġblocking": 3996,
      "Ġgrad": 3997,
      "Ġkelime": 3998,
      "79": 3999,
      "ĠiÃ§mek": 4000,
      "lanmÄ±ÅŁ": 4001,
      "Ġspend": 4002,
      "165": 4003,
      "Ġbelirt": 4004,
      "Ġcreates": 4005,
      "-imp": 4006,
      "Ġplat": 4007,
      "ĠsÃ¶z": 4008,
      "Ġaren": 4009,
      "ili": 4010,
      "ildir": 4011,
      "Ġbring": 4012,
      "Ġdeadlines": 4013,
      "Ġexposure": 4014,
      "\")": 4015,
      "\",": 4016,
      "ĠSp": 4017,
      "Ġseb": 4018,
      "ĠiÅŁleri": 4019,
      "Ġkeeps": 4020,
      "ĠsÃ¼reli": 4021,
      "Ġdeng": 4022,
      "Ġreply": 4023,
      "Ġyatmadan": 4024,
      "Ġhissi": 4025,
      "Ġreturn": 4026,
      "Ġpat": 4027,
      "edi": 4028,
      "Ġtext": 4029,
      "ĠarasÄ±nda": 4030,
      "ĠWhy": 4031,
      "Ġolmayan": 4032,
      "Ġnature": 4033,
      "ĠInstead": 4034,
      "Ġbrings": 4035,
      "Ġspeaker": 4036,
      "Ġdirectly": 4037,
      "Ġsear": 4038,
      "Ġiste": 4039,
      "ĠgeliÅŁtir": 4040,
      "-to": 4041,
      "Ġmiktar": 4042,
      "Ġpara": 4043,
      "ĠkarÄ±": 4044,
      "ticing": 4045,
      "Ġdeeply": 4046,
      "Ġletting": 4047,
      "ĠkeÅŁfet": 4048,
      "Ġvakit": 4049,
      "-w": 4050,
      "ĠSleep": 4051,
      "ĠbaÅŁÄ±na": 4052,
      "ibly": 4053,
      "larÄ±nda": 4054,
      "Ġlisting": 4055,
      "ĠiÃ§indeki": 4056,
      "Ġemotions": 4057,
      "ĠyaklaÅŁÄ±m": 4058,
      "sek": 4059,
      "inter": 4060,
      "ĠsÃ¼": 4061,
      "Ġsec": 4062,
      "oney": 4063,
      "240": 4064,
      "Ġhear": 4065,
      "Ġnefesinizi": 4066,
      "ĠJust": 4067,
      "Ġinvol": 4068,
      "Ġrepetition": 4069,
      "jital": 4070,
      "Ġser": 4071,
      "Ġnothing": 4072,
      "Ġgrow": 4073,
      "209": 4074,
      "vices": 4075,
      "185": 4076,
      "Ġinternet": 4077,
      "Ġfrust": 4078,
      "ĠgÃ¼Ã§lendir": 4079,
      "ĠHemen": 4080,
      "Ġgradually": 4081,
      "'nde": 4082,
      "mand": 4083,
      "leyen": 4084,
      "tanÄ±n": 4085,
      "aat": 4086,
      "dÄ±k": 4087,
      "Ġshif": 4088,
      "ĠbaÅŁka": 4089,
      "ĠuygulamasÄ±": 4090,
      "Ġconnections": 4091,
      "Ġyarat": 4092,
      "ĠDeclutter": 4093,
      "Ġeating": 4094,
      "Ġdemand": 4095,
      "Ġyapma": 4096,
      "Ġplanlama": 4097,
      "166": 4098,
      "ures": 4099,
      "Ġremoving": 4100,
      "Ġzih": 4101,
      "Ġmalzem": 4102,
      "Ġplatform": 4103,
      "Ġcons": 4104,
      "Ġstrate": 4105,
      "Ġsos": 4106,
      "Ġstrong": 4107,
      "yap": 4108,
      "Ġcho": 4109,
      "187": 4110,
      "ĠpiÅŁirme": 4111,
      "Ġhappen": 4112,
      "Ġcontainers": 4113,
      "Ġfrequently": 4114,
      "Ġcritical": 4115,
      "ĠEliminate": 4116,
      "ĠEl": 4117,
      "Ġmoney": 4118,
      "ĠPut": 4119,
      "Ġchoose": 4120,
      "Ġdecide": 4121,
      "ĠSÄ±": 4122,
      "Ġuygulay": 4123,
      "ĠalÄ±ÅŁkanlÄ±ÄŁÄ±": 4124,
      "ĠWrite": 4125,
      "Ġhealthy": 4126,
      "-impact": 4127,
      "ĠTV": 4128,
      "ĠGÃ¶": 4129,
      "Ġspon": 4130,
      "ĠUz": 4131,
      "Ġencoura": 4132,
      "Ġstic": 4133,
      "184": 4134,
      "189": 4135,
      "ĠÃ¶ÄŁrenmeye": 4136,
      "âĢĵ": 4137,
      "Ġassum": 4138,
      "ĠsÃ¶y": 4139,
      "Ġspontane": 4140,
      "Ġhy": 4141,
      "153": 4142,
      "ĠZor": 4143,
      "Ä±klÄ±": 4144,
      "Ġsorunu": 4145,
      "Ġprote": 4146,
      "ĠkolaylaÅŁ": 4147,
      "ĠbÃ¶lg": 4148,
      "uck": 4149,
      "ĠYatmadan": 4150,
      "230": 4151,
      "ura": 4152,
      "Ġsl": 4153,
      "Ġverimli": 4154,
      "charge": 4155,
      "ross": 4156,
      "times": 4157,
      "Ġmessages": 4158,
      "ub": 4159,
      "ĠsÄ±nÄ±r": 4160,
      "cisi": 4161,
      "ÄŁÄ±nda": 4162,
      "ĠÃ¶l": 4163,
      "adi": 4164,
      "Ġkonum": 4165,
      "ĠistiyorsanÄ±z": 4166,
      "Ġhead": 4167,
      "ucu": 4168,
      "layÄ±cÄ±": 4169,
      "Ġincre": 4170,
      "Ġcontinu": 4171,
      "Ġsenin": 4172,
      "ĠkalkÄ±p": 4173,
      "oÄŁun": 4174,
      "ĠyemeÄŁi": 4175,
      "Ġsticking": 4176,
      "pose": 4177,
      "sar": 4178,
      "Ã§i": 4179,
      "Ġresults": 4180,
      "207": 4181,
      "ĠFotoÄŁraf": 4182,
      "Ġedip": 4183,
      "Ġmastering": 4184,
      "Ġdesignated": 4185,
      "53": 4186,
      "58": 4187,
      "121": 4188,
      "186": 4189,
      "Ġhesap": 4190,
      "ĠÃ¼zere": 4191,
      "Ġcommunic": 4192,
      "ial": 4193,
      "Ġcue": 4194,
      "Ġmap": 4195,
      "Ġonline": 4196,
      "Ã¼zel": 4197,
      "ĠkullanmayÄ±": 4198,
      "Ġederek": 4199,
      "ĠiÅŁler": 4200,
      "Ġbilgiye": 4201,
      "ĠÅŁunlarÄ±": 4202,
      "Ãĸn": 4203,
      "Ġemotional": 4204,
      "Ġtaraf": 4205,
      "ket": 4206,
      "sÄ±na": 4207,
      "Ã¼st": 4208,
      "Ġforce": 4209,
      "ĠyapmanÄ±z": 4210,
      "909": 4211,
      "Ġexpect": 4212,
      "ount": 4213,
      "Ġcomfortable": 4214,
      "ĠadÄ±": 4215,
      "ingu": 4216,
      "Ġteach": 4217,
      "ĠazÄ±ndan": 4218,
      "ĠsaÄŁlam": 4219,
      "Ġsunlight": 4220,
      "ĠGetting": 4221,
      "Ġshoot": 4222,
      "Ġmindfulness": 4223,
      "Ġcra": 4224,
      "Ġrecharge": 4225,
      "Ġzama": 4226,
      "mekten": 4227,
      "Ġisn": 4228,
      "Ġsaati": 4229,
      "Ġmotivated": 4230,
      "ĠoluÅŁturmak": 4231,
      "ĠÃĩalÄ±ÅŁ": 4232,
      "valtÄ±": 4233,
      "Ġinteractions": 4234,
      "Ġlock": 4235,
      "ines": 4236,
      "ints": 4237,
      "Ġnear": 4238,
      "Ġtired": 4239,
      "ĠBuild": 4240,
      "183": 4241,
      "188": 4242,
      "Ġdistingu": 4243,
      "iety": 4244,
      "Ġdistinguish": 4245,
      "68": 4246,
      "gi": 4247,
      "Ġpic": 4248,
      "Ġfood": 4249,
      "Ġinstantly": 4250,
      "Ġdair": 4251,
      "Ä±lÄ±r": 4252,
      "Ġwindow": 4253,
      "-time": 4254,
      "ges": 4255,
      "to": 4256,
      "ĠÅŁehir": 4257,
      "904": 4258,
      "Ġsaatini": 4259,
      "Ġturn": 4260,
      "Ġsurfaces": 4261,
      "Ġlooking": 4262,
      "Ġkabul": 4263,
      "Ġconfidence": 4264,
      "Ġanxiety": 4265,
      "Ġprom": 4266,
      "Ġmeaningful": 4267,
      "Ġarka": 4268,
      "ĠkonuÅŁmak": 4269,
      "Ġedebilirsiniz": 4270,
      "Ġemail": 4271,
      "Ġclothes": 4272,
      "Ġtechniqu": 4273,
      "Ġem": 4274,
      "ĠHave": 4275,
      "ĠÃ¶lÃ§": 4276,
      "Ġtechniques": 4277,
      "'u": 4278,
      "allen": 4279,
      "Ġbeen": 4280,
      "206": 4281,
      "avig": 4282,
      "pping": 4283,
      "Ã¼nÃ¼zÃ¼": 4284,
      "Ġjudgment": 4285,
      "ĠcÃ¼mleler": 4286,
      "ihaz": 4287,
      "Ã¼phan": 4288,
      "Ä±sa": 4289,
      "Ġpile": 4290,
      "usal": 4291,
      "ĠanÄ±nda": 4292,
      "Ġpracticing": 4293,
      "sÄ±t": 4294,
      "158": 4295,
      "208": 4296,
      "Ġekleyerek": 4297,
      "Ġuygulamalar": 4298,
      "ĠpopÃ¼ler": 4299,
      "Ġpurpose": 4300,
      "ging": 4301,
      "Ġsal": 4302,
      "Ġnavig": 4303,
      "Ġzorunda": 4304,
      "Ġcol": 4305,
      "Ġru": 4306,
      "Ġyerden": 4307,
      "Ġwhenever": 4308,
      "ĠdÃ¼ÅŁÃ¼r": 4309,
      "Ġaiming": 4310,
      "ĠDes": 4311,
      "lanan": 4312,
      "ĠHay": 4313,
      "ĠHarika": 4314,
      "Ġotel": 4315,
      "ĠÃ§eker": 4316,
      "dÃ¼r": 4317,
      "ences": 4318,
      "237": 4319,
      "907": 4320,
      "Ġkaybet": 4321,
      "Ġpersonal": 4322,
      "ĠalanÄ±": 4323,
      "Ġexchanging": 4324,
      "ĠaydÄ±nlat": 4325,
      "Ġdiyerek": 4326,
      "Ġslot": 4327,
      "73": 4328,
      "ink": 4329,
      "Ġtable": 4330,
      "Ġuyuyun": 4331,
      "203": 4332,
      "905": 4333,
      "906": 4334,
      "Ġpoints": 4335,
      "ĠdÃ¼zenleme": 4336,
      "ĠgÃ¶revleri": 4337,
      "Ġvalue": 4338,
      "ĠdetaylÄ±": 4339,
      "ĠbaÅŁlangÄ±cÄ±": 4340,
      "ĠbÃ¼tÃ§": 4341,
      "63": 4342,
      "ĠÃ¼Ã§": 4343,
      "Ġfay": 4344,
      "ĠSaat": 4345,
      "Ġstuck": 4346,
      "Ġaccommodations": 4347,
      "ĠsabÄ±r": 4348,
      "Ġzamanda": 4349,
      "Ġsefer": 4350,
      "Ġfact": 4351,
      "204": 4352,
      "ĠdÃ¼zel": 4353,
      "Ġfinding": 4354,
      "Ġkaydet": 4355,
      "underst": 4356,
      "ĠyoÄŁun": 4357,
      "101": 4358,
      "olu": 4359,
      "ĠaÃ§Ä±": 4360,
      "Ġclarity": 4361,
      "Ġyeterlidir": 4362,
      "build": 4363,
      "ĠÃ¶dÃ¼l": 4364,
      "78": 4365,
      "der": 4366,
      "ru": 4367,
      "tiri": 4368,
      "Ġbiti": 4369,
      "Ġdevices": 4370,
      "Ġchallen": 4371,
      "ĠÅŁimdi": 4372,
      "Ġyerde": 4373,
      "234": 4374,
      "111": 4375,
      "Ġkoyun": 4376,
      "Ġhardest": 4377,
      "Ġincluding": 4378,
      "Ġmisunderst": 4379,
      "ĠdeÄŁiÅŁik": 4380,
      "Ġattrac": 4381,
      "Ġpushes": 4382,
      "ĠkÃ¼t": 4383,
      "Ġrebuild": 4384,
      "ĠatÄ±n": 4385,
      "Ġboz": 4386,
      "Ġbelirtil": 4387,
      "Ġtransit": 4388,
      "Ġharc": 4389,
      "ledge": 4390,
      "Ġdesired": 4391,
      "ĠkÄ±sm": 4392,
      ")**": 4393,
      "Â°": 4394,
      "Ġunder": 4395,
      "ĠuygulayÄ±n": 4396,
      "ĠyapmaktÄ±r": 4397,
      "Ġsleeping": 4398,
      "Ġcommon": 4399,
      "Ġexample": 4400,
      "236": 4401,
      "ĠStop": 4402,
      "Ġsaatlik": 4403,
      "ĠgÃ¶revi": 4404,
      "Ġprof": 4405,
      "ĠyapÄ±lan": 4406,
      "Ġgider": 4407,
      "ĠprogramÄ±": 4408,
      "ĠkolaylaÅŁtÄ±rÄ±r": 4409,
      "Ġkindness": 4410,
      "228": 4411,
      "Ġconstantly": 4412,
      "ĠÄ°ÅŁ": 4413,
      "ĠkaÃ§Ä±n": 4414,
      "205": 4415,
      "250": 4416,
      "Ġodaklanarak": 4417,
      "Ġlate": 4418,
      "Ġincred": 4419,
      "Ġrelations": 4420,
      "Ġdisconnect": 4421,
      "Ġbarri": 4422,
      "St": 4423,
      "miÅŁtir": 4424,
      "Ġait": 4425,
      "Ġbec": 4426,
      "Ġana": 4427,
      "ĠGece": 4428,
      "Ġfriction": 4429,
      "ĠiÅŁle": 4430,
      "Ġilerlemeyi": 4431,
      "Ġlarger": 4432,
      "ĠmantÄ±klÄ±": 4433,
      "Ġincredibly": 4434,
      "Ġrelationship": 4435,
      "-c": 4436,
      "lamayÄ±": 4437,
      "Ġhedefe": 4438,
      "ĠarasÄ±": 4439,
      "rolling": 4440,
      "ĠBaÅŁarÄ±": 4441,
      "ĠbaÄŁlÄ±": 4442,
      "ĠbÃ¶lÃ¼m": 4443,
      "talÄ±k": 4444,
      "Ġent": 4445,
      "Ġcihaz": 4446,
      "ĠyapÄ±p": 4447,
      "Ġkayb": 4448,
      "Ġurge": 4449,
      "Ġstretch": 4450,
      "Ġguilt": 4451,
      "Ä°lk": 4452,
      "Ġalma": 4453,
      "Ġdili": 4454,
      "Ġetkin": 4455,
      "Ġdimming": 4456,
      "Ġkelimeler": 4457,
      "ĠkoÅŁul": 4458,
      "ĠsÃ¼ren": 4459,
      "Ġmad": 4460,
      "ĠNe": 4461,
      "ifik": 4462,
      "ĠhafifÃ§e": 4463,
      "ĠgÃ¶nderin": 4464,
      "ty": 4465,
      "rated": 4466,
      "164": 4467,
      "Ġalong": 4468,
      "ibility": 4469,
      "182": 4470,
      "Ġbelirleyip": 4471,
      "229": 4472,
      "903": 4473,
      "Ġexpecting": 4474,
      "ĠbaÅŁlamanÄ±z": 4475,
      "ĠodaklanmayÄ±": 4476,
      "Ġileride": 4477,
      "Ġlonger": 4478,
      "Ġtemizlik": 4479,
      "ĠÃ¼zerinden": 4480,
      "ĠayarlayÄ±n": 4481,
      "ĠgeÃ§irin": 4482,
      "Ġgives": 4483,
      "ĠhatÄ±rlat": 4484,
      "Ġrequires": 4485,
      "ĠsÃ¶yle": 4486,
      "fÄ±r": 4487,
      "hand": 4488,
      "iraz": 4489,
      "ola": 4490,
      "Ġtreating": 4491,
      "Ġbunun": 4492,
      "Ġmak": 4493,
      "esifik": 4494,
      "Ġbulund": 4495,
      "Ġspesifik": 4496,
      "Ġspecial": 4497,
      "Ġherhangi": 4498,
      "ĠFor": 4499,
      "409": 4500,
      "Ġperform": 4501,
      "Ġenjoyable": 4502,
      "Ġsilence": 4503,
      "Ġstill": 4504,
      "Ġsosyal": 4505,
      "212": 4506,
      "309": 4507,
      "260": 4508,
      "908": 4509,
      "Ġpreventing": 4510,
      "Ġwait": 4511,
      "Ġdepart": 4512,
      "Ġversion": 4513,
      "Ġmesaf": 4514,
      "Ġblack": 4515,
      "vet": 4516,
      "ÄŁÄ±n": 4517,
      "ĠBÃ¼yÃ¼k": 4518,
      "ĠanlÄ±k": 4519,
      "Ġbelong": 4520,
      "235": 4521,
      "Ġuninter": 4522,
      "ĠkonuÅŁmayÄ±": 4523,
      "ĠsÄ±caklÄ±ÄŁÄ±nÄ±": 4524,
      "melisiniz": 4525,
      "Ġtasar": 4526,
      "ultane": 4527,
      "Ġmight": 4528,
      "ĠÃ¶rneÄŁin": 4529,
      "Ġatmak": 4530,
      "306": 4531,
      "307": 4532,
      "285": 4533,
      "270": 4534,
      "Ġkendini": 4535,
      "Ġhedefinizi": 4536,
      "609": 4537,
      "709": 4538,
      "Ġaray": 4539,
      "ĠdÃ¼zenini": 4540,
      "Ġyatak": 4541,
      "Ġallows": 4542,
      "Ġhaftada": 4543,
      "Ġcarry": 4544,
      "Ġcirc": 4545,
      "Ġcommunicate": 4546,
      "ultaneously": 4547,
      "210": 4548,
      "Ġyapabilirsiniz": 4549,
      "lerine": 4550,
      "Ġsimultaneously": 4551,
      "Ġlit": 4552,
      "Ġkalite": 4553,
      "304": 4554,
      "181": 4555,
      "uÄŁu": 4556,
      "809": 4557,
      "Ġgener": 4558,
      "Ġkurmak": 4559,
      "leÅŁtirmek": 4560,
      ".\"Ċ": 4561,
      "must": 4562,
      "Ġmid": 4563,
      "Ġanal": 4564,
      "Ġmeeting": 4565,
      "Ġbeforehand": 4566,
      "169": 4567,
      "233": 4568,
      "asÄ±nda": 4569,
      "ĠkiÅŁiye": 4570,
      "ĠgerÃ§ekten": 4571,
      "Ġideal": 4572,
      "Ġsesli": 4573,
      "Ġpozisyon": 4574,
      "Ġtools": 4575,
      "ney": 4576,
      "rend": 4577,
      "where": 4578,
      "Ġyapt": 4579,
      "Ġyaparken": 4580,
      "Ġattem": 4581,
      "Ġevdeki": 4582,
      "305": 4583,
      "504": 4584,
      "Ġgerekli": 4585,
      "Ġvisit": 4586,
      "ĠkapatÄ±n": 4587,
      "Ġperiods": 4588,
      "ĠClear": 4589,
      "adian": 4590,
      "Ġcircadian": 4591,
      "Ġtat": 4592,
      "Ġshel": 4593,
      "uggage": 4594,
      "138": 4595,
      "Ġintens": 4596,
      "405": 4597,
      "704": 4598,
      "Ġexpens": 4599,
      "rupted": 4600,
      "ĠJoin": 4601,
      "Ġalternative": 4602,
      "Ġuninterrupted": 4603,
      "Ġluggage": 4604,
      "ĠÃ¶ncel": 4605,
      "163": 4606,
      "ĠKitap": 4607,
      "805": 4608,
      "phones": 4609,
      "ĠazaltÄ±r": 4610,
      "member": 4611,
      "ba": 4612,
      "yin": 4613,
      "Ġpre": 4614,
      "Ġyum": 4615,
      "kim": 4616,
      "Ġcover": 4617,
      "Ġdold": 4618,
      "607": 4619,
      "404": 4620,
      "509": 4621,
      "705": 4622,
      "Ġuygulama": 4623,
      "Ġcalming": 4624,
      "Ġscheduling": 4625,
      "Ġcorner": 4626,
      "'a": 4627,
      "Ġton": 4628,
      "ĠiliÅŁ": 4629,
      "kip": 4630,
      "Ġabs": 4631,
      "ĠbaÅŁlatÄ±n": 4632,
      "ague": 4633,
      "vite": 4634,
      "ĠdaÄŁÄ±": 4635,
      "289": 4636,
      "249": 4637,
      "ĠbahÃ§ede": 4638,
      "Ġilerlemek": 4639,
      "dÄ±ÄŁÄ±nÄ±zda": 4640,
      "Ġclose": 4641,
      "ĠtanÄ±ÅŁacak": 4642,
      "lul": 4643,
      "ops": 4644,
      "uel": 4645,
      "elen": 4646,
      "Ġanlamak": 4647,
      "Ġplanla": 4648,
      "ĠÃ¶ÄŁrenin": 4649,
      "284": 4650,
      "Ġcomb": 4651,
      "ĠiÅŁaret": 4652,
      "Ġsub": 4653,
      "ĠhafÄ±z": 4654,
      "-post": 4655,
      "Ġinteraction": 4656,
      "ĠDesign": 4657,
      "Ġmisunderstand": 4658,
      "power": 4659,
      "Ġned": 4660,
      "Ġquit": 4661,
      "Ġwhether": 4662,
      "Ġseem": 4663,
      "232": 4664,
      "iÄŁiniz": 4665,
      "902": 4666,
      "605": 4667,
      "Ġrid": 4668,
      "Ġconnect": 4669,
      "Ġvisible": 4670,
      "Ġsignals": 4671,
      "Ġrahatlat": 4672,
      "Ġpartner": 4673,
      "Ġsolve": 4674,
      "cast": 4675,
      "Ġtell": 4676,
      "Ġcontrol": 4677,
      "Ġmer": 4678,
      "Ġrein": 4679,
      "ĠyazÄ±n": 4680,
      "ĠkaldÄ±r": 4681,
      "336": 4682,
      "507": 4683,
      "ĠuygulamasÄ±nÄ±": 4684,
      "ĠihtiyacÄ±nÄ±z": 4685,
      "iÃ§ek": 4686,
      "vik": 4687,
      "ties": 4688,
      "Ġsn": 4689,
      "Ġstand": 4690,
      "286": 4691,
      "unuzda": 4692,
      "ĠÃ§alÄ±ÅŁmaya": 4693,
      "Ġscrolling": 4694,
      "Ġreinfor": 4695,
      "ĠEr": 4696,
      "ĠsoÄŁ": 4697,
      "Ġsolu": 4698,
      "layan": 4699,
      "287": 4700,
      "804": 4701,
      "606": 4702,
      "407": 4703,
      "round": 4704,
      "Ġortamda": 4705,
      "Ġmemory": 4706,
      "Ġcramming": 4707,
      "gid": 4708,
      "tÃ¼r": 4709,
      "Ġfil": 4710,
      "Ġeden": 4711,
      "ĠdeÄŁildir": 4712,
      "Ġvad": 4713,
      "202": 4714,
      "Ġkullanmaya": 4715,
      "604": 4716,
      "ĠgÃ¶rsel": 4717,
      "Ġairline": 4718,
      "Ġincele": 4719,
      "Ġaccomplishment": 4720,
      "Ġprofes": 4721,
      "Ġshelves": 4722,
      "back": 4723,
      "zerv": 4724,
      "Ġrezerv": 4725,
      "imit": 4726,
      "ĠÃ§ay": 4727,
      "131": 4728,
      "806": 4729,
      "505": 4730,
      "lemesine": 4731,
      "ĠbaÅŁlamaktÄ±r": 4732,
      "Ġharekete": 4733,
      "Ġsign": 4734,
      "ĠyavaÅŁÃ§a": 4735,
      "Ġinitial": 4736,
      "Ġwebsi": 4737,
      "ĠUzun": 4738,
      "tri": 4739,
      "zet": 4740,
      "ets": 4741,
      "ats": 4742,
      "Ġolup": 4743,
      "ĠHÄ±zlÄ±": 4744,
      "308": 4745,
      "406": 4746,
      "yonel": 4747,
      "ĠResim": 4748,
      "Ġnerede": 4749,
      "ĠteÅŁvik": 4750,
      "Ġcues": 4751,
      "Ġboring": 4752,
      "ÄŁim": 4753,
      "ĠolmanÄ±z": 4754,
      "Ġdemek": 4755,
      "ĠyapacaÄŁ": 4756,
      "Ġresist": 4757,
      "ĠplanÄ±nÄ±zÄ±": 4758,
      "Ġevent": 4759,
      "303": 4760,
      "ĠÃ§ekecek": 4761,
      "506": 4762,
      "707": 4763,
      "ĠCheck": 4764,
      "reading": 4765,
      "tirecek": 4766,
      "Ġemails": 4767,
      "ively": 4768,
      "Ġroute": 4769,
      "Ġdemanding": 4770,
      "BugÃ¼n": 4771,
      "Ġty": 4772,
      "Ġfun": 4773,
      "Ġremember": 4774,
      "Ġforcing": 4775,
      "Ġvague": 4776,
      "Ġalone": 4777,
      "Ġbahset": 4778,
      "334": 4779,
      "Ġprov": 4780,
      "ĠSabahlarÄ±": 4781,
      "ĠhÄ±zlÄ±ca": 4782,
      "Ġmisiniz": 4783,
      "head": 4784,
      "Ġlabeled": 4785,
      "sik": 4786,
      "Ġ\\": 4787,
      "Ġhon": 4788,
      "ĠGÃ¶z": 4789,
      "288": 4790,
      "834": 4791,
      "ĠdÃ¼zeninizi": 4792,
      "ĠGÃ¼neÅŁ": 4793,
      "Ġbitki": 4794,
      "Ġtelefonunuzun": 4795,
      "gul": 4796,
      "Ġanla": 4797,
      "168": 4798,
      "283": 4799,
      "807": 4800,
      "408": 4801,
      "706": 4802,
      "ĠakÄ±ÅŁ": 4803,
      "Ġwatching": 4804,
      "menize": 4805,
      "Ġexpressing": 4806,
      "ĠÃ§ekiyor": 4807,
      "Ġintention": 4808,
      "Ġkelimeleri": 4809,
      "ĠaltÄ±nda": 4810,
      "ĠdavranÄ±ÅŁ": 4811,
      "Toplam": 4812,
      "aÃ§": 4813,
      "yes": 4814,
      "Ġahead": 4815,
      "ĠaydÄ±r": 4816,
      "Ġuyuy": 4817,
      "Ġcore": 4818,
      "ĠyÃ¼rÃ¼m": 4819,
      "ĠÅŁeyleri": 4820,
      "837": 4821,
      "Ġrigid": 4822,
      "bilecek": 4823,
      "Ġdrink": 4824,
      "Ġcurtain": 4825,
      "ĠÄ±lÄ±k": 4826,
      "landÄ±ÄŁÄ±nÄ±z": 4827,
      "Ġattractions": 4828,
      "Ġpi": 4829,
      "Ã¼ven": 4830,
      "Ġayak": 4831,
      "Ġdilin": 4832,
      "Ġetki": 4833,
      "849": 4834,
      "Ġister": 4835,
      "Ġtelefonunuzu": 4836,
      "ĠhazÄ±rlayÄ±n": 4837,
      "Ġtane": 4838,
      "ĠkapatÄ±p": 4839,
      "Ġkork": 4840,
      "Ġfayd": 4841,
      "Ġsnack": 4842,
      "Ġrezervasyon": 4843,
      "Ġcatch": 4844,
      "ĠTek": 4845,
      "Ġeks": 4846,
      "ĠbirleÅŁ": 4847,
      "lanÄ±r": 4848,
      "Ġzek": 4849,
      "ardan": 4850,
      "335": 4851,
      "ĠÃ§Ä±kÄ±p": 4852,
      "Ġbilet": 4853,
      "Ġseparate": 4854,
      "Ġprofesyonel": 4855,
      "isel": 4856,
      "ĠtanÄ±": 4857,
      "ullan": 4858,
      "Ġidentif": 4859,
      "Ġfiz": 4860,
      "Ġfuel": 4861,
      "ĠLimit": 4862,
      "Ġacross": 4863,
      "Ġokuyun": 4864,
      "ĠkullanÄ±m": 4865,
      "Ġsaatleri": 4866,
      "503": 4867,
      "836": 4868,
      "Ġactionable": 4869,
      "Ġharder": 4870,
      "Ġavailability": 4871,
      "Ġshift": 4872,
      "Start": 4873,
      "ĠDesignate": 4874,
      "gu": 4875,
      "Ġdrain": 4876,
      "Ġfit": 4877,
      "ĠbaÅŁk": 4878,
      "885": 4879,
      "Ġcommitting": 4880,
      "diÄŁi": 4881,
      "Ġautomatically": 4882,
      "ĠsatÄ±n": 4883,
      "Ġswitch": 4884,
      "Ġtavsiye": 4885,
      "Ġassuming": 4886,
      "Ġprotect": 4887,
      "Ġteaching": 4888,
      "ĠdeÄŁiÅŁiklik": 4889,
      "Ġtyp": 4890,
      "Ġaler": 4891,
      "Ġsite": 4892,
      "ĠtaÅŁ": 4893,
      "ilmiÅŁ": 4894,
      "Ġgest": 4895,
      "ĠBiraz": 4896,
      "Ġstate": 4897,
      "abilirim": 4898,
      "leriniz": 4899,
      "Ġrushing": 4900,
      "loj": 4901,
      "333": 4902,
      "ĠpiÅŁiriyor": 4903,
      "ĠaraÅŁtÄ±r": 4904,
      "ĠgeÃ§mek": 4905,
      "Ġaccum": 4906,
      "Ġlearned": 4907,
      "Ġbekleme": 4908,
      "Ġsentences": 4909,
      "KÃ¼Ã§Ã¼k": 4910,
      "urarak": 4911,
      "ĠaÅŁam": 4912,
      "veriÅŁ": 4913,
      "ĠduÅŁ": 4914,
      "Ġfill": 4915,
      "Ġkonfor": 4916,
      "indeki": 4917,
      "ĠsÃ¼rede": 4918,
      "phra": 4919,
      "Ġtamamla": 4920,
      "Ġbilgileri": 4921,
      "Ġinvolves": 4922,
      "Ġinsan": 4923,
      "Ġnumber": 4924,
      "ĠÃ§iÃ§ek": 4925,
      "Ġgoes": 4926,
      "iber": 4927,
      "Ġyeri": 4928,
      "337": 4929,
      "603": 4930,
      "703": 4931,
      "349": 4932,
      "Ġhissed": 4933,
      "ĠeÄŁiti": 4934,
      "Ġbalanced": 4935,
      "gen": 4936,
      "Ġsure": 4937,
      "ĠtÃ¼k": 4938,
      "Ġmeal": 4939,
      "iness": 4940,
      "ics": 4941,
      "Ġvermek": 4942,
      "ĠseÃ§imi": 4943,
      "901": 4944,
      "403": 4945,
      "Ġdurumda": 4946,
      "Ġproj": 4947,
      "Ġdeneyebilirsiniz": 4948,
      "Ġaccus": 4949,
      "leyebilir": 4950,
      "ĠdÃ¶nÃ¼ÅŁ": 4951,
      "Ġmeditation": 4952,
      "Ġblackout": 4953,
      "fen": 4954,
      "may": 4955,
      "task": 4956,
      "Ġsound": 4957,
      "Ġil": 4958,
      "imd": 4959,
      "ĠbaÅŁtan": 4960,
      "efore": 4961,
      "ĠalmayÄ±": 4962,
      "Ġevents": 4963,
      "iÄŁini": 4964,
      "Ġhedefi": 4965,
      "884": 4966,
      "835": 4967,
      "ĠgeÃ§in": 4968,
      "ĠÃ¶nemlidir": 4969,
      "Ġinceley": 4970,
      "ĠyaptÄ±ÄŁÄ±nÄ±z": 4971,
      "ĠBaÅŁlangÄ±Ã§ta": 4972,
      "ble": 4973,
      "Ã¢": 4974,
      "ensi": 4975,
      "ĠAÄŁ": 4976,
      "ĠuÃ§": 4977,
      "201": 4978,
      "Ġsonucu": 4979,
      "803": 4980,
      "Ġupon": 4981,
      "708": 4982,
      "Ġaraz": 4983,
      "Ġcloset": 4984,
      "ĠkÃ¼tÃ¼phan": 4985,
      "Ġidentifying": 4986,
      "ns": 4987,
      "pts": 4988,
      "ĠsÄ±r": 4989,
      "Ġtest": 4990,
      "Ã§Ä±": 4991,
      "Ġflow": 4992,
      "liÄŁ": 4993,
      "Ġissu": 4994,
      "Ġfeed": 4995,
      "282": 4996,
      "886": 4997,
      "Ġdijital": 4998,
      "ĠsorunlarÄ±": 4999,
      "apping": 5000,
      "ĠyÃ¼ksek": 5001,
      "ĠÄ±ÅŁÄ±ÄŁÄ±na": 5002,
      "Ġplacing": 5003,
      "Ġmutlak": 5004,
      "Ġanaliz": 5005,
      "Ġcurtains": 5006,
      "sunuz": 5007,
      "rev": 5008,
      "Ġmy": 5009,
      "Ġzorlu": 5010,
      "ificant": 5011,
      "ĠseÃ§im": 5012,
      "ĠseÃ§ene": 5013,
      "808": 5014,
      "Ġupda": 5015,
      "887": 5016,
      "ĠsÃ¼rekli": 5017,
      "Ġilerleme": 5018,
      "Ġlocation": 5019,
      "Ã¼tfen": 5020,
      "-second": 5021,
      "Ġkesin": 5022,
      "Ġhonest": 5023,
      "Bir": 5024,
      "sim": 5025,
      "Ġtough": 5026,
      "Ġdata": 5027,
      "Ã¶n": 5028,
      "ĠÃ¶rnek": 5029,
      "kiyor": 5030,
      "ĠayÄ±rdÄ±ÄŁÄ±": 5031,
      "Ġyapay": 5032,
      "ĠbuluÅŁma": 5033,
      "Ġseason": 5034,
      "Ġtraveling": 5035,
      "ĠyÃ¼rÃ¼yerek": 5036,
      "608": 5037,
      "Ġuykuya": 5038,
      "Ġshowing": 5039,
      "ĠolduÄŁundan": 5040,
      "ĠyapÄ±lacak": 5041,
      "Ġsecure": 5042,
      "pting": 5043,
      "Ġprep": 5044,
      "Ã¼p": 5045,
      "Ġmode": 5046,
      "Ġbeyn": 5047,
      "ĠbaÅŁlÄ±": 5048,
      "ĠMart": 5049,
      "Ġplanner": 5050,
      "Ġrates": 5051,
      "lÄ±klÄ±": 5052,
      "222": 5053,
      "ĠkullanÄ±lan": 5054,
      "508": 5055,
      "Ġelect": 5056,
      "ĠyÃ¶net": 5057,
      "Ġinterruptions": 5058,
      "ĠolmalÄ±dÄ±r": 5059,
      "Ġclos": 5060,
      "ĠsaÄŁlÄ±klÄ±": 5061,
      "Ġexplaining": 5062,
      "-posta": 5063,
      "Ġeksik": 5064,
      "Ġissues": 5065,
      "Ġada": 5066,
      "Ġyiy": 5067,
      "Ġib": 5068,
      "Ġfaster": 5069,
      "ĠgÃ¼nkÃ¼": 5070,
      "Ġris": 5071,
      "Ġhedefleyin": 5072,
      "ĠalÄ±ÅŁveriÅŁ": 5073,
      "502": 5074,
      "Ġrepeat": 5075,
      "ĠseÃ§mektir": 5076,
      "Ġmultitask": 5077,
      "ĠeÄŁlen": 5078,
      "Ġdinlenme": 5079,
      "Ġgerekiyor": 5080,
      "'le": 5081,
      "bo": 5082,
      "ĠYaz": 5083,
      "Ġexc": 5084,
      "ĠBirkaÃ§": 5085,
      "ĠgeniÅŁ": 5086,
      "Ġseviyenizi": 5087,
      "Ġschedules": 5088,
      "Ġtransportation": 5089,
      "ĠHabits": 5090,
      "Ġdoldur": 5091,
      "Ġmisunderstandings": 5092,
      "over": 5093,
      "Ġban": 5094,
      "ature": 5095,
      "ĠMerhaba": 5096,
      "Ġyapmadan": 5097,
      "Ġchar": 5098,
      "402": 5099,
      "Ġeffective": 5100,
      "Ġmutlaka": 5101,
      "ative": 5102,
      "nece": 5103,
      "Ġ'": 5104,
      "Ġken": 5105,
      "arlÄ±": 5106,
      "ĠbaÅŁa": 5107,
      "ĠbaÅŁÄ±nda": 5108,
      "ĠMaps": 5109,
      "ĠÃ§im": 5110,
      "ĠÃ¶ÄŁrend": 5111,
      "302": 5112,
      "281": 5113,
      "ĠBirlikte": 5114,
      "ĠbaÅŁlangÄ±Ã§ta": 5115,
      "bileceÄŁiniz": 5116,
      "ĠkonuÅŁmaya": 5117,
      "ĠyapÄ±yor": 5118,
      "iyet": 5119,
      "Ġkaydedin": 5120,
      "gÃ¼nlÃ¼k": 5121,
      "Ġintensity": 5122,
      "Ġsignificant": 5123,
      "necess": 5124,
      "Ġself": 5125,
      "Ġayr": 5126,
      "Ġzones": 5127,
      "Ġrun": 5128,
      "Ġspending": 5129,
      "Ġunnecess": 5130,
      "ĠgiriÅŁ": 5131,
      "Ġelectron": 5132,
      "micro": 5133,
      "ulan": 5134,
      "ĠayÄ±rd": 5135,
      "lamaya": 5136,
      "ĠÃ¶ÄŁre": 5137,
      "Ġroutines": 5138,
      "veness": 5139,
      "manÄ±za": 5140,
      "ĠtÃ¼rÃ¼": 5141,
      "ĠChange": 5142,
      "ĠkahvaltÄ±": 5143,
      "Ġdefensi": 5144,
      "ĠulaÅŁÄ±labilir": 5145,
      "Ġproductivity": 5146,
      "-sleep": 5147,
      "Ġduygular": 5148,
      "Ġsentence": 5149,
      "mayan": 5150,
      "Ġpap": 5151,
      "Ġtreat": 5152,
      "Ġwillpower": 5153,
      "Ġspor": 5154,
      "Ġboy": 5155,
      "ĠyÃ¼ze": 5156,
      "ĠÃ§alÄ±ÅŁmayÄ±": 5157,
      "Ġilerleyin": 5158,
      "Ġbekle": 5159,
      "ĠgerÃ§ekÃ§i": 5160,
      "Ġmasa": 5161,
      "Ġpiece": 5162,
      "224": 5163,
      "oloj": 5164,
      "Ä±yorum": 5165,
      "usunu": 5166,
      "riority": 5167,
      "Ġvererek": 5168,
      "Ġspark": 5169,
      "231": 5170,
      "Ä±ÅŁtÄ±r": 5171,
      "Ġokay": 5172,
      "Ġtutarak": 5173,
      "ĠseÃ§erek": 5174,
      "883": 5175,
      "889": 5176,
      "Ġedecek": 5177,
      "ĠbaÅŁlamadan": 5178,
      "ĠtamamlayÄ±n": 5179,
      "ĠoluÅŁtu": 5180,
      "ĠbÄ±rakÄ±p": 5181,
      "ĠbakÄ±n": 5182,
      "Ġspots": 5183,
      "ĠgÃ¼Ã§lÃ¼": 5184,
      "ĠkalÄ±cÄ±": 5185,
      "cc": 5186,
      "ses": 5187,
      "Ġtone": 5188,
      "Ġconstant": 5189,
      "Ġdim": 5190,
      "Ġrece": 5191,
      "alÄ±sÄ±nÄ±z": 5192,
      "ĠExp": 5193,
      "Ġcompleted": 5194,
      "888": 5195,
      "Ġblok": 5196,
      "Ġengel": 5197,
      "ĠyanlÄ±ÅŁ": 5198,
      "Ġpriorities": 5199,
      "Ġsitu": 5200,
      "ĠÃ§evir": 5201,
      "Ġspontaneous": 5202,
      "ĠÃĩalÄ±ÅŁma": 5203,
      "ĠyumuÅŁ": 5204,
      "Ġdefensiveness": 5205,
      "Ġnod": 5206,
      "Ġwon": 5207,
      "Ġocc": 5208,
      "acaktÄ±r": 5209,
      "ĠÃ¶ne": 5210,
      "ĠyetiÅŁ": 5211,
      "ĠeÅŁyadÄ±r": 5212,
      "Ġbelirti": 5213,
      "ĠkullanÄ±mÄ±": 5214,
      "Ġoutcome": 5215,
      "702": 5216,
      "Ġflexibility": 5217,
      "Ġparties": 5218,
      "Ġlistener": 5219,
      "Ġleads": 5220,
      "Ġslowly": 5221,
      "Ġbitkiler": 5222,
      "Ġparaphra": 5223,
      "Ġhyd": 5224,
      "Ġpicking": 5225,
      "Ġfizik": 5226,
      "-reading": 5227,
      "Ġlay": 5228,
      "Ġtw": 5229,
      "alara": 5230,
      "ĠYap": 5231,
      "ĠYeni": 5232,
      "Ġkaf": 5233,
      "Ġmeetings": 5234,
      "Ġjum": 5235,
      "ĠkullanmaktÄ±r": 5236,
      "ĠgÃ¼nÃ¼nÃ¼": 5237,
      "Ġvalu": 5238,
      "ĠzorluklarÄ±": 5239,
      "ĠÃ§izim": 5240,
      "Ġbilim": 5241,
      "Ġwrong": 5242,
      "Ġoturup": 5243,
      "Ġmakinesi": 5244,
      "Ġswitching": 5245,
      "ĠkarÄ±ÅŁ": 5246,
      "Ġibaret": 5247,
      "310": 5248,
      "kend": 5249,
      "Ġharika": 5250,
      "irken": 5251,
      "liÄŁini": 5252,
      "ĠbaÅŁar": 5253,
      "ĠyapÄ±l": 5254,
      "ĠyazÄ±": 5255,
      "Ġloud": 5256,
      "-priority": 5257,
      "Ġdrives": 5258,
      "Ġrenk": 5259,
      "Ġdeparture": 5260,
      "Ġzeka": 5261,
      "know": 5262,
      "asit": 5263,
      "iding": 5264,
      "Ä±nÄ±zla": 5265,
      "ĠÃ¶nÃ¼nde": 5266,
      "Ġgez": 5267,
      "ĠolduÄŁun": 5268,
      "iyat": 5269,
      "dÄ±ÄŁÄ±nda": 5270,
      "Ġcalls": 5271,
      "Ġruh": 5272,
      "216": 5273,
      "rop": 5274,
      "sad": 5275,
      "Ġsoon": 5276,
      "ĠkalÄ±n": 5277,
      "173": 5278,
      "ards": 5279,
      "Ġphra": 5280,
      "Ġbookings": 5281,
      "laÅŁma": 5282,
      "ĠiletiÅŁimi": 5283,
      "ĠdoÄŁrusu": 5284,
      "Ġappro": 5285,
      "Ġhayal": 5286,
      "Ġkonuya": 5287,
      "Ġconcepts": 5288,
      "Ġreacting": 5289,
      "Ġfeedback": 5290,
      "Ġunnecessary": 5291,
      "225": 5292,
      "uyarak": 5293,
      "ravel": 5294,
      "Ġora": 5295,
      "Ġins": 5296,
      "ĠÄ°ki": 5297,
      "Ġdeals": 5298,
      "lerinize": 5299,
      "301": 5300,
      "ĠbahÃ§eye": 5301,
      "Ġdefining": 5302,
      "dÄ±ÄŁÄ±nÄ±zÄ±": 5303,
      "Ġcategories": 5304,
      "Ġhikaye": 5305,
      "Ġisterseniz": 5306,
      "uss": 5307,
      "Ġgreat": 5308,
      "Ġemer": 5309,
      "ĠBunun": 5310,
      "Ġstops": 5311,
      "ential": 5312,
      "Ġbulup": 5313,
      "Ġyazmak": 5314,
      "Ġsonuna": 5315,
      "ĠÃ§ekin": 5316,
      "602": 5317,
      "832": 5318,
      "ĠodaklÄ±": 5319,
      "lantÄ±": 5320,
      "Ġafterward": 5321,
      "meyen": 5322,
      "Ġskills": 5323,
      "Ġintentional": 5324,
      "Ġexchange": 5325,
      "ĠayÄ±rarak": 5326,
      "Ġencourage": 5327,
      "hoto": 5328,
      "iyorum": 5329,
      "text": 5330,
      "ĠDil": 5331,
      "Ġgather": 5332,
      "Ġlistel": 5333,
      "Ġhedefle": 5334,
      "501": 5335,
      "Ġdiscuss": 5336,
      "Ġkelimeyi": 5337,
      "ĠsÃ¼reÃ§te": 5338,
      "ĠSpend": 5339,
      "Ġsebz": 5340,
      "sadece": 5341,
      "fak": 5342,
      "iyi": 5343,
      "Ä±yorsanÄ±z": 5344,
      "Ġnaz": 5345,
      "ĠMayÄ±": 5346,
      "Ġnecess": 5347,
      "ĠOk": 5348,
      "idden": 5349,
      "142": 5350,
      "ĠkullanÄ±l": 5351,
      "ĠgeÃ§iÅŁ": 5352,
      "ĠyÃ¶ntemi": 5353,
      "ĠyÃ¼rÃ¼me": 5354,
      "tÄ±racak": 5355,
      "Ġbarrier": 5356,
      "Ġattempting": 5357,
      "Ġreinforce": 5358,
      "Ġcity": 5359,
      "ĠMay": 5360,
      "Ġphysically": 5361,
      "Ġtelefonunuzda": 5362,
      "Ġlimits": 5363,
      "Ġgitmek": 5364,
      "Ġroutes": 5365,
      "ĠfÄ±rsa": 5366,
      "Ġtemper": 5367,
      "-se": 5368,
      "mini": 5369,
      "tÃ¼": 5370,
      "arp": 5371,
      "Ġacknow": 5372,
      "ĠOnce": 5373,
      "Ġkitaplar": 5374,
      "802": 5375,
      "401": 5376,
      "Ġdonate": 5377,
      "Ġbakarak": 5378,
      "Ġalacak": 5379,
      "ĠartÄ±rÄ±n": 5380,
      "'nin": 5381,
      "lÄ±ÄŁÄ±na": 5382,
      "Ġziyaret": 5383,
      "Ġtesting": 5384,
      "Ġtarz": 5385,
      "-h": 5386,
      "ĠkayÄ±": 5387,
      "esinde": 5388,
      "ĠadÄ±mÄ±n": 5389,
      "Ġmetin": 5390,
      "Ġorder": 5391,
      "Ġworry": 5392,
      "Ġelinizdeki": 5393,
      "ĠhÄ±zlandÄ±r": 5394,
      "ĠÃ§Ã¶zmek": 5395,
      "Ġcuri": 5396,
      "ĠulaÅŁmak": 5397,
      "ĠyÃ¼ksel": 5398,
      "Ġdrawers": 5399,
      "ĠaÅŁaÄŁÄ±daki": 5400,
      "Ġyolculuk": 5401,
      "Ġappointment": 5402,
      "Ġexpenses": 5403,
      "815": 5404,
      "Ben": 5405,
      "GÃ¼n": 5406,
      "not": 5407,
      "inking": 5408,
      "Ġgently": 5409,
      "Ġbirbir": 5410,
      "abin": 5411,
      "Ġstra": 5412,
      "Ġreason": 5413,
      "enty": 5414,
      "ĠÃ¶nerilir": 5415,
      "Ġart": 5416,
      "ĠyÃ¼zmeye": 5417,
      "andÄ±r": 5418,
      "ĠkiÅŁisel": 5419,
      "Ġboundary": 5420,
      "Ġegzersizi": 5421,
      "ĠHaftanÄ±n": 5422,
      "Ġlimit": 5423,
      "Ġstratej": 5424,
      "Ġlittle": 5425,
      "Use": 5426,
      "lus": 5427,
      "yet": 5428,
      "Ġhang": 5429,
      "221": 5430,
      "882": 5431,
      "332": 5432,
      "areket": 5433,
      "Ġjourney": 5434,
      "Ġolabilirim": 5435,
      "Ġsaniy": 5436,
      "Ġbelirlemektir": 5437,
      "ĠolmadÄ±ÄŁÄ±nÄ±": 5438,
      "Ġziyade": 5439,
      "41": 5440,
      "812": 5441,
      "bi": 5442,
      "fer": 5443,
      "Ġpati": 5444,
      "Ġkan": 5445,
      "Ġkum": 5446,
      "Ġdok": 5447,
      "ayla": 5448,
      "ĠuÄŁ": 5449,
      "icul": 5450,
      "ĠzamanÄ±nÄ±zÄ±": 5451,
      "Ġlez": 5452,
      "Ġsafe": 5453,
      "Ġkalit": 5454,
      "ĠKÄ±sa": 5455,
      "Ġoverall": 5456,
      "Ġsormak": 5457,
      "ĠyÃ¼zer": 5458,
      "801": 5459,
      "Ġsuya": 5460,
      "Ġkayda": 5461,
      "Ġitineraries": 5462,
      "ĠalanlarÄ±": 5463,
      "ĠnetleÅŁtirin": 5464,
      "ĠdetaylarÄ±": 5465,
      "Ġhobbies": 5466,
      "ĠkaÄŁÄ±t": 5467,
      "Ġarrive": 5468,
      "Ġchores": 5469,
      "Ġridicul": 5470,
      "Ġfiziksel": 5471,
      "Ġnazik": 5472,
      "Ġtemperature": 5473,
      "327": 5474,
      "52": 5475,
      "816": 5476,
      "Ġcabin": 5477,
      "alt": 5478,
      "Ġkod": 5479,
      "unting": 5480,
      "Ġstabil": 5481,
      "Ġretention": 5482,
      "Ã¼zen": 5483,
      "ackle": 5484,
      "Ġstepping": 5485,
      "601": 5486,
      "anÄ±p": 5487,
      "Ġrelaxation": 5488,
      "ĠulaÅŁÄ±m": 5489,
      "ĠÄ±sÄ±": 5490,
      "ĠMayÄ±s": 5491,
      "'Ã¼": 5492,
      "'nda": 5493,
      "217": 5494,
      "810": 5495,
      "com": 5496,
      "gest": 5497,
      "ially": 5498,
      "uct": 5499,
      "ons": 5500,
      "Ġsli": 5501,
      "Ġyola": 5502,
      "ĠTeach": 5503,
      "Ġrema": 5504,
      "Ġtrash": 5505,
      "Ġetme": 5506,
      "331": 5507,
      "ĠaÃ§Ä±n": 5508,
      "pecially": 5509,
      "ĠazaltÄ±n": 5510,
      "Ġaccessible": 5511,
      "Ġgestures": 5512,
      "72": 5513,
      "mut": 5514,
      "Ġsm": 5515,
      "Ġtab": 5516,
      "Ġwhy": 5517,
      "Ġyazar": 5518,
      "Ġoturum": 5519,
      "701": 5520,
      "kincisi": 5521,
      "Ġinceleyin": 5522,
      "ĠvÃ¼cudunuzun": 5523,
      "Ġoblig": 5524,
      "ĠkeÅŁf": 5525,
      "Ġminimize": 5526,
      "Ġvalidating": 5527,
      "ĠbunlarÄ±": 5528,
      "Ġsince": 5529,
      "ĠyazÄ±lÄ±m": 5530,
      "Ġexpectations": 5531,
      "Ġslots": 5532,
      "Ġapproach": 5533,
      "-ste": 5534,
      "anlÄ±k": 5535,
      "Ġcontext": 5536,
      "Ġidentify": 5537,
      "ĠbaÅŁlÄ±k": 5538,
      "Ġkons": 5539,
      "Ã¼rÃ¼n": 5540,
      "Ġfees": 5541,
      "oling": 5542,
      "Ġdaunting": 5543,
      "leyici": 5544,
      "Ġworks": 5545,
      "ĠgeliÅŁ": 5546,
      "ĠGÃ¼ne": 5547,
      "ĠaÃ§Ä±p": 5548,
      "Ġrepeated": 5549,
      "ĠazalÄ±r": 5550,
      "Ġcount": 5551,
      "Ġespecially": 5552,
      "ĠyaÅŁayan": 5553,
      "Ġcategory": 5554,
      "Ġversus": 5555,
      "'ye": 5556,
      "-ins": 5557,
      "213": 5558,
      "314": 5559,
      "384": 5560,
      "480": 5561,
      "814": 5562,
      "826": 5563,
      "Create": 5564,
      "by": 5565,
      "ĠÃ¼re": 5566,
      "Ã¼le": 5567,
      "les": 5568,
      "ĠOne": 5569,
      "Ġyerinizi": 5570,
      "ĠWork": 5571,
      "ĠolduÄŁunuzu": 5572,
      "elerden": 5573,
      "Ġgereksiz": 5574,
      "ĠKendinize": 5575,
      "ĠkolayÄ±": 5576,
      "Ġexplain": 5577,
      "Ġridiculously": 5578,
      "830": 5579,
      "ĠYoga": 5580,
      "ĠgÃ¼zel": 5581,
      "Ġeyle": 5582,
      "Ġkutudaki": 5583,
      "ĠistediÄŁin": 5584,
      "Ġizleyin": 5585,
      "ĠgÃ¶revlerinizi": 5586,
      "Ġcomput": 5587,
      "larÄ±nÄ±zÄ±n": 5588,
      "ĠkatÄ±l": 5589,
      "Ġilerlemenizi": 5590,
      "ĠmÃ¼mkÃ¼nse": 5591,
      "Ġresistance": 5592,
      "215": 5593,
      "435": 5594,
      "820": 5595,
      "meli": 5596,
      "Ġbild": 5597,
      "Ġhidden": 5598,
      "ĠÄ°Ã§": 5599,
      "Ġyapar": 5600,
      "Ġlog": 5601,
      "Ġcevab": 5602,
      "831": 5603,
      "most": 5604,
      "ucing": 5605,
      "acaÄŁÄ±nÄ±zÄ±": 5606,
      "Ġunutma": 5607,
      "ĠpaylaÅŁÄ±n": 5608,
      "Ġplaces": 5609,
      "Ġsolutions": 5610,
      "ĠfaydalÄ±": 5611,
      "317": 5612,
      "uoling": 5613,
      "Ġstim": 5614,
      "Ġbaz": 5615,
      "ĠBugÃ¼n": 5616,
      "ĠBefore": 5617,
      "atory": 5618,
      "Ġkonak": 5619,
      "Ġseti": 5620,
      "leyecek": 5621,
      "Ġkoyarak": 5622,
      "Ġgelir": 5623,
      "ĠKendinizi": 5624,
      "Ġengaged": 5625,
      "ĠuÄŁra": 5626,
      "uolingo": 5627,
      "226": 5628,
      "330": 5629,
      "817": 5630,
      "ral": 5631,
      "vÄ±": 5632,
      "inci": 5633,
      "Ġpair": 5634,
      "ĠTravel": 5635,
      "ĠanÄ±": 5636,
      "ĠÃ¶zen": 5637,
      "ĠÅŁekli": 5638,
      "Ġbekl": 5639,
      "Ġtemizleyin": 5640,
      "Ġbehaviors": 5641,
      "lÃ¼ÄŁ": 5642,
      "ĠBelirli": 5643,
      "316": 5644,
      "320": 5645,
      "324": 5646,
      "829": 5647,
      "912": 5648,
      "nden": 5649,
      "Ġpast": 5650,
      "Ġslight": 5651,
      "ĠayÄ±nda": 5652,
      "ĠbeÅŁ": 5653,
      "Ġforget": 5654,
      "ĠÃ¶nerim": 5655,
      "ider": 5656,
      "ides": 5657,
      "Ġwilling": 5658,
      "ĠyerleÅŁ": 5659,
      "larÄ±ndan": 5660,
      "ĠdÃ¼ÅŁÃ¼nd": 5661,
      "Ġpeak": 5662,
      "ension": 5663,
      "Ġmuh": 5664,
      "ĠFriends": 5665,
      "Ġproductive": 5666,
      "ĠKonuÅŁ": 5667,
      "ĠuyandÄ±ktan": 5668,
      "828": 5669,
      "824": 5670,
      "880": 5671,
      "sal": 5672,
      "ndle": 5673,
      "Ġsending": 5674,
      "usted": 5675,
      "met": 5676,
      "ĠTackle": 5677,
      "acÄ±": 5678,
      "unlu": 5679,
      "lim": 5680,
      "ĠadÄ±mdÄ±r": 5681,
      "Ġvi": 5682,
      "ĠÅŁudur": 5683,
      "evap": 5684,
      "tÄ±rarak": 5685,
      "ĠÃ¶ÄŁrenmeyi": 5686,
      "Ġmotivasyonu": 5687,
      "Ġstatement": 5688,
      "ebilirim": 5689,
      "ĠgÃ¶sterin": 5690,
      "Ġhayatta": 5691,
      "Ã¼ÄŁÃ¼nÃ¼z": 5692,
      "Ġsuppress": 5693,
      "Ġsearching": 5694,
      "Ġfrustrated": 5695,
      "ĠGÃ¶rev": 5696,
      "Ġpiles": 5697,
      "Ġjumping": 5698,
      "227": 5699,
      "313": 5700,
      "325": 5701,
      "328": 5702,
      "413": 5703,
      "414": 5704,
      "913": 5705,
      "bal": 5706,
      "emm": 5707,
      "ĠEkim": 5708,
      "Ġmar": 5709,
      "Ġmapping": 5710,
      "Ġeat": 5711,
      "Ġeyes": 5712,
      "larÄ±nÄ±n": 5713,
      "edin": 5714,
      "Ġverilen": 5715,
      "Ġjo": 5716,
      "Ġplanlam": 5717,
      "Ġhaven": 5718,
      "elerin": 5719,
      "Ġprice": 5720,
      "Ġalana": 5721,
      "Ġbiggest": 5722,
      "Ġspaced": 5723,
      "Ġhalinde": 5724,
      "Ġnoktal": 5725,
      "Ġderinlemesine": 5726,
      "Ġduration": 5727,
      "ĠNumarasÄ±": 5728,
      "329": 5729,
      "385": 5730,
      "416": 5731,
      "813": 5732,
      "823": 5733,
      "916": 5734,
      "Ġlik": 5735,
      "Ġplay": 5736,
      "Ġyes": 5737,
      "Ġdah": 5738,
      "ayg": 5739,
      "ĠMev": 5740,
      "Ġjar": 5741,
      "ĠFind": 5742,
      "Ġdeeper": 5743,
      "Ġopini": 5744,
      "ĠInvite": 5745,
      "Ġseviyesini": 5746,
      "ĠHafta": 5747,
      "ĠyorgunluÄŁ": 5748,
      "ĠeÅŁyalar": 5749,
      "Ġbecer": 5750,
      "Ġentry": 5751,
      "214": 5752,
      "326": 5753,
      "410": 5754,
      "429": 5755,
      "827": 5756,
      "Ġpower": 5757,
      "Ġkil": 5758,
      "Ġstruct": 5759,
      "ĠPM": 5760,
      "dev": 5761,
      "Ġweekend": 5762,
      "acaÄŁÄ±nÄ±z": 5763,
      "âĢĶto": 5764,
      "Ä±lacak": 5765,
      "ĠaÄŁaÃ§": 5766,
      "Ġhuzurlu": 5767,
      "ĠSÃ¼rekli": 5768,
      "ĠhiÃ§bir": 5769,
      "Â°F": 5770,
      "Ġsubject": 5771,
      "Ġnodding": 5772,
      "Ġnecessary": 5773,
      "Ġstabilize": 5774,
      "220": 5775,
      "388": 5776,
      "387": 5777,
      "415": 5778,
      "412": 5779,
      "436": 5780,
      "833": 5781,
      "910": 5782,
      "915": 5783,
      "920": 5784,
      "929": 5785,
      "Can": 5786,
      "dik": 5787,
      "Ġalig": 5788,
      "Ġbis": 5789,
      "Ġbes": 5790,
      "fully": 5791,
      "layacak": 5792,
      "ĠKullan": 5793,
      "Ġetmeniz": 5794,
      "ĠsÃ¼resini": 5795,
      "ĠÃ¶zellikle": 5796,
      "ĠÃ§ekim": 5797,
      "ĠÃ¶ncelikli": 5798,
      "Ġsitting": 5799,
      "Ġslightly": 5800,
      "'Ä±": 5801,
      "312": 5802,
      "Go": 5803,
      "ben": 5804,
      "gage": 5805,
      "Ġtension": 5806,
      "resh": 5807,
      "ĠBun": 5808,
      "ĠAÅŁ": 5809,
      "Ġsoft": 5810,
      "Ġreally": 5811,
      "**,": 5812,
      "uture": 5813,
      "ĠÃĸz": 5814,
      "Ġcancel": 5815,
      "ĠbaÅŁlayabilir": 5816,
      "Ġetti": 5817,
      "ĠokumayÄ±": 5818,
      "881": 5819,
      "ĠalÄ±ÅŁkanlÄ±ÄŁ": 5820,
      "ĠaracÄ±": 5821,
      "Ġgerekecek": 5822,
      "lenen": 5823,
      "Ġindirin": 5824,
      "Ġbelirlemeniz": 5825,
      "Ġvadeli": 5826,
      "'unda": 5827,
      "323": 5828,
      "437": 5829,
      "What": 5830,
      "kÃ¼Ã§Ã¼k": 5831,
      "ĠAc": 5832,
      "Ġbeats": 5833,
      "ined": 5834,
      "ĠnumaranÄ±z": 5835,
      "malarÄ±": 5836,
      "ĠyÃ¼rÃ¼yÃ¼n": 5837,
      "Ġnoise": 5838,
      "Ġarada": 5839,
      "Ġlowers": 5840,
      "Ġunderstands": 5841,
      "Ġaccusing": 5842,
      "ĠkapalÄ±": 5843,
      "Ġbekleyin": 5844,
      "Ġgetirin": 5845,
      "ĠgerektiÄŁini": 5846,
      "Ġappointments": 5847,
      "Ġpatter": 5848,
      "Ġmultitasking": 5849,
      "-see": 5850,
      "223": 5851,
      "380": 5852,
      "386": 5853,
      "420": 5854,
      "417": 5855,
      "825": 5856,
      "935": 5857,
      "eet": 5858,
      "Ãĩ": 5859,
      "Ġnor": 5860,
      "Ġfuture": 5861,
      "ahÃ§": 5862,
      "ĠkÄ±sÄ±t": 5863,
      "Ġkonular": 5864,
      "ĠÃ¶nerisi": 5865,
      "ĠzorluÄŁ": 5866,
      "Ġatarak": 5867,
      "unuzdan": 5868,
      "tadÄ±r": 5869,
      "Ġpriority": 5870,
      "Ġuygulamaya": 5871,
      "Ġetmektir": 5872,
      "Ġtarif": 5873,
      "ĠBelki": 5874,
      "Ġrefle": 5875,
      "ĠkaynaÄŁÄ±": 5876,
      "Ġnearby": 5877,
      "ĠHayat": 5878,
      "Ġpaper": 5879,
      "315": 5880,
      "924": 5881,
      "gon": 5882,
      "work": 5883,
      "Ġbri": 5884,
      "elere": 5885,
      "Ġfam": 5886,
      "esine": 5887,
      "Ġreh": 5888,
      "ĠadÄ±mÄ±nÄ±": 5889,
      "ĠyapabileceÄŁiniz": 5890,
      "ĠÃ¶ncesi": 5891,
      "aÄŁa": 5892,
      "shop": 5893,
      "ĠtemizliÄŁi": 5894,
      "Ġdelay": 5895,
      "-task": 5896,
      "ĠbaÅŁlangÄ±c": 5897,
      "licit": 5898,
      "Ġincrease": 5899,
      ".'": 5900,
      "424": 5901,
      "488": 5902,
      "914": 5903,
      "930": 5904,
      "927": 5905,
      "980": 5906,
      "Set": 5907,
      "xim": 5908,
      "titu": 5909,
      "alan": 5910,
      "leas": 5911,
      "ĠyalnÄ±z": 5912,
      "ysanÄ±z": 5913,
      "ersiniz": 5914,
      "Ġark": 5915,
      "ions": 5916,
      "ĠolduÄŁuna": 5917,
      "Ġgerektir": 5918,
      "Ġilerle": 5919,
      "Ġdeciding": 5920,
      "Ġreaching": 5921,
      "ĠAÄŁust": 5922,
      "389": 5923,
      "425": 5924,
      "485": 5925,
      "489": 5926,
      "934": 5927,
      "936": 5928,
      "949": 5929,
      "Avoid": 5930,
      "Ġsust": 5931,
      "ĠEat": 5932,
      "Ġstating": 5933,
      "ĠgÃ¼nler": 5934,
      "Ġrush": 5935,
      "Ġfear": 5936,
      "ilebilir": 5937,
      "celi": 5938,
      "Ġkurul": 5939,
      "ĠÃ¶zg": 5940,
      "Ġhareketleri": 5941,
      "Ġgidip": 5942,
      "Ġbulunan": 5943,
      "ĠsÃ¼rdÃ¼r": 5944,
      "luluk": 5945,
      "Ġbisik": 5946,
      "430": 5947,
      "426": 5948,
      "926": 5949,
      "933": 5950,
      "Ġfore": 5951,
      "lation": 5952,
      "lict": 5953,
      "Ġmovi": 5954,
      "Ġolaca": 5955,
      "Ġdille": 5956,
      "ĠbaÅŁlamayÄ±": 5957,
      "Ġaktif": 5958,
      "ĠyÃ¶nelik": 5959,
      "Ġcommitments": 5960,
      "ĠyapÄ±sÄ±nÄ±": 5961,
      "ĠUyk": 5962,
      "Ġhappy": 5963,
      "Ġintense": 5964,
      "ĠÃ¶nceliklendir": 5965,
      "Ġdeadline": 5966,
      "Ġsearch": 5967,
      "aygÄ±n": 5968,
      "Ġnormal": 5969,
      "211": 5970,
      "917": 5971,
      "erken": 5972,
      "uge": 5973,
      "ĠiÃ§erek": 5974,
      "ĠgÃ¼ne": 5975,
      "ĠÄ°kincisi": 5976,
      "Ġyapmam": 5977,
      "Ġanlamaya": 5978,
      "ĠplanlÄ±": 5979,
      "Ġseven": 5980,
      "check": 5981,
      "Ġalmost": 5982,
      "Ġfriendships": 5983,
      "Ġnotice": 5984,
      "ĠFr": 5985,
      "night": 5986,
      "elerini": 5987,
      "ĠhaftalÄ±k": 5988,
      "Ġgarden": 5989,
      "ĠolmasÄ±nÄ±": 5990,
      "ĠolanÄ±": 5991,
      "ĠtÃ¼rden": 5992,
      "Ġconflict": 5993,
      "Ġrutini": 5994,
      "Ġinitially": 5995,
      "Ġcategorize": 5996,
      "Ġtidying": 5997,
      "ĠÃ¶ÄŁleden": 5998,
      "Ġmissing": 5999,
      "Ġkavram": 6000,
      "ĠharitasÄ±": 6001,
      "Ġsignificantly": 6002,
      "427": 6003,
      "449": 6004,
      "928": 6005,
      "923": 6006,
      "Ġmix": 6007,
      "Ġstoring": 6008,
      "ĠbaÅŁÄ±nÄ±za": 6009,
      "Ġyazarak": 6010,
      "Ġsuda": 6011,
      "ĠgeÃ§miÅŁ": 6012,
      "ĠkonuÅŁmalar": 6013,
      "ĠuygulamalarÄ±": 6014,
      "ĠÄ±s": 6015,
      "...\")": 6016,
      "Ġhiking": 6017,
      "ĠkolaylaÅŁtÄ±rmak": 6018,
      "hotoshop": 6019,
      "Ġstructure": 6020,
      "487": 6021,
      "486": 6022,
      "62": 6023,
      "714": 6024,
      "984": 6025,
      "Sadece": 6026,
      "kward": 6027,
      "top": 6028,
      "erti": 6029,
      "Ġpa": 6030,
      "Ã¼yor": 6031,
      "urn": 6032,
      "vest": 6033,
      "Ġfla": 6034,
      "ĠiÃ§i": 6035,
      "olog": 6036,
      "oci": 6037,
      "bilirsin": 6038,
      "Ä±ldÄ±": 6039,
      "ĠyÃ¶ntemdir": 6040,
      "Ġconfus": 6041,
      "Ġtakv": 6042,
      "âĢĶlike": 6043,
      "ĠErken": 6044,
      "ĠaydÄ±rdÄ±": 6045,
      "Ġparaphrasing": 6046,
      "428": 6047,
      "433": 6048,
      "484": 6049,
      "987": 6050,
      "Ġprati": 6051,
      "Ġgrate": 6052,
      "ÄŁe": 6053,
      "Ã¶yle": 6054,
      "lerken": 6055,
      "old": 6056,
      "cies": 6057,
      "ĠÅŁeyin": 6058,
      "siyon": 6059,
      "rack": 6060,
      "Ġawkward": 6061,
      "Ġhareketi": 6062,
      "ĠsaÄŁlayan": 6063,
      "Ġobs": 6064,
      "Ġobject": 6065,
      "Ġswims": 6066,
      "ĠiÃ§eren": 6067,
      "Ġindirip": 6068,
      "Ġmalzemeleri": 6069,
      "Ġcontinue": 6070,
      "Ġjargon": 6071,
      "Ġgrateful": 6072,
      "985": 6073,
      "937": 6074,
      "ame": 6075,
      "Ġtu": 6076,
      "Ġtuz": 6077,
      "ounda": 6078,
      "Ġdizi": 6079,
      "Ġfounda": 6080,
      "umlu": 6081,
      "ÄŁine": 6082,
      "ĠSÄ±k": 6083,
      "rip": 6084,
      "Ġbey": 6085,
      "ĠayÄ±rt": 6086,
      "enizin": 6087,
      "Ġistiyor": 6088,
      "ored": 6089,
      "ĠKayÄ±t": 6090,
      "Ġtrips": 6091,
      "Ġcommitment": 6092,
      "Ġmessy": 6093,
      "Ġhissetti": 6094,
      "Ġhissetmeye": 6095,
      "ĠsÄ±kÄ±cÄ±": 6096,
      "Ġassoci": 6097,
      "Ġdikkatli": 6098,
      "ĠyaÅŁa": 6099,
      "Ġpassively": 6100,
      "Ġamount": 6101,
      "Ġavailable": 6102,
      "Ġdefteri": 6103,
      "iliar": 6104,
      "Ġdahil": 6105,
      "434": 6106,
      "520": 6107,
      "986": 6108,
      "eÃ§": 6109,
      "ned": 6110,
      "yÄ±m": 6111,
      "isidir": 6112,
      "Ġdiz": 6113,
      "temelen": 6114,
      "Ġmist": 6115,
      "Ġsomut": 6116,
      "omatik": 6117,
      "Ġworkday": 6118,
      "Ġsaatlerinizi": 6119,
      "ĠÃĸncelik": 6120,
      "Ġistek": 6121,
      "Ġimpul": 6122,
      "Ġhaline": 6123,
      "Ġformulating": 6124,
      "Ġinitiating": 6125,
      "Ġyorgunluk": 6126,
      "Ġduygusal": 6127,
      "ĠsÃ¼recini": 6128,
      "ĠÅŁeklinde": 6129,
      "Ġlikely": 6130,
      "ĠAÄŁustos": 6131,
      "988": 6132,
      "eak": 6133,
      "ism": 6134,
      "alama": 6135,
      "ĠÃ¶nerileri": 6136,
      "Ġtrusted": 6137,
      "Ġdeneyerek": 6138,
      "Ġkolayca": 6139,
      "ĠÃĸnceki": 6140,
      "abilecek": 6141,
      "Ġpopular": 6142,
      "Ġonunla": 6143,
      "ĠamaÃ§la": 6144,
      "ĠparÃ§alara": 6145,
      "Ġnedeni": 6146,
      "Ġupdates": 6147,
      "Ġkafa": 6148,
      "423": 6149,
      "483": 6150,
      "925": 6151,
      "One": 6152,
      "Ġoto": 6153,
      "Ġpil": 6154,
      "Ġport": 6155,
      "orm": 6156,
      "ĠyaygÄ±n": 6157,
      "Ġmas": 6158,
      "Ġcome": 6159,
      "Ġvo": 6160,
      "Ġkalma": 6161,
      "ĠAyda": 6162,
      "ĠyÃ¼rÃ¼yÃ¼ÅŁÃ¼": 6163,
      "Ġcompletion": 6164,
      "ĠsaÄŁlamak": 6165,
      "Ġaccount": 6166,
      "ĠMotivasyon": 6167,
      "Ġizlemek": 6168,
      "Ġshows": 6169,
      "ĠbÃ¶lÃ¼n": 6170,
      "Ġrefresh": 6171,
      "Ġdisrupt": 6172,
      "Ġcombat": 6173,
      "710": 6174,
      "749": 6175,
      "989": 6176,
      "Eat": 6177,
      "cu": 6178,
      "kt": 6179,
      "isf": 6180,
      "Ġsul": 6181,
      "ĠEvet": 6182,
      "Ġfar": 6183,
      "ĠBasit": 6184,
      "Ġshower": 6185,
      "152": 6186,
      "uyg": 6187,
      "ĠfotoÄŁrafÄ±": 6188,
      "portun": 6189,
      "ĠdoÄŁa": 6190,
      "Ġtempt": 6191,
      "Ġreducing": 6192,
      "Ġopportun": 6193,
      "Ġenerjinizi": 6194,
      "Ãĸner": 6195,
      "Ġmaxim": 6196,
      "ĠaraÃ§larÄ±": 6197,
      "Ġmedya": 6198,
      "Ġdisrupts": 6199,
      "Ġengaging": 6200,
      "Ġtavsiy": 6201,
      "ĠbÃ¼tÃ§enizi": 6202,
      "ĠtÃ¼ket": 6203,
      "Ġlezzet": 6204,
      "Ġbildirim": 6205,
      "Ġtuval": 6206,
      "383": 6207,
      "620": 6208,
      "715": 6209,
      "983": 6210,
      "App": 6211,
      "Durum": 6212,
      "oz": 6213,
      "ises": 6214,
      "Ġtou": 6215,
      "cept": 6216,
      "Ġmask": 6217,
      "ĠBatch": 6218,
      "Ġinerti": 6219,
      "aten": 6220,
      "asÄ±n": 6221,
      "Ã¼kemm": 6222,
      "ayÄ±f": 6223,
      "ayÄ±m": 6224,
      "Ġveren": 6225,
      "Ġresearch": 6226,
      "thinking": 6227,
      "ters": 6228,
      "Ġalso": 6229,
      "ĠbaÅŁlayabilirsin": 6230,
      "Ġettir": 6231,
      "ĠÃ§ekmeye": 6232,
      "Ġinteres": 6233,
      "ĠnetleÅŁtir": 6234,
      "Ġortadan": 6235,
      "Ġrelated": 6236,
      "ĠgerÃ§ekleÅŁ": 6237,
      "Ġkaynat": 6238,
      "Ġbitirin": 6239,
      "Ġconcent": 6240,
      "ĠolduÄŁunca": 6241,
      "ĠMevcut": 6242,
      "Ġinertia": 6243,
      "534": 6244,
      "Not": 6245,
      "masÄ±na": 6246,
      "Ġ$": 6247,
      "racak": 6248,
      "Ġnut": 6249,
      "ÅŁe": 6250,
      "lasik": 6251,
      "ĠgÃ¼nlerde": 6252,
      "ĠÄ°ste": 6253,
      "Ġlun": 6254,
      "ĠÃ¶nlemek": 6255,
      "Ġhedefinize": 6256,
      "tedir": 6257,
      "Ġexpand": 6258,
      "ĠodaklanÄ±p": 6259,
      "Ġlose": 6260,
      "ĠdÃ¼ÅŁÃ¼nce": 6261,
      "Ġdinner": 6262,
      "osing": 6263,
      "Ġaddress": 6264,
      "larÄ±nÄ±za": 6265,
      "ĠkitabÄ±n": 6266,
      "ĠiÃ§erik": 6267,
      "Ġaktiviteleri": 6268,
      "ĠTelefonu": 6269,
      "Ġsatisf": 6270,
      "ĠsÃ¶yleyin": 6271,
      "olute": 6272,
      "Ġabsolute": 6273,
      "630": 6274,
      "822": 6275,
      "you": 6276,
      "ĠÃ¼rÃ¼n": 6277,
      "reci": 6278,
      "ĠkÄ±r": 6279,
      "ilere": 6280,
      "uma": 6281,
      "ĠbeÄŁ": 6282,
      "ĠGÃ¶r": 6283,
      "ĠBundle": 6284,
      "eceÄŁiniz": 6285,
      "ĠgÃ¶ÄŁ": 6286,
      "Ġworri": 6287,
      "Ġyerinde": 6288,
      "celer": 6289,
      "Ġkendiniz": 6290,
      "Ġelinizde": 6291,
      "ĠbaÅŁlamalÄ±sÄ±nÄ±z": 6292,
      "Ġkuru": 6293,
      "ĠdÃ¼zenleyin": 6294,
      "Ġappreci": 6295,
      "ĠuygulamayÄ±": 6296,
      "ĠoluÅŁturur": 6297,
      "Ġhareketler": 6298,
      "Ġyetenek": 6299,
      "osity": 6300,
      "Ġairlines": 6301,
      "bbing": 6302,
      "ĠbahÃ§enize": 6303,
      "Ġmakinesini": 6304,
      "Ġistersiniz": 6305,
      "ĠÃĸneri": 6306,
      "ĠTVs": 6307,
      "Ġnavigate": 6308,
      "ĠiÅŁlemi": 6309,
      "Ġmuhtemelen": 6310,
      "ĠFrog": 6311,
      "432": 6312,
      "526": 6313,
      "617": 6314,
      "626": 6315,
      "du": 6316,
      "pr": 6317,
      "way": 6318,
      "Ġpod": 6319,
      "veya": 6320,
      "Ġfour": 6321,
      "active": 6322,
      "ĠanlÄ±": 6323,
      "ĠGÃ¼ven": 6324,
      "ept": 6325,
      "sÄ±yla": 6326,
      "Ġresmi": 6327,
      "ĠdeÄŁerli": 6328,
      "Ġplanlamak": 6329,
      "mall": 6330,
      "ĠÃ¶ÄŁrenmenin": 6331,
      "Ġensures": 6332,
      "Ġyatmak": 6333,
      "mÄ±ÅŁtÄ±r": 6334,
      "Ġstopping": 6335,
      "Ġbulunur": 6336,
      "ĠÅŀimdi": 6337,
      "ĠyaptÄ±ÄŁÄ±nÄ±zÄ±": 6338,
      "ĠkiÅŁiyle": 6339,
      "ĠkarÅŁÄ±laÅŁacak": 6340,
      "ĠSoru": 6341,
      "Ġmonths": 6342,
      "ĠdÃ¼zelt": 6343,
      "ĠyumuÅŁak": 6344,
      "Ġbelirtilen": 6345,
      "684": 6346,
      "725": 6347,
      "734": 6348,
      "811": 6349,
      "dil": 6350,
      "Ã¼cut": 6351,
      "urance": 6352,
      "ĠyaÄŁ": 6353,
      "ecause": 6354,
      "ĠplanÄ±nÄ±": 6355,
      "ĠfotoÄŁrafÃ§Ä±": 6356,
      "anÄ±za": 6357,
      "Ġworkout": 6358,
      "ĠeriÅŁ": 6359,
      "Ġtelefonla": 6360,
      "uzu": 6361,
      "acaÄŁÄ±m": 6362,
      "Ġimproves": 6363,
      "oÄŁu": 6364,
      "Ġsites": 6365,
      "Ġcuriosity": 6366,
      "Ġkonaklama": 6367,
      "'yla": 6368,
      "615": 6369,
      "624": 6370,
      "713": 6371,
      "Pair": 6372,
      "pause": 6373,
      "suz": 6374,
      "va": 6375,
      "anti": 6376,
      "Ġclu": 6377,
      "endir": 6378,
      "Ġprefer": 6379,
      "ĠTrack": 6380,
      "ÄŁinize": 6381,
      "Ä±rsÄ±nÄ±z": 6382,
      "Ä±rsanÄ±z": 6383,
      "Ġbulmaya": 6384,
      "Ġspread": 6385,
      "ĠyerleÅŁtir": 6386,
      "Ġsaatlerini": 6387,
      "ĠkaydÄ±n": 6388,
      "tÄ±cÄ±": 6389,
      "Ġekleyip": 6390,
      "alarÄ±nÄ±": 6391,
      "Ġdinlemek": 6392,
      "diÄŁini": 6393,
      "Ġcompli": 6394,
      "Ġliving": 6395,
      "Ġtelefonunuzdaki": 6396,
      "ĠsaÄŁlayarak": 6397,
      "Ġfailure": 6398,
      "Ġvalidate": 6399,
      "tÄ±ÄŁÄ±nÄ±zda": 6400,
      "titude": 6401,
      "Ġpodcast": 6402,
      "515": 6403,
      "514": 6404,
      "785": 6405,
      "pit": 6406,
      "ale": 6407,
      "Ġmekan": 6408,
      "mekle": 6409,
      "Ġneg": 6410,
      "Ġbuy": 6411,
      "ĠiÅŁin": 6412,
      "ĠsabahÄ±": 6413,
      "ĠdoÄŁrul": 6414,
      "elerle": 6415,
      "elerinizi": 6416,
      "lenmiÅŁ": 6417,
      "000": 6418,
      "Ġawake": 6419,
      "Ġsorunun": 6420,
      "Ġknowledge": 6421,
      "ĠKendine": 6422,
      "ĠbaÅŁarÄ±lar": 6423,
      "ĠuyanÄ±ÅŁ": 6424,
      "Ġclarify": 6425,
      "ĠkurallarÄ±nÄ±": 6426,
      "ĠgÃ¶zlemleyin": 6427,
      "ĠduyduÄŁunuz": 6428,
      "Ġdraining": 6429,
      "Ġclub": 6430,
      "616": 6431,
      "625": 6432,
      "636": 6433,
      "735": 6434,
      "789": 6435,
      "Merhaba": 6436,
      "Zaman": 6437,
      "gre": 6438,
      "veni": 6439,
      "anÄ±ÅŁ": 6440,
      "Ġblo": 6441,
      "usuna": 6442,
      "yse": 6443,
      "ÄŁa": 6444,
      "ĠuyanÄ±p": 6445,
      "Ġovercome": 6446,
      "Ġlists": 6447,
      "ĠyÃ¼zey": 6448,
      "Ġbahs": 6449,
      "Ġexplicit": 6450,
      "Ġhissini": 6451,
      "Ġdedicating": 6452,
      "Ġgrabbing": 6453,
      "Ġtelefonunuza": 6454,
      "ĠConsistent": 6455,
      "Ġexperience": 6456,
      "Ġkutular": 6457,
      "-wake": 6458,
      "Ġchoosing": 6459,
      "Ġnutri": 6460,
      "382": 6461,
      "517": 6462,
      "535": 6463,
      "536": 6464,
      "613": 6465,
      "634": 6466,
      "687": 6467,
      "728": 6468,
      "737": 6469,
      "can": 6470,
      "ules": 6471,
      "Ġikinci": 6472,
      "Ġdish": 6473,
      "Ġface": 6474,
      "acaÄŁÄ±": 6475,
      "ĠayrÄ±": 6476,
      "Ġstack": 6477,
      "Ġsoli": 6478,
      "ĠayÄ±rdÄ±ÄŁÄ±nÄ±": 6479,
      "ĠÃ§Ã¶": 6480,
      "Ġyerleri": 6481,
      "Ġduruma": 6482,
      "ĠdÃ¼ÅŁÃ¼k": 6483,
      "Ġconnectivity": 6484,
      "diÄŁin": 6485,
      "Ġsenary": 6486,
      "ĠgÃ¶revler": 6487,
      "Ġparal": 6488,
      "Ġinterrupt": 6489,
      "acaÄŁÄ±nÄ±": 6490,
      "larÄ±nÄ±zla": 6491,
      "Ġexercises": 6492,
      "Ġdecisions": 6493,
      "ĠeÅŁyalarÄ±": 6494,
      "Ġbenz": 6495,
      "Ġetkinlik": 6496,
      "Ġaccumulating": 6497,
      "Ġtwenty": 6498,
      "Ġslip": 6499,
      "Google": 6500,
      "Ġotob": 6501,
      "Ġsolid": 6502,
      "585": 6503,
      "628": 6504,
      "729": 6505,
      "736": 6506,
      "Do": 6507,
      "gÃ¶r": 6508,
      "tuÄŁ": 6509,
      "yan": 6510,
      "Ä±ndaki": 6511,
      "Ġbol": 6512,
      "ceed": 6513,
      "Ġdal": 6514,
      "ĠDÃ¼zen": 6515,
      "Ġwould": 6516,
      "asÄ±nÄ±n": 6517,
      "Ġrules": 6518,
      "ĠbaÅŁlatmak": 6519,
      "Ã¼ÅŁÃ¼n": 6520,
      "ĠÃ¶ÄŁÃ¼n": 6521,
      "Ġdurumunuzu": 6522,
      "ĠbaÅŁlamanÄ±zÄ±": 6523,
      "Ġyoldur": 6524,
      "Ġeklemek": 6525,
      "ĠgÃ¶rÃ¼nÃ¼": 6526,
      "ÄŁÄ±nÄ±zda": 6527,
      "ĠhazÄ±rlamak": 6528,
      "Ġolursa": 6529,
      "Ġhalf": 6530,
      "ĠboÅŁluk": 6531,
      "Ġtespit": 6532,
      "Ġfacts": 6533,
      "Ġkilit": 6534,
      "Ġmovie": 6535,
      "Ġvoice": 6536,
      "510": 6537,
      "524": 6538,
      "584": 6539,
      "537": 6540,
      "614": 6541,
      "712": 6542,
      "717": 6543,
      "780": 6544,
      "cting": 6545,
      "kes": 6546,
      "lilik": 6547,
      "ms": 6548,
      "yÃ¼z": 6549,
      "isin": 6550,
      "onu": 6551,
      "inct": 6552,
      "Ġsuy": 6553,
      "rete": 6554,
      "Ġhit": 6555,
      "around": 6556,
      "ĠBecause": 6557,
      "ĠSur": 6558,
      "lies": 6559,
      "Ġtip": 6560,
      "Ġyapmaktan": 6561,
      "ĠalmanÄ±z": 6562,
      "Ġkalp": 6563,
      "ĠKah": 6564,
      "ĠFin": 6565,
      "lights": 6566,
      "ĠÃ§alÄ±ÅŁarak": 6567,
      "Ġtamamlamak": 6568,
      "Ġhata": 6569,
      "Ġazaltmak": 6570,
      "Ġreviewing": 6571,
      "Ġparkta": 6572,
      "Ġtarget": 6573,
      "ĠanlaÅŁÄ±lÄ±r": 6574,
      "ĠkÄ±smÄ±nÄ±": 6575,
      "imdilik": 6576,
      "Ã¼kemmel": 6577,
      "'yi": 6578,
      "612": 6579,
      "724": 6580,
      "727": 6581,
      "In": 6582,
      "keep": 6583,
      "miss": 6584,
      "of": 6585,
      "oot": 6586,
      "sen": 6587,
      "vis": 6588,
      "inÃ§": 6589,
      "res": 6590,
      "Ġconve": 6591,
      "tionally": 6592,
      "Ġfiyat": 6593,
      "lated": 6594,
      "Ġneut": 6595,
      "Ġanswers": 6596,
      "ĠdeÄŁiÅŁtirmek": 6597,
      "Ġetmeyi": 6598,
      "Ġkullanabilirsiniz": 6599,
      "Ġelde": 6600,
      "Ġgerekebilir": 6601,
      "ĠkonuÅŁun": 6602,
      "Ġbigger": 6603,
      "menizdir": 6604,
      "Ġyakal": 6605,
      "ĠhoÅŁ": 6606,
      "Ġiyisidir": 6607,
      "landÄ±rma": 6608,
      "ĠuyandÄ±": 6609,
      "ĠbaskÄ±": 6610,
      "Ġconsider": 6611,
      "Ġwebsites": 6612,
      "Ġtype": 6613,
      "Ġinsurance": 6614,
      "Ġbisiklet": 6615,
      "-ess": 6616,
      "513": 6617,
      "527": 6618,
      "680": 6619,
      "629": 6620,
      "786": 6621,
      "821": 6622,
      "gency": 6623,
      "nasÄ±l": 6624,
      "Ġsunu": 6625,
      "Ġrely": 6626,
      "ĠGen": 6627,
      "Ġonay": 6628,
      "Ġkonul": 6629,
      "Ã¼zik": 6630,
      "ĠÃľ": 6631,
      "Ġyerlere": 6632,
      "uduÄŁ": 6633,
      "ĠsorularÄ±": 6634,
      "ĠettiÄŁiniz": 6635,
      "ĠdÃ¼zenlemek": 6636,
      "Ġspaces": 6637,
      "ĠhazÄ±rlan": 6638,
      "Ġmesajlar": 6639,
      "Ġvisually": 6640,
      "Ġsana": 6641,
      "abileceÄŁin": 6642,
      "Ġalanda": 6643,
      "ĠgeÃ§irmek": 6644,
      "Ġsamimiyet": 6645,
      "Ġconcer": 6646,
      "Ġconcrete": 6647,
      "Ġcolor": 6648,
      "Ġharcam": 6649,
      "ĠsoÄŁuk": 6650,
      "Ġinceleyerek": 6651,
      "ĠSurround": 6652,
      "549": 6653,
      "685": 6654,
      "635": 6655,
      "716": 6656,
      "720": 6657,
      "726": 6658,
      "784": 6659,
      "gth": 6660,
      "ote": 6661,
      "Ġaff": 6662,
      "isine": 6663,
      "Ġtenc": 6664,
      "Ġklasik": 6665,
      "lease": 6666,
      "sam": 6667,
      "ĠYe": 6668,
      "Ä±nca": 6669,
      "Ġadedi": 6670,
      "Ã¼nc": 6671,
      "ĠMain": 6672,
      "ective": 6673,
      "start": 6674,
      "ĠkonularÄ±": 6675,
      "ĠÃ§ab": 6676,
      "oken": 6677,
      "Ġvs": 6678,
      "ĠvÃ¼cut": 6679,
      "Ġanlama": 6680,
      "ĠbaÅŁlatabilirsiniz": 6681,
      "ĠatÄ±ÅŁ": 6682,
      "ĠkalmayÄ±": 6683,
      "Ġlistesi": 6684,
      "anÄ±zda": 6685,
      "Ġkurt": 6686,
      "Ġfinal": 6687,
      "Ġdinlendir": 6688,
      "ĠbÄ±rakmak": 6689,
      "Ġbeklemek": 6690,
      "ebilirsin": 6691,
      "ÃĸrneÄŁin": 6692,
      "Ġidea": 6693,
      "ĠHafif": 6694,
      "Ġpassive": 6695,
      "soli": 6696,
      "Ġsinir": 6697,
      "Ġtotaling": 6698,
      "Ġkaybol": 6699,
      "Ġelectronics": 6700,
      "Ġacknowledge": 6701,
      "Ġflash": 6702,
      "Ġfoundation": 6703,
      "Ġlunch": 6704,
      "Ġneutral": 6705,
      "ĠMaintain": 6706,
      "411": 6707,
      "525": 6708,
      "529": 6709,
      "649": 6710,
      "932": 6711,
      "Cevap": 6712,
      "How": 6713,
      "sApp": 6714,
      "tÄ±ktan": 6715,
      "Ä±ÄŁÄ±": 6716,
      "Ġcent": 6717,
      "ĠEt": 6718,
      "Ġice": 6719,
      "Ä±rÄ±": 6720,
      "Ã¼ny": 6721,
      "ĠÃ¶dev": 6722,
      "str": 6723,
      "ading": 6724,
      "mede": 6725,
      "ĠÃ¶neriye": 6726,
      "the": 6727,
      "Ġbura": 6728,
      "ĠiyileÅŁtirmek": 6729,
      "tiÅŁime": 6730,
      "ĠSabahÄ±n": 6731,
      "ĠalanÄ±nÄ±zÄ±": 6732,
      "ĠÃ¶zellik": 6733,
      "Ġdinleyin": 6734,
      "Ġrewarding": 6735,
      "Ġplanda": 6736,
      "Ġarrival": 6737,
      "Ġzihn": 6738,
      "Ġkaliteli": 6739,
      "Ġsustain": 6740,
      "Ġspreadsh": 6741,
      "311": 6742,
      "322": 6743,
      "512": 6744,
      "530": 6745,
      "637": 6746,
      "730": 6747,
      "788": 6748,
      "gn": 6749,
      "minizi": 6750,
      "ĠÃ¼st": 6751,
      "Ġsens": 6752,
      "Ġign": 6753,
      "Ġnotlar": 6754,
      "ugh": 6755,
      "ndeki": 6756,
      "chedule": 6757,
      "Ġ**\"": 6758,
      "Ġstead": 6759,
      "Ġotomatik": 6760,
      "ĠÃ§alÄ±ÅŁan": 6761,
      "Ġdurumun": 6762,
      "Ġdurun": 6763,
      "Ġtrivi": 6764,
      "phone": 6765,
      "ĠsÄ±fÄ±r": 6766,
      "ĠbaÄŁlam": 6767,
      "Ġgratitude": 6768,
      "ĠÄ±ÅŁÄ±ÄŁÄ±nÄ±": 6769,
      "ĠvÃ¼cudun": 6770,
      "Ġduvara": 6771,
      "Ġdepends": 6772,
      "Ġbitkileri": 6773,
      "Ġmesafe": 6774,
      "Ã¼nden": 6775,
      "Ġsnacks": 6776,
      "ĠfÄ±rsat": 6777,
      "Ġmaruz": 6778,
      "Ġopportunities": 6779,
      "190": 6780,
      "422": 6781,
      "482": 6782,
      "516": 6783,
      "533": 6784,
      "610": 6785,
      "633": 6786,
      "723": 6787,
      "787": 6788,
      "922": 6789,
      "931": 6790,
      "yoga": 6791,
      "insel": 6792,
      "related": 6793,
      "rating": 6794,
      "Ġyu": 6795,
      "Ġdele": 6796,
      "ĠTÃ¼m": 6797,
      "Ġmark": 6798,
      "lanacak": 6799,
      "ict": 6800,
      "ĠnumarasÄ±nÄ±": 6801,
      "ĠCÃ¼m": 6802,
      "Ġcha": 6803,
      "Ġrot": 6804,
      "ĠyazÄ±p": 6805,
      "ĠHareket": 6806,
      "layabilirsiniz": 6807,
      "ĠÃ¶nem": 6808,
      "ification": 6809,
      "Ġbelirtir": 6810,
      "ĠiyileÅŁ": 6811,
      "ĠfotoÄŁrafÄ±nÄ±zÄ±": 6812,
      "Ġdownload": 6813,
      "Ġyolda": 6814,
      "Ġdistinct": 6815,
      "ĠolduÄŁunda": 6816,
      "Ã¶zellikle": 6817,
      "Ġolmadan": 6818,
      "ĠtÃ¼rÃ¼nÃ¼": 6819,
      "ĠdÃ¼ÅŁÃ¼nmek": 6820,
      "mesine": 6821,
      "Ġgrand": 6822,
      "ĠpaylaÅŁmak": 6823,
      "ĠgÃ¶ndererek": 6824,
      "mamak": 6825,
      "Ġmemorize": 6826,
      "ĠSpeak": 6827,
      "Ġseferinde": 6828,
      "Ġtrivial": 6829,
      "07": 6830,
      "627": 6831,
      "733": 6832,
      "911": 6833,
      "Focus": 6834,
      "roc": 6835,
      "ĠyanÄ±": 6836,
      "sak": 6837,
      "urt": 6838,
      "Ġmen": 6839,
      "Ġgaps": 6840,
      "ĠkÄ±ya": 6841,
      "ade": 6842,
      "Ġveriler": 6843,
      "Ġyaprak": 6844,
      "Ġreserv": 6845,
      "amanÄ±z": 6846,
      "ike": 6847,
      "ĠbuluÅŁuyor": 6848,
      "Ġimkan": 6849,
      "Ġevin": 6850,
      "Ġbeli": 6851,
      "Ġdakikadan": 6852,
      "ĠfotoÄŁraflarÄ±": 6853,
      "portant": 6854,
      "ĠiÅŁinizi": 6855,
      "Ġnews": 6856,
      "ĠsabahÄ±n": 6857,
      "Ġistey": 6858,
      "azÄ±r": 6859,
      "Ġtelefonun": 6860,
      "ĠgÃ¶rd": 6861,
      "Ġlearns": 6862,
      "Ġland": 6863,
      "ounts": 6864,
      "Ġyani": 6865,
      "ĠuzaklaÅŁ": 6866,
      "fety": 6867,
      "ĠsevdiÄŁiniz": 6868,
      "Ġshoes": 6869,
      "ĠsÄ±rasÄ±nda": 6870,
      "Ġconsci": 6871,
      "Ġsituation": 6872,
      "Ġcabinet": 6873,
      "Ãĸneri": 6874,
      "ĠgÃ¶rÃ¼nÃ¼yor": 6875,
      "-light": 6876,
      "528": 6877,
      "523": 6878,
      "686": 6879,
      "eys": 6880,
      "timi": 6881,
      "rame": 6882,
      "Ġneyi": 6883,
      "late": 6884,
      "Ġequ": 6885,
      "Ġstrugg": 6886,
      "ĠHav": 6887,
      "ĠaralÄ±k": 6888,
      "Ġoverthinking": 6889,
      "Ġedil": 6890,
      "ĠsÃ¼reyi": 6891,
      "ĠÅŁeyden": 6892,
      "Ġdeneyimi": 6893,
      "ĠyÃ¶nel": 6894,
      "Ġloop": 6895,
      "Ġeffici": 6896,
      "ĠayarlarÄ±nÄ±": 6897,
      "larÄ±nÄ±zda": 6898,
      "ynam": 6899,
      "Ġteknikleri": 6900,
      "Ġempt": 6901,
      "Ġnavigation": 6902,
      "Ġincelemek": 6903,
      "-essential": 6904,
      "580": 6905,
      "cks": 6906,
      "ham": 6907,
      "telefon": 6908,
      "Ġpleas": 6909,
      "Ġsuyla": 6910,
      "ories": 6911,
      "ĠTreat": 6912,
      "ĠzayÄ±f": 6913,
      "imle": 6914,
      "ĠkÄ±sÄ±": 6915,
      "asing": 6916,
      "ĠÄ°lg": 6917,
      "ĠÄ°liÅŁ": 6918,
      "Ä±nÄ±zdan": 6919,
      "Ġsafety": 6920,
      "ildi": 6921,
      "ĠHerhangi": 6922,
      "ĠalÄ±ÅŁtÄ±r": 6923,
      "Ġmatch": 6924,
      "ĠkarÅŁÄ±lÄ±klÄ±": 6925,
      "ĠistediÄŁini": 6926,
      "Ġderinlik": 6927,
      "ĠuyanÄ±k": 6928,
      "Ġphotos": 6929,
      "ĠgÃ¼nÃ¼nÃ¼zÃ¼": 6930,
      "ĠZorluk": 6931,
      "ĠtasarÄ±m": 6932,
      "Ġkalitesini": 6933,
      "ĠiliÅŁkil": 6934,
      "Ġrehber": 6935,
      "Ġmistakes": 6936,
      "Ġnedeniyle": 6937,
      "ĠFinally": 6938,
      "688": 6939,
      "683": 6940,
      "689": 6941,
      "Her": 6942,
      "onda": 6943,
      "rod": 6944,
      "ranÄ±": 6945,
      "yer": 6946,
      "tile": 6947,
      "Ġbard": 6948,
      "Ġkick": 6949,
      "Ġhiz": 6950,
      "ĠDef": 6951,
      "ĠDuolingo": 6952,
      "Ġstays": 6953,
      "ical": 6954,
      "Ġdevice": 6955,
      "usuz": 6956,
      "Ã¼yÃ¼": 6957,
      "Ġsorul": 6958,
      "Ġdenem": 6959,
      "ĠhaftanÄ±n": 6960,
      "Ġdiving": 6961,
      "ĠsÄ±vÄ±": 6962,
      "Ġvisa": 6963,
      "ĠBaÅŁka": 6964,
      "ĠkiÅŁiler": 6965,
      "ĠbaÅŁarÄ±yÄ±": 6966,
      "Ġclarification": 6967,
      "Ġdiscard": 6968,
      "Ġassign": 6969,
      "Ġegzersizleri": 6970,
      "Ġeliminating": 6971,
      "ĠkarÄ±ÅŁtÄ±r": 6972,
      "Ġchallenges": 6973,
      "Ġseems": 6974,
      "Ġaccusations": 6975,
      "Ġrisk": 6976,
      "ĠeÄŁlenceli": 6977,
      "ĠÃ§imen": 6978,
      "kendi": 6979,
      "GÃ¼nlÃ¼k": 6980,
      "ĠnazikÃ§e": 6981,
      "586": 6982,
      "982": 6983,
      "Ġdile": 6984,
      "yseniz": 6985,
      "Ġfits": 6986,
      "Ġgiy": 6987,
      "ĠSecond": 6988,
      "Ġtim": 6989,
      "Ġche": 6990,
      "**'": 6991,
      "Ġsprin": 6992,
      "ĠKal": 6993,
      "Ġdiler": 6994,
      "ĠsonrasÄ±": 6995,
      "Ġarama": 6996,
      "Ġtelefonunu": 6997,
      "Ġolanak": 6998,
      "ĠyÃ¶ntemle": 6999,
      "Ġhappiness": 7000,
      "ĠsÄ±caklÄ±ÄŁÄ±na": 7001,
      "ĠbaÄŁlantÄ±": 7002,
      "Ġkorun": 7003,
      "ĠyaratÄ±r": 7004,
      "ĠdÄ±ÅŁarÄ±da": 7005,
      "Ġenerjiyi": 7006,
      "ĠMesajÄ±nÄ±zÄ±": 7007,
      "Ġclothing": 7008,
      "Ġfrustration": 7009,
      "Ġuygulayarak": 7010,
      "Ġmade": 7011,
      "Ġmerk": 7012,
      "Ġwebsite": 7013,
      "Ġconcentration": 7014,
      "589": 7015,
      "ero": 7016,
      "aling": 7017,
      "urun": 7018,
      "ĠmÃ¼kemmel": 7019,
      "Ġekip": 7020,
      "Ġyast": 7021,
      "Ġsharp": 7022,
      "mektedir": 7023,
      "Ġolsa": 7024,
      "Ġolay": 7025,
      "Ġzamanla": 7026,
      "Ġsaving": 7027,
      "162": 7028,
      "Ġboo": 7029,
      "Ġevinizdeki": 7030,
      "172": 7031,
      "Ġtutmaya": 7032,
      "Ġrepla": 7033,
      "Ġfinished": 7034,
      "ĠkiÅŁinin": 7035,
      "ĠkalkÄ±n": 7036,
      "Ġsanat": 7037,
      "Ġsanki": 7038,
      "Ġuyumlu": 7039,
      "Ġmutfak": 7040,
      "Ġhavada": 7041,
      "Ġlabels": 7042,
      "Ġwashing": 7043,
      "ĠgÃ¼Ã§lendirmek": 7044,
      "Ãĸnce": 7045,
      "ĠbirleÅŁecek": 7046,
      "Ġcloser": 7047,
      "Ġstraight": 7048,
      "Ġbeklenti": 7049,
      "Ġspreadsheet": 7050,
      "Ġsteady": 7051,
      "Ġempty": 7052,
      "481": 7053,
      "783": 7054,
      "Kend": 7055,
      "kÃ¼r": 7056,
      "kitap": 7057,
      "pass": 7058,
      "ysis": 7059,
      "Ġstren": 7060,
      "ĠiÃ§inden": 7061,
      "ĠLÃ¼tfen": 7062,
      "Ġisim": 7063,
      "Ġyapabilir": 7064,
      "emiz": 7065,
      "Ġtips": 7066,
      "Ġ(\"": 7067,
      "Ġsays": 7068,
      "Ġyear": 7069,
      "Ġlistesini": 7070,
      "bilirim": 7071,
      "Ġpost": 7072,
      "ĠyÃ¶nlendir": 7073,
      "ĠsorunlarÄ±nÄ±": 7074,
      "Ġbeklen": 7075,
      "Ġhafifle": 7076,
      "Ġearli": 7077,
      "Ġtranslation": 7078,
      "undry": 7079,
      "Ġsayfa": 7080,
      "ĠyolculuÄŁ": 7081,
      "Ġreminders": 7082,
      "ĠsaÄŁlayacaktÄ±r": 7083,
      "Ġsaatinde": 7084,
      "Ġalert": 7085,
      "Ġalerts": 7086,
      "ĠeÄŁitimi": 7087,
      "Ġseasons": 7088,
      "Ġemergency": 7089,
      "ĠuÄŁraÅŁ": 7090,
      "Ġview": 7091,
      "Ġflashc": 7092,
      "588": 7093,
      "587": 7094,
      "ox": 7095,
      "pam": 7096,
      "Ġversa": 7097,
      "erilen": 7098,
      "Ġtour": 7099,
      "alling": 7100,
      "rabilirsiniz": 7101,
      "teki": 7102,
      "urg": 7103,
      "Ġdeniz": 7104,
      "ogn": 7105,
      "Ġoyun": 7106,
      "Ġbirer": 7107,
      "orth": 7108,
      "lamasÄ±": 7109,
      "Ä°kinci": 7110,
      "ekkÃ¼r": 7111,
      "Ġyapman": 7112,
      "Ġbuying": 7113,
      "eynman": 7114,
      "Ġcannot": 7115,
      "ĠAyÄ±": 7116,
      "igning": 7117,
      "ĠdoÄŁum": 7118,
      "road": 7119,
      "ĠkaygÄ±": 7120,
      "ĠduruÅŁ": 7121,
      "Ġlaundry": 7122,
      "ĠhissettiÄŁiniz": 7123,
      "ĠrahatÃ§a": 7124,
      "Ġstresli": 7125,
      "Ġdetaylar": 7126,
      "Ġkeyif": 7127,
      "ĠHaftalÄ±k": 7128,
      "Ġmutlu": 7129,
      "Ġsuppor": 7130,
      "Ġstronger": 7131,
      "tries": 7132,
      "Ġrecei": 7133,
      "Ġcomputers": 7134,
      "Ġboosts": 7135,
      ")Ċ": 7136,
      "-day": 7137,
      "623": 7138,
      "cri": 7139,
      "Ġour": 7140,
      "Ġcrow": 7141,
      "Ġkeys": 7142,
      "Ã§Ä±k": 7143,
      "ĠThat": 7144,
      "Ġflo": 7145,
      "ĠBahÃ§": 7146,
      "ĠiletiÅŁime": 7147,
      "stac": 7148,
      "Ġzorunlu": 7149,
      "Ġdopam": 7150,
      "Ġartar": 7151,
      "ĠfotoÄŁraflar": 7152,
      "Ġdurmak": 7153,
      "ĠgÃ¼c": 7154,
      "ĠkaranlÄ±k": 7155,
      "yorsan": 7156,
      "Ġimpact": 7157,
      "landÄ±rm": 7158,
      "Ġglasses": 7159,
      "Ġpresence": 7160,
      "Ġobstac": 7161,
      "Ġgeneral": 7162,
      "ĠyaptÄ±m": 7163,
      "ĠetkileÅŁ": 7164,
      "Ġibarettir": 7165,
      "Ġeylem": 7166,
      "Ġforecast": 7167,
      "Ġbardak": 7168,
      "321": 7169,
      "583": 7170,
      "532": 7171,
      "An": 7172,
      "Pause": 7173,
      "Schedule": 7174,
      "baÅŁ": 7175,
      "fic": 7176,
      "Ġnes": 7177,
      "Ġthrow": 7178,
      "Ã¶ÄŁ": 7179,
      "ĠbaÅŁta": 7180,
      "lÄ±ÄŁÄ±nÄ±z": 7181,
      "lerinizden": 7182,
      "Ġovernight": 7183,
      "ĠkitaplarÄ±": 7184,
      "Ġtetik": 7185,
      "Ġbasic": 7186,
      "Ä±nav": 7187,
      "ĠbaÅŁlamaya": 7188,
      "ĠgeÃ§ire": 7189,
      "lemeniz": 7190,
      "ĠaÃ§mak": 7191,
      "Ġrecent": 7192,
      "Ġbilgisi": 7193,
      "ĠseÃ§mekten": 7194,
      "Ġvalues": 7195,
      "Ġlives": 7196,
      "Ġinterruption": 7197,
      "Ġsunar": 7198,
      "Ġdeliber": 7199,
      "Ġassigning": 7200,
      "Ġuyanmak": 7201,
      "Ġrental": 7202,
      "Ġbarda": 7203,
      "Ġjudging": 7204,
      "ĠkaÄŁÄ±da": 7205,
      "ĠdaÄŁÄ±t": 7206,
      "ĠsÄ±ral": 7207,
      "ĠyetiÅŁtir": 7208,
      "Ã¼lebilir": 7209,
      "Ġsuppresses": 7210,
      "Ġopinion": 7211,
      "381": 7212,
      "Break": 7213,
      "IM": 7214,
      "iyle": 7215,
      "sue": 7216,
      "Ġhuge": 7217,
      "Ġhorm": 7218,
      "uses": 7219,
      "ĠTell": 7220,
      "ĠYÃ¼z": 7221,
      "itch": 7222,
      "Ġgec": 7223,
      "ĠadÄ±ma": 7224,
      "Ġbegins": 7225,
      "Ġyazmaya": 7226,
      "ĠÃ¶nÃ¼ne": 7227,
      "Ġevinizin": 7228,
      "mediÄŁiniz": 7229,
      "Ġliste": 7230,
      "Ġdilde": 7231,
      "Ġdurdur": 7232,
      "Ġkurmaya": 7233,
      "Ġsorarak": 7234,
      "Ġlosing": 7235,
      "Ġhedeflerinize": 7236,
      "Ġknowing": 7237,
      "Ġnokta": 7238,
      "Ġsupporting": 7239,
      "ĠLearn": 7240,
      "Ġdeneme": 7241,
      "ĠSizinle": 7242,
      "Ġsebze": 7243,
      "ĠgeliÅŁtirmek": 7244,
      "ĠSÄ±ra": 7245,
      "Ġfactors": 7246,
      "Â°C": 7247,
      "Ġparalysis": 7248,
      "Ġstrength": 7249,
      "/no": 7250,
      "BÃ¼yÃ¼k": 7251,
      "dle": 7252,
      "meni": 7253,
      "Ġcup": 7254,
      "Ġtel": 7255,
      "Ġtutu": 7256,
      "rep": 7257,
      "ĠEÄŁ": 7258,
      "Ġileri": 7259,
      "Ġever": 7260,
      "daha": 7261,
      "ĠiÃ§ip": 7262,
      "Ġquanti": 7263,
      "Ġcost": 7264,
      "eceÄŁinizi": 7265,
      "Ġaloud": 7266,
      "erseniz": 7267,
      "Ġodada": 7268,
      "amera": 7269,
      "tÄ±p": 7270,
      "Ġride": 7271,
      "Ġolmam": 7272,
      "Ġtamamlan": 7273,
      "ĠdÃ¼ÅŁÃ¼nerek": 7274,
      "Ġdinle": 7275,
      "Ġconnected": 7276,
      "Ġmindset": 7277,
      "ĠWhatsApp": 7278,
      "Ġhaval": 7279,
      "Ġolmaktan": 7280,
      "Ġbiriyle": 7281,
      "Ġmetre": 7282,
      "ĠÃ§Ä±karÄ±n": 7283,
      "ĠaydÄ±nlÄ±k": 7284,
      "ĠbelirtilmiÅŁtir": 7285,
      "Ġidealdir": 7286,
      "Ġvalued": 7287,
      "ĠAccept": 7288,
      "Ġmaximize": 7289,
      "Ġexplicitly": 7290,
      "ĠotobÃ¼s": 7291,
      "ĠkÄ±yafet": 7292,
      "Ġearlier": 7293,
      "Ġflashcards": 7294,
      "340": 7295,
      "421": 7296,
      "732": 7297,
      "921": 7298,
      "981": 7299,
      "Keep": 7300,
      "Total": 7301,
      "kal": 7302,
      "kisi": 7303,
      "vely": 7304,
      "ndi": 7305,
      "ince": 7306,
      "ani": 7307,
      "Ġdrop": 7308,
      "akt": 7309,
      "Ġzero": 7310,
      "ected": 7311,
      "Ġkonuyla": 7312,
      "uÅŁtur": 7313,
      "lerinden": 7314,
      "think": 7315,
      "ify": 7316,
      "ocuk": 7317,
      "Ġbelirleme": 7318,
      "Ġkurgu": 7319,
      "ĠekranÄ±": 7320,
      "Ġstresi": 7321,
      "Ġkapak": 7322,
      "ensive": 7323,
      "ĠyapÄ±sÄ±": 7324,
      "ĠhazÄ±rla": 7325,
      "Ġhissetmek": 7326,
      "Ġhissettir": 7327,
      "ĠsÄ±kÄ±l": 7328,
      "Ġengage": 7329,
      "ĠÃ§ekip": 7330,
      "Ġeser": 7331,
      "Ġsoruda": 7332,
      "Ġperfectly": 7333,
      "Ġsucceed": 7334,
      "Ġminimal": 7335,
      "ĠaÄŁÄ±r": 7336,
      "Ġbunlar": 7337,
      "ĠkalÄ±p": 7338,
      "Ġcontinuing": 7339,
      "Ġoccas": 7340,
      "Ġkanal": 7341,
      "Ġkonsept": 7342,
      "ĠDefine": 7343,
      "Ġmerkez": 7344,
      "Ġreplacing": 7345,
      "360": 7346,
      "431": 7347,
      "pect": 7348,
      "var": 7349,
      "Ġpot": 7350,
      "Ġsend": 7351,
      "Ġsmo": 7352,
      "Ġizmir": 7353,
      "Ġyazma": 7354,
      "anÄ±zÄ±n": 7355,
      "iÄŁinizi": 7356,
      "ĠÃĸnemli": 7357,
      "Ġexplo": 7358,
      "ĠkurmayÄ±": 7359,
      "manÄ±zdÄ±r": 7360,
      "ĠkonuÅŁacak": 7361,
      "ĠdÃ¼ÅŁÃ¼nceler": 7362,
      "ĠyatÄ±n": 7363,
      "uktan": 7364,
      "ĠkalkÄ±ÅŁ": 7365,
      "ĠkalkmayÄ±": 7366,
      "ĠdÄ±ÅŁÄ±nda": 7367,
      "ĠnoktasÄ±nÄ±": 7368,
      "Ġkapatmak": 7369,
      "Ġsizinle": 7370,
      "lÄ±ÄŁÄ±n": 7371,
      "Ġeski": 7372,
      "ĠnoktasÄ±dÄ±r": 7373,
      "Ġmetab": 7374,
      "Ä±lmÄ±ÅŁtÄ±r": 7375,
      "ĠkaynaÄŁÄ±nÄ±": 7376,
      "dÄ±ktan": 7377,
      "ĠtarafÄ±ndan": 7378,
      "Ġmadd": 7379,
      "Ġnedir": 7380,
      "Ġmerak": 7381,
      "Ġworried": 7382,
      "Ġversatile": 7383,
      "Ġquantity": 7384,
      "EÄŁer": 7385,
      "Eisenhower": 7386,
      "dak": 7387,
      "¸ı": 7388,
      "ï¸ı": 7389,
      "Ġskip": 7390,
      "Ġku": 7391,
      "Ġdik": 7392,
      "ĠTurn": 7393,
      "itab": 7394,
      "Ġgrup": 7395,
      "amik": 7396,
      "imiz": 7397,
      "ĠgÃ¼ncel": 7398,
      "ĠbaÅŁÄ±nÄ±zÄ±": 7399,
      "eyle": 7400,
      "Ġveril": 7401,
      "ĠNot": 7402,
      "oms": 7403,
      "Ġnoon": 7404,
      "ĠFeynman": 7405,
      "andÄ±": 7406,
      "ilecek": 7407,
      "geÃ§": 7408,
      "ĠgeÃ§en": 7409,
      "ĠtamamÄ±nÄ±": 7410,
      "Ġtemelini": 7411,
      "ĠkarÅŁÄ±laÅŁtÄ±r": 7412,
      "ĠsayÄ±sÄ±nÄ±": 7413,
      "ĠsÄ±caklÄ±k": 7414,
      "Ġusual": 7415,
      "eyebilirsiniz": 7416,
      "Ġhands": 7417,
      "ĠkazandÄ±r": 7418,
      "Ġpassport": 7419,
      "Ġsepet": 7420,
      "tÄ±rabilirsiniz": 7421,
      "Ġsupplies": 7422,
      "Ġcorre": 7423,
      ".**Ċ": 7424,
      "Ġaccusatory": 7425,
      "Ġconfusion": 7426,
      "Ġconvey": 7427,
      "'li": 7428,
      "-a": 7429,
      "Prac": 7430,
      "Sabah": 7431,
      "cal": 7432,
      "fast": 7433,
      "ices": 7434,
      "Ġtelef": 7435,
      "Ã§alÄ±ÅŁ": 7436,
      "Ġhelping": 7437,
      "ĠiÃ§ecek": 7438,
      "ĠGec": 7439,
      "ases": 7440,
      "Ġmey": 7441,
      "arat": 7442,
      "maktadÄ±r": 7443,
      "Ġdos": 7444,
      "Ġistiyorsunuz": 7445,
      "ĠanlamÄ±": 7446,
      "ĠatÄ±p": 7447,
      "Ġsever": 7448,
      "Ġtopra": 7449,
      "ĠÃ§ekme": 7450,
      "Ä±lmasÄ±": 7451,
      "ĠÃ§Ä±kmak": 7452,
      "Ġolursunuz": 7453,
      "ĠbaÅŁarÄ±larÄ±": 7454,
      "bette": 7455,
      "Ġeffortless": 7456,
      "dÄ±ÄŁÄ±nÄ±zdan": 7457,
      "âĢĶand": 7458,
      "ĠdÃ¶k": 7459,
      "Ġhayata": 7460,
      "Ġoturmak": 7461,
      "dÄ±ÄŁÄ±n": 7462,
      "Ġguide": 7463,
      "Ġmiktarda": 7464,
      "Ġservice": 7465,
      "Ġbozul": 7466,
      "ĠduygularÄ±nÄ±zÄ±": 7467,
      "ĠkarÄ±ÅŁÄ±k": 7468,
      "Ġnegative": 7469,
      "Ġcheap": 7470,
      "Practice": 7471,
      "bugÃ¼n": 7472,
      "doÄŁ": 7473,
      "nable": 7474,
      "ube": 7475,
      "ÉĻ": 7476,
      "Ġ%": 7477,
      "Ġsak": 7478,
      "Ã¼me": 7479,
      "verbal": 7480,
      "Ġdistant": 7481,
      "ÅŁu": 7482,
      "Ġways": 7483,
      "Ġinsp": 7484,
      "ayÄ±p": 7485,
      "Ġrere": 7486,
      "Ġplanlayarak": 7487,
      "ĠlÃ¼tfen": 7488,
      "ĠÅŁÄ±k": 7489,
      "Ġintent": 7490,
      "Ġtrue": 7491,
      "ource": 7492,
      "Ġbreakfast": 7493,
      "ĠseÃ§ebilirsiniz": 7494,
      "ĠFirst": 7495,
      "duÄŁu": 7496,
      "ĠkonuÅŁurken": 7497,
      "ĠgÃ¼venilir": 7498,
      "essiz": 7499,
      "Ġdetail": 7500,
      "shoot": 7501,
      "Ġuyumaya": 7502,
      "Ġphotoshoot": 7503,
      "ĠyÃ¼rÃ¼mek": 7504,
      "Ġdenemek": 7505,
      "Ġmodel": 7506,
      "Ġederim": 7507,
      "ĠkeÅŁfetmek": 7508,
      "Ġchoice": 7509,
      "Ġuygulayabilirsiniz": 7510,
      "tirip": 7511,
      "ĠtatlÄ±": 7512,
      "ĠseÃ§eneÄŁi": 7513,
      "Ġtouch": 7514,
      "mission": 7515,
      "Ġoccasion": 7516,
      "Ġrereading": 7517,
      "ski": 7518,
      "syon": 7519,
      "tarÄ±": 7520,
      "ances": 7521,
      "Ġcram": 7522,
      "tesi": 7523,
      "ĠDerin": 7524,
      "ayarak": 7525,
      "Ġfa": 7526,
      "ĠBlock": 7527,
      "ĠSab": 7528,
      "ĠSmall": 7529,
      "Ġinitiate": 7530,
      "important": 7531,
      "ĠonlarÄ±": 7532,
      "Ġverme": 7533,
      "sÄ±ndan": 7534,
      "Ġcondi": 7535,
      "ĠaldÄ±": 7536,
      "Ġalmaya": 7537,
      "Ġunf": 7538,
      "mited": 7539,
      "ĠsÃ¼resi": 7540,
      "Ġpermission": 7541,
      "Ġcluttering": 7542,
      "Ġuzman": 7543,
      "Ġdinleme": 7544,
      "ĠInvest": 7545,
      "ĠbÄ±rakarak": 7546,
      "Ġbakmak": 7547,
      "Ġtalep": 7548,
      "ĠaÃ§Ä±kÃ§a": 7549,
      "Ã¼lt": 7550,
      "Ġuyumak": 7551,
      "Ġmuscle": 7552,
      "Ġcurrently": 7553,
      "ĠkalanlarÄ±": 7554,
      "Ġbitirmek": 7555,
      "Ġwinnable": 7556,
      "ĠsonuÃ§lar": 7557,
      "ĠgÃ¶rÃ¼ÅŁecek": 7558,
      "Ġrefer": 7559,
      "ĠTrans": 7560,
      "Ġsistemi": 7561,
      "Ġokuyacak": 7562,
      "Ġpath": 7563,
      "Ġquitting": 7564,
      "Ġprovide": 7565,
      "olojik": 7566,
      "Ġstimulating": 7567,
      "ĠkÄ±sÄ±m": 7568,
      "Ġmetabol": 7569,
      "'m": 7570,
      "622": 7571,
      "632": 7572,
      "944": 7573,
      "Ne": 7574,
      "lÃ¼m": 7575,
      "meler": 7576,
      "sÄ±nÄ±n": 7577,
      "Ġcould": 7578,
      "Ġbike": 7579,
      "ract": 7580,
      "Ġneler": 7581,
      "Ġfel": 7582,
      "Ġfund": 7583,
      "Ġmail": 7584,
      "ĠayÄ±rÄ±p": 7585,
      "ĠPhotoshop": 7586,
      "Ġolabilirsiniz": 7587,
      "Ġbelirlen": 7588,
      "Ġiyidir": 7589,
      "Ġdilden": 7590,
      "miyor": 7591,
      "Ġodaklanmaya": 7592,
      "Ġyoldan": 7593,
      "lenme": 7594,
      "ĠgÃ¶rmek": 7595,
      "ĠyÃ¶ntemler": 7596,
      "lendire": 7597,
      "Ġmentally": 7598,
      "Ġlocations": 7599,
      "Ġleaves": 7600,
      "Ġkaydede": 7601,
      "malÄ±sÄ±n": 7602,
      "'inle": 7603,
      "Ġkorum": 7604,
      "ĠseÃ§enekler": 7605,
      "Ġsilent": 7606,
      "ĠkoÅŁu": 7607,
      "ĠaltÄ±na": 7608,
      "Ġdergi": 7609,
      "Ġairports": 7610,
      "Ġblame": 7611,
      "ĠyarÄ±sÄ±nÄ±": 7612,
      "Ġfueled": 7613,
      "Ġilgin": 7614,
      "ĠuÃ§uÅŁ": 7615,
      "ĠkayÄ±da": 7616,
      "Ġobligation": 7617,
      "-steps": 7618,
      "Ġalign": 7619,
      "ĠanlÄ±yorum": 7620,
      "Ġdopamine": 7621,
      "545": 7622,
      "ften": 7623,
      "kÄ±": 7624,
      "Ġpsik": 7625,
      "ĠYÃ¼r": 7626,
      "ÄŁÄ±m": 7627,
      "ÄŁinde": 7628,
      "ÄŁinden": 7629,
      "ized": 7630,
      "Ġsok": 7631,
      "Ġsometimes": 7632,
      "Ġforces": 7633,
      "Ġuyar": 7634,
      "Ġdayan": 7635,
      "Ġkafe": 7636,
      "ĠOffer": 7637,
      "ĠzamanÄ±nÄ±": 7638,
      "Ġdoor": 7639,
      "Ġdolu": 7640,
      "layabilir": 7641,
      "Ġevden": 7642,
      "Ġtrains": 7643,
      "Ġasist": 7644,
      "Ġsong": 7645,
      "ources": 7646,
      "Ġyerin": 7647,
      "udum": 7648,
      "ĠbahÃ§enin": 7649,
      "ĠodanÄ±zÄ±": 7650,
      "ĠÃ§alÄ±ÅŁtÄ±": 7651,
      "tÄ±l": 7652,
      "ĠakÄ±cÄ±": 7653,
      "Ġtelefonu": 7654,
      "Ġhaft": 7655,
      "Ġdistracted": 7656,
      "ĠÃ§Ä±kÄ±n": 7657,
      "Ġoption": 7658,
      "Ġdiet": 7659,
      "Ġortaya": 7660,
      "Ġeasiest": 7661,
      "Ġachieving": 7662,
      "tikten": 7663,
      "sÄ±zlÄ±k": 7664,
      "Ġscheduled": 7665,
      "Ġreviews": 7666,
      "Ġbilgilerle": 7667,
      "ĠbÃ¼tÃ§e": 7668,
      "Ġmissed": 7669,
      "Ġspontaneity": 7670,
      "Ãĸncelikle": 7671,
      "Ġbank": 7672,
      "Ġoccur": 7673,
      "711": 7674,
      "gra": 7675,
      "iyorsunuz": 7676,
      "ym": 7677,
      "ðŁ": 7678,
      "tiÄŁi": 7679,
      "Ġsind": 7680,
      "ĠEff": 7681,
      "iring": 7682,
      "itting": 7683,
      "ĠSay": 7684,
      "Ġinside": 7685,
      "lanma": 7686,
      "Ġolumlu": 7687,
      "Ġori": 7688,
      "Ġresult": 7689,
      "ĠÃ§ub": 7690,
      "Ġanswering": 7691,
      "ikay": 7692,
      "Ä±za": 7693,
      "ĠÅŁunu": 7694,
      "arÄ±nda": 7695,
      "Ġyerini": 7696,
      "-break": 7697,
      "Ġtutma": 7698,
      "ĠiÅŁini": 7699,
      "ĠÃĸncel": 7700,
      "ĠkolaydÄ±r": 7701,
      "ĠkontrolÃ¼": 7702,
      "ĠmesajÄ±nÄ±zÄ±": 7703,
      "Ġgidin": 7704,
      "Ġizleyerek": 7705,
      "Ġgroups": 7706,
      "ĠsÄ±caklÄ±ÄŁÄ±": 7707,
      "Ġlimited": 7708,
      "Ġsurround": 7709,
      "ĠyanÄ±na": 7710,
      "noon": 7711,
      "Ġvisualize": 7712,
      "ĠihtiyacÄ±": 7713,
      "ĠgÃ¶sterir": 7714,
      "Ġloved": 7715,
      "ĠsakinleÅŁ": 7716,
      "Ġstrategy": 7717,
      "Ġemp": 7718,
      "Ġbitire": 7719,
      "Ġchallenge": 7720,
      "Ġrelationships": 7721,
      "Ġbelongs": 7722,
      "Ġbeklemeyin": 7723,
      "Ġphrases": 7724,
      "Ġtakvim": 7725,
      "struc": 7726,
      "Ġobstacles": 7727,
      "440": 7728,
      "531": 7729,
      "682": 7730,
      "722": 7731,
      "Tube": 7732,
      "Yap": 7733,
      "eb": 7734,
      "iren": 7735,
      "inle": 7736,
      "ĠtanÄ±t": 7737,
      "Ġdynam": 7738,
      "Ġfare": 7739,
      "Ġfalling": 7740,
      "Ġmay": 7741,
      "Ġgev": 7742,
      "ĠSh": 7743,
      "aber": 7744,
      "nded": 7745,
      "ĠayÄ±rdÄ±r": 7746,
      "medik": 7747,
      "ĠplanlayÄ±p": 7748,
      "ĠDenizle": 7749,
      "eniyor": 7750,
      "karak": 7751,
      "Ġkullanmadan": 7752,
      "ĠÃ¶ÄŁrenmektir": 7753,
      "roup": 7754,
      "Ġalanlarda": 7755,
      "ĠmesajÄ±": 7756,
      "ĠmesajlaÅŁma": 7757,
      "layÄ±sÄ±yla": 7758,
      "ĠBaÅŁlamak": 7759,
      "Ġihtimal": 7760,
      "Ġbehind": 7761,
      "Ġkalkmak": 7762,
      "Ġalabilirsiniz": 7763,
      "Ä±lÄ±m": 7764,
      "ĠyÃ¼kÃ¼": 7765,
      "ĠpaylaÅŁarak": 7766,
      "ĠÃ¶zelliÄŁini": 7767,
      "ĠÄ±sÄ±t": 7768,
      "ĠYatak": 7769,
      "ĠkurallarÄ±": 7770,
      "Ġpromise": 7771,
      "Ġpromote": 7772,
      "ĠeÄŁitim": 7773,
      "ĠHaftada": 7774,
      "Ġdishes": 7775,
      "Ġekipman": 7776,
      "ĠEffective": 7777,
      "445": 7778,
      "582": 7779,
      "546": 7780,
      "747": 7781,
      "840": 7782,
      "gum": 7783,
      "ptions": 7784,
      "uff": 7785,
      "yl": 7786,
      "ysa": 7787,
      "Ġpan": 7788,
      "Ġbored": 7789,
      "Ġkim": 7790,
      "used": 7791,
      "sab": 7792,
      "Ġdikk": 7793,
      "ĠDuyg": 7794,
      "Ġwere": 7795,
      "ayacak": 7796,
      "ilmesi": 7797,
      "ĠeÄŁer": 7798,
      "ĠBilg": 7799,
      "ĠSlow": 7800,
      "ĠadÄ±mdan": 7801,
      "ĠÃ¶nerebilirim": 7802,
      "ems": 7803,
      "ĠkaÃ§Ä±nÄ±": 7804,
      "ĠÃ¶nler": 7805,
      "Ġitself": 7806,
      "ours": 7807,
      "Ġokuyarak": 7808,
      "ĠÃ§ekmeyi": 7809,
      "ĠÃ§ektirecek": 7810,
      "Ġsaatinizi": 7811,
      "ĠÃ§alÄ±ÅŁmayÄ±n": 7812,
      "Ġgear": 7813,
      "Ġswap": 7814,
      "ĠdÃ¼zenlem": 7815,
      "Ġrooms": 7816,
      "ĠÅŁeker": 7817,
      "Ġyetene": 7818,
      "Ġhafiflet": 7819,
      "Åŀu": 7820,
      "ĠmÄ±sÄ±nÄ±z": 7821,
      "Ġstresini": 7822,
      "ĠvÃ¼cudunu": 7823,
      "Ġcycles": 7824,
      "melisin": 7825,
      "Ġlimiting": 7826,
      "Ġtaze": 7827,
      "ĠkarmaÅŁ": 7828,
      "ĠbaÅŁlarsanÄ±z": 7829,
      "Ġpurch": 7830,
      "ĠcÃ¼mleleri": 7831,
      "ĠgereÄŁi": 7832,
      "ĠSÄ±fÄ±r": 7833,
      "ublic": 7834,
      "Ġwindows": 7835,
      "Ġtablet": 7836,
      "ĠtaÅŁÄ±": 7837,
      "Ġpreparing": 7838,
      "Ġpatient": 7839,
      "Ġpausing": 7840,
      "Ġconscious": 7841,
      "Ġsprints": 7842,
      "Ġdilerim": 7843,
      "522": 7844,
      "782": 7845,
      "The": 7846,
      "sinde": 7847,
      "incisi": 7848,
      "Ä±nd": 7849,
      "any": 7850,
      "Ġpace": 7851,
      "Ġpublic": 7852,
      "Ġtep": 7853,
      "ĠBana": 7854,
      "ĠayÄ±rmak": 7855,
      "ĠGroup": 7856,
      "Ġonlara": 7857,
      "eyim": 7858,
      "ĠyapÄ±ÅŁtÄ±r": 7859,
      "Ġzorlam": 7860,
      "ĠzorlandÄ±": 7861,
      "usunda": 7862,
      "Ġmeetup": 7863,
      "Ġbeginners": 7864,
      "eceÄŁim": 7865,
      "Ġexci": 7866,
      "ĠdakikasÄ±": 7867,
      "raffic": 7868,
      "ĠiyileÅŁtir": 7869,
      "biliriz": 7870,
      "ĠseÃ§melisiniz": 7871,
      "iÄŁin": 7872,
      "ĠiÅŁinize": 7873,
      "Ġsaatine": 7874,
      "ĠÃ§alÄ±ÅŁÄ±rken": 7875,
      "why": 7876,
      "Ġwall": 7877,
      "ĠmesajlarÄ±": 7878,
      "diÄŁinizde": 7879,
      "Ġhighest": 7880,
      "Ġdiscover": 7881,
      "-traffic": 7882,
      "ĠaÅŁmak": 7883,
      "Ġaltyap": 7884,
      "Ġalternatif": 7885,
      "ĠkÃ¶ÅŁ": 7886,
      "ĠElbette": 7887,
      "ĠkolaylaÅŁtÄ±racak": 7888,
      "Ġseninle": 7889,
      "ĠadÄ±na": 7890,
      "Ġtatmin": 7891,
      "Ġilham": 7892,
      "Ġadapt": 7893,
      "ĠExpress": 7894,
      "Ġbazen": 7895,
      "Ġbeceriler": 7896,
      "Ġpatterns": 7897,
      "ĠpratiÄŁi": 7898,
      "'Ä±nda": 7899,
      "1120": 7900,
      "419": 7901,
      "611": 7902,
      "esap": 7903,
      "fron": 7904,
      "lil": 7905,
      "ture": 7906,
      "Ġpage": 7907,
      "ĠsÄ±nÄ±": 7908,
      "ray": 7909,
      "Ġkart": 7910,
      "ĠEski": 7911,
      "Ġworth": 7912,
      "aket": 7913,
      "Ġfer": 7914,
      "ĠBen": 7915,
      "amaz": 7916,
      "ator": 7917,
      "adaki": 7918,
      "ĠOften": 7919,
      "1000": 7920,
      "terek": 7921,
      "1200": 7922,
      "ĠaralÄ±": 7923,
      "udaki": 7924,
      "Ġsorunuz": 7925,
      "ĠbaÅŁlayacak": 7926,
      "selves": 7927,
      "Ġhedefiniz": 7928,
      "ĠiÅŁlerini": 7929,
      "ĠpiÅŁirin": 7930,
      "Ġafternoon": 7931,
      "tuk": 7932,
      "edicate": 7933,
      "Ġelsewhere": 7934,
      "ĠbakÄ±m": 7935,
      "Ġharf": 7936,
      "ĠAlso": 7937,
      "ĠeÄŁit": 7938,
      "ĠyemeÄŁini": 7939,
      "Ġcausing": 7940,
      "Ġperfectionism": 7941,
      "Ġsessizlik": 7942,
      "Ġheading": 7943,
      "ĠtarafÄ±n": 7944,
      "Ġfilm": 7945,
      "Ġadap": 7946,
      "Ġvaluable": 7947,
      "ĠYemek": 7948,
      "Ġdeleg": 7949,
      "ĠTranslate": 7950,
      "940": 7951,
      "wor": 7952,
      "Ġ/": 7953,
      "ĠðŁ": 7954,
      "ont": 7955,
      "Ġcam": 7956,
      "tiÄŁini": 7957,
      "Ġsel": 7958,
      "uru": 7959,
      "Ġdue": 7960,
      "ĠDedicate": 7961,
      "Ġfi": 7962,
      "ĠmÃ¼zik": 7963,
      "action": 7964,
      "Ġez": 7965,
      "amam": 7966,
      "Ġmotive": 7967,
      "lerek": 7968,
      "ĠanlamÄ±na": 7969,
      "ĠadÄ±mlara": 7970,
      "malara": 7971,
      "Ã¼rken": 7972,
      "Ġalloc": 7973,
      "Ġargum": 7974,
      "Ġoda": 7975,
      "Ġdurumunuz": 7976,
      "Ġheart": 7977,
      "Ġsessizce": 7978,
      "Ġdistracting": 7979,
      "ĠalanÄ±nÄ±": 7980,
      "ĠdeÄŁilse": 7981,
      "ĠkarÅŁÄ±lÄ±k": 7982,
      "Ġortalama": 7983,
      "Ġdarkness": 7984,
      "Ġayarla": 7985,
      "Ġdefa": 7986,
      "ĠaÃ§Ä±klayÄ±n": 7987,
      "Ġkelimesini": 7988,
      "icial": 7989,
      "ĠyavaÅŁlat": 7990,
      "Ġmusunuz": 7991,
      "Ġregarding": 7992,
      "Ġagainst": 7993,
      "ĠgÃ¶stermek": 7994,
      "Ġkaydederek": 7995,
      "Ġbaskets": 7996,
      "ĠolduÄŁunuzda": 7997,
      "Ġbright": 7998,
      "Ġtemptation": 7999,
      "ĠÄ°stediÄŁiniz": 8000,
      "ï¸ıâ": 8001,
      "front": 8002,
      "746": 8003,
      "Ay": 8004,
      "ute": 8005,
      "ĥ£": 8006,
      "Ġcut": 8007,
      "Ġcell": 8008,
      "Ġcard": 8009,
      "Ġbana": 8010,
      "Ġkok": 8011,
      "Ġkomp": 8012,
      "tep": 8013,
      "oru": 8014,
      "ĠYouTube": 8015,
      "Ġfly": 8016,
      "Ġfakt": 8017,
      "Ġinf": 8018,
      "ĠAt": 8019,
      "liyor": 8020,
      "lamalar": 8021,
      "Ġkonunun": 8022,
      "lerseniz": 8023,
      "ĠÃ¶neriyle": 8024,
      "ĠzorlanÄ±yorsanÄ±z": 8025,
      "ĠkayÄ±tlarda": 8026,
      "ĠdolaÅŁ": 8027,
      "ĠdeÄŁiÅŁtirin": 8028,
      "141": 8029,
      "olding": 8030,
      "Ġtraff": 8031,
      "Ġbelirsiz": 8032,
      "Ġoturarak": 8033,
      "Ġtutar": 8034,
      "ĠtutarlÄ±": 8035,
      "Ġedersiniz": 8036,
      "Ġwalks": 8037,
      "duÄŁunuz": 8038,
      "sively": 8039,
      "Ġistem": 8040,
      "ĠWhere": 8041,
      "Ġyoludur": 8042,
      "ĠgeÃ§ici": 8043,
      ":**Ċ": 8044,
      "Ä±lma": 8045,
      "Ġapply": 8046,
      "Ġyatarken": 8047,
      "Ġfixing": 8048,
      "Ġterms": 8049,
      "Ġsunabilirim": 8050,
      "1180": 8051,
      "Ġhob": 8052,
      "Ġfrequent": 8053,
      "ivid": 8054,
      "Ġcircle": 8055,
      "Ġbaggage": 8056,
      "Ġgerektiren": 8057,
      "ĠSleeping": 8058,
      "ĠkolaylaÅŁÄ±r": 8059,
      "ĠhatÄ±rlatÄ±n": 8060,
      "ĠdÃ¶nÃ¼ÅŁtÃ¼r": 8061,
      "Ġexclus": 8062,
      "Ġbilimsel": 8063,
      "ĠhedeflediÄŁiniz": 8064,
      "Ġpatience": 8065,
      "Ġrepeatedly": 8066,
      "Ġnoktalar": 8067,
      "ĠÃĸzellikle": 8068,
      "ĠDÃ¼zenli": 8069,
      "Ġcenter": 8070,
      "Ġfloor": 8071,
      "Ġsurroundings": 8072,
      "ï¸ıâĥ£": 8073,
      "Ġtraffic": 8074,
      "540": 8075,
      "640": 8076,
      "960": 8077,
      "945": 8078,
      "nation": 8079,
      "put": 8080,
      "Ġcap": 8081,
      "enda": 8082,
      "Ġbuna": 8083,
      "ants": 8084,
      "Ġtoile": 8085,
      "eting": 8086,
      "lab": 8087,
      "ĠmÃ¼": 8088,
      "Ġmiy": 8089,
      "ĠBilgi": 8090,
      "Ġuyul": 8091,
      "Ġmanz": 8092,
      "1300": 8093,
      "Ġspoken": 8094,
      "Ġsaves": 8095,
      "Ġbelirley": 8096,
      "ĠkullanmanÄ±z": 8097,
      "ĠdoÄŁrult": 8098,
      "ĠalÄ±ÅŁkanlÄ±klarÄ±": 8099,
      "Ġmotivasyonunuzu": 8100,
      "Ġgeliyor": 8101,
      "Ġdescri": 8102,
      "Ġpeace": 8103,
      "ĠdÃ¼ÅŁÃ¼nÃ¼": 8104,
      "weight": 8105,
      "Ġgiderek": 8106,
      "Ġunexpectedly": 8107,
      "ĠartÄ±rmak": 8108,
      "ĠsaÄŁlayabilirsiniz": 8109,
      "Ã¼nÃ¼zde": 8110,
      "Ġdirekt": 8111,
      "Ġrequirements": 8112,
      "Ġgetirmek": 8113,
      "ĠyaklaÅŁÄ±k": 8114,
      "Ġilerlemeler": 8115,
      "ĠbaÅŁlarsÄ±nÄ±z": 8116,
      "ĠsÄ±rayla": 8117,
      "ĠClean": 8118,
      "imdiden": 8119,
      "Ġelectronic": 8120,
      "Ġsituations": 8121,
      "Ġstacking": 8122,
      "ĠGenellikle": 8123,
      "repare": 8124,
      "Ġexclusively": 8125,
      "'un": 8126,
      "544": 8127,
      "647": 8128,
      "721": 8129,
      "745": 8130,
      "918": 8131,
      "Make": 8132,
      "cking": 8133,
      "yim": 8134,
      "Ġcities": 8135,
      "Ġtech": 8136,
      "Ġbacak": 8137,
      "ved": 8138,
      "itation": 8139,
      "ilim": 8140,
      "Ġfight": 8141,
      "Ġga": 8142,
      "Ġstuff": 8143,
      "ĠkÄ±la": 8144,
      "larÄ±m": 8145,
      "ĠverdiÄŁiniz": 8146,
      "Ġdemektir": 8147,
      "Ġkare": 8148,
      "Ġcop": 8149,
      "ĠÃ§alÄ±": 8150,
      "Ġvict": 8151,
      "eceÄŁini": 8152,
      "ĠÃ¶ÄŁlen": 8153,
      "Ġarm": 8154,
      "ganize": 8155,
      "anÄ±zdaki": 8156,
      "ĠtoplamÄ±": 8157,
      "asÄ±ndan": 8158,
      "ĠdÃ¼zeniyle": 8159,
      "ecektir": 8160,
      "tÄ±ÄŁÄ±": 8161,
      "ĠÃ§Ä±kan": 8162,
      "Ġrecip": 8163,
      "Ġstressful": 8164,
      "Ġagenda": 8165,
      "Ġefforts": 8166,
      "Ãĸz": 8167,
      "Ġuykuyu": 8168,
      "ĠtadÄ±": 8169,
      "ĠAlÄ±ÅŁkanlÄ±klarÄ±": 8170,
      "Ġbags": 8171,
      "Ġreminder": 8172,
      "Ġgrows": 8173,
      "Ġhydration": 8174,
      "Ġlisteley": 8175,
      "-step": 8176,
      "Ġobserv": 8177,
      "Ġimpulsively": 8178,
      "Ġappreciation": 8179,
      "Ġsuyunu": 8180,
      "Ġkurtul": 8181,
      "Ġbelirtirseniz": 8182,
      "Ġdeliberate": 8183,
      "-verbal": 8184,
      "350": 8185,
      "511": 8186,
      "581": 8187,
      "566": 8188,
      "631": 8189,
      "740": 8190,
      "KÄ±sa": 8191,
      "dim": 8192,
      "gel": 8193,
      "rt": 8194,
      "tiniz": 8195,
      "Ġprop": 8196,
      "Ġbildir": 8197,
      "ĠdanÄ±ÅŁ": 8198,
      "ĠAdÄ±m": 8199,
      "ahmin": 8200,
      "ĠyapmanÄ±zÄ±": 8201,
      "lerdeki": 8202,
      "ĠnumarasÄ±nÄ±z": 8203,
      "Ġleg": 8204,
      "Ġfeet": 8205,
      "care": 8206,
      "ĠseÃ§tiÄŁiniz": 8207,
      "Ġunrelated": 8208,
      "zeti": 8209,
      "Ġelinize": 8210,
      "ĠWell": 8211,
      "Ġgereksin": 8212,
      "Ġekra": 8213,
      "ĠgÃ¶rÃ¼": 8214,
      "ĠbÃ¶lerek": 8215,
      "ĠkarÅŁÄ±sÄ±nda": 8216,
      "Ġdisag": 8217,
      "ĠakÅŁamÄ±": 8218,
      "diÄŁinizi": 8219,
      "ĠayardÄ±": 8220,
      "ĠbakÄ±ÅŁ": 8221,
      "ukarÄ±": 8222,
      "Ġenvironmental": 8223,
      "Ġparlak": 8224,
      "Ġmethods": 8225,
      "Ġcarefully": 8226,
      "Ġsabitleyin": 8227,
      "lÄ±ÄŁa": 8228,
      "lÄ±ÄŁÄ±nÄ±zÄ±": 8229,
      "ĠkÃ¶k": 8230,
      "Ġzihinsel": 8231,
      "Ġchoices": 8232,
      "Ġbarriers": 8233,
      "ĠkullanÄ±mÄ±nÄ±": 8234,
      "mayacak": 8235,
      "Ġbany": 8236,
      "Ġnutriti": 8237,
      "Ġsunuyorum": 8238,
      "Ġstruggle": 8239,
      "ĠfaktÃ¶r": 8240,
      "ĠdoÄŁrultusunda": 8241,
      "946": 8242,
      "Pick": 8243,
      "ctions": 8244,
      "down": 8245,
      "hazÄ±r": 8246,
      "lÄ±n": 8247,
      "Ä±ÄŁÄ±nÄ±": 8248,
      "ulation": 8249,
      "ural": 8250,
      "Ġdenize": 8251,
      "ĠdÃ¼ny": 8252,
      "ÅŁa": 8253,
      "ĠTid": 8254,
      "ĠTaking": 8255,
      "ayken": 8256,
      "Ġmara": 8257,
      "ĠSessiz": 8258,
      "ĠAM": 8259,
      "Ġanah": 8260,
      "larken": 8261,
      "lerinde": 8262,
      "ĠzorlandÄ±ÄŁÄ±nÄ±z": 8263,
      "ĠzamanÄ±n": 8264,
      "1500": 8265,
      "ĠplanlanmÄ±ÅŁ": 8266,
      "Ġlink": 8267,
      "Ġrare": 8268,
      "ĠPrag": 8269,
      "ĠartÄ±rarak": 8270,
      "Ġbelirten": 8271,
      "Ġupfront": 8272,
      "Ġsettle": 8273,
      "ĠalÄ±m": 8274,
      "ĠiÅŁlerinizi": 8275,
      "ĠÃ§alÄ±ÅŁÄ±r": 8276,
      "Ġhearing": 8277,
      "Ġilerleyebilirsiniz": 8278,
      "ĠÃ§Ä±kara": 8279,
      "ĠÃ§Ä±kÄ±ÅŁ": 8280,
      "ĠolanlarÄ±": 8281,
      "ĠalanÄ±nÄ±za": 8282,
      "diÄŁinde": 8283,
      "Ġstressed": 8284,
      "Ã¼cad": 8285,
      "ĠsÄ±kÄ±ÅŁ": 8286,
      "ĠÃĩev": 8287,
      "Ġenerjisini": 8288,
      "Ġgrab": 8289,
      "ĠÃĸÄŁrenmeyi": 8290,
      "Ġachievement": 8291,
      "Ġlooks": 8292,
      "Ġalarms": 8293,
      "Ġprocrastin": 8294,
      "Ġcontainer": 8295,
      "ĠUykuya": 8296,
      "ĠsÃ¼recin": 8297,
      "Ġtekniklerini": 8298,
      "ĠÃ§evren": 8299,
      "Ġkazanmak": 8300,
      "Ġincreasing": 8301,
      "ĠkaÃ§Ä±nmak": 8302,
      "Ġsounding": 8303,
      "Ġprepare": 8304,
      "Ġyiyecek": 8305,
      "-hour": 8306,
      "ĠkeÅŁfedin": 8307,
      "Ġfamily": 8308,
      "Ġtuvalet": 8309,
      "Ġinteresting": 8310,
      "ĠgÃ¶ÄŁÃ¼s": 8311,
      "Ġsenaryo": 8312,
      "Ġefficiently": 8313,
      "Ġsmooth": 8314,
      "Ġnutritious": 8315,
      "'Ã¼n": 8316,
      "396": 8317,
      "bilg": 8318,
      "cÃ¼k": 8319,
      "io": 8320,
      "Ġ[": 8321,
      "isc": 8322,
      "Ġila": 8323,
      "ayÄ±r": 8324,
      "Ġgems": 8325,
      "izin": 8326,
      "Ġinvite": 8327,
      "amiliar": 8328,
      "Ġstory": 8329,
      "Ã¼ksek": 8330,
      "lerinin": 8331,
      "lerinizin": 8332,
      "Ġabroad": 8333,
      "1034": 8334,
      "1400": 8335,
      "layalÄ±m": 8336,
      "eceÄŁin": 8337,
      "Ġseeing": 8338,
      "ĠdÃ¼zeninde": 8339,
      "ĠkaydÄ±r": 8340,
      "ĠyaÅŁamÄ±": 8341,
      "Ġertesi": 8342,
      "ĠkonuÅŁarak": 8343,
      "Ġspeed": 8344,
      "ĠÃ§Ä±karÄ±": 8345,
      "Ġlightweight": 8346,
      "Ġdetours": 8347,
      "ĠkapÄ±": 8348,
      "Ġmesajda": 8349,
      "ditionally": 8350,
      "Ġtemizlemek": 8351,
      "Ġcontent": 8352,
      "meyecek": 8353,
      "ĠAdditionally": 8354,
      "ĠuyumayÄ±": 8355,
      "Ġgirmeden": 8356,
      "ĠÃ§ekici": 8357,
      "Ġformat": 8358,
      "Ġobj": 8359,
      "ĠgÃ¶rÃ¼nen": 8360,
      "tirebilir": 8361,
      "tirebilirsiniz": 8362,
      "Ġgrounding": 8363,
      "ĠÃ¼zerindeki": 8364,
      "Ġassumptions": 8365,
      "ĠsÄ±nÄ±rlÄ±": 8366,
      "Ġcolle": 8367,
      "ĠaydÄ±nlatma": 8368,
      "ĠiliÅŁki": 8369,
      "Ġlisteleyin": 8370,
      "-habit": 8371,
      "dikten": 8372,
      "ĠplanlÄ±yor": 8373,
      "Ġaccountability": 8374,
      "Ġchaos": 8375,
      "ĠbardaÄŁÄ±": 8376,
      "kalem": 8377,
      "Ġunfamiliar": 8378,
      "Ġdikkate": 8379,
      "Ġtechn": 8380,
      "Ġmarath": 8381,
      "-care": 8382,
      "318": 8383,
      "319": 8384,
      "370": 8385,
      "521": 8386,
      "731": 8387,
      "947": 8388,
      "Hedef": 8389,
      "hum": 8390,
      "manÄ±": 8391,
      "orate": 8392,
      "Ġsar": 8393,
      "Ġski": 8394,
      "Ġsix": 8395,
      "Ġbot": 8396,
      "rat": 8397,
      "ello": 8398,
      "Ġname": 8399,
      "teÅŁ": 8400,
      "lediÄŁiniz": 8401,
      "Ġfile": 8402,
      "Ġfig": 8403,
      "Ġoyn": 8404,
      "ĠayarÄ±": 8405,
      "ĠGreat": 8406,
      "ĠuyarÄ±": 8407,
      "ikten": 8408,
      "ĠRut": 8409,
      "1384": 8410,
      "eceÄŁi": 8411,
      "1600": 8412,
      "ondan": 8413,
      "ĠÃ¶ÄŁret": 8414,
      "Ġevi": 8415,
      "Ġbelirleyebilirsiniz": 8416,
      "242": 8417,
      "Ġediyor": 8418,
      "Ġedici": 8419,
      "Ġelb": 8420,
      "Ġdurumlarda": 8421,
      "ĠodaklanmÄ±ÅŁ": 8422,
      "Ġkurma": 8423,
      "Ġrestore": 8424,
      "ĠdÃ¼zenlemeye": 8425,
      "ĠalanÄ±na": 8426,
      "ĠbÃ¶lÃ¼": 8427,
      "ĠdÃ¼ÅŁÃ¼nelim": 8428,
      "ĠyarÄ±m": 8429,
      "Ġgidiyor": 8430,
      "ĠgÃ¶revlerin": 8431,
      "oughly": 8432,
      "Ġpencer": 8433,
      "Ġenerjisi": 8434,
      "ĠgerÃ§ekleÅŁtir": 8435,
      "ebiliriz": 8436,
      "Ãĸrn": 8437,
      "Ġdriven": 8438,
      "ĠEvde": 8439,
      "Ġkelimesi": 8440,
      "aÄŁÄ±daki": 8441,
      "ĠÃ§izgi": 8442,
      "ĠgÃ¶ndermek": 8443,
      "ĠsÃ¼recinde": 8444,
      "Ġkoyup": 8445,
      "Ġvakti": 8446,
      "ĠÃ§evre": 8447,
      "Ġhavuzu": 8448,
      "ĠyarÄ±sÄ±": 8449,
      "ĠSÄ±cak": 8450,
      "Ġkaydetmek": 8451,
      "Ġtonunu": 8452,
      "ĠoluÅŁturarak": 8453,
      "ĠÃ§eviri": 8454,
      "ĠnoktalarÄ±": 8455,
      "ology": 8456,
      "Ġtencer": 8457,
      "Ġsindirim": 8458,
      "1130": 8459,
      "460": 8460,
      "470": 8461,
      "621": 8462,
      "644": 8463,
      "744": 8464,
      "Ä±ra": 8465,
      "ancing": 8466,
      "tiren": 8467,
      "Ġpages": 8468,
      "ouble": 8469,
      "Ġneye": 8470,
      "tecek": 8471,
      "tegor": 8472,
      "Ġhop": 8473,
      "orba": 8474,
      "ably": 8475,
      "Ġrelease": 8476,
      "nerek": 8477,
      "ĠGer": 8478,
      "Ġmem": 8479,
      "edir": 8480,
      "Ġvere": 8481,
      "ĠyapmayÄ±n": 8482,
      "Ġkategor": 8483,
      "ĠPrepare": 8484,
      "Ġbeginning": 8485,
      "Ġleft": 8486,
      "Ġspir": 8487,
      "deep": 8488,
      "Ġrap": 8489,
      "ĠÅŁef": 8490,
      "ĠalÄ±rken": 8491,
      "Ġboard": 8492,
      "Ġtracking": 8493,
      "ĠkullandÄ±ÄŁÄ±nÄ±z": 8494,
      "Ġhedefleri": 8495,
      "Ġuns": 8496,
      "ording": 8497,
      "Ġedilen": 8498,
      "Ġoutdo": 8499,
      "Ã¼rekli": 8500,
      "ĠiÅŁlerin": 8501,
      "ĠThey": 8502,
      "Ġroad": 8503,
      "Ġlaugh": 8504,
      "Ġrecomm": 8505,
      "Ġvisits": 8506,
      "ĠduyarlÄ±": 8507,
      "Ġhedeflerin": 8508,
      "ĠsÄ±kÄ±": 8509,
      "Ġkahves": 8510,
      "ĠÅŁunlar": 8511,
      "ĠUyan": 8512,
      "Ġyoktur": 8513,
      "ĠÅŀehir": 8514,
      "ĠyanÄ±nda": 8515,
      "ĠuyanÄ±nca": 8516,
      "Ġmisin": 8517,
      "ĠdeÄŁiÅŁir": 8518,
      "Ġinitiative": 8519,
      "mezsiniz": 8520,
      "Ġkaba": 8521,
      "beti": 8522,
      "Ġmalze": 8523,
      "bilmek": 8524,
      "Ġchats": 8525,
      "ĠkaÄŁÄ±dÄ±": 8526,
      "ĠduyduÄŁun": 8527,
      "Ġforced": 8528,
      "Ġpicture": 8529,
      "Ġsounds": 8530,
      "ĠbaÅŁlÄ±yorsanÄ±z": 8531,
      "Ġhydrated": 8532,
      "ĠcevabÄ±": 8533,
      "Ġportre": 8534,
      "ĠfotoÄŁrafÃ§Ä±lÄ±k": 8535,
      "Ġyuvar": 8536,
      "Ġempat": 8537,
      "Ġferah": 8538,
      "08": 8539,
      "390": 8540,
      "650": 8541,
      "645": 8542,
      "770": 8543,
      "781": 8544,
      ">Ċ": 8545,
      "Uy": 8546,
      "comm": 8547,
      "gien": 8548,
      "how": 8549,
      "ious": 8550,
      "ring": 8551,
      "van": 8552,
      "Ġaile": 8553,
      "ering": 8554,
      "oda": 8555,
      "elisiniz": 8556,
      "Ġhep": 8557,
      "Ġhaber": 8558,
      "arant": 8559,
      "ĠDolayÄ±sÄ±yla": 8560,
      "Ġthir": 8561,
      "ĠSeÃ§": 8562,
      "ĠanlarÄ±": 8563,
      "ĠGel": 8564,
      "1016": 8565,
      "1084": 8566,
      "1085": 8567,
      "**.Ċ": 8568,
      "enizden": 8569,
      "ĠyazdÄ±ÄŁÄ±nÄ±z": 8570,
      "Ġvac": 8571,
      "1280": 8572,
      "suna": 8573,
      "Ġjok": 8574,
      "ĠanlamlÄ±": 8575,
      "omb": 8576,
      "Ġkalmaya": 8577,
      "Ġbelirgin": 8578,
      "Ġokun": 8579,
      "Ġinternation": 8580,
      "Ġthemselves": 8581,
      "ĠkullanÄ±p": 8582,
      "Ġsuit": 8583,
      "Ġelinde": 8584,
      "ĠyaÅŁamak": 8585,
      "Ġkurs": 8586,
      "ĠkuralÄ±": 8587,
      "ĠSabahÄ±": 8588,
      "alarÄ±na": 8589,
      "Ġgiden": 8590,
      "earching": 8591,
      "Ġseviyenize": 8592,
      "ĠprogramÄ±nÄ±": 8593,
      "ĠEvdeki": 8594,
      "ĠvÃ¼cudunuza": 8595,
      "ĠRespect": 8596,
      "ĠortamÄ±": 8597,
      "Ġoturun": 8598,
      "ĠkiÅŁiyi": 8599,
      "Ġmoder": 8600,
      "Ġdefterine": 8601,
      "Ġencourages": 8602,
      "Ġhygien": 8603,
      "ĠÃ¶lÃ§Ã¼n": 8604,
      "ĠHayÄ±r": 8605,
      "ĠÄ°ÅŁte": 8606,
      "ĠiÅŁlev": 8607,
      "ĠBaÅŁarÄ±lÄ±": 8608,
      "gencies": 8609,
      "Ġchargers": 8610,
      "Ġkenar": 8611,
      "oloji": 8612,
      "Ġemergencies": 8613,
      "Ġcountry": 8614,
      "Ġwillingness": 8615,
      "ĠGÃ¶revlerinizi": 8616,
      "ĠKahvaltÄ±": 8617,
      "Ġtoiletries": 8618,
      "Ġhygiene": 8619,
      "'la": 8620,
      "-at": 8621,
      "-val": 8622,
      "1100": 8623,
      "290": 8624,
      "519": 8625,
      "547": 8626,
      "594": 8627,
      "577": 8628,
      "695": 8629,
      "796": 8630,
      "case": 8631,
      "isk": 8632,
      "Ġpl": 8633,
      "ĠtÄ±k": 8634,
      "Ġbiber": 8635,
      "ĠkÃ¼Ã§": 8636,
      "Ġkase": 8637,
      "Ġkura": 8638,
      "aris": 8639,
      "ĠdediÄŁ": 8640,
      "irs": 8641,
      "Ã§ok": 8642,
      "ĠDoÄŁ": 8643,
      "lations": 8644,
      "Ġmile": 8645,
      "Ġstreak": 8646,
      "Ġstories": 8647,
      "ĠAra": 8648,
      "Ä°ÅŁ": 8649,
      "Ġresearching": 8650,
      "1030": 8651,
      "1026": 8652,
      "1035": 8653,
      "1089": 8654,
      "ĠRe": 8655,
      "1534": 8656,
      "1224": 8657,
      "1320": 8658,
      "Ġplanlar": 8659,
      "Ġkalab": 8660,
      "Ġmanaging": 8661,
      "Ġtran": 8662,
      "Ġword": 8663,
      "ĠKaf": 8664,
      "Ġlistele": 8665,
      "ĠbaÅŁlayabileceÄŁiniz": 8666,
      "Ġinterfer": 8667,
      "arakter": 8668,
      "Ġfront": 8669,
      "ĠÃ§alÄ±ÅŁtÄ±r": 8670,
      "Ġelinizi": 8671,
      "clear": 8672,
      "ĠalÄ±ÅŁkanlÄ±ÄŁÄ±nÄ±": 8673,
      "ĠakÄ±l": 8674,
      "Ġdurup": 8675,
      "akkab": 8676,
      "ĠdÃ¼zenlemeyi": 8677,
      "Ġopening": 8678,
      "ĠhÄ±zlandÄ±": 8679,
      "ĠtÃ¼rÃ¼ne": 8680,
      "ĠsorunlarÄ±nÄ±z": 8681,
      "ĠoluÅŁturmaya": 8682,
      "ĠyatÄ±p": 8683,
      "Ġhedeflere": 8684,
      "Ġenjo": 8685,
      "?\"Ċ": 8686,
      "Ġaggre": 8687,
      "Ġtelefonunuzdan": 8688,
      "ĠiÃ§erir": 8689,
      "mamÄ±ÅŁ": 8690,
      "ĠanlatÄ±m": 8691,
      "Ġmutluluk": 8692,
      "istics": 8693,
      "Ġengagement": 8694,
      "ĠdeÄŁerlendirin": 8695,
      "ĠteÅŁekkÃ¼r": 8696,
      "ĠsÃ¶zlÃ¼k": 8697,
      "ĠgÃ¼Ã§lendirir": 8698,
      "urable": 8699,
      "Ġharcamak": 8700,
      "ĠuÃ§ak": 8701,
      "coming": 8702,
      "Ġlogistics": 8703,
      "Ġreflecting": 8704,
      "Ġtelev": 8705,
      "ĠilginÃ§": 8706,
      "Ġdynamic": 8707,
      "ĠsÄ±nÄ±f": 8708,
      "Ġrarely": 8709,
      "-value": 8710,
      "Ġaggreg": 8711,
      "-th": 8712,
      "595": 8713,
      "690": 8714,
      "670": 8715,
      "643": 8716,
      "asa": 8717,
      "bile": 8718,
      "rit": 8719,
      "tra": 8720,
      "Ġseni": 8721,
      "reement": 8722,
      "ĠkaÅŁ": 8723,
      "ĠDikkat": 8724,
      "Ġfoto": 8725,
      "ĠbirleÅŁtir": 8726,
      "amÄ±yorum": 8727,
      "ĠAk": 8728,
      "Ġadim": 8729,
      "Ġzem": 8730,
      "Ġforg": 8731,
      "ĠbaÅŁÄ±ndan": 8732,
      "lamanÄ±z": 8733,
      "Ġissue": 8734,
      "Ġkonudaki": 8735,
      "ĠzorlaÅŁtÄ±r": 8736,
      "1017": 8737,
      "1024": 8738,
      "1524": 8739,
      "1584": 8740,
      "1314": 8741,
      "ertain": 8742,
      "Ġhass": 8743,
      "Ġkalkarak": 8744,
      "velop": 8745,
      "Ġexha": 8746,
      "Ġsona": 8747,
      "inyal": 8748,
      "Ġoversp": 8749,
      "Ġsorusuna": 8750,
      "ĠFlights": 8751,
      "Ġhedefini": 8752,
      "ĠsuÃ§": 8753,
      "ĠBirincisi": 8754,
      "ĠbaÅŁlayanlar": 8755,
      "Ġyararlan": 8756,
      "ĠnetleÅŁ": 8757,
      "Ġfollowing": 8758,
      "ĠakÅŁamlarÄ±": 8759,
      "ĠbÄ±rakmayÄ±n": 8760,
      "Ġactual": 8761,
      "ĠUygul": 8762,
      "ĠbaÅŁarÄ±lÄ±": 8763,
      "ĠbaÅŁarÄ±sÄ±z": 8764,
      "masÄ±dÄ±r": 8765,
      "Ġsunmak": 8766,
      "Ġrealis": 8767,
      "Ġendor": 8768,
      "dÄ±ÄŁÄ±na": 8769,
      "Ġedebilir": 8770,
      "Ġsohbeti": 8771,
      "ĠgÃ¶steren": 8772,
      "Ġdesignate": 8773,
      "ĠkaynaklarÄ±": 8774,
      "Ġdocument": 8775,
      "Ġcountertop": 8776,
      "tÄ±rabilir": 8777,
      "tirici": 8778,
      "Ġguilty": 8779,
      "ĠarayÄ±n": 8780,
      "Ġvadede": 8781,
      "box": 8782,
      "Ġgathering": 8783,
      "Ġcompliments": 8784,
      "Ġburada": 8785,
      "urgent": 8786,
      "-go": 8787,
      "1150": 8788,
      "450": 8789,
      "660": 8790,
      "619": 8791,
      "775": 8792,
      "776": 8793,
      "Son": 8794,
      "gÃ¶z": 8795,
      "Ä±yorsunuz": 8796,
      "Ġside": 8797,
      "resim": 8798,
      "Ġneyin": 8799,
      "urther": 8800,
      "ÅŁek": 8801,
      "ĠYour": 8802,
      "Ġfurther": 8803,
      "ĠSw": 8804,
      "ither": 8805,
      "Ġinstant": 8806,
      "ahÃ§e": 8807,
      "Ã¼nÃ¼n": 8808,
      "Ġanlar": 8809,
      "Ġmoves": 8810,
      "ĠyapÄ±mÄ±": 8811,
      "ĠÃ¶neriniz": 8812,
      "1020": 8813,
      "1036": 8814,
      "1284": 8815,
      "1234": 8816,
      "1325": 8817,
      "1380": 8818,
      "Ġbuz": 8819,
      "Ġbypass": 8820,
      "1445": 8821,
      "Ġseek": 8822,
      "Ã¼yÃ¼ÅŁ": 8823,
      "ĠdakikasÄ±nÄ±": 8824,
      "Ġkendinizle": 8825,
      "arklÄ±": 8826,
      "Ġduran": 8827,
      "azen": 8828,
      "Ġease": 8829,
      "ĠdÃ¼ÅŁÃ¼nme": 8830,
      "Ġuzat": 8831,
      "Ġfolding": 8832,
      "Ġdinamik": 8833,
      "Ġhareketlerle": 8834,
      "Ġhissetmeniz": 8835,
      "Ġbudgeting": 8836,
      "ĠaÃ§Ä±klayÄ±cÄ±": 8837,
      "ĠbaÄŁÄ±m": 8838,
      "abilmek": 8839,
      "Ã¼nÃ¼zÃ¼n": 8840,
      "Ġincelem": 8841,
      "Ġendless": 8842,
      "Ġifadeler": 8843,
      "Ġsoruya": 8844,
      "ĠgÃ¶rÃ¼nÃ¼m": 8845,
      "Ġgetirir": 8846,
      "Ġsohbetler": 8847,
      "Ġsabr": 8848,
      "melidir": 8849,
      "ĠKonuyu": 8850,
      "Ġextend": 8851,
      "ĠamacÄ±": 8852,
      "Ġbilgilerin": 8853,
      "Ġminimum": 8854,
      "Ġhavuzun": 8855,
      "ĠAlÄ±ÅŁkanlÄ±klar": 8856,
      "Ġestablishing": 8857,
      "Ġzihni": 8858,
      "ĠuygulamalarÄ±nÄ±": 8859,
      "Ġprovides": 8860,
      "ĠyÃ¼rÃ¼menizi": 8861,
      "Ġlayers": 8862,
      "kenden": 8863,
      "ĠMayayla": 8864,
      "Ġpattern": 8865,
      "visit": 8866,
      "Ġtimers": 8867,
      "Ġcorrect": 8868,
      "Ġrealistically": 8869,
      "-S": 8870,
      "-or": 8871,
      "397": 8872,
      "576": 8873,
      "543": 8874,
      "681": 8875,
      "819": 8876,
      "996": 8877,
      "plan": 8878,
      "Ġaud": 8879,
      "isy": 8880,
      "Ġcross": 8881,
      "Ġsinyal": 8882,
      "Ġkop": 8883,
      "Ġkarakter": 8884,
      "ĠEyl": 8885,
      "ĠyukarÄ±": 8886,
      "ĠTwo": 8887,
      "aklaÅŁ": 8888,
      "izyon": 8889,
      "abl": 8890,
      "kiÅŁ": 8891,
      "Ġzaten": 8892,
      "ĠadÄ±mlÄ±": 8893,
      "ĠbaÅŁÄ±nÄ±": 8894,
      "ĠMix": 8895,
      "Ġmola": 8896,
      "ĠOl": 8897,
      "amanÄ±zÄ±": 8898,
      "ĠÃ§ant": 8899,
      "ĠgÃ¼nÃ¼m": 8900,
      "1028": 8901,
      "1086": 8902,
      "ĠyazÄ±m": 8903,
      "ĠHang": 8904,
      "1533": 8905,
      "1230": 8906,
      "1324": 8907,
      "1436": 8908,
      "olun": 8909,
      "ĠalÄ±r": 8910,
      "243": 8911,
      "244": 8912,
      "Ġyemekler": 8913,
      "Ġhedefleyerek": 8914,
      "ĠsaÄŁla": 8915,
      "Ġdeepen": 8916,
      "ĠgÃ¼lÃ¼m": 8917,
      "Ġerkenden": 8918,
      "Ġspeech": 8919,
      "Ġtamamlayarak": 8920,
      "Ġnefesini": 8921,
      "Ġfinally": 8922,
      "Ġhissetme": 8923,
      "Ġpressured": 8924,
      "Ġthoughtful": 8925,
      "1140": 8926,
      "ĠÅŁeylerden": 8927,
      "Ġkoruyarak": 8928,
      "ĠyansÄ±": 8929,
      "ĠendiÅŁ": 8930,
      "ĠseÃ§enektir": 8931,
      "ĠkatÄ±lacak": 8932,
      "ĠdÃ¶nem": 8933,
      "Ġminor": 8934,
      "Ġindivid": 8935,
      "Ġreplacement": 8936,
      "Ġderail": 8937,
      "ĠSorun": 8938,
      "Ġsummarize": 8939,
      "ĠtanÄ±mlayÄ±n": 8940,
      "ĠÃĸnerim": 8941,
      "ĠanlaÅŁÄ±l": 8942,
      "Ġhesaplama": 8943,
      "Ġkaybetmeden": 8944,
      "ĠmantÄ±klÄ±sÄ±": 8945,
      "Ġgeneric": 8946,
      "Ġboyut": 8947,
      "Ġremaining": 8948,
      "Ġfamiliar": 8949,
      "Ġobjects": 8950,
      "Ġsulama": 8951,
      "ozisyon": 8952,
      "Ã¼ncÃ¼": 8953,
      "Ġexplore": 8954,
      "Ġdiscoveries": 8955,
      "Ġempathy": 8956,
      "Ġenjoying": 8957,
      "ĠEylÃ¼l": 8958,
      "418": 8959,
      "550": 8960,
      "575": 8961,
      "646": 8962,
      "790": 8963,
      "750": 8964,
      "818": 8965,
      "HÄ±zlÄ±": 8966,
      "cy": 8967,
      "dge": 8968,
      "iÃ§": 8969,
      "igh": 8970,
      "kon": 8971,
      "neden": 8972,
      "inc": 8973,
      "erf": 8974,
      "Ġserin": 8975,
      "Ġbay": 8976,
      "Ġidi": 8977,
      "Ã§ay": 8978,
      "temel": 8979,
      "Ġayakkab": 8980,
      "ĠinÅŁa": 8981,
      "atter": 8982,
      "Ġadmin": 8983,
      "ĠÃ¶rne": 8984,
      "Ġolmaya": 8985,
      "Ġuygula": 8986,
      "1080": 8987,
      "1525": 8988,
      "1528": 8989,
      "Ġacqu": 8990,
      "1216": 8991,
      "1226": 8992,
      "1227": 8993,
      "1330": 8994,
      "1327": 8995,
      "1333": 8996,
      "1385": 8997,
      "1427": 8998,
      "1485": 8999,
      "Ġintended": 9000,
      "Ġintrod": 9001,
      "Ġkalb": 9002,
      "ĠkaldÄ±": 9003,
      "Ġcomment": 9004,
      "ĠeÅŁit": 9005,
      "ardaki": 9006,
      "ĠyerleÅŁtirin": 9007,
      "Ġokur": 9008,
      "1116": 9009,
      "ĠseÃ§meye": 9010,
      "193": 9011,
      "ĠsÃ¼reler": 9012,
      "ĠBirinci": 9013,
      "Ġexplan": 9014,
      "Ġkurg": 9015,
      "Ġreplying": 9016,
      "edeki": 9017,
      "ĠbÃ¶yle": 9018,
      "ĠortasÄ±nda": 9019,
      "ĠbakÄ±p": 9020,
      "ountain": 9021,
      "Ġknows": 9022,
      "ĠÄ±ÅŁÄ±klandÄ±rma": 9023,
      "orative": 9024,
      "Ġhappening": 9025,
[...]
