{
  "version": "1.0",
  "truncation": null,
  "padding": null,
  "added_tokens": [
    {
      "id": 0,
      "content": "<unk>",
      "single_word": false,
      "lstrip": false,
      "rstrip": false,
      "normalized": false,
      "special": true
    },
    {
      "id": 1,
      "content": "<s>",
      "single_word": false,
      "lstrip": false,
      "rstrip": false,
      "normalized": false,
      "special": true
    },
    {
      "id": 2,
      "content": "</s>",
      "single_word": false,
      "lstrip": false,
      "rstrip": false,
      "normalized": false,
      "special": true
    },
    {
      "id": 3,
      "content": "<pad>",
      "single_word": false,
      "lstrip": false,
      "rstrip": false,
      "normalized": false,
      "special": true
    },
    {
      "id": 4,
      "content": "<|system|>",
      "single_word": false,
      "lstrip": false,
      "rstrip": false,
      "normalized": false,
      "special": true
    },
    {
      "id": 5,
      "content": "<|user|>",
      "single_word": false,
      "lstrip": false,
      "rstrip": false,
      "normalized": false,
      "special": true
    },
    {
      "id": 6,
      "content": "<|assistant|>",
      "single_word": false,
      "lstrip": false,
      "rstrip": false,
      "normalized": false,
      "special": true
    },
    {
      "id": 7,
      "content": "<|end|>",
      "single_word": false,
      "lstrip": false,
      "rstrip": false,
      "normalized": false,
      "special": true
    },
    {
      "id": 8,
      "content": "<|code|>",
      "single_word": false,
      "lstrip": false,
      "rstrip": false,
      "normalized": false,
      "special": true
    }
  ],
  "normalizer": null,
  "pre_tokenizer": {
    "type": "Sequence",
    "pretokenizers": [
      {
        "type": "Split",
        "pattern": {
          "Regex": "(?i:[’'](?:larımızdan|lerimizden|larımız|lerimiz|dan|den|tan|ten|dır|dir|dur|dür|tır|tir|tur|tür|nın|nin|nun|nün|yı|yi|yu|yü|ya|ye|da|de|ta|te|ın|in|un|ün|la|le|lı|li|lu|lü|a|e))|'(?i:[sdmt]|ll|ve|re)|[^\\r\\n\\p{L}\\p{N}]?+\\p{L}++|\\p{N}{1,3}+| ?[^\\s\\p{L}\\p{N}]++[\\r\\n]*+|\\s*[\\r\\n]|\\s+(?!\\S)|\\s+"
        },
        "behavior": "Isolated",
        "invert": false
      },
      {
        "type": "ByteLevel",
        "add_prefix_space": false,
        "trim_offsets": true,
        "use_regex": false
      }
    ]
  },
  "post_processor": {
    "type": "ByteLevel",
    "add_prefix_space": true,
    "trim_offsets": false,
    "use_regex": true
  },
  "decoder": {
    "type": "ByteLevel",
    "add_prefix_space": true,
    "trim_offsets": true,
    "use_regex": true
  },
  "model": {
    "type": "BPE",
    "dropout": null,
    "unk_token": "<unk>",
    "continuing_subword_prefix": null,
    "end_of_word_suffix": null,
    "fuse_unk": false,
    "byte_fallback": false,
    "ignore_merges": false,
    "vocab": {
      "<unk>": 0,
      "<s>": 1,
      "</s>": 2,
      "<pad>": 3,
      "<|system|>": 4,
      "<|user|>": 5,
      "<|assistant|>": 6,
      "<|end|>": 7,
      "<|code|>": 8,
      "!": 9,
      "\"": 10,
      "#": 11,
      "$": 12,
      "%": 13,
      "&": 14,
      "'": 15,
      "(": 16,
      ")": 17,
      "*": 18,
      "+": 19,
      ",": 20,
      "-": 21,
      ".": 22,
      "/": 23,
      "0": 24,
      "1": 25,
      "2": 26,
      "3": 27,
      "4": 28,
      "5": 29,
      "6": 30,
      "7": 31,
      "8": 32,
      "9": 33,
      ":": 34,
      ";": 35,
      "<": 36,
      "=": 37,
      ">": 38,
      "?": 39,
      "@": 40,
      "A": 41,
      "B": 42,
      "C": 43,
      "D": 44,
      "E": 45,
      "F": 46,
      "G": 47,
      "H": 48,
      "I": 49,
      "J": 50,
      "K": 51,
      "L": 52,
      "M": 53,
      "N": 54,
      "O": 55,
      "P": 56,
      "Q": 57,
      "R": 58,
      "S": 59,
      "T": 60,
      "U": 61,
      "V": 62,
      "W": 63,
      "X": 64,
      "Y": 65,
      "Z": 66,
      "[": 67,
      "\\": 68,
      "]": 69,
      "^": 70,
      "_": 71,
      "`": 72,
      "a": 73,
      "b": 74,
      "c": 75,
      "d": 76,
      "e": 77,
      "f": 78,
      "g": 79,
      "h": 80,
      "i": 81,
      "j": 82,
      "k": 83,
      "l": 84,
      "m": 85,
      "n": 86,
      "o": 87,
      "p": 88,
      "q": 89,
      "r": 90,
      "s": 91,
      "t": 92,
      "u": 93,
      "v": 94,
      "w": 95,
      "x": 96,
      "y": 97,
      "z": 98,
      "{": 99,
      "|": 100,
      "}": 101,
      "~": 102,
      "¡": 103,
      "¢": 104,
      "£": 105,
      "¤": 106,
      "¥": 107,
      "¦": 108,
      "§": 109,
      "¨": 110,
      "©": 111,
      "ª": 112,
      "«": 113,
      "¬": 114,
      "®": 115,
      "¯": 116,
      "°": 117,
      "±": 118,
      "²": 119,
      "³": 120,
      "´": 121,
      "µ": 122,
      "¶": 123,
      "·": 124,
      "¸": 125,
      "¹": 126,
      "º": 127,
      "»": 128,
      "¼": 129,
      "½": 130,
      "¾": 131,
      "¿": 132,
      "À": 133,
      "Á": 134,
      "Â": 135,
      "Ã": 136,
      "Ä": 137,
      "Å": 138,
      "Æ": 139,
      "Ç": 140,
      "È": 141,
      "É": 142,
      "Ê": 143,
      "Ë": 144,
      "Ì": 145,
      "Í": 146,
      "Î": 147,
      "Ï": 148,
      "Ð": 149,
      "Ñ": 150,
      "Ò": 151,
      "Ó": 152,
      "Ô": 153,
      "Õ": 154,
      "Ö": 155,
      "×": 156,
      "Ø": 157,
      "Ù": 158,
      "Ú": 159,
      "Û": 160,
      "Ü": 161,
      "Ý": 162,
      "Þ": 163,
      "ß": 164,
      "à": 165,
      "á": 166,
      "â": 167,
      "ã": 168,
      "ä": 169,
      "å": 170,
      "æ": 171,
      "ç": 172,
      "è": 173,
      "é": 174,
      "ê": 175,
      "ë": 176,
      "ì": 177,
      "í": 178,
      "î": 179,
      "ï": 180,
      "ð": 181,
      "ñ": 182,
      "ò": 183,
      "ó": 184,
      "ô": 185,
      "õ": 186,
      "ö": 187,
      "÷": 188,
      "ø": 189,
      "ù": 190,
      "ú": 191,
      "û": 192,
      "ü": 193,
      "ý": 194,
      "þ": 195,
      "ÿ": 196,
      "Ā": 197,
      "ā": 198,
      "Ă": 199,
      "ă": 200,
      "Ą": 201,
      "ą": 202,
      "Ć": 203,
      "ć": 204,
      "Ĉ": 205,
      "ĉ": 206,
      "Ċ": 207,
      "ċ": 208,
      "Č": 209,
      "č": 210,
      "Ď": 211,
      "ď": 212,
      "Đ": 213,
      "đ": 214,
      "Ē": 215,
      "ē": 216,
      "Ĕ": 217,
      "ĕ": 218,
      "Ė": 219,
      "ė": 220,
      "Ę": 221,
      "ę": 222,
      "Ě": 223,
      "ě": 224,
      "Ĝ": 225,
      "ĝ": 226,
      "Ğ": 227,
      "ğ": 228,
      "Ġ": 229,
      "ġ": 230,
      "Ģ": 231,
      "ģ": 232,
      "Ĥ": 233,
      "ĥ": 234,
      "Ħ": 235,
      "ħ": 236,
      "Ĩ": 237,
      "ĩ": 238,
      "Ī": 239,
      "ī": 240,
      "Ĭ": 241,
      "ĭ": 242,
      "Į": 243,
      "į": 244,
      "İ": 245,
      "ı": 246,
      "Ĳ": 247,
      "ĳ": 248,
      "Ĵ": 249,
      "ĵ": 250,
      "Ķ": 251,
      "ķ": 252,
      "ĸ": 253,
      "Ĺ": 254,
      "ĺ": 255,
      "Ļ": 256,
      "ļ": 257,
      "Ľ": 258,
      "ľ": 259,
      "Ŀ": 260,
      "ŀ": 261,
      "Ł": 262,
      "ł": 263,
      "Ń": 264,
      "Ġa": 265,
      "<|": 266,
      "|>": 267,
      "is": 268,
      "nd": 269,
      "on": 270,
      "in": 271,
      "er": 272,
      "Ä±": 273,
      "an": 274,
      "Ġc": 275,
      "end": 276,
      "ĠĊ": 277,
      "|>:": 278,
      "|>Ċ": 279,
      "ti": 280,
      "Ġp": 281,
      "Ġs": 282,
      "ing": 283,
      "Ġt": 284,
      "Ġpr": 285,
      "ss": 286,
      "ist": 287,
      "re": 288,
      "Ġb": 289,
      "Ġcon": 290,
      "ant": 291,
      "ou": 292,
      "de": 293,
      "al": 294,
      "istant": 295,
      "ssistant": 296,
      "Ġpro": 297,
      "ish": 298,
      "ra": 299,
      "ce": 300,
      "Ġk": 301,
      "te": 302,
      "tion": 303,
      "Ġn": 304,
      "he": 305,
      "le": 306,
      "me": 307,
      "Ã¼": 308,
      "ul": 309,
      "us": 310,
      "ver": 311,
      "ĠE": 312,
      "or": 313,
      "Ġy": 314,
      "ar": 315,
      "sa": 316,
      "Ġi": 317,
      "ur": 318,
      "Ġand": 319,
      "ir": 320,
      "ĠD": 321,
      "gl": 322,
      "ÅŁ": 323,
      "da": 324,
      "ot": 325,
      "Ġco": 326,
      "ve": 327,
      "du": 328,
      "Ã§": 329,
      "user": 330,
      "assistant": 331,
      "Ġhe": 332,
      "ise": 333,
      "mm": 334,
      "ĠT": 335,
      "cise": 336,
      "Ġconcise": 337,
      "ste": 338,
      "ĠY": 339,
      "Ġare": 340,
      "Ġw": 341,
      "sy": 342,
      "ĠEn": 343,
      "gra": 344,
      "lp": 345,
      "Ġnot": 346,
      "Ġhelp": 347,
      "ful": 348,
      "ĠDo": 349,
      "versa": 350,
      "versation": 351,
      "Ġconversation": 352,
      "duce": 353,
      "mming": 354,
      "ĠYou": 355,
      "stem": 356,
      "Ġprogra": 357,
      "urk": 358,
      "Ġassistant": 359,
      "Ġcode": 360,
      "glish": 361,
      "ĠEnglish": 362,
      "Ġhelpful": 363,
      "Ġproduce": 364,
      "Ġprogramming": 365,
      "Ġconversational": 366,
      "system": 367,
      "ĠTurk": 368,
      "ĠTurkish": 369,
      "en": 370,
      "la": 371,
      "Ġto": 372,
      "it": 373,
      "ma": 374,
      "dÄ±": 375,
      "il": 376,
      "yÄ±": 377,
      "Ġf": 378,
      "Ġe": 379,
      "Ġg": 380,
      "ac": 381,
      "Ġo": 382,
      "es": 383,
      "ÄŁ": 384,
      "ha": 385,
      "Ġyou": 386,
      "ĠB": 387,
      "ĠS": 388,
      "Ã¶": 389,
      "iz": 390,
      "un": 391,
      "Ġbir": 392,
      "ug": 393,
      "Ġm": 394,
      "Ġd": 395,
      "ith": 396,
      "Ġwith": 397,
      "ĠayÄ±": 398,
      "Ġda": 399,
      "Ġve": 400,
      "Ä±n": 401,
      "ya": 402,
      "um": 403,
      "Ġin": 404,
      "ak": 405,
      "one": 406,
      "Ġbe": 407,
      "ly": 408,
      "ki": 409,
      "li": 410,
      "Ġst": 411,
      "ĠiÃ§": 412,
      "estion": 413,
      "nde": 414,
      "out": 415,
      "lan": 416,
      "ab": 417,
      "ĠA": 418,
      "mp": 419,
      "ri": 420,
      "et": 421,
      "Ġso": 422,
      "Ġka": 423,
      "ĠiÃ§in": 424,
      "Ġre": 425,
      "Ġthe": 426,
      "Ġya": 427,
      "ĠÃ¶": 428,
      "det": 429,
      "Ã¼n": 430,
      "rdÄ±": 431,
      "Ġan": 432,
      "ort": 433,
      "Ġba": 434,
      "ĠkÄ±": 435,
      "Ġadet": 436,
      "ĠayÄ±rdÄ±": 437,
      "Ġz": 438,
      "tic": 439,
      "Ġyour": 440,
      "mple": 441,
      "ilir": 442,
      "ner": 443,
      "dÄ±m": 444,
      "Ġsh": 445,
      "ĠkÄ±sa": 446,
      "ĠG": 447,
      "ĠadÄ±m": 448,
      "Ġu": 449,
      "Ġme": 450,
      "lar": 451,
      "Ġsome": 452,
      "ive": 453,
      "wo": 454,
      ".Ċ": 455,
      "Ġde": 456,
      "Ġfor": 457,
      "Ġtwo": 458,
      "Ġshort": 459,
      "ine": 460,
      "Ä±nÄ±": 461,
      "ari": 462,
      "mak": 463,
      "estions": 464,
      "Ġsomeone": 465,
      "Ġprac": 466,
      "tical": 467,
      "Ġstr": 468,
      "ugg": 469,
      "cen": 470,
      "Ġsugg": 471,
      "gling": 472,
      "uggling": 473,
      "ario": 474,
      "cenario": 475,
      "ĠGive": 476,
      "Ġstruggling": 477,
      "Ġpractical": 478,
      "Ġsuggestions": 479,
      "ĠScenario": 480,
      "ep": 481,
      "abilir": 482,
      "enti": 483,
      "st": 484,
      "Ġh": 485,
      "Ġth": 486,
      "ĠbaÅŁ": 487,
      "ĠgÃ¼n": 488,
      "ĠM": 489,
      "Ġmo": 490,
      "mek": 491,
      "am": 492,
      "ic": 493,
      "el": 494,
      "Ġne": 495,
      "Ġkenti": 496,
      "Ġkentinde": 497,
      "Ã¼k": 498,
      "Ġday": 499,
      "Ġuy": 500,
      "Ġile": 501,
      "alÄ±": 502,
      "nt": 503,
      "Ġon": 504,
      "very": 505,
      "Ġha": 506,
      "sÄ±": 507,
      "Ġevery": 508,
      "yi": 509,
      "ĠL": 510,
      "Ä°": 511,
      "ek": 512,
      "ĠÄ°": 513,
      "ut": 514,
      "nda": 515,
      "Ġol": 516,
      "ow": 517,
      "qu": 518,
      "lk": 519,
      "Ġver": 520,
      "Ġkon": 521,
      "Ġor": 522,
      "ĠbaÅŁla": 523,
      "Ġis": 524,
      "den": 525,
      "lÄ±": 526,
      "ler": 527,
      "Ġyap": 528,
      "ation": 529,
      "Ġit": 530,
      "Ġsi": 531,
      "Ġuyg": 532,
      "iÅŁ": 533,
      "ĠÃ¶ner": 534,
      "unu": 535,
      "Ġof": 536,
      "ec": 537,
      "ĠO": 538,
      "hat": 539,
      "ey": 540,
      "uÅŁ": 541,
      "iniz": 542,
      "Ġres": 543,
      "urum": 544,
      "Ġsa": 545,
      "th": 546,
      "'s": 547,
      "Ġab": 548,
      "Ġqu": 549,
      "acak": 550,
      "Ã¼Ã§": 551,
      "uma": 552,
      "ĠÄ°lk": 553,
      "Ġzor": 554,
      "lam": 555,
      "ĠÃ¶neri": 556,
      "Ġti": 557,
      "Ġabout": 558,
      "Ġiki": 559,
      "ka": 560,
      "aman": 561,
      "ĠP": 562,
      "Ġuygul": 563,
      "Ã¼Ã§Ã¼k": 564,
      "ĠÃ§": 565,
      "ate": 566,
      "yor": 567,
      "rasÄ±": 568,
      "ĠBu": 569,
      "tir": 570,
      "Ġzaman": 571,
      "usu": 572,
      "Ġbul": 573,
      "ĠC": 574,
      "ĠkaÃ§": 575,
      "ĠkÃ¼Ã§Ã¼k": 576,
      "as": 577,
      "Ġnuma": 578,
      "Ġsimple": 579,
      "Ġen": 580,
      "ef": 581,
      "lik": 582,
      "im": 583,
      "ĠnumarasÄ±": 584,
      "Ġtime": 585,
      "mir": 586,
      "day": 587,
      "ĠDurum": 588,
      "ĠgÃ¼nÃ¼": 589,
      "wer": 590,
      "Ġnum": 591,
      "Ġdaha": 592,
      "ah": 593,
      "Ġnumar": 594,
      "ge": 595,
      "Ġone": 596,
      "Ġzorlan": 597,
      "usunda": 598,
      "Ġ\"": 599,
      "oo": 600,
      "Ġuygulan": 601,
      "ĠnumaralÄ±": 602,
      "rief": 603,
      "Ġuygulanabilir": 604,
      "Ġkonusunda": 605,
      "gin": 606,
      "ning": 607,
      "ĠayÄ±n": 608,
      "Ġmeet": 609,
      "swer": 610,
      "**": 611,
      "ĠI": 612,
      "ĠkayÄ±": 613,
      "Ġzorlanan": 614,
      "Ġbirine": 615,
      "ĠkayÄ±t": 616,
      "ter": 617,
      "Ġquestion": 618,
      "Ġbegin": 619,
      "riefly": 620,
      "Ġanswer": 621,
      "ĠdeÄŁ": 622,
      "Ä±m": 623,
      "Ġwithout": 624,
      "Ã¼m": 625,
      "xa": 626,
      "xample": 627,
      "Ġbeginner": 628,
      "Ã¼z": 629,
      "Ġeveryday": 630,
      "ĠExample": 631,
      "ĠBriefly": 632,
      "ĠbuluÅŁ": 633,
      "Ġr": 634,
      "Ġkentindeki": 635,
      "ĠR": 636,
      "ĠbuluÅŁacak": 637,
      "Ġdo": 638,
      "Ä±z": 639,
      "ĠgÃ¼nÃ¼nde": 640,
      "Ġle": 641,
      "Ġ(": 642,
      "lo": 643,
      "ĠSon": 644,
      "se": 645,
      "ment": 646,
      "Ġyaz": 647,
      "Ġv": 648,
      "ĠH": 649,
      "Ġj": 650,
      "at": 651,
      "yorum": 652,
      "Ġac": 653,
      "ĠbaÅŁlat": 654,
      "ack": 655,
      "rak": 656,
      "ill": 657,
      "larda": 658,
      "sun": 659,
      "tiv": 660,
      "Ġisti": 661,
      "Ġch": 662,
      "ore": 663,
      "ĠdeÄŁiÅŁ": 664,
      "aya": 665,
      "ute": 666,
      "Ġolsun": 667,
      "ĠOn": 668,
      "tirme": 669,
      "di": 670,
      "Ã¼mle": 671,
      "ĠadÄ±mla": 672,
      "ĠBunu": 673,
      "ĠbaÅŁlatabilir": 674,
      "Ġistiyorum": 675,
      "ĠcÃ¼mle": 676,
      "Ġzamanlarda": 677,
      "inute": 678,
      "Ġbu": 679,
      "ĠadÄ±mÄ±m": 680,
      "ĠbaÅŁlatabiliriz": 681,
      "Ġman": 682,
      "nce": 683,
      "ad": 684,
      "Ġse": 685,
      "ne": 686,
      "Ġwill": 687,
      "gh": 688,
      "Ġanlam": 689,
      "Ä±nÄ±z": 690,
      "Ä±r": 691,
      "Ġplan": 692,
      "lif": 693,
      "ĠdeÄŁiÅŁtirme": 694,
      "ĠMaya": 695,
      "ang": 696,
      "ĠanlamÄ±nÄ±": 697,
      "ĠZ": 698,
      "ĠcÃ¼mleyi": 699,
      "Ġsp": 700,
      "ĠdeÄŁiÅŁtirmeden": 701,
      "ĠN": 702,
      "fore": 703,
      "Ġbefore": 704,
      "eniz": 705,
      "Ġby": 706,
      "ert": 707,
      "hi": 708,
      "Ġat": 709,
      "erve": 710,
      "ĠMert": 711,
      "ks": 712,
      "Ġreserve": 713,
      "ĠElif": 714,
      "eyn": 715,
      "bit": 716,
      "Ġma": 717,
      "ĠCan": 718,
      "eynep": 719,
      "ĠAr": 720,
      "age": 721,
      "ĠZeynep": 722,
      "Ġhabit": 723,
      "art": 724,
      "ĠNo": 725,
      "10": 726,
      "id": 727,
      "Ġveya": 728,
      "ina": 729,
      "ĠEce": 730,
      "ĠNoah": 731,
      "ĠEmir": 732,
      "ĠLina": 733,
      "Ġl": 734,
      "ĠAda": 735,
      "ed": 736,
      "Ġmore": 737,
      "mal": 738,
      "Ã¼r": 739,
      "20": 740,
      "ust": 741,
      "ĠArda": 742,
      "Ġtas": 743,
      "ap": 744,
      "reak": 745,
      "Ġfe": 746,
      "king": 747,
      "ends": 748,
      "ĠDeniz": 749,
      "ue": 750,
      "Ġthis": 751,
      "Ġte": 752,
      "Ġyapmak": 753,
      "Ġthat": 754,
      "Ġsmal": 755,
      "leep": 756,
      "Ġthan": 757,
      "if": 758,
      "Ġola": 759,
      "Ġra": 760,
      "Ġmean": 761,
      "ĠRe": 762,
      "Ġchang": 763,
      "gi": 764,
      "30": 765,
      "ĠÃ": 766,
      "Ġyo": 767,
      "15": 768,
      "Ġye": 769,
      "ay": 770,
      "rite": 771,
      "ond": 772,
      "ght": 773,
      "like": 774,
      "Ġmeaning": 775,
      "Ġits": 776,
      "Ġvar": 777,
      "ther": 778,
      "Ġsleep": 779,
      "ĠÅŁ": 780,
      "Ġchanging": 781,
      "Ġsmall": 782,
      "ye": 783,
      "Ġfeel": 784,
      "Ġlear": 785,
      "ĠRew": 786,
      "Ġconcisely": 787,
      "ĠRewrite": 788,
      "ren": 789,
      "oc": 790,
      "Ġal": 791,
      "utu": 792,
      "ĠgÃ¶": 793,
      "Ã¼ÅŁ": 794,
      "Ġ**": 795,
      "to": 796,
      "vi": 797,
      "ini": 798,
      "isten": 799,
      "ĠÃ¶ÄŁ": 800,
      "25": 801,
      "yÄ±n": 802,
      "ĠPra": 803,
      "her": 804,
      "ĠÃ¶nce": 805,
      "oto": 806,
      "Ġtr": 807,
      "Ġminute": 808,
      "Ġmotiv": 809,
      "ocus": 810,
      "Ġrather": 811,
      "eni": 812,
      "ta": 813,
      "dÄ±r": 814,
      "Ġfri": 815,
      "28": 816,
      "Ġkal": 817,
      "Ġjust": 818,
      "ro": 819,
      "Ġkutu": 820,
      "Ġmanage": 821,
      "Ġreserved": 822,
      "Ġtra": 823,
      "ca": 824,
      "ĠAn": 825,
      "'da": 826,
      "lÄ±k": 827,
      "ell": 828,
      "ach": 829,
      "Ġminutes": 830,
      "ntal": 831,
      "Ġho": 832,
      "ĠÃĸ": 833,
      "ting": 834,
      "Ġinto": 835,
      "ku": 836,
      "Ġgo": 837,
      "13": 838,
      "Ã¼y": 839,
      "ĠU": 840,
      "lin": 841,
      "Ġcomm": 842,
      "thing": 843,
      "Ġrout": 844,
      "hip": 845,
      "14": 846,
      "bilir": 847,
      "Ġkutuda": 848,
      "12": 849,
      "arÄ±": 850,
      "vel": 851,
      "tÄ±r": 852,
      "Ġlearning": 853,
      "ĠÃ¶ÄŁren": 854,
      "Ġroutine": 855,
      "Ġas": 856,
      "iti": 857,
      "ake": 858,
      "Ġson": 859,
      "Ġtop": 860,
      "kara": 861,
      "erlin": 862,
      "ĠeÅŁ": 863,
      "17": 864,
      "ĠBerlin": 865,
      "slo": 866,
      "Ġbel": 867,
      "able": 868,
      "ĠOslo": 869,
      "ĠAnkara": 870,
      "18": 871,
      "Ġbed": 872,
      "Ä±k": 873,
      "ga": 874,
      "endship": 875,
      "na": 876,
      "23": 877,
      "che": 878,
      "ĠdÃ¼z": 879,
      "24": 880,
      "Ġcan": 881,
      "dece": 882,
      "iny": 883,
      "medi": 884,
      "16": 885,
      "gue": 886,
      "our": 887,
      "Ġtiny": 888,
      "ĠyÃ¼r": 889,
      "Ġhabits": 890,
      "dan": 891,
      "ĠLond": 892,
      "ying": 893,
      "Ġwor": 894,
      "ers": 895,
      "erek": 896,
      "Ġtravel": 897,
      "inizi": 898,
      "bon": 899,
      "ĠLondon": 900,
      "isbon": 901,
      "ven": 902,
      "Ġim": 903,
      "ĠLisbon": 904,
      "ntalya": 905,
      "ĠAntalya": 906,
      "Ġdaki": 907,
      "Ġsu": 908,
      "Ġolarak": 909,
      "gan": 910,
      "ĠeÅŁya": 911,
      "raf": 912,
      "ien": 913,
      "stan": 914,
      "men": 915,
      "Ġex": 916,
      "mediate": 917,
      "ĠK": 918,
      "zmir": 919,
      "Ġover": 920,
      "Ġimmediate": 921,
      "ganiz": 922,
      "Ġlike": 923,
      "bul": 924,
      "Ġyer": 925,
      "tem": 926,
      "ch": 927,
      "stanbul": 928,
      "bi": 929,
      "Ġorganiz": 930,
      "Ġno": 931,
      "ication": 932,
      "ps": 933,
      "Ġbelir": 934,
      "-b": 935,
      "Ġtasks": 936,
      "ĠUse": 937,
      "eep": 938,
      "26": 939,
      "27": 940,
      "Ġspec": 941,
      "ific": 942,
      "larÄ±": 943,
      "Ġar": 944,
      "Ġiyi": 945,
      "ĠPrague": 946,
      "Ġplanning": 947,
      "otoÄŁ": 948,
      "otoÄŁraf": 949,
      "ev": 950,
      "Ġkit": 951,
      "ĠV": 952,
      "len": 953,
      "Ġfriendship": 954,
      "dule": 955,
      "Ġfocus": 956,
      "chedule": 957,
      "lang": 958,
      "Ġsor": 959,
      "Ġhome": 960,
      "em": 961,
      "Ġwell": 962,
      "Ġspecific": 963,
      "ĠIzmir": 964,
      "ĠHow": 965,
      "lÃ¼k": 966,
      "Ġeach": 967,
      "unication": 968,
      "'de": 969,
      "Ġbo": 970,
      "ienna": 971,
      "ĠyÃ¼rÃ¼y": 972,
      "ĠVienna": 973,
      "Ġwe": 974,
      "ure": 975,
      "ĠyÃ¼z": 976,
      "ilgi": 977,
      "Ġyoga": 978,
      "ĠfotoÄŁraf": 979,
      "Ġmotivation": 980,
      "Ġge": 981,
      "Ġbi": 982,
      "ley": 983,
      "Ġwhat": 984,
      "ten": 985,
      "si": 986,
      "Ġbreak": 987,
      "Ġph": 988,
      "eing": 989,
      "leri": 990,
      "lu": 991,
      "stead": 992,
      "lece": 993,
      "tick": 994,
      "Ġmak": 995,
      "pp": 996,
      "-being": 997,
      "ook": 998,
      "ĠyÃ¼rÃ¼yÃ¼ÅŁ": 999,
      "Ġcommunication": 1000,
      "anÄ±z": 1001,
      "Ġdil": 1002,
      "Ġstart": 1003,
      "Ġimmediately": 1004,
      "Ġinstead": 1005,
      "ĠIstanbul": 1006,
      "Ä±ÅŁ": 1007,
      "Ġste": 1008,
      "abah": 1009,
      "Ġbah": 1010,
      "hen": 1011,
      "Ġsonra": 1012,
      "Ġgoal": 1013,
      "Ġla": 1014,
      "Ġil": 1015,
      "ĠSt": 1016,
      "Ġtoplam": 1017,
      "Ġmany": 1018,
      "vo": 1019,
      "cak": 1020,
      "ck": 1021,
      "19": 1022,
      "ĠvardÄ±r": 1023,
      "Ġet": 1024,
      "33": 1025,
      "Ġkend": 1026,
      "ĠHer": 1027,
      "Ġmanagement": 1028,
      "Ġtut": 1029,
      "Ġyemek": 1030,
      "ind": 1031,
      "ĠBreak": 1032,
      "ĠÃ§ek": 1033,
      "Ġkitap": 1034,
      "Ġsadece": 1035,
      "Ġorganization": 1036,
      "tive": 1037,
      "Ġitem": 1038,
      "22": 1039,
      "Ġher": 1040,
      "Ġot": 1041,
      "-m": 1042,
      "ĠgÃ¼nlÃ¼k": 1043,
      "ik": 1044,
      "ild": 1045,
      "ally": 1046,
      "reate": 1047,
      "Ġdakika": 1048,
      "ĠbahÃ§": 1049,
      "Ġay": 1050,
      "ity": 1051,
      "void": 1052,
      "nal": 1053,
      "-minute": 1054,
      "40": 1055,
      "tions": 1056,
      "ick": 1057,
      "Ġus": 1058,
      "ĠseÃ§": 1059,
      "up": 1060,
      "Ġcle": 1061,
      "ress": 1062,
      "def": 1063,
      "siniz": 1064,
      "ĠF": 1065,
      "ĠStart": 1066,
      "Ġset": 1067,
      "Ġweek": 1068,
      "ily": 1069,
      "ĠpiÅŁ": 1070,
      "ard": 1071,
      "Ä±nÄ±zÄ±": 1072,
      "ĠyÃ¶": 1073,
      "ci": 1074,
      "Ġcomple": 1075,
      "Ġup": 1076,
      "Ġkalem": 1077,
      "Ġkul": 1078,
      "sel": 1079,
      "48": 1080,
      "'t": 1081,
      "ol": 1082,
      "Ġmeets": 1083,
      "Ġtask": 1084,
      "ok": 1085,
      "Ġgi": 1086,
      "ÄŁin": 1087,
      "ĠdÃ¼zeni": 1088,
      "Ġsilgi": 1089,
      "reen": 1090,
      "ĠalÄ±": 1091,
      "ord": 1092,
      "50": 1093,
      "Ġinter": 1094,
      "sisten": 1095,
      "likle": 1096,
      "op": 1097,
      "Ġdid": 1098,
      "11": 1099,
      "Ġun": 1100,
      "Ġresim": 1101,
      "Ġtrying": 1102,
      "dy": 1103,
      "Ġkullan": 1104,
      "unuz": 1105,
      "Ġwhen": 1106,
      "Ġhedef": 1107,
      "alÄ±ÅŁ": 1108,
      "Ġthem": 1109,
      "Ġback": 1110,
      "60": 1111,
      "ecord": 1112,
      "ÄŁi": 1113,
      "ĠRecord": 1114,
      "29": 1115,
      "maya": 1116,
      "mo": 1117,
      "light": 1118,
      "ndan": 1119,
      "Ã¼re": 1120,
      "hel": 1121,
      "Ä±zÄ±": 1122,
      "ings": 1123,
      "Ġif": 1124,
      "Ġeven": 1125,
      "ÄŁÄ±": 1126,
      "irst": 1127,
      "Ġother": 1128,
      "tÄ±": 1129,
      "Ġout": 1130,
      "49": 1131,
      "Ġmoment": 1132,
      "ken": 1133,
      "ĠiÅŁ": 1134,
      "Ġdaily": 1135,
      "ble": 1136,
      "Ġcev": 1137,
      "Ġconsisten": 1138,
      "Ġthen": 1139,
      "lay": 1140,
      "Ġko": 1141,
      "rar": 1142,
      "37": 1143,
      "Ġoku": 1144,
      "Ġhour": 1145,
      "ĠpiÅŁir": 1146,
      "asy": 1147,
      "leyin": 1148,
      "Ġsteps": 1149,
      "38": 1150,
      "Ġfirst": 1151,
      "Ġbas": 1152,
      "ĠÃ§alÄ±ÅŁ": 1153,
      "Ġbuild": 1154,
      "ĠgÃ¶re": 1155,
      "kan": 1156,
      "ĠkÄ±r": 1157,
      "ÅŁim": 1158,
      "Ġclear": 1159,
      "ving": 1160,
      "Ġpa": 1161,
      "ĠdoÄŁ": 1162,
      "58": 1163,
      "Ġmavi": 1164,
      "nder": 1165,
      "mÄ±zÄ±": 1166,
      "ff": 1167,
      "ama": 1168,
      "Ġitems": 1169,
      "Ġsaat": 1170,
      "Ġcevap": 1171,
      "ĠÃĸnce": 1172,
      "rom": 1173,
      "laÅŁ": 1174,
      "own": 1175,
      "Ġ=": 1176,
      "ÅŁam": 1177,
      "ĠkÄ±rmÄ±zÄ±": 1178,
      "yaz": 1179,
      "36": 1180,
      "ze": 1181,
      "Ġonce": 1182,
      "ĠÃ¶ÄŁrenmek": 1183,
      "langÄ±": 1184,
      "Ġfrom": 1185,
      "Ġwork": 1186,
      "Ġlisten": 1187,
      "Ġilgi": 1188,
      ":Ċ": 1189,
      "rne": 1190,
      "Ġget": 1191,
      "mi": 1192,
      "Ġoda": 1193,
      "ÅŁil": 1194,
      "Ġread": 1195,
      "Ġcomplete": 1196,
      "rneÄŁin": 1197,
      "Ġev": 1198,
      "ĠyeÅŁil": 1199,
      "tice": 1200,
      "Ġilk": 1201,
      "est": 1202,
      "and": 1203,
      "tiÅŁim": 1204,
      "Ġwh": 1205,
      "mayÄ±": 1206,
      "uy": 1207,
      "Ġwal": 1208,
      "ssi": 1209,
      "Ġaz": 1210,
      "Ġkeep": 1211,
      "bilirsiniz": 1212,
      "Ġbeyaz": 1213,
      "21": 1214,
      "Ġnew": 1215,
      "Ä±na": 1216,
      "Ġoverw": 1217,
      "Ġimp": 1218,
      "Ġconsistent": 1219,
      "Ġoverwhel": 1220,
      "ingle": 1221,
      "duÄŁ": 1222,
      "Ġdi": 1223,
      "ĠÃ§ok": 1224,
      "35": 1225,
      "Ġyeni": 1226,
      "Ġsingle": 1227,
      "Ġneed": 1228,
      "Ġbasit": 1229,
      "anÄ±": 1230,
      "self": 1231,
      "ĠSchedule": 1232,
      "Ġpre": 1233,
      "ĠBir": 1234,
      "Ġyourself": 1235,
      "34": 1236,
      "ÅŁkan": 1237,
      "oriti": 1238,
      "ĠsÃ¼re": 1239,
      "ark": 1240,
      "ule": 1241,
      "Ġactiv": 1242,
      "nÄ±z": 1243,
      "Ġed": 1244,
      "ĠsarÄ±": 1245,
      "Ġdoing": 1246,
      "Ġavoid": 1247,
      "ĠPick": 1248,
      "ĠÃ§ekmek": 1249,
      "leme": 1250,
      "langÄ±Ã§": 1251,
      "Ġsc": 1252,
      "ili": 1253,
      "ree": 1254,
      "ent": 1255,
      "ĠbahÃ§ey": 1256,
      "oom": 1257,
      "alnÄ±z": 1258,
      "Ġkay": 1259,
      "Ġodak": 1260,
      "Ġarka": 1261,
      "ÄŁiniz": 1262,
      "cle": 1263,
      "daÅŁ": 1264,
      "Ġnote": 1265,
      "Ġokumak": 1266,
      "Ġwhi": 1267,
      "Ġdown": 1268,
      "ĠiletiÅŁim": 1269,
      "ni": 1270,
      "eri": 1271,
      "Ġeverything": 1272,
      "cÄ±": 1273,
      "ĠbahÃ§eyle": 1274,
      "ĠpiÅŁirmek": 1275,
      "alnÄ±zca": 1276,
      "Ġuyku": 1277,
      "Ġsabah": 1278,
      "ct": 1279,
      "ĠYalnÄ±zca": 1280,
      "Ġtutmak": 1281,
      "rou": 1282,
      "aÅŁ": 1283,
      "ĠCreate": 1284,
      "Ä±nda": 1285,
      "ĠAyÄ±n": 1286,
      "Ġtek": 1287,
      "ĠalÄ±ÅŁkan": 1288,
      "cek": 1289,
      "Ġactive": 1290,
      "Ġexp": 1291,
      "Ġtick": 1292,
      "Ġonly": 1293,
      "ect": 1294,
      "Ġbook": 1295,
      "ted": 1296,
      "Ġpo": 1297,
      "Ġyerine": 1298,
      "Ġticket": 1299,
      "nderst": 1300,
      "ace": 1301,
      "aking": 1302,
      "Ġist": 1303,
      "Ġilgilen": 1304,
      "tan": 1305,
      "ĠSet": 1306,
      "ĠsaÄŁ": 1307,
      "ycle": 1308,
      "low": 1309,
      "Ġdurum": 1310,
      "Ġthey": 1311,
      "Ġmanageable": 1312,
      "Ġgibi": 1313,
      "Ġany": 1314,
      "ĠÃ¶ÄŁrenme": 1315,
      "asyon": 1316,
      "ĠW": 1317,
      "Ġrule": 1318,
      "Ġodaklan": 1319,
      "Ġgoals": 1320,
      "Ġtack": 1321,
      "way": 1322,
      "Ġche": 1323,
      "tain": 1324,
      "Ġscreen": 1325,
      "oritize": 1326,
      "ĠbaÅŁlangÄ±Ã§": 1327,
      "utter": 1328,
      "ize": 1329,
      "manÄ±z": 1330,
      "lutter": 1331,
      "Ġuygun": 1332,
      "Ġpers": 1333,
      "ood": 1334,
      "Ġilgilenmek": 1335,
      "Ġmomentum": 1336,
      "co": 1337,
      "Ġlistening": 1338,
      "yahat": 1339,
      "loc": 1340,
      "ĠarkadaÅŁ": 1341,
      "lant": 1342,
      "lef": 1343,
      "bilece": 1344,
      "inin": 1345,
      "Ġsomething": 1346,
      "Ġdeep": 1347,
      "ĠyÃ¼zmek": 1348,
      "arak": 1349,
      "ĠAy": 1350,
      "Ġreading": 1351,
      "Ġnoteb": 1352,
      "Ġunderst": 1353,
      "ular": 1354,
      "80": 1355,
      "47": 1356,
      "yan": 1357,
      "pack": 1358,
      "ech": 1359,
      "Ġdu": 1360,
      "get": 1361,
      "Ġak": 1362,
      "Ġdur": 1363,
      "Ġbackpack": 1364,
      "Ġkur": 1365,
      "Ġgen": 1366,
      "fter": 1367,
      "lefon": 1368,
      "ĠolduÄŁ": 1369,
      "Ġjack": 1370,
      "Ġri": 1371,
      "Ġwa": 1372,
      "ĠyÃ¶ne": 1373,
      "inde": 1374,
      "Ġjacket": 1375,
      "ating": 1376,
      "Ġwake": 1377,
      "ĠgeÃ§": 1378,
      "Ġad": 1379,
      "Ġreg": 1380,
      "Ġlow": 1381,
      "uyu": 1382,
      "ĠgÃ¼": 1383,
      "Ġfa": 1384,
      "Ġtea": 1385,
      "Ġlea": 1386,
      "yun": 1387,
      "ere": 1388,
      "Ġschedule": 1389,
      "vent": 1390,
      "ĠKeep": 1391,
      "ru": 1392,
      "Ġlamp": 1393,
      "Ġplant": 1394,
      "39": 1395,
      "Ġmost": 1396,
      "Ġ+": 1397,
      "Ġgerek": 1398,
      "niqu": 1399,
      "echniqu": 1400,
      "ctice": 1401,
      "Ġer": 1402,
      "46": 1403,
      "Ġboo": 1404,
      "Ã¶rneÄŁin": 1405,
      "Ġdon": 1406,
      "00": 1407,
      "ary": 1408,
      "tter": 1409,
      "Ġsame": 1410,
      "xt": 1411,
      "amer": 1412,
      "ĠalÄ±ÅŁkanlÄ±k": 1413,
      "mel": 1414,
      "45": 1415,
      "Ġtheir": 1416,
      "Ġresp": 1417,
      "ĠyÃ¶neti": 1418,
      "alÄ±k": 1419,
      "Ġbl": 1420,
      "ĠyaÅŁam": 1421,
      "ĠÅŁey": 1422,
      "ĠPractice": 1423,
      "Ġunderstand": 1424,
      "Ġseyahat": 1425,
      "here": 1426,
      "rn": 1427,
      "Ġoff": 1428,
      "icycle": 1429,
      "Ġweekends": 1430,
      "Ġperson": 1431,
      "Ġbicycle": 1432,
      "Ġusing": 1433,
      "Ġmotivasyon": 1434,
      "Ġel": 1435,
      "Ġfive": 1436,
      "use": 1437,
      "ĠdÃ¼ÅŁ": 1438,
      "Ġscreens": 1439,
      "uz": 1440,
      "Ġblue": 1441,
      "Ġkar": 1442,
      "Ġdist": 1443,
      "Ġmain": 1444,
      "lemek": 1445,
      "ĠyÃ¶netimi": 1446,
      "Ġcamer": 1447,
      "uage": 1448,
      "Ġlang": 1449,
      "Ġke": 1450,
      "angi": 1451,
      "Ġden": 1452,
      "inize": 1453,
      "res": 1454,
      "Ġlanguage": 1455,
      "rioritize": 1456,
      "ÄŁÄ±nÄ±z": 1457,
      "rac": 1458,
      "kk": 1459,
      "isi": 1460,
      "ĠPa": 1461,
      "echnique": 1462,
      "ong": 1463,
      "ĠyanÄ±": 1464,
      "ry": 1465,
      "Ġrest": 1466,
      "Ġstu": 1467,
      "act": 1468,
      "izi": 1469,
      "Ġmake": 1470,
      "rdÄ±ndan": 1471,
      "ĠFocus": 1472,
      "Ġkolay": 1473,
      "Ġcal": 1474,
      "Ġhemen": 1475,
      "Ġjour": 1476,
      "ĠPrioritize": 1477,
      "Ġsw": 1478,
      "Ġtri": 1479,
      "Ġedin": 1480,
      "hy": 1481,
      "tur": 1482,
      "Ġafter": 1483,
      "Ġrep": 1484,
      "88": 1485,
      "Ġara": 1486,
      "leÅŁ": 1487,
      "ich": 1488,
      "Ġhaf": 1489,
      "Ġlist": 1490,
      "Ġhakk": 1491,
      "ĠkonuÅŁ": 1492,
      "ĠplanÄ±": 1493,
      "ĠSabah": 1494,
      "orning": 1495,
      "Ġmorning": 1496,
      "Ġspe": 1497,
      "Ġimport": 1498,
      "Ä±p": 1499,
      "ĠarkadaÅŁlÄ±k": 1500,
      "ĠhakkÄ±nda": 1501,
      "Ġthree": 1502,
      "ĠdoÄŁru": 1503,
      "59": 1504,
      "dir": 1505,
      "Ġprevent": 1506,
      "ĠaÃ§": 1507,
      "yle": 1508,
      "ĠdÃ¼zen": 1509,
      "Ġwhich": 1510,
      "57": 1511,
      "ret": 1512,
      "mes": 1513,
      "Ġek": 1514,
      "Ġall": 1515,
      "Ġener": 1516,
      "stin": 1517,
      "Ġactivity": 1518,
      "Ġright": 1519,
      "ĠyanÄ±t": 1520,
      "madan": 1521,
      "kin": 1522,
      "Ġtelefon": 1523,
      "Ġjournal": 1524,
      "ssion": 1525,
      "ys": 1526,
      "ĠalÄ±ÅŁkanlÄ±klar": 1527,
      "Ġfeeling": 1528,
      "32": 1529,
      "Ġyol": 1530,
      "Ġwhere": 1531,
      ":**": 1532,
      "Ġhis": 1533,
      "ÄŁer": 1534,
      "rol": 1535,
      "Ġtackle": 1536,
      "Ġbody": 1537,
      "rek": 1538,
      "Ġbre": 1539,
      "ĠÃ¶ne": 1540,
      "Ġpri": 1541,
      "ÅŁÄ±": 1542,
      "ĠgÃ¶r": 1543,
      "dar": 1544,
      "omo": 1545,
      "mer": 1546,
      "Ġyapacak": 1547,
      "ĠGÃ¼n": 1548,
      "ward": 1549,
      "als": 1550,
      "oro": 1551,
      "ĠyapÄ±n": 1552,
      "56": 1553,
      "doro": 1554,
      "rnek": 1555,
      "omodoro": 1556,
      "-p": 1557,
      "ĠgÃ¼nÃ¼n": 1558,
      "stination": 1559,
      "Ġmaintain": 1560,
      "til": 1561,
      "med": 1562,
      "Ġhi": 1563,
      "ange": 1564,
      "Ġkadar": 1565,
      "Ġnef": 1566,
      "tik": 1567,
      "ster": 1568,
      "ĠadÄ±mÄ±nÄ±z": 1569,
      "Ġbur": 1570,
      "ĠyÃ¶n": 1571,
      "Ġphone": 1572,
      "sÄ±nÄ±": 1573,
      "layÄ±n": 1574,
      "Ġgar": 1575,
      "ces": 1576,
      "Ġop": 1577,
      "Ã¶z": 1578,
      "Ġwalk": 1579,
      "meye": 1580,
      "Ġsession": 1581,
      "Ġdistrac": 1582,
      "Ġhow": 1583,
      "Ġpain": 1584,
      "31": 1585,
      "tif": 1586,
      "lama": 1587,
      "mli": 1588,
      "ound": 1589,
      "ÄŁÄ±nÄ±": 1590,
      "Ġnefes": 1591,
      "lerinizi": 1592,
      "Ġoften": 1593,
      "Ġuse": 1594,
      "Ġimportant": 1595,
      "Ġfin": 1596,
      "Ġeas": 1597,
      "ated": 1598,
      "Ġnext": 1599,
      "Ġgarden": 1600,
      "Ġtake": 1601,
      "Ġiste": 1602,
      "iner": 1603,
      "Ġyarar": 1604,
      "Ġsoruyu": 1605,
      "Ġtama": 1606,
      "Ġthings": 1607,
      "for": 1608,
      "Ġphoto": 1609,
      "lat": 1610,
      "ĠbÃ¶": 1611,
      "Ġreduce": 1612,
      "ĠbaÅŁlaya": 1613,
      "ments": 1614,
      "Ġsha": 1615,
      "Ġper": 1616,
      "ĠbaÅŁlayan": 1617,
      "Ġsora": 1618,
      "Ġtemel": 1619,
      "Ġalan": 1620,
      "ĠÃ§Ä±k": 1621,
      "ight": 1622,
      "ĠÄ±ÅŁ": 1623,
      "ance": 1624,
      "saj": 1625,
      "Ġitiner": 1626,
      "Ġoverwhelmed": 1627,
      "Ġcheck": 1628,
      "xi": 1629,
      "Ġapp": 1630,
      "iler": 1631,
      "Ġaction": 1632,
      "Ġbirinin": 1633,
      "tu": 1634,
      "Ġroom": 1635,
      "Ġolacak": 1636,
      "ĠÃĸncelikle": 1637,
      "Ġclutter": 1638,
      "trol": 1639,
      "Ġolan": 1640,
      "man": 1641,
      "ĠayÄ±r": 1642,
      "ĠÃ¶z": 1643,
      "ĠdeÄŁil": 1644,
      "ĠgÃ¼ven": 1645,
      "ĠiÃ§inde": 1646,
      "bileceÄŁi": 1647,
      "Ġiler": 1648,
      "Ġharek": 1649,
      "Ġshare": 1650,
      "Ã§im": 1651,
      "Ġnotebook": 1652,
      "Ġdakik": 1653,
      "ĠyanÄ±tla": 1654,
      "set": 1655,
      "wn": 1656,
      "Ġflight": 1657,
      "Ġbil": 1658,
      "Ġgood": 1659,
      "ĠhÄ±z": 1660,
      "Ġbelirleyin": 1661,
      "Ġdeney": 1662,
      "Ġtak": 1663,
      "Ġbig": 1664,
      "alar": 1665,
      "Ġmoving": 1666,
      "ĠbiÃ§im": 1667,
      "Ġgardening": 1668,
      "Ġlight": 1669,
      "ĠÃ¶nemli": 1670,
      "44": 1671,
      "ĠÃĸrnek": 1672,
      "Ġpe": 1673,
      "ĠyararlÄ±": 1674,
      "Ġmaking": 1675,
      "ĠsorabileceÄŁi": 1676,
      "Ġens": 1677,
      "ĠbiÃ§imde": 1678,
      "ĠÅŁek": 1679,
      "Ġkendi": 1680,
      "Ġdet": 1681,
      "lim": 1682,
      "ĠkarÅŁÄ±": 1683,
      "cu": 1684,
      "larÄ±nÄ±": 1685,
      "Ġtechnique": 1686,
      "ĠoluÅŁ": 1687,
      "Ġbreaks": 1688,
      "Ġhave": 1689,
      "Ġduring": 1690,
      "ĠtÃ¼r": 1691,
      "ĠyapÄ±": 1692,
      "Ġcreate": 1693,
      "Ġthing": 1694,
      "ĠÅŁu": 1695,
      "time": 1696,
      "Ġlearn": 1697,
      "Ġoverwhelm": 1698,
      "asÄ±": 1699,
      "Ġconn": 1700,
      "malÄ±": 1701,
      "dic": 1702,
      "Ġsig": 1703,
      "Ġsorun": 1704,
      "Ġachi": 1705,
      "Ġleast": 1706,
      "-up": 1707,
      "Ġitinerary": 1708,
      "ĠTake": 1709,
      "Ġspace": 1710,
      "Ġcompletely": 1711,
      "Ġcoo": 1712,
      "ĠbaÅŁlayÄ±n": 1713,
      "ĠdÃ¼ÅŁÃ¼n": 1714,
      "Ġgreen": 1715,
      "ĠStick": 1716,
      "90": 1717,
      "ĠbaÅŁlamak": 1718,
      "ĠardÄ±ndan": 1719,
      "Ġwhite": 1720,
      "Ġjournaling": 1721,
      "Ġbrea": 1722,
      "iting": 1723,
      "Ġkap": 1724,
      "ĠSa": 1725,
      "tes": 1726,
      "ecek": 1727,
      "Ġama": 1728,
      "Ġstri": 1729,
      "Ġbox": 1730,
      "rain": 1731,
      "lock": 1732,
      "Ġcommit": 1733,
      "ip": 1734,
      "Ġred": 1735,
      "Ġwant": 1736,
      "Ġpainting": 1737,
      "ĠÃ¼z": 1738,
      "rough": 1739,
      "Ġcooking": 1740,
      "Ġthrough": 1741,
      "Ã¼yÃ¼k": 1742,
      "Ġwhile": 1743,
      "rin": 1744,
      "sk": 1745,
      "zÄ±r": 1746,
      "lace": 1747,
      "rÄ±": 1748,
      "Ġrespond": 1749,
      "ĠsÄ±": 1750,
      "Ġdestination": 1751,
      "Ġfinish": 1752,
      "rup": 1753,
      "Ġaway": 1754,
      "Ġfocused": 1755,
      "Ġkontrol": 1756,
      "Ġstrict": 1757,
      "Ġnet": 1758,
      "ffe": 1759,
      "Ġcamera": 1760,
      "lexi": 1761,
      "ĠMo": 1762,
      "ities": 1763,
      "Ġstudy": 1764,
      "Ġdistractions": 1765,
      "Ġyell": 1766,
      "Ġdin": 1767,
      "Ġhangi": 1768,
      "Ġistedi": 1769,
      "Ġarea": 1770,
      "ĠPomodoro": 1771,
      "Ġyellow": 1772,
      "lerini": 1773,
      "Ġchange": 1774,
      "Ġquestions": 1775,
      "ĠÅŁekil": 1776,
      "Ġhours": 1777,
      "miz": 1778,
      "Ġsen": 1779,
      "line": 1780,
      "sanÄ±z": 1781,
      "cess": 1782,
      "Ġyak": 1783,
      "Ġflexi": 1784,
      "Ġyar": 1785,
      "Ġeff": 1786,
      "Ġdark": 1787,
      "Ġolma": 1788,
      "ople": 1789,
      "enc": 1790,
      "ĠhazÄ±r": 1791,
      "Ġetk": 1792,
      "Ġerken": 1793,
      "Ġpeople": 1794,
      "Ġmind": 1795,
      "ĠsayÄ±": 1796,
      "ĠSonra": 1797,
      "08": 1798,
      "deki": 1799,
      "Ġzorlu": 1800,
      "Ġnat": 1801,
      "ĠIt": 1802,
      "Ġfol": 1803,
      "Ġuz": 1804,
      "Ġayda": 1805,
      "Ġwalking": 1806,
      "Ġconnec": 1807,
      "Ġfi": 1808,
      "Ġsignal": 1809,
      "Ġbest": 1810,
      "Ġtimes": 1811,
      "kinci": 1812,
      "Ġhareket": 1813,
      "ide": 1814,
      "ssenti": 1815,
      "ĠyÃ¶ntem": 1816,
      "Ġ*": 1817,
      "Ġfeels": 1818,
      "Ġphys": 1819,
      "Ġphysic": 1820,
      "room": 1821,
      "likte": 1822,
      "Ġregular": 1823,
      "ĠoluÅŁtur": 1824,
      "we": 1825,
      "ins": 1826,
      "grap": 1827,
      "ĠÅŁekilde": 1828,
      "ling": 1829,
      "Ġdedic": 1830,
      "ressure": 1831,
      "ĠMotiv": 1832,
      "gy": 1833,
      "mÄ±ÅŁ": 1834,
      "-pressure": 1835,
      "cut": 1836,
      "ĠgÃ¶z": 1837,
      "ans": 1838,
      "Ġcool": 1839,
      "ts": 1840,
      "read": 1841,
      "ellikle": 1842,
      "Ġstarting": 1843,
      "ylece": 1844,
      "Ġmesaj": 1845,
      "Ġort": 1846,
      "Ä±nÄ±n": 1847,
      "Ġphotograp": 1848,
      "eyi": 1849,
      "siz": 1850,
      "rate": 1851,
      "Ġdec": 1852,
      "Ġwater": 1853,
      "lish": 1854,
      "od": 1855,
      "ĠEÄŁer": 1856,
      "Ġeasi": 1857,
      "pec": 1858,
      "yla": 1859,
      "Ġenti": 1860,
      "ĠAvoid": 1861,
      "ous": 1862,
      "Ġhelps": 1863,
      "Ġphotography": 1864,
      "Ġsonraki": 1865,
      "Ġentire": 1866,
      "ÄŁini": 1867,
      "Ġless": 1868,
      "Ġresponding": 1869,
      "ite": 1870,
      "Ġilg": 1871,
      "ĠdakikalÄ±k": 1872,
      "hing": 1873,
      "Ġbrain": 1874,
      "Ġessenti": 1875,
      "ld": 1876,
      "ils": 1877,
      "Ġbedroom": 1878,
      "ĠWhat": 1879,
      "Ġolur": 1880,
      "ĠIn": 1881,
      "Ġtemiz": 1882,
      "Ġelse": 1883,
      "sÄ±nÄ±z": 1884,
      "Ġlong": 1885,
      "Ġtry": 1886,
      "Ġsupp": 1887,
      "ching": 1888,
      "iff": 1889,
      "Ġfeelings": 1890,
      "ĠolacaktÄ±r": 1891,
      "meyi": 1892,
      "now": 1893,
      "Ġbut": 1894,
      "Ġduy": 1895,
      "Ġsonu": 1896,
      "Ġtickets": 1897,
      "Ġok": 1898,
      "ower": 1899,
      "Ġetkili": 1900,
      "Ġdiff": 1901,
      "Ġnow": 1902,
      "Ġfollow": 1903,
      "Ġstay": 1904,
      "ĠMotivation": 1905,
      "Ġbet": 1906,
      "Ġchun": 1907,
      "Ġwho": 1908,
      "ween": 1909,
      "Ġactivities": 1910,
      "Ġensure": 1911,
      "ĠyardÄ±m": 1912,
      "Ġbetween": 1913,
      "Ġhem": 1914,
      "oose": 1915,
      "Ġasking": 1916,
      "Ġeasier": 1917,
      "Ġtoday": 1918,
      "Ġbek": 1919,
      "Ġmatter": 1920,
      "meniz": 1921,
      "oy": 1922,
      "ĠTry": 1923,
      "Ġmove": 1924,
      "70": 1925,
      "land": 1926,
      "Ġtekrar": 1927,
      "are": 1928,
      "Ġder": 1929,
      "Ġunderstanding": 1930,
      "lend": 1931,
      "Ġflexible": 1932,
      "Ġdis": 1933,
      "Ġuntil": 1934,
      "ĠbÄ±": 1935,
      "ĠÃ§alÄ±ÅŁÄ±n": 1936,
      "Ġchunks": 1937,
      "ire": 1938,
      "Ä±l": 1939,
      "Ġmental": 1940,
      "Ġburn": 1941,
      "dentif": 1942,
      "ĠakÅŁam": 1943,
      "55": 1944,
      "68": 1945,
      "Ġstress": 1946,
      "Ġmess": 1947,
      "Ġphysical": 1948,
      "Ġlo": 1949,
      "ĠÄ°kinci": 1950,
      "ĠPair": 1951,
      "Ġbak": 1952,
      "yunca": 1953,
      "ĠgÃ¼venli": 1954,
      "Ġkeli": 1955,
      "Ġnight": 1956,
      "ssible": 1957,
      "Ġboyunca": 1958,
      "ear": 1959,
      "gether": 1960,
      "Ġburnout": 1961,
      "Ġgoing": 1962,
      "Ġilgili": 1963,
      "'re": 1964,
      "izin": 1965,
      "Ġmu": 1966,
      "ffee": 1967,
      "Ġtogether": 1968,
      "ĠhÄ±zlÄ±": 1969,
      "Ġbilgi": 1970,
      "Ġanything": 1971,
      "vir": 1972,
      "Ġopen": 1973,
      "leyerek": 1974,
      "viron": 1975,
      "Ġcoffee": 1976,
      "Ġbilg": 1977,
      "Ġhisset": 1978,
      "Ġur": 1979,
      "Ġiz": 1980,
      "Ġbud": 1981,
      "ĠdoÄŁrudan": 1982,
      "ĠbÃ¼yÃ¼k": 1983,
      "ĠBaÅŁ": 1984,
      "aki": 1985,
      "lamak": 1986,
      "Ġolabilir": 1987,
      "ĠbaÅŁlayabilirsiniz": 1988,
      "Ġconf": 1989,
      "ĠCo": 1990,
      "Ġenergy": 1991,
      "Ġbr": 1992,
      "Ġmev": 1993,
      "Ġyapmaya": 1994,
      "Ã§ek": 1995,
      "laya": 1996,
      "Ġbirlikte": 1997,
      "Ġinc": 1998,
      "ways": 1999,
      "miÅŁ": 2000,
      "Ġsay": 2001,
      "Ġenviron": 2002,
      "Ġdeneyin": 2003,
      "ÄŁinizi": 2004,
      "Ġhav": 2005,
      "Ġrepe": 2006,
      "ual": 2007,
      "ĠkiÅŁ": 2008,
      "ĠHa": 2009,
      "Ġbedtime": 2010,
      "Ġayar": 2011,
      "Ġspeaking": 2012,
      "ĠbÄ±rak": 2013,
      "78": 2014,
      "kÃ¼": 2015,
      "Ġhedefler": 2016,
      "Ġcont": 2017,
      "Ġthou": 2018,
      "Ġenj": 2019,
      "hti": 2020,
      "Ġloc": 2021,
      "ves": 2022,
      "Ġstate": 2023,
      "ĠadÄ±mÄ±": 2024,
      "ĠÄ°stanbul": 2025,
      "ĠFri": 2026,
      "Ġactu": 2027,
      "Ġtamam": 2028,
      "Ġbudget": 2029,
      "..": 2030,
      "98": 2031,
      "Ġgrou": 2032,
      "kaÃ§": 2033,
      "ĠCh": 2034,
      "Ġnatur": 2035,
      "Ġfriend": 2036,
      "Ġtrip": 2037,
      "Ġpra": 2038,
      "Ġmevcut": 2039,
      "Ġenvironment": 2040,
      "imming": 2041,
      "Ġyat": 2042,
      "Ġrahat": 2043,
      "Ġflights": 2044,
      "Ġthought": 2045,
      "Ġknow": 2046,
      "Ã§e": 2047,
      "layÄ±": 2048,
      "Ġbetter": 2049,
      "ĠÃ¶ncelikle": 2050,
      "Ġbreath": 2051,
      "ĠyardÄ±mcÄ±": 2052,
      "ĠÃ§Ã¶z": 2053,
      "Ġswimming": 2054,
      "ĠComm": 2055,
      "Ġjackets": 2056,
      "ness": 2057,
      "Ġsto": 2058,
      "Ġstep": 2059,
      "Ġachiev": 2060,
      "âĢ": 2061,
      "Ġlar": 2062,
      "Ã¼t": 2063,
      "gn": 2064,
      "Ġrela": 2065,
      "asÄ±l": 2066,
      "'in": 2067,
      "tel": 2068,
      "Ġway": 2069,
      "Ġpress": 2070,
      "Ġihti": 2071,
      "lara": 2072,
      "Ġfix": 2073,
      "ger": 2074,
      "yede": 2075,
      "Ġothers": 2076,
      "Ġhafif": 2077,
      "Ġactually": 2078,
      ".\"": 2079,
      "sts": 2080,
      "ooks": 2081,
      "Ġbooking": 2082,
      "Ġsize": 2083,
      "Ġdene": 2084,
      "Ġmaster": 2085,
      "Ġful": 2086,
      "Ġta": 2087,
      "ĠgÃ¶rev": 2088,
      "rÄ±ca": 2089,
      "ĠsÄ±k": 2090,
      "imi": 2091,
      "Ġpressure": 2092,
      "port": 2093,
      "ount": 2094,
      "Ġeasy": 2095,
      "Ġvis": 2096,
      "ĠÅŁeyi": 2097,
      "dentify": 2098,
      "Ġise": 2099,
      "ugÃ¼n": 2100,
      "Ġsab": 2101,
      "Ġhal": 2102,
      "lendir": 2103,
      "ough": 2104,
      "led": 2105,
      "Ġsuch": 2106,
      "Ġnok": 2107,
      "ĠAyrÄ±ca": 2108,
      "Ġbloc": 2109,
      "rage": 2110,
      "Ġkonu": 2111,
      "unuzu": 2112,
      "all": 2113,
      "aca": 2114,
      "ĠadÄ±mlar": 2115,
      "Ġhigh": 2116,
      "mayÄ±n": 2117,
      "Ġbelirle": 2118,
      "Ġbunu": 2119,
      "Ġetmek": 2120,
      "Ġachievable": 2121,
      "Ġtal": 2122,
      "Ġyet": 2123,
      "ÄŁu": 2124,
      "Ġhar": 2125,
      "Ġcalm": 2126,
      ").": 2127,
      "Ġkah": 2128,
      "maktÄ±r": 2129,
      "Ġsupport": 2130,
      "ital": 2131,
      "masÄ±": 2132,
      "Ġrec": 2133,
      "aries": 2134,
      "ĠnasÄ±l": 2135,
      "Ġfark": 2136,
      "ĠolduÄŁu": 2137,
      "ĠaÃ§Ä±k": 2138,
      "Ġdedicated": 2139,
      "ose": 2140,
      "Ġhapp": 2141,
      "Ġkendine": 2142,
      "ĠÄ±ÅŁÄ±k": 2143,
      "bil": 2144,
      "Ġlet": 2145,
      "Ġsevi": 2146,
      "yin": 2147,
      "Ġgra": 2148,
      "Ġown": 2149,
      "ĠÃ¶n": 2150,
      "Ġacco": 2151,
      "leÅŁtir": 2152,
      "?\"": 2153,
      "daki": 2154,
      "Ġdrin": 2155,
      "Ġyok": 2156,
      "ĠPause": 2157,
      "54": 2158,
      "Ġquick": 2159,
      "Ġsimp": 2160,
      "ĠKend": 2161,
      "Ġinternal": 2162,
      "Ġtaking": 2163,
      "esi": 2164,
      "ĠÃĩ": 2165,
      "Ġshow": 2166,
      "Ġbound": 2167,
      "Ġfind": 2168,
      "Ġtrans": 2169,
      "ĠseÃ§mek": 2170,
      "Ġazal": 2171,
      "cep": 2172,
      "Ġpractice": 2173,
      "Ġactively": 2174,
      "ĠÃ¼zer": 2175,
      "unlar": 2176,
      "tention": 2177,
      "Ġshared": 2178,
      "ready": 2179,
      "ĠFriendship": 2180,
      "ayÄ±": 2181,
      "Ġger": 2182,
      "Ġsayede": 2183,
      "Ġalready": 2184,
      "ĠseÃ§in": 2185,
      "Ġokuma": 2186,
      "Åŀ": 2187,
      "Ä±lÄ±": 2188,
      "ĠÃĹ": 2189,
      "cking": 2190,
      "Ġcur": 2191,
      "Ġfocusing": 2192,
      "Ġgenellikle": 2193,
      "Ġderin": 2194,
      "ĠChoose": 2195,
      "ĠDay": 2196,
      "ĠSadece": 2197,
      "min": 2198,
      "Ġtimer": 2199,
      "ran": 2200,
      "ĠtÃ¼m": 2201,
      "aring": 2202,
      "Ġbooks": 2203,
      "Ġfollowed": 2204,
      "-d": 2205,
      "Ġstick": 2206,
      "una": 2207,
      "Ġreward": 2208,
      "ĠÃ¶nceki": 2209,
      "Ġmakes": 2210,
      "Ġurg": 2211,
      "sin": 2212,
      "ĠadÄ±mÄ±nÄ±zÄ±": 2213,
      "ĠIdentify": 2214,
      "Ġworking": 2215,
      "Ġsessions": 2216,
      "gress": 2217,
      "Ġair": 2218,
      "oth": 2219,
      "Ġdesi": 2220,
      "Ġreset": 2221,
      "Ġfriends": 2222,
      "Ġkalk": 2223,
      "Ġpratik": 2224,
      "mation": 2225,
      "Ġdays": 2226,
      "Ġnon": 2227,
      "ens": 2228,
      "Ġmi": 2229,
      "ĠmÄ±": 2230,
      "ablish": 2231,
      "Ġaut": 2232,
      "int": 2233,
      "Ġsun": 2234,
      "Ġtan": 2235,
      "Ġwaiting": 2236,
      "let": 2237,
      "Ġtrust": 2238,
      "'ta": 2239,
      "Ġprogress": 2240,
      "econd": 2241,
      "load": 2242,
      "Ġnotebooks": 2243,
      "ber": 2244,
      "Ã¼nde": 2245,
      "havi": 2246,
      "stablish": 2247,
      "havior": 2248,
      "ding": 2249,
      "nÄ±": 2250,
      "Ġcomp": 2251,
      "Ġear": 2252,
      "Ġbehavior": 2253,
      "Ġspot": 2254,
      "Ġplants": 2255,
      "ĠsÄ±cak": 2256,
      "ds": 2257,
      "iye": 2258,
      "Ġsy": 2259,
      "Ġstres": 2260,
      "Ġsimply": 2261,
      "ject": 2262,
      "Ġlif": 2263,
      "ded": 2264,
      "Ġstop": 2265,
      "Ġsetting": 2266,
      "ĠbÃ¶ylece": 2267,
      "ial": 2268,
      "Ġclar": 2269,
      "Ġter": 2270,
      "zla": 2271,
      "Ġput": 2272,
      "lem": 2273,
      "ĠbirkaÃ§": 2274,
      "Ġconnection": 2275,
      "Ġkelime": 2276,
      "ĠgerÃ§ek": 2277,
      "Ġmis": 2278,
      "Ġwithin": 2279,
      "Ġenerj": 2280,
      "Ġoverwhelming": 2281,
      "Ġboxes": 2282,
      "Ġeffort": 2283,
      "Ġthoughts": 2284,
      "cy": 2285,
      "Ġdurumu": 2286,
      "Ġolmak": 2287,
      "Ġkendinize": 2288,
      "Ġfazla": 2289,
      "Ġpar": 2290,
      "laÅŁtÄ±r": 2291,
      "ĠsaÄŁlar": 2292,
      "Ġspeak": 2293,
      "Ġsan": 2294,
      "Ġfew": 2295,
      "erli": 2296,
      "Ġuygulama": 2297,
      "Ġinterrup": 2298,
      "Ġusu": 2299,
      "Ġyor": 2300,
      "lecek": 2301,
      "Ġlarge": 2302,
      "itiate": 2303,
      "Ġinterest": 2304,
      "Ġchecking": 2305,
      "ĠsayÄ±sÄ±": 2306,
      "Ġpack": 2307,
      "rix": 2308,
      "Ġgece": 2309,
      "ĠEv": 2310,
      "lere": 2311,
      "Ġbelirlemek": 2312,
      "-in": 2313,
      "oma": 2314,
      "ĠdÃ¶": 2315,
      "Ġinfor": 2316,
      "Ġancak": 2317,
      "Ġgetting": 2318,
      "Ġmuch": 2319,
      "Ġcontact": 2320,
      "Ġperf": 2321,
      "ended": 2322,
      "ĠbaÅŁarÄ±": 2323,
      "Ġclean": 2324,
      "Ġbackpacks": 2325,
      "Ġautoma": 2326,
      "Ġinformation": 2327,
      "bet": 2328,
      "Ġboth": 2329,
      "ult": 2330,
      "ĠThe": 2331,
      "Ġhard": 2332,
      "yorsanÄ±z": 2333,
      "Ġhotel": 2334,
      "ĠÃ¶zel": 2335,
      "Ġenjoy": 2336,
      "43": 2337,
      "hower": 2338,
      "nhower": 2339,
      "ĠdÄ±": 2340,
      "Ġala": 2341,
      "isenhower": 2342,
      "lerin": 2343,
      "sed": 2344,
      "uine": 2345,
      "Ã¼nÃ¼": 2346,
      "Ġthere": 2347,
      "Ġneden": 2348,
      "lÄ±ÄŁÄ±": 2349,
      "Ġrut": 2350,
      "inden": 2351,
      "ĠMake": 2352,
      "Ġgenuine": 2353,
      "Ġsizi": 2354,
      "unun": 2355,
      "Ġdik": 2356,
      "Ġdetay": 2357,
      "bir": 2358,
      "ex": 2359,
      "Ġpay": 2360,
      "ĠÃĸÄŁ": 2361,
      "Ġstatements": 2362,
      "ass": 2363,
      "duc": 2364,
      "Ġbeing": 2365,
      "Ġlife": 2366,
      "ele": 2367,
      "Ġses": 2368,
      "Ġbit": 2369,
      "other": 2370,
      "ĠÃĸrneÄŁin": 2371,
      "Ġkapat": 2372,
      "fe": 2373,
      "dÄ±ÄŁÄ±nÄ±z": 2374,
      "Ġstret": 2375,
      "ĠbaÄŁ": 2376,
      "Ġtackling": 2377,
      "âĢĶ": 2378,
      "Ġsystem": 2379,
      "uk": 2380,
      "erv": 2381,
      "Ġpenc": 2382,
      "Ġbad": 2383,
      "mplement": 2384,
      "ĠMat": 2385,
      "ĠUy": 2386,
      "Ġtrig": 2387,
      "Ġunex": 2388,
      "pected": 2389,
      "ade": 2390,
      "Ġul": 2391,
      "Ġcom": 2392,
      "ĠAsk": 2393,
      "Ġmessage": 2394,
      "Ġboundaries": 2395,
      "ĠMatrix": 2396,
      "Ġunexpected": 2397,
      "ÄŁÄ±nÄ±zÄ±": 2398,
      "larÄ±nÄ±z": 2399,
      "Ġsets": 2400,
      "Ġcameras": 2401,
      "ba": 2402,
      "Ãĸ": 2403,
      "ould": 2404,
      "leye": 2405,
      "Ġdra": 2406,
      "ĠolduÄŁunu": 2407,
      "ĠbÃ¶l": 2408,
      "os": 2409,
      "Ġanother": 2410,
      "ĠyÃ¼zme": 2411,
      "Ġunut": 2412,
      "ĠulaÅŁ": 2413,
      "yu": 2414,
      "raz": 2415,
      "less": 2416,
      "Ã¼l": 2417,
      "kat": 2418,
      "Ġval": 2419,
      "Ġdrinking": 2420,
      "Ġsur": 2421,
      "ÅŁa": 2422,
      "liÅŁ": 2423,
      "liÄŁi": 2424,
      "Ġallow": 2425,
      "Ġlamps": 2426,
      "ĠÄ±ÅŁÄ±": 2427,
      "Ġlocal": 2428,
      "onn": 2429,
      "Ġdri": 2430,
      "Ġkamer": 2431,
      "Ġreal": 2432,
      "Ġthin": 2433,
      "eler": 2434,
      "Ġdoable": 2435,
      "Ġprogram": 2436,
      "Ġbulun": 2437,
      "side": 2438,
      "ĠbahÃ§e": 2439,
      "Ġblocks": 2440,
      "Ġusually": 2441,
      "'n": 2442,
      "ushing": 2443,
      "Ã¼nkÃ¼": 2444,
      "Ġask": 2445,
      "-ended": 2446,
      "aha": 2447,
      "Ġclock": 2448,
      "Ã§a": 2449,
      "Ġwaking": 2450,
      "yip": 2451,
      "Ġwords": 2452,
      "Ġneeds": 2453,
      "Ġtoo": 2454,
      "Ġacc": 2455,
      "ĠyÃ¼rÃ¼": 2456,
      "Ġexpress": 2457,
      "ĠgeÃ§ir": 2458,
      "Ġrelax": 2459,
      "),": 2460,
      "eÅŁ": 2461,
      "ĠÅŀ": 2462,
      "ations": 2463,
      "Ġtakes": 2464,
      "Ġnaturally": 2465,
      "mor": 2466,
      "row": 2467,
      "ĠEisenhower": 2468,
      "Ġgive": 2469,
      "Ġenough": 2470,
      "ms": 2471,
      "Ġcas": 2472,
      "ĠYes": 2473,
      "Ġsuyun": 2474,
      "Ġstorage": 2475,
      "ara": 2476,
      "endar": 2477,
      "ulti": 2478,
      "Ġwind": 2479,
      "ĠDown": 2480,
      "Ġearly": 2481,
      "ĠdÄ±ÅŁ": 2482,
      "Ġbiri": 2483,
      "abilirsiniz": 2484,
      "ĠImplement": 2485,
      "move": 2486,
      "Ġbicycles": 2487,
      "Ġseviy": 2488,
      "dur": 2489,
      "vam": 2490,
      "alarÄ±": 2491,
      "Ġmulti": 2492,
      "Ġince": 2493,
      "Ġbeco": 2494,
      "ĠÅŁeyler": 2495,
      "Ġconcep": 2496,
      "alth": 2497,
      "Ġide": 2498,
      "ĠTe": 2499,
      "ĠTh": 2500,
      "larÄ±n": 2501,
      "ĠvÃ¼": 2502,
      "Ġtamamen": 2503,
      "ĠDownload": 2504,
      "Ġconversations": 2505,
      "ĠkayÄ±ta": 2506,
      "limin": 2507,
      "lerde": 2508,
      "Ġsee": 2509,
      "Ġexist": 2510,
      "ĠalÄ±p": 2511,
      "ĠyakÄ±n": 2512,
      "sunuz": 2513,
      "**:": 2514,
      "Ġaktiv": 2515,
      "Ġdeclutter": 2516,
      "Ã¼nÃ¼z": 2517,
      "Ġlast": 2518,
      "ĠseÃ§en": 2519,
      "ĠInitiate": 2520,
      "ph": 2521,
      "ĠpaylaÅŁ": 2522,
      ".,": 2523,
      "ones": 2524,
      "Ġorganize": 2525,
      "manÄ±zÄ±": 2526,
      "Ġcalendar": 2527,
      "Ġdeta": 2528,
      "Ġessential": 2529,
      "Ġpla": 2530,
      "rarak": 2531,
      "ulate": 2532,
      "Ġhealth": 2533,
      "asers": 2534,
      "Ġerasers": 2535,
      "Ġhas": 2536,
      "ĠaynÄ±": 2537,
      "ĠiÅŁe": 2538,
      "Ġadv": 2539,
      "Ġpencils": 2540,
      "Ġexisting": 2541,
      "Ġaktivite": 2542,
      "go": 2543,
      "Ġuzun": 2544,
      "az": 2545,
      "ges": 2546,
      "ĠyÃ¼k": 2547,
      "Ġgir": 2548,
      "ĠartÄ±r": 2549,
      "Ġdrawer": 2550,
      "sÄ±na": 2551,
      "Ġgl": 2552,
      "Ġpart": 2553,
      "Ġtur": 2554,
      "Ġeye": 2555,
      "ĠÃ§Ã¼nkÃ¼": 2556,
      "Ġmaps": 2557,
      "Ġexact": 2558,
      "Ġentirely": 2559,
      "Ġdiffer": 2560,
      "eleb": 2561,
      "be": 2562,
      "tÄ±n": 2563,
      "diÄŁiniz": 2564,
      "ĠalÄ±n": 2565,
      "Ġkendinizi": 2566,
      "Ġzorluk": 2567,
      "landÄ±": 2568,
      "onnect": 2569,
      "ĠAd": 2570,
      "Ġyeterli": 2571,
      "Ġadvance": 2572,
      "42": 2573,
      "ĠĠ": 2574,
      "Ġkey": 2575,
      "dun": 2576,
      "ileri": 2577,
      "larÄ±nÄ±zÄ±": 2578,
      "cial": 2579,
      "eki": 2580,
      "Ġdevam": 2581,
      "stant": 2582,
      "Ġthose": 2583,
      "Ġchanges": 2584,
      "ĠÅŁunlar": 2585,
      "ĠThis": 2586,
      "Ġx": 2587,
      "Ġoffline": 2588,
      "Ġtelefonunuz": 2589,
      ".g": 2590,
      "mesi": 2591,
      "Ġsharing": 2592,
      "Ġalways": 2593,
      "its": 2594,
      "ĠolmalÄ±": 2595,
      "Ġdef": 2596,
      "Ġkitab": 2597,
      "Ġclearly": 2598,
      "ĠÃ¼zerine": 2599,
      "ather": 2600,
      "Ġsizin": 2601,
      "Ġede": 2602,
      "Ġsaying": 2603,
      "Ġavoiding": 2604,
      "ĠÃĸÄŁren": 2605,
      "Ġdifferent": 2606,
      "ece": 2607,
      "Ġob": 2608,
      "Ġrequ": 2609,
      "Ġmatters": 2610,
      "Ġglass": 2611,
      "val": 2612,
      "Ġap": 2613,
      "uly": 2614,
      "ilt": 2615,
      "Ġmus": 2616,
      "ĠAl": 2617,
      "ĠdeÄŁer": 2618,
      "Ġmater": 2619,
      ").Ċ": 2620,
      "gle": 2621,
      "gital": 2622,
      "ĠÄ±": 2623,
      "Ġkor": 2624,
      "ĠDaha": 2625,
      "Ġtruly": 2626,
      "Ġworks": 2627,
      "ĠodaklanÄ±n": 2628,
      "Ġkahve": 2629,
      "Ġclo": 2630,
      "reating": 2631,
      "Ġproduc": 2632,
      "dÄ±n": 2633,
      "inizde": 2634,
      "Ġaside": 2635,
      "gain": 2636,
      "layarak": 2637,
      "Ġclarif": 2638,
      "eve": 2639,
      "sÄ±n": 2640,
      "ĠÃ§eki": 2641,
      "cing": 2642,
      "Ġgel": 2643,
      "Ġdoes": 2644,
      "ew": 2645,
      "Ġyan": 2646,
      "Ġzi": 2647,
      "Ġyolu": 2648,
      "\":": 2649,
      "'i": 2650,
      "vaÅŁ": 2651,
      "Ġend": 2652,
      "Ġceleb": 2653,
      "Ġones": 2654,
      "Ġhand": 2655,
      "lerden": 2656,
      "ĠRes": 2657,
      "Ġconsistently": 2658,
      "Ġurgent": 2659,
      "ebilir": 2660,
      "meden": 2661,
      "sÄ±z": 2662,
      "ĠÃ§iz": 2663,
      "luk": 2664,
      "Ġotur": 2665,
      "Ġgroup": 2666,
      "Ġdikkat": 2667,
      "Ġes": 2668,
      "Ġolun": 2669,
      "oogle": 2670,
      "ĠKÃ¼Ã§Ã¼k": 2671,
      "Ġoutside": 2672,
      "ĠGÃ¼nlÃ¼k": 2673,
      "ĠÃ§Ã¶zÃ¼m": 2674,
      "ime": 2675,
      "sing": 2676,
      "Ġproject": 2677,
      "ĠArdÄ±ndan": 2678,
      "Ġkullanarak": 2679,
      "Ġpossible": 2680,
      "'Ä±n": 2681,
      "-f": 2682,
      "san": 2683,
      "vals": 2684,
      "ons": 2685,
      "ĠEstablish": 2686,
      "Ġalmak": 2687,
      "Ġhob": 2688,
      "Ġoffer": 2689,
      "Ġprices": 2690,
      "gun": 2691,
      "su": 2692,
      "Ġplace": 2693,
      "Ġwr": 2694,
      "ĠyÃ¼zecek": 2695,
      "Ġinclu": 2696,
      "Ġnokta": 2697,
      "sh": 2698,
      "Ġten": 2699,
      "ĠbugÃ¼n": 2700,
      "Ã¶r": 2701,
      "icro": 2702,
      "Ġsaatleri": 2703,
      "Ġimpro": 2704,
      "Ġeg": 2705,
      "Ġeve": 2706,
      "ĠeÄŁ": 2707,
      "Ġmet": 2708,
      "Ġhaya": 2709,
      "Ġintervals": 2710,
      "ĠvÃ¼cu": 2711,
      "Ġcount": 2712,
      "Ġcomes": 2713,
      "ÄŁa": 2714,
      "ĠgÃ¶ster": 2715,
      "Ġfull": 2716,
      "liminate": 2717,
      "Ġshel": 2718,
      "Ä±mÄ±": 2719,
      "decek": 2720,
      "Ġlater": 2721,
      "cih": 2722,
      "ĠkullanÄ±n": 2723,
      "no": 2724,
      "Ġcare": 2725,
      "ÄŁÄ±na": 2726,
      "ĠadÄ±mlarÄ±": 2727,
      "Ġsim": 2728,
      "87": 2729,
      "fort": 2730,
      "ĠÃ¼": 2731,
      "Ġagain": 2732,
      "ndaki": 2733,
      "Ġtopic": 2734,
      "Ġhafta": 2735,
      "Ġdiffic": 2736,
      "ĠÅŁunlardÄ±r": 2737,
      "41": 2738,
      "Ġsk": 2739,
      "Ġmeth": 2740,
      "Ġdiye": 2741,
      "Ġtercih": 2742,
      "Ġegz": 2743,
      "Ġdifficult": 2744,
      "Ġmethod": 2745,
      ",\"": 2746,
      "Ä±nÄ±za": 2747,
      "itive": 2748,
      "opt": 2749,
      "ĠdoÄŁal": 2750,
      "Ġilerleme": 2751,
      "ĠistediÄŁiniz": 2752,
      "'ve": 2753,
      "lot": 2754,
      "oda": 2755,
      "Ġprocess": 2756,
      "Ġsocial": 2757,
      "oplam": 2758,
      "Ġessentials": 2759,
      "Ġstretching": 2760,
      "face": 2761,
      "Ġsecond": 2762,
      "Ġpres": 2763,
      "red": 2764,
      "lying": 2765,
      "Ġkaz": 2766,
      "ĠLear": 2767,
      "ĠHe": 2768,
      "Ġdigital": 2769,
      "Ġregularly": 2770,
      "unda": 2771,
      "abi": 2772,
      "eth": 2773,
      "ĠgÃ¶nder": 2774,
      "Ġbuilds": 2775,
      "des": 2776,
      "ĠTechnique": 2777,
      "Ġedi": 2778,
      "Ġsoru": 2779,
      "pping": 2780,
      "Ġrutin": 2781,
      "Ġcelebrate": 2782,
      "ple": 2783,
      "Ġheard": 2784,
      "inizin": 2785,
      "200": 2786,
      "Ġswim": 2787,
      "Ġsabit": 2788,
      "Ġskill": 2789,
      "Ġegzers": 2790,
      "-ne": 2791,
      "tas": 2792,
      "onin": 2793,
      "Ġemo": 2794,
      "Ġsaid": 2795,
      "Ġplans": 2796,
      "Ġkeeping": 2797,
      "Ġkayn": 2798,
      "Bu": 2799,
      "Ġsort": 2800,
      "irim": 2801,
      "masÄ±nÄ±": 2802,
      "ĠyapmayÄ±": 2803,
      "Ġautomatic": 2804,
      "86": 2805,
      "ouse": 2806,
      "Ġproble": 2807,
      "ĠTo": 2808,
      "ĠyavaÅŁ": 2809,
      "Ġhouse": 2810,
      "Ġifade": 2811,
      "Ġregard": 2812,
      "goti": 2813,
      "Ã¼ÄŁ": 2814,
      "Ġdesk": 2815,
      "Ġrit": 2816,
      "Ġlevel": 2817,
      "Ġbelirt": 2818,
      "ĠbahÃ§eniz": 2819,
      "Ġbursts": 2820,
      "Ġortam": 2821,
      "Ġsurface": 2822,
      "-negoti": 2823,
      "53": 2824,
      "gor": 2825,
      "Ġreach": 2826,
      "Ġuygula": 2827,
      "Ġyeme": 2828,
      "Ġwhole": 2829,
      "Ġconcept": 2830,
      "Ġmaterial": 2831,
      "-negotiable": 2832,
      "84": 2833,
      "Ġtari": 2834,
      "100": 2835,
      "Ġapps": 2836,
      "Ġevening": 2837,
      "ging": 2838,
      "Ġca": 2839,
      "Ġteeth": 2840,
      "Ġquickly": 2841,
      "Ġki": 2842,
      "mmoda": 2843,
      "Ġbeca": 2844,
      "ĠGoogle": 2845,
      "Ġuyan": 2846,
      "lerle": 2847,
      "Ġaround": 2848,
      "Ġgelecek": 2849,
      "Ġpoz": 2850,
      "Ġduv": 2851,
      "Ġregulate": 2852,
      "ĠgÃ¶rÃ¼n": 2853,
      "ĠCommit": 2854,
      "yon": 2855,
      "ining": 2856,
      "Ġmelat": 2857,
      "Ġkonuyu": 2858,
      "ective": 2859,
      "Ġro": 2860,
      "Ġprioriti": 2861,
      "Ġprioritize": 2862,
      "ĠAdopt": 2863,
      "Ġbecause": 2864,
      "-s": 2865,
      "85": 2866,
      "tar": 2867,
      "yac": 2868,
      "ĠĠĊ": 2869,
      "Ä±ndan": 2870,
      "Ġpi": 2871,
      "ÅŁÄ±k": 2872,
      "Ġyara": 2873,
      "ĠyaptÄ±": 2874,
      "ĠAralÄ±k": 2875,
      "Ġgiving": 2876,
      "Ġgerekir": 2877,
      "ĠkolaylaÅŁtÄ±r": 2878,
      "ĠHaf": 2879,
      "Ġfixed": 2880,
      "Ġyoksa": 2881,
      "Ġmelatonin": 2882,
      "81": 2883,
      "ĠJ": 2884,
      "Ġdone": 2885,
      "yim": 2886,
      "Ġuzak": 2887,
      "Ġaccommoda": 2888,
      "ĠvÃ¼cudun": 2889,
      "Ä±cÄ±": 2890,
      "Ġbrief": 2891,
      "hes": 2892,
      "ÄŁÄ±n": 2893,
      "yaÃ§": 2894,
      "ĠhatÄ±r": 2895,
      "Ġactions": 2896,
      "Ġbiraz": 2897,
      "resh": 2898,
      "Ġachieve": 2899,
      "ĠCommunication": 2900,
      "cra": 2901,
      "Ġbriefly": 2902,
      "stek": 2903,
      "mektir": 2904,
      "ĠListen": 2905,
      "imdi": 2906,
      "180": 2907,
      "bu": 2908,
      "reat": 2909,
      "menizi": 2910,
      "ĠyÃ¼rÃ¼yÃ¼ÅŁe": 2911,
      "ĠistediÄŁinizi": 2912,
      "Ġbrushing": 2913,
      "Ġass": 2914,
      "Ġcar": 2915,
      "Ġverin": 2916,
      "ĠÃ¶ncelik": 2917,
      "Ġekran": 2918,
      "Ġsense": 2919,
      "...\"": 2920,
      "Ġexactly": 2921,
      "83": 2922,
      "nden": 2923,
      "Ġsam": 2924,
      "Ġprocra": 2925,
      "Ġweather": 2926,
      "ĠdÄ±ÅŁarÄ±": 2927,
      "pace": 2928,
      "Ġiy": 2929,
      "Ġdates": 2930,
      "lÄ±ÄŁÄ±nÄ±": 2931,
      "Ġyaparak": 2932,
      "idir": 2933,
      "Ġbreaking": 2934,
      "Ġihtiyac": 2935,
      "ĠfarklÄ±": 2936,
      "ĠUyku": 2937,
      "ĠseÃ§enek": 2938,
      "82": 2939,
      "ĠSe": 2940,
      "ĠyaÅŁ": 2941,
      "Ġtalk": 2942,
      "Ġimprove": 2943,
      "Ġsamimi": 2944,
      "sitive": 2945,
      "taki": 2946,
      "Ä±lan": 2947,
      "Ġkab": 2948,
      "Ġmut": 2949,
      "Ġiniti": 2950,
      "Ġsoh": 2951,
      "Ġshould": 2952,
      "Ġdestek": 2953,
      "Ġtrack": 2954,
      "Ġconsistency": 2955,
      "Ġkez": 2956,
      "Ġrepeating": 2957,
      "89": 2958,
      "fet": 2959,
      "Ġemin": 2960,
      "Ġdelay": 2961,
      "Ġform": 2962,
      "Ġleave": 2963,
      "Ġduyg": 2964,
      "Ġputting": 2965,
      "Ġenerji": 2966,
      "ĠÃĸÄŁrenme": 2967,
      "by": 2968,
      "iyor": 2969,
      "ĠarasÄ±": 2970,
      "mez": 2971,
      "ĠgÃ¼Ã§": 2972,
      "izing": 2973,
      "Ġeng": 2974,
      "ĠseÃ§ip": 2975,
      "Ġreduces": 2976,
      "irecek": 2977,
      "Ġkamera": 2978,
      "rent": 2979,
      "irm": 2980,
      "Ġfree": 2981,
      "Ġkalan": 2982,
      "Ġbreathing": 2983,
      "ĠihtiyaÃ§": 2984,
      "Ġcurrent": 2985,
      "Ġyorgun": 2986,
      "va": 2987,
      "lence": 2988,
      "Ġpositive": 2989,
      "Ġthroughout": 2990,
      "ency": 2991,
      "Ġincre": 2992,
      "ies": 2993,
      "ercise": 2994,
      "Ġbins": 2995,
      "dÄ±ÄŁÄ±": 2996,
      "ategor": 2997,
      "view": 2998,
      "Ġdire": 2999,
      "Ġfinishing": 3000,
      "Ġtrigger": 3001,
      "lest": 3002,
      "abil": 3003,
      "Ã¼ne": 3004,
      "inizdeki": 3005,
      "sion": 3006,
      "Ġgets": 3007,
      "malÄ±sÄ±nÄ±z": 3008,
      "ĠyaklaÅŁ": 3009,
      "'nÄ±n": 3010,
      "Ġregardless": 3011,
      "und": 3012,
      "Ġkind": 3013,
      "oring": 3014,
      "Ġgu": 3015,
      "izce": 3016,
      "lardan": 3017,
      "ĠgÃ¼neÅŁ": 3018,
      "Ġtemp": 3019,
      "Ġsmaller": 3020,
      "300": 3021,
      "Ġclearing": 3022,
      "Ġpass": 3023,
      "Ġinterests": 3024,
      "Ġmultiple": 3025,
      "'te": 3026,
      "Ġcategor": 3027,
      "Ġbal": 3028,
      "les": 3029,
      "Ġanla": 3030,
      "ĠRule": 3031,
      "enizi": 3032,
      "ĠAncak": 3033,
      "ĠdÃ¼zenleme": 3034,
      "landÄ±r": 3035,
      "iet": 3036,
      "kÃ¼n": 3037,
      "ĠsÃ¶": 3038,
      "Ġcontain": 3039,
      "ĠApp": 3040,
      "ĠGet": 3041,
      "Ġquiet": 3042,
      "ĠkayÄ±tta": 3043,
      "280": 3044,
      "Ġmovement": 3045,
      "Ġtransport": 3046,
      "Ġpresent": 3047,
      "ĠLearning": 3048,
      "Pomodoro": 3049,
      "ebilirsiniz": 3050,
      "Ġcycle": 3051,
      "ration": 3052,
      "arken": 3053,
      "uring": 3054,
      "Ã¶ylece": 3055,
      "Ġmin": 3056,
      "Ġmed": 3057,
      "Ġspend": 3058,
      "ently": 3059,
      "locking": 3060,
      "ĠkonuÅŁma": 3061,
      "ĠnoktasÄ±": 3062,
      "kli": 3063,
      "Ä±la": 3064,
      "tiÄŁiniz": 3065,
      "Ġtam": 3066,
      "Ġwhe": 3067,
      "Ġfresh": 3068,
      "Ġmemor": 3069,
      "ĠMe": 3070,
      "Ġcompleting": 3071,
      "ĠaraÃ§": 3072,
      "form": 3073,
      "Ġseconds": 3074,
      "110": 3075,
      "ng": 3076,
      "meyin": 3077,
      "ĠBel": 3078,
      "Ġbased": 3079,
      "Ä±nÄ±zda": 3080,
      "malar": 3081,
      "Ġkural": 3082,
      "earch": 3083,
      "layÄ±p": 3084,
      "Ġcomfort": 3085,
      "Ġworkspace": 3086,
      "ĠEach": 3087,
      "esini": 3088,
      "Ġonu": 3089,
      "yorsunuz": 3090,
      "chor": 3091,
      "ffer": 3092,
      "Ġpoint": 3093,
      "Ġeasily": 3094,
      "cret": 3095,
      "Ġexch": 3096,
      "ĠBaÅŁlangÄ±Ã§": 3097,
      "Ġmusic": 3098,
      "Ġsaatlerinde": 3099,
      "Ġreview": 3100,
      "tirin": 3101,
      "Ġattention": 3102,
      "Ġbelirli": 3103,
      "Ġvisual": 3104,
      "'ya": 3105,
      "Ġalar": 3106,
      "Ġblam": 3107,
      "ection": 3108,
      "tirmek": 3109,
      "Ġsmallest": 3110,
      "manÄ±n": 3111,
      "ĠkiÅŁi": 3112,
      "Ġbecomes": 3113,
      "abilece": 3114,
      "Ġblaming": 3115,
      "dying": 3116,
      "so": 3117,
      "Ġbar": 3118,
      "Ġblock": 3119,
      "Ġind": 3120,
      "akes": 3121,
      "Ġnever": 3122,
      "ĠRep": 3123,
      "vice": 3124,
      "Ġyerel": 3125,
      "Ġdakikada": 3126,
      "Ġbuilding": 3127,
      "Ġgereken": 3128,
      "arm": 3129,
      "Ġfik": 3130,
      "ĠIf": 3131,
      "Ġexercise": 3132,
      "Ġfati": 3133,
      "Ġeffective": 3134,
      "bility": 3135,
      "stantly": 3136,
      "Ġsohbet": 3137,
      "eh": 3138,
      "Ġwin": 3139,
      "Ġgid": 3140,
      "Ġgeri": 3141,
      "ĠBÃ¶ylece": 3142,
      "Ġdead": 3143,
      "erinde": 3144,
      "ĠsaÄŁlay": 3145,
      "ĠsonuÃ§": 3146,
      "Ġconfirm": 3147,
      "Ġtav": 3148,
      "ĠKendi": 3149,
      "-down": 3150,
      "Ġwriting": 3151,
      "ĠÃ¼cret": 3152,
      "Ġfatigue": 3153,
      "nik": 3154,
      "onsisten": 3155,
      "Ġpark": 3156,
      "ĠTime": 3157,
      "itap": 3158,
      "Ġzone": 3159,
      "Ġuygulam": 3160,
      "Ã¼mkÃ¼n": 3161,
      "Ġbile": 3162,
      "Ġrespon": 3163,
      "ĠkeÅŁ": 3164,
      "Ġoptions": 3165,
      "fa": 3166,
      "ron": 3167,
      "otal": 3168,
      "mplish": 3169,
      "larÄ±na": 3170,
      "ĠpiÅŁirecek": 3171,
      "Ġaccomplish": 3172,
      "Ġhotels": 3173,
      "Ġkaynak": 3174,
      "Ġlevels": 3175,
      "64": 3176,
      "tire": 3177,
      "Ġwarm": 3178,
      "urken": 3179,
      "yarak": 3180,
      "Ġkarar": 3181,
      "Ġyapma": 3182,
      "Ġatt": 3183,
      "Ġtutun": 3184,
      "Ġreplace": 3185,
      "Ġdecisi": 3186,
      "Ġsonunda": 3187,
      "Ġperfect": 3188,
      "Ġthinking": 3189,
      "ĠAlways": 3190,
      "114": 3191,
      "Ġpus": 3192,
      "istem": 3193,
      "Ã¼s": 3194,
      "Ġanchor": 3195,
      "larla": 3196,
      "ĠPack": 3197,
      "Ġsev": 3198,
      "ĠRemove": 3199,
      "Ġinterac": 3200,
      "Ġgenel": 3201,
      "uzur": 3202,
      "ĠayÄ±rÄ±n": 3203,
      "Ġensuring": 3204,
      "Ġdrive": 3205,
      "Ġprocrastination": 3206,
      "ĠApply": 3207,
      "-st": 3208,
      ".)": 3209,
      "130": 3210,
      "do": 3211,
      "Ġli": 3212,
      "Ġlim": 3213,
      "Ġfre": 3214,
      "ĠBe": 3215,
      "ĠiÃ§er": 3216,
      "Ġold": 3217,
      "Ġsuc": 3218,
      "-blocking": 3219,
      "Ġsaatte": 3220,
      "Ġinterrupting": 3221,
      "ĠTelefon": 3222,
      "ĠReplace": 3223,
      "'Ã¼n": 3224,
      "just": 3225,
      "Ġvery": 3226,
      "isini": 3227,
      "ĠDon": 3228,
      "Ġwins": 3229,
      "ĠÄ°zmir": 3230,
      "eye": 3231,
      "Ġsave": 3232,
      "ĠsÃ¼rec": 3233,
      "ĠÃ§Ä±kar": 3234,
      "Ġtakip": 3235,
      "Ġfully": 3236,
      "Ġkazan": 3237,
      "Ġegzersiz": 3238,
      "ĠÃ¼cretsiz": 3239,
      "120": 3240,
      "210": 3241,
      "ĠToplam": 3242,
      "arika": 3243,
      "Ġuyu": 3244,
      "ĠÃ¶neriler": 3245,
      "ĠAnswer": 3246,
      "Ġsuyu": 3247,
      "ĠKon": 3248,
      "ĠsÃ¼reci": 3249,
      "Ġdisc": 3250,
      "230": 3251,
      "?Ċ": 3252,
      "erien": 3253,
      "Ġsep": 3254,
      "Ġdep": 3255,
      "inizden": 3256,
      "ĠZaman": 3257,
      "Ġbackup": 3258,
      "Ġexperien": 3259,
      "tane": 3260,
      "Ġdirect": 3261,
      "leyip": 3262,
      "ĠSizin": 3263,
      "ĠConsisten": 3264,
      "Ġvide": 3265,
      "Ġtrain": 3266,
      "Ġsumm": 3267,
      "Ġdoesn": 3268,
      "Ġshelf": 3269,
      "-out": 3270,
      "125": 3271,
      "gÃ¼n": 3272,
      "hangi": 3273,
      "ossible": 3274,
      "two": 3275,
      "yÄ±p": 3276,
      "unlarÄ±": 3277,
      "alÄ±m": 3278,
      "Ġvak": 3279,
      "lines": 3280,
      "Ġasleep": 3281,
      "Ġkoy": 3282,
      "ĠGÃ¼nÃ¼n": 3283,
      "Ġcluttered": 3284,
      "ously": 3285,
      "-do": 3286,
      "Ġdesign": 3287,
      "Ġnedenle": 3288,
      "07": 3289,
      "63": 3290,
      "ĠTr": 3291,
      "ĠfÄ±r": 3292,
      "Ġanlat": 3293,
      "maktan": 3294,
      "athe": 3295,
      "Ġgidecek": 3296,
      "ĠgÃ¶rÃ¼ÅŁ": 3297,
      "ĠMesaj": 3298,
      "128": 3299,
      "ĠYat": 3300,
      "Ġema": 3301,
      "ĠiÃ§ine": 3302,
      "Ġsho": 3303,
      "ici": 3304,
      "icate": 3305,
      "ĠbaÅŁlay": 3306,
      "ĠArka": 3307,
      "Ġyere": 3308,
      "ĠboÅŁ": 3309,
      "ĠdiÄŁer": 3310,
      "Ġlower": 3311,
      "Ġfail": 3312,
      "Ġprevents": 3313,
      "Ġbreathe": 3314,
      "Ġhava": 3315,
      "Ġduvar": 3316,
      "Ġalarm": 3317,
      "Ġkut": 3318,
      "letiÅŁim": 3319,
      "Ġgit": 3320,
      "Ġmon": 3321,
      "ĠkayÄ±ttaki": 3322,
      "top": 3323,
      "ĠgeliÅŁ": 3324,
      "ĠdoÄŁr": 3325,
      "Ġimpossible": 3326,
      "Ġdestinations": 3327,
      "Ġcleaning": 3328,
      "ĠunutmayÄ±n": 3329,
      "Ġsorting": 3330,
      "Ġdelays": 3331,
      "Ġminim": 3332,
      "isay": 3333,
      "ilar": 3334,
      "Ġrou": 3335,
      "Ġdocu": 3336,
      "atch": 3337,
      "Ġteknik": 3338,
      "Ġadd": 3339,
      "ĠdÃ¼ÅŁÃ¼nÃ¼n": 3340,
      "ĠzorluÄŁu": 3341,
      "ĠbÄ±rakÄ±n": 3342,
      "Ġreconnect": 3343,
      "Ġoffering": 3344,
      "Ġfrequ": 3345,
      "'e": 3346,
      "cul": 3347,
      "lÃ¼": 3348,
      "ud": 3349,
      "Ġmicro": 3350,
      "Ġinten": 3351,
      "lerine": 3352,
      "Ġsess": 3353,
      "Ġyeniden": 3354,
      "ĠsaÄŁlÄ±k": 3355,
      "bileceÄŁiniz": 3356,
      "Ġbilgiyi": 3357,
      "ÅŁaÄŁÄ±": 3358,
      "Ġsimilar": 3359,
      "istic": 3360,
      "Ġcreating": 3361,
      "Ġanda": 3362,
      "Ġrelying": 3363,
      "Ġmeals": 3364,
      "Ġtidy": 3365,
      "tÄ±ra": 3366,
      "Ġkarma": 3367,
      "mesini": 3368,
      "Ġbilgiler": 3369,
      "-on": 3370,
      "212": 3371,
      "muÅŁ": 3372,
      "Ġbus": 3373,
      "dÄ±ÄŁÄ±nÄ±": 3374,
      "Ġreli": 3375,
      "Ġext": 3376,
      "ĠkoÅŁ": 3377,
      "Ġhappens": 3378,
      "Ġairport": 3379,
      "Ġrelaxing": 3380,
      "117": 3381,
      "Ġfall": 3382,
      "ĠGo": 3383,
      "Ġloo": 3384,
      "Ġmakin": 3385,
      "400": 3386,
      "ĠiÅŁlem": 3387,
      "Ġswit": 3388,
      "Ġhika": 3389,
      "ĠdÃ¶n": 3390,
      "-free": 3391,
      "112": 3392,
      "116": 3393,
      "gers": 3394,
      "sini": 3395,
      "tim": 3396,
      "Ġsit": 3397,
      "Ġkes": 3398,
      "tence": 3399,
      "Ġevent": 3400,
      "Ġders": 3401,
      "Ġforward": 3402,
      "Ġhuzur": 3403,
      "Ġrhy": 3404,
      "menin": 3405,
      "Ġizin": 3406,
      "Ġperfection": 3407,
      "ĠÄ±ÅŁÄ±ÄŁÄ±": 3408,
      "Ġclarifying": 3409,
      "Ġrhyth": 3410,
      "av": 3411,
      "ana": 3412,
      "endi": 3413,
      "ence": 3414,
      "Ġmutu": 3415,
      "ĠmÃ¼mkÃ¼n": 3416,
      "Ġvb": 3417,
      "ĠÃ¶ÄŁle": 3418,
      "Ġcommun": 3419,
      "Ġcall": 3420,
      "Ġhobby": 3421,
      "Ġtavsi": 3422,
      "ĠArkadaÅŁ": 3423,
      "isayar": 3424,
      "ction": 3425,
      "Ġpop": 3426,
      "Ġsistem": 3427,
      "ilizce": 3428,
      "ĠSor": 3429,
      "Ġmik": 3430,
      "Ġstar": 3431,
      "Ġref": 3432,
      "lÄ±ÅŁkan": 3433,
      "ĠPlan": 3434,
      "Ġbulmak": 3435,
      "Ġbuilt": 3436,
      "129": 3437,
      "480": 3438,
      "Ġadding": 3439,
      "Ġground": 3440,
      "Ġziya": 3441,
      "Ġresponse": 3442,
      "115": 3443,
      "113": 3444,
      "314": 3445,
      "327": 3446,
      "ause": 3447,
      "udy": 3448,
      "ĠadÄ±": 3449,
      "Ġmal": 3450,
      "Ġmust": 3451,
      "Ġuyum": 3452,
      "209": 3453,
      "bilirsin": 3454,
      "187": 3455,
      "500": 3456,
      "Ġboost": 3457,
      "ĠkarÅŁÄ±laÅŁ": 3458,
      "Ġhayat": 3459,
      "ice": 3460,
      "ll": 3461,
      "Ġslow": 3462,
      "maz": 3463,
      "ĠSÃ¼re": 3464,
      "ĠkaÄŁÄ±": 3465,
      "Ġremo": 3466,
      "Ä±nÄ±r": 3467,
      "ĠbaÅŁlangÄ±": 3468,
      "Ġonun": 3469,
      "ĠÃ¶neririm": 3470,
      "diÄŁi": 3471,
      "107": 3472,
      "chen": 3473,
      "Ġkitchen": 3474,
      "anÄ±zÄ±": 3475,
      "Ġtutacak": 3476,
      "Ġnatural": 3477,
      "Ġincludes": 3478,
      "ngilizce": 3479,
      "Ġmutual": 3480,
      "'ll": 3481,
      "-M": 3482,
      "213": 3483,
      "ĠbÃ¼t": 3484,
      "ĠkalÄ±": 3485,
      "ĠÄ°letiÅŁim": 3486,
      "**.": 3487,
      "109": 3488,
      "Ã¼rk": 3489,
      "189": 3490,
      "ĠdakikayÄ±": 3491,
      "ĠalÄ±ÅŁ": 3492,
      "Ġnotes": 3493,
      "Ġfav": 3494,
      "ÄŁÄ±nÄ±zda": 3495,
      "Ġrecall": 3496,
      "-Minute": 3497,
      "225": 3498,
      "217": 3499,
      "yo": 3500,
      "Ġsak": 3501,
      "ork": 3502,
      "ĠadÄ±mda": 3503,
      "ĠbaÅŁlar": 3504,
      "Ġmood": 3505,
      "Ġuyuy": 3506,
      "inizle": 3507,
      "ĠÃ§ev": 3508,
      "ase": 3509,
      "Ġnumara": 3510,
      "207": 3511,
      "136": 3512,
      "ĠaydÄ±n": 3513,
      "600": 3514,
      "Ġkonuda": 3515,
      "ĠadÄ±mlarla": 3516,
      "Ġsaniye": 3517,
      "Ġturning": 3518,
      "-stakes": 3519,
      "Ġsummar": 3520,
      "Ġfavor": 3521,
      "215": 3522,
      "329": 3523,
      "416": 3524,
      "ain": 3525,
      "list": 3526,
      "yn": 3527,
      "Ġpur": 3528,
      "ĠkatÄ±": 3529,
      "Ġmesa": 3530,
      "ĠÄ°yi": 3531,
      "Ġtoprak": 3532,
      "Ġetmeye": 3533,
      "Ġweekly": 3534,
      "Ġodaklanma": 3535,
      "Ġilerle": 3536,
      "Ġdeneyim": 3537,
      "Ġideas": 3538,
      "Ġindir": 3539,
      "Ġrhythm": 3540,
      "216": 3541,
      "349": 3542,
      "414": 3543,
      "imp": 3544,
      "ĠaÅŁ": 3545,
      "Ġcri": 3546,
      "oud": 3547,
      "ory": 3548,
      "Ġeveryone": 3549,
      "Ġlead": 3550,
      "ĠHab": 3551,
      "Ġjud": 3552,
      "Ġpause": 3553,
      "duÄŁunuz": 3554,
      "Ġneeding": 3555,
      "ĠamaÃ§": 3556,
      "Ġhavuz": 3557,
      "Ġbitk": 3558,
      "Ġproduction": 3559,
      "Ġfikir": 3560,
      "220": 3561,
      "415": 3562,
      "Ä±yor": 3563,
      "Ġclot": 3564,
      "Ġperi": 3565,
      "Ġbond": 3566,
      "ĠThen": 3567,
      "Ġtool": 3568,
      "haba": 3569,
      "Ġbath": 3570,
      "ĠbaÅŁlayÄ±p": 3571,
      "dia": 3572,
      "Ġvarsa": 3573,
      "ĠÃ§alÄ±ÅŁma": 3574,
      "Ġkayded": 3575,
      "Ġadjust": 3576,
      "ĠgÃ¼nde": 3577,
      "ĠÃ§Ä±kacak": 3578,
      "Ġsentence": 3579,
      "Ġhale": 3580,
      "Ġokumaya": 3581,
      "Ġbalance": 3582,
      "Ġstarted": 3583,
      "315": 3584,
      "316": 3585,
      "Two": 3586,
      "yet": 3587,
      "Ġsin": 3588,
      "Ġheav": 3589,
      "ĠBook": 3590,
      "imli": 3591,
      "anging": 3592,
      "aps": 3593,
      "Ġperspec": 3594,
      "Ġhareke": 3595,
      "Ġprioritiz": 3596,
      "Ġvideo": 3597,
      "Ġperspective": 3598,
      "-siz": 3599,
      "224": 3600,
      "net": 3601,
      "sap": 3602,
      "enin": 3603,
      "ĠAlÄ±ÅŁkan": 3604,
      "ĠÄ°ngilizce": 3605,
      "Ġverir": 3606,
      "Ġact": 3607,
      "188": 3608,
      "237": 3609,
      "Ġbite": 3610,
      "Ġtoplamda": 3611,
      "Ġcomplex": 3612,
      "Ġeder": 3613,
      "Ġleaving": 3614,
      "Ġmaintaining": 3615,
      "ĠBelir": 3616,
      "-sized": 3617,
      "310": 3618,
      "437": 3619,
      "526": 3620,
      "oin": 3621,
      "oint": 3622,
      "isiniz": 3623,
      "Ġcir": 3624,
      "Ġstil": 3625,
      "Ġtar": 3626,
      "cel": 3627,
      "Ġintention": 3628,
      "Ġstore": 3629,
      "ĠGÃ¼nde": 3630,
      "Ġdefter": 3631,
      "137": 3632,
      "ĠStudy": 3633,
      "ĠiÅŁi": 3634,
      "ĠsaÄŁlayÄ±n": 3635,
      "Ġekleyin": 3636,
      "ĠolmasÄ±": 3637,
      "Ġmindful": 3638,
      "Ġdisrup": 3639,
      "Ġlove": 3640,
      "ĠÃĩok": 3641,
      "Ġritual": 3642,
      "Ġheavy": 3643,
      "228": 3644,
      "214": 3645,
      "der": 3646,
      "Ġchat": 3647,
      "meli": 3648,
      "ilik": 3649,
      "ĠGood": 3650,
      "Ġhaving": 3651,
      "106": 3652,
      "Ġmeans": 3653,
      "ĠReach": 3654,
      "ĠÃ§alÄ±ÅŁmak": 3655,
      "Ġstrictly": 3656,
      "Ġdecluttering": 3657,
      "Ġprojects": 3658,
      "Ġroman": 3659,
      "ĠSeyahat": 3660,
      "Ġdecision": 3661,
      "317": 3662,
      "514": 3663,
      "Ġna": 3664,
      "lanmÄ±ÅŁ": 3665,
      "Ġreac": 3666,
      "term": 3667,
      "Ġseb": 3668,
      "108": 3669,
      "ĠyÃ¼zden": 3670,
      "Ġstarts": 3671,
      "ĠsabahlarÄ±": 3672,
      "ĠbaÅŁlangÄ±Ã§tÄ±r": 3673,
      "Ġkurun": 3674,
      "Ġrepeti": 3675,
      "Ġbreaths": 3676,
      "Ġazalt": 3677,
      "ehir": 3678,
      "Ã¼rkÃ§e": 3679,
      "Ġfavorite": 3680,
      "-term": 3681,
      "324": 3682,
      "429": 3683,
      "iden": 3684,
      "jor": 3685,
      "dually": 3686,
      "Ġmant": 3687,
      "Ä±ntÄ±": 3688,
      "ĠanlaÅŁ": 3689,
      "tically": 3690,
      "Ġenc": 3691,
      "Ä±rken": 3692,
      "149": 3693,
      "126": 3694,
      "186": 3695,
      "Ġused": 3696,
      "380": 3697,
      "Ġkayna": 3698,
      "ĠWhy": 3699,
      "tification": 3700,
      "ĠgÃ¶zlem": 3701,
      "325": 3702,
      "gu": 3703,
      "pe": 3704,
      "Ġag": 3705,
      "ulating": 3706,
      "Ġareas": 3707,
      "Ġgent": 3708,
      "ÄŁÄ±m": 3709,
      "Ġsol": 3710,
      "Ġmedia": 3711,
      "ĠbaÅŁka": 3712,
      "ecting": 3713,
      "Ġbuffer": 3714,
      "ned": 3715,
      "Ġplanlama": 3716,
      "Ġmajor": 3717,
      "306": 3718,
      "127": 3719,
      "Ġarri": 3720,
      "Ġstudying": 3721,
      "ĠÃ¼zerinde": 3722,
      "ĠgÃ¶zden": 3723,
      "Ġtalking": 3724,
      "Ġhappen": 3725,
      "ĠkitabÄ±": 3726,
      "Ġperiod": 3727,
      "ĠAlÄ±ÅŁkanlÄ±k": 3728,
      "Ġgentle": 3729,
      "-one": 3730,
      "223": 3731,
      "330": 3732,
      "417": 3733,
      "517": 3734,
      "527": 3735,
      "ida": 3736,
      "tle": 3737,
      "Ġaw": 3738,
      "arge": 3739,
      "Ġeliminate": 3740,
      "ĠHangi": 3741,
      "Ġjoy": 3742,
      "ĠNuma": 3743,
      "208": 3744,
      "580": 3745,
      "Ġevde": 3746,
      "ĠsÃ¼reÃ§": 3747,
      "Ġallowing": 3748,
      "ĠvÃ¼cudunuz": 3749,
      "Ġmonth": 3750,
      "Ġdocuments": 3751,
      "227": 3752,
      "328": 3753,
      "425": 3754,
      "Ġcra": 3755,
      "Ġtotal": 3756,
      "ality": 3757,
      "Ġkri": 3758,
      "Ġnerv": 3759,
      "mem": 3760,
      "using": 3761,
      "Ġcosts": 3762,
      "Ġbag": 3763,
      "ĠplanlayÄ±n": 3764,
      "229": 3765,
      "Ġkullanmak": 3766,
      "leÅŁtirme": 3767,
      "Ġbilgisayar": 3768,
      "leyebilirsiniz": 3769,
      "Ġdetails": 3770,
      "Ġiyisi": 3771,
      "Ġmedit": 3772,
      "Ġexperiences": 3773,
      "Ġbusy": 3774,
      "Ġnervous": 3775,
      "323": 3776,
      "326": 3777,
      "449": 3778,
      "516": 3779,
      "529": 3780,
      "549": 3781,
      "You": 3782,
      "seniz": 3783,
      "Ġaya": 3784,
      "Ġaim": 3785,
      "isyon": 3786,
      "Ġben": 3787,
      "mand": 3788,
      "Ã¶rn": 3789,
      "ĠkÄ±s": 3790,
      "ĠÃ§i": 3791,
      "206": 3792,
      "Ġalter": 3793,
      "ĠÃĸner": 3794,
      "Ä±ktan": 3795,
      "ĠkaydÄ±": 3796,
      "Ġexpla": 3797,
      "Ġgerekti": 3798,
      "Ġrespect": 3799,
      "Ġreply": 3800,
      "Ġaraya": 3801,
      "ĠdÃ¼zenli": 3802,
      "rink": 3803,
      "leÅŁtirin": 3804,
      "Ġthink": 3805,
      "Ġcase": 3806,
      "Ġsuccess": 3807,
      "Ġrepetition": 3808,
      "226": 3809,
      "515": 3810,
      "524": 3811,
      "537": 3812,
      "ues": 3813,
      "anÄ±n": 3814,
      "ĠtanÄ±": 3815,
      "ĠkÃ¶": 3816,
      "tional": 3817,
      "Ġnothing": 3818,
      "lacak": 3819,
      "Ġstrate": 3820,
      "309": 3821,
      "Ġorganized": 3822,
      "Ġisters": 3823,
      "Ġdinlen": 3824,
      "Ġortak": 3825,
      "Ġtarih": 3826,
      "Ġkritik": 3827,
      "424": 3828,
      "427": 3829,
      "536": 3830,
      "rying": 3831,
      "inter": 3832,
      "Ġtes": 3833,
      "ults": 3834,
      "ĠDrink": 3835,
      "Ġdav": 3836,
      "lic": 3837,
      "Ä±nÄ±zÄ±n": 3838,
      "307": 3839,
      "308": 3840,
      "Ġbelirleme": 3841,
      "Ġweb": 3842,
      "336": 3843,
      "cide": 3844,
      "Ġmoments": 3845,
      "Ġodaklanmak": 3846,
      "Ġdeeply": 3847,
      "Ġcreates": 3848,
      "Ġnature": 3849,
      "Ġproblems": 3850,
      "ĠkarmaÅŁÄ±k": 3851,
      "Ġencou": 3852,
      "520": 3853,
      "eded": 3854,
      "gment": 3855,
      "ĠaÅŁaÄŁÄ±": 3856,
      "erhaba": 3857,
      "Ġcons": 3858,
      "ularÄ±": 3859,
      "ors": 3860,
      "ĠÃ¶d": 3861,
      "ĠÃ¶l": 3862,
      "Ġona": 3863,
      "ĠÃ¶neriyi": 3864,
      "ĠyazÄ±lÄ±": 3865,
      "288": 3866,
      "ĠeÅŁy": 3867,
      "Ġbelki": 3868,
      "ures": 3869,
      "Ġgelen": 3870,
      "ĠWhen": 3871,
      "Ġnefesinizi": 3872,
      "Ġdakikalar": 3873,
      "ffeine": 3874,
      "Ġgradually": 3875,
      "Ġtriggers": 3876,
      "Ġcaffeine": 3877,
      "ĠsÃ¶y": 3878,
      "ĠTrue": 3879,
      "Ġmiktar": 3880,
      "Ġmalze": 3881,
      "426": 3882,
      "435": 3883,
      "525": 3884,
      "cer": 3885,
      "yerek": 3886,
      "times": 3887,
      "ĠSleep": 3888,
      "Ġsahip": 3889,
      "ĠzamanÄ±": 3890,
      "ternal": 3891,
      "289": 3892,
      "337": 3893,
      "Ġhedeflerinizi": 3894,
      "ĠgÃ¼nÃ¼nÃ¼z": 3895,
      "ĠtanÄ±ÅŁ": 3896,
      "Ġpacking": 3897,
      "Ġrealistic": 3898,
      "Ġhandle": 3899,
      "ĠResearch": 3900,
      "Ġsummarizing": 3901,
      "Ġdavran": 3902,
      "\")": 3903,
      "320": 3904,
      "312": 3905,
      "430": 3906,
      "413": 3907,
      "436": 3908,
      "ke": 3909,
      "ority": 3910,
      "Ġileri": 3911,
      "ĠTÃ¼rkÃ§e": 3912,
      "Ġtoward": 3913,
      "yand": 3914,
      "Ġshif": 3915,
      "tivity": 3916,
      "Ġsear": 3917,
      "Ġexternal": 3918,
      "Ġnotification": 3919,
      "Ġspecifically": 3920,
      "190": 3921,
      "408": 3922,
      "ĠSayÄ±n": 3923,
      "Ġenjo": 3924,
      "acaÄŁÄ±nÄ±z": 3925,
      "ĠparÃ§": 3926,
      "Ġrequire": 3927,
      "ĠbahÃ§enizin": 3928,
      "gÄ±": 3929,
      "ila": 3930,
      "Ġwrite": 3931,
      "Ġele": 3932,
      "Ġdate": 3933,
      "Ġdemand": 3934,
      "Ġneeded": 3935,
      "ĠkaÃ§Ä±nÄ±n": 3936,
      "Ġplanla": 3937,
      "236": 3938,
      "409": 3939,
      "Ġadvice": 3940,
      "Ġlisting": 3941,
      "ĠiÃ§indeki": 3942,
      "Ġlights": 3943,
      "cessary": 3944,
      "Ġvalida": 3945,
      "Ġcasual": 3946,
      "Ġvakit": 3947,
      "313": 3948,
      "ati": 3949,
      "cisi": 3950,
      "Ġpick": 3951,
      "Ġser": 3952,
      "sÄ±nda": 3953,
      "Ġchore": 3954,
      "vices": 3955,
      "287": 3956,
      "Ġsorunu": 3957,
      "ĠiÅŁle": 3958,
      "Ġbilgiye": 3959,
      "ĠsÄ±kÄ±ntÄ±": 3960,
      "ĠarasÄ±nda": 3961,
      "Ġfrequently": 3962,
      "Ġprioritizing": 3963,
      "'nde": 3964,
      "420": 3965,
      "428": 3966,
      "433": 3967,
      "510": 3968,
      "523": 3969,
      "iled": 3970,
      "Ġam": 3971,
      "ints": 3972,
      "lebilir": 3973,
      "ĠyarÄ±": 3974,
      "Ġtext": 3975,
      "488": 3976,
      "Ġready": 3977,
      "tanÄ±n": 3978,
      "Ġdurumunu": 3979,
      "Ġsenin": 3980,
      "ĠoluÅŁturun": 3981,
      "Ġyatmadan": 3982,
      "Ġrewards": 3983,
      "Ġcompare": 3984,
      "Ġdetailed": 3985,
      "Ġaccommodation": 3986,
      "vaila": 3987,
      "Ġcomfortable": 3988,
      "Ġsessiz": 3989,
      "Ġextra": 3990,
      "Ġcommunicate": 3991,
      "528": 3992,
      "ages": 3993,
      "iyle": 3994,
      "Ġbin": 3995,
      "Ġnere": 3996,
      "Ã¼ler": 3997,
      "Ġremove": 3998,
      "Ġanki": 3999,
      "ĠbaÅŁÄ±na": 4000,
      "mekten": 4001,
      "ĠÅŁimdi": 4002,
      "Ġworrying": 4003,
      "menize": 4004,
      "507": 4005,
      "ĠiÅŁleri": 4006,
      "ĠalÄ±ÅŁkanlÄ±ÄŁÄ±": 4007,
      "ĠWrite": 4008,
      "ĠhiÃ§": 4009,
      "Ġchecklist": 4010,
      "Ġappoint": 4011,
      "Ġolmayan": 4012,
      "layÄ±cÄ±": 4013,
      "Ã¼tÃ¼": 4014,
      "Ġurgency": 4015,
      "ĠsÄ±caklÄ±ÄŁÄ±nÄ±": 4016,
      "ĠÃ¶lÃ§": 4017,
      "-to": 4018,
      "410": 4019,
      "ÄŁun": 4020,
      "Ġbirini": 4021,
      "Ġdair": 4022,
      "oney": 4023,
      "Ġsole": 4024,
      "ively": 4025,
      "eleri": 4026,
      "Ġuyk": 4027,
      "Ġquality": 4028,
      "ĠdeÄŁiÅŁik": 4029,
      "ĠZor": 4030,
      "249": 4031,
      "Ġsorular": 4032,
      "ĠpiÅŁirme": 4033,
      "Ġunderstood": 4034,
      "Ġstaying": 4035,
      "Ġconfiden": 4036,
      "Ġalarak": 4037,
      "ĠuygulayÄ±n": 4038,
      "Ġeffectively": 4039,
      "Ġalterna": 4040,
      "Ġconfidence": 4041,
      "'u": 4042,
      "533": 4043,
      "ilen": 4044,
      "jital": 4045,
      "mind": 4046,
      "uyor": 4047,
      "Ġplat": 4048,
      "Ġhesap": 4049,
      "ĠTra": 4050,
      "Ġaren": 4051,
      "ÄŁim": 4052,
      "ump": 4053,
      "ĠGece": 4054,
      "Ġdecide": 4055,
      "ĠteÅŁ": 4056,
      "ĠÃ¶nceden": 4057,
      "286": 4058,
      "Ġbelirleyerek": 4059,
      "Ġphones": 4060,
      "ĠÃ§eker": 4061,
      "407": 4062,
      "508": 4063,
      "bilecek": 4064,
      "Ġpaint": 4065,
      "Ġdedicate": 4066,
      "ĠartÄ±rÄ±r": 4067,
      "ĠJoin": 4068,
      "ĠsaÄŁlayacak": 4069,
      "Ġreliable": 4070,
      "Ġsakin": 4071,
      "ft": 4072,
      "pend": 4073,
      "sine": 4074,
      "yal": 4075,
      "Ġbla": 4076,
      "Ã¼p": 4077,
      "Ġtomor": 4078,
      "haul": 4079,
      "Ġmoney": 4080,
      "Ġanxi": 4081,
      "elf": 4082,
      "Ġverimli": 4083,
      "eclutter": 4084,
      "Ġresults": 4085,
      "Ġzorunda": 4086,
      "121": 4087,
      "Ġlate": 4088,
      "ildir": 4089,
      "406": 4090,
      "489": 4091,
      "506": 4092,
      "509": 4093,
      "ĠolduÄŁunuz": 4094,
      "Ġhissi": 4095,
      "Ġlost": 4096,
      "Ġgenuinely": 4097,
      "Ġedebilirsiniz": 4098,
      "ĠyaklaÅŁÄ±m": 4099,
      "Ä±labilir": 4100,
      "abileceÄŁiniz": 4101,
      "Ġdeadlines": 4102,
      "ĠkeÅŁfet": 4103,
      "Ġmalzeme": 4104,
      "Ġsolely": 4105,
      "Ġtomorrow": 4106,
      "530": 4107,
      "535": 4108,
      "Ġtable": 4109,
      "Ġretur": 4110,
      "Ġthese": 4111,
      "ĠCle": 4112,
      "ĠÃ¶ÄŁre": 4113,
      "Ġoverhaul": 4114,
      "ĠÃ¶zet": 4115,
      "miÅŁtir": 4116,
      "ĠtanÄ±m": 4117,
      "ĠHemen": 4118,
      "build": 4119,
      "Ġkabul": 4120,
      "Ġnotifications": 4121,
      ".**": 4122,
      "412": 4123,
      "513": 4124,
      "bly": 4125,
      "ns": 4126,
      "Ġcue": 4127,
      "tiri": 4128,
      "Ġblo": 4129,
      "Ġestablish": 4130,
      "yap": 4131,
      "ety": 4132,
      "elt": 4133,
      "Ġsight": 4134,
      "Ġatmak": 4135,
      "larÄ±nda": 4136,
      "387": 4137,
      "Ġpoints": 4138,
      "come": 4139,
      "ĠoluÅŁturmak": 4140,
      "ĠkalkÄ±p": 4141,
      "osure": 4142,
      "phan": 4143,
      "Ġyeterlidir": 4144,
      "ĠConsistency": 4145,
      "Ġdesignated": 4146,
      "Ġlooking": 4147,
      "ĠArkadaÅŁlÄ±k": 4148,
      "ĠbaÅŁlangÄ±cÄ±": 4149,
      "'un": 4150,
      "06": 4151,
      "423": 4152,
      "dÃ¼r": 4153,
      "fi": 4154,
      "ink": 4155,
      "Ġpic": 4156,
      "ĠsÃ¼r": 4157,
      "ĠkarÄ±": 4158,
      "ĠEliminate": 4159,
      "Ġhear": 4160,
      "esif": 4161,
      "ÄŁine": 4162,
      "ĠSÄ±": 4163,
      "Ġremind": 4164,
      "Ġrebuild": 4165,
      "Ġspesif": 4166,
      "Ġyerde": 4167,
      "charge": 4168,
      "Ġorganizing": 4169,
      "487": 4170,
      "386": 4171,
      "388": 4172,
      "Ġpara": 4173,
      "Ġkeeps": 4174,
      "Ġkaybet": 4175,
      "Ġpersonal": 4176,
      "ĠkolaylaÅŁ": 4177,
      "ĠaÃ§Ä±": 4178,
      "Ġspeaker": 4179,
      "ĠÅŀu": 4180,
      "Ġtopics": 4181,
      "ĠÃ¶dÃ¼l": 4182,
      "Ġspesifik": 4183,
      "bo": 4184,
      "ually": 4185,
      "Ġait": 4186,
      "Ġsal": 4187,
      "Ġsec": 4188,
      "usal": 4189,
      "ĠDeclutter": 4190,
      "syal": 4191,
      "ĠStop": 4192,
      "ĠiÃ§mek": 4193,
      "Ġuyand": 4194,
      "Ġhy": 4195,
      "Ġabs": 4196,
      "Ä±zlÄ±": 4197,
      "never": 4198,
      "Ġmat": 4199,
      "ĠyapmaktÄ±r": 4200,
      "ĠayrÄ±": 4201,
      "486": 4202,
      "389": 4203,
      "Ġbask": 4204,
      "Ġederek": 4205,
      "Ġexposure": 4206,
      "Ġimportance": 4207,
      "ĠÃ¼zere": 4208,
      "Ġbring": 4209,
      "ĠHave": 4210,
      "Ġmastering": 4211,
      "Ġtaraf": 4212,
      "Ġletting": 4213,
      "Ġfinding": 4214,
      "ĠHedef": 4215,
      "Ġemotions": 4216,
      "Ġcontainers": 4217,
      "Ġuygulamalar": 4218,
      "Ġjudgment": 4219,
      "-time": 4220,
      "sek": 4221,
      "ty": 4222,
      "Â°": 4223,
      "Ġ-": 4224,
      "Ġavaila": 4225,
      "Ä±sa": 4226,
      "ĠsÃ¼": 4227,
      "ĠEl": 4228,
      "Ġcook": 4229,
      "Ġgere": 4230,
      "linde": 4231,
      "Ġalma": 4232,
      "vol": 4233,
      "Ġsaatlerde": 4234,
      "ĠsÃ¼reli": 4235,
      "round": 4236,
      "Ġbekleme": 4237,
      "Ġcontin": 4238,
      "ĠhafifÃ§e": 4239,
      "ĠgÃ¶revleri": 4240,
      "Ġharit": 4241,
      "ĠdetaylÄ±": 4242,
      "Ġpozisyon": 4243,
      "Ġengage": 4244,
      "ĠpopÃ¼ler": 4245,
      "Ġremoving": 4246,
      "Ġmindfulness": 4247,
      "\",": 4248,
      "-imp": 4249,
      "bel": 4250,
      "pose": 4251,
      "yacak": 4252,
      "ines": 4253,
      "Ġtreating": 4254,
      "Ã§i": 4255,
      "Ġwas": 4256,
      "dÄ±k": 4257,
      "Ġeating": 4258,
      "Ġmer": 4259,
      "Ġkav": 4260,
      "Ġzama": 4261,
      "Ġonline": 4262,
      "Ġsilence": 4263,
      "Ġsaati": 4264,
      "ĠBuild": 4265,
      "Ġchoose": 4266,
      "Ġtasar": 4267,
      "Ġmeaningful": 4268,
      "132": 4269,
      "Ġbelirtil": 4270,
      "Ġherhangi": 4271,
      "Ġhedefe": 4272,
      "Ġdiyerek": 4273,
      "Ġexpect": 4274,
      "Ġbrings": 4275,
      "ensive": 4276,
      "Ã¼nÃ¼zÃ¼": 4277,
      "Ġcarry": 4278,
      "ĠgÃ¼Ã§lendir": 4279,
      "Ġexchanging": 4280,
      "Ġcritical": 4281,
      "Ġclothes": 4282,
      "Ġanxiety": 4283,
      "534": 4284,
      "underst": 4285,
      "Ġcor": 4286,
      "Ġfood": 4287,
      "ticing": 4288,
      "Ġdevices": 4289,
      "Ġmode": 4290,
      "ĠbaÅŁlamanÄ±z": 4291,
      "ĠNe": 4292,
      "Ġalong": 4293,
      "Ġmotivated": 4294,
      "Ġbelong": 4295,
      "Ġweeks": 4296,
      "ĠÃ¶ÄŁrenmeye": 4297,
      "rolling": 4298,
      "Ġconnections": 4299,
      "Ġurge": 4300,
      "ledge": 4301,
      "Ġnokt": 4302,
      "Ġblocking": 4303,
      "Ġsunlight": 4304,
      "Ġmisunderst": 4305,
      "Ġsesli": 4306,
      "Ġzih": 4307,
      "Ġcounter": 4308,
      "ĠyemeÄŁi": 4309,
      "Ġdirectly": 4310,
      "09": 4311,
      "434": 4312,
      "Ġci": 4313,
      "Ġstic": 4314,
      "Ġrecharge": 4315,
      "Ġnear": 4316,
      "Ġhat": 4317,
      "ĠyapmanÄ±z": 4318,
      "Ġuygulaya": 4319,
      "dik": 4320,
      "ched": 4321,
      "Ġyerden": 4322,
      "leyen": 4323,
      "Ġuninter": 4324,
      "ĠkullanmayÄ±": 4325,
      "Ġsaatlik": 4326,
      "Ġevdeki": 4327,
      "ĠInstead": 4328,
      "Ġtransit": 4329,
      "ĠkapatÄ±n": 4330,
      "ĠprogramÄ±": 4331,
      "Ġbecome": 4332,
      "Ġhealthy": 4333,
      "Ġguilt": 4334,
      "ĠGetting": 4335,
      "Ġtavsiye": 4336,
      "Ã¼tÃ¼phan": 4337,
      "04": 4338,
      "ires": 4339,
      "oice": 4340,
      "where": 4341,
      "ĠsÄ±nÄ±r": 4342,
      "yable": 4343,
      "Ġinvol": 4344,
      "kip": 4345,
      "lanÄ±r": 4346,
      "Ġren": 4347,
      "Ġstrong": 4348,
      "104": 4349,
      "Ġlit": 4350,
      "203": 4351,
      "ĠaltÄ±": 4352,
      "vig": 4353,
      "586": 4354,
      "587": 4355,
      "589": 4356,
      "ĠazÄ±ndan": 4357,
      "Ġstuck": 4358,
      "Ġliste": 4359,
      "Ġyolcul": 4360,
      "ĠbaÅŁlayarak": 4361,
      "rupted": 4362,
      "ĠsabÄ±r": 4363,
      "ĠbÃ¶lÃ¼m": 4364,
      "ĠdeÄŁerlendir": 4365,
      "Ġedip": 4366,
      "Ġbelirtin": 4367,
      "Ġwhenever": 4368,
      "Ġbarri": 4369,
      "Ġuninterrupted": 4370,
      "05": 4371,
      "118": 4372,
      "Ġlock": 4373,
      "Ġbiti": 4374,
      "dedi": 4375,
      "allen": 4376,
      "ĠEx": 4377,
      "ÅŁtÄ±r": 4378,
      "Ġfay": 4379,
      "Ġstand": 4380,
      "Ġversion": 4381,
      "ĠHarika": 4382,
      "ĠatÄ±n": 4383,
      "ĠÃ¶ÄŁrenin": 4384,
      "Ġinternet": 4385,
      "lemeyi": 4386,
      "Ġkaydet": 4387,
      "melisiniz": 4388,
      "ĠdÃ¼ÅŁÃ¼r": 4389,
      "ĠdÃ¼zenini": 4390,
      "Ġdistraction": 4391,
      "mÄ±ÅŁtÄ±r": 4392,
      "Ġsayf": 4393,
      "ĠÃ¼zerinden": 4394,
      "ĠÄ±sÄ±": 4395,
      "Ġemotional": 4396,
      "Ġproblem": 4397,
      "Ġdepart": 4398,
      "Ġhikaye": 4399,
      "Ġstill": 4400,
      "Ġnavig": 4401,
      "Ġenjoyable": 4402,
      "Ġnerede": 4403,
      "Ġreturn": 4404,
      "512": 4405,
      "Ġoto": 4406,
      "ĠaÄŁ": 4407,
      "Ġtechniqu": 4408,
      "Ã¼nd": 4409,
      "Ġgrow": 4410,
      "ĠÅŁehir": 4411,
      "ross": 4412,
      "133": 4413,
      "588": 4414,
      "ĠkonuÅŁmak": 4415,
      "Ġekleyerek": 4416,
      "Ġperform": 4417,
      ".\"Ċ": 4418,
      "Ġdesired": 4419,
      "Ġhaftada": 4420,
      "Ġattrac": 4421,
      "Ġtechniques": 4422,
      "-w": 4423,
      "aret": 4424,
      "tiÄŁi": 4425,
      "Ġsef": 4426,
      "Ġconte": 4427,
      "dest": 4428,
      "ÄŁe": 4429,
      "ĠyaÅŁa": 4430,
      "Ġforce": 4431,
      "Ġuyuma": 4432,
      "Ġbulund": 4433,
      "Ġmap": 4434,
      "102": 4435,
      "105": 4436,
      "Ġteach": 4437,
      "ĠKitap": 4438,
      "609": 4439,
      "tÄ±cÄ±": 4440,
      "Ġwait": 4441,
      "ĠalanÄ±": 4442,
      "Ġhardest": 4443,
      "Ġclarity": 4444,
      "Ġautomatically": 4445,
      "Ġwindow": 4446,
      "Ġrequires": 4447,
      "Ġmemory": 4448,
      "ĠYatmadan": 4449,
      "Ġshoot": 4450,
      "Ġroute": 4451,
      "-impact": 4452,
      "Ġzamanda": 4453,
      "air": 4454,
      "fÄ±r": 4455,
      "ion": 4456,
      "ub": 4457,
      "Ġcha": 4458,
      "ram": 4459,
      "temp": 4460,
      "heck": 4461,
      "lene": 4462,
      "ĠiliÅŁ": 4463,
      "hand": 4464,
      "Ġbeen": 4465,
      "kim": 4466,
      "lanan": 4467,
      "Ġsosyal": 4468,
      "ĠanlÄ±k": 4469,
      "ĠkÄ±sÄ±": 4470,
      "ĠGÃ¶z": 4471,
      "ĠÄ°ÅŁ": 4472,
      "Ġyapabilirsiniz": 4473,
      "Ġvisi": 4474,
      "ats": 4475,
      "dibly": 4476,
      "101": 4477,
      "Ġcommon": 4478,
      "Ä±klÄ±": 4479,
      "Ġboz": 4480,
      "Ġetkin": 4481,
      "ÄŁÄ±nda": 4482,
      "ĠiÅŁler": 4483,
      "Ġsaatini": 4484,
      "lemeye": 4485,
      "Ġkurmak": 4486,
      "ĠSaat": 4487,
      "reading": 4488,
      "Ġbelirleyip": 4489,
      "Ġkindness": 4490,
      "ĠkoÅŁul": 4491,
      "'a": 4492,
      "ost": 4493,
      "rken": 4494,
      "Ã¼ven": 4495,
      "uling": 4496,
      "Ġcol": 4497,
      "ĠBÃ¼yÃ¼k": 4498,
      "uming": 4499,
      "Ġinsan": 4500,
      "karak": 4501,
      "Ġchallen": 4502,
      "Ġfriction": 4503,
      "ĠUz": 4504,
      "124": 4505,
      "183": 4506,
      "607": 4507,
      "layan": 4508,
      "Ġexpecting": 4509,
      "Ġodaklanarak": 4510,
      "ĠkiÅŁiye": 4511,
      "Ġtamamla": 4512,
      "âĢĵ": 4513,
      "Ġtane": 4514,
      "ĠgeÃ§irin": 4515,
      "Ġideal": 4516,
      "valtÄ±": 4517,
      "Ġsurfaces": 4518,
      "Ġincredibly": 4519,
      "ĠbÃ¼tÃ§": 4520,
      "Ġsolve": 4521,
      "Ġdemanding": 4522,
      "Ġblack": 4523,
      "ĠsÃ¼ren": 4524,
      "Ġsticking": 4525,
      "cheduling": 4526,
      "-t": 4527,
      "340": 4528,
      "Sa": 4529,
      "back": 4530,
      "zet": 4531,
      "ĠÃ¼Ã§": 4532,
      "Ġcues": 4533,
      "tiÅŁ": 4534,
      "Ġconstantly": 4535,
      "ĠTV": 4536,
      "Ġfact": 4537,
      "Ġexample": 4538,
      "haz": 4539,
      "ĠBi": 4540,
      "ĠGÃ¶": 4541,
      "Ġpracticing": 4542,
      "ĠyapÄ±p": 4543,
      "ĠCheck": 4544,
      "dian": 4545,
      "ĠplanÄ±nÄ±zÄ±": 4546,
      "cadian": 4547,
      "123": 4548,
      "181": 4549,
      "Ġetki": 4550,
      "ĠÃ§ekecek": 4551,
      "ĠaydÄ±": 4552,
      "ĠFotoÄŁraf": 4553,
      "unuza": 4554,
      "Ġscrolling": 4555,
      "Ġister": 4556,
      "Ġilerlemek": 4557,
      "Ġconnect": 4558,
      "Ġcalming": 4559,
      "Ġemail": 4560,
      "Ġkesin": 4561,
      "Ġcircadian": 4562,
      "Ġaiming": 4563,
      "Ġshift": 4564,
      "'le": 4565,
      ")**": 4566,
      "01": 4567,
      "65": 4568,
      "zerv": 4569,
      "ontane": 4570,
      "Ġsend": 4571,
      "Ġslot": 4572,
      "Ġprote": 4573,
      "Ġins": 4574,
      "Ġinstantly": 4575,
      "Ġkas": 4576,
      "Ġrezerv": 4577,
      "Ġdemek": 4578,
      "ĠbaÅŁlÄ±": 4579,
      "Ġisn": 4580,
      "Ġquit": 4581,
      "atching": 4582,
      "ĠistiyorsanÄ±z": 4583,
      "Ġspontane": 4584,
      "Ġbeforehand": 4585,
      "Ġattemp": 4586,
      "ĠÅŁunlarÄ±": 4587,
      "Ġalone": 4588,
      "135": 4589,
      "147": 4590,
      "185": 4591,
      "Ġbilet": 4592,
      "ĠgÃ¶revi": 4593,
      "Ġbeklen": 4594,
      "ĠBaÅŁarÄ±": 4595,
      "Ġlarger": 4596,
      "Ġplacing": 4597,
      "ĠkolaylaÅŁtÄ±rÄ±r": 4598,
      "ĠJust": 4599,
      "Ġdisconnect": 4600,
      "Ġwebsi": 4601,
      "Ġencourage": 4602,
      "ĠdavranÄ±ÅŁ": 4603,
      "Ġmisunderstand": 4604,
      "03": 4605,
      "arate": 4606,
      "ses": 4607,
      "Ġ\\": 4608,
      "ĠsÃ¶z": 4609,
      "Ġboring": 4610,
      "yÄ±m": 4611,
      "Ġotel": 4612,
      "Ġmight": 4613,
      "ĠÃ¶rnek": 4614,
      "Ġana": 4615,
      "Ġunder": 4616,
      "Ġyaparken": 4617,
      "Ġtired": 4618,
      "Ġru": 4619,
      "103": 4620,
      "134": 4621,
      "234": 4622,
      "Ġsure": 4623,
      "Ġspecial": 4624,
      "ĠyÃ¼rÃ¼yerek": 4625,
      "ĠyapÄ±l": 4626,
      "Ġtemizlik": 4627,
      "Ġmessages": 4628,
      "ĠayarlayÄ±n": 4629,
      "Ġvisit": 4630,
      "ĠolduÄŁundan": 4631,
      "Ġharder": 4632,
      "Ġvalue": 4633,
      "Ġaccommodations": 4634,
      "Ġpurpose": 4635,
      "Ġtools": 4636,
      "BugÃ¼n": 4637,
      "Ġada": 4638,
      "Ġscheduling": 4639,
      "Ġtat": 4640,
      "ĠkÃ¼tÃ¼phan": 4641,
      "ĠbirleÅŁ": 4642,
      "ĠbaÅŁa": 4643,
      "Ä°lk": 4644,
      "Ġyapmadan": 4645,
      "ĠPut": 4646,
      "Ġva": 4647,
      "Ġlook": 4648,
      "Ġsleeping": 4649,
      "285": 4650,
      "140": 4651,
      "sik": 4652,
      "Ġkendini": 4653,
      "ĠFor": 4654,
      "111": 4655,
      "ĠkullanÄ±mÄ±": 4656,
      "ĠiÅŁaret": 4657,
      "Ġkoyun": 4658,
      "Ġdijital": 4659,
      "ĠsÃ¼rede": 4660,
      "Ġaraz": 4661,
      "ĠSabahlarÄ±": 4662,
      "Ġyatak": 4663,
      "leÅŁtirmek": 4664,
      "ĠÃĩalÄ±ÅŁ": 4665,
      "ĠuygulamasÄ±": 4666,
      "dÄ±ÄŁÄ±nÄ±zda": 4667,
      "Ġcomb": 4668,
      "Ġallows": 4669,
      "Ġincluding": 4670,
      "Ġtransportation": 4671,
      "Ġwhether": 4672,
      "Ġpush": 4673,
      "Ġpushes": 4674,
      "Ġuyuyun": 4675,
      "Ġrezervasyon": 4676,
      "447": 4677,
      "fer": 4678,
      "lul": 4679,
      "yes": 4680,
      "ties": 4681,
      "Ġtell": 4682,
      "Ġhead": 4683,
      "ĠTek": 4684,
      "lak": 4685,
      "Ġeks": 4686,
      "liÄŁini": 4687,
      "ĠMaps": 4688,
      "Ġkonum": 4689,
      "ĠsatÄ±n": 4690,
      "Ġrushing": 4691,
      "Ġjo": 4692,
      "202": 4693,
      "205": 4694,
      "vik": 4695,
      "ĠkaldÄ±r": 4696,
      "184": 4697,
      "Ġlabel": 4698,
      "ĠhafÄ±z": 4699,
      "ĠÃ§Ä±kÄ±p": 4700,
      "Ġbilgileri": 4701,
      "Ġrahatla": 4702,
      "Ġgives": 4703,
      "Ġalternative": 4704,
      "348": 4705,
      "360": 4706,
      "615": 4707,
      "626": 4708,
      "bing": 4709,
      "ney": 4710,
      "rust": 4711,
      "uish": 4712,
      "onu": 4713,
      "inguish": 4714,
      "Ġtest": 4715,
      "ĠtaÅŁ": 4716,
      "Ġbunun": 4717,
      "Ġfill": 4718,
      "Ġfrust": 4719,
      "Ġodan": 4720,
      "Ġint": 4721,
      "Ġforcing": 4722,
      "ĠbaÅŁlamadan": 4723,
      "asÄ±nÄ±": 4724,
      "304": 4725,
      "182": 4726,
      "ĠseÃ§erek": 4727,
      "ĠÃ§alÄ±ÅŁmaya": 4728,
      "ĠodaklanmayÄ±": 4729,
      "ĠakÄ±ÅŁ": 4730,
      "ĠgeniÅŁ": 4731,
      "Ġdistinguish": 4732,
      "Ġflexibility": 4733,
      "ĠbakÄ±n": 4734,
      "Ġairline": 4735,
      "ĠgerÃ§ekten": 4736,
      "ĠÄ±ÅŁÄ±ÄŁÄ±na": 4737,
      "Ġclose": 4738,
      "ĠeÄŁlence": 4739,
      "Ġilerlemeyi": 4740,
      "Ġyarat": 4741,
      "Ġinteractions": 4742,
      "ĠÃ§evir": 4743,
      "Ġbalanced": 4744,
      "ĠkÄ±sm": 4745,
      "ĠteÅŁvik": 4746,
      "Ġcihaz": 4747,
      "02": 4748,
      "119": 4749,
      "311": 4750,
      "625": 4751,
      "must": 4752,
      "talÄ±k": 4753,
      "Ä±yorum": 4754,
      "Ġsn": 4755,
      "ulan": 4756,
      "ilmiÅŁ": 4757,
      "Ġeden": 4758,
      "ĠdaÄŁÄ±": 4759,
      "ĠÃ¶rneÄŁin": 4760,
      "Ġyapt": 4761,
      "Ġsafe": 4762,
      "tirir": 4763,
      "Ġvi": 4764,
      "adan": 4765,
      "Ġmasa": 4766,
      "iding": 4767,
      "Ġfeed": 4768,
      "Ġkalite": 4769,
      "122": 4770,
      "Ġsonuna": 4771,
      "Ġart": 4772,
      "199": 4773,
      "Ġetme": 4774,
      "olute": 4775,
      "ĠkullanÄ±lan": 4776,
      "lemesine": 4777,
      "Ġgener": 4778,
      "Ġgerekli": 4779,
      "Ġpreventing": 4780,
      "Ġappro": 4781,
      "ĠyapÄ±lan": 4782,
      "ĠbaÅŁlamaktÄ±r": 4783,
      "acaÄŁÄ±nÄ±zÄ±": 4784,
      "esign": 4785,
      "Ãĸnce": 4786,
      "ĠbahÃ§ede": 4787,
      "Ġdefensive": 4788,
      "ĠihtiyacÄ±nÄ±z": 4789,
      "Ġgider": 4790,
      "tirecek": 4791,
      "Ġseparate": 4792,
      "ĠfÄ±rsa": 4793,
      "Ġbitkiler": 4794,
      "ĠtanÄ±ÅŁacak": 4795,
      "ĠdeÄŁiÅŁiklik": 4796,
      "Ġblok": 4797,
      "Ġabsolute": 4798,
      "446": 4799,
      "548": 4800,
      "532": 4801,
      "St": 4802,
      "gid": 4803,
      "mini": 4804,
      "Ä±yorsanÄ±z": 4805,
      "Ġcatch": 4806,
      "aliz": 4807,
      "arlÄ±": 4808,
      "Ġwatching": 4809,
      "Ġstabil": 4810,
      "ĠanÄ±nda": 4811,
      "ĠuÃ§": 4812,
      "Ġmeal": 4813,
      "uggage": 4814,
      "cent": 4815,
      "Ġhata": 4816,
      "lÄ±ÅŁ": 4817,
      "ason": 4818,
      "ĠbaÅŁlatÄ±n": 4819,
      "Ġseem": 4820,
      "ĠyoÄŁun": 4821,
      "ayan": 4822,
      "ĠalmayÄ±": 4823,
      "281": 4824,
      "608": 4825,
      "Ġokuyun": 4826,
      "Ġdurumda": 4827,
      "ĠduÅŁ": 4828,
      "ĠÅŁeyleri": 4829,
      "ĠayÄ±rd": 4830,
      "ĠÃ¶nemlidir": 4831,
      "ĠyapÄ±yor": 4832,
      "Ġsonucu": 4833,
      "ĠkapatÄ±p": 4834,
      "Ġaccum": 4835,
      "Ġseviyenizi": 4836,
      "ĠÄ±lÄ±k": 4837,
      "ĠResim": 4838,
      "ĠgÃ¶nderin": 4839,
      "Ġengel": 4840,
      "Ġexchange": 4841,
      "Ġplatform": 4842,
      "ĠClear": 4843,
      "Ġvisible": 4844,
      "-ins": 4845,
      "322": 4846,
      "547": 4847,
      "629": 4848,
      "tÃ¼": 4849,
      "Ã¢": 4850,
      "Ġgest": 4851,
      "Ġmid": 4852,
      "Ġdim": 4853,
      "yat": 4854,
      "Ġsolu": 4855,
      "Ġanlamak": 4856,
      "ĠbaÅŁar": 4857,
      "ĠbaÅŁÄ±nda": 4858,
      "ĠgÃ¼nkÃ¼": 4859,
      "ĠMart": 4860,
      "imit": 4861,
      "ĠdeÄŁildir": 4862,
      "Ã¼zel": 4863,
      "ĠyazÄ±n": 4864,
      "Ġluggage": 4865,
      "204": 4866,
      "305": 4867,
      "vite": 4868,
      "235": 4869,
      "247": 4870,
      "404": 4871,
      "Ġgidi": 4872,
      "Ġkullanmaya": 4873,
      "ĠpiÅŁiriyor": 4874,
      "Ġbilim": 4875,
      "Ġcommitting": 4876,
      "Ġlonger": 4877,
      "Ġgrab": 4878,
      "Ġcurtain": 4879,
      "Ġdesire": 4880,
      "Ġkelimeleri": 4881,
      "Ġmisiniz": 4882,
      "ĠbaÄŁlÄ±": 4883,
      "ĠÅŀimdi": 4884,
      "Ġmultitas": 4885,
      "ĠyavaÅŁÃ§a": 4886,
      "Ġinteraction": 4887,
      "Ġharekete": 4888,
      "Ġperiods": 4889,
      "ĠNumara": 4890,
      "Ġattractions": 4891,
      "Ġteaching": 4892,
      "Ġblackout": 4893,
      "Ġvague": 4894,
      "ayÄ±n": 4895,
      "fen": 4896,
      "Ġty": 4897,
      "Ġton": 4898,
      "ĠtÃ¼k": 4899,
      "Ġcontrol": 4900,
      "hed": 4901,
      "ullan": 4902,
      "ultane": 4903,
      "matik": 4904,
      "onel": 4905,
      "Ġreco": 4906,
      "ĠMerhaba": 4907,
      "ĠHÄ±zlÄ±": 4908,
      "284": 4909,
      "ĠkalÄ±n": 4910,
      "131": 4911,
      "233": 4912,
      "Ġsuya": 4913,
      "ificant": 4914,
      "Ġcevab": 4915,
      "ĠiletiÅŁimi": 4916,
      "manÄ±za": 4917,
      "Ġrigid": 4918,
      "Ġfaster": 4919,
      "ĠgÃ¶rsel": 4920,
      "ĠtÃ¼rÃ¼": 4921,
      "ĠyapÄ±lacak": 4922,
      "Ġsign": 4923,
      "ĠsorunlarÄ±": 4924,
      "Ġsignals": 4925,
      "Ġrelations": 4926,
      "Ġshowing": 4927,
      "ĠazaltÄ±r": 4928,
      "Ġbitki": 4929,
      "Ġexpressing": 4930,
      "Ġkork": 4931,
      "ĠÃ§izim": 4932,
      "Ġpriorities": 4933,
      "Ġtarz": 4934,
      "ĠmantÄ±klÄ±": 4935,
      "Ġmeditation": 4936,
      "ĠaltÄ±nda": 4937,
      "ĠaydÄ±rdÄ±": 4938,
      "ultaneously": 4939,
      "'dan": 4940,
      "211": 4941,
      "440": 4942,
      "448": 4943,
      "439": 4944,
      "617": 4945,
      "616": 4946,
      "627": 4947,
      "637": 4948,
      "gen": 4949,
      "sity": 4950,
      "Ġ'": 4951,
      "Ġahe": 4952,
      "Ġcity": 4953,
      "Ġpat": 4954,
      "Ġtough": 4955,
      "lediÄŁiniz": 4956,
      "dak": 4957,
      "Ġfun": 4958,
      "Ġedecek": 4959,
      "Ġmy": 4960,
      "Ġbeyn": 4961,
      "iness": 4962,
      "ics": 4963,
      "ĠLimit": 4964,
      "ĠkaÃ§Ä±n": 4965,
      "efore": 4966,
      "Ġvade": 4967,
      "Ġaccess": 4968,
      "Ġchar": 4969,
      "177": 4970,
      "Ä±ÅŁtÄ±r": 4971,
      "Ġhedefinizi": 4972,
      "Ġlistener": 4973,
      "Ġdimming": 4974,
      "com": 4975,
      "Ġschedules": 4976,
      "ĠyÃ¶net": 4977,
      "ĠalanlarÄ±": 4978,
      "ĠsÄ±ra": 4979,
      "ĠhazÄ±rlayÄ±n": 4980,
      "ĠyÃ¼rÃ¼me": 4981,
      "ĠseÃ§ene": 4982,
      "landÄ±ÄŁÄ±nÄ±z": 4983,
      "Ġsimultaneously": 4984,
      "Ġassuming": 4985,
      "Ġinitial": 4986,
      "Ġyorgunlu": 4987,
      "Ġswitching": 4988,
      "ĠeÅŁyalar": 4989,
      "Ġsnack": 4990,
      "esignate": 4991,
      "Ġrelationship": 4992,
      "Ġahead": 4993,
      "522": 4994,
      "540": 4995,
      "539": 4996,
      "614": 4997,
      "624": 4998,
      "KÃ¼Ã§Ã¼k": 4999,
      "tÃ¼r": 5000,
      "yen": 5001,
      "Ġkol": 5002,
      "Ġyum": 5003,
      "Ġidentif": 5004,
      "Ġcover": 5005,
      "ĠYaz": 5006,
      "laka": 5007,
      "Ġemer": 5008,
      "ÄŁinden": 5009,
      "unlu": 5010,
      "Ġzek": 5011,
      "Ġolup": 5012,
      "Ġyapay": 5013,
      "Ġresist": 5014,
      "ĠÃ§ay": 5015,
      "Ġnumber": 5016,
      "Ġmeeting": 5017,
      "282": 5018,
      "Ġkali": 5019,
      "148": 5020,
      "Ġnod": 5021,
      "ĠseÃ§im": 5022,
      "Ġupda": 5023,
      "484": 5024,
      "502": 5025,
      "Ġhedefi": 5026,
      "Ġuykuya": 5027,
      "-post": 5028,
      "Ġactionable": 5029,
      "Ġizleyin": 5030,
      "Ġstops": 5031,
      "Ã¼tfen": 5032,
      "Ä±lÄ±r": 5033,
      "Ġunutma": 5034,
      "ĠgiriÅŁ": 5035,
      "Ġdefining": 5036,
      "ĠÃ§ekiyor": 5037,
      "Ġmetin": 5038,
      "Ġmutlaka": 5039,
      "Ġswitch": 5040,
      "Ġmesafe": 5041,
      "member": 5042,
      "Ġfayd": 5043,
      "Ġfeedback": 5044,
      "Start": 5045,
      "Ġidentifying": 5046,
      "-reading": 5047,
      "racak": 5048,
      "rated": 5049,
      "met": 5050,
      "isel": 5051,
      "ĠSpend": 5052,
      "Ġdrain": 5053,
      "ĠAÄŁ": 5054,
      "abilirim": 5055,
      "ĠÄ°ki": 5056,
      "Ġkonular": 5057,
      "leriniz": 5058,
      "Ġacross": 5059,
      "Ġrates": 5060,
      "301": 5061,
      "283": 5062,
      "Ġroutines": 5063,
      "Ġdilin": 5064,
      "Ġtutarak": 5065,
      "485": 5066,
      "606": 5067,
      "tÄ±p": 5068,
      "ĠalÄ±ÅŁkanlÄ±": 5069,
      "uzu": 5070,
      "ĠkonuÅŁmayÄ±": 5071,
      "Ġtelefonunuzu": 5072,
      "Ġdeneyebilirsiniz": 5073,
      "ĠdÃ¼ÅŁÃ¼nce": 5074,
      "Ġrepeat": 5075,
      "Ġpartner": 5076,
      "Ġturn": 5077,
      "Ġcloset": 5078,
      "ĠeÄŁiti": 5079,
      "Ġskills": 5080,
      "Ġintensity": 5081,
      "Ġcramming": 5082,
      "Ġayak": 5083,
      "Ġstratej": 5084,
      "Ġtesting": 5085,
      "Ġsecure": 5086,
      "Ġlittle": 5087,
      "ĠBiraz": 5088,
      "Ġeksik": 5089,
      "Ġcurtains": 5090,
      "Ġsignificant": 5091,
      "460": 5092,
      "559": 5093,
      "630": 5094,
      "hil": 5095,
      "ially": 5096,
      "lus": 5097,
      "pr": 5098,
      "ups": 5099,
      "Ġself": 5100,
      "Ġprofe": 5101,
      "cessible": 5102,
      "syonel": 5103,
      "lation": 5104,
      "masÄ±na": 5105,
      "lip": 5106,
      "Ġanlama": 5107,
      "Ġbaz": 5108,
      "Ġkonfor": 5109,
      "Ġsite": 5110,
      "Ġspor": 5111,
      "ksel": 5112,
      "302": 5113,
      "ĠÃ¶ncesi": 5114,
      "tarak": 5115,
      "Ġsub": 5116,
      "Ġexc": 5117,
      "ĠfotoÄŁrafÃ§": 5118,
      "Ġdili": 5119,
      "504": 5120,
      "ĠkullanmaktÄ±r": 5121,
      "ĠdoÄŁa": 5122,
      "Ġkayda": 5123,
      "ĠolduÄŁun": 5124,
      "ĠgeÃ§mek": 5125,
      "kincisi": 5126,
      "pecially": 5127,
      "ĠseÃ§mektir": 5128,
      "ĠazaltÄ±n": 5129,
      "Ġinterruptions": 5130,
      "Ġaccount": 5131,
      "Ġespecially": 5132,
      "-second": 5133,
      "Ġduygular": 5134,
      "Ġspending": 5135,
      "Ġmakinesi": 5136,
      "ĠdÃ¶nÃ¼ÅŁ": 5137,
      "Ġevents": 5138,
      "ĠkaÄŁÄ±t": 5139,
      "Ġkaydedin": 5140,
      "ĠyazÄ±lÄ±m": 5141,
      "ĠUzun": 5142,
      "Ġmisunderstandings": 5143,
      "Ġprofesyonel": 5144,
      "-se": 5145,
      "419": 5146,
      "557": 5147,
      "620": 5148,
      "613": 5149,
      "Bir": 5150,
      "uÄŁ": 5151,
      "urarak": 5152,
      "Ãĩ": 5153,
      "Ġsound": 5154,
      "Ġtone": 5155,
      "Ġproj": 5156,
      "lent": 5157,
      "usted": 5158,
      "Ġfit": 5159,
      "esinde": 5160,
      "unting": 5161,
      "Ġmar": 5162,
      "Ġdata": 5163,
      "Ġdaunting": 5164,
      "Ġremember": 5165,
      "Ġvererek": 5166,
      "Ġyapar": 5167,
      "303": 5168,
      "Ġgoes": 5169,
      "139": 5170,
      "232": 5171,
      "Ġyeri": 5172,
      "bies": 5173,
      "334": 5174,
      "335": 5175,
      "ĠÃ§ekin": 5176,
      "605": 5177,
      "ĠBirkaÃ§": 5178,
      "ctron": 5179,
      "ĠgÃ¼nÃ¼nÃ¼": 5180,
      "ĠkarÅŁÄ±lÄ±k": 5181,
      "Ġdeciding": 5182,
      "ĠhÄ±zlÄ±ca": 5183,
      "Ġdrink": 5184,
      "Ġstretch": 5185,
      "Ġaccus": 5186,
      "phones": 5187,
      "ĠyÃ¼ksek": 5188,
      "Ġortamda": 5189,
      "Ġlimits": 5190,
      "Ġemails": 5191,
      "ĠsaÄŁlÄ±klÄ±": 5192,
      "Ġcalls": 5193,
      "Ġslowly": 5194,
      "ĠHabit": 5195,
      "Ġsentences": 5196,
      "ĠBelirli": 5197,
      "Ġamount": 5198,
      "Ġcorner": 5199,
      "Ġbarrier": 5200,
      "Ġdeparture": 5201,
      "438": 5202,
      "gul": 5203,
      "Ġtreat": 5204,
      "Ġbunlar": 5205,
      "heet": 5206,
      "Ġfil": 5207,
      "ĠayÄ±rarak": 5208,
      "ĠuÄŁ": 5209,
      "Ġhon": 5210,
      "Ġharika": 5211,
      "ĠMayÄ±": 5212,
      "alÄ±r": 5213,
      "Ġveril": 5214,
      "kay": 5215,
      "ĠPM": 5216,
      "asit": 5217,
      "ĠbuluÅŁma": 5218,
      "ĠHaya": 5219,
      "ature": 5220,
      "Ġaccessible": 5221,
      "Ġplanner": 5222,
      "201": 5223,
      "Ġalt": 5224,
      "Ġtraveling": 5225,
      "ĠeÅŁyadÄ±r": 5226,
      "Ġbelirti": 5227,
      "ĠyÃ¼zmeye": 5228,
      "197": 5229,
      "ĠseÃ§imi": 5230,
      "Ġunne": 5231,
      "585": 5232,
      "ĠBirlikte": 5233,
      "ĠsÃ¼rekli": 5234,
      "ĠsaÄŁlam": 5235,
      "ĠgeÃ§iÅŁ": 5236,
      "Ġitineraries": 5237,
      "Ġetmektir": 5238,
      "Ġharca": 5239,
      "Ġcuri": 5240,
      "Ġvalu": 5241,
      "Ġinceleyin": 5242,
      "Ġhobbies": 5243,
      "Ġshelves": 5244,
      "ĠHaftanÄ±n": 5245,
      "ĠBaÅŁlangÄ±Ã§ta": 5246,
      "Ġziyade": 5247,
      "Ġexplaining": 5248,
      "Ġdinlenme": 5249,
      "Ġileride": 5250,
      "Ġelectron": 5251,
      "Ġprotect": 5252,
      "-tas": 5253,
      "519": 5254,
      "546": 5255,
      "Do": 5256,
      "work": 5257,
      "infor": 5258,
      "Ġstim": 5259,
      "Ġconstant": 5260,
      "Ġken": 5261,
      "Ġnaz": 5262,
      "leÅŁim": 5263,
      "duk": 5264,
      "sted": 5265,
      "lig": 5266,
      "riority": 5267,
      "Ġreinfor": 5268,
      "ĠayÄ±rdÄ±ÄŁÄ±": 5269,
      "Ġspark": 5270,
      "Ġolaca": 5271,
      "Ġlearned": 5272,
      "231": 5273,
      "ĠKÄ±sa": 5274,
      "lenen": 5275,
      "Ġlabe": 5276,
      "ĠkullanÄ±m": 5277,
      "604": 5278,
      "Ġcompleted": 5279,
      "Ġistey": 5280,
      "ĠbaÅŁlangÄ±Ã§ta": 5281,
      "Ġridic": 5282,
      "Ġdenge": 5283,
      "ĠkonuÅŁmaya": 5284,
      "ĠdÃ¼zeninizi": 5285,
      "Ġphysically": 5286,
      "ldur": 5287,
      "ĠtemizliÄŁi": 5288,
      "menizdir": 5289,
      "Ġbakarak": 5290,
      "Ġkelimeyi": 5291,
      "Ġbookings": 5292,
      "acaÄŁÄ±m": 5293,
      "ĠuygulamasÄ±nÄ±": 5294,
      "Ġdrives": 5295,
      "Ġconcepts": 5296,
      "ĠpaylaÅŁÄ±n": 5297,
      "Ġplaces": 5298,
      "Ġdrawers": 5299,
      "ĠzorluklarÄ±": 5300,
      "Ġtelefonunuzun": 5301,
      "ĠyanlÄ±ÅŁ": 5302,
      "Ġpicking": 5303,
      "Ġavailability": 5304,
      "Ġadap": 5305,
      "Ġdefensiveness": 5306,
      "Ġstabilize": 5307,
      "Ġlabeled": 5308,
      "Ġridicul": 5309,
      "538": 5310,
      "558": 5311,
      "610": 5312,
      "Ben": 5313,
      "GÃ¼n": 5314,
      "Set": 5315,
      "eli": 5316,
      "sÄ±nÄ±n": 5317,
      "Ġbis": 5318,
      "Ġban": 5319,
      "Ġyi": 5320,
      "ĠDil": 5321,
      "Ġwon": 5322,
      "Ġwil": 5323,
      "lpower": 5324,
      "liyor": 5325,
      "Ġanaliz": 5326,
      "ĠadÄ±mÄ±n": 5327,
      "ĠbaÅŁtan": 5328,
      "sÄ±l": 5329,
      "ĠolmanÄ±z": 5330,
      "Ġvermek": 5331,
      "Ġrun": 5332,
      "Ġistiyor": 5333,
      "157": 5334,
      "Ġkalma": 5335,
      "biliriz": 5336,
      "248": 5337,
      "160": 5338,
      "ĠyÃ¼ze": 5339,
      "Ġphra": 5340,
      "405": 5341,
      "unuzun": 5342,
      "laÅŁma": 5343,
      "Ġkayb": 5344,
      "Ġafterward": 5345,
      "ĠGÃ¼neÅŁ": 5346,
      "-priority": 5347,
      "ĠolmadÄ±ÄŁÄ±nÄ±": 5348,
      "Ġlocation": 5349,
      "ĠtamamlayÄ±n": 5350,
      "ĠÃ¶nÃ¼nde": 5351,
      "Ġparties": 5352,
      "ĠTeach": 5353,
      "Ġintense": 5354,
      "Ġziyaret": 5355,
      "Ġsebze": 5356,
      "Ġcontext": 5357,
      "Ġgestures": 5358,
      "Ġzeka": 5359,
      "-posta": 5360,
      "ĠMayÄ±s": 5361,
      "'nda": 5362,
      "318": 5363,
      "628": 5364,
      "633": 5365,
      "Toplam": 5366,
      "hoto": 5367,
      "not": 5368,
      "yÃ¼z": 5369,
      "veriÅŁ": 5370,
      "Ġyes": 5371,
      "ĠDesignate": 5372,
      "Ġcore": 5373,
      "vet": 5374,
      "Ġflow": 5375,
      "ĠiÃ§eri": 5376,
      "ries": 5377,
      "nerek": 5378,
      "ĠbaÅŁlÄ±k": 5379,
      "Ġhayal": 5380,
      "ĠÃ¶nerisi": 5381,
      "ates": 5382,
      "tirerek": 5383,
      "Ġent": 5384,
      "Ġdoldur": 5385,
      "ĠOnce": 5386,
      "Ġloud": 5387,
      "150": 5388,
      "oci": 5389,
      "cast": 5390,
      "Ġworry": 5391,
      "Ġdille": 5392,
      "333": 5393,
      "221": 5394,
      "481": 5395,
      "505": 5396,
      "Ġhedefleyin": 5397,
      "384": 5398,
      "385": 5399,
      "Ġpati": 5400,
      "uyla": 5401,
      "347": 5402,
      "cture": 5403,
      "ĠsaÄŁlaya": 5404,
      "Ġduration": 5405,
      "ĠdÃ¼ÅŁÃ¼nd": 5406,
      "ĠkonuÅŁmalar": 5407,
      "alarÄ±nÄ±": 5408,
      "ĠFriends": 5409,
      "Ġbelirleye": 5410,
      "ĠolmalÄ±dÄ±r": 5411,
      "Ã¼ÄŁÃ¼nÃ¼z": 5412,
      "Ġlimit": 5413,
      "ĠkatÄ±l": 5414,
      "ĠHabits": 5415,
      "Ġarrive": 5416,
      "ĠÃ§iÃ§ek": 5417,
      "Ġrenk": 5418,
      "ĠuÄŁra": 5419,
      "Ġunnecessary": 5420,
      "Ġwillpower": 5421,
      "358": 5422,
      "450": 5423,
      "Use": 5424,
      "mut": 5425,
      "yeler": 5426,
      "Ġcab": 5427,
      "Ġtw": 5428,
      "arp": 5429,
      "Ġrece": 5430,
      "Ġrema": 5431,
      "ĠayÄ±rdÄ±ÄŁÄ±nÄ±": 5432,
      "Ġzones": 5433,
      "ĠgÃ¼ne": 5434,
      "Ġhaven": 5435,
      "ĠÄ°Ã§": 5436,
      "Ġvoice": 5437,
      "Ġjump": 5438,
      "ackle": 5439,
      "Ġseti": 5440,
      "Ġseven": 5441,
      "Ä±nÄ±zla": 5442,
      "158": 5443,
      "240": 5444,
      "168": 5445,
      "leyici": 5446,
      "Ġbahset": 5447,
      "331": 5448,
      "332": 5449,
      "222": 5450,
      "402": 5451,
      "Ġcompletion": 5452,
      "482": 5453,
      "501": 5454,
      "most": 5455,
      "ĠÃ§alÄ±ÅŁmayÄ±": 5456,
      "ĠazalÄ±r": 5457,
      "Ġunderstands": 5458,
      "Ġelinizdeki": 5459,
      "Ġjourney": 5460,
      "Ä±lmÄ±ÅŁ": 5461,
      "ĠChange": 5462,
      "ĠgÃ¶revlerinizi": 5463,
      "Ġspots": 5464,
      "ĠgerÃ§ekÃ§i": 5465,
      "ĠdetaylarÄ±": 5466,
      "ĠulaÅŁÄ±labilir": 5467,
      "Ġoblig": 5468,
      "sues": 5469,
      "Ġassoci": 5470,
      "Ġduygusal": 5471,
      "Ġaccomplishment": 5472,
      "Ġgitmek": 5473,
      "Ġroutes": 5474,
      "tÄ±racak": 5475,
      "Ġsince": 5476,
      "Ġreacting": 5477,
      "Ġisterseniz": 5478,
      "Ġhyd": 5479,
      "Ġmultitasking": 5480,
      "Ġnazik": 5481,
      "319": 5482,
      "350": 5483,
      "518": 5484,
      "550": 5485,
      "545": 5486,
      "636": 5487,
      "know": 5488,
      "ser": 5489,
      "sus": 5490,
      "yg": 5491,
      "ĠÃ¼re": 5492,
      "Ġali": 5493,
      "Ġaler": 5494,
      "Ä±sÄ±": 5495,
      "Ġpap": 5496,
      "Ġslight": 5497,
      "rada": 5498,
      "Ġkan": 5499,
      "Ġiba": 5500,
      "ÅŁe": 5501,
      "lamayÄ±": 5502,
      "Ġemp": 5503,
      "ĠBunun": 5504,
      "Ġbirbir": 5505,
      "Ġversus": 5506,
      "Ġissues": 5507,
      "Ġbulup": 5508,
      "Ġlez": 5509,
      "Ġfees": 5510,
      "ĠdÃ¼zelt": 5511,
      "Ġoverall": 5512,
      "Ġyerinizi": 5513,
      "267": 5514,
      "Ġupon": 5515,
      "483": 5516,
      "503": 5517,
      "unuzda": 5518,
      "601": 5519,
      "382": 5520,
      "584": 5521,
      "anÄ±p": 5522,
      "ĠodaklÄ±": 5523,
      "ĠÃ¶zg": 5524,
      "ĠoluÅŁtu": 5525,
      "Ġspaced": 5526,
      "ĠduyduÄŁ": 5527,
      "ĠkiÅŁisel": 5528,
      "Ġkonuya": 5529,
      "Ġboundary": 5530,
      "enses": 5531,
      "'nin": 5532,
      "ĠgÃ¶sterin": 5533,
      "ĠyaptÄ±ÄŁÄ±nÄ±z": 5534,
      "ĠHafta": 5535,
      "ĠyaÅŁayan": 5536,
      "dÄ±ÄŁÄ±nda": 5537,
      "Ġtemper": 5538,
      "Ġdeadline": 5539,
      "gÃ¼nlÃ¼k": 5540,
      "ĠdoÄŁrusu": 5541,
      "Ġminimize": 5542,
      "Ġsitu": 5543,
      "Ġhuzurlu": 5544,
      "ĠalÄ±ÅŁveriÅŁ": 5545,
      "ĠaydÄ±nlat": 5546,
      "Ġchores": 5547,
      "Ġinvolves": 5548,
      "Ġattempting": 5549,
      "Ġnodding": 5550,
      "Ġhonest": 5551,
      "Ġridiculously": 5552,
      "Ġcabin": 5553,
      "-ste": 5554,
      "218": 5555,
      "219": 5556,
      "556": 5557,
      "fak": 5558,
      "hte": 5559,
      "kward": 5560,
      "oga": 5561,
      "Ġassi": 5562,
      "erken": 5563,
      "ala": 5564,
      "Ġkil": 5565,
      "usunu": 5566,
      "sadece": 5567,
      "ĠDÃ¼z": 5568,
      "Ġokay": 5569,
      "ĠayÄ±nda": 5570,
      "kiyor": 5571,
      "Ġstoring": 5572,
      "ĠAyÄ±": 5573,
      "Ġsoon": 5574,
      "Ġdele": 5575,
      "Ġorder": 5576,
      "lerken": 5577,
      "Ġmeetings": 5578,
      "malarÄ±": 5579,
      "ĠyetiÅŁ": 5580,
      "ĠÃ¶ÄŁr": 5581,
      "tadÄ±r": 5582,
      "Ġtrash": 5583,
      "Ġgez": 5584,
      "Ġstepping": 5585,
      "401": 5586,
      "403": 5587,
      "ĠkolayÄ±": 5588,
      "370": 5589,
      "Ġpair": 5590,
      "Ġdeeper": 5591,
      "ĠgeÃ§in": 5592,
      "Ġopini": 5593,
      "Ġlog": 5594,
      "Ġolabilirim": 5595,
      "ĠkahvaltÄ±": 5596,
      "Ġderinlemesine": 5597,
      "ĠulaÅŁÄ±m": 5598,
      "Ġclarify": 5599,
      "Ġpiles": 5600,
      "ĠÃ¶ncelikli": 5601,
      "Ġcategory": 5602,
      "Ġawkward": 5603,
      "ĠgerektiÄŁini": 5604,
      "Â°F": 5605,
      "Ġcontinue": 5606,
      "Ġexpectations": 5607,
      "Ġyolculuk": 5608,
      "Ġruh": 5609,
      "Ġbisik": 5610,
      "Ġentry": 5611,
      "Ġibaret": 5612,
      "Ġcabinet": 5613,
      "422": 5614,
      "458": 5615,
      "432": 5616,
      "67": 5617,
      "Pair": 5618,
      "lmÄ±ÅŁ": 5619,
      "titu": 5620,
      "ĠsÄ±r": 5621,
      "Ġtab": 5622,
      "Ġprep": 5623,
      "radan": 5624,
      "Ġyu": 5625,
      "irken": 5626,
      "ĠTackle": 5627,
      "ĠYeni": 5628,
      "ĠBefore": 5629,
      "Ġdahil": 5630,
      "umlu": 5631,
      "Ġbeats": 5632,
      "Ġstre": 5633,
      "ndeki": 5634,
      "rip": 5635,
      "Ġsoft": 5636,
      "Ġreally": 5637,
      "ĠkÄ±ya": 5638,
      "ĠadÄ±mdÄ±r": 5639,
      "Ġstru": 5640,
      "ĠMev": 5641,
      "lerinize": 5642,
      "Ġenga": 5643,
      "ĠnumaranÄ±z": 5644,
      "loj": 5645,
      "Ġyazar": 5646,
      "diÄŁin": 5647,
      "diÄŁini": 5648,
      "Ġmapping": 5649,
      "uture": 5650,
      "Ġtrusted": 5651,
      "179": 5652,
      "ient": 5653,
      "279": 5654,
      "ĠyÃ¼rÃ¼yÃ¼n": 5655,
      "383": 5656,
      "Ġpast": 5657,
      "andÄ±r": 5658,
      "Ġwhy": 5659,
      "470": 5660,
      "ĠhÄ±zlandÄ±r": 5661,
      "Ġhareketleri": 5662,
      "Ġhissetmeye": 5663,
      "ĠbÄ±rakÄ±p": 5664,
      "ĠKendinize": 5665,
      "Ġalacak": 5666,
      "ducing": 5667,
      "phra": 5668,
      "Ġtelefonunuzda": 5669,
      "Ġobject": 5670,
      "Ġuygulamaya": 5671,
      "ĠkolaylaÅŁtÄ±rmak": 5672,
      "ĠÃ¶nceliklendir": 5673,
      "Ġguide": 5674,
      "Ġtempt": 5675,
      "ĠsÃ¶yle": 5676,
      "Ġawake": 5677,
      "ĠsÃ¼reÃ§te": 5678,
      "Ġgerekiyor": 5679,
      "Ġspontaneous": 5680,
      "Ġapproach": 5681,
      "ĠHayat": 5682,
      "Ġslightly": 5683,
      "Ġtemperature": 5684,
      "418": 5685,
      "411": 5686,
      "560": 5687,
      "531": 5688,
      "ben": 5689,
      "cc": 5690,
      "gest": 5691,
      "mb": 5692,
      "erti": 5693,
      "syon": 5694,
      "lasik": 5695,
      "Ġga": 5696,
      "Ġgreat": 5697,
      "Ġocc": 5698,
      "ĠBah": 5699,
      "Ġinv": 5700,
      "Ġbecer": 5701,
      "Ġdes": 5702,
      "Ġhang": 5703,
      "ĠÄ°l": 5704,
      "**,": 5705,
      "Ġyazmak": 5706,
      "Ġacknow": 5707,
      "Ġplanlamak": 5708,
      "ksiniz": 5709,
      "159": 5710,
      "check": 5711,
      "339": 5712,
      "ĠkullanÄ±l": 5713,
      "603": 5714,
      "581": 5715,
      "582": 5716,
      "583": 5717,
      "357": 5718,
      "ĠbahÃ§eye": 5719,
      "Ġexpand": 5720,
      "477": 5721,
      "ĠolduÄŁunuzu": 5722,
      "Ġlowers": 5723,
      "468": 5724,
      "Ġdonate": 5725,
      "ĠaracÄ±": 5726,
      "ĠaraÅŁtÄ±r": 5727,
      "ĠgÃ¶rÃ¼": 5728,
      "Ġsorunun": 5729,
      "ĠnetleÅŁtirin": 5730,
      "Ġdiscu": 5731,
      "Ġhappy": 5732,
      "Ġproductivity": 5733,
      "ebilirim": 5734,
      "Ġwrong": 5735,
      "Ġcategories": 5736,
      "ront": 5737,
      "ĠÃ¶ÄŁleden": 5738,
      "ĠSÃ¼rekli": 5739,
      "Ġindirin": 5740,
      "ĠaÅŁama": 5741,
      "Ġleads": 5742,
      "Ġhareketi": 5743,
      "Ġsebz": 5744,
      "Ġparaphra": 5745,
      "Ġsefer": 5746,
      "ĠiliÅŁk": 5747,
      "ĠÃĩalÄ±ÅŁma": 5748,
      "79": 5749,
      "can": 5750,
      "micro": 5751,
      "ora": 5752,
      "ura": 5753,
      "Ġpower": 5754,
      "lamaya": 5755,
      "mam": 5756,
      "dÄ±ÄŁÄ±nÄ±zÄ±": 5757,
      "Ġfizi": 5758,
      "Ġfuture": 5759,
      "Ã¶yle": 5760,
      "Ġstra": 5761,
      "Ġkat": 5762,
      "ĠadÄ±mÄ±nÄ±": 5763,
      "larÄ±nÄ±n": 5764,
      "Ġdeals": 5765,
      "Ġhid": 5766,
      "ĠÄ°kincisi": 5767,
      "lÄ±yor": 5768,
      "ecause": 5769,
      "Ġresearch": 5770,
      "ĠÃ§ab": 5771,
      "Ġatarak": 5772,
      "257": 5773,
      "169": 5774,
      "evap": 5775,
      "Ġweekend": 5776,
      "602": 5777,
      "Ġoutcome": 5778,
      "layacak": 5779,
      "369": 5780,
      "Ġedil": 5781,
      "ĠkaydÄ±n": 5782,
      "Ġexpenses": 5783,
      "Ġgerekecek": 5784,
      "ysanÄ±z": 5785,
      "ĠÃ¶zen": 5786,
      "Ġdeneyerek": 5787,
      "902": 5788,
      "909": 5789,
      "Ġdinner": 5790,
      "709": 5791,
      "684": 5792,
      "687": 5793,
      "Ġnoktas": 5794,
      "Ġbelirlemektir": 5795,
      "âĢĶlike": 5796,
      "Ġgelir": 5797,
      "Ġoturup": 5798,
      "ÄŁaÃ§": 5799,
      "Ġswims": 5800,
      "ĠConsistent": 5801,
      "ĠkalÄ±cÄ±": 5802,
      "Ġdefteri": 5803,
      "Ġsearching": 5804,
      "Ġappointments": 5805,
      "ĠfaydalÄ±": 5806,
      "Ġengaging": 5807,
      "Ġhidden": 5808,
      "52": 5809,
      "Can": 5810,
      "ĠaÄŁaÃ§": 5811,
      "inking": 5812,
      "erin": 5813,
      "Ġbri": 5814,
      "Ġconcer": 5815,
      "dev": 5816,
      "alara": 5817,
      "Ġprovi": 5818,
      "ĠEat": 5819,
      "vest": 5820,
      "ÄŁru": 5821,
      "ĠBecause": 5822,
      "Ġinerti": 5823,
      "Ġbey": 5824,
      "Ġstating": 5825,
      "Ġreh": 5826,
      "Ġrele": 5827,
      "Ġkons": 5828,
      "ĠbaÅŁlamalÄ±sÄ±nÄ±z": 5829,
      "ĠÃ¶nerileri": 5830,
      "ĠOk": 5831,
      "Ġsat": 5832,
      "ider": 5833,
      "Ã¼ÅŁÃ¼n": 5834,
      "250": 5835,
      "259": 5836,
      "269": 5837,
      "larÄ±ndan": 5838,
      "Ġsormak": 5839,
      "Ġkitaplar": 5840,
      "tÄ±ÄŁÄ±nÄ±z": 5841,
      "tÄ±ÄŁÄ±nÄ±zda": 5842,
      "Ġsaatler": 5843,
      "359": 5844,
      "ĠsÃ¼resini": 5845,
      "804": 5846,
      "ĠolduÄŁuna": 5847,
      "397": 5848,
      "Ġmotivasyonu": 5849,
      "ĠGÃ¼ne": 5850,
      "Ġhiking": 5851,
      "Ġfinal": 5852,
      "Ġcommitment": 5853,
      "Ġdinlendir": 5854,
      "ĠyÃ¶ntemdir": 5855,
      "reads": 5856,
      "Ġtemizleyin": 5857,
      "Ġmessy": 5858,
      "ĠHarek": 5859,
      "984": 5860,
      "ĠbÃ¶lg": 5861,
      "ĠulaÅŁmak": 5862,
      "Ġegzersizi": 5863,
      "ĠhatÄ±rlat": 5864,
      "Ġincrease": 5865,
      "Ġcategorize": 5866,
      "Ġmesaf": 5867,
      "Ġmonths": 5868,
      "Ġappointment": 5869,
      "ĠTravel": 5870,
      "Sadece": 5871,
      "Ġslots": 5872,
      "Ġsolutions": 5873,
      "ĠyumuÅŁ": 5874,
      "Ġsignificantly": 5875,
      "-see": 5876,
      "Ġstructure": 5877,
      "Ġfiziksel": 5878,
      "Ġinertia": 5879,
      "623": 5880,
      "Create": 5881,
      "cÃ¼": 5882,
      "dil": 5883,
      "elim": 5884,
      "ral": 5885,
      "sal": 5886,
      "yer": 5887,
      "you": 5888,
      "ism": 5889,
      "ndle": 5890,
      "Ä±yÄ±": 5891,
      "Ġsil": 5892,
      "ounda": 5893,
      "alama": 5894,
      "dum": 5895,
      "ĠYap": 5896,
      "mayan": 5897,
      "Ġfounda": 5898,
      "Ġgather": 5899,
      "Ġgently": 5900,
      "ĠgÃ¼zel": 5901,
      "Ġdizi": 5902,
      "ĠbeÅŁ": 5903,
      "Ġretention": 5904,
      "Ġyayg": 5905,
      "ĠGÃ¼ven": 5906,
      "Ġdeli": 5907,
      "ined": 5908,
      "abilirsin": 5909,
      "Ġhit": 5910,
      "ĠÃ¶nerilir": 5911,
      "aten": 5912,
      "Ġbulmaya": 5913,
      "asons": 5914,
      "enize": 5915,
      "Ġyola": 5916,
      "138": 5917,
      "Ġkutudaki": 5918,
      "239": 5919,
      "ches": 5920,
      "Ġcancel": 5921,
      "167": 5922,
      "ĠKal": 5923,
      "Ġnoise": 5924,
      "Ġbitirin": 5925,
      "377": 5926,
      "381": 5927,
      "Ġimpul": 5928,
      "night": 5929,
      "Ġaktif": 5930,
      "Ġkurul": 5931,
      "Ġhissed": 5932,
      "569": 5933,
      "Ġilerleyin": 5934,
      "Ġpeak": 5935,
      "704": 5936,
      "706": 5937,
      "685": 5938,
      "Ġmuhte": 5939,
      "785": 5940,
      "983": 5941,
      "ĠsÄ±kÄ±cÄ±": 5942,
      "leÅŁtirerek": 5943,
      "ĠsÄ±caklÄ±": 5944,
      "ĠbaÅŁarÄ±lar": 5945,
      "larÄ±nÄ±zÄ±n": 5946,
      "Ġplanda": 5947,
      "Ġproductive": 5948,
      "Ġtension": 5949,
      "Ġexplain": 5950,
      "licit": 5951,
      "Ġconsci": 5952,
      "Ġsearch": 5953,
      "Ġsalat": 5954,
      "ĠbÃ¼tÃ§enizi": 5955,
      "Ġvadeli": 5956,
      "Ġupdates": 5957,
      "ĠkÄ±yafet": 5958,
      "ĠyaygÄ±n": 5959,
      "69": 5960,
      "One": 5961,
      "bal": 5962,
      "gage": 5963,
      "lÃ¼ÄŁ": 5964,
      "mis": 5965,
      "uol": 5966,
      "uval": 5967,
      "yken": 5968,
      "inci": 5969,
      "ani": 5970,
      "Ġport": 5971,
      "Ġtuval": 5972,
      "rev": 5973,
      "ĠbunlarÄ±": 5974,
      "melen": 5975,
      "Ġeat": 5976,
      "ÄŁunu": 5977,
      "ĠbeÄŁ": 5978,
      "ĠiÃ§erek": 5979,
      "Ġsomut": 5980,
      "Ġmekan": 5981,
      "ept": 5982,
      "ict": 5983,
      "Ġveriler": 5984,
      "Ġverilen": 5985,
      "ĠOne": 5986,
      "dio": 5987,
      "ĠKullan": 5988,
      "277": 5989,
      "Ġbitir": 5990,
      "pport": 5991,
      "198": 5992,
      "Ġkullanabilirsiniz": 5993,
      "Ġokuy": 5994,
      "ĠÃĸnceki": 5995,
      "367": 5996,
      "Ġworkday": 5997,
      "Ġpod": 5998,
      "800": 5999,
      "809": 6000,
      "Ġkuru": 6001,
      "399": 6002,
      "leÅŁtiri": 6003,
      "577": 6004,
      "Ġhisse": 6005,
      "ĠbaÅŁlayabilirsin": 6006,
      "Ġalana": 6007,
      "Ġbiggest": 6008,
      "901": 6009,
      "907": 6010,
      "908": 6011,
      "Ġsenary": 6012,
      "ĠyÃ¶ntemi": 6013,
      "ĠInvite": 6014,
      "686": 6015,
      "Ġconfus": 6016,
      "784": 6017,
      "986": 6018,
      "987": 6019,
      "Ġstopping": 6020,
      "Ġdeneyi": 6021,
      "Ġbehaviors": 6022,
      "ĠartÄ±rÄ±n": 6023,
      "Ġkoru": 6024,
      "Ġreaching": 6025,
      "Ġtarif": 6026,
      "-sleep": 6027,
      "ĠgÃ¼Ã§lÃ¼": 6028,
      "soli": 6029,
      "ĠmÃ¼mkÃ¼nse": 6030,
      "Ġintentional": 6031,
      "Ġvalidating": 6032,
      "ĠExp": 6033,
      "luluk": 6034,
      "Ġreinforce": 6035,
      "Ġjumping": 6036,
      "Ġbisiklet": 6037,
      ".'": 6038,
      "321": 6039,
      "431": 6040,
      "511": 6041,
      "521": 6042,
      "634": 6043,
      "ctions": 6044,
      "iyet": 6045,
      "isk": 6046,
      "Ä±lÄ±k": 6047,
      "ingo": 6048,
      "ĠEkim": 6049,
      "arg": 6050,
      "ene": 6051,
      "Ġeyes": 6052,
      "ĠBatch": 6053,
      "lict": 6054,
      "ĠiÃ§i": 6055,
      "ĠanÄ±": 6056,
      "Ġforget": 6057,
      "stac": 6058,
      "amili": 6059,
      "Ġnecessary": 6060,
      "Ã¼kem": 6061,
      "ĠyapabileceÄŁiniz": 6062,
      "ĠyazÄ±": 6063,
      "Ġlun": 6064,
      "app": 6065,
      "Ġalmost": 6066,
      "ĠÃ¶ÄŁÃ¼n": 6067,
      "170": 6068,
      "meni": 6069,
      "270": 6070,
      "ĠyÃ¼zey": 6071,
      "ĠyÃ¼rÃ¼yÃ¼ÅŁÃ¼": 6072,
      "Ġstead": 6073,
      "Ġoturum": 6074,
      "ĠFind": 6075,
      "cies": 6076,
      "ĠalÄ±r": 6077,
      "Ġhedefinize": 6078,
      "299": 6079,
      "Ġsaatlerinizi": 6080,
      "uyg": 6081,
      "Ġelinizde": 6082,
      "lemektir": 6083,
      "Ġarada": 6084,
      "ĠaÃ§Ä±p": 6085,
      "567": 6086,
      "ĠbaÅŁlayabilir": 6087,
      "Ġtemelini": 6088,
      "ĠtÃ¼rden": 6089,
      "903": 6090,
      "904": 6091,
      "905": 6092,
      "906": 6093,
      "ĠistediÄŁin": 6094,
      "701": 6095,
      "702": 6096,
      "703": 6097,
      "705": 6098,
      "707": 6099,
      "682": 6100,
      "689": 6101,
      "Ġconflict": 6102,
      "781": 6103,
      "783": 6104,
      "789": 6105,
      "ĠÃ§Ã¶zmek": 6106,
      "ayÄ±t": 6107,
      "Ġmix": 6108,
      "Ġcomput": 6109,
      "ĠgerÃ§ekleÅŁ": 6110,
      "larÄ±nÄ±zda": 6111,
      "Ġaccusing": 6112,
      "Ġobstac": 6113,
      "Ġpassively": 6114,
      "Ġanlamaya": 6115,
      "ĠuygulamalarÄ±": 6116,
      "Ġsitting": 6117,
      "ĠSoru": 6118,
      "Ġindirip": 6119,
      "ĠaÅŁaÄŁÄ±daki": 6120,
      "ĠhiÃ§bir": 6121,
      "ĠTrack": 6122,
      "ĠharitasÄ±": 6123,
      "Ġgrabbing": 6124,
      "Ġresistance": 6125,
      "Ġmaruz": 6126,
      "Ġsatis": 6127,
      "uolingo": 6128,
      "amiliar": 6129,
      "544": 6130,
      "Not": 6131,
      "Zaman": 6132,
      "aÄŁ": 6133,
      "card": 6134,
      "gre": 6135,
      "per": 6136,
      "isidir": 6137,
      "Ġsust": 6138,
      "Ġtuz": 6139,
      "ssing": 6140,
      "Ã¼me": 6141,
      "around": 6142,
      "Ġeyle": 6143,
      "Ġdro": 6144,
      "Ġyata": 6145,
      "maktadÄ±r": 6146,
      "Ġkonak": 6147,
      "ĠbaÅŁlamayÄ±": 6148,
      "Ġresmi": 6149,
      "acaktÄ±r": 6150,
      "ĠzamanÄ±nÄ±zÄ±": 6151,
      "Ġrot": 6152,
      "Ġyazma": 6153,
      "ustos": 6154,
      "ĠÃĸz": 6155,
      "178": 6156,
      "278": 6157,
      "Ġetmeniz": 6158,
      "298": 6159,
      "Ġkoyarak": 6160,
      "368": 6161,
      "Ġistek": 6162,
      "ĠÃ¶ÄŁrenmeyi": 6163,
      "803": 6164,
      "805": 6165,
      "808": 6166,
      "467": 6167,
      "457": 6168,
      "ĠÅŁeyin": 6169,
      "Ġpriority": 6170,
      "ĠayÄ±rt": 6171,
      "ĠÃ¶zellikle": 6172,
      "ĠhazÄ±rla": 6173,
      "ĠoluÅŁturur": 6174,
      "ĠduyduÄŁunuz": 6175,
      "786": 6176,
      "985": 6177,
      "Ġyatmak": 6178,
      "Ġbelirlemeniz": 6179,
      "Ġshows": 6180,
      "cept": 6181,
      "Ġrewarding": 6182,
      "Ġairlines": 6183,
      "leyecek": 6184,
      "osity": 6185,
      "Ġbulunan": 6186,
      "Ġbulunur": 6187,
      "Ġrelaxation": 6188,
      "Ġinceleyerek": 6189,
      "ĠÃ§ekim": 6190,
      "Ġinitially": 6191,
      "Ġenerjiyi": 6192,
      "ĠsaÄŁlayan": 6193,
      "ĠKonuÅŁ": 6194,
      "Ġrefle": 6195,
      "Ġdisrupt": 6196,
      "ĠvÃ¼cudunuzun": 6197,
      "kez": 6198,
      "ĠkÄ±sÄ±t": 6199,
      "Ġsending": 6200,
      "Ġlezzet": 6201,
      "titude": 6202,
      "Ġmuhtemelen": 6203,
      "'yla": 6204,
      "421": 6205,
      "445": 6206,
      "62": 6207,
      "622": 6208,
      "kÃ¼Ã§Ã¼k": 6209,
      "pause": 6210,
      "sim": 6211,
      "Ġadedi": 6212,
      "isin": 6213,
      "tiÄŁini": 6214,
      "Ġsunu": 6215,
      "Ġtenc": 6216,
      "ale": 6217,
      "ceed": 6218,
      "urance": 6219,
      "Ġcome": 6220,
      "ises": 6221,
      "ĠYoga": 6222,
      "Ġnotlar": 6223,
      "lav": 6224,
      "Ġfar": 6225,
      "Ġfore": 6226,
      "esine": 6227,
      "ÄŁÄ±nÄ±n": 6228,
      "ĠBugÃ¼n": 6229,
      "ĠBasit": 6230,
      "Ġstack": 6231,
      "Ġreducing": 6232,
      "start": 6233,
      "ĠbaÅŁÄ±nÄ±za": 6234,
      "ĠuyanÄ±p": 6235,
      "Ġonay": 6236,
      "ĠÃ§Ã¶": 6237,
      "Ġrus": 6238,
      "Ġwilling": 6239,
      "ĠplanÄ±nÄ±": 6240,
      "Ġspreads": 6241,
      "Ġmade": 6242,
      "Ã¼rÃ¼n": 6243,
      "Ġyapmaktan": 6244,
      "rog": 6245,
      "238": 6246,
      "268": 6247,
      "290": 6248,
      "297": 6249,
      "498": 6250,
      "499": 6251,
      "Ġdiving": 6252,
      "ĠWork": 6253,
      "ĠyÃ¶nelik": 6254,
      "Ġgerekebilir": 6255,
      "887": 6256,
      "599": 6257,
      "ĠdÃ¼zenleyin": 6258,
      "Ġyoldur": 6259,
      "ĠkapalÄ±": 6260,
      "Ġbekle": 6261,
      "681": 6262,
      "683": 6263,
      "782": 6264,
      "787": 6265,
      "Ġtamamlamak": 6266,
      "981": 6267,
      "982": 6268,
      "989": 6269,
      "Ġhalinde": 6270,
      "ĠKendine": 6271,
      "ĠdÃ¶ne": 6272,
      "larÄ±nÄ±za": 6273,
      "Ġseviyesini": 6274,
      "Ġyani": 6275,
      "Ġsoruda": 6276,
      "Ġformulating": 6277,
      "Ġreviewing": 6278,
      "ĠMesajÄ±nÄ±zÄ±": 6279,
      "Ġkutular": 6280,
      "Ġhayatta": 6281,
      "Ġazaltmak": 6282,
      "ĠanlaÅŁÄ±lÄ±r": 6283,
      "ĠNumarasÄ±": 6284,
      "ĠÃĸneri": 6285,
      "Ġmalzemeleri": 6286,
      "ĠtaÅŁÄ±": 6287,
      "ĠeÄŁlenceli": 6288,
      "Ġpatter": 6289,
      "ĠolduÄŁunca": 6290,
      "Ġcuriosity": 6291,
      "Ġrehber": 6292,
      "Ġpodcast": 6293,
      "Ġspreadsheet": 6294,
      "'Ä±": 6295,
      "'li": 6296,
      "612": 6297,
      "635": 6298,
      "Ne": 6299,
      "fed": 6300,
      "oot": 6301,
      "rt": 6302,
      "tÄ±ktan": 6303,
      "isine": 6304,
      "enden": 6305,
      "Ġslip": 6306,
      "Ġklasik": 6307,
      "Ġnut": 6308,
      "usuna": 6309,
      "sak": 6310,
      "itch": 6311,
      "Ġevi": 6312,
      "esting": 6313,
      "habit": 6314,
      "ĠAc": 6315,
      "ĠbaÅŁk": 6316,
      "ĠgÃ¼nlerde": 6317,
      "Ġmovi": 6318,
      "mekle": 6319,
      "Ġveri": 6320,
      "ĠkonularÄ±": 6321,
      "ĠbaÅŁlamaya": 6322,
      "ĠbaÅŁlamanÄ±zÄ±": 6323,
      "Ġreserv": 6324,
      "Ġzorunlu": 6325,
      "Ġtidying": 6326,
      "usuz": 6327,
      "oosing": 6328,
      "ĠbuluÅŁuyor": 6329,
      "ĠbaÅŁlatabilirsiniz": 6330,
      "ĠcÃ¼mleler": 6331,
      "ĠalmanÄ±z": 6332,
      "258": 6333,
      "260": 6334,
      "lerinden": 6335,
      "Ġkendiniz": 6336,
      "lights": 6337,
      "Ġkayde": 6338,
      "erilen": 6339,
      "Ġdurumun": 6340,
      "Ġrules": 6341,
      "801": 6342,
      "390": 6343,
      "Ġgereksiz": 6344,
      "459": 6345,
      "885": 6346,
      "Ġlistesini": 6347,
      "578": 6348,
      "579": 6349,
      "568": 6350,
      "ĠyapÄ±sÄ±nÄ±": 6351,
      "ĠÅŁudur": 6352,
      "asÄ±nda": 6353,
      "Ġdedicating": 6354,
      "Ġbekleyin": 6355,
      "Ġdeneme": 6356,
      "Ġparal": 6357,
      "ĠbaÄŁlant": 6358,
      "âĢĶto": 6359,
      "âĢĶand": 6360,
      "ĠbÃ¶lÃ¼n": 6361,
      "ĠÄ±s": 6362,
      "ĠbahÃ§enize": 6363,
      "Ġpiece": 6364,
      "ability": 6365,
      "Ġmedya": 6366,
      "Ġmemorize": 6367,
      "ĠiÃ§eren": 6368,
      "Ġengaged": 6369,
      "Ġmerkez": 6370,
      "Ġkavram": 6371,
      "Ġuygulayarak": 6372,
      "Ġnavigate": 6373,
      "Ġinsurance": 6374,
      "Ġcombat": 6375,
      "ĠfÄ±rsat": 6376,
      "Ġkalites": 6377,
      "Ġpaper": 6378,
      "Ġlunch": 6379,
      "Ġsteady": 6380,
      "'Ã¼": 6381,
      "632": 6382,
      "Eat": 6383,
      "cre": 6384,
      "ete": 6385,
      "gency": 6386,
      "lilik": 6387,
      "pass": 6388,
      "suz": 6389,
      "anti": 6390,
      "Ġcen": 6391,
      "endir": 6392,
      "Ġtour": 6393,
      "rat": 6394,
      "ceÄŁiniz": 6395,
      "Ġnor": 6396,
      "urn": 6397,
      "ilere": 6398,
      "Ġelimin": 6399,
      "Ä±nca": 6400,
      "Ġinitiate": 6401,
      "ĠÄ°ste": 6402,
      "Ġveren": 6403,
      "Ã¼zik": 6404,
      "Ġyazarak": 6405,
      "ĠyazÄ±p": 6406,
      "Ġjarg": 6407,
      "Ġchoosing": 6408,
      "Ġfear": 6409,
      "ĠÃ¶nceli": 6410,
      "ĠsonrasÄ±": 6411,
      "ersiniz": 6412,
      "ĠKa": 6413,
      "Ġfriendships": 6414,
      "Ġsorul": 6415,
      "ĠHerhangi": 6416,
      "ildirim": 6417,
      "378": 6418,
      "Ġsaatlerini": 6419,
      "Ġkaydedi": 6420,
      "ĠsabahÄ±n": 6421,
      "Ġtekni": 6422,
      "ĠsaÄŁlayarak": 6423,
      "806": 6424,
      "479": 6425,
      "Ġdurun": 6426,
      "ĠgeÃ§miÅŁ": 6427,
      "Ġtrips": 6428,
      "882": 6429,
      "ĠhaftalÄ±k": 6430,
      "Ġlistesi": 6431,
      "ĠkonuÅŁun": 6432,
      "598": 6433,
      "570": 6434,
      "ĠgÃ¶rÃ¼nÃ¼": 6435,
      "Ġphotos": 6436,
      "ĠistediÄŁini": 6437,
      "ĠolmasÄ±nÄ±": 6438,
      "Ġconnectivity": 6439,
      "Ġfiyat": 6440,
      "Ġstays": 6441,
      "Ġgratitude": 6442,
      "Ġtranslation": 6443,
      "ayÄ±f": 6444,
      "Ġcompli": 6445,
      "Ġnedeniyle": 6446,
      "ĠyÃ¼ksel": 6447,
      "shop": 6448,
      "ĠboÅŁluk": 6449,
      "diÄŁinde": 6450,
      "Ġtarget": 6451,
      "Ġreminders": 6452,
      "ĠuyandÄ±": 6453,
      "ĠAÄŁustos": 6454,
      "Ġalign": 6455,
      "Ġkilit": 6456,
      "ĠMevcut": 6457,
      "Ġacknowledge": 6458,
      "licitly": 6459,
      "Ġeliminating": 6460,
      "Ġjargon": 6461,
      "'den": 6462,
      "'ye": 6463,
      "77": 6464,
      "99": 6465,
      "App": 6466,
      "How": 6467,
      "What": 6468,
      "cri": 6469,
      "gÃ¶r": 6470,
      "ranÄ±": 6471,
      "uel": 6472,
      "xim": 6473,
      "ysa": 6474,
      "Ġ$": 6475,
      "ero": 6476,
      "Ġsmo": 6477,
      "Ġbes": 6478,
      "rabilirsiniz": 6479,
      "ĠErken": 6480,
      "ĠEvet": 6481,
      "ĠyalnÄ±z": 6482,
      "Ġidentify": 6483,
      "late": 6484,
      "Ġfour": 6485,
      "Ġopport": 6486,
      "uge": 6487,
      "lies": 6488,
      "lanma": 6489,
      "stru": 6490,
      "Ġolmadan": 6491,
      "ĠÃ¶nerim": 6492,
      "ĠÃ§Ä±": 6493,
      "ĠBundle": 6494,
      "ĠCÃ¼mle": 6495,
      "atory": 6496,
      "ading": 6497,
      "Ġmad": 6498,
      "Ġ**\"": 6499,
      "vial": 6500,
      "Ġhold": 6501,
      "ĠÃ¶ÄŁrenmenin": 6502,
      "Ġoverth": 6503,
      "Ġovernight": 6504,
      "Ġyerinde": 6505,
      "ĠyÃ¼zÃ¼": 6506,
      "Ġgetirin": 6507,
      "338": 6508,
      "ĠFin": 6509,
      "ĠFrog": 6510,
      "tÄ±rarak": 6511,
      "379": 6512,
      "ĠsabahÄ±": 6513,
      "tedir": 6514,
      "ĠodaklanÄ±p": 6515,
      "Ġdeepen": 6516,
      "ĠAyda": 6517,
      "478": 6518,
      "Ġduruma": 6519,
      "Ġkolayca": 6520,
      "Ġtrivial": 6521,
      "883": 6522,
      "884": 6523,
      "888": 6524,
      "889": 6525,
      "ĠaÃ§Ä±n": 6526,
      "Ġekleyip": 6527,
      "Ġtelefonla": 6528,
      "Ġcommitments": 6529,
      "ĠsÄ±rasÄ±": 6530,
      "Ġolursa": 6531,
      "Ġsuppress": 6532,
      "Ġrepeated": 6533,
      "Ġrelated": 6534,
      "Ġvisa": 6535,
      "Ġhappiness": 6536,
      "Ġderinlik": 6537,
      "Ġsani": 6538,
      "Ġsanki": 6539,
      "Ġinterrupt": 6540,
      "Ãĸner": 6541,
      "ÃĸrneÄŁin": 6542,
      "ĠbÃ¶lge": 6543,
      "Ġsurround": 6544,
      "Ġidea": 6545,
      "ĠkitabÄ±n": 6546,
      "ĠuzaklaÅŁ": 6547,
      "Ġiyisidir": 6548,
      "landÄ±rma": 6549,
      "ĠkeÅŁfed": 6550,
      "ĠsÃ¼recini": 6551,
      "ĠgÃ¶rÃ¼ÅŁme": 6552,
      "Ġdisrupts": 6553,
      "ĠkaynaÄŁÄ±": 6554,
      "ĠZorluk": 6555,
      "ĠtasarÄ±m": 6556,
      "Ġbeklenti": 6557,
      "ĠuÃ§uÅŁ": 6558,
      "Ġaccumulating": 6559,
      "Ġgidip": 6560,
      "ĠtÃ¼ket": 6561,
      "hotoshop": 6562,
      "ĠDÃ¼zen": 6563,
      "Ġfoundation": 6564,
      "Ġconscious": 6565,
      "Ã¼kemmel": 6566,
      "Ġobstacles": 6567,
      "Ġsatisf": 6568,
      "Ġcenter": 6569,
      "Ġopportun": 6570,
      "An": 6571,
      "In": 6572,
      "book": 6573,
      "cting": 6574,
      "kendi": 6575,
      "manÄ±": 6576,
      "olu": 6577,
      "pam": 6578,
      "sen": 6579,
      "tarÄ±": 6580,
      "inÃ§": 6581,
      "Ġclu": 6582,
      "Ġcard": 6583,
      "Ġcrow": 6584,
      "ĠsÄ±nÄ±": 6585,
      "Ġtutu": 6586,
      "Ġconve": 6587,
      "Ġprom": 6588,
      "orm": 6589,
      "urg": 6590,
      "ĠDef": 6591,
      "Ġfits": 6592,
      "Ġdal": 6593,
      "lanacak": 6594,
      "Ã¼nya": 6595,
      "ĠGÃ¶r": 6596,
      "Ġstrugg": 6597,
      "ĠMain": 6598,
      "Ġneyi": 6599,
      "Ġneut": 6600,
      "sÄ±yla": 6601,
      "ĠLÃ¼tfen": 6602,
      "**'": 6603,
      "Ġdopam": 6604,
      "ĠdeÄŁiÅŁtirmek": 6605,
      "Ġyeten": 6606,
      "ocuk": 6607,
      "ĠKah": 6608,
      "Ġbol": 6609,
      "Ġland": 6610,
      "490": 6611,
      "ĠiÅŁin": 6612,
      "miyor": 6613,
      "Ä±nav": 6614,
      "802": 6615,
      "807": 6616,
      "398": 6617,
      "469": 6618,
      "amera": 6619,
      "881": 6620,
      "886": 6621,
      "597": 6622,
      "mesine": 6623,
      "ĠalanÄ±nÄ±zÄ±": 6624,
      "ĠÅŁeklinde": 6625,
      "Ġlearns": 6626,
      "ĠdÃ¼ÅŁÃ¼nerek": 6627,
      "Ġdinlemek": 6628,
      "Ġeffic": 6629,
      "Ġensures": 6630,
      "Ġlose": 6631,
      "Ġbilgisi": 6632,
      "Ġhalf": 6633,
      "acaÄŁÄ±": 6634,
      "ĠKendinizi": 6635,
      "ĠokumayÄ±": 6636,
      "Ġsana": 6637,
      "Ġsanat": 6638,
      "ĠbaÄŁlam": 6639,
      "larÄ±nÄ±zla": 6640,
      "Ġkeys": 6641,
      "ĠyansÄ±": 6642,
      "Ġmetab": 6643,
      "Ġpassive": 6644,
      "ĠkurallarÄ±nÄ±": 6645,
      "Ġparkta": 6646,
      "ĠiÃ§erik": 6647,
      "ĠTelefonu": 6648,
      "Ġhavada": 6649,
      "Ġteknikleri": 6650,
      "Ġonunla": 6651,
      "yoga": 6652,
      "Ġsinir": 6653,
      "Ġconsider": 6654,
      "ĠiÅŁlemi": 6655,
      "Ġsaatinde": 6656,
      "Ġotob": 6657,
      "Ġotomatik": 6658,
      "Ġwebsite": 6659,
      "Ġwebsites": 6660,
      "Ġemergency": 6661,
      "ĠnazikÃ§e": 6662,
      "Ġnutri": 6663,
      "Ġnormal": 6664,
      "Ġclub": 6665,
      "ĠMaintain": 6666,
      "-day": 6667,
      "/no": 6668,
      "611": 6669,
      "Avoid": 6670,
      "Cevap": 6671,
      "cks": 6672,
      "kes": 6673,
      "ket": 6674,
      "keep": 6675,
      "kitap": 6676,
      "ski": 6677,
      "Ġsul": 6678,
      "Ġsiz": 6679,
      "Ġskip": 6680,
      "Ġtou": 6681,
      "tesi": 6682,
      "telefon": 6683,
      "Ġfla": 6684,
      "Ġface": 6685,
      "Ġfuel": 6686,
      "ĠBil": 6687,
      "ĠSur": 6688,
      "ĠSÄ±k": 6689,
      "ugh": 6690,
      "Ġrecent": 6691,
      "orth": 6692,
      "ĠMay": 6693,
      "Ġdok": 6694,
      "Ä±za": 6695,
      "ĠHem": 6696,
      "Ġbuy": 6697,
      "nemli": 6698,
      "ĠatÄ±p": 6699,
      "ksi": 6700,
      "Ġmask": 6701,
      "Ġmaxim": 6702,
      "mall": 6703,
      "Ġyear": 6704,
      "143": 6705,
      "bilirim": 6706,
      "nasÄ±l": 6707,
      "Ġlikely": 6708,
      "Ġyerleri": 6709,
      "Ġyerlere": 6710,
      "Ġbelirtir": 6711,
      "lenmiÅŁ": 6712,
      "497": 6713,
      "ĠdoÄŁum": 6714,
      "ĠÃĸncelik": 6715,
      "Ġevinizdeki": 6716,
      "ĠsÃ¼reyi": 6717,
      "009": 6718,
      "Ġlists": 6719,
      "Ġhissini": 6720,
      "Ġbigger": 6721,
      "malÄ±sÄ±n": 6722,
      "ĠsÄ±v": 6723,
      "ĠsÄ±fÄ±r": 6724,
      "ĠsayÄ±sÄ±nÄ±": 6725,
      "Ġokum": 6726,
      "Ġdergi": 6727,
      "Ġknowing": 6728,
      "Ġvisually": 6729,
      "ÄŁuk": 6730,
      "ĠÃ¶nlemek": 6731,
      "Ġkelimeler": 6732,
      "Ġalanda": 6733,
      "ĠvÃ¼cut": 6734,
      "Ġeski": 6735,
      "ĠgÃ¶ndererek": 6736,
      "ĠyaratÄ±r": 6737,
      "ĠihtiyacÄ±": 6738,
      "Ġinitiating": 6739,
      "ĠBelki": 6740,
      "ĠkiÅŁiyle": 6741,
      "Ġexercises": 6742,
      "Ġlives": 6743,
      "Ġsucceed": 6744,
      "Ġuyuya": 6745,
      "ĠgeliÅŁtirmek": 6746,
      "Ġpopular": 6747,
      "ĠamaÃ§la": 6748,
      "Ġarrival": 6749,
      "ĠeÅŁyalarÄ±": 6750,
      "ĠsÃ¶yleyin": 6751,
      "ĠparÃ§alara": 6752,
      "ĠuyandÄ±ktan": 6753,
      "ĠayrÄ±l": 6754,
      "Ġmerak": 6755,
      "Ġlabels": 6756,
      "Ġview": 6757,
      "Ġtype": 6758,
      "Ġdraining": 6759,
      "Ġsubject": 6760,
      "Ġbelirtilen": 6761,
      "-task": 6762,
      "Ġparaphrasing": 6763,
      "ĠyumuÅŁak": 6764,
      "ĠgÃ¶rÃ¼nÃ¼yor": 6765,
      "Ġneutral": 6766,
      "Ġyetenek": 6767,
      "Ġmetabol": 6768,
      "'yi": 6769,
      "631": 6770,
      "Durum": 6771,
      "He": 6772,
      "Her": 6773,
      "Merhaba": 6774,
      "Sor": 6775,
      "ften": 6776,
      "gili": 6777,
      "tmak": 6778,
      "ture": 6779,
      "yse": 6780,
      "Ġour": 6781,
      "ndi": 6782,
      "insel": 6783,
      "Ä±yla": 6784,
      "Ġcould": 6785,
      "tiren": 6786,
      "tiÄŁin": 6787,
      "tent": 6788,
      "Ġneler": 6789,
      "Ġik": 6790,
      "Ġwould": 6791,
      "fully": 6792,
      "ĠSab": 6793,
      "ĠsoÄŁ": 6794,
      "Ġsoli": 6795,
      "Ġreason": 6796,
      "ĠÃ¶dev": 6797,
      "ĠzayÄ±f": 6798,
      "Ġzero": 6799,
      "Ġshower": 6800,
      "Ġsharp": 6801,
      "ĠGen": 6802,
      "Ġdayan": 6803,
      "ĠÄ°liÅŁ": 6804,
      "asing": 6805,
      "Ġdosy": 6806,
      "Ġolay": 6807,
      "ĠÃľ": 6808,
      "Ġyete": 6809,
      "ĠkaldÄ±": 6810,
      "ĠkalmayÄ±": 6811,
      "ĠdÃ¼zel": 6812,
      "Ġimkan": 6813,
      "Ġnotice": 6814,
      "ĠfotoÄŁrafÄ±nÄ±zÄ±": 6815,
      "Ġetmeyi": 6816,
      "ĠettiÄŁiniz": 6817,
      "ĠkitaplarÄ±": 6818,
      "Ġworkout": 6819,
      "Ġkurgu": 6820,
      "ĠeriÅŁ": 6821,
      "000": 6822,
      "ĠÅŁeyden": 6823,
      "Ġelde": 6824,
      "Ġeklemek": 6825,
      "ĠekranÄ±": 6826,
      "Ġtelefonun": 6827,
      "ysis": 6828,
      "Ġyolda": 6829,
      "Ġprice": 6830,
      "ĠgÃ¶rd": 6831,
      "ĠayÄ±rÄ±p": 6832,
      "Ġtakv": 6833,
      "Ġkapa": 6834,
      "ĠhazÄ±rlamak": 6835,
      "ĠmesajÄ±nÄ±zÄ±": 6836,
      "Ġortaya": 6837,
      "Ġlosing": 6838,
      "ĠhissettiÄŁiniz": 6839,
      "ĠyatÄ±n": 6840,
      "Ġknowledge": 6841,
      "ĠgÃ¶revler": 6842,
      "Ġmissing": 6843,
      "ĠÃ¶zellik": 6844,
      "Ġrutini": 6845,
      "Ġaktiviteler": 6846,
      "Ġtelefonunuzdaki": 6847,
      "Ġhands": 6848,
      "Ġmetre": 6849,
      "ĠgÃ¶stermek": 6850,
      "ĠÃ¼st": 6851,
      "ĠLearn": 6852,
      "ĠdÄ±ÅŁarÄ±da": 6853,
      "Ġsamimiyet": 6854,
      "ĠaraÃ§larÄ±": 6855,
      "Ġliving": 6856,
      "Ġfailure": 6857,
      "tÄ±rabilirsiniz": 6858,
      "Ġuyumlu": 6859,
      "ĠkarÅŁÄ±laÅŁacak": 6860,
      "Ġbitkileri": 6861,
      "Ġederim": 6862,
      "Ġloved": 6863,
      "Ġistersiniz": 6864,
      "Ġmiktarda": 6865,
      "Ġcontinu": 6866,
      "ĠGÃ¶rev": 6867,
      "Ġfrustrated": 6868,
      "Ġkaliteli": 6869,
      "Ġkonaklama": 6870,
      "ĠFinally": 6871,
      "Ġsurroundings": 6872,
      "ĠSurround": 6873,
      "'dir": 6874,
      ")Ċ": 6875,
      "Pause": 6876,
      "Schedule": 6877,
      "cha": 6878,
      "eti": 6879,
      "kÄ±": 6880,
      "oz": 6881,
      "pit": 6882,
      "uÄŁu": 6883,
      "endik": 6884,
      "tile": 6885,
      "Ġple": 6886,
      "reci": 6887,
      "aling": 6888,
      "Ġkim": 6889,
      "teful": 6890,
      "teki": 6891,
      "lek": 6892,
      "meyen": 6893,
      "Ã¼st": 6894,
      "sam": 6895,
      "Ġikinci": 6896,
      "ÅŁu": 6897,
      "veya": 6898,
      "ĠYe": 6899,
      "lated": 6900,
      "lacing": 6901,
      "yÄ±r": 6902,
      "Ġekip": 6903,
      "izmet": 6904,
      "Ġmark": 6905,
      "ĠmÃ¼kemmel": 6906,
      "ĠGe": 6907,
      "ĠbaÅŁta": 6908,
      "ĠgÃ¼nler": 6909,
      "Ġhay": 6910,
      "lÄ±r": 6911,
      "lÄ±yorum": 6912,
      "ĠzorlandÄ±": 6913,
      "kate": 6914,
      "Ġzamanla": 6915,
      "imle": 6916,
      "ters": 6917,
      "Ġrere": 6918,
      "Ġtetik": 6919,
      "Ġalso": 6920,
      "Ġaloud": 6921,
      "ĠgÃ¶ÄŁ": 6922,
      "ĠhoÅŁ": 6923,
      "Ġsuy": 6924,
      "Ġsuda": 6925,
      "ĠsorularÄ±": 6926,
      "ĠyÃ¼zer": 6927,
      "Ġtutma": 6928,
      "iliyor": 6929,
      "enty": 6930,
      "ÄŁinize": 6931,
      "Ġpost": 6932,
      "Ġdurumunuzu": 6933,
      "008": 6934,
      "Ġreplacing": 6935,
      "ĠhaftanÄ±n": 6936,
      "590": 6937,
      "ĠalanÄ±nÄ±": 6938,
      "Ġappreci": 6939,
      "ĠtÃ¼rÃ¼nÃ¼": 6940,
      "ĠyapÄ±la": 6941,
      "Ġfinished": 6942,
      "ĠhazÄ±rlan": 6943,
      "Ġconnected": 6944,
      "Ġhareketler": 6945,
      "ĠMotivasyon": 6946,
      "ĠBaÅŁka": 6947,
      "ĠayarlarÄ±nÄ±": 6948,
      "Ġhaline": 6949,
      "Ġgrateful": 6950,
      "ĠÃ¶nler": 6951,
      "ĠÃ¶nÃ¼ne": 6952,
      "Ġsunabilirim": 6953,
      "berate": 6954,
      "ĠsÄ±caklÄ±k": 6955,
      "ĠdÃ¶k": 6956,
      "ĠÄ±ÅŁÄ±ÄŁÄ±nÄ±": 6957,
      "Ġtelefonunuza": 6958,
      "Ġobs": 6959,
      "Ġkaynat": 6960,
      "ĠuyanÄ±ÅŁ": 6961,
      "Ġpile": 6962,
      "ĠyaptÄ±ÄŁÄ±nÄ±zÄ±": 6963,
      "Ġyorgunluk": 6964,
      "abileceÄŁin": 6965,
      "ĠdoÄŁrul": 6966,
      "ĠkaÄŁÄ±da": 6967,
      "ĠkalÄ±r": 6968,
      "Ġilerlemenizi": 6969,
      "ĠgÃ¼nÃ¼nÃ¼zÃ¼": 6970,
      "Â°C": 6971,
      "Ġcolor": 6972,
      "Ġfacts": 6973,
      "ĠyaptÄ±m": 6974,
      "Ġaccusatory": 6975,
      "ĠuÄŁraÅŁ": 6976,
      "Ġtwenty": 6977,
      "Ġrecei": 6978,
      "Ġdeliberate": 6979,
      "Ġdeneyimi": 6980,
      "Ġefficient": 6981,
      "Ġrereading": 6982,
      "-co": 6983,
      "640": 6984,
      "649": 6985,
      "639": 6986,
      "ath": 6987,
      "nin": 6988,
      "oÄŁu": 6989,
      "tin": 6990,
      "ðŁ": 6991,
      "Ġversa": 6992,
      "Ġlam": 6993,
      "ĠÃ¼rÃ¼n": 6994,
      "tima": 6995,
      "timi": 6996,
      "Ġsour": 6997,
      "alling": 6998,
      "Ġnes": 6999,
      "Ã¼lebilir": 7000,
      "uses": 7001,
      "ĠEr": 7002,
      "ĠEski": 7003,
      "Ġyiye": 7004,
      "Ġizmir": 7005,
      "ĠDe": 7006,
      "Ġheps": 7007,
      "itab": 7008,
      "ĠSpe": 7009,
      "Ġmist": 7010,
      "ĠmÃ¼": 7011,
      "ĠsoÄŁuk": 7012,
      "Ġrely": 7013,
      "ĠyaÄŁ": 7014,
      "Ġbat": 7015,
      "Ġmey": 7016,
      "Ġsometimes": 7017,
      "ĠbaÅŁÄ±nÄ±zÄ±": 7018,
      "ĠbaÅŁlama": 7019,
      "Ġyaprak": 7020,
      "ected": 7021,
      "ĠdeÄŁerli": 7022,
      "Ġbuying": 7023,
      "ĠplanlanmÄ±ÅŁ": 7024,
      "Ġsprin": 7025,
      "ĠatÄ±ÅŁ": 7026,
      "Ġkalp": 7027,
      "road": 7028,
      "ĠyÃ¼rÃ¼r": 7029,
      "ĠiyileÅŁtirmek": 7030,
      "ĠfotoÄŁrafÄ±": 7031,
      "ĠÃ§ekmeye": 7032,
      "ĠseÃ§ebilirsiniz": 7033,
      "Ġnews": 7034,
      "ĠgeÃ§ire": 7035,
      "Ġswap": 7036,
      "Ġarama": 7037,
      "ĠkonuÅŁurken": 7038,
      "Ġekle": 7039,
      "Ã¶zellikle": 7040,
      "Ġrooms": 7041,
      "Ġolanak": 7042,
      "ĠkarÅŁÄ±laÅŁtÄ±r": 7043,
      "Ġspaces": 7044,
      "Ġdinle": 7045,
      "089": 7046,
      "Ġolursunuz": 7047,
      "Ġsayfa": 7048,
      "Ġlocations": 7049,
      "Ġstatement": 7050,
      "Ġgroups": 7051,
      "Ġrahatlat": 7052,
      "ĠolduÄŁunda": 7053,
      "Ġgrand": 7054,
      "ĠseÃ§mekten": 7055,
      "Ġkelimesi": 7056,
      "Ġenerjinizi": 7057,
      "Ġenerjisini": 7058,
      "ĠuygulamayÄ±": 7059,
      "ĠÃ¶zelliÄŁini": 7060,
      "Ġkapatmak": 7061,
      "Ġaktiviteleri": 7062,
      "Ġmuscle": 7063,
      "Ġhayata": 7064,
      "ĠhatÄ±rla": 7065,
      "Ġpassport": 7066,
      "ĠdÃ¼zenlemeye": 7067,
      "Ġbardak": 7068,
      "Ġdecisions": 7069,
      "Ġegzersizleri": 7070,
      "Ġdiscard": 7071,
      "Ġdepends": 7072,
      "ĠadÄ±ma": 7073,
      "ĠkaynaÄŁÄ±nÄ±": 7074,
      "Ġtespit": 7075,
      "ĠsÃ¼rdÃ¼r": 7076,
      "ĠbelirtilmiÅŁtir": 7077,
      "Ġnearby": 7078,
      "Ġetkinlik": 7079,
      "Ġidealdir": 7080,
      "Ġsnacks": 7081,
      "GÃ¼nlÃ¼k": 7082,
      "Ġkaybol": 7083,
      "ĠBahÃ§": 7084,
      "Ġkonsept": 7085,
      "ĠHareket": 7086,
      "Ġconfusion": 7087,
      "Ġparalysis": 7088,
      "Ġconvey": 7089,
      "ĠDefine": 7090,
      "Ġdopamine": 7091,
      "619": 7092,
      "kal": 7093,
      "lÃ¼m": 7094,
      "sue": 7095,
      "sApp": 7096,
      "ube": 7097,
      "var": 7098,
      "zer": 7099,
      "ĠðŁ": 7100,
      "anlÄ±k": 7101,
      "Ġbildirim": 7102,
      "ract": 7103,
      "rakarak": 7104,
      "hest": 7105,
      "ories": 7106,
      "daha": 7107,
      "ĠTell": 7108,
      "mat": 7109,
      "Ġez": 7110,
      "active": 7111,
      "Ã¶n": 7112,
      "izde": 7113,
      "Ġbirer": 7114,
      "Ġdish": 7115,
      "Ġintent": 7116,
      "ĠiÃ§inden": 7117,
      "Ġrental": 7118,
      "lardÄ±r": 7119,
      "Ġsix": 7120,
      "ĠÃ¶neriye": 7121,
      "Ġtim": 7122,
      "Ġtip": 7123,
      "ĠzamanÄ±n": 7124,
      "Ġdoor": 7125,
      "ĠbaÅŁlatmak": 7126,
      "enizin": 7127,
      "Ġmas": 7128,
      "Ġitself": 7129,
      "ĠaldÄ±": 7130,
      "erseniz": 7131,
      "ĠKayÄ±t": 7132,
      "ĠaralÄ±k": 7133,
      "Ġboy": 7134,
      "lerinde": 7135,
      "Ġinteresting": 7136,
      "Ġhedefle": 7137,
      "ĠiÅŁinizi": 7138,
      "ĠÃ§alÄ±ÅŁan": 7139,
      "ĠÃ§alÄ±ÅŁÄ±rken": 7140,
      "Ġevin": 7141,
      "duÄŁu": 7142,
      "ĠsÃ¼resi": 7143,
      "Ġexplo": 7144,
      "cover": 7145,
      "ĠgeÃ§en": 7146,
      "Ġboosts": 7147,
      "006": 7148,
      "ĠaÃ§mak": 7149,
      "yseniz": 7150,
      "ĠyÃ¶nel": 7151,
      "Ġdistracted": 7152,
      "Ġphotosh": 7153,
      "Ġpermis": 7154,
      "ĠolanÄ±": 7155,
      "ĠdÃ¼ÅŁÃ¼nme": 7156,
      "Ġdinleyin": 7157,
      "Ġmindset": 7158,
      "081": 7159,
      "082": 7160,
      "084": 7161,
      "085": 7162,
      "ĠzorluÄŁ": 7163,
      "ĠoluÅŁturmaya": 7164,
      "Ġortadan": 7165,
      "Ġsuppor": 7166,
      "ĠbÄ±rakarak": 7167,
      "Ġizlemek": 7168,
      "ĠbÄ±rakmak": 7169,
      "bilg": 7170,
      "ĠbaÅŁarÄ±yÄ±": 7171,
      "ĠgeÃ§irmek": 7172,
      "ĠpaylaÅŁmak": 7173,
      "ĠartÄ±rmak": 7174,
      "Ġkorun": 7175,
      "Ġcloser": 7176,
      "Ġoturmak": 7177,
      "Ġeser": 7178,
      "Ġduvara": 7179,
      "undry": 7180,
      "ĠnoktasÄ±dÄ±r": 7181,
      "Ġgidin": 7182,
      "Ġminimum": 7183,
      "Ġclothing": 7184,
      "ĠmantÄ±": 7185,
      "ĠkÄ±sal": 7186,
      "ĠÃ¶lÃ§Ã¼n": 7187,
      ".**Ċ": 7188,
      "ĠkarÄ±ÅŁÄ±k": 7189,
      "ĠgÃ¼Ã§lendirmek": 7190,
      "dikten": 7191,
      "Ġnavigation": 7192,
      "ĠaÄŁÄ±r": 7193,
      "Ġfactors": 7194,
      "ĠkÄ±smÄ±nÄ±": 7195,
      "ĠcevabÄ±": 7196,
      "Ġkoltu": 7197,
      "Ġbazen": 7198,
      "ĠkarÅŁÄ±lÄ±klÄ±": 7199,
      "Ġopinion": 7200,
      "Ġtemptation": 7201,
      "Ġmadde": 7202,
      "ĠSpeak": 7203,
      "Ġphotoshoot": 7204,
      "Ġpermission": 7205,
      "'la": 7206,
      "61": 7207,
      "621": 7208,
      "Pra": 7209,
      "ative": 7210,
      "baÅŁ": 7211,
      "dle": 7212,
      "dilik": 7213,
      "fic": 7214,
      "iyi": 7215,
      "minizi": 7216,
      "¸ı": 7217,
      "ï¸ı": 7218,
      "ending": 7219,
      "tiÄŁinizi": 7220,
      "Ġplay": 7221,
      "Ġtep": 7222,
      "Ġbore": 7223,
      "Ġconcre": 7224,
      "ants": 7225,
      "alan": 7226,
      "rating": 7227,
      "tep": 7228,
      "tionally": 7229,
      "Ġice": 7230,
      "Ã§Ä±k": 7231,
      "ĠTÃ¼m": 7232,
      "graf": 7233,
      "Ġhelping": 7234,
      "Ġever": 7235,
      "Ġgem": 7236,
      "Ġoyun": 7237,
      "ĠBilgi": 7238,
      "Ġbeli": 7239,
      "Ġstren": 7240,
      "Ġkafa": 7241,
      "Ġreci": 7242,
      "Ġmen": 7243,
      "larken": 7244,
      "sÄ±ndan": 7245,
      "Ġolsa": 7246,
      "Ġverme": 7247,
      "Ġori": 7248,
      "ĠzorlanÄ±yorsanÄ±z": 7249,
      "ginÃ§": 7250,
      "Ġanswers": 7251,
      "Ġalmaya": 7252,
      "145": 7253,
      "Ġsong": 7254,
      "mediÄŁiniz": 7255,
      "Ġsuyla": 7256,
      "ĠKeli": 7257,
      "Ġovercome": 7258,
      "Ġyerini": 7259,
      "Ġdiler": 7260,
      "Ġdilden": 7261,
      "Ġlaundry": 7262,
      "ĠtutarlÄ±": 7263,
      "ĠFirst": 7264,
      "ĠiÅŁinize": 7265,
      "Ġbasic": 7266,
      "ĠÃ§alÄ±ÅŁarak": 7267,
      "Ġevden": 7268,
      "Ġexplicitly": 7269,
      "Ġpoli": 7270,
      "Ġdurdur": 7271,
      "Ġkurmaya": 7272,
      "001": 7273,
      "002": 7274,
      "003": 7275,
      "004": 7276,
      "005": 7277,
      "007": 7278,
      "melisin": 7279,
      "Ġkeyi": 7280,
      "Ġtelefonunu": 7281,
      "ĠdÃ¼ÅŁÃ¼nmek": 7282,
      "083": 7283,
      "086": 7284,
      "087": 7285,
      "Ġsupplies": 7286,
      "Ä±lma": 7287,
      "Ġbakmak": 7288,
      "ĠbakÄ±ÅŁ": 7289,
      "Ġhaval": 7290,
      "Ġtamamlan": 7291,
      "acaÄŁÄ±nÄ±": 7292,
      "ĠaÃ§Ä±klayÄ±cÄ±": 7293,
      "ĠkalkÄ±n": 7294,
      "letin": 7295,
      "Ġmiss": 7296,
      "Ġbiriyle": 7297,
      "Ġgirmeden": 7298,
      "sÄ±zlÄ±k": 7299,
      "Ġdikkatli": 7300,
      "Ġuyanmak": 7301,
      "ĠHafif": 7302,
      "Ġachievement": 7303,
      "Ġmutfak": 7304,
      "Ġbarda": 7305,
      "ĠTrans": 7306,
      "Ġmakinesini": 7307,
      "ĠnumarasÄ±nÄ±": 7308,
      "Ġcritic": 7309,
      "ĠÃ§imen": 7310,
      "ĠkÃ¶k": 7311,
      "Ġvalidate": 7312,
      "ĠÃ¶ÄŁrene": 7313,
      "ĠkarÄ±ÅŁ": 7314,
      "Ġwashing": 7315,
      "Ġstronger": 7316,
      "Ġbozul": 7317,
      "Ġchallenges": 7318,
      "ĠbirleÅŁecek": 7319,
      "Ġelectronic": 7320,
      "ĠsÄ±caklÄ±ÄŁÄ±na": 7321,
      "Ġdrop": 7322,
      "ĠAccept": 7323,
      "Ġmovie": 7324,
      "Ġkalitesini": 7325,
      "Ãĸneri": 7326,
      "ĠkeÅŁfedin": 7327,
      "ĠsÄ±nÄ±f": 7328,
      "ĠotobÃ¼s": 7329,
      "Ġversatile": 7330,
      "Ġconcrete": 7331,
      "'d": 7332,
      "-c": 7333,
      "638": 7334,
      "Break": 7335,
      "Ha": 7336,
      "Keep": 7337,
      "Tube": 7338,
      "down": 7339,
      "ices": 7340,
      "ox": 7341,
      "onda": 7342,
      "pect": 7343,
      "Ġ%": 7344,
      "erah": 7345,
      "enda": 7346,
      "Ġtech": 7347,
      "ssiz": 7348,
      "related": 7349,
      "Ġconcent": 7350,
      "Ġku": 7351,
      "lev": 7352,
      "uru": 7353,
      "iring": 7354,
      "ĠThat": 7355,
      "ĠTreat": 7356,
      "iling": 7357,
      "ilim": 7358,
      "ilmesi": 7359,
      "Ġflo": 7360,
      "Ġfund": 7361,
      "Ġferah": 7362,
      "Ġote": 7363,
      "Ġinf": 7364,
      "Ġbeden": 7365,
      "ĠiÃ§ecek": 7366,
      "ortant": 7367,
      "ĠMÃ¼": 7368,
      "ical": 7369,
      "Ġnedir": 7370,
      "Ġuyar": 7371,
      "ĠverdiÄŁiniz": 7372,
      "Ġisim": 7373,
      "lerinizden": 7374,
      "Ġyapman": 7375,
      "Ġsites": 7376,
      "ĠOffer": 7377,
      "uÅŁtur": 7378,
      "Ġzorlama": 7379,
      "Ġtips": 7380,
      "ĠzamanÄ±nÄ±": 7381,
      "terek": 7382,
      "Ġaccu": 7383,
      "diÄŁinizi": 7384,
      "Ġmanz": 7385,
      "Ġsever": 7386,
      "Ä±rÄ±": 7387,
      "Ġplanlayarak": 7388,
      "156": 7389,
      "ĠgÃ¶st": 7390,
      "ĠÃĸnemli": 7391,
      "ĠUyan": 7392,
      "Ġasist": 7393,
      "ĠaralÄ±": 7394,
      "Ġargu": 7395,
      "ĠfotoÄŁraflar": 7396,
      "ĠÃ§ekme": 7397,
      "ĠÃ§ektirecek": 7398,
      "ĠseÃ§melisiniz": 7399,
      "cited": 7400,
      "Ġunf": 7401,
      "Ġhedefiniz": 7402,
      "ĠhedeflediÄŁiniz": 7403,
      "Ġimpact": 7404,
      "ĠkaygÄ±": 7405,
      "Ġcheap": 7406,
      "ĠakÄ±cÄ±": 7407,
      "ĠkurmayÄ±": 7408,
      "ĠgÃ¼ve": 7409,
      "reshed": 7410,
      "ĠÃ§Ä±kmak": 7411,
      "ĠsorunlarÄ±nÄ±": 7412,
      "ĠamacÄ±": 7413,
      "ĠkontrolÃ¼": 7414,
      "ĠInvest": 7415,
      "Ġelsewhere": 7416,
      "Ġmentally": 7417,
      "ĠakÅŁamÄ±": 7418,
      "Ġhissetme": 7419,
      "ĠkiÅŁiler": 7420,
      "Ġachieving": 7421,
      "Ġdenemek": 7422,
      "Ġyoktur": 7423,
      "Ġusual": 7424,
      "Ġcontacts": 7425,
      "Ġalabilirsiniz": 7426,
      "Ġdikkate": 7427,
      "Ġunexpectedly": 7428,
      "ĠyÃ¼rÃ¼ye": 7429,
      "ĠyÃ¼kÃ¼": 7430,
      "Ġsizinle": 7431,
      "Ġglasses": 7432,
      "ĠÃ§ekip": 7433,
      "ĠgÃ¶sterir": 7434,
      "ĠyemeÄŁini": 7435,
      "Ġtarihi": 7436,
      "ĠHaftalÄ±k": 7437,
      "...\")": 7438,
      "Ġprocrastin": 7439,
      "ĠyaÅŁama": 7440,
      "Ġkaba": 7441,
      "ĠdÃ¼zenlemeyi": 7442,
      "ĠkurallarÄ±": 7443,
      "Ġperfectly": 7444,
      "Ġexperience": 7445,
      "ĠgÃ¶rÃ¼ÅŁecek": 7446,
      "ĠgeliÅŁtirme": 7447,
      "Ġminimal": 7448,
      "Ġaddress": 7449,
      "endiÄŁiniz": 7450,
      "Ġpurcha": 7451,
      "ĠgÃ¶zlemleyin": 7452,
      "Ġagenda": 7453,
      "ĠÃ¼zerindeki": 7454,
      "Ġencoura": 7455,
      "Ġtablet": 7456,
      "Ġavailable": 7457,
      "Ġbeklemeyin": 7458,
      "-wake": 7459,
      "Ġbulundur": 7460,
      "Ġwindows": 7461,
      "ĠTVs": 7462,
      "Ġquitting": 7463,
      "ĠkÃ¼tÃ¼phane": 7464,
      "Ġseems": 7465,
      "Ġtyp": 7466,
      "comfort": 7467,
      "Ġvalued": 7468,
      "Ġsituation": 7469,
      "Ġassig": 7470,
      "Ġbright": 7471,
      "Ġimpuls": 7472,
      "Ġsustain": 7473,
      "Ġopportunities": 7474,
      "Ġstreng": 7475,
      "Ġkeyif": 7476,
      "-a": 7477,
      "EÄŁer": 7478,
      "IM": 7479,
      "The": 7480,
      "Total": 7481,
      "bugÃ¼n": 7482,
      "ivi": 7483,
      "lili": 7484,
      "om": 7485,
      "Ġ[": 7486,
      "Ġcam": 7487,
      "tinde": 7488,
      "rep": 7489,
      "rame": 7490,
      "ulation": 7491,
      "urt": 7492,
      "ĠDed": 7493,
      "Ã§alÄ±ÅŁ": 7494,
      "ĠYa": 7495,
      "Ġfue": 7496,
      "Ġequ": 7497,
      "ham": 7498,
      "Ã¶ÄŁ": 7499,
      "Ġdan": 7500,
      "Ġdiz": 7501,
      "yak": 7502,
      "ĠiÃ§ip": 7503,
      "nded": 7504,
      "ried": 7505,
      "Ġkare": 7506,
      "Ġkafe": 7507,
      "Ġyast": 7508,
      "ĠayÄ±rdÄ±r": 7509,
      "Ġdevice": 7510,
      "ĠgÃ¼ncel": 7511,
      "Ġmoder": 7512,
      "Ġneyin": 7513,
      "Ġonlara": 7514,
      "Ġkonusu": 7515,
      "Ġsilent": 7516,
      "Ġresult": 7517,
      "Ġsafet": 7518,
      "ahmin": 7519,
      "ĠkayÄ±da": 7520,
      "Ġbegins": 7521,
      "ĠdeÄŁiÅŁir": 7522,
      "ĠdeÄŁiÅŁtir": 7523,
      "ĠdeÄŁiÅŁtirin": 7524,
      "Ġseason": 7525,
      "Ġfeet": 7526,
      "144": 7527,
      "arÄ±nda": 7528,
      "Ġcannot": 7529,
      "Ġworried": 7530,
      "emi": 7531,
      "ĠfotoÄŁraflarÄ±": 7532,
      "siyon": 7533,
      "Ġdilde": 7534,
      "unuzdan": 7535,
      "tÄ±lmÄ±ÅŁ": 7536,
      "ĠÃ§alÄ±ÅŁÄ±r": 7537,
      "ĠÃ§alÄ±ÅŁtÄ±": 7538,
      "Ġsaatinizi": 7539,
      "cektir": 7540,
      "ĠWhere": 7541,
      "ĠkonuÅŁacak": 7542,
      "ĠSabahÄ±n": 7543,
      "ĠdÃ¼zenlemek": 7544,
      "Ġilerleyebilirsiniz": 7545,
      "ĠdÃ¼ÅŁÃ¼nÃ¼": 7546,
      "Ġfig": 7547,
      "ĠyÃ¶ntemler": 7548,
      "ansÃ¶r": 7549,
      "Ġmesajlar": 7550,
      "ĠWhatsApp": 7551,
      "Ġbeklemek": 7552,
      "Ä±lmasÄ±": 7553,
      "ĠkiÅŁinin": 7554,
      "ĠtamamÄ±nÄ±": 7555,
      "layÄ±sÄ±yla": 7556,
      "Ġhafifle": 7557,
      "Ġharf": 7558,
      "Ġsunar": 7559,
      "Ġearli": 7560,
      "ĠsÄ±caklÄ±ÄŁÄ±": 7561,
      "Ġolmaktan": 7562,
      "ĠEvdeki": 7563,
      "ĠbaÅŁarÄ±larÄ±": 7564,
      "Ġrutine": 7565,
      "Ãĸrn": 7566,
      "ĠyÃ¼rÃ¼mek": 7567,
      "ĠpaylaÅŁarak": 7568,
      "Ġendless": 7569,
      "Ġimproves": 7570,
      "Ġcountert": 7571,
      "Ġroad": 7572,
      "Ġassump": 7573,
      "mezsiniz": 7574,
      "Ġincreasing": 7575,
      "Ġgiderek": 7576,
      "fast": 7577,
      "Ġyapmam": 7578,
      "ĠdoÄŁrult": 7579,
      "Ġairports": 7580,
      "Ġloop": 7581,
      "Ġrefreshed": 7582,
      "ĠadÄ±na": 7583,
      "ĠbaÅŁlarsÄ±nÄ±z": 7584,
      "ĠkatÄ±lacak": 7585,
      "ĠaÅŁmak": 7586,
      "Ġcram": 7587,
      "Ġstrategy": 7588,
      "ĠkÄ±sÄ±m": 7589,
      "ĠseÃ§eneÄŁi": 7590,
      "ĠeÄŁitimi": 7591,
      "Ġelectronics": 7592,
      "Ġstimulating": 7593,
      "Ġpatience": 7594,
      "Ġkanal": 7595,
      "Ġstresi": 7596,
      "Ġkaydede": 7597,
      "Ġflash": 7598,
      "Ġpleas": 7599,
      "Ġstrengt": 7600,
      "ĠDedicate": 7601,
      "Ġfueled": 7602,
      "Ġsafety": 7603,
      "Ġassumptions": 7604,
      "-e": 7605,
      "680": 7606,
      "BÃ¼yÃ¼k": 7607,
      "Google": 7608,
      "Sabah": 7609,
      "bah": 7610,
      "ho": 7611,
      "hol": 7612,
      "ix": 7613,
      "van": 7614,
      "zaman": 7615,
      "Ġ/": 7616,
      "ince": 7617,
      "incisi": 7618,
      "ances": 7619,
      "Ġpref": 7620,
      "ante": 7621,
      "ĠEt": 7622,
      "orba": 7623,
      "Ġila": 7624,
      "ĠDuyg": 7625,
      "ĠDuolingo": 7626,
      "Ġcost": 7627,
      "gram": 7628,
      "Ġfalling": 7629,
      "ĠBen": 7630,
      "ĠSlow": 7631,
      "ĠSecond": 7632,
      "akt": 7633,
      "Ġbehi": 7634,
      "ĠAt": 7635,
      "Ġforces": 7636,
      "Ġhuge": 7637,
      "Ġmotive": 7638,
      "ĠList": 7639,
      "Ä°kinci": 7640,
      "ĠyapÄ±mÄ±": 7641,
      "Ġsaving": 7642,
      "Ġabroad": 7643,
      "lamalar": 7644,
      "Ġbulur": 7645,
      "ĠkaÃ§Ä±nÄ±": 7646,
      "asÄ±na": 7647,
      "geÃ§": 7648,
      "Ġanswering": 7649,
      "ĠRut": 7650,
      "Ġdolu": 7651,
      "Ġchoice": 7652,
      "Ġseeing": 7653,
      "Ġseasons": 7654,
      "Ġlink": 7655,
      "Ġtelef": 7656,
      "Ã¼yÃ¼": 7657,
      "Ġnoon": 7658,
      "Ġartar": 7659,
      "ĠiyileÅŁ": 7660,
      "Ġbreakfast": 7661,
      "luÄŁu": 7662,
      "Ġdakikadan": 7663,
      "Ġgiden": 7664,
      "Ġinterfer": 7665,
      "zeti": 7666,
      "ĠÃ¶ÄŁrenmektir": 7667,
      "uyun": 7668,
      "Ġwalks": 7669,
      "Ġdiet": 7670,
      "ĠsaÄŁlamak": 7671,
      "Ġdurumlarda": 7672,
      "ĠWell": 7673,
      "Ġkurma": 7674,
      "Ġmotivasyonunuzu": 7675,
      "ĠkolaydÄ±r": 7676,
      "Ġafterno": 7677,
      "Ġlistele": 7678,
      "Ġyoldan": 7679,
      "ĠyÃ¶nlendir": 7680,
      "ĠhÄ±zlandÄ±": 7681,
      "ĠkarÅŁÄ±sÄ±nda": 7682,
      "malÄ±dÄ±r": 7683,
      "ĠyÃ¶ntemle": 7684,
      "ĠmesajÄ±": 7685,
      "ĠortasÄ±nda": 7686,
      "Ġeasiest": 7687,
      "Ġdiscover": 7688,
      "Ä±ldÄ±": 7689,
      "Ġhedeflerin": 7690,
      "Ġenvironmental": 7691,
      "ĠrahatÃ§a": 7692,
      "ĠaÃ§Ä±klayÄ±n": 7693,
      "ĠaÃ§Ä±kÃ§a": 7694,
      "leÅŁtirilmiÅŁ": 7695,
      "ĠkalkÄ±ÅŁ": 7696,
      "ĠkalkmayÄ±": 7697,
      "Ġstresli": 7698,
      "Ġinterruption": 7699,
      "bette": 7700,
      "Ġdetaylar": 7701,
      "dÄ±ÄŁÄ±nÄ±zdan": 7702,
      "leyebilir": 7703,
      "Ġcasually": 7704,
      "Ġincelemek": 7705,
      "ĠAlso": 7706,
      "Ġagainst": 7707,
      "Ġpresence": 7708,
      "ĠkazandÄ±r": 7709,
      "abilecek": 7710,
      "ĠgÃ¶ndermek": 7711,
      "ĠvÃ¼cudunu": 7712,
      "ĠsevdiÄŁiniz": 7713,
      "Ġshoes": 7714,
      "ĠaydÄ±nlÄ±k": 7715,
      "lanmÄ±ÅŁtÄ±r": 7716,
      "Ġseninle": 7717,
      "Ġhesaplama": 7718,
      "ĠbaskÄ±": 7719,
      "ĠtarafÄ±n": 7720,
      "dÄ±ktan": 7721,
      "Ġbelongs": 7722,
      "Ġgrows": 7723,
      "Ġseferinde": 7724,
      "ublic": 7725,
      "ĠÄ°ÅŁte": 7726,
      "ĠetkileÅŁim": 7727,
      "ĠtatlÄ±": 7728,
      "Ġfrustration": 7729,
      "ĠfÄ±rsatÄ±": 7730,
      "ĠaltÄ±na": 7731,
      "duktan": 7732,
      "Ġphrases": 7733,
      "Ġobligation": 7734,
      "Ġalerts": 7735,
      "Ġempty": 7736,
      "-steps": 7737,
      "Ġoccas": 7738,
      "ĠnoktasÄ±nÄ±": 7739,
      "Ġconcerns": 7740,
      "ĠÃĸzellikle": 7741,
      "Ġtencere": 7742,
      "Ġstacking": 7743,
      "ĠsÄ±rasÄ±nda": 7744,
      "Ġmetaboliz": 7745,
      "ĠGenellikle": 7746,
      "Ġyetene": 7747,
      "Ġekipman": 7748,
      "Ġsuyunu": 7749,
      "Practice": 7750,
      "Ġgems": 7751,
      "ĠTranslate": 7752,
      "ĠdoÄŁrultusunda": 7753,
      "Ġstrengthen": 7754,
      "Ġprefer": 7755,
      "Ġbehind": 7756,
      "51": 7757,
      "688": 7758,
      "Eisenhower": 7759,
      "Focus": 7760,
      "Yap": 7761,
      "bri": 7762,
      "ctive": 7763,
      "case": 7764,
      "front": 7765,
      "gree": 7766,
      "hone": 7767,
      "how": 7768,
      "sit": 7769,
      "tri": 7770,
      "Ġaff": 7771,
      "ising": 7772,
      "Ġcap": 7773,
      "Ġpure": 7774,
      "Ġpublic": 7775,
      "Ġsesi": 7776,
      "Ġbacak": 7777,
      "Ġconsoli": 7778,
      "Ġkuma": 7779,
      "Ġkart": 7780,
      "lemeniz": 7781,
      "arks": 7782,
      "Ġign": 7783,
      "ĠDerin": 7784,
      "ĠYÃ¼z": 7785,
      "Ġwere": 7786,
      "Ġworth": 7787,
      "ĠYouTube": 7788,
      "dÄ±ÄŁÄ±n": 7789,
      "Ġfight": 7790,
      "ĠeÄŁer": 7791,
      "Ġgaps": 7792,
      "ĠBaz": 7793,
      "ĠSort": 7794,
      "aket": 7795,
      "Ġhub": 7796,
      "amik": 7797,
      "Ġkonuyla": 7798,
      "lerinin": 7799,
      "lerinizin": 7800,
      "ĠyapÄ±ÅŁtÄ±r": 7801,
      "Ġquanti": 7802,
      "ĠzamanlÄ±": 7803,
      "logy": 7804,
      "ĠyazÄ±m": 7805,
      "Ġyazmaya": 7806,
      "Ġvac": 7807,
      "ator": 7808,
      "Ġistiyorsunuz": 7809,
      "ĠanlamÄ±": 7810,
      "Ä±nÄ±zdan": 7811,
      "Ġlooks": 7812,
      "Ġalloc": 7813,
      "cade": 7814,
      "Ä±klÄ±k": 7815,
      "ĠdÃ¼zgÃ¼n": 7816,
      "242": 7817,
      "Ġsuit": 7818,
      "Ġovers": 7819,
      "Ġyerin": 7820,
      "Ġbelirten": 7821,
      "Ġgetirmek": 7822,
      "Ġgeliyor": 7823,
      "Ġbitirmek": 7824,
      "Ġtutmaya": 7825,
      "ĠFlights": 7826,
      "Ġsettle": 7827,
      "'tÃ¼r": 7828,
      "ĠdÃ¼zeninde": 7829,
      "ĠalÄ±rken": 7830,
      "Ġintern": 7831,
      "ĠkullanmanÄ±z": 7832,
      "Ġkod": 7833,
      "Ġokuyarak": 7834,
      "kanlÄ±k": 7835,
      "Ġwall": 7836,
      "arklÄ±": 7837,
      "Ġdownload": 7838,
      "ĠWa": 7839,
      "Ġodaklanmaya": 7840,
      "Ġdue": 7841,
      "Ġkursu": 7842,
      "Ġelinize": 7843,
      "Ġdeniz": 7844,
      "ĠyanÄ±nda": 7845,
      "Ġspeed": 7846,
      "Ġfinally": 7847,
      "ĠgÃ¼venilir": 7848,
      "ĠyapÄ±sÄ±": 7849,
      "Ġizleyerek": 7850,
      "layabilirsiniz": 7851,
      "Ġtamamlayarak": 7852,
      "Ġfixing": 7853,
      "Ġharc": 7854,
      "bilmek": 7855,
      "Ġkalkmak": 7856,
      "Ġmissed": 7857,
      "Ġeffortless": 7858,
      "Ġsesini": 7859,
      "Ġvalues": 7860,
      "ĠdÄ±ÅŁÄ±nda": 7861,
      "Ġdetail": 7862,
      "diÄŁinizde": 7863,
      "ĠÃĸÄŁrenmeyi": 7864,
      "Ġyoludur": 7865,
      "ebilirsin": 7866,
      "ĠÃ§izgi": 7867,
      "Ġsabitleyin": 7868,
      "Ġcausing": 7869,
      "Ġekranlardan": 7870,
      "Ġmutlu": 7871,
      "Ġinitiative": 7872,
      "Ġtempo": 7873,
      "ĠsonuÃ§lar": 7874,
      "ĠkaynaklanÄ±r": 7875,
      "Ġuyumak": 7876,
      "Ġfrequent": 7877,
      "tÄ±rabilir": 7878,
      "ĠkoÅŁu": 7879,
      "Ġsistemi": 7880,
      "ĠkalÄ±p": 7881,
      "ĠbaÅŁlarsanÄ±z": 7882,
      "duÄŁunuzda": 7883,
      "Ġtotaling": 7884,
      "leÅŁtirmen": 7885,
      "Ġrequirements": 7886,
      "ĠyarÄ±sÄ±nÄ±": 7887,
      "Ġplatfor": 7888,
      "Ġbasket": 7889,
      "lindeki": 7890,
      "Ġinsp": 7891,
      "Ġfilling": 7892,
      "ĠfotoÄŁrafÃ§Ä±lÄ±k": 7893,
      "Ġaccountability": 7894,
      "ĠdÃ¶nÃ¼ÅŁtÃ¼r": 7895,
      "Ġfilm": 7896,
      "Ġbank": 7897,
      "Ġbelirleyebilirsiniz": 7898,
      "Ġdeleg": 7899,
      "Ġibarettir": 7900,
      "Ġsebzeler": 7901,
      "Ġstraight": 7902,
      "Ġsalata": 7903,
      "Ġeylem": 7904,
      "Ġoverthinking": 7905,
      "Ġsuppresses": 7906,
      "Ġpromise": 7907,
      "Ġnutriti": 7908,
      "Ġcontinuing": 7909,
      "Ġassigning": 7910,
      "Ġimpulsively": 7911,
      "repare": 7912,
      "Ġearlier": 7913,
      "Ġafternoon": 7914,
      "Ġconsolida": 7915,
      "-S": 7916,
      "-light": 7917,
      "618": 7918,
      "643": 7919,
      "76": 7920,
      "KÄ±sa": 7921,
      "ada": 7922,
      "ghest": 7923,
      "igh": 7924,
      "kÃ¼r": 7925,
      "lit": 7926,
      "mart": 7927,
      "nable": 7928,
      "oices": 7929,
      "plan": 7930,
      "the": 7931,
      "zor": 7932,
      "ÉĻ": 7933,
      "âĥ": 7934,
      "Ġum": 7935,
      "Ġisten": 7936,
      "Ġcities": 7937,
      "Ġpan": 7938,
      "ĠsÄ±nav": 7939,
      "Ġbana": 7940,
      "Ġpromo": 7941,
      "rath": 7942,
      "Ġkick": 7943,
      "memiÅŁ": 7944,
      "ÅŁek": 7945,
      "Ġfoto": 7946,
      "Ġgrup": 7947,
      "action": 7948,
      "ĠBunlar": 7949,
      "ĠBana": 7950,
      "ĠSw": 7951,
      "ĠSunda": 7952,
      "ĠSmall": 7953,
      "Ã¶y": 7954,
      "Ã¶ne": 7955,
      "izyon": 7956,
      "ĠmÃ¼zik": 7957,
      "abl": 7958,
      "Ġsok": 7959,
      "Ġzaten": 7960,
      "Ġforg": 7961,
      "sting": 7962,
      "Ġhorm": 7963,
      "ĠbaÅŁÄ±nÄ±": 7964,
      "Ġneye": 7965,
      "Ġolumlu": 7966,
      "Ġkonunun": 7967,
      "ĠyapacaÄŁÄ±nÄ±z": 7968,
      "ĠOften": 7969,
      "Ġsays": 7970,
      "ĠPrepare": 7971,
      "yormuÅŁ": 7972,
      "**.Ċ": 7973,
      "Ä±mda": 7974,
      "Ġbeginners": 7975,
      "ĠbuluÅŁtu": 7976,
      "Ġ(\"": 7977,
      "Ġvs": 7978,
      "Ġvict": 7979,
      "suna": 7980,
      "ĠOna": 7981,
      "ĠcÃ¼mleleri": 7982,
      "Ġburada": 7983,
      "ĠanlamÄ±na": 7984,
      "ĠplanlayÄ±p": 7985,
      "ĠNot": 7986,
      "eynman": 7987,
      "Ġmail": 7988,
      "Ġmarath": 7989,
      "Ġlot": 7990,
      "ĠlÃ¼tfen": 7991,
      "malara": 7992,
      "Ġrare": 7993,
      "giene": 7994,
      "ĠÅŁÄ±k": 7995,
      "Ġtracking": 7996,
      "Ġtopra": 7997,
      "172": 7998,
      "ganize": 7999,
      "Ġbelirgin": 8000,
      "Ġboard": 8001,
      "Ġgear": 8002,
      "Ġbitirme": 8003,
      "Ġbike": 8004,
      "Ġbahsed": 8005,
      "Ġlay": 8006,
      "Ġoturarak": 8007,
      "ikkat": 8008,
      "ĠdakikasÄ±": 8009,
      "selves": 8010,
      "oken": 8011,
      "Ġgire": 8012,
      "ĠdÃ¼zeniyle": 8013,
      "Ġuns": 8014,
      "Ġkullanmadan": 8015,
      "Ã¼rekli": 8016,
      "ĠiÅŁlerini": 8017,
      "Ġsaatine": 8018,
      "Ġevinizin": 8019,
      "Ġuykuyu": 8020,
      "ĠduruÅŁ": 8021,
      "Ġkurt": 8022,
      "ĠgeÃ§ici": 8023,
      "Ġscheduled": 8024,
      "Ġstuff": 8025,
      "ĠaÃ§Ä±lÄ±": 8026,
      "Ġtelefonu": 8027,
      "ĠgÃ¶rmek": 8028,
      "Ġhighest": 8029,
      "tikten": 8030,
      "Ġalanlarda": 8031,
      "ĠalanlarÄ±nÄ±": 8032,
      "Ġcluttering": 8033,
      "Ġdarkness": 8034,
      "ssential": 8035,
      "lendire": 8036,
      "Ġhissetmek": 8037,
      "ĠBaÅŁlamak": 8038,
      "Ġayarla": 8039,
      "ĠpratiÄŁi": 8040,
      "Ġtaze": 8041,
      "Ġtalep": 8042,
      "ĠaÃ§Ä±klama": 8043,
      "Ġseviyede": 8044,
      "ayÄ±p": 8045,
      "ĠmÄ±sÄ±nÄ±z": 8046,
      "Ġstresini": 8047,
      "Ġparlak": 8048,
      "ĠEvde": 8049,
      "Ãĸz": 8050,
      "Ã¼lt": 8051,
      "Ġmusunuz": 8052,
      "Ġclosing": 8053,
      "Ġclarification": 8054,
      "ĠÃ§ekici": 8055,
      "ĠyanÄ±na": 8056,
      "Ġedilen": 8057,
      "Ġregarding": 8058,
      "Ġsohbetler": 8059,
      "Ġwinnable": 8060,
      "ĠiÃ§erir": 8061,
      "Ġkazanmak": 8062,
      "Ġsepet": 8063,
      "ĠSizinle": 8064,
      "Ġdocument": 8065,
      "Ġsessizce": 8066,
      "istics": 8067,
      "ĠalÄ±ÅŁtÄ±r": 8068,
      "Ġhavuzu": 8069,
      "ĠAlÄ±ÅŁkanlÄ±klar": 8070,
      "ĠiÅŁlev": 8071,
      "Ġsessizlik": 8072,
      "Ġuykusuz": 8073,
      "ĠolduÄŁunuzda": 8074,
      "ĠkeÅŁfetmek": 8075,
      "Ġpicture": 8076,
      "Ġhygiene": 8077,
      "Ġzihn": 8078,
      "Ġzihni": 8079,
      "Ġzihinsel": 8080,
      "Ġinvolve": 8081,
      "Ġuyumaya": 8082,
      "ĠetkinliÄŁi": 8083,
      "ĠodanÄ±zÄ±": 8084,
      "Ãĸncelikle": 8085,
      "ĠuÃ§ak": 8086,
      "ĠeÄŁitim": 8087,
      "ĠduygularÄ±nÄ±zÄ±": 8088,
      "Ġvaluable": 8089,
      "Ġadapt": 8090,
      "ĠdÃ¼ÅŁÃ¼ndÃ¼ÄŁ": 8091,
      "tÄ±racaktÄ±r": 8092,
      "Ġalert": 8093,
      "ĠÃ¶zgÃ¼": 8094,
      "-step": 8095,
      "ĠÃ¶ÄŁrendik": 8096,
      "Ġlogistics": 8097,
      "Ġbeceriler": 8098,
      "Ã¼ÅŁÃ¼nce": 8099,
      "Ġportre": 8100,
      "Ġsenaryo": 8101,
      "Ġcomputers": 8102,
      "Ġpatterns": 8103,
      "ĠbaÄŁlantÄ±": 8104,
      "Ġtourist": 8105,
      "cribe": 8106,
      "urgent": 8107,
      "Ġstruggle": 8108,
      "Ġmistakes": 8109,
      "Ġmeyve": 8110,
      "ï¸ıâĥ": 8111,
      "ĠbardaÄŁÄ±": 8112,
      "Ġfloor": 8113,
      "Ġaccurate": 8114,
      "Ġflashcard": 8115,
      "Ġinternation": 8116,
      "Ġnutritious": 8117,
      "ï¸ıâĥ£": 8118,
      "\"**": 8119,
      "'m": 8120,
      "'ten": 8121,
      "-en": 8122,
      "ested": 8123,
      "ilet": 8124,
      "lÄ±n": 8125,
      "lge": 8126,
      "lisiniz": 8127,
      "oloj": 8128,
      "Ä±yorsunuz": 8129,
      "Ġcut": 8130,
      "ĠtÄ±k": 8131,
      "rect": 8132,
      "Ġbot": 8133,
      "Ġbuna": 8134,
      "Ġbildir": 8135,
      "ula": 8136,
      "ulu": 8137,
      "verbal": 8138,
      "aris": 8139,
      "Ġcondi": 8140,
      "Ġfront": 8141,
      "ĠBy": 8142,
      "yabilirsiniz": 8143,
      "Ġstory": 8144,
      "ĠAÅŁaÄŁÄ±": 8145,
      "Ġkarak": 8146,
      "ĠanlÄ±yorum": 8147,
      "Ġyours": 8148,
      "ĠGreat": 8149,
      "ĠadÄ±mdan": 8150,
      "ĠbaÅŁlÄ±ÄŁÄ±": 8151,
      "mektedir": 8152,
      "Ġhass": 8153,
      "Ġvere": 8154,
      "lÄ±ÄŁÄ±n": 8155,
      "lamanÄ±zÄ±": 8156,
      "ĠÃ§im": 8157,
      "Ġvari": 8158,
      "ĠHang": 8159,
      "Ġmana": 8160,
      "Ġseek": 8161,
      "ĠDenizle": 8162,
      "Ġtelev": 8163,
      "ondan": 8164,
      "ĠÅŁunu": 8165,
      "Ġkalab": 8166,
      "Ġkalkarak": 8167,
      "Ġhobi": 8168,
      "146": 8169,
      "ĠasansÃ¶r": 8170,
      "ĠeÅŁit": 8171,
      "246": 8172,
      "inyal": 8173,
      "ersiz": 8174,
      "Ġexha": 8175,
      "Ġbelirsiz": 8176,
      "Ġarm": 8177,
      "lenmesi": 8178,
      "ĠfotoÄŁrafÄ±nÄ±": 8179,
      "Ġmakine": 8180,
      "Ġlayo": 8181,
      "Ġilham": 8182,
      "Ġtutar": 8183,
      "Ġtuttu": 8184,
      "ĠdakikasÄ±nÄ±": 8185,
      "ĠbahÃ§enin": 8186,
      "ĠayarÄ±": 8187,
      "ĠkullandÄ±ÄŁÄ±nÄ±z": 8188,
      "ording": 8189,
      "ĠkullanÄ±p": 8190,
      "Ġhedefini": 8191,
      "ĠpiÅŁirin": 8192,
      "ĠÃ§alÄ±ÅŁtÄ±r": 8193,
      "mited": 8194,
      "Ġodada": 8195,
      "andÄ±": 8196,
      "ĠkaydÄ±r": 8197,
      "roup": 8198,
      "Ġpoor": 8199,
      "ĠakÄ±l": 8200,
      "Ġdurmak": 8201,
      "ĠgÃ¼c": 8202,
      "Ġleaves": 8203,
      "erece": 8204,
      "Ġgerektirme": 8205,
      "Ġerk": 8206,
      "Ġyolunu": 8207,
      "lamasÄ±": 8208,
      "Ġsorarak": 8209,
      "ĠÃ§Ä±kan": 8210,
      "ĠdeÄŁilse": 8211,
      "ĠsorunlarÄ±nÄ±z": 8212,
      "Ġkapak": 8213,
      "Ġdinleme": 8214,
      "Ġolmasa": 8215,
      "Ġhareketlerle": 8216,
      "ĠayardÄ±": 8217,
      "Ġbudgeting": 8218,
      "Ġways": 8219,
      "ĠsÄ±kÃ§a": 8220,
      "ĠadÄ±mlarÄ±nÄ±zÄ±": 8221,
      "Ġkahves": 8222,
      "?\",": 8223,
      "Ġterms": 8224,
      "ĠEvinizin": 8225,
      "Ġseviyeniz": 8226,
      "Ġedebi": 8227,
      "ĠRespect": 8228,
      "ebiliriz": 8229,
      "Ġsoruya": 8230,
      "Ġpilav": 8231,
      "Ġcurrently": 8232,
      "ĠaraÃ§larÄ±nÄ±": 8233,
      "Ġreviews": 8234,
      "Ġvisualize": 8235,
      "Ġattack": 8236,
      "ĠÃ§Ä±karÄ±n": 8237,
      "Ġdesignate": 8238,
      "ĠbaÅŁlayacak": 8239,
      "Ġrefer": 8240,
      "ynam": 8241,
      "Ġjudging": 8242,
      "Ġhavuzun": 8243,
      "Ġverirken": 8244,
      "Ġbaggage": 8245,
      "Ġgerektiren": 8246,
      "ĠkÃ¶ÅŁ": 8247,
      "ĠsÃ¶ylemek": 8248,
      "ĠSleeping": 8249,
      "Ġalternatif": 8250,
      "ĠClean": 8251,
      "ĠkolaylaÅŁÄ±r": 8252,
      "Ġmodel": 8253,
      "ĠyaÅŁamak": 8254,
      "Ġchallenge": 8255,
      "tiÅŁime": 8256,
      "Ġkonularda": 8257,
      "lusively": 8258,
      "Ġexclusively": 8259,
      "Ġsounds": 8260,
      "Ġpatient": 8261,
      "Ġsituations": 8262,
      "Ġpreparing": 8263,
      "Ġinviting": 8264,
      "Ġrelease": 8265,
      "ĠhatÄ±rlatÄ±n": 8266,
      "Ġtuvalet": 8267,
      "Ġhissedi": 8268,
      "ĠExpress": 8269,
      "Ġconflicts": 8270,
      "Ġsunuyorum": 8271,
      "Ġsatisfying": 8272,
      "Ġbelirtirseniz": 8273,
      "Ġobserv": 8274,
      "Ġezber": 8275,
      "Ġdishes": 8276,
      "Ġexplore": 8277,
      "Ġorigin": 8278,
      "Ġdilerim": 8279,
      "Ġconcentration": 8280,
      "Ġoccasion": 8281,
      "ĠBazen": 8282,
      "Ġquantity": 8283,
      "Ġkarakter": 8284,
      "Ġlayover": 8285,
      "\".": 8286,
      "72": 8287,
      "95": 8288,
      "Pick": 8289,
      "cal": 8290,
      "fotoÄŁraf": 8291,
      "ih": 8292,
      "ile": 8293,
      "put": 8294,
      "why": 8295,
      "yl": 8296,
      "ndirim": 8297,
      "Ä±t": 8298,
      "anlÄ±": 8299,
      "Ġcl": 8300,
      "Ġpant": 8301,
      "Ġpsik": 8302,
      "Ġski": 8303,
      "Ġsinyal": 8304,
      "ouble": 8305,
      "deep": 8306,
      "meleri": 8307,
      "ĠEff": 8308,
      "ĠyÄ±": 8309,
      "urther": 8310,
      "Ġcold": 8311,
      "Ġhearing": 8312,
      "ĠTurn": 8313,
      "Ġtoilet": 8314,
      "dÄ±nÄ±": 8315,
      "Ġfly": 8316,
      "Ġfakt": 8317,
      "Ġfurther": 8318,
      "ĠSay": 8319,
      "Ġdynam": 8320,
      "ither": 8321,
      "Ġinner": 8322,
      "Ġstreak": 8323,
      "ĠAM": 8324,
      "Ġanah": 8325,
      "Ġbay": 8326,
      "Ġmem": 8327,
      "Ġformed": 8328,
      "Ġhitap": 8329,
      "ĠhÃ¢": 8330,
      "ĠMix": 8331,
      "Ġuyul": 8332,
      "Ġuyurken": 8333,
      "ĠonlarÄ±": 8334,
      "Ġverecek": 8335,
      "Ġverebilirim": 8336,
      "Ġissue": 8337,
      "lerseniz": 8338,
      "ĠyapmayÄ±n": 8339,
      "ĠÃ¶neriniz": 8340,
      "ĠÃ¶nerebilirim": 8341,
      "eyle": 8342,
      "Ġresear": 8343,
      "Ġsav": 8344,
      "ĠPhotoshop": 8345,
      "ĠÃ§aÄŁ": 8346,
      "ĠÃ§ocuk": 8347,
      "ĠBuy": 8348,
      "ool": 8349,
      "ĠdolaÅŁ": 8350,
      "Ġleg": 8351,
      "Ġvolu": 8352,
      "ĠHat": 8353,
      "ditionally": 8354,
      "ĠplanlÄ±yor": 8355,
      "Ġspoken": 8356,
      "Ġbypass": 8357,
      "Ġtema": 8358,
      "154": 8359,
      "Ġtrue": 8360,
      "Ġtrains": 8361,
      "lÄ±klÄ±": 8362,
      "174": 8363,
      "243": 8364,
      "mediÄŁi": 8365,
      "ĠLondra": 8366,
      "Ġarise": 8367,
      "Ġsorusu": 8368,
      "Ġboyu": 8369,
      "Ġgetirme": 8370,
      "Ġgetirir": 8371,
      "Ġdilinizi": 8372,
      "ĠilginÃ§": 8373,
      "ĠtoplamÄ±": 8374,
      "193": 8375,
      "ĠÃ§ekmeyi": 8376,
      "Ġupfront": 8377,
      "ĠalÄ±m": 8378,
      "Ġunrelated": 8379,
      "Ġhedefleyerek": 8380,
      "tÄ±ÄŁÄ±": 8381,
      "layalÄ±m": 8382,
      "ĠÃ§alÄ±ÅŁmayÄ±n": 8383,
      "ĠgÃ¶rece": 8384,
      "Ġpausing": 8385,
      "miyorum": 8386,
      "Ä±narak": 8387,
      "ĠBirincisi": 8388,
      "clear": 8389,
      "Ġanywhere": 8390,
      "manÄ±zdÄ±r": 8391,
      "Ġspeech": 8392,
      "Ġekra": 8393,
      "kinlik": 8394,
      "ssions": 8395,
      "ĠÃ¶nem": 8396,
      "Ġdistracting": 8397,
      "ĠbaÅŁlayabileceÄŁiniz": 8398,
      "ĠalanÄ±nÄ±za": 8399,
      "ĠÃ§Ä±kÄ±ÅŁ": 8400,
      "alarÄ±nÄ±zÄ±": 8401,
      "Ġlighting": 8402,
      "Ġdetour": 8403,
      "ĠdÃ¼ÅŁÃ¼nÃ¼r": 8404,
      "Ġconnecting": 8405,
      "weight": 8406,
      "ĠgÃ¶zlerinizi": 8407,
      "ĠmesajlaÅŁma": 8408,
      "Ġortalama": 8409,
      "Ġtemizlemek": 8410,
      "Ġdisa": 8411,
      "Ġstressed": 8412,
      "ĠbakÄ±m": 8413,
      "Ġopening": 8414,
      "ĠbÄ±rakmayÄ±n": 8415,
      "Ġhedeflerinize": 8416,
      "Ġpraise": 8417,
      "Ġthoughtful": 8418,
      "ĠgÃ¶revlerin": 8419,
      "ĠsÄ±kÄ±": 8420,
      "ĠsÄ±kÄ±ÅŁ": 8421,
      "Ġsupporting": 8422,
      "Ġseviye": 8423,
      "Ġazaltarak": 8424,
      "Ġmisin": 8425,
      "Ġefforts": 8426,
      "Ġyorul": 8427,
      "ĠThey": 8428,
      "ĠÃĸÄŁle": 8429,
      "ukarÄ±": 8430,
      "Ġrealis": 8431,
      "ĠgeÃ§irmeye": 8432,
      "beti": 8433,
      "ĠAdditionally": 8434,
      "ĠÃ§ekimi": 8435,
      "ĠgeldiÄŁinde": 8436,
      "Ġoturun": 8437,
      "ĠvÃ¼cudu": 8438,
      "nology": 8439,
      "Ġilerlemeler": 8440,
      "ĠgÃ¶rÃ¼nÃ¼m": 8441,
      "ĠkolaylaÅŁtÄ±rÄ±n": 8442,
      "ĠseÃ§enektir": 8443,
      "ĠkalanlarÄ±": 8444,
      "Ġpasses": 8445,
      "Ġcontainer": 8446,
      "ĠkiÅŁiyi": 8447,
      "Ġresponsi": 8448,
      "Ã¼sÃ¼": 8449,
      "Ġlimited": 8450,
      "ĠsÃ¼recin": 8451,
      "Ġsepara": 8452,
      "ĠfÄ±rÄ±n": 8453,
      "ĠboÅŁal": 8454,
      "Ġtekniklerini": 8455,
      "Ġbilgilerin": 8456,
      "Ġhikay": 8457,
      "ĠSÃ¼reÃ§": 8458,
      "Ġcircle": 8459,
      "Ġdefterine": 8460,
      "Ġname": 8461,
      "Ġaggre": 8462,
      "ĠAlÄ±ÅŁkanlÄ±klarÄ±": 8463,
      "ĠvÃ¼cudunuza": 8464,
      "ĠvÃ¼cudunuzu": 8465,
      "Ġbags": 8466,
      "ĠtanÄ±mlayÄ±n": 8467,
      "ĠkarÄ±ÅŁtÄ±r": 8468,
      "ĠSÄ±radan": 8469,
      "box": 8470,
      "ĠtarafÄ±ndan": 8471,
      "Ġbarriers": 8472,
      "Ġbitire": 8473,
      "Ġkaydetmek": 8474,
      "Ġcontent": 8475,
      "ĠiliÅŁki": 8476,
      "Ġcolle": 8477,
      "Ġchallenging": 8478,
      "Ġtatmin": 8479,
      "Ġheading": 8480,
      "ĠodanÄ±z": 8481,
      "ĠÃ§eviri": 8482,
      "Ġgeneral": 8483,
      "Ġtonunu": 8484,
      "ĠHÄ±zlÄ±ca": 8485,
      "gencies": 8486,
      "coming": 8487,
      "ĠsÄ±rayla": 8488,
      "Ġemergencies": 8489,
      "ĠbazÄ±": 8490,
      "Ġaccusations": 8491,
      "ĠbunlarÄ±n": 8492,
      "Ġhydration": 8493,
      "ĠÃ¼ret": 8494,
      "Ġassign": 8495,
      "Ġyuvar": 8496,
      "Ġinvit": 8497,
      "ĠÄ°lgili": 8498,
      "Ġprovide": 8499,
      "ĠOkuma": 8500,
      "leÅŁtirici": 8501,
      "Ġkoruyarak": 8502,
      "ĠkavramlarÄ±": 8503,
      "Ġkaydedip": 8504,
      "Ġsmooth": 8505,
      "Ġtouch": 8506,
      "Ġmaximize": 8507,
      "Ġlamba": 8508,
      "Ġyiyecek": 8509,
      "Ġsprints": 8510,
      "Ġtechnology": 8511,
      "Ġunfamiliar": 8512,
      "Ġencourages": 8513,
      "Ġcountertop": 8514,
      "-essential": 8515,
      "Ġplatforms": 8516,
      "Ġlayers": 8517,
      "Ġflashcards": 8518,
      "ĠEffective": 8519,
      "Ġresearching": 8520,
      "Ġvolume": 8521,
      "Ġaggreg": 8522,
      "-O": 8523,
      "645": 8524,
      "Kendi": 8525,
      "Se": 8526,
      "ceri": 8527,
      "kur": 8528,
      "kys": 8529,
      "nsan": 8530,
      "tÄ±k": 8531,
      "ucu": 8532,
      "vant": 8533,
      "what": 8534,
      "isan": 8535,
      "ination": 8536,
      "ereye": 8537,
      "Ġsmart": 8538,
      "Ġprim": 8539,
      "rative": 8540,
      "tely": 8541,
      "used": 8542,
      "ĠEÄŁ": 8543,
      "arr": 8544,
      "urb": 8545,
      "Ġcop": 8546,
      "ĠYÃ¼r": 8547,
      "ĠDolayÄ±sÄ±yla": 8548,
      "mamak": 8549,
      "mayacak": 8550,
      "Ġfamiliar": 8551,
      "Ġgue": 8552,
      "Ġora": 8553,
      "ĠSo": 8554,
      "ĠSÃ¶z": 8555,
      "ĠSÄ±nÄ±r": 8556,
      "ĠSkys": 8557,
      "Ġdistant": 8558,
      "ĠdÃ¼nya": 8559,
      "Ġinvite": 8560,
      "Ġbeceri": 8561,
      "lanmasÄ±": 8562,
      "Ġkase": 8563,
      "Ġrested": 8564,
      "ĠÃ¶v": 8565,
      "Ã¼nÃ¼n": 8566,
      "Ġant": 8567,
      "ĠanlarÄ±": 8568,
      "ĠGroup": 8569,
      "ĠadÄ±mlÄ±": 8570,
      "Ġthrow": 8571,
      "Ġnega": 8572,
      "Ã¼ksek": 8573,
      "nter": 8574,
      "ĠÄ°z": 8575,
      "Ġyapan": 8576,
      "Ġyapabilir": 8577,
      "Ġside": 8578,
      "Ġsindirim": 8579,
      "Ġresour": 8580,
      "think": 8581,
      "ĠÃ¶neriyle": 8582,
      "ĠÃ§ant": 8583,
      "ĠÃ§alÄ±": 8584,
      "yorsa": 8585,
      "ĠzamanÄ±nÄ±z": 8586,
      "ĠzamanÄ±nda": 8587,
      "imdilik": 8588,
      "oof": 8589,
      "ĠayÄ±nÄ±n": 8590,
      "ĠkayÄ±tlarda": 8591,
      "Ġbeginning": 8592,
      "Ġacqu": 8593,
      "Ġchoices": 8594,
      "ayarak": 8595,
      "digital": 8596,
      "Ġplanlar": 8597,
      "ĠplanlÄ±": 8598,
      "ĠMayayla": 8599,
      "Ġspir": 8600,
      "Ġsplit": 8601,
      "ĠÅŁi": 8602,
      "ĠÅŁabl": 8603,
      "Ġkalacak": 8604,
      "Ġkalmaya": 8605,
      "ĠÃĸzet": 8606,
      "Ġsona": 8607,
      "245": 8608,
      "medik": 8609,
      "raffic": 8610,
      "Ġiyidir": 8611,
      "lenir": 8612,
      "Ġsorusuna": 8613,
      "Ġgetir": 8614,
      "sinde": 8615,
      "anÄ±za": 8616,
      "195": 8617,
      "Ġetmeyin": 8618,
      "Ġkendisini": 8619,
      "ĠseÃ§erken": 8620,
      "ĠFeynman": 8621,
      "Ġinterested": 8622,
      "Ġkullanma": 8623,
      "ĠkullanÄ±cÄ±": 8624,
      "ĠkullanÄ±rken": 8625,
      "Ġthemselves": 8626,
      "ĠiÅŁini": 8627,
      "ĠiÅŁlerin": 8628,
      "Ġpace": 8629,
      "Ġpages": 8630,
      "duÄŁunda": 8631,
      "ĠsÃ¼reyle": 8632,
      "Ġedersiniz": 8633,
      "ĠsaÄŁla": 8634,
      "bileceÄŁin": 8635,
      "bileceÄŁini": 8636,
      "bileceÄŁinizi": 8637,
      "ĠkuralÄ±": 8638,
      "Ġride": 8639,
      "ĠgÃ¼lÃ¼m": 8640,
      "Ġgereksin": 8641,
      "Ġdistin": 8642,
      "Ġdenges": 8643,
      "Ġreplying": 8644,
      "ĠSabahÄ±": 8645,
      "ĠdÃ¼zenle": 8646,
      "Ġoption": 8647,
      "Ġfinan": 8648,
      "ĠayÄ±rda": 8649,
      "alarÄ±na": 8650,
      "Ġpeace": 8651,
      "ĠdÃ¼ÅŁÃ¼nelim": 8652,
      "ĠkapÄ±": 8653,
      "Ġfinishes": 8654,
      "Ġsens": 8655,
      "Ġyakala": 8656,
      "ĠyarÄ±m": 8657,
      "Ġuzman": 8658,
      "ĠoluÅŁturup": 8659,
      "Ġfollows": 8660,
      "Ġstressful": 8661,
      "Ġkelimesini": 8662,
      "Ġizleyebilirsiniz": 8663,
      "ĠayarlayÄ±p": 8664,
      "ĠrahatsÄ±z": 8665,
      "Ġhafiflet": 8666,
      "Ä±lÄ±m": 8667,
      "Ġspeaks": 8668,
      "ĠdÃ¶kÃ¼": 8669,
      "ĠdÃ¶ng": 8670,
      "ĠdÄ±ÅŁÄ±": 8671,
      "ĠbulunmaktadÄ±r": 8672,
      "ĠÅŀehir": 8673,
      "Ġrequiring": 8674,
      "Ġendor": 8675,
      "ĠgÃ¶steren": 8676,
      "ĠuyanÄ±nca": 8677,
      "ĠseÃ§enekleri": 8678,
      "Ġmutluluk": 8679,
      "Ġtracker": 8680,
      "Ġdelayed": 8681,
      "ĠyaklaÅŁÄ±k": 8682,
      "Ä±lacak": 8683,
      "Ã¼sÃ¼nÃ¼": 8684,
      "ĠKonuyu": 8685,
      "Ġkoyup": 8686,
      "ĠYatak": 8687,
      "muÅŁtur": 8688,
      "Ġhikayeler": 8689,
      "Ġtavsiyeler": 8690,
      "ĠÃ§evren": 8691,
      "ĠnumarasÄ±nÄ±z": 8692,
      "ĠaydÄ±nla": 8693,
      "important": 8694,
      "Ġhavuzda": 8695,
      "Ġkaydederek": 8696,
      "ĠanlaÅŁÄ±l": 8697,
      "Ġagree": 8698,
      "Ġbenim": 8699,
      "ĠÃĸnerim": 8700,
      "Ġservice": 8701,
      "ĠsaÄŁlayacaktÄ±r": 8702,
      "ĠSÄ±fÄ±r": 8703,
      "Ġreminder": 8704,
      "Ġkaybetmeden": 8705,
      "ĠElbette": 8706,
      "Ġengagement": 8707,
      "Ġcorrect": 8708,
      "Ġlisteleyin": 8709,
      "lenebilir": 8710,
      "-traffic": 8711,
      "ĠbaÅŁlÄ±yorsanÄ±z": 8712,
      "Ġjob": 8713,
      "Ġjoining": 8714,
      "ĠrahatlatÄ±cÄ±": 8715,
      "Ġmiddle": 8716,
      "Ġbilimsel": 8717,
      "ĠyorgunluÄŁu": 8718,
      "Ġaltyap": 8719,
      "Ġkenar": 8720,
      "ĠolacaÄŁÄ±nÄ±": 8721,
      "ĠkullanÄ±mÄ±nÄ±": 8722,
      "ĠsaÄŁlayabilirsiniz": 8723,
      "Ġhydrated": 8724,
      "ĠHaftada": 8725,
      "ĠyetiÅŁtirme": 8726,
      "Ġobjects": 8727,
      "Ġoccur": 8728,
      "Ġexpanding": 8729,
      "Ġsebzeleri": 8730,
      "Ġseferde": 8731,
      "canner": 8732,
      "ĠyataÄŁa": 8733,
      "ĠÄ°stediÄŁiniz": 8734,
      "ĠÃ§Ä±kara": 8735,
      "Ġsolid": 8736,
      "Ġtakvim": 8737,
      "ĠYemek": 8738,
      "Ġappreciation": 8739,
      "ĠBilgiyi": 8740,
      "Ġseveral": 8741,
      "Ġmodern": 8742,
      "cadele": 8743,
      "Ġsuitcase": 8744,
      "ĠSwitch": 8745,
      "Ġforgot": 8746,
      "Ġrarely": 8747,
      "Ġerkenden": 8748,
      "Ġkahvesini": 8749,
      "Ġoriginal": 8750,
      "Ġpsikoloj": 8751,
      "Ġdisagree": 8752,
      "Ġrealistically": 8753,
      "Ġprimary": 8754,
      "ĠSkyscanner": 8755,
      "Ġnegative": 8756,
      "-h": 8757,
      "-go": 8758,
      "-verbal": 8759,
      "Fi": 8760,
      "NasÄ±l": 8761,
      "Take": 8762,
      "best": 8763,
      "bÃ¼yÃ¼k": 8764,
      "ials": 8765,
      "kyÃ¼z": 8766,
      "roc": 8767,
      "vis": 8768,
      "ym": 8769,
      "ydÄ±": 8770,
      "yiz": 8771,
      "yna": 8772,
      "ndÄ±r": 8773,
      "inle": 8774,
      "Ġpage": 8775,
      "Ġsar": 8776,
      "Ġserv": 8777,
      "ssive": 8778,
      "ĠkÃ¼Ã§": 8779,
      "Ġkop": 8780,
      "temel": 8781,
      "ĠEyl": 8782,
      "orb": 8783,
      "arsanÄ±z": 8784,
      "ĠDi": 8785,
      "velo": 8786,
      "Ã§ok": 8787,
      "Ġheart": 8788,
      "ĠTwo": 8789,
      "lations": 8790,
      "may": 8791,
      "Ġfam": 8792,
      "Ġfelt": 8793,
      "Ġedece": 8794,
      "Ġgev": 8795,
      "ĠBlock": 8796,
      "ĠSes": 8797,
      "ized": 8798,
      "Ġbeyin": 8799,
      "kiÅŁ": 8800,
      "lanÄ±n": 8801,
      "lanabilir": 8802,
      "ĠAk": 8803,
      "ĠAra": 8804,
      "Ġsos": 8805,
      "ĠkaÅŁÄ±k": 8806,
      "Ġdemektir": 8807,
      "Ġformat": 8808,
      "Ġthir": 8809,
      "ĠbaÅŁÄ±ndan": 8810,
      "ĠdayalÄ±": 8811,
      "ĠiletiÅŁime": 8812,
      "Ġhaber": 8813,
      "sÄ±k": 8814,
      "ekkÃ¼r": 8815,
      "Ġolmaya": 8816,
      "Ġolman": 8817,
      "lÄ±ÄŁÄ±nÄ±z": 8818,
      "lerek": 8819,
      "lerdir": 8820,
      "lerinizle": 8821,
      "ĠyapacaÄŁÄ±nÄ±zÄ±": 8822,
      "ĠsayÄ±n": 8823,
      "ĠkaÃ§Ä±r": 8824,
      "Ġente": 8825,
      "ĠnumaranÄ±zÄ±": 8826,
      "Ġrisk": 8827,
      "Ġvur": 8828,
      "Ġmassive": 8829,
      "yeti": 8830,
      "ĠÃ¶ÄŁlen": 8831,
      "ĠÃ¶ÄŁret": 8832,
      "Ġworld": 8833,
      "ĠKur": 8834,
      "bile": 8835,
      "ĠVerilen": 8836,
      "emiz": 8837,
      "pped": 8838,
      "Ġlaugh": 8839,
      "Ġkendisi": 8840,
      "Ġgiy": 8841,
      "Ġgidece": 8842,
      "ĠkullanmayÄ±n": 8843,
      "Ġhedefleri": 8844,
      "ĠiÅŁten": 8845,
      "Ġkomp": 8846,
      "Ġokuyacak": 8847,
      "Ġpath": 8848,
      "Ġsaatlerine": 8849,
      "Ġedici": 8850,
      "Ġkayd": 8851,
      "Ġuykudan": 8852,
      "Ġdurumunuz": 8853,
      "Ġanyone": 8854,
      "ĠodaklanmaktÄ±r": 8855,
      "Ġdurak": 8856,
      "Ġdurup": 8857,
      "Ġkursuna": 8858,
      "Ġgerektirir": 8859,
      "uza": 8860,
      "ĠgÃ¶rÃ¼r": 8861,
      "Ġburning": 8862,
      "ĠbÃ¶lerek": 8863,
      "Ġapply": 8864,
      "ĠayÄ±rmak": 8865,
      "Ġlightweight": 8866,
      "ĠtÃ¼rÃ¼ne": 8867,
      "ĠyapÄ±yÄ±": 8868,
      "Ġwanting": 8869,
      "Ġdinamik": 8870,
      "ĠSonraki": 8871,
      "Ġmoves": 8872,
      "Ġhissetmeniz": 8873,
      "Ġizleme": 8874,
      "Ġbrisk": 8875,
      "gnitive": 8876,
      "Ġkonudaki": 8877,
      "ĠÄ±ÅŁÄ±klarÄ±": 8878,
      "543": 8879,
      "ĠÃĩev": 8880,
      "Åŀu": 8881,
      "ĠkalktÄ±ktan": 8882,
      "ĠbaÅŁarÄ±lÄ±": 8883,
      "ĠbaÅŁarÄ±sÄ±z": 8884,
      "Ġsurpr": 8885,
      "Ġdriven": 8886,
      "Ã¼nÃ¼zde": 8887,
      "Ġdefa": 8888,
      "Ġedelim": 8889,
      "Ġobj": 8890,
      "ĠdeÄŁerini": 8891,
      "Ġmaterials": 8892,
      "Ġdikkatle": 8893,
      "ĠeÄŁit": 8894,
      "Ġifadeler": 8895,
      "Ġuyanma": 8896,
      "ĠhatÄ±rlayÄ±n": 8897,
      "ĠihtiyacÄ±nÄ±": 8898,
      "ĠSessiz": 8899,
      "Ġsohbeti": 8900,
      "ĠihtiyaÃ§larÄ±nÄ±zÄ±": 8901,
      "Ġcycles": 8902,
      "Ġminor": 8903,
      "Ġindivi": 8904,
      "tirebilir": 8905,
      "Ġreplacement": 8906,
      "doÄŁ": 8907,
      "ĠkazanÄ±r": 8908,
      "Ġanlatmak": 8909,
      "Ġkutunun": 8910,
      "Ġbilgilerle": 8911,
      "ĠiÅŁlemleri": 8912,
      "ĠbÃ¼tÃ§e": 8913,
      "ĠaÅŁaÄŁÄ±da": 8914,
      "ĠyarÄ±sÄ±": 8915,
      "fix": 8916,
      "ĠElinizde": 8917,
      "ĠbelirtildiÄŁi": 8918,
      "ĠnoktalarÄ±": 8919,
      "Ġuygulayabilirsiniz": 8920,
      "Ġguilty": 8921,
      "Ġstanding": 8922,
      "ĠyaÅŁadÄ±ÄŁÄ±nÄ±z": 8923,
      "Ġspontaneity": 8924,
      "ĠdavranÄ±ÅŁÄ±": 8925,
      "ĠmantÄ±klÄ±sÄ±": 8926,
      "Ġcharger": 8927,
      "ĠyÃ¶netmek": 8928,
      "Ġrelationships": 8929,
      "Ġsounding": 8930,
      "DoÄŁru": 8931,
      "Ġsparked": 8932,
      "Ġdoldurun": 8933,
      "Ġempath": 8934,
      "ĠaydÄ±nlatma": 8935,
      "Ġopinions": 8936,
      "Ġgame": 8937,
      "Ġbeyne": 8938,
      "Ġstructured": 8939,
      "Ġreservation": 8940,
      "Ġreservations": 8941,
      "Ġcompliments": 8942,
      "ĠKahvaltÄ±": 8943,
      "ĠBilg": 8944,
      "Soru": 8945,
      "ĠÄ°liÅŁk": 8946,
      "Ġefficiently": 8947,
      "Ġboyut": 8948,
      "Ġmanzara": 8949,
      "Ġsustainable": 8950,
      "ĠdanÄ±ÅŁ": 8951,
      "ĠRutin": 8952,
      "Ġignore": 8953,
      "Ġoverspend": 8954,
      "Ġtemporar": 8955,
      "Ġpromote": 8956,
      "Ġmarathon": 8957,
      "Ġkurtul": 8958,
      "Ġinvolved": 8959,
      "Ġtelevizyon": 8960,
      "Ġpantry": 8961,
      "ĠfaktÃ¶r": 8962,
      "Ġdetours": 8963,
      "Ġsmoothly": 8964,
      "-Out": 8965,
      "Ġdistinct": 8966,
      "Ġforgotten": 8967,
      "ĠEylÃ¼l": 8968,
      "Ġempathy": 8969,
      "\").Ċ": 8970,
      "-at": 8971,
      "-val": 8972,
      "-In": 8973,
      "644": 8974,
      "642": 8975,
      ">Ċ": 8976,
      "Duy": 8977,
      "Make": 8978,
      "Son": 8979,
      "Uy": 8980,
      "Verilen": 8981,
      "Yani": 8982,
      "aur": 8983,
      "bre": 8984,
      "bise": 8985,
      "cÃ¼k": 8986,
      "don": 8987,
      "din": 8988,
      "dden": 8989,
      "dim": 8990,
      "dging": 8991,
      "focus": 8992,
      "gÃ¼": 8993,
      "iren": 8994,
      "kar": 8995,
      "llo": 8996,
      "mit": 8997,
      "sc": 8998,
      "tiniz": 8999,
      "uÃ§": 9000,
      "xting": 9001,
[...]
