{
  "version": "1.0",
  "truncation": null,
  "padding": null,
  "added_tokens": [
    {
      "id": 0,
      "content": "<unk>",
      "single_word": false,
      "lstrip": false,
      "rstrip": false,
      "normalized": false,
      "special": true
    },
    {
      "id": 1,
      "content": "<s>",
      "single_word": false,
      "lstrip": false,
      "rstrip": false,
      "normalized": false,
      "special": true
    },
    {
      "id": 2,
      "content": "</s>",
      "single_word": false,
      "lstrip": false,
      "rstrip": false,
      "normalized": false,
      "special": true
    },
    {
      "id": 3,
      "content": "<pad>",
      "single_word": false,
      "lstrip": false,
      "rstrip": false,
      "normalized": false,
      "special": true
    },
    {
      "id": 4,
      "content": "<|system|>",
      "single_word": false,
      "lstrip": false,
      "rstrip": false,
      "normalized": false,
      "special": true
    },
    {
      "id": 5,
      "content": "<|user|>",
      "single_word": false,
      "lstrip": false,
      "rstrip": false,
      "normalized": false,
      "special": true
    },
    {
      "id": 6,
      "content": "<|assistant|>",
      "single_word": false,
      "lstrip": false,
      "rstrip": false,
      "normalized": false,
      "special": true
    },
    {
      "id": 7,
      "content": "<|end|>",
      "single_word": false,
      "lstrip": false,
      "rstrip": false,
      "normalized": false,
      "special": true
    },
    {
      "id": 8,
      "content": "<|code|>",
      "single_word": false,
      "lstrip": false,
      "rstrip": false,
      "normalized": false,
      "special": true
    }
  ],
  "normalizer": null,
  "pre_tokenizer": {
    "type": "Sequence",
    "pretokenizers": [
      {
        "type": "Split",
        "pattern": {
          "Regex": "(?i:[’'](?:larımızdan|lerimizden|larımız|lerimiz|dan|den|tan|ten|dır|dir|dur|dür|tır|tir|tur|tür|nın|nin|nun|nün|yı|yi|yu|yü|ya|ye|da|de|ta|te|ın|in|un|ün|la|le|lı|li|lu|lü|a|e))|'(?i:[sdmt]|ll|ve|re)|[^\\r\\n\\p{L}\\p{N}]?+\\p{L}++|\\p{N}{1,3}+| ?[^\\s\\p{L}\\p{N}]++[\\r\\n]*+|\\s*[\\r\\n]|\\s+(?!\\S)|\\s+"
        },
        "behavior": "Isolated",
        "invert": false
      },
      {
        "type": "ByteLevel",
        "add_prefix_space": false,
        "trim_offsets": true,
        "use_regex": false
      }
    ]
  },
  "post_processor": {
    "type": "ByteLevel",
    "add_prefix_space": true,
    "trim_offsets": false,
    "use_regex": true
  },
  "decoder": {
    "type": "ByteLevel",
    "add_prefix_space": true,
    "trim_offsets": true,
    "use_regex": true
  },
  "model": {
    "type": "BPE",
    "dropout": null,
    "unk_token": "<unk>",
    "continuing_subword_prefix": null,
    "end_of_word_suffix": null,
    "fuse_unk": false,
    "byte_fallback": false,
    "ignore_merges": false,
    "vocab": {
      "<unk>": 0,
      "<s>": 1,
      "</s>": 2,
      "<pad>": 3,
      "<|system|>": 4,
      "<|user|>": 5,
      "<|assistant|>": 6,
      "<|end|>": 7,
      "<|code|>": 8,
      "!": 9,
      "\"": 10,
      "#": 11,
      "$": 12,
      "%": 13,
      "&": 14,
      "'": 15,
      "(": 16,
      ")": 17,
      "*": 18,
      "+": 19,
      ",": 20,
      "-": 21,
      ".": 22,
      "/": 23,
      "0": 24,
      "1": 25,
      "2": 26,
      "3": 27,
      "4": 28,
      "5": 29,
      "6": 30,
      "7": 31,
      "8": 32,
      "9": 33,
      ":": 34,
      ";": 35,
      "<": 36,
      "=": 37,
      ">": 38,
      "?": 39,
      "@": 40,
      "A": 41,
      "B": 42,
      "C": 43,
      "D": 44,
      "E": 45,
      "F": 46,
      "G": 47,
      "H": 48,
      "I": 49,
      "J": 50,
      "K": 51,
      "L": 52,
      "M": 53,
      "N": 54,
      "O": 55,
      "P": 56,
      "Q": 57,
      "R": 58,
      "S": 59,
      "T": 60,
      "U": 61,
      "V": 62,
      "W": 63,
      "X": 64,
      "Y": 65,
      "Z": 66,
      "[": 67,
      "\\": 68,
      "]": 69,
      "^": 70,
      "_": 71,
      "`": 72,
      "a": 73,
      "b": 74,
      "c": 75,
      "d": 76,
      "e": 77,
      "f": 78,
      "g": 79,
      "h": 80,
      "i": 81,
      "j": 82,
      "k": 83,
      "l": 84,
      "m": 85,
      "n": 86,
      "o": 87,
      "p": 88,
      "q": 89,
      "r": 90,
      "s": 91,
      "t": 92,
      "u": 93,
      "v": 94,
      "w": 95,
      "x": 96,
      "y": 97,
      "z": 98,
      "{": 99,
      "|": 100,
      "}": 101,
      "~": 102,
      "¡": 103,
      "¢": 104,
      "£": 105,
      "¤": 106,
      "¥": 107,
      "¦": 108,
      "§": 109,
      "¨": 110,
      "©": 111,
      "ª": 112,
      "«": 113,
      "¬": 114,
      "®": 115,
      "¯": 116,
      "°": 117,
      "±": 118,
      "²": 119,
      "³": 120,
      "´": 121,
      "µ": 122,
      "¶": 123,
      "·": 124,
      "¸": 125,
      "¹": 126,
      "º": 127,
      "»": 128,
      "¼": 129,
      "½": 130,
      "¾": 131,
      "¿": 132,
      "À": 133,
      "Á": 134,
      "Â": 135,
      "Ã": 136,
      "Ä": 137,
      "Å": 138,
      "Æ": 139,
      "Ç": 140,
      "È": 141,
      "É": 142,
      "Ê": 143,
      "Ë": 144,
      "Ì": 145,
      "Í": 146,
      "Î": 147,
      "Ï": 148,
      "Ð": 149,
      "Ñ": 150,
      "Ò": 151,
      "Ó": 152,
      "Ô": 153,
      "Õ": 154,
      "Ö": 155,
      "×": 156,
      "Ø": 157,
      "Ù": 158,
      "Ú": 159,
      "Û": 160,
      "Ü": 161,
      "Ý": 162,
      "Þ": 163,
      "ß": 164,
      "à": 165,
      "á": 166,
      "â": 167,
      "ã": 168,
      "ä": 169,
      "å": 170,
      "æ": 171,
      "ç": 172,
      "è": 173,
      "é": 174,
      "ê": 175,
      "ë": 176,
      "ì": 177,
      "í": 178,
      "î": 179,
      "ï": 180,
      "ð": 181,
      "ñ": 182,
      "ò": 183,
      "ó": 184,
      "ô": 185,
      "õ": 186,
      "ö": 187,
      "÷": 188,
      "ø": 189,
      "ù": 190,
      "ú": 191,
      "û": 192,
      "ü": 193,
      "ý": 194,
      "þ": 195,
      "ÿ": 196,
      "Ā": 197,
      "ā": 198,
      "Ă": 199,
      "ă": 200,
      "Ą": 201,
      "ą": 202,
      "Ć": 203,
      "ć": 204,
      "Ĉ": 205,
      "ĉ": 206,
      "Ċ": 207,
      "ċ": 208,
      "Č": 209,
      "č": 210,
      "Ď": 211,
      "ď": 212,
      "Đ": 213,
      "đ": 214,
      "Ē": 215,
      "ē": 216,
      "Ĕ": 217,
      "ĕ": 218,
      "Ė": 219,
      "ė": 220,
      "Ę": 221,
      "ę": 222,
      "Ě": 223,
      "ě": 224,
      "Ĝ": 225,
      "ĝ": 226,
      "Ğ": 227,
      "ğ": 228,
      "Ġ": 229,
      "ġ": 230,
      "Ģ": 231,
      "ģ": 232,
      "Ĥ": 233,
      "ĥ": 234,
      "Ħ": 235,
      "ħ": 236,
      "Ĩ": 237,
      "ĩ": 238,
      "Ī": 239,
      "ī": 240,
      "Ĭ": 241,
      "ĭ": 242,
      "Į": 243,
      "į": 244,
      "İ": 245,
      "ı": 246,
      "Ĳ": 247,
      "ĳ": 248,
      "Ĵ": 249,
      "ĵ": 250,
      "Ķ": 251,
      "ķ": 252,
      "ĸ": 253,
      "Ĺ": 254,
      "ĺ": 255,
      "Ļ": 256,
      "ļ": 257,
      "Ľ": 258,
      "ľ": 259,
      "Ŀ": 260,
      "ŀ": 261,
      "Ł": 262,
      "ł": 263,
      "Ń": 264,
      "Ġa": 265,
      "<|": 266,
      "|>": 267,
      "is": 268,
      "nd": 269,
      "on": 270,
      "in": 271,
      "er": 272,
      "Ä±": 273,
      "an": 274,
      "Ġc": 275,
      "end": 276,
      "ĠĊ": 277,
      "|>:": 278,
      "|>Ċ": 279,
      "ti": 280,
      "Ġp": 281,
      "Ġs": 282,
      "ing": 283,
      "Ġt": 284,
      "Ġpr": 285,
      "ss": 286,
      "ist": 287,
      "re": 288,
      "Ġb": 289,
      "Ġcon": 290,
      "ant": 291,
      "de": 292,
      "ou": 293,
      "al": 294,
      "istant": 295,
      "ssistant": 296,
      "Ġpro": 297,
      "ish": 298,
      "ra": 299,
      "ce": 300,
      "Ġk": 301,
      "te": 302,
      "tion": 303,
      "Ġn": 304,
      "he": 305,
      "le": 306,
      "me": 307,
      "Ã¼": 308,
      "ul": 309,
      "us": 310,
      "ver": 311,
      "ĠE": 312,
      "or": 313,
      "Ġy": 314,
      "sa": 315,
      "ar": 316,
      "Ġi": 317,
      "ur": 318,
      "Ġand": 319,
      "ir": 320,
      "ĠD": 321,
      "gl": 322,
      "ÅŁ": 323,
      "da": 324,
      "ot": 325,
      "Ġco": 326,
      "ve": 327,
      "du": 328,
      "Ã§": 329,
      "user": 330,
      "assistant": 331,
      "Ġhe": 332,
      "ise": 333,
      "mm": 334,
      "ĠT": 335,
      "cise": 336,
      "Ġconcise": 337,
      "tem": 338,
      "ĠY": 339,
      "Ġare": 340,
      "ys": 341,
      "Ġw": 342,
      "ĠEn": 343,
      "gra": 344,
      "lp": 345,
      "Ġnot": 346,
      "Ġhelp": 347,
      "ful": 348,
      "ĠDo": 349,
      "versa": 350,
      "duce": 351,
      "versation": 352,
      "Ġconversation": 353,
      "mming": 354,
      "ĠYou": 355,
      "ystem": 356,
      "Ġprogra": 357,
      "urk": 358,
      "Ġassistant": 359,
      "Ġhelpful": 360,
      "Ġcode": 361,
      "glish": 362,
      "ĠEnglish": 363,
      "Ġproduce": 364,
      "Ġprogramming": 365,
      "Ġconversational": 366,
      "system": 367,
      "urkish": 368,
      "ĠTurkish": 369,
      "en": 370,
      "la": 371,
      "Ġto": 372,
      "it": 373,
      "ma": 374,
      "dÄ±": 375,
      "il": 376,
      "yÄ±": 377,
      "Ġf": 378,
      "Ġe": 379,
      "Ġg": 380,
      "ac": 381,
      "Ġo": 382,
      "es": 383,
      "ÄŁ": 384,
      "ha": 385,
      "Ġyou": 386,
      "ĠB": 387,
      "ĠS": 388,
      "iz": 389,
      "un": 390,
      "Ã¶": 391,
      "ug": 392,
      "Ġbir": 393,
      "Ġm": 394,
      "Ġd": 395,
      "ith": 396,
      "Ġwith": 397,
      "ĠayÄ±": 398,
      "Ġda": 399,
      "Ġve": 400,
      "ya": 401,
      "um": 402,
      "Ä±n": 403,
      "Ġin": 404,
      "ak": 405,
      "one": 406,
      "Ġbe": 407,
      "ly": 408,
      "ki": 409,
      "li": 410,
      "Ġst": 411,
      "out": 412,
      "estion": 413,
      "ĠiÃ§": 414,
      "nde": 415,
      "ab": 416,
      "lan": 417,
      "mp": 418,
      "ĠA": 419,
      "ri": 420,
      "et": 421,
      "Ġso": 422,
      "Ġthe": 423,
      "ĠiÃ§in": 424,
      "Ġka": 425,
      "Ġre": 426,
      "Ġya": 427,
      "Ã¼n": 428,
      "ĠÃ¶": 429,
      "det": 430,
      "rdÄ±": 431,
      "Ġan": 432,
      "ort": 433,
      "ĠkÄ±": 434,
      "Ġba": 435,
      "Ġadet": 436,
      "ĠayÄ±rdÄ±": 437,
      "Ġz": 438,
      "tic": 439,
      "Ġyour": 440,
      "mple": 441,
      "ilir": 442,
      "ner": 443,
      "dÄ±m": 444,
      "ĠkÄ±sa": 445,
      "Ġsh": 446,
      "ĠG": 447,
      "Ġu": 448,
      "ĠadÄ±m": 449,
      "lar": 450,
      ".Ċ": 451,
      "Ġsome": 452,
      "Ġme": 453,
      "ive": 454,
      "wo": 455,
      "Ġfor": 456,
      "Ġde": 457,
      "Ġtwo": 458,
      "Ġshort": 459,
      "ine": 460,
      "Ä±nÄ±": 461,
      "ari": 462,
      "mak": 463,
      "estions": 464,
      "Ġprac": 465,
      "Ġsomeone": 466,
      "tical": 467,
      "Ġstr": 468,
      "ugg": 469,
      "cen": 470,
      "Ġsugg": 471,
      "gling": 472,
      "uggling": 473,
      "ario": 474,
      "cenario": 475,
      "ĠGive": 476,
      "Ġstruggling": 477,
      "Ġpractical": 478,
      "Ġsuggestions": 479,
      "ĠScenario": 480,
      "abilir": 481,
      "ep": 482,
      "st": 483,
      "enti": 484,
      "Ġh": 485,
      "ĠgÃ¼n": 486,
      "Ġth": 487,
      "ĠbaÅŁ": 488,
      "Ġmo": 489,
      "mek": 490,
      "ĠM": 491,
      "ic": 492,
      "am": 493,
      "el": 494,
      "Ã¼k": 495,
      "Ġne": 496,
      "Ġkenti": 497,
      "Ġkentinde": 498,
      "Ġuy": 499,
      "Ġile": 500,
      "Ġon": 501,
      "nt": 502,
      "Ġday": 503,
      "very": 504,
      "alÄ±": 505,
      "sÄ±": 506,
      "yi": 507,
      "Ġevery": 508,
      "ĠL": 509,
      "Ä°": 510,
      "Ġha": 511,
      "ek": 512,
      "ut": 513,
      "ĠÄ°": 514,
      "nda": 515,
      "Ġol": 516,
      "qu": 517,
      "ow": 518,
      "Ġver": 519,
      "lk": 520,
      "Ġis": 521,
      "Ġkon": 522,
      "Ġor": 523,
      "ĠbaÅŁla": 524,
      "ler": 525,
      "den": 526,
      "lÄ±": 527,
      "Ġit": 528,
      "ation": 529,
      "Ġsi": 530,
      "as": 531,
      "Ġyap": 532,
      "Ġuyg": 533,
      "ĠÃ¶ner": 534,
      "Ġof": 535,
      "ec": 536,
      "unu": 537,
      "iÅŁ": 538,
      "uÅŁ": 539,
      "urum": 540,
      "iniz": 541,
      "hat": 542,
      "ĠO": 543,
      "Ġsa": 544,
      "ey": 545,
      "th": 546,
      "'s": 547,
      "uma": 548,
      "Ġti": 549,
      "acak": 550,
      "lam": 551,
      "Ġab": 552,
      "Ã¼Ã§": 553,
      "Ġqu": 554,
      "Ġres": 555,
      "ĠÄ°lk": 556,
      "ĠÃ¶neri": 557,
      "Ġzor": 558,
      "Ġabout": 559,
      "Ġiki": 560,
      "ĠP": 561,
      "Ġuygul": 562,
      "aman": 563,
      "ate": 564,
      "Ã¼Ã§Ã¼k": 565,
      "ĠÃ§": 566,
      "rasÄ±": 567,
      "ka": 568,
      "ĠBu": 569,
      "tir": 570,
      "yor": 571,
      "Ġbul": 572,
      "Ġzaman": 573,
      "usu": 574,
      "Ġnuma": 575,
      "ĠkaÃ§": 576,
      "ĠC": 577,
      "Ġtime": 578,
      "Ġsimple": 579,
      "Ġen": 580,
      "ĠkÃ¼Ã§Ã¼k": 581,
      "ef": 582,
      "ĠnumarasÄ±": 583,
      "ĠDurum": 584,
      "mir": 585,
      "ĠgÃ¼nÃ¼": 586,
      "im": 587,
      "day": 588,
      "wer": 589,
      "lik": 590,
      "Ġdaha": 591,
      "ah": 592,
      "ge": 593,
      "ning": 594,
      "Ġ\"": 595,
      "Ġone": 596,
      "Ġkonusu": 597,
      "ĠayÄ±n": 598,
      "Ġuygulan": 599,
      "Ġzorlan": 600,
      "ĠI": 601,
      "Ġuygulanabilir": 602,
      "rief": 603,
      "Ġkonusunda": 604,
      "Ġmeet": 605,
      "gin": 606,
      "swer": 607,
      "Ġnum": 608,
      "Ġnumar": 609,
      "Ġzorlanan": 610,
      "Ġbirine": 611,
      "Ġbegin": 612,
      "Ġquestion": 613,
      "10": 614,
      "**": 615,
      "riefly": 616,
      "oo": 617,
      "Ġanswer": 618,
      "ĠnumaralÄ±": 619,
      "ter": 620,
      "ĠdeÄŁ": 621,
      "Ã¼m": 622,
      "Ġwithout": 623,
      "yÄ±t": 624,
      "Ä±m": 625,
      "ĠEx": 626,
      "ample": 627,
      "Ġbeginner": 628,
      "ĠkayÄ±t": 629,
      "ĠbuluÅŁ": 630,
      "Ġeveryday": 631,
      "ĠExample": 632,
      "ĠBriefly": 633,
      "Ã¼z": 634,
      "Ġr": 635,
      "Ä±z": 636,
      "ĠbuluÅŁacak": 637,
      "Ġkentindeki": 638,
      "ĠR": 639,
      "ĠgÃ¼nÃ¼nde": 640,
      "Ġle": 641,
      "Ġdo": 642,
      "ment": 643,
      "Ġ(": 644,
      "se": 645,
      "Ġyaz": 646,
      "lo": 647,
      "Ġv": 648,
      "ĠSon": 649,
      "at": 650,
      "ĠH": 651,
      "15": 652,
      "Ġac": 653,
      "ĠbaÅŁlat": 654,
      "yorum": 655,
      "tiv": 656,
      "12": 657,
      "larda": 658,
      "ill": 659,
      "Ġch": 660,
      "sun": 661,
      "Ġisti": 662,
      "rak": 663,
      "ore": 664,
      "Ġj": 665,
      "ute": 666,
      "ĠdeÄŁiÅŁ": 667,
      "ack": 668,
      "ĠOn": 669,
      "Ġolsun": 670,
      "Ã¼mle": 671,
      "tirme": 672,
      "di": 673,
      "ĠcÃ¼mle": 674,
      "inute": 675,
      "ĠadÄ±mla": 676,
      "ĠBunu": 677,
      "ĠbaÅŁlatabilir": 678,
      "Ġistiyorum": 679,
      "ne": 680,
      "Ġzamanlarda": 681,
      "ĠadÄ±mÄ±m": 682,
      "Ġse": 683,
      "ĠbaÅŁlatabiliriz": 684,
      "aya": 685,
      "Ġman": 686,
      "13": 687,
      "Ġbu": 688,
      "Ġanlam": 689,
      "Ä±nÄ±z": 690,
      "Ġwill": 691,
      "Ä±r": 692,
      "ad": 693,
      "lif": 694,
      "Ġplan": 695,
      "nce": 696,
      "ĠdeÄŁiÅŁtirme": 697,
      "gh": 698,
      "ang": 699,
      "Ġby": 700,
      "ĠanlamÄ±nÄ±": 701,
      "ĠcÃ¼mleyi": 702,
      "ĠdeÄŁiÅŁtirmeden": 703,
      "Ġsp": 704,
      "fore": 705,
      "ĠN": 706,
      "Ġbefore": 707,
      "14": 708,
      "ĠZ": 709,
      "eniz": 710,
      "ĠMaya": 711,
      "ks": 712,
      "hi": 713,
      "Ġat": 714,
      "age": 715,
      "ert": 716,
      "ĠElif": 717,
      "ĠMert": 718,
      "eyn": 719,
      "ĠAr": 720,
      "ĠNo": 721,
      "ĠCan": 722,
      "eynep": 723,
      "Ġveya": 724,
      "ĠZeynep": 725,
      "ĠAda": 726,
      "Ġma": 727,
      "ĠEce": 728,
      "art": 729,
      "ĠNoah": 730,
      "erve": 731,
      "Ġl": 732,
      "ĠEmir": 733,
      "mal": 734,
      "id": 735,
      "bit": 736,
      "ina": 737,
      "Ġreserve": 738,
      "ĠLina": 739,
      "ed": 740,
      "Ġhabit": 741,
      "Ġmore": 742,
      "Ġtas": 743,
      "Ã¼r": 744,
      "ap": 745,
      "ĠArda": 746,
      "reak": 747,
      "ust": 748,
      "Ġfe": 749,
      "king": 750,
      "Ġsmal": 751,
      "Ġthis": 752,
      "ue": 753,
      "ends": 754,
      "ĠDeniz": 755,
      "Ġthat": 756,
      "Ġyapmak": 757,
      "Ġthan": 758,
      "Ġra": 759,
      "Ġte": 760,
      "if": 761,
      "leep": 762,
      "ĠRe": 763,
      "16": 764,
      "Ġchang": 765,
      "Ġmean": 766,
      "gi": 767,
      "Ġola": 768,
      "Ġye": 769,
      "Ġyo": 770,
      "ĠÃ": 771,
      "rite": 772,
      "ond": 773,
      "Ġvar": 774,
      "Ġsmall": 775,
      "like": 776,
      "Ġmeaning": 777,
      "ther": 778,
      "Ġits": 779,
      "Ġlear": 780,
      "ght": 781,
      "Ġchanging": 782,
      "ĠÅŁ": 783,
      "Ġfeel": 784,
      "Ġsleep": 785,
      "oc": 786,
      "20": 787,
      "utu": 788,
      "ren": 789,
      "ĠRew": 790,
      "Ġconcisely": 791,
      "ĠRewrite": 792,
      "ye": 793,
      "Ã¼ÅŁ": 794,
      "Ġal": 795,
      "isten": 796,
      "to": 797,
      "ocus": 798,
      "ĠÃ¶ÄŁ": 799,
      "ĠPra": 800,
      "yÄ±n": 801,
      "vi": 802,
      "ĠgÃ¶": 803,
      "Ġ**": 804,
      "ini": 805,
      "Ġminute": 806,
      "Ġrather": 807,
      "her": 808,
      "Ġmotiv": 809,
      "Ġkutu": 810,
      "oto": 811,
      "ay": 812,
      "Ġtr": 813,
      "dÄ±r": 814,
      "Ġmanage": 815,
      "Ġkal": 816,
      "ĠÃ¶nce": 817,
      "ro": 818,
      "eni": 819,
      "ta": 820,
      "ca": 821,
      "Ġjust": 822,
      "Ġtra": 823,
      "Ġfri": 824,
      "lÄ±k": 825,
      "ach": 826,
      "30": 827,
      "Ġminutes": 828,
      "ting": 829,
      "ell": 830,
      "'da": 831,
      "ku": 832,
      "Ġgo": 833,
      "Ġkutuda": 834,
      "Ġinto": 835,
      "Ġho": 836,
      "thing": 837,
      "ĠU": 838,
      "ntal": 839,
      "ĠAn": 840,
      "Ã¼y": 841,
      "Ġrout": 842,
      "ĠÃĸ": 843,
      "Ġreserved": 844,
      "bilir": 845,
      "Ġlearning": 846,
      "iti": 847,
      "tÄ±r": 848,
      "arÄ±": 849,
      "lin": 850,
      "Ġcomm": 851,
      "Ġroutine": 852,
      "hip": 853,
      "ĠÃ¶ÄŁren": 854,
      "17": 855,
      "vel": 856,
      "Ġtop": 857,
      "ĠeÅŁ": 858,
      "Ġas": 859,
      "ake": 860,
      "able": 861,
      "25": 862,
      "Ä±k": 863,
      "na": 864,
      "Ġbed": 865,
      "che": 866,
      "Ġcan": 867,
      "Ġex": 868,
      "ga": 869,
      "medi": 870,
      "Ġson": 871,
      "erlin": 872,
      "ĠBerlin": 873,
      "gue": 874,
      "dece": 875,
      "Ġbel": 876,
      "endship": 877,
      "ĠeÅŁya": 878,
      "ers": 879,
      "slo": 880,
      "Ġwor": 881,
      "our": 882,
      "ĠOslo": 883,
      "ĠdÃ¼z": 884,
      "kara": 885,
      "ĠLond": 886,
      "ying": 887,
      "inizi": 888,
      "ĠyÃ¼r": 889,
      "stan": 890,
      "ĠLondon": 891,
      "dan": 892,
      "iny": 893,
      "Ġim": 894,
      "Ġtravel": 895,
      "gan": 896,
      "ĠAnkara": 897,
      "28": 898,
      "zmir": 899,
      "ien": 900,
      "bul": 901,
      "Ġsu": 902,
      "men": 903,
      "bon": 904,
      "Ġtiny": 905,
      "ganiz": 906,
      "ĠLis": 907,
      "stanbul": 908,
      "Ġlike": 909,
      "mediate": 910,
      "ĠLisbon": 911,
      "ĠK": 912,
      "Ġimmediate": 913,
      "Ġdaki": 914,
      "Ġover": 915,
      "Ġtasks": 916,
      "Ġorganiz": 917,
      "erek": 918,
      "ven": 919,
      "Ġhabits": 920,
      "raf": 921,
      "Ġyer": 922,
      "ntalya": 923,
      "ĠAntalya": 924,
      "Ġfocus": 925,
      "ific": 926,
      "ste": 927,
      "18": 928,
      "Ġspec": 929,
      "Ġolarak": 930,
      "larÄ±": 931,
      "-b": 932,
      "ication": 933,
      "eep": 934,
      "ĠUse": 935,
      "bi": 936,
      "Ġbelir": 937,
      "ps": 938,
      "Ġiyi": 939,
      "len": 940,
      "ch": 941,
      "Ġno": 942,
      "ev": 943,
      "Ġkit": 944,
      "ĠPrague": 945,
      "Ġar": 946,
      "Ġspecific": 947,
      "ĠV": 948,
      "lÃ¼k": 949,
      "Ġplanning": 950,
      "'de": 951,
      "dule": 952,
      "chedule": 953,
      "ĠIzmir": 954,
      "em": 955,
      "lang": 956,
      "otoÄŁ": 957,
      "Ġhome": 958,
      "Ġbo": 959,
      "otoÄŁraf": 960,
      "23": 961,
      "Ġwell": 962,
      "Ġsor": 963,
      "ienna": 964,
      "Ġeach": 965,
      "ĠVienna": 966,
      "24": 967,
      "unication": 968,
      "ley": 969,
      "Ġwe": 970,
      "Ġfriendship": 971,
      "ure": 972,
      "Ġge": 973,
      "Ġbi": 974,
      "ĠyÃ¼rÃ¼y": 975,
      "ilgi": 976,
      "leri": 977,
      "ĠyÃ¼z": 978,
      "Ġbreak": 979,
      "Ġmotivation": 980,
      "Ġyoga": 981,
      "ĠHow": 982,
      "ĠfotoÄŁraf": 983,
      "Ġwhat": 984,
      "Ġph": 985,
      "ten": 986,
      "eing": 987,
      "lu": 988,
      "si": 989,
      "11": 990,
      "stead": 991,
      "-being": 992,
      "ĠIstanbul": 993,
      "Ġdil": 994,
      "pp": 995,
      "anÄ±z": 996,
      "tick": 997,
      "lece": 998,
      "ĠyÃ¼rÃ¼yÃ¼ÅŁ": 999,
      "Ġimmediately": 1000,
      "Ġbah": 1001,
      "Ġcommunication": 1002,
      "Ġmak": 1003,
      "abah": 1004,
      "Ġste": 1005,
      "Ġmanagement": 1006,
      "Ġtoplam": 1007,
      "Ġgoal": 1008,
      "ĠHer": 1009,
      "Ġboo": 1010,
      "Ġil": 1011,
      "ĠvardÄ±r": 1012,
      "Ġstart": 1013,
      "Ġinstead": 1014,
      "Ġitem": 1015,
      "vo": 1016,
      "tive": 1017,
      "Ġla": 1018,
      "ĠSt": 1019,
      "Ġkitap": 1020,
      "26": 1021,
      "hen": 1022,
      "Ġorganization": 1023,
      "Ä±ÅŁ": 1024,
      "Ġtut": 1025,
      "reate": 1026,
      "Ġsadece": 1027,
      "tions": 1028,
      "ck": 1029,
      "ind": 1030,
      "cak": 1031,
      "ĠgÃ¼nlÃ¼k": 1032,
      "-m": 1033,
      "ĠBreak": 1034,
      "27": 1035,
      "Ġyemek": 1036,
      "ild": 1037,
      "ĠbahÃ§": 1038,
      "Ġsonra": 1039,
      "ress": 1040,
      "Ġus": 1041,
      "Ġet": 1042,
      "-minute": 1043,
      "Ġay": 1044,
      "Ġkend": 1045,
      "Ġmany": 1046,
      "ĠÃ§ek": 1047,
      "Ġher": 1048,
      "ity": 1049,
      "Ġot": 1050,
      "Ġcle": 1051,
      "ĠseÃ§": 1052,
      "void": 1053,
      "80": 1054,
      "def": 1055,
      "up": 1056,
      "ily": 1057,
      "Ġdakika": 1058,
      "ik": 1059,
      "ick": 1060,
      "Ġkalem": 1061,
      "ĠF": 1062,
      "Ġweek": 1063,
      "siniz": 1064,
      "ally": 1065,
      "Ġtask": 1066,
      "ĠStart": 1067,
      "Ġup": 1068,
      "Ġmeets": 1069,
      "Ġsilgi": 1070,
      "ĠyÃ¶": 1071,
      "Ġcomple": 1072,
      "Ġset": 1073,
      "Ä±nÄ±zÄ±": 1074,
      "sisten": 1075,
      "22": 1076,
      "ÄŁin": 1077,
      "nal": 1078,
      "ok": 1079,
      "ĠalÄ±": 1080,
      "dy": 1081,
      "ard": 1082,
      "ol": 1083,
      "ĠpiÅŁ": 1084,
      "unuz": 1085,
      "ci": 1086,
      "Ġgi": 1087,
      "Ġkul": 1088,
      "Ġinter": 1089,
      "Ġtrying": 1090,
      "reen": 1091,
      "'t": 1092,
      "Ġhedef": 1093,
      "Ġun": 1094,
      "Ġthem": 1095,
      "mo": 1096,
      "op": 1097,
      "sel": 1098,
      "ĠdÃ¼zeni": 1099,
      "alÄ±ÅŁ": 1100,
      "likle": 1101,
      "Ġresim": 1102,
      "Ġkullan": 1103,
      "Ġwhen": 1104,
      "ÄŁi": 1105,
      "hel": 1106,
      "ord": 1107,
      "ndan": 1108,
      "maya": 1109,
      "Ġdaily": 1110,
      "88": 1111,
      "ings": 1112,
      "Ġdid": 1113,
      "Ġback": 1114,
      "ÄŁÄ±": 1115,
      "Ġout": 1116,
      "light": 1117,
      "Ġconsisten": 1118,
      "Ġeven": 1119,
      "tÄ±": 1120,
      "Ġcev": 1121,
      "irst": 1122,
      "Ã¼re": 1123,
      "Ġif": 1124,
      "ĠiÅŁ": 1125,
      "Ġoku": 1126,
      "Ġitems": 1127,
      "asy": 1128,
      "leyin": 1129,
      "Ġmoment": 1130,
      "ecord": 1131,
      "Ä±zÄ±": 1132,
      "33": 1133,
      "ĠRecord": 1134,
      "Ġhour": 1135,
      "90": 1136,
      "Ġko": 1137,
      "ÅŁam": 1138,
      "Ġother": 1139,
      "ving": 1140,
      "Ġbuild": 1141,
      "ble": 1142,
      "Ġclear": 1143,
      "Ġsaat": 1144,
      "Ġsteps": 1145,
      "ama": 1146,
      "Ġ=": 1147,
      "nder": 1148,
      "Ġcevap": 1149,
      "Ġthen": 1150,
      "Ġfirst": 1151,
      "ĠÃ§alÄ±ÅŁ": 1152,
      "Ġpa": 1153,
      "rom": 1154,
      "rar": 1155,
      "ze": 1156,
      "kan": 1157,
      ":Ċ": 1158,
      "own": 1159,
      "Ġbas": 1160,
      "ken": 1161,
      "ĠpiÅŁir": 1162,
      "ÅŁim": 1163,
      "Ġfrom": 1164,
      "Ġwork": 1165,
      "ĠdoÄŁ": 1166,
      "ĠkÄ±r": 1167,
      "ff": 1168,
      "ĠÃ¶ÄŁrenmek": 1169,
      "rne": 1170,
      "tice": 1171,
      "Ġlisten": 1172,
      "mÄ±zÄ±": 1173,
      "langÄ±": 1174,
      "60": 1175,
      "Ġpre": 1176,
      "40": 1177,
      "ÅŁil": 1178,
      "Ġoda": 1179,
      "Ġilgi": 1180,
      "ssi": 1181,
      "laÅŁ": 1182,
      "rneÄŁin": 1183,
      "ĠyeÅŁil": 1184,
      "mi": 1185,
      "Ġwh": 1186,
      "ĠÃĸnce": 1187,
      "Ġmavi": 1188,
      "mayÄ±": 1189,
      "Ġonce": 1190,
      "ĠkÄ±rmÄ±zÄ±": 1191,
      "yaz": 1192,
      "Ġcomplete": 1193,
      "Ġilk": 1194,
      "Ġget": 1195,
      "Ġimp": 1196,
      "ĠgÃ¶re": 1197,
      "est": 1198,
      "Ġconsistent": 1199,
      "Ġoverw": 1200,
      "Ġread": 1201,
      "Ġoverwhel": 1202,
      "oriti": 1203,
      "Ġaz": 1204,
      "tiÅŁim": 1205,
      "bilirsiniz": 1206,
      "uy": 1207,
      "ĠSchedule": 1208,
      "ĠÃ§ok": 1209,
      "Ġkeep": 1210,
      "lay": 1211,
      "21": 1212,
      "and": 1213,
      "nÄ±z": 1214,
      "Ġyeni": 1215,
      "Ġev": 1216,
      "Ġwal": 1217,
      "ĠalÄ±ÅŁ": 1218,
      "ingle": 1219,
      "Ġdi": 1220,
      "50": 1221,
      "anÄ±": 1222,
      "Ġsingle": 1223,
      "Ä±na": 1224,
      "19": 1225,
      "duÄŁ": 1226,
      "Ġbeyaz": 1227,
      "ree": 1228,
      "alnÄ±z": 1229,
      "Ġactiv": 1230,
      "ĠPick": 1231,
      "ent": 1232,
      "self": 1233,
      "ĠsÃ¼re": 1234,
      "Ġyourself": 1235,
      "83": 1236,
      "ĠbahÃ§ey": 1237,
      "Ġbasit": 1238,
      "Ġneed": 1239,
      "ĠsarÄ±": 1240,
      "Ġavoid": 1241,
      "Ġnew": 1242,
      "ule": 1243,
      "Ġodak": 1244,
      "langÄ±Ã§": 1245,
      "ili": 1246,
      "Ġsc": 1247,
      "ĠÃ§ekmek": 1248,
      "Ġed": 1249,
      "Ġokumak": 1250,
      "ni": 1251,
      "leme": 1252,
      "daÅŁ": 1253,
      "alnÄ±zca": 1254,
      "Ġdoing": 1255,
      "Ġdown": 1256,
      "ĠBir": 1257,
      "cle": 1258,
      "70": 1259,
      "kadaÅŁ": 1260,
      "ÄŁiniz": 1261,
      "ĠYalnÄ±zca": 1262,
      "aÅŁ": 1263,
      "ĠbahÃ§eyle": 1264,
      "Ġkay": 1265,
      "ĠCreate": 1266,
      "ark": 1267,
      "inde": 1268,
      "oom": 1269,
      "Ä±nda": 1270,
      "ĠiletiÅŁim": 1271,
      "84": 1272,
      "Ġexp": 1273,
      "aking": 1274,
      "Ġtutmak": 1275,
      "Ġonly": 1276,
      "Ġwhi": 1277,
      "Ġeverything": 1278,
      "Ġuyku": 1279,
      "Ġsabah": 1280,
      "ct": 1281,
      "ted": 1282,
      "low": 1283,
      "ĠpiÅŁirmek": 1284,
      "ect": 1285,
      "29": 1286,
      "ĠalÄ±ÅŁkan": 1287,
      "cÄ±": 1288,
      "Ġyerine": 1289,
      "ĠAyÄ±n": 1290,
      "ace": 1291,
      "Ġilgilen": 1292,
      "asyon": 1293,
      "Ġactive": 1294,
      "nderst": 1295,
      "ĠsaÄŁ": 1296,
      "cek": 1297,
      "oritize": 1298,
      "tan": 1299,
      "Ġnote": 1300,
      "Ġdurum": 1301,
      "34": 1302,
      "ycle": 1303,
      "Ġtack": 1304,
      "Ġtek": 1305,
      "ĠSet": 1306,
      "lef": 1307,
      "Ġgoals": 1308,
      "co": 1309,
      "utter": 1310,
      "lutter": 1311,
      "tain": 1312,
      "ĠÃ¶ÄŁrenme": 1313,
      "Ġmanageable": 1314,
      "Ġist": 1315,
      "Ġgibi": 1316,
      "Ġbook": 1317,
      "Ġodaklan": 1318,
      "Ġlistening": 1319,
      "Ġsomething": 1320,
      "manÄ±z": 1321,
      "ticket": 1322,
      "Ġilgilenmek": 1323,
      "Ġscreen": 1324,
      "Ġuygun": 1325,
      "ize": 1326,
      "Ġticket": 1327,
      "rou": 1328,
      "Ġpo": 1329,
      "Ġthey": 1330,
      "Ġche": 1331,
      "Ġmomentum": 1332,
      "Ġrule": 1333,
      "ĠW": 1334,
      "lefon": 1335,
      "Ġak": 1336,
      "ĠyÃ¼zmek": 1337,
      "loc": 1338,
      "lant": 1339,
      "Ġany": 1340,
      "ech": 1341,
      "ĠarkadaÅŁ": 1342,
      "vent": 1343,
      "Ġdur": 1344,
      "ĠbaÅŁlangÄ±Ã§": 1345,
      "Ġdeep": 1346,
      "Ġunderst": 1347,
      "inin": 1348,
      "yan": 1349,
      "ood": 1350,
      "ĠAy": 1351,
      "Ġpers": 1352,
      "85": 1353,
      "ular": 1354,
      "Ġreading": 1355,
      "bilece": 1356,
      "arak": 1357,
      "ĠgeÃ§": 1358,
      "boo": 1359,
      "yahat": 1360,
      "Ġusing": 1361,
      "Ġreg": 1362,
      "ĠyÃ¶ne": 1363,
      "niqu": 1364,
      "echniqu": 1365,
      "Ġdist": 1366,
      "ĠolduÄŁ": 1367,
      "35": 1368,
      "ating": 1369,
      "Ġlow": 1370,
      "87": 1371,
      "36": 1372,
      "86": 1373,
      "Ġad": 1374,
      "iler": 1375,
      "ctice": 1376,
      "Ġwake": 1377,
      "89": 1378,
      "get": 1379,
      "uyu": 1380,
      "Ġ+": 1381,
      "Ġfa": 1382,
      "pack": 1383,
      "Ġgen": 1384,
      "ĠKeep": 1385,
      "37": 1386,
      "Ġer": 1387,
      "Ġschedule": 1388,
      "ru": 1389,
      "ĠyaÅŁam": 1390,
      "Ġlamp": 1391,
      "Ġbackpack": 1392,
      "Ġplant": 1393,
      "Ã¶rneÄŁin": 1394,
      "fter": 1395,
      "ĠgÃ¼": 1396,
      "yun": 1397,
      "Ġtea": 1398,
      "ĠPractice": 1399,
      "Ġdu": 1400,
      "Ġlea": 1401,
      "Ġri": 1402,
      "Ġmost": 1403,
      "Ġoff": 1404,
      "xt": 1405,
      "Ġkur": 1406,
      "ary": 1407,
      "Ġwa": 1408,
      "Ġnoteboo": 1409,
      "rac": 1410,
      "Ġfive": 1411,
      "49": 1412,
      "Ġweekends": 1413,
      "Ġjack": 1414,
      "ĠalÄ±ÅŁkanlÄ±k": 1415,
      "Ġsame": 1416,
      "Ġgerek": 1417,
      "Ġjacket": 1418,
      "tter": 1419,
      "Ġunderstand": 1420,
      "timi": 1421,
      "Ġbic": 1422,
      "Ġresp": 1423,
      "Ġmotivasyon": 1424,
      "Ġke": 1425,
      "Ġbicycle": 1426,
      "ĠdÃ¼ÅŁ": 1427,
      "alÄ±k": 1428,
      "izi": 1429,
      "rioritize": 1430,
      "here": 1431,
      "echnique": 1432,
      "rn": 1433,
      "angi": 1434,
      "Ġrest": 1435,
      "Ġtheir": 1436,
      "Ġmain": 1437,
      "ĠÅŁey": 1438,
      "amer": 1439,
      "Ġdon": 1440,
      "Ġscreens": 1441,
      "Ġara": 1442,
      "ere": 1443,
      "Ġbl": 1444,
      "Ġden": 1445,
      "ong": 1446,
      "lemek": 1447,
      "ĠPrioritize": 1448,
      "Ġperson": 1449,
      "ĠyÃ¶netimi": 1450,
      "Ġel": 1451,
      "uage": 1452,
      "Ġlang": 1453,
      "inize": 1454,
      "Ġprevent": 1455,
      "Ġlanguage": 1456,
      "use": 1457,
      "Ġseyahat": 1458,
      "kk": 1459,
      "mel": 1460,
      "Ġstu": 1461,
      "orning": 1462,
      "Ġsw": 1463,
      "Ġkar": 1464,
      "act": 1465,
      "Ġmorning": 1466,
      "Ġtri": 1467,
      "ssion": 1468,
      "rdÄ±ndan": 1469,
      "res": 1470,
      "Ġblue": 1471,
      "ich": 1472,
      "ĠkonuÅŁ": 1473,
      "Ġcamer": 1474,
      "Ġimport": 1475,
      "leÅŁ": 1476,
      "ĠyanÄ±": 1477,
      "Ġper": 1478,
      "Ġener": 1479,
      "Ġhakk": 1480,
      "Ġtelefon": 1481,
      "Ġcal": 1482,
      "isi": 1483,
      "uz": 1484,
      "Ġkolay": 1485,
      "ÄŁÄ±nÄ±z": 1486,
      "ĠSabah": 1487,
      "ry": 1488,
      "tur": 1489,
      "ĠPa": 1490,
      "Ġedin": 1491,
      "ĠFocus": 1492,
      "Ġwhich": 1493,
      "ph": 1494,
      "Ġhemen": 1495,
      "ĠarkadaÅŁlÄ±k": 1496,
      "Ä±p": 1497,
      "Ġmake": 1498,
      "Ġlist": 1499,
      "Ġafter": 1500,
      "ĠplanÄ±": 1501,
      "ĠhakkÄ±nda": 1502,
      "Ġspe": 1503,
      "Ġtackle": 1504,
      "Ġall": 1505,
      "Ġrep": 1506,
      "Ġthree": 1507,
      "Ġbody": 1508,
      ":**": 1509,
      "Ġhaf": 1510,
      "mes": 1511,
      "Ġdistrac": 1512,
      "dir": 1513,
      "Ã¶y": 1514,
      "Ġpri": 1515,
      "fes": 1516,
      "ret": 1517,
      "omo": 1518,
      "Ġyol": 1519,
      "oro": 1520,
      "Ġjour": 1521,
      "Ġfeeling": 1522,
      "Ġsession": 1523,
      "doro": 1524,
      "madan": 1525,
      "omodoro": 1526,
      "Ġhi": 1527,
      "ĠdÃ¼zen": 1528,
      "ĠdoÄŁru": 1529,
      "Ġhis": 1530,
      "Ġwhere": 1531,
      "Ġactivity": 1532,
      "ĠalÄ±ÅŁkanlÄ±klar": 1533,
      "ĠyanÄ±t": 1534,
      "Ġek": 1535,
      "Ġbur": 1536,
      "Ġyapacak": 1537,
      "dar": 1538,
      "mer": 1539,
      "ĠGÃ¼n": 1540,
      "med": 1541,
      "ÄŁer": 1542,
      "stin": 1543,
      "Ġmaintain": 1544,
      "ĠaÃ§": 1545,
      "Ã¶z": 1546,
      "Ġgar": 1547,
      "Ġbre": 1548,
      "rek": 1549,
      "ĠadÄ±mÄ±nÄ±z": 1550,
      "Ġphone": 1551,
      "als": 1552,
      "layÄ±n": 1553,
      "Ġkadar": 1554,
      "ward": 1555,
      "Ġgarden": 1556,
      "ĠgÃ¶r": 1557,
      "tif": 1558,
      "rnek": 1559,
      "lerinizi": 1560,
      "nem": 1561,
      "Ġnext": 1562,
      "Ġiler": 1563,
      "-p": 1564,
      "ance": 1565,
      "tik": 1566,
      "Ġjournal": 1567,
      "ĠÃ§Ä±k": 1568,
      "Ġimportant": 1569,
      "ĠyÃ¶n": 1570,
      "kin": 1571,
      "Ġright": 1572,
      "Ġreduce": 1573,
      "ĠgÃ¼nÃ¼n": 1574,
      "ange": 1575,
      "ÅŁÄ±": 1576,
      "til": 1577,
      "lat": 1578,
      "rol": 1579,
      "ĠyapÄ±n": 1580,
      "iner": 1581,
      "Ġwalk": 1582,
      "ster": 1583,
      "Ġthings": 1584,
      "Ġpain": 1585,
      "stination": 1586,
      "ments": 1587,
      "ĠbaÅŁlaya": 1588,
      "00": 1589,
      "Ġop": 1590,
      "ound": 1591,
      "Ġolan": 1592,
      "Ġsora": 1593,
      "Ġoften": 1594,
      "Ġitiner": 1595,
      "ĠbaÅŁlayan": 1596,
      "Ġoverwhelmed": 1597,
      "Ġyarar": 1598,
      "lama": 1599,
      "meye": 1600,
      "for": 1601,
      "Ġtama": 1602,
      "Ġnefes": 1603,
      "Ġsoruyu": 1604,
      "Ġuse": 1605,
      "Ġalan": 1606,
      "ated": 1607,
      "Ġphoto": 1608,
      "xi": 1609,
      "ĠhÄ±z": 1610,
      "Ġgardening": 1611,
      "sÄ±nÄ±": 1612,
      "Ġapp": 1613,
      "82": 1614,
      "Ġbirinin": 1615,
      "Ġclutter": 1616,
      "Ġbig": 1617,
      "Ġbreaks": 1618,
      "Ġhow": 1619,
      "Ġens": 1620,
      "Ġbelirleyin": 1621,
      "Ġiste": 1622,
      "45": 1623,
      "man": 1624,
      "Ġtake": 1625,
      "Ġaction": 1626,
      "Ġdakik": 1627,
      "saj": 1628,
      "Ġaw": 1629,
      "ces": 1630,
      "red": 1631,
      "Ġmoving": 1632,
      "Ġolacak": 1633,
      "tu": 1634,
      "nemli": 1635,
      "ight": 1636,
      "32": 1637,
      "Ġeas": 1638,
      "Ġsha": 1639,
      "Ġroom": 1640,
      "wn": 1641,
      "Ġtemel": 1642,
      "bileceÄŁi": 1643,
      "set": 1644,
      "Ã§im": 1645,
      "ĠiÃ§inde": 1646,
      "Ġduring": 1647,
      "ĠyanÄ±tla": 1648,
      "ĠÄ±ÅŁ": 1649,
      "ĠÅŁek": 1650,
      "Ġcheck": 1651,
      "ĠÃ¶z": 1652,
      "Ġcreate": 1653,
      "ÄŁÄ±nÄ±": 1654,
      "Ġbil": 1655,
      "yle": 1656,
      "ĠbiÃ§im": 1657,
      "Ġdeney": 1658,
      "lim": 1659,
      "Ġtak": 1660,
      "ĠÃĸrnek": 1661,
      "Ġtechnique": 1662,
      "larÄ±nÄ±": 1663,
      "ĠÃĸncelikle": 1664,
      "ĠÅŁu": 1665,
      "Ġitinerary": 1666,
      "ĠyararlÄ±": 1667,
      "ĠbiÃ§imde": 1668,
      "ĠbaÅŁlamak": 1669,
      "Ġgood": 1670,
      "ĠsorabileceÄŁi": 1671,
      "Ġthing": 1672,
      "Ġflight": 1673,
      "Ġlight": 1674,
      "ĠoluÅŁ": 1675,
      "Ġharek": 1676,
      "alar": 1677,
      "Ġlearn": 1678,
      "Ġoverwhelm": 1679,
      "ĠardÄ±ndan": 1680,
      "Ġfin": 1681,
      "ĠgÃ¼ven": 1682,
      "Ġachi": 1683,
      "Ġfocused": 1684,
      "Ġbox": 1685,
      "cu": 1686,
      "44": 1687,
      "Ġpe": 1688,
      "Ġcoo": 1689,
      "Ġhave": 1690,
      "ĠÃ¶nemli": 1691,
      "Ġdistractions": 1692,
      "rÄ±": 1693,
      "Ġnotebook": 1694,
      "trol": 1695,
      "time": 1696,
      "ĠdeÄŁil": 1697,
      "ĠStick": 1698,
      "Ġmaking": 1699,
      "malÄ±": 1700,
      "Ġconn": 1701,
      "tes": 1702,
      "Ġdet": 1703,
      "81": 1704,
      "Ġkendi": 1705,
      "lock": 1706,
      "ĠsÄ±": 1707,
      "ĠtÃ¼r": 1708,
      "Ġcooking": 1709,
      "Ġspace": 1710,
      "Ġwhile": 1711,
      "Ġbrea": 1712,
      "-up": 1713,
      "ĠdÃ¼ÅŁÃ¼n": 1714,
      "ĠkarÅŁÄ±": 1715,
      "Ġnet": 1716,
      "dic": 1717,
      "ĠyapÄ±": 1718,
      "ĠbaÅŁlayÄ±n": 1719,
      "Ġsorun": 1720,
      "cess": 1721,
      "asÄ±": 1722,
      "Ġuz": 1723,
      "rain": 1724,
      "ĠSa": 1725,
      "Ġstudy": 1726,
      "Ġhangi": 1727,
      "Ġcommit": 1728,
      "ĠPomodoro": 1729,
      "Ġsen": 1730,
      "lace": 1731,
      "ities": 1732,
      "Ġpainting": 1733,
      "Ġcompletely": 1734,
      "sk": 1735,
      "Ġleast": 1736,
      "rin": 1737,
      "Ġwant": 1738,
      "enc": 1739,
      "ip": 1740,
      "ĠTake": 1741,
      "rough": 1742,
      "lexi": 1743,
      "Ġfol": 1744,
      "Ã¼yÃ¼k": 1745,
      "rup": 1746,
      "Ġama": 1747,
      "Ġcamera": 1748,
      "Ġgreen": 1749,
      "Ġdin": 1750,
      "Ġthrough": 1751,
      "Ġsig": 1752,
      "ĠÃ¼z": 1753,
      "Ġaway": 1754,
      "lerini": 1755,
      "Ġstri": 1756,
      "Ġflexi": 1757,
      "ecek": 1758,
      "Ġkap": 1759,
      "31": 1760,
      "eri": 1761,
      "ĠMo": 1762,
      "Ġistedi": 1763,
      "Ġjournaling": 1764,
      "od": 1765,
      "zÄ±r": 1766,
      "ĠsayÄ±": 1767,
      "Ġrespond": 1768,
      "Ġarea": 1769,
      "Ġwhite": 1770,
      "lish": 1771,
      "ĠÅŁekil": 1772,
      "Ġred": 1773,
      "46": 1774,
      "line": 1775,
      "Ġetk": 1776,
      "sanÄ±z": 1777,
      "ĠayÄ±r": 1778,
      "gy": 1779,
      "Ġchange": 1780,
      "ffe": 1781,
      "ellow": 1782,
      "Ġtimes": 1783,
      "Ġyellow": 1784,
      "ide": 1785,
      "Ġstrict": 1786,
      "ssenti": 1787,
      "iting": 1788,
      "Ġdestination": 1789,
      "Ġeff": 1790,
      "Ġconnec": 1791,
      "Ġbest": 1792,
      "ils": 1793,
      "Ġzorlu": 1794,
      "Ġnat": 1795,
      "Ġfi": 1796,
      "47": 1797,
      "Ġfinish": 1798,
      "Ġregular": 1799,
      "Ġyar": 1800,
      "Ġmind": 1801,
      "ower": 1802,
      "Ġayda": 1803,
      "Ġ*": 1804,
      "Ġort": 1805,
      "Ġhours": 1806,
      "Ġolma": 1807,
      "Ġquestions": 1808,
      "Ä±nÄ±n": 1809,
      "we": 1810,
      "Ġenti": 1811,
      "Ġfollow": 1812,
      "ĠÅŁekilde": 1813,
      "Ġhelps": 1814,
      "Ġentire": 1815,
      "ous": 1816,
      "ĠyÃ¶ntem": 1817,
      "Ġdedic": 1818,
      "ople": 1819,
      "Ġkontrol": 1820,
      "ĠIt": 1821,
      "Ġlong": 1822,
      "cut": 1823,
      "miz": 1824,
      "Ġilg": 1825,
      "Ġpeople": 1826,
      "siz": 1827,
      "Ġdark": 1828,
      "ĠgÃ¶z": 1829,
      "Ġerken": 1830,
      "ĠMotiv": 1831,
      "ĠoluÅŁtur": 1832,
      "ĠIn": 1833,
      "ĠhazÄ±r": 1834,
      "ĠAvoid": 1835,
      "Ġensure": 1836,
      "ite": 1837,
      "Ġwalking": 1838,
      "ĠEÄŁer": 1839,
      "deki": 1840,
      "Ġyak": 1841,
      "ressure": 1842,
      "-pressure": 1843,
      "ysic": 1844,
      "Ġmesaj": 1845,
      "ins": 1846,
      "Ġhareket": 1847,
      "Ġdec": 1848,
      "graph": 1849,
      "Ġphysic": 1850,
      "Ã¶ylece": 1851,
      "meyi": 1852,
      "yla": 1853,
      "ĠSonra": 1854,
      "ellikle": 1855,
      "ts": 1856,
      "ĠWhat": 1857,
      "Ġburn": 1858,
      "sÄ±nÄ±z": 1859,
      "Ġchun": 1860,
      "Ġflexible": 1861,
      "Ġetkili": 1862,
      "likte": 1863,
      "kinci": 1864,
      "Ġolur": 1865,
      "Ġsupp": 1866,
      "Ġfeels": 1867,
      "Ġessenti": 1868,
      "pec": 1869,
      "Ġphotograph": 1870,
      "Ġelse": 1871,
      "Ġwho": 1872,
      "Ġtoday": 1873,
      "eyi": 1874,
      "Ġfeelings": 1875,
      "ĠbÄ±": 1876,
      "ĠakÅŁam": 1877,
      "Ġok": 1878,
      "ĠdakikalÄ±k": 1879,
      "Ġsignal": 1880,
      "96": 1881,
      "Ġcool": 1882,
      "lend": 1883,
      "Ġbrain": 1884,
      "Ġactivities": 1885,
      "Ġtry": 1886,
      "Ġstarting": 1887,
      "ling": 1888,
      "iff": 1889,
      "ays": 1890,
      "room": 1891,
      "Ġdis": 1892,
      "Ġburnout": 1893,
      "ĠolacaktÄ±r": 1894,
      "Ġphotography": 1895,
      "Ġbet": 1896,
      "rate": 1897,
      "read": 1898,
      "Ġwater": 1899,
      "ween": 1900,
      "oose": 1901,
      "Ġbetween": 1902,
      "Ġstress": 1903,
      "Ġresponding": 1904,
      "mÄ±ÅŁ": 1905,
      "Ġdiff": 1906,
      "Ġduy": 1907,
      "ĠhÄ±zlÄ±": 1908,
      "Ġchunks": 1909,
      "ves": 1910,
      "Ġmatter": 1911,
      "95": 1912,
      "Ġunderstanding": 1913,
      "Ġbek": 1914,
      "ld": 1915,
      "hing": 1916,
      "Ġta": 1917,
      "Ġsonu": 1918,
      "Ġur": 1919,
      "Ġhedefler": 1920,
      "Ġbut": 1921,
      "Ġless": 1922,
      "ĠMotivation": 1923,
      "dentif": 1924,
      "ching": 1925,
      "izin": 1926,
      "Ġenergy": 1927,
      "97": 1928,
      "Ġtemiz": 1929,
      "Ġsonraki": 1930,
      "ÄŁini": 1931,
      "Ġuntil": 1932,
      "ĠyardÄ±m": 1933,
      "leyerek": 1934,
      "ĠÃ¼zer": 1935,
      "Ġilgili": 1936,
      "..": 1937,
      "now": 1938,
      "gether": 1939,
      "Ġder": 1940,
      "Ġeasi": 1941,
      "Ġgoing": 1942,
      "Ġbedroom": 1943,
      "Ġsay": 1944,
      "65": 1945,
      "ĠTry": 1946,
      "Ġtogether": 1947,
      "Ġmess": 1948,
      "ĠBaÅŁ": 1949,
      "ĠbÄ±rak": 1950,
      "oy": 1951,
      "Ġlo": 1952,
      "Ġanything": 1953,
      "Ġhem": 1954,
      "land": 1955,
      "Ġstay": 1956,
      "ual": 1957,
      "meniz": 1958,
      "Ġrela": 1959,
      "Ġayar": 1960,
      "lamak": 1961,
      "yunca": 1962,
      "Ġinc": 1963,
      "Ġbak": 1964,
      "ans": 1965,
      "Ġtekrar": 1966,
      "Ġspeaking": 1967,
      "Ġasking": 1968,
      "ĠbaÅŁlayabilirsiniz": 1969,
      "Ġdeneyin": 1970,
      "laya": 1971,
      "Ġboyunca": 1972,
      "Ġmove": 1973,
      "ways": 1974,
      "ĠkiÅŁ": 1975,
      "Ġphysical": 1976,
      "Ġmu": 1977,
      "ĠÃ§alÄ±ÅŁÄ±n": 1978,
      "Ġkeli": 1979,
      "Ã§ek": 1980,
      "Ġbr": 1981,
      "Ġolabilir": 1982,
      "imming": 1983,
      "'re": 1984,
      "Ġstate": 1985,
      "va": 1986,
      "Ġtickets": 1987,
      "Ġnow": 1988,
      "ĠHa": 1989,
      "Ġswimming": 1990,
      "Ġca": 1991,
      "Ġiz": 1992,
      "ĠFri": 1993,
      "ĠbÃ¼yÃ¼k": 1994,
      "ĠgÃ¼venli": 1995,
      "ffee": 1996,
      "Ä±l": 1997,
      "aki": 1998,
      "Ġbilg": 1999,
      "ÄŁinizi": 2000,
      "Ġtrip": 2001,
      "Ġeasier": 2002,
      "Ġrepe": 2003,
      "Ġmev": 2004,
      "Ġnight": 2005,
      "Ġconf": 2006,
      "ear": 2007,
      "Ġnatur": 2008,
      "75": 2009,
      "miÅŁ": 2010,
      ".\"": 2011,
      "Ġhisset": 2012,
      "Ġcoffee": 2013,
      "ĠÃ§Ã¶z": 2014,
      "ssible": 2015,
      "Ġpra": 2016,
      "ĠCh": 2017,
      "Ġopen": 2018,
      "ire": 2019,
      "ĠÄ°stanbul": 2020,
      "Ġstep": 2021,
      "Ġpress": 2022,
      "vir": 2023,
      "kÃ¼": 2024,
      "Ġachiev": 2025,
      "Ġmental": 2026,
      "Ġbedtime": 2027,
      "Ã§e": 2028,
      "Ġenj": 2029,
      "ĠPair": 2030,
      "Ġsize": 2031,
      "ĠÄ°kinci": 2032,
      "Ġlar": 2033,
      "viron": 2034,
      "Ġcont": 2035,
      "ness": 2036,
      "Ġdene": 2037,
      "gn": 2038,
      "Ġfriend": 2039,
      "Ġmevcut": 2040,
      "Ġloc": 2041,
      "Ġfocusing": 2042,
      "Ġpressure": 2043,
      "imi": 2044,
      "Ġfix": 2045,
      "ĠCo": 2046,
      "Ġbud": 2047,
      "76": 2048,
      "vironment": 2049,
      "ĠdoÄŁrudan": 2050,
      "39": 2051,
      "âĢ": 2052,
      "100": 2053,
      "Ġflights": 2054,
      "Ġbilgi": 2055,
      "Ġrahat": 2056,
      "120": 2057,
      "Ġtamam": 2058,
      "Ġbirlikte": 2059,
      "Ġactu": 2060,
      "Ã¼t": 2061,
      "Ġyat": 2062,
      "Ġsab": 2063,
      "Ġbetter": 2064,
      "rÄ±ca": 2065,
      "Ġvis": 2066,
      "kaÃ§": 2067,
      "Ġothers": 2068,
      "hti": 2069,
      "Ġacco": 2070,
      "ĠyardÄ±mcÄ±": 2071,
      "'in": 2072,
      "ugÃ¼n": 2073,
      "masÄ±": 2074,
      "led": 2075,
      "ĠadÄ±mÄ±": 2076,
      "Ġhigh": 2077,
      "Ġthou": 2078,
      "Ġenvironment": 2079,
      "ount": 2080,
      "mayÄ±n": 2081,
      "ĠgÃ¶rev": 2082,
      "lara": 2083,
      "unuzu": 2084,
      "dentify": 2085,
      "Ġknow": 2086,
      "Ġbloc": 2087,
      "ÄŁu": 2088,
      "Ġyapmaya": 2089,
      "Ġsuch": 2090,
      "sts": 2091,
      "lendir": 2092,
      "Ġachievable": 2093,
      "ĠsÄ±k": 2094,
      "ĠAyrÄ±ca": 2095,
      "layÄ±": 2096,
      "Ġway": 2097,
      "130": 2098,
      "asÄ±l": 2099,
      "Ġnon": 2100,
      "ĠÃ¶ncelikle": 2101,
      "ose": 2102,
      "leye": 2103,
      "Ġthought": 2104,
      "daki": 2105,
      "ĠÃĹ": 2106,
      "Ġful": 2107,
      "Ġfollowed": 2108,
      "Ġurg": 2109,
      "ĠComm": 2110,
      "ger": 2111,
      "ĠadÄ±mlar": 2112,
      "Ġhal": 2113,
      "Ġsto": 2114,
      "ĠÃĩ": 2115,
      "Ġbudget": 2116,
      "Ġactually": 2117,
      "Ġihti": 2118,
      "Ġnok": 2119,
      "Ġeasy": 2120,
      "yede": 2121,
      "tention": 2122,
      "55": 2123,
      "Ġmaster": 2124,
      "Ġhafif": 2125,
      "Ġtaking": 2126,
      "Ġbreath": 2127,
      "ough": 2128,
      "ĠFriendship": 2129,
      "Ġtimer": 2130,
      "ĠseÃ§in": 2131,
      "Ġsessions": 2132,
      "Ġpractice": 2133,
      "Ġbooking": 2134,
      "?\"": 2135,
      "Ġyet": 2136,
      "gress": 2137,
      "aca": 2138,
      "lem": 2139,
      "Ġkah": 2140,
      "ĠseÃ§mek": 2141,
      "leÅŁtir": 2142,
      "Ġkonu": 2143,
      "94": 2144,
      "Ġown": 2145,
      "ablish": 2146,
      "Ġsupport": 2147,
      "-d": 2148,
      "tel": 2149,
      "66": 2150,
      "econd": 2151,
      "cy": 2152,
      "ĠKend": 2153,
      "ĠPause": 2154,
      "ital": 2155,
      "stablish": 2156,
      "Ġhar": 2157,
      "77": 2158,
      "Ġprogress": 2159,
      "maktÄ±r": 2160,
      "Ġsimp": 2161,
      "Ġise": 2162,
      "ĠÄ±ÅŁÄ±k": 2163,
      "ĠnasÄ±l": 2164,
      "Ġreward": 2165,
      "aring": 2166,
      "ĠÅŁun": 2167,
      "ĠolduÄŁu": 2168,
      "ĠÅŁeyi": 2169,
      "rage": 2170,
      "Ġgrou": 2171,
      "Ġsevi": 2172,
      "Ġkalk": 2173,
      "Ġdedicated": 2174,
      "Ġpratik": 2175,
      "bil": 2176,
      "aries": 2177,
      "Ġfark": 2178,
      "Åŀ": 2179,
      "Ġactively": 2180,
      "Ġworking": 2181,
      "Ġlet": 2182,
      "cking": 2183,
      "Ġshow": 2184,
      "Ġokuma": 2185,
      "Ġshared": 2186,
      "Ġstick": 2187,
      "ĠÃ¶n": 2188,
      "Ġinternal": 2189,
      "Ä±lÄ±": 2190,
      "Ġtal": 2191,
      "Ġear": 2192,
      "Ġgra": 2193,
      "Ġbound": 2194,
      "Ġdrin": 2195,
      "ĠadÄ±mÄ±nÄ±zÄ±": 2196,
      "ded": 2197,
      "Ġsetting": 2198,
      "ĠChoose": 2199,
      "Ġjackets": 2200,
      "Ġput": 2201,
      "Ġbunu": 2202,
      "rix": 2203,
      "Ġreset": 2204,
      "Ġazal": 2205,
      "Ġquick": 2206,
      "cep": 2207,
      "Ġuygulama": 2208,
      "Ġetmek": 2209,
      "Ġkendinize": 2210,
      "Ġcalm": 2211,
      "99": 2212,
      "zla": 2213,
      "ĠÃ¶nceki": 2214,
      "isen": 2215,
      "hower": 2216,
      "havi": 2217,
      "havior": 2218,
      "Ġcur": 2219,
      "load": 2220,
      "Ġmi": 2221,
      "Ġtan": 2222,
      "ens": 2223,
      "isenhower": 2224,
      "ready": 2225,
      "112": 2226,
      "Ġger": 2227,
      "esi": 2228,
      "Ġmakes": 2229,
      "port": 2230,
      "Ġbehavior": 2231,
      "Ġsayede": 2232,
      "Ġboxes": 2233,
      "nÄ±": 2234,
      "Ġalready": 2235,
      "Ġfazla": 2236,
      "110": 2237,
      "ding": 2238,
      "ĠDay": 2239,
      "Ġmis": 2240,
      "Ġhapp": 2241,
      "Ġbooks": 2242,
      "ran": 2243,
      "ĠtÃ¼m": 2244,
      "Ġderin": 2245,
      "erli": 2246,
      "Ġgenellikle": 2247,
      "ject": 2248,
      "114": 2249,
      "iye": 2250,
      "Ġsimply": 2251,
      "sin": 2252,
      "all": 2253,
      "Ã¼nde": 2254,
      "Ġconnection": 2255,
      "ĠMat": 2256,
      "ĠIdentify": 2257,
      "ĠsayÄ±sÄ±": 2258,
      "lerin": 2259,
      "ber": 2260,
      "Ġtrust": 2261,
      "Ġsun": 2262,
      "ĠaÃ§Ä±k": 2263,
      "Ġair": 2264,
      "Ġpenc": 2265,
      ").": 2266,
      "Ġrec": 2267,
      "ĠMatrix": 2268,
      "Ġrut": 2269,
      "yin": 2270,
      "Ġfind": 2271,
      "oth": 2272,
      "Ġyok": 2273,
      "Ġkendine": 2274,
      "ĠsÄ±cak": 2275,
      "ĠbaÅŁarÄ±": 2276,
      "min": 2277,
      "Ġdesi": 2278,
      "int": 2279,
      "una": 2280,
      "Ġclean": 2281,
      "Ġpar": 2282,
      "Ġcomp": 2283,
      "ĠMake": 2284,
      "Ġoverwhelming": 2285,
      "Ġlarge": 2286,
      "Ġyor": 2287,
      "56": 2288,
      "ĠbÃ¶": 2289,
      "ĠmÄ±": 2290,
      "ĠbÃ¶ylece": 2291,
      "150": 2292,
      "Ġstres": 2293,
      "ds": 2294,
      "Ġspot": 2295,
      "ĠSadece": 2296,
      "Ġlif": 2297,
      "Ġchecking": 2298,
      "Ġbit": 2299,
      "-in": 2300,
      "lecek": 2301,
      "Ġdurumu": 2302,
      "Ġenerj": 2303,
      "43": 2304,
      "Ġfew": 2305,
      "ĠbaÄŁ": 2306,
      "Ġval": 2307,
      "Ġtrans": 2308,
      "113": 2309,
      "160": 2310,
      "Ġkelime": 2311,
      "ial": 2312,
      "duc": 2313,
      "Ġplants": 2314,
      "Ġwithin": 2315,
      "Ġinterrup": 2316,
      "Ġul": 2317,
      "ĠThe": 2318,
      "mation": 2319,
      "Ġsan": 2320,
      "Ġter": 2321,
      "Ġbeing": 2322,
      "itiate": 2323,
      "eler": 2324,
      "Ġgetting": 2325,
      "ĠbirkaÃ§": 2326,
      "ĠgerÃ§ek": 2327,
      "Ġsystem": 2328,
      "Ġstop": 2329,
      "Ġclar": 2330,
      "Ġolmak": 2331,
      "Ġala": 2332,
      "os": 2333,
      "Ġfriends": 2334,
      "Ġrelax": 2335,
      "ĠUy": 2336,
      "laÅŁtÄ±r": 2337,
      "ĠEisenhower": 2338,
      "Ġunut": 2339,
      "ex": 2340,
      "140": 2341,
      "Ġenjoy": 2342,
      "side": 2343,
      "eÅŁ": 2344,
      "row": 2345,
      "unun": 2346,
      "'ta": 2347,
      "118": 2348,
      "let": 2349,
      "yorsanÄ±z": 2350,
      "Ġnotebooks": 2351,
      "bet": 2352,
      "Ġwaiting": 2353,
      "ĠulaÅŁ": 2354,
      "Ġancak": 2355,
      "ĠsaÄŁlar": 2356,
      "hy": 2357,
      "Ã¼nÃ¼": 2358,
      "Ġperf": 2359,
      "Ġspeak": 2360,
      "Ġstatements": 2361,
      "lere": 2362,
      "Ġthoughts": 2363,
      "other": 2364,
      "Ġmuch": 2365,
      "Ġthere": 2366,
      "Ġcontact": 2367,
      "Ġaut": 2368,
      "Ġinfor": 2369,
      "Ġinterest": 2370,
      "Ġdays": 2371,
      "ĠÃĸrneÄŁin": 2372,
      "uine": 2373,
      "lÄ±ÄŁÄ±": 2374,
      "Ġaktiv": 2375,
      "ÅŁa": 2376,
      "48": 2377,
      "endar": 2378,
      "ÄŁÄ±nÄ±zÄ±": 2379,
      "117": 2380,
      "Ġdik": 2381,
      "ĠdÄ±": 2382,
      "Ġgenuine": 2383,
      "Ġbelirlemek": 2384,
      "ended": 2385,
      "Ġwind": 2386,
      "Ġbad": 2387,
      "Ġinformation": 2388,
      "Ġboth": 2389,
      "Ġprogram": 2390,
      "kat": 2391,
      "ĠbahÃ§e": 2392,
      "Ġexpress": 2393,
      "Ġbackpacks": 2394,
      "uk": 2395,
      "Ġdra": 2396,
      "Ġunex": 2397,
      "raz": 2398,
      "Ġdoable": 2399,
      "pected": 2400,
      "ba": 2401,
      "val": 2402,
      "Ġsur": 2403,
      "ĠolduÄŁunu": 2404,
      "Ġunexpected": 2405,
      "ade": 2406,
      "larÄ±nÄ±z": 2407,
      "Ġeffort": 2408,
      "Ġpencils": 2409,
      "Ġallow": 2410,
      "Ġlamps": 2411,
      "Ġstret": 2412,
      "Ġgece": 2413,
      "inden": 2414,
      "Ġeras": 2415,
      "Ġlife": 2416,
      "ones": 2417,
      "Ġwaking": 2418,
      "Ġanother": 2419,
      "Ġerasers": 2420,
      "lÃ¼": 2421,
      "erv": 2422,
      "ult": 2423,
      "Ġusu": 2424,
      "Ġnaturally": 2425,
      "Ãĸ": 2426,
      "Ġneden": 2427,
      "Ġtrig": 2428,
      "Ġsizi": 2429,
      "ĠseÃ§en": 2430,
      "Ġbelirle": 2431,
      "ĠTe": 2432,
      "Ġearly": 2433,
      "Ġboundaries": 2434,
      "ass": 2435,
      "Ġcalendar": 2436,
      "Ġaktivite": 2437,
      "bir": 2438,
      "Ġpay": 2439,
      "Ġcom": 2440,
      "Ġsets": 2441,
      "move": 2442,
      "Ġtackling": 2443,
      "ĠÃ¶zel": 2444,
      "116": 2445,
      "Ġconversations": 2446,
      "Ġuzun": 2447,
      "âĢĶ": 2448,
      "ĠdÃ¶": 2449,
      "ĠartÄ±r": 2450,
      "Ġtamamen": 2451,
      "ms": 2452,
      "ĠdeÄŁer": 2453,
      "Ġacc": 2454,
      "go": 2455,
      "Ġcas": 2456,
      "ele": 2457,
      "Ġpack": 2458,
      "Ġblocks": 2459,
      "aha": 2460,
      "Ã¼nkÃ¼": 2461,
      "ĠgeÃ§ir": 2462,
      "Ġdetay": 2463,
      "Ġkapat": 2464,
      "ges": 2465,
      "Ġkamer": 2466,
      "larÄ±n": 2467,
      "lerden": 2468,
      "Ġseviy": 2469,
      "Ġhard": 2470,
      "67": 2471,
      "Ġclock": 2472,
      "Ã§a": 2473,
      "Ġdri": 2474,
      "Ġtelefonunuz": 2475,
      "dÄ±ÄŁÄ±nÄ±z": 2476,
      "Ġlocal": 2477,
      "dur": 2478,
      "oma": 2479,
      "mplement": 2480,
      "ĠyÃ¼rÃ¼": 2481,
      "Ġreal": 2482,
      "ations": 2483,
      "ĠDown": 2484,
      "liÅŁ": 2485,
      ".,": 2486,
      "ulate": 2487,
      "Ġbulun": 2488,
      "sed": 2489,
      "diÄŁiniz": 2490,
      "less": 2491,
      "ĠyÃ¼k": 2492,
      "57": 2493,
      "ĠEv": 2494,
      "Ġtakes": 2495,
      "Ġautoma": 2496,
      "115": 2497,
      "Ġbicycles": 2498,
      "ĠDownload": 2499,
      "Ġtur": 2500,
      "ĠInitiate": 2501,
      "Ġtoo": 2502,
      "ĠalÄ±p": 2503,
      "Ġneeds": 2504,
      "ĠAsk": 2505,
      "ĠÃĸÄŁ": 2506,
      "Ġwords": 2507,
      "Ġdeclutter": 2508,
      "ĠÄ±ÅŁÄ±": 2509,
      "ĠdÄ±ÅŁ": 2510,
      "onn": 2511,
      "abilirsiniz": 2512,
      "Ġthin": 2513,
      "Ġconcep": 2514,
      "alarÄ±": 2515,
      "Ġince": 2516,
      "ĠvÃ¼": 2517,
      "ould": 2518,
      "yip": 2519,
      "Ġenough": 2520,
      "Ġshare": 2521,
      "ĠÅŀ": 2522,
      "ushing": 2523,
      "Ġmessage": 2524,
      "limin": 2525,
      "Ġide": 2526,
      "Ġhotel": 2527,
      "Ġexact": 2528,
      "ĠyÃ¼zme": 2529,
      "Ġentirely": 2530,
      "mor": 2531,
      "ulti": 2532,
      "ĠYes": 2533,
      "ĠolmalÄ±": 2534,
      "Ġdrinking": 2535,
      "Ġexist": 2536,
      "Ġdeta": 2537,
      "stant": 2538,
      "lerde": 2539,
      "yu": 2540,
      "alth": 2541,
      "Ġstorage": 2542,
      "ĠAd": 2543,
      "**:": 2544,
      "Ġzorluk": 2545,
      "Ġgive": 2546,
      "Ġmulti": 2547,
      "ĠaynÄ±": 2548,
      "Ġessential": 2549,
      "Ġchanges": 2550,
      "ĠKÃ¼Ã§Ã¼k": 2551,
      "ĠTh": 2552,
      "Ġthose": 2553,
      "Ġsee": 2554,
      "Ġbeco": 2555,
      "ĠodaklanÄ±n": 2556,
      "'n": 2557,
      "Ġses": 2558,
      "rarak": 2559,
      "uly": 2560,
      "Ġsuyun": 2561,
      "Ġorganize": 2562,
      "Ã¼nÃ¼z": 2563,
      ".g": 2564,
      "Ġurgent": 2565,
      "dun": 2566,
      "Ġtruly": 2567,
      "sunuz": 2568,
      "Ġdiffer": 2569,
      "Ġexisting": 2570,
      "Ġlast": 2571,
      "ime": 2572,
      "Ġpart": 2573,
      "ĠImplement": 2574,
      "Ġmaps": 2575,
      "ĠÃ§Ã¼nkÃ¼": 2576,
      "Ġimpro": 2577,
      "Ġadv": 2578,
      "ece": 2579,
      "Ġcameras": 2580,
      "ĠbÃ¶l": 2581,
      "Ġusually": 2582,
      "),": 2583,
      "ara": 2584,
      "Ġproduc": 2585,
      "manÄ±zÄ±": 2586,
      "Ġhealth": 2587,
      "136": 2588,
      "Ġask": 2589,
      "Ġoffline": 2590,
      "Ġdrawer": 2591,
      "yat": 2592,
      "Ġaside": 2593,
      "Ġsaatleri": 2594,
      "eve": 2595,
      "Ġeye": 2596,
      "Ġalways": 2597,
      "cial": 2598,
      "onnect": 2599,
      "-ended": 2600,
      "Ġgl": 2601,
      "its": 2602,
      "Ġap": 2603,
      "Ġsim": 2604,
      "Ġeg": 2605,
      "Ġhas": 2606,
      "Ġyeterli": 2607,
      "Ġdef": 2608,
      "Ġmeth": 2609,
      "ĠÃ§e": 2610,
      "Ġadvance": 2611,
      "Ġmethod": 2612,
      "vaÅŁ": 2613,
      "Ġx": 2614,
      "ĠEstablish": 2615,
      "ÄŁa": 2616,
      "106": 2617,
      "ĠÃ¼zerine": 2618,
      "ĠpaylaÅŁ": 2619,
      "Ġsharing": 2620,
      "inizde": 2621,
      "face": 2622,
      "Ġeve": 2623,
      "Ġgel": 2624,
      "lardÄ±r": 2625,
      "Ġloo": 2626,
      "Ġavoiding": 2627,
      "liÄŁi": 2628,
      "Ġmatters": 2629,
      "Ġoutside": 2630,
      "eleb": 2631,
      "Ġbiri": 2632,
      "vam": 2633,
      "Ġsizin": 2634,
      "ayÄ±": 2635,
      "ather": 2636,
      "125": 2637,
      "Ġegz": 2638,
      "be": 2639,
      "ilt": 2640,
      "ĠAl": 2641,
      "Ġinclu": 2642,
      "gun": 2643,
      "107": 2644,
      "ĠyakÄ±n": 2645,
      "ndaki": 2646,
      "93": 2647,
      "gital": 2648,
      "Ã¼l": 2649,
      "105": 2650,
      "gle": 2651,
      "Ġkor": 2652,
      "meden": 2653,
      "127": 2654,
      "larÄ±nÄ±zÄ±": 2655,
      "ĠalÄ±n": 2656,
      "ĠÄ±": 2657,
      "ĠÅŁeyler": 2658,
      "Ġglass": 2659,
      "ĠTechnique": 2660,
      "Ġdoes": 2661,
      "ĠThis": 2662,
      "ĠGÃ¼nlÃ¼k": 2663,
      "dÄ±n": 2664,
      "Ġdesk": 2665,
      "layarak": 2666,
      "Ġsecond": 2667,
      "mesi": 2668,
      "ĠiÅŁe": 2669,
      "Ġdifferent": 2670,
      "ĠĠ": 2671,
      "126": 2672,
      "137": 2673,
      "menizi": 2674,
      "ĠDaha": 2675,
      "Ġrequ": 2676,
      "Ġyolu": 2677,
      "Ġclo": 2678,
      "Ġplace": 2679,
      "135": 2680,
      "Ġtopic": 2681,
      "Ġegzers": 2682,
      "Ġkahve": 2683,
      "Ġdikkat": 2684,
      "Ġones": 2685,
      "Ġsaying": 2686,
      "sh": 2687,
      "Ġgir": 2688,
      "oplam": 2689,
      "su": 2690,
      "reating": 2691,
      "Ġolun": 2692,
      "Ġclearly": 2693,
      "ĠÃ§eki": 2694,
      "-ne": 2695,
      "oda": 2696,
      "ĠbugÃ¼n": 2697,
      "oogle": 2698,
      "goti": 2699,
      "sing": 2700,
      "Ġproject": 2701,
      "Ġkitab": 2702,
      "Ġceleb": 2703,
      "Ġzi": 2704,
      "ĠÃ§Ã¶zÃ¼m": 2705,
      ").Ċ": 2706,
      "Ġcomes": 2707,
      "Ġdevam": 2708,
      "Ġsense": 2709,
      "Ġrutin": 2710,
      "irim": 2711,
      "Ġoffer": 2712,
      "Ġsurface": 2713,
      "gotiable": 2714,
      "ebilir": 2715,
      "Ġilerleme": 2716,
      "liminate": 2717,
      "ew": 2718,
      "onin": 2719,
      "ĠHe": 2720,
      "Ġnokta": 2721,
      "Ġemo": 2722,
      "-negotiable": 2723,
      "Ġshel": 2724,
      "icro": 2725,
      "Ġcare": 2726,
      "42": 2727,
      "az": 2728,
      "yon": 2729,
      "Ġworks": 2730,
      "vals": 2731,
      "Ġpla": 2732,
      "Ġprocess": 2733,
      "ĠvÃ¼cu": 2734,
      "Ġsk": 2735,
      "Ġmater": 2736,
      "ĠgÃ¶ster": 2737,
      "Ġconsistently": 2738,
      "ĠÃ¼": 2739,
      "Ġbilgiler": 2740,
      "ĠÃĸÄŁren": 2741,
      "ĠgÃ¶nder": 2742,
      "Ġcount": 2743,
      "Ġkey": 2744,
      "Ġede": 2745,
      "gor": 2746,
      "luk": 2747,
      "Ġintervals": 2748,
      "opt": 2749,
      "lot": 2750,
      "ĠyavaÅŁ": 2751,
      "ĠyÃ¼rÃ¼yÃ¼ÅŁe": 2752,
      "Ġsort": 2753,
      "Ġten": 2754,
      "ective": 2755,
      "ĠkayÄ±ta": 2756,
      "ĠRes": 2757,
      "Ġkendinizi": 2758,
      "Ġsabit": 2759,
      "des": 2760,
      "Ġhand": 2761,
      "ĠkullanÄ±n": 2762,
      "Ġpossible": 2763,
      "fe": 2764,
      "Ġend": 2765,
      "Ġpres": 2766,
      "no": 2767,
      "ĠyÃ¼zecek": 2768,
      "Ġevening": 2769,
      "ons": 2770,
      "Ġsocial": 2771,
      "Ġuyan": 2772,
      "Ġprices": 2773,
      "landÄ±": 2774,
      "\":": 2775,
      "Ġreach": 2776,
      "Ġdigital": 2777,
      "Ġortam": 2778,
      "mmoda": 2779,
      "Ġwr": 2780,
      "Ġmelat": 2781,
      "Ġotur": 2782,
      "Ġregulate": 2783,
      "Ġskill": 2784,
      "ĠeÄŁ": 2785,
      "Ġob": 2786,
      "Ä±nÄ±za": 2787,
      "ĠdoÄŁal": 2788,
      "cing": 2789,
      "Ã¶r": 2790,
      "Ġlater": 2791,
      "Ġbreathing": 2792,
      "Ġmelatonin": 2793,
      "ÄŁÄ±na": 2794,
      "Ġswim": 2795,
      "Ġessentials": 2796,
      "Ġwhole": 2797,
      "Ġaccommoda": 2798,
      "'Ä±n": 2799,
      "ple": 2800,
      "san": 2801,
      "sÄ±n": 2802,
      "Ġyan": 2803,
      "ĠÅŁunlardÄ±r": 2804,
      "Ġapps": 2805,
      "-s": 2806,
      "Ġfree": 2807,
      "ĠistediÄŁiniz": 2808,
      ",\"": 2809,
      "Ġalmak": 2810,
      "Ġgelecek": 2811,
      "Ġbuilds": 2812,
      "lerle": 2813,
      "decek": 2814,
      "Ġprioritize": 2815,
      "Ġedi": 2816,
      "Ġmus": 2817,
      "Ġkaz": 2818,
      "tin": 2819,
      "lÄ±ÅŁ": 2820,
      "Ġdiffic": 2821,
      "Ġkonuyu": 2822,
      "Ġdifficult": 2823,
      "ĠgÃ¼Ã§": 2824,
      "gain": 2825,
      "Ġfull": 2826,
      "ĠÃ¶neriler": 2827,
      "ĠseÃ§enek": 2828,
      "Ġkayn": 2829,
      "...\"": 2830,
      "-f": 2831,
      "cih": 2832,
      "Ġki": 2833,
      "lying": 2834,
      "ĠÃ§iz": 2835,
      "Ġdiye": 2836,
      "Ġsoru": 2837,
      "Ġkullanarak": 2838,
      "Ä±ndan": 2839,
      "resh": 2840,
      "Ġuzak": 2841,
      "tÄ±n": 2842,
      "Ġheard": 2843,
      "'i": 2844,
      "'ve": 2845,
      "Ġhav": 2846,
      "ouse": 2847,
      "Ġhouse": 2848,
      "itive": 2849,
      "Ġaround": 2850,
      "Ġtercih": 2851,
      "ĠLear": 2852,
      "Ġverin": 2853,
      "Ġbursts": 2854,
      "Ġconcept": 2855,
      "ĠAdopt": 2856,
      "Ġcelebrate": 2857,
      "leriniz": 2858,
      "Ġkez": 2859,
      "Ġhafta": 2860,
      "Ġfixed": 2861,
      "masÄ±nÄ±": 2862,
      "Ġes": 2863,
      "ĠadÄ±mlarÄ±": 2864,
      "yim": 2865,
      "pping": 2866,
      "Ġprioriti": 2867,
      "ging": 2868,
      "ercise": 2869,
      "Ġsaid": 2870,
      "fort": 2871,
      "ĠTo": 2872,
      "Ġstretching": 2873,
      "Ġexactly": 2874,
      "Ġputting": 2875,
      "Ġreduces": 2876,
      "Ġregularly": 2877,
      "Ġbiraz": 2878,
      "izing": 2879,
      "abi": 2880,
      "Ġifade": 2881,
      "Ġachieve": 2882,
      "109": 2883,
      "ĠArdÄ±ndan": 2884,
      "eth": 2885,
      "idir": 2886,
      "Ġdates": 2887,
      "129": 2888,
      "ĠbahÃ§eniz": 2889,
      "yal": 2890,
      "170": 2891,
      "ĠUyku": 2892,
      "Ġdone": 2893,
      "sÄ±z": 2894,
      "Ġsmaller": 2895,
      "Ġbriefly": 2896,
      "hes": 2897,
      "ĠyapmayÄ±": 2898,
      "Ġactions": 2899,
      "sÄ±na": 2900,
      "ĠyaptÄ±": 2901,
      "ĠĠĊ": 2902,
      "reat": 2903,
      "Ġyeme": 2904,
      "Ġsam": 2905,
      "Ġproble": 2906,
      "Ġimprove": 2907,
      "Ġlevel": 2908,
      "Ġekran": 2909,
      "landÄ±r": 2910,
      "ĠvÃ¼cudun": 2911,
      "are": 2912,
      "lardan": 2913,
      "Ġregard": 2914,
      "Ġhob": 2915,
      "Ġgroup": 2916,
      "Ġiniti": 2917,
      "Ġsoh": 2918,
      "Ġdeste": 2919,
      "nden": 2920,
      "Ä±mÄ±": 2921,
      "38": 2922,
      "Ġalar": 2923,
      "Ġbreaking": 2924,
      "Ġkeeping": 2925,
      "ĠJ": 2926,
      "Ġagain": 2927,
      "ĠListen": 2928,
      "ategor": 2929,
      "Ġplans": 2930,
      "ĠHaf": 2931,
      "Ġquickly": 2932,
      "cra": 2933,
      "ĠhatÄ±r": 2934,
      "Ġsamimi": 2935,
      "149": 2936,
      "Ġteeth": 2937,
      "ĠCommunication": 2938,
      "Ġyara": 2939,
      "'te": 2940,
      "Ġtrack": 2941,
      "Ġmaterial": 2942,
      "tas": 2943,
      "147": 2944,
      "ĠistediÄŁinizi": 2945,
      "tar": 2946,
      "ration": 2947,
      "ĠkolaylaÅŁtÄ±r": 2948,
      "Ġautomatic": 2949,
      "Ġpi": 2950,
      "Ġeng": 2951,
      "Ġrit": 2952,
      "Ġprocra": 2953,
      "ĠAralÄ±k": 2954,
      "ĠgÃ¶rÃ¼n": 2955,
      "ÅŁÄ±k": 2956,
      "Ġmut": 2957,
      "Ġthroughout": 2958,
      "ĠGoogle": 2959,
      "146": 2960,
      "ĠBaÅŁlangÄ±Ã§": 2961,
      "rent": 2962,
      "145": 2963,
      "Ġcurrent": 2964,
      "Ġemin": 2965,
      "ĠgÃ¼neÅŁ": 2966,
      "ĠaraÃ§": 2967,
      "Ġcategor": 2968,
      "Ġexercise": 2969,
      "ining": 2970,
      "yorsunuz": 2971,
      "ency": 2972,
      "Bu": 2973,
      "kli": 2974,
      "ĠarasÄ±": 2975,
      "Ġgerekir": 2976,
      "Ġyorgun": 2977,
      "Ġconsistency": 2978,
      "ies": 2979,
      "Ä±cÄ±": 2980,
      "eye": 2981,
      "Ġanla": 2982,
      "unda": 2983,
      "Ġbrushing": 2984,
      "Ġrepeating": 2985,
      "pace": 2986,
      "ĠSe": 2987,
      "Ġvisual": 2988,
      "Ġclarif": 2989,
      "ĠdÄ±ÅŁarÄ±": 2990,
      "Ġseconds": 2991,
      "kÃ¼n": 2992,
      "dÄ±ÄŁÄ±": 2993,
      "Ġgiving": 2994,
      "Pomodoro": 2995,
      "yac": 2996,
      "rect": 2997,
      "Ġgent": 2998,
      "Ġbeca": 2999,
      "Ġyaparak": 3000,
      "irecek": 3001,
      "sitive": 3002,
      "irm": 3003,
      "Ġpoz": 3004,
      "Ġbecause": 3005,
      "Ġkind": 3006,
      "arken": 3007,
      "ÄŁÄ±n": 3008,
      "bu": 3009,
      "Ġiy": 3010,
      "vice": 3011,
      "view": 3012,
      "Ġkalan": 3013,
      "Ġeffective": 3014,
      "fa": 3015,
      "Ġbins": 3016,
      "Ġleave": 3017,
      "Ġyoksa": 3018,
      "kiler": 3019,
      "Ġbrief": 3020,
      "lest": 3021,
      "tirmek": 3022,
      "Ġincre": 3023,
      "-down": 3024,
      "Ġcontain": 3025,
      "Ġweather": 3026,
      "Ġclearing": 3027,
      "ĠsÃ¶y": 3028,
      "Ġfresh": 3029,
      "104": 3030,
      "Ġhayat": 3031,
      "Ġinterac": 3032,
      "locking": 3033,
      "Ġsaatlerinde": 3034,
      "akes": 3035,
      "ĠApp": 3036,
      "tane": 3037,
      "Ġmultiple": 3038,
      "Ġtari": 3039,
      "ĠEach": 3040,
      "yÄ±p": 3041,
      "yaÃ§": 3042,
      "156": 3043,
      "Ġpositive": 3044,
      "ĠkiÅŁi": 3045,
      "ĠCommit": 3046,
      "stantly": 3047,
      "'ya": 3048,
      "tire": 3049,
      "Ġdestek": 3050,
      "cret": 3051,
      "ĠyaÅŁ": 3052,
      "Ġattention": 3053,
      "Ġrespon": 3054,
      "ĠÃ¶ncelik": 3055,
      "Ġmovement": 3056,
      "Ġpresent": 3057,
      "fet": 3058,
      "Ġcycle": 3059,
      "Ġihtiyac": 3060,
      "onsisten": 3061,
      "Ġmed": 3062,
      "Ġform": 3063,
      "Ġqui": 3064,
      "124": 3065,
      "Ä±nÄ±zda": 3066,
      "Ġilerle": 3067,
      "ssiz": 3068,
      "Ġuygula": 3069,
      "Ġtrigger": 3070,
      "laming": 3071,
      "Ġaccomp": 3072,
      "Ġquiet": 3073,
      "by": 3074,
      "Ä±la": 3075,
      "Ġblaming": 3076,
      "155": 3077,
      "157": 3078,
      "ĠnoktasÄ±": 3079,
      "Ġaccomplish": 3080,
      "ending": 3081,
      "ĠBel": 3082,
      "und": 3083,
      "uring": 3084,
      "ĠyaklaÅŁ": 3085,
      "Ġsohbet": 3086,
      "Ġzone": 3087,
      "Ġshould": 3088,
      "Ġnever": 3089,
      "Ġkamera": 3090,
      "esini": 3091,
      "ĠLearning": 3092,
      "tiÄŁiniz": 3093,
      "Ġfati": 3094,
      "ĠTelefon": 3095,
      "Ġkab": 3096,
      "Ã¼mkÃ¼n": 3097,
      "Ġyerel": 3098,
      "Ġduyg": 3099,
      "Ġbal": 3100,
      "imdi": 3101,
      "ĠRule": 3102,
      "Ġcompleting": 3103,
      "malÄ±sÄ±nÄ±z": 3104,
      "Ġfatigue": 3105,
      "Ä±lan": 3106,
      "ĠGet": 3107,
      "ĠÄ°zmir": 3108,
      "Ġbuilding": 3109,
      "134": 3110,
      "Ġregardless": 3111,
      "Ġalarm": 3112,
      "nik": 3113,
      "Ġcar": 3114,
      "ĠkonuÅŁma": 3115,
      "Ġeasily": 3116,
      "oring": 3117,
      "ĠseÃ§ip": 3118,
      "ng": 3119,
      "Ġsep": 3120,
      "Ġblock": 3121,
      "ĠTime": 3122,
      "Ġwhe": 3123,
      "Ã¼ne": 3124,
      "Ġass": 3125,
      "yarak": 3126,
      "Ġro": 3127,
      "Ġegzersiz": 3128,
      "Ġworkspace": 3129,
      "Ġwin": 3130,
      "larla": 3131,
      "Ġsev": 3132,
      "ĠRemove": 3133,
      "200": 3134,
      "form": 3135,
      "ĠfarklÄ±": 3136,
      "ĠÃ¼cret": 3137,
      "Ġgu": 3138,
      "Ġreview": 3139,
      "Ġtalk": 3140,
      "do": 3141,
      "eh": 3142,
      "Ġtam": 3143,
      "ĠBÃ¶ylece": 3144,
      "Ġyapma": 3145,
      "kay": 3146,
      "ĠConsisten": 3147,
      "Ġenerji": 3148,
      "dying": 3149,
      "Ġgets": 3150,
      "Ġrelaxing": 3151,
      "ĠÃĸÄŁrenme": 3152,
      "Ġema": 3153,
      "Ġgeri": 3154,
      "layÄ±p": 3155,
      "Ġhava": 3156,
      "inizin": 3157,
      "Ġcluttered": 3158,
      "lence": 3159,
      "Ġdecisi": 3160,
      "ĠMe": 3161,
      "ĠsaÄŁlay": 3162,
      "ĠihtiyaÃ§": 3163,
      "meyin": 3164,
      "Ġfinishing": 3165,
      "Ġconfirm": 3166,
      "Ã¼s": 3167,
      "ilar": 3168,
      "Ġsaatte": 3169,
      "Ġprocrastination": 3170,
      "arm": 3171,
      "ĠYat": 3172,
      "ĠAncak": 3173,
      "Ġlower": 3174,
      "Ġinterests": 3175,
      "'nÄ±n": 3176,
      "otal": 3177,
      "Ġmin": 3178,
      "ĠRep": 3179,
      "180": 3180,
      "ffer": 3181,
      "ĠkeÅŁ": 3182,
      "ĠbÄ±rakÄ±n": 3183,
      "Ġsimilar": 3184,
      "ĠAlways": 3185,
      "erien": 3186,
      "Ġbar": 3187,
      "Ġsmallest": 3188,
      "Ġexperien": 3189,
      "ĠdÃ¼zenleme": 3190,
      "Ġcomfort": 3191,
      "ĠApply": 3192,
      "abil": 3193,
      "Ġtemp": 3194,
      "Ġdoesn": 3195,
      "Ġlevels": 3196,
      "tirin": 3197,
      "Ġgereken": 3198,
      "'Ã¼n": 3199,
      "tim": 3200,
      "Ġgid": 3201,
      "ously": 3202,
      "ĠsonuÃ§": 3203,
      "-st": 3204,
      "iyor": 3205,
      "Ġlim": 3206,
      "mektir": 3207,
      "enizi": 3208,
      "Ġbelirli": 3209,
      "sion": 3210,
      "Ġpass": 3211,
      "Ġoptions": 3212,
      "Ġind": 3213,
      "ĠGo": 3214,
      "Ġonu": 3215,
      "ĠAnswer": 3216,
      "ĠKendi": 3217,
      "Ġperfect": 3218,
      "ĠToplam": 3219,
      "108": 3220,
      "manÄ±n": 3221,
      "Ġgit": 3222,
      "ĠiÃ§er": 3223,
      "Ġdakikada": 3224,
      "ĠÃ¼cretsiz": 3225,
      "'e": 3226,
      "Ġwarm": 3227,
      "malar": 3228,
      "103": 3229,
      "123": 3230,
      "kanlÄ±k": 3231,
      "Ġdirect": 3232,
      "bility": 3233,
      "Ġresponse": 3234,
      "Ġwins": 3235,
      "ĠSizin": 3236,
      "Ġbased": 3237,
      "900": 3238,
      "ebilirsiniz": 3239,
      "Ġuygulam": 3240,
      "Ġtutun": 3241,
      "mesini": 3242,
      "-do": 3243,
      "ron": 3244,
      "Ġgenel": 3245,
      "Ġensuring": 3246,
      "earch": 3247,
      "ĠunutmayÄ±n": 3248,
      "Ġdela": 3249,
      "-blocking": 3250,
      "Ġfully": 3251,
      "inizdeki": 3252,
      "Ġext": 3253,
      "ĠpiÅŁirecek": 3254,
      "Ġadd": 3255,
      "Ġreplace": 3256,
      "ĠgÃ¶rÃ¼ÅŁ": 3257,
      "cul": 3258,
      "taki": 3259,
      "Ġkarar": 3260,
      "lÄ±ÄŁÄ±nÄ±": 3261,
      "133": 3262,
      "Ġinterrupting": 3263,
      "abilece": 3264,
      "Ġteknik": 3265,
      "?Ċ": 3266,
      "Ġsho": 3267,
      "larÄ±na": 3268,
      "Ġdead": 3269,
      "128": 3270,
      "Ġpoint": 3271,
      "Ġprevents": 3272,
      "Ġtransport": 3273,
      "two": 3274,
      "Ġmemor": 3275,
      "Ġnumara": 3276,
      "uzur": 3277,
      "98": 3278,
      "mez": 3279,
      "arika": 3280,
      "maktan": 3281,
      "ĠiÅŁlem": 3282,
      "ĠdoÄŁr": 3283,
      "Ġcleaning": 3284,
      "Ġsorting": 3285,
      "Ġli": 3286,
      "urken": 3287,
      "alÄ±m": 3288,
      "Ġexch": 3289,
      "Ġkural": 3290,
      "Ġsonunda": 3291,
      "var": 3292,
      "ici": 3293,
      "lines": 3294,
      "Ġsuc": 3295,
      "ection": 3296,
      "Ġkaynak": 3297,
      "ĠReplace": 3298,
      "chor": 3299,
      "Ġreli": 3300,
      "ook": 3301,
      "gÃ¼n": 3302,
      "ĠPack": 3303,
      "Ġgidecek": 3304,
      "ĠkoÅŁ": 3305,
      "Ġdisc": 3306,
      "Ġbus": 3307,
      "letiÅŁim": 3308,
      "-free": 3309,
      "ĠKon": 3310,
      "Ġbile": 3311,
      "ĠdÃ¼ÅŁÃ¼nÃ¼n": 3312,
      "Ġmusic": 3313,
      "just": 3314,
      "les": 3315,
      "ĠZaman": 3316,
      "Ġcreating": 3317,
      "Ġfik": 3318,
      "Ġref": 3319,
      "ĠbaÅŁlangÄ±": 3320,
      "Ġsuyu": 3321,
      "ÅŁaÄŁÄ±": 3322,
      "tence": 3323,
      "Ġanda": 3324,
      "Ġfre": 3325,
      "Ġdep": 3326,
      "Ġmakin": 3327,
      "yn": 3328,
      "maz": 3329,
      "dÄ±ÄŁÄ±nÄ±": 3330,
      "Ġmood": 3331,
      "Ġkazan": 3332,
      "ĠmÃ¼mkÃ¼n": 3333,
      "ĠadÄ±mda": 3334,
      "Ġsave": 3335,
      "ĠboÅŁ": 3336,
      "Ġkoy": 3337,
      "Ġtakip": 3338,
      "Ġbecomes": 3339,
      "Ġoffering": 3340,
      "Ġyere": 3341,
      "Ġmaintaining": 3342,
      "ĠÃ§Ä±kar": 3343,
      "ĠayÄ±rÄ±n": 3344,
      "Ġdelays": 3345,
      "Ã¼ÄŁ": 3346,
      "Ġmet": 3347,
      "Ġturning": 3348,
      "ality": 3349,
      "ĠPlan": 3350,
      "Ġvide": 3351,
      "Ġbackup": 3352,
      "Ġshelf": 3353,
      "ĠIf": 3354,
      "ĠArkadaÅŁ": 3355,
      "300": 3356,
      "ĠsÃ¼reci": 3357,
      "ĠGÃ¼nÃ¼n": 3358,
      "Ġtav": 3359,
      "imp": 3360,
      "Ġkut": 3361,
      "ĠdiÄŁer": 3362,
      "ud": 3363,
      "Ġpus": 3364,
      "ĠBe": 3365,
      "Ġatt": 3366,
      "Ġsaniye": 3367,
      "so": 3368,
      "ĠbÃ¼t": 3369,
      "Ġinten": 3370,
      "Ġrhy": 3371,
      "Ġrhyth": 3372,
      "istem": 3373,
      "Ġevent": 3374,
      "menin": 3375,
      "anÄ±zÄ±": 3376,
      "Ġboost": 3377,
      "ĠkalÄ±": 3378,
      "leyip": 3379,
      "ĠÃ¶neririm": 3380,
      "Ġdrive": 3381,
      "Ġthinking": 3382,
      ".)": 3383,
      "ction": 3384,
      "itap": 3385,
      "Ġanlat": 3386,
      "Ġbuilt": 3387,
      "yacak": 3388,
      "isay": 3389,
      "endi": 3390,
      "Ġmicro": 3391,
      "ĠsaÄŁlÄ±k": 3392,
      "bileceÄŁiniz": 3393,
      "Ġdesign": 3394,
      "Ġmal": 3395,
      "ĠÃ¶ÄŁle": 3396,
      "Ġmutu": 3397,
      "Ġvak": 3398,
      "ĠgeliÅŁ": 3399,
      "ĠÃ§Ä±kacak": 3400,
      "ĠTr": 3401,
      "izce": 3402,
      "280": 3403,
      "Ġkarma": 3404,
      "istic": 3405,
      "Ġareas": 3406,
      "Ġrelying": 3407,
      "Ġbulmak": 3408,
      "ned": 3409,
      "ĠÃ§alÄ±ÅŁma": 3410,
      "Ġfail": 3411,
      "Ġizin": 3412,
      "Ġprioritiz": 3413,
      "ĠMesaj": 3414,
      "ĠkayÄ±tta": 3415,
      "Ġdestinations": 3416,
      "Ġnedenle": 3417,
      "ll": 3418,
      "Ġsak": 3419,
      "ĠiÃ§ine": 3420,
      "Ġanchor": 3421,
      "Ġsessiz": 3422,
      "ĠaydÄ±n": 3423,
      "Ġreconnect": 3424,
      "ĠÄ±ÅŁÄ±ÄŁÄ±": 3425,
      "Ġwriting": 3426,
      "ĠDon": 3427,
      "Ġadding": 3428,
      "Ġmutual": 3429,
      "chen": 3430,
      "Ġdeneyim": 3431,
      "Ġideas": 3432,
      "-out": 3433,
      "Ġuyu": 3434,
      "Ġdocu": 3435,
      "gers": 3436,
      "sini": 3437,
      "ĠbaÅŁlar": 3438,
      "ĠÄ°letiÅŁim": 3439,
      "Ġsumm": 3440,
      "Ġkitchen": 3441,
      "ĠkarÅŁÄ±laÅŁ": 3442,
      "ĠzorluÄŁu": 3443,
      "Ġsit": 3444,
      "Ġlead": 3445,
      "atch": 3446,
      "Ġhotels": 3447,
      "kÃ§e": 3448,
      "ossible": 3449,
      "Ġpop": 3450,
      "top": 3451,
      "Ġneeding": 3452,
      "Ġincludes": 3453,
      "Ġrhythm": 3454,
      "**.": 3455,
      "ĠHab": 3456,
      "'ll": 3457,
      "ence": 3458,
      "Ġremo": 3459,
      "athe": 3460,
      "Ġtutacak": 3461,
      "ĠsÃ¼rec": 3462,
      "Ġpur": 3463,
      "ilizce": 3464,
      "Ġweekly": 3465,
      "ana": 3466,
      "Ġpark": 3467,
      "Ġhaving": 3468,
      "tification": 3469,
      "Ġsentence": 3470,
      "Ġkonuda": 3471,
      "Ġminim": 3472,
      "Ġfrequ": 3473,
      "600": 3474,
      "Ġcri": 3475,
      "Ġold": 3476,
      "ĠÃ¶neriyi": 3477,
      "bilirsin": 3478,
      "Ġleaving": 3479,
      "-M": 3480,
      "av": 3481,
      "Ġvery": 3482,
      "ĠThen": 3483,
      "Ġmon": 3484,
      "Ġders": 3485,
      "ĠbaÅŁlayÄ±p": 3486,
      "tÄ±ra": 3487,
      "500": 3488,
      "Ġbreathe": 3489,
      "ain": 3490,
      "Ġintention": 3491,
      "Ġonun": 3492,
      "Ġrou": 3493,
      "diÄŁi": 3494,
      "144": 3495,
      "Ġvarsa": 3496,
      "Ġswit": 3497,
      "Ġnatural": 3498,
      "ĠTÃ¼r": 3499,
      "ĠÄ°yi": 3500,
      "Ġtidy": 3501,
      "Ġcall": 3502,
      "ngilizce": 3503,
      "-stakes": 3504,
      "ida": 3505,
      "ĠaÅŁ": 3506,
      "Ä±nÄ±r": 3507,
      "Ġeveryone": 3508,
      "Ġimpossible": 3509,
      "rink": 3510,
      "Ġperfection": 3511,
      "hangi": 3512,
      "Ġuya": 3513,
      "ĠHangi": 3514,
      "leyebilirsiniz": 3515,
      "Ġproduction": 3516,
      "400": 3517,
      "ĠsaÄŁlayÄ±n": 3518,
      "-on": 3519,
      "Ġhuzur": 3520,
      "Ġjud": 3521,
      "isayar": 3522,
      "mem": 3523,
      "-Minute": 3524,
      "54": 3525,
      "Ġasleep": 3526,
      "Ġkayded": 3527,
      "Ġclarifying": 3528,
      "Ġuyum": 3529,
      "ĠkaÃ§Ä±nÄ±n": 3530,
      "Ġperi": 3531,
      "Ġdinlen": 3532,
      "ĠdÃ¶n": 3533,
      "You": 3534,
      "Ġslow": 3535,
      "Ġkes": 3536,
      "Ġmik": 3537,
      "ĠÃ§ev": 3538,
      "800": 3539,
      "Ġcomplex": 3540,
      "92": 3541,
      "yo": 3542,
      "Ġsistem": 3543,
      "Ġuyuy": 3544,
      "efer": 3545,
      "ĠsÃ¼reÃ§": 3546,
      "Ġdecluttering": 3547,
      "Ġbalance": 3548,
      "gÄ±": 3549,
      "Ġstar": 3550,
      "ĠNuma": 3551,
      "Ġmindful": 3552,
      "Ġdisrup": 3553,
      "ehir": 3554,
      "64": 3555,
      "ila": 3556,
      "pe": 3557,
      "Ġziya": 3558,
      "list": 3559,
      "Ġarka": 3560,
      "Ġindir": 3561,
      "ĠSor": 3562,
      "Ġquality": 3563,
      "102": 3564,
      "132": 3565,
      "Ġnotification": 3566,
      "ory": 3567,
      "ĠiÅŁi": 3568,
      "Ġaraya": 3569,
      "ĠadÄ±mlarla": 3570,
      "Ġprojects": 3571,
      "net": 3572,
      "Ġfall": 3573,
      "Ġreac": 3574,
      "Ġtoprak": 3575,
      "Ġpause": 3576,
      "ĠgÃ¼nde": 3577,
      "Ġrespect": 3578,
      "vaila": 3579,
      "Ġokumaya": 3580,
      "Ġhappens": 3581,
      "muÅŁ": 3582,
      "oint": 3583,
      "isini": 3584,
      "Ġclot": 3585,
      "ĠDrink": 3586,
      "ilik": 3587,
      "Ġbath": 3588,
      "inizden": 3589,
      "imli": 3590,
      "ĠReach": 3591,
      "Ġperspec": 3592,
      "Ġlights": 3593,
      "Ġbitkiler": 3594,
      "Ġallowing": 3595,
      "Ġperspective": 3596,
      "ĠadÄ±": 3597,
      "ork": 3598,
      "Ġact": 3599,
      "Ġyeniden": 3600,
      "Ġnotes": 3601,
      "Ġairport": 3602,
      "ĠvÃ¼cudunuz": 3603,
      "ĠfÄ±r": 3604,
      "Ġmesa": 3605,
      "Ġplanlama": 3606,
      "Ġvalida": 3607,
      "ice": 3608,
      "jor": 3609,
      "seniz": 3610,
      "Ġnerv": 3611,
      "Ġmant": 3612,
      "Ä±ntÄ±": 3613,
      "Ġsummar": 3614,
      "Ġaim": 3615,
      "Ġchat": 3616,
      "Ġtool": 3617,
      "ĠBook": 3618,
      "ĠdakikayÄ±": 3619,
      "700": 3620,
      "Ġgentle": 3621,
      "Ġnervous": 3622,
      "ĠÄ°ngilizce": 3623,
      "Ġmajor": 3624,
      "Ġalter": 3625,
      "Ġfrequent": 3626,
      "Ġmust": 3627,
      "Ġisters": 3628,
      "haba": 3629,
      "tivity": 3630,
      "dia": 3631,
      "Ġkayna": 3632,
      "Ġemotion": 3633,
      "Ġdecision": 3634,
      "Ġfikir": 3635,
      "yet": 3636,
      "Ġbun": 3637,
      "using": 3638,
      "ĠkaÄŁÄ±": 3639,
      "Ġorganized": 3640,
      "Two": 3641,
      "Ġcra": 3642,
      "Ġeliminate": 3643,
      "ĠkÄ±s": 3644,
      "Ġforward": 3645,
      "ĠyÃ¼zden": 3646,
      "Ġexpla": 3647,
      "Ġsin": 3648,
      "Ġbond": 3649,
      "sap": 3650,
      "ĠÃ§i": 3651,
      "167": 3652,
      "Ġadjust": 3653,
      "ĠgÃ¶zlem": 3654,
      "lÄ±ÅŁkanlÄ±k": 3655,
      "Ġritual": 3656,
      "Ġaya": 3657,
      "Ġben": 3658,
      "Ġsole": 3659,
      "Ġhareke": 3660,
      "ĠSayÄ±n": 3661,
      "Ġbilgiyi": 3662,
      "Ġcir": 3663,
      "ĠGÃ¼nde": 3664,
      "Ġbite": 3665,
      "ĠbaÅŁlangÄ±Ã§tÄ±r": 3666,
      "Ġcasual": 3667,
      "Ġvideo": 3668,
      "Ġna": 3669,
      "Ġileri": 3670,
      "Ġmeals": 3671,
      "Ġverir": 3672,
      "ĠSÃ¼re": 3673,
      "ĠzamanÄ±": 3674,
      "154": 3675,
      "anging": 3676,
      "143": 3677,
      "Ġbelirleyerek": 3678,
      "ĠhiÃ§": 3679,
      "ĠamaÃ§": 3680,
      "eded": 3681,
      "Ġtotal": 3682,
      "Ġmeans": 3683,
      "Ġevde": 3684,
      "Ġaccommodation": 3685,
      "Ġmalze": 3686,
      "Ġperiod": 3687,
      "ulating": 3688,
      "Ã¶rn": 3689,
      "aps": 3690,
      "leÅŁtirin": 3691,
      "59": 3692,
      "ĠtanÄ±": 3693,
      "cel": 3694,
      "arge": 3695,
      "ase": 3696,
      "Ġuyand": 3697,
      "Ġstarted": 3698,
      "Ġnotifications": 3699,
      "Ġsolely": 3700,
      "udy": 3701,
      "vor": 3702,
      "Ġser": 3703,
      "ĠÃ§alÄ±ÅŁmak": 3704,
      "ĠgÃ¶zden": 3705,
      "Ġhappen": 3706,
      "Ġproblems": 3707,
      "Ġbusy": 3708,
      "Ġheav": 3709,
      "lic": 3710,
      "Ġvb": 3711,
      "ĠplanlayÄ±n": 3712,
      "Ġtrain": 3713,
      "Ġfavor": 3714,
      "Ġduvar": 3715,
      "ÄŁÄ±nÄ±zda": 3716,
      "Ġground": 3717,
      "Ġazalt": 3718,
      "ĠSeyahat": 3719,
      "Ġsuccess": 3720,
      "Ġtavsi": 3721,
      "Ġprioritizing": 3722,
      "ause": 3723,
      "122": 3724,
      "Ġavaila": 3725,
      "Ġstore": 3726,
      "ĠkatÄ±": 3727,
      "Ġona": 3728,
      "Ġstudying": 3729,
      "Ġthink": 3730,
      "ularÄ±": 3731,
      "Ä±ktan": 3732,
      "ĠoluÅŁturun": 3733,
      "Ġhale": 3734,
      "ĠBelir": 3735,
      "-siz": 3736,
      "rying": 3737,
      "ĠaÅŁaÄŁÄ±": 3738,
      "ternal": 3739,
      "Ġmoments": 3740,
      "Ġurgency": 3741,
      "Ġrecall": 3742,
      "Ġhavuz": 3743,
      "term": 3744,
      "Ġarri": 3745,
      "Ġgelen": 3746,
      "-term": 3747,
      "der": 3748,
      "Ä±yor": 3749,
      "Ġretur": 3750,
      "icate": 3751,
      "Ġused": 3752,
      "Ġhobby": 3753,
      "-sized": 3754,
      "ues": 3755,
      "Ġag": 3756,
      "ÄŁun": 3757,
      "Ġdedicate": 3758,
      "Ġcase": 3759,
      "Ġdocuments": 3760,
      "ty": 3761,
      "Ġkullanmak": 3762,
      "Ġbask": 3763,
      "duÄŁunuz": 3764,
      "Ġodaklanma": 3765,
      "Ġrewards": 3766,
      "ĠartÄ±rÄ±r": 3767,
      "Ġexperiences": 3768,
      "ority": 3769,
      "enin": 3770,
      "Ġneeded": 3771,
      "ĠÃ¼zerinde": 3772,
      "Ġmedit": 3773,
      "ages": 3774,
      "ĠolduÄŁunuz": 3775,
      "Ġlove": 3776,
      "ĠtanÄ±ÅŁ": 3777,
      "Ġeffectively": 3778,
      "Ġheavy": 3779,
      "Ġwas": 3780,
      "ritik": 3781,
      "lerine": 3782,
      "Ġexternal": 3783,
      "Ġdakikalar": 3784,
      "Ġmedia": 3785,
      "Ġhedeflerinizi": 3786,
      "Ġstrictly": 3787,
      "Ġrealistic": 3788,
      "ecting": 3789,
      "ĠÅŀu": 3790,
      "ors": 3791,
      "Ġtoward": 3792,
      "Ä±nÄ±zÄ±n": 3793,
      "ĠsabahlarÄ±": 3794,
      "ĠÃ¶zet": 3795,
      "cessary": 3796,
      "Ġtalking": 3797,
      "69": 3798,
      "isiniz": 3799,
      "ĠsÃ¼r": 3800,
      "oud": 3801,
      "ÅŁtÄ±r": 3802,
      "ĠbaÅŁlayarak": 3803,
      "Ġbilgisayar": 3804,
      "Ġanki": 3805,
      "ĠkayÄ±ttaki": 3806,
      "139": 3807,
      "Ġplanla": 3808,
      "Ġyolcul": 3809,
      "Ġrepeti": 3810,
      "ĠdeÄŁerlendir": 3811,
      "mind": 3812,
      "yerek": 3813,
      "Ġbla": 3814,
      "haul": 3815,
      "Ġsahip": 3816,
      "Ġtoplamda": 3817,
      "Ġpaint": 3818,
      "ke": 3819,
      "meli": 3820,
      "ĠAlÄ±ÅŁkanlÄ±k": 3821,
      "Ġsol": 3822,
      "ĠGood": 3823,
      "cide": 3824,
      "Ġadvice": 3825,
      "Ġbreaths": 3826,
      "Ġmonth": 3827,
      "ati": 3828,
      "ilen": 3829,
      "ĠdÃ¼zenli": 3830,
      "Ġlost": 3831,
      "Ġdetails": 3832,
      "ĠkarmaÅŁÄ±k": 3833,
      "ĠTÃ¼rkÃ§e": 3834,
      "erhaba": 3835,
      "Ġspecifically": 3836,
      "Ġreliable": 3837,
      "Ġfavorite": 3838,
      "iden": 3839,
      "Ġcor": 3840,
      "ĠÃĸner": 3841,
      "Ġetmeye": 3842,
      "Ġekleyin": 3843,
      "ĠsÄ±kÄ±ntÄ±": 3844,
      "Ġiyisi": 3845,
      "gu": 3846,
      "Ġstil": 3847,
      "Ġtes": 3848,
      "Ġdate": 3849,
      "ĠanlaÅŁ": 3850,
      "Ġbuffer": 3851,
      "119": 3852,
      "ĠkaydÄ±": 3853,
      "Ġkurun": 3854,
      "Ġgerekti": 3855,
      "morrow": 3856,
      "-one": 3857,
      "Ġtar": 3858,
      "lebilir": 3859,
      "Ġkav": 3860,
      "Ġmode": 3861,
      "Ġcommun": 3862,
      "Ġoverhaul": 3863,
      "Ġweb": 3864,
      "Ġodaklanmak": 3865,
      "Ġtriggers": 3866,
      "Ġengage": 3867,
      "Ġsakin": 3868,
      "74": 3869,
      "iled": 3870,
      "Ġkritik": 3871,
      "Ġtomorrow": 3872,
      "Ġgere": 3873,
      "Ġdefter": 3874,
      "Ġimportance": 3875,
      "Ġdistraction": 3876,
      "Ġappoint": 3877,
      "ĠparÃ§": 3878,
      "Ġroman": 3879,
      "ĠConsistency": 3880,
      "ÄŁÄ±m": 3881,
      "Ġphones": 3882,
      "ensive": 3883,
      "Ġdetailed": 3884,
      "Ġtopics": 3885,
      "ĠkitabÄ±": 3886,
      "Ġestablish": 3887,
      "Ġchore": 3888,
      "ĠÃ¶ÄŁre": 3889,
      "Ġortak": 3890,
      "ĠÃĩok": 3891,
      "oin": 3892,
      "Ġdav": 3893,
      "Ġbag": 3894,
      "Ġenc": 3895,
      "Ġeder": 3896,
      "ĠTrue": 3897,
      "dually": 3898,
      "Ġremind": 3899,
      "Ġworrying": 3900,
      "Ġorganizing": 3901,
      "Ġstarts": 3902,
      "ĠStudy": 3903,
      "Ġextra": 3904,
      "Ġalterna": 3905,
      "Ġwrite": 3906,
      "Ġele": 3907,
      "Ġbirini": 3908,
      "Ġthese": 3909,
      "Ġremove": 3910,
      "ĠolmasÄ±": 3911,
      "Ġstic": 3912,
      "ĠyarÄ±": 3913,
      "ÄŁim": 3914,
      "ĠGece": 3915,
      "148": 3916,
      "Ġgenuinely": 3917,
      "ft": 3918,
      "ĠCle": 3919,
      "vol": 3920,
      "ĠiÅŁleri": 3921,
      ".**": 3922,
      "uyor": 3923,
      "ĠbaÅŁka": 3924,
      "Ġsight": 3925,
      "ĠyazÄ±lÄ±": 3926,
      "Ġbelki": 3927,
      "ĠWhen": 3928,
      "Ġhissi": 3929,
      "ffeine": 3930,
      "Ġcaffeine": 3931,
      "Ġpacking": 3932,
      "gment": 3933,
      "lacak": 3934,
      "Ġanxi": 3935,
      "Ġsorular": 3936,
      "Ġready": 3937,
      "leÅŁtirme": 3938,
      "ĠgÃ¼nÃ¼nÃ¼z": 3939,
      "Ġenjo": 3940,
      "ults": 3941,
      "Ġcosts": 3942,
      "Ä±zlÄ±": 3943,
      "Ġchecklist": 3944,
      "Ġharit": 3945,
      "Ġalarak": 3946,
      "ĠResearch": 3947,
      "Ġam": 3948,
      "Ġbin": 3949,
      "mand": 3950,
      "tically": 3951,
      "159": 3952,
      "ĠteÅŁ": 3953,
      "leyen": 3954,
      "ĠArkadaÅŁlÄ±k": 3955,
      "-to": 3956,
      "Ã¼ler": 3957,
      "eclutter": 3958,
      "menize": 3959,
      "Ġunderstood": 3960,
      "Ġstaying": 3961,
      "ĠHedef": 3962,
      "-imp": 3963,
      "tiÅŁ": 3964,
      "Ġjoy": 3965,
      "ĠÃ¶nceden": 3966,
      "Ġbelirtin": 3967,
      "Ġsaatlerde": 3968,
      "Ġexpos": 3969,
      "ĠbahÃ§enizin": 3970,
      "ĠsaÄŁlayacak": 3971,
      "Ġsummarizing": 3972,
      "Ġdavran": 3973,
      "bly": 3974,
      "Ġ-": 3975,
      "times": 3976,
      "Ġweeks": 3977,
      "Ġdurumunu": 3978,
      "Ġblocking": 3979,
      "79": 3980,
      "pose": 3981,
      "tle": 3982,
      "isyon": 3983,
      "ĠiÃ§mek": 3984,
      "lanmÄ±ÅŁ": 3985,
      "Ġseb": 3986,
      "Ġspend": 3987,
      "165": 3988,
      "Ġcreates": 3989,
      "Ġhandle": 3990,
      "Ġplat": 3991,
      "ĠsÃ¶z": 3992,
      "Ġaren": 3993,
      "ildir": 3994,
      "Ġbring": 3995,
      "ĠyemeÄŁi": 3996,
      "Ġdeadlines": 3997,
      "Ġexposure": 3998,
      "\")": 3999,
      "\",": 4000,
      "Ġbelirt": 4001,
      "Ġkeeps": 4002,
      "ĠsÃ¼reli": 4003,
      "Ġreply": 4004,
      "Ġyatmadan": 4005,
      "Ġmiktar": 4006,
      "Ġpick": 4007,
      "linde": 4008,
      "Ġtext": 4009,
      "ĠWhy": 4010,
      "Ġnature": 4011,
      "Ġolmayan": 4012,
      "ĠInstead": 4013,
      "Ġbrings": 4014,
      "Ġspeaker": 4015,
      "ĠarasÄ±nda": 4016,
      "Ġdirectly": 4017,
      "-w": 4018,
      "inter": 4019,
      "Ġcook": 4020,
      "yap": 4021,
      "ively": 4022,
      "Ġsear": 4023,
      "Ä±klÄ±": 4024,
      "come": 4025,
      "Ġmalzeme": 4026,
      "ĠkarÄ±": 4027,
      "ticing": 4028,
      "Ä±rken": 4029,
      "larÄ±nda": 4030,
      "lemeyi": 4031,
      "Ġdeeply": 4032,
      "Ġletting": 4033,
      "ĠkeÅŁfet": 4034,
      "Ġvakit": 4035,
      "ĠSleep": 4036,
      "ĠbaÅŁÄ±na": 4037,
      "Ġpara": 4038,
      "Ġlisting": 4039,
      "ĠiÃ§indeki": 4040,
      "Ġemotions": 4041,
      "sek": 4042,
      "Ġsec": 4043,
      "Ġcons": 4044,
      "Ġhear": 4045,
      "Ġinvol": 4046,
      "oney": 4047,
      "240": 4048,
      "Ġnefesinizi": 4049,
      "ĠJust": 4050,
      "Ä±labilir": 4051,
      "Ġrepetition": 4052,
      "jital": 4053,
      "rust": 4054,
      "Ġnothing": 4055,
      "Ġfrust": 4056,
      "Ġgrow": 4057,
      "ĠÃ¶d": 4058,
      "209": 4059,
      "vices": 4060,
      "185": 4061,
      "Ġinternet": 4062,
      "tanÄ±n": 4063,
      "Ġgradually": 4064,
      "ĠHemen": 4065,
      "ĠgÃ¼Ã§lendir": 4066,
      "'nde": 4067,
      "Ġuyk": 4068,
      "ĠpiÅŁirme": 4069,
      "Ġliste": 4070,
      "ĠyaklaÅŁÄ±m": 4071,
      "Ġreturn": 4072,
      "ĠkÃ¶": 4073,
      "Ġshif": 4074,
      "Ġconnections": 4075,
      "ĠuygulamasÄ±": 4076,
      "ĠDeclutter": 4077,
      "Ã§i": 4078,
      "Ġeating": 4079,
      "Ġdemand": 4080,
      "inizle": 4081,
      "166": 4082,
      "ĠtanÄ±m": 4083,
      "Ġrequi": 4084,
      "Ġcounter": 4085,
      "Ġremoving": 4086,
      "sine": 4087,
      "Ġci": 4088,
      "ĠEliminate": 4089,
      "Ġstrate": 4090,
      "Ġzama": 4091,
      "Ġstrong": 4092,
      "asÄ±nÄ±": 4093,
      "187": 4094,
      "Ġcontainers": 4095,
      "Ġcritical": 4096,
      "Ġfrequently": 4097,
      "ĠEl": 4098,
      "ĠTra": 4099,
      "Ġmoney": 4100,
      "ump": 4101,
      "Ġsos": 4102,
      "Ġdecide": 4103,
      "ĠPut": 4104,
      "Ġchoose": 4105,
      "ĠeÅŁy": 4106,
      "ures": 4107,
      "ĠSÄ±": 4108,
      "elf": 4109,
      "Ġzorunda": 4110,
      "ĠalÄ±ÅŁkanlÄ±ÄŁÄ±": 4111,
      "ĠWrite": 4112,
      "Ġhealthy": 4113,
      "Ġtarih": 4114,
      "Ġuygulamalar": 4115,
      "-impact": 4116,
      "sp": 4117,
      "ĠTV": 4118,
      "ĠGÃ¶": 4119,
      "Ġspon": 4120,
      "ĠÅŁimdi": 4121,
      "ĠUz": 4122,
      "ĠkolaylaÅŁ": 4123,
      "Ġencou": 4124,
      "bo": 4125,
      "dÄ±k": 4126,
      "cent": 4127,
      "184": 4128,
      "189": 4129,
      "ĠÃ¶ÄŁrenmeye": 4130,
      "âĢĵ": 4131,
      "Ġbecome": 4132,
      "Ġzih": 4133,
      "Ġspontane": 4134,
      "cer": 4135,
      "cisi": 4136,
      "Ġprote": 4137,
      "ÄŁine": 4138,
      "Ġhy": 4139,
      "eleri": 4140,
      "153": 4141,
      "ĠZor": 4142,
      "Ġmat": 4143,
      "Ġsorunu": 4144,
      "miÅŁtir": 4145,
      "ĠYatmadan": 4146,
      "230": 4147,
      "iyle": 4148,
      "sta": 4149,
      "Ġverimli": 4150,
      "ĠbaÅŁlay": 4151,
      "Ã¼zel": 4152,
      "ross": 4153,
      "charge": 4154,
      "unuza": 4155,
      "Ġmessages": 4156,
      "ĠÃ¶l": 4157,
      "Ġvisi": 4158,
      "ĠistiyorsanÄ±z": 4159,
      "Ġalma": 4160,
      "Ġsenin": 4161,
      "Ġcontin": 4162,
      "ĠkalkÄ±p": 4163,
      "Ġsticking": 4164,
      "Ġresults": 4165,
      "207": 4166,
      "ĠFotoÄŁraf": 4167,
      "layÄ±cÄ±": 4168,
      "Ġmastering": 4169,
      "Ġedip": 4170,
      "Ġdesignated": 4171,
      "53": 4172,
      "58": 4173,
      "ĠsÃ¼": 4174,
      "Ġhesap": 4175,
      "ety": 4176,
      "121": 4177,
      "186": 4178,
      "ĠÃ¼zere": 4179,
      "Ã¼tÃ¼": 4180,
      "abileceÄŁiniz": 4181,
      "Ġcue": 4182,
      "sar": 4183,
      "Ġonline": 4184,
      "Ġmap": 4185,
      "ĠkullanmayÄ±": 4186,
      "Ġederek": 4187,
      "Ġtaraf": 4188,
      "Ġbilgiye": 4189,
      "ĠÅŁunlarÄ±": 4190,
      "Ġcompare": 4191,
      "ĠÄ±sÄ±": 4192,
      "Ġemotional": 4193,
      "Ġpic": 4194,
      "Ġforce": 4195,
      "ĠyapmanÄ±z": 4196,
      "never": 4197,
      "909": 4198,
      "Ġexpect": 4199,
      "valtÄ±": 4200,
      "Ġcomfortable": 4201,
      "ingu": 4202,
      "Ġuyuma": 4203,
      "ĠazÄ±ndan": 4204,
      "Ġsunlight": 4205,
      "ĠGetting": 4206,
      "Ġshoot": 4207,
      "Ġmindfulness": 4208,
      "dÃ¼r": 4209,
      "Ġhead": 4210,
      "Ġren": 4211,
      "Ġrecharge": 4212,
      "Ġisn": 4213,
      "Ġmotivated": 4214,
      "ched": 4215,
      "ĠoluÅŁturmak": 4216,
      "ĠÃĩalÄ±ÅŁ": 4217,
      "Ġinteractions": 4218,
      "Ġlock": 4219,
      "ints": 4220,
      "Ġnear": 4221,
      "Ġtired": 4222,
      "ĠBuild": 4223,
      "183": 4224,
      "188": 4225,
      "Ġlate": 4226,
      "Ġdistingu": 4227,
      "Ġdistinguish": 4228,
      "68": 4229,
      "ines": 4230,
      "ĠsÄ±nÄ±r": 4231,
      "Ġfood": 4232,
      "Ġdair": 4233,
      "Ġinstantly": 4234,
      "Ġuygulaya": 4235,
      "Ġaccess": 4236,
      "ĠNe": 4237,
      "Ġwindow": 4238,
      "-time": 4239,
      "Ġcha": 4240,
      "Ġsaati": 4241,
      "ĠÅŁehir": 4242,
      "904": 4243,
      "Ġsaatini": 4244,
      "Ġconfiden": 4245,
      "Ġlooking": 4246,
      "Ġsurfaces": 4247,
      "Ġkabul": 4248,
      "Ġanxiety": 4249,
      "Ġconfidence": 4250,
      "tiri": 4251,
      "Ġnere": 4252,
      "Ġmeaningful": 4253,
      "ĠkonuÅŁmak": 4254,
      "Ġedebilirsiniz": 4255,
      "Ġemail": 4256,
      "Ġclothes": 4257,
      "anÄ±n": 4258,
      "Ġtechniqu": 4259,
      "allen": 4260,
      "haz": 4261,
      "vig": 4262,
      "ĠHave": 4263,
      "ĠÃ¶lÃ§": 4264,
      "Ġtechniques": 4265,
      "Ġblo": 4266,
      "Ġbeen": 4267,
      "ĠanÄ±nda": 4268,
      "sÄ±nda": 4269,
      "206": 4270,
      "lemeye": 4271,
      "phan": 4272,
      "Ġrequire": 4273,
      "Ġjudgment": 4274,
      "ion": 4275,
      "Ġoto": 4276,
      "Ä±sa": 4277,
      "usal": 4278,
      "Ġpracticing": 4279,
      "158": 4280,
      "208": 4281,
      "Ġekleyerek": 4282,
      "acaÄŁÄ±nÄ±z": 4283,
      "Ã¼nÃ¼zÃ¼": 4284,
      "ĠpopÃ¼ler": 4285,
      "Ġpurpose": 4286,
      "Ġsal": 4287,
      "Ġcol": 4288,
      "Ġteach": 4289,
      "Ġyerden": 4290,
      "ĠÃ§eker": 4291,
      "ĠdÃ¼ÅŁÃ¼r": 4292,
      "ĠgÃ¶revleri": 4293,
      "Ġwhenever": 4294,
      "Ġaiming": 4295,
      "Ġnavig": 4296,
      "'u": 4297,
      "lanan": 4298,
      "Ġkas": 4299,
      "ĠHarika": 4300,
      "ĠayrÄ±": 4301,
      "Ġslot": 4302,
      "237": 4303,
      "907": 4304,
      "Ġdiyerek": 4305,
      "Ġkaybet": 4306,
      "Ġpersonal": 4307,
      "ĠalanÄ±": 4308,
      "Ġexchanging": 4309,
      "73": 4310,
      "ink": 4311,
      "Ġtable": 4312,
      "kaye": 4313,
      "203": 4314,
      "905": 4315,
      "906": 4316,
      "Ġpoints": 4317,
      "Ġvalue": 4318,
      "ĠdetaylÄ±": 4319,
      "ĠbaÅŁlangÄ±cÄ±": 4320,
      "Ġuyuyun": 4321,
      "Ġzamanda": 4322,
      "63": 4323,
      "ĠÃ¼Ã§": 4324,
      "Ġfay": 4325,
      "ĠkÄ±sÄ±": 4326,
      "Ġru": 4327,
      "dik": 4328,
      "Ġyerde": 4329,
      "Ġstuck": 4330,
      "ĠaÃ§Ä±": 4331,
      "ĠSaat": 4332,
      "Ġaccommodations": 4333,
      "Ġsefer": 4334,
      "Ġfact": 4335,
      "Ġkonum": 4336,
      "204": 4337,
      "ĠiÅŁle": 4338,
      "Ġkaydet": 4339,
      "ĠsabÄ±r": 4340,
      "Ġfinding": 4341,
      "arate": 4342,
      "underst": 4343,
      "Ġbiti": 4344,
      "101": 4345,
      "dip": 4346,
      "ĠyoÄŁun": 4347,
      "ĠdÃ¼zel": 4348,
      "ledge": 4349,
      "Ġnokt": 4350,
      "Ġclarity": 4351,
      "Ġyeterlidir": 4352,
      "build": 4353,
      "78": 4354,
      "Ġconte": 4355,
      "dest": 4356,
      "Ġdevices": 4357,
      "Ġchallen": 4358,
      "ĠdeÄŁiÅŁik": 4359,
      "234": 4360,
      "111": 4361,
      "Ġkoyun": 4362,
      "Ġhardest": 4363,
      "Ġmisunderst": 4364,
      "Ġturn": 4365,
      "Ġincluding": 4366,
      "Ġgider": 4367,
      "Ġpushes": 4368,
      "Ġattrac": 4369,
      "'un": 4370,
      "kim": 4371,
      "Ġrebuild": 4372,
      "Ġana": 4373,
      "ĠatÄ±n": 4374,
      "ĠaltÄ±": 4375,
      "Ġbelirtil": 4376,
      "Ġboz": 4377,
      "Ġdesired": 4378,
      "Ġtransit": 4379,
      "ĠuygulayÄ±n": 4380,
      "ĠbÃ¼tÃ§": 4381,
      "ĠkÄ±sm": 4382,
      ")**": 4383,
      "Â°": 4384,
      "tiÄŁi": 4385,
      "ĠStop": 4386,
      "Ġunder": 4387,
      "Ġsilence": 4388,
      "ĠyapmaktÄ±r": 4389,
      "Ġsleeping": 4390,
      "Ġcommon": 4391,
      "Ġexample": 4392,
      "236": 4393,
      "Ġsaatlik": 4394,
      "ĠgÃ¶revi": 4395,
      "ĠdÃ¼ÅŁÃ¼nce": 4396,
      "ĠyapÄ±lan": 4397,
      "ĠprogramÄ±": 4398,
      "ĠkolaylaÅŁtÄ±rÄ±r": 4399,
      "Ġkindness": 4400,
      "228": 4401,
      "Ġconstantly": 4402,
      "uming": 4403,
      "dibly": 4404,
      "205": 4405,
      "250": 4406,
      "Ġodaklanarak": 4407,
      "Ġrelations": 4408,
      "Ġbarri": 4409,
      "Ġdisconnect": 4410,
      "rken": 4411,
      "Ġait": 4412,
      "ram": 4413,
      "Ġreco": 4414,
      "mekten": 4415,
      "Ġfriction": 4416,
      "ĠBaÅŁarÄ±": 4417,
      "Ġlarger": 4418,
      "Ġilerlemeyi": 4419,
      "Ġincredibly": 4420,
      "ĠmantÄ±klÄ±": 4421,
      "Ġrelationship": 4422,
      "aret": 4423,
      "yen": 4424,
      "ĠÄ°ÅŁ": 4425,
      "Ġhedefe": 4426,
      "rolling": 4427,
      "ĠbaÄŁlÄ±": 4428,
      "fi": 4429,
      "talÄ±k": 4430,
      "rated": 4431,
      "ĠyapÄ±p": 4432,
      "ÄŁÄ±nda": 4433,
      "Ġbekleme": 4434,
      "Ġurge": 4435,
      "Ġtamamla": 4436,
      "ĠbÃ¶lÃ¼m": 4437,
      "Ġdefensive": 4438,
      "Ġguilt": 4439,
      "lene": 4440,
      "Ä°lk": 4441,
      "Ġetkin": 4442,
      "Ġdimming": 4443,
      "ĠkoÅŁul": 4444,
      "Ã¼tÃ¼phan": 4445,
      "lmÄ±ÅŁ": 4446,
      "temp": 4447,
      "ĠhafifÃ§e": 4448,
      "ĠgÃ¶nderin": 4449,
      "yable": 4450,
      "ets": 4451,
      "ĠbaÅŁlamanÄ±z": 4452,
      "ifik": 4453,
      "164": 4454,
      "Ġalong": 4455,
      "182": 4456,
      "229": 4457,
      "903": 4458,
      "Ġexpecting": 4459,
      "ĠodaklanmayÄ±": 4460,
      "Ġlonger": 4461,
      "Ġtemizlik": 4462,
      "ĠÃ¼zerinden": 4463,
      "ĠayarlayÄ±n": 4464,
      "esign": 4465,
      "Ġbelirleyip": 4466,
      "ĠgeÃ§irin": 4467,
      "Ġgives": 4468,
      "Ġrequires": 4469,
      "ĠsÃ¼ren": 4470,
      "chedul": 4471,
      "fÄ±r": 4472,
      "Ġtreating": 4473,
      "Ġbunun": 4474,
      "esifik": 4475,
      "hand": 4476,
      "Ġbulund": 4477,
      "Ġspesifik": 4478,
      "Ġspecial": 4479,
      "Ġherhangi": 4480,
      "ĠFor": 4481,
      "409": 4482,
      "-po": 4483,
      "ĠsÄ±ra": 4484,
      "Ġseparate": 4485,
      "Ġenjoyable": 4486,
      "ĠÃ¶dÃ¼l": 4487,
      "Ġcihaz": 4488,
      "Ġsosyal": 4489,
      "cheduling": 4490,
      "212": 4491,
      "Ġodan": 4492,
      "309": 4493,
      "260": 4494,
      "908": 4495,
      "Ġwait": 4496,
      "Ġpreventing": 4497,
      "Ġbeklen": 4498,
      "Ġdepart": 4499,
      "Ġblack": 4500,
      "Ġstill": 4501,
      "Ġcommunicate": 4502,
      "ĠBÃ¼yÃ¼k": 4503,
      "ĠanlÄ±k": 4504,
      "Ġbelong": 4505,
      "235": 4506,
      "Ġuninter": 4507,
      "ĠkonuÅŁmayÄ±": 4508,
      "leÅŁtirmek": 4509,
      "ĠsÄ±caklÄ±ÄŁÄ±nÄ±": 4510,
      "ultane": 4511,
      "ÄŁe": 4512,
      "Ġmight": 4513,
      "ĠÃ¶rneÄŁin": 4514,
      "Ġatmak": 4515,
      "306": 4516,
      "307": 4517,
      "285": 4518,
      "270": 4519,
      "Ġetki": 4520,
      "Ġkendini": 4521,
      "Ġhedefinizi": 4522,
      "609": 4523,
      "709": 4524,
      "ĠdÃ¼zenini": 4525,
      "Ġyatak": 4526,
      "Ġallows": 4527,
      "Ġhaftada": 4528,
      "Ġcarry": 4529,
      "ultaneously": 4530,
      "210": 4531,
      "ney": 4532,
      "Ġsn": 4533,
      "Ġyapabilirsiniz": 4534,
      "Ġlit": 4535,
      "304": 4536,
      "181": 4537,
      "809": 4538,
      "Ġgener": 4539,
      "Ġkurmak": 4540,
      "Ġtasar": 4541,
      ".\"Ċ": 4542,
      "Ġsimultaneously": 4543,
      "Ġclose": 4544,
      "-t": 4545,
      "bel": 4546,
      "must": 4547,
      "tÃ¼": 4548,
      "ually": 4549,
      "ĠBi": 4550,
      "ĠyaÅŁa": 4551,
      "Ġanal": 4552,
      "Ġmeeting": 4553,
      "dian": 4554,
      "Ġbeforehand": 4555,
      "169": 4556,
      "233": 4557,
      "ĠkiÅŁiye": 4558,
      "ĠgerÃ§ekten": 4559,
      "Ġideal": 4560,
      "Ġsesli": 4561,
      "Ġpozisyon": 4562,
      "Ġtools": 4563,
      "Ġtavsiye": 4564,
      "where": 4565,
      "yone": 4566,
      "ĠaÄŁ": 4567,
      "Ġyaparken": 4568,
      "Ġattemp": 4569,
      "cadian": 4570,
      "305": 4571,
      "Ġdili": 4572,
      "Ġevdeki": 4573,
      "504": 4574,
      "Ġgerekli": 4575,
      "Ġvisit": 4576,
      "ĠkapatÄ±n": 4577,
      "Ġlook": 4578,
      "Ġyarat": 4579,
      "Ġcircadian": 4580,
      "Ġperiods": 4581,
      "ĠClear": 4582,
      "Ġtat": 4583,
      "uggage": 4584,
      "Ġhat": 4585,
      "138": 4586,
      "405": 4587,
      "704": 4588,
      "Ġkayde": 4589,
      "bilecek": 4590,
      "rupted": 4591,
      "ĠJoin": 4592,
      "Ġalternative": 4593,
      "Ġuninterrupted": 4594,
      "'a": 4595,
      "'le": 4596,
      "atching": 4597,
      "Ġluggage": 4598,
      "163": 4599,
      "ĠKa": 4600,
      "ĠKitap": 4601,
      "805": 4602,
      "tÄ±cÄ±": 4603,
      "phones": 4604,
      "ĠazaltÄ±r": 4605,
      "member": 4606,
      "Ġscheduling": 4607,
      "Ã¼nd": 4608,
      "Ġcover": 4609,
      "Ġotel": 4610,
      "607": 4611,
      "404": 4612,
      "509": 4613,
      "705": 4614,
      "Ġperform": 4615,
      "Ġcalming": 4616,
      "Ġcorner": 4617,
      "Ġton": 4618,
      "heck": 4619,
      "ĠiliÅŁ": 4620,
      "yÄ±m": 4621,
      "ĠdaÄŁÄ±": 4622,
      "Ġinsan": 4623,
      "kip": 4624,
      "Ġabs": 4625,
      "Ġva": 4626,
      "ĠbaÅŁlatÄ±n": 4627,
      "adan": 4628,
      "vite": 4629,
      "289": 4630,
      "249": 4631,
      "Ġilerlemek": 4632,
      "ĠtanÄ±ÅŁacak": 4633,
      "ĠDesign": 4634,
      "Ġanlamak": 4635,
      "ason": 4636,
      "ĠÃ¶ÄŁrenin": 4637,
      "284": 4638,
      "Ġsub": 4639,
      "ĠiÅŁaret": 4640,
      "ĠhafÄ±z": 4641,
      "Ġcomb": 4642,
      "Ġinteraction": 4643,
      "Ġplatform": 4644,
      "Ġnerede": 4645,
      "Ġmisunderstand": 4646,
      "lul": 4647,
      "ses": 4648,
      "Ġyum": 4649,
      "Ġint": 4650,
      "Ġquit": 4651,
      "Ġseem": 4652,
      "vik": 4653,
      "232": 4654,
      "902": 4655,
      "605": 4656,
      "Ġconnect": 4657,
      "Ġsignals": 4658,
      "Ġpartner": 4659,
      "Ġwhether": 4660,
      "Ġsolve": 4661,
      "Ġvisible": 4662,
      "tÃ¼r": 4663,
      "Ġtell": 4664,
      "Ġcontrol": 4665,
      "Ã¼p": 4666,
      "Ġsolu": 4667,
      "Ġrein": 4668,
      "ĠyazÄ±n": 4669,
      "336": 4670,
      "ĠÃ§alÄ±ÅŁmaya": 4671,
      "507": 4672,
      "Ġsayf": 4673,
      "ĠuygulamasÄ±nÄ±": 4674,
      "Ãĸnce": 4675,
      "ĠihtiyacÄ±nÄ±z": 4676,
      "Ġstand": 4677,
      "286": 4678,
      "Ġscrolling": 4679,
      "ĠNumara": 4680,
      "Ġreinfor": 4681,
      "Sa": 4682,
      "St": 4683,
      "ub": 4684,
      "Ġeden": 4685,
      "Ġmer": 4686,
      "287": 4687,
      "804": 4688,
      "Ġkullanmaya": 4689,
      "606": 4690,
      "407": 4691,
      "layan": 4692,
      "round": 4693,
      "Ġhikaye": 4694,
      "Ġortamda": 4695,
      "Ġmemory": 4696,
      "Ġcramming": 4697,
      "zerv": 4698,
      "Ġprofes": 4699,
      "Ġfil": 4700,
      "Ġhata": 4701,
      "ĠdeÄŁildir": 4702,
      "202": 4703,
      "604": 4704,
      "Ġister": 4705,
      "manÄ±za": 4706,
      "melisiniz": 4707,
      "Ġairline": 4708,
      "Ġshelves": 4709,
      "ĠResim": 4710,
      "Ġaccomplishment": 4711,
      "back": 4712,
      "gid": 4713,
      "ala": 4714,
      "Ġrezerv": 4715,
      "Ġversion": 4716,
      "Ġyapt": 4717,
      "imit": 4718,
      "Ġvade": 4719,
      "131": 4720,
      "806": 4721,
      "505": 4722,
      "ĠbaÅŁlamaktÄ±r": 4723,
      "Ġsign": 4724,
      "Ġtane": 4725,
      "ĠyavaÅŁÃ§a": 4726,
      "Ġinitial": 4727,
      "Ġharekete": 4728,
      "Ġwebsi": 4729,
      "ĠUzun": 4730,
      "ĠbaÅŁlÄ±": 4731,
      "Ġolup": 4732,
      "karak": 4733,
      "ĠHÄ±zlÄ±": 4734,
      "308": 4735,
      "406": 4736,
      "ĠteÅŁvik": 4737,
      "yes": 4738,
      "zet": 4739,
      "Ġcues": 4740,
      "Ġboring": 4741,
      "Ã¼ven": 4742,
      "Ġdemek": 4743,
      "Ġresist": 4744,
      "ĠCheck": 4745,
      "ĠplanÄ±nÄ±zÄ±": 4746,
      "ĠkaldÄ±r": 4747,
      "Ġkalite": 4748,
      "303": 4749,
      "506": 4750,
      "707": 4751,
      "reading": 4752,
      "ĠhÄ±zlÄ±ca": 4753,
      "Ġsonucu": 4754,
      "Ġemails": 4755,
      "Ġroute": 4756,
      "Ġdemanding": 4757,
      "yonel": 4758,
      "Ġvague": 4759,
      "BugÃ¼n": 4760,
      "ties": 4761,
      "Ġty": 4762,
      "head": 4763,
      "Ġfun": 4764,
      "Ġremember": 4765,
      "Ġforcing": 4766,
      "ats": 4767,
      "Ġalone": 4768,
      "Ġbahset": 4769,
      "Ġlabe": 4770,
      "334": 4771,
      "lemesine": 4772,
      "Ġkayb": 4773,
      "ĠSabahlarÄ±": 4774,
      "Ġappro": 4775,
      "Ġmisiniz": 4776,
      "Ġkelimeleri": 4777,
      "ĠÃ§ekiyor": 4778,
      "Ġlabeled": 4779,
      "Ġ\\": 4780,
      "ĠGÃ¶z": 4781,
      "Ġhon": 4782,
      "288": 4783,
      "sik": 4784,
      "834": 4785,
      "ĠdÃ¼zeninizi": 4786,
      "ĠGÃ¼neÅŁ": 4787,
      "leyebilir": 4788,
      "Ġbitki": 4789,
      "Ġtelefonunuzun": 4790,
      "Ġku": 4791,
      "ulan": 4792,
      "Ġwatching": 4793,
      "168": 4794,
      "283": 4795,
      "Ġbilet": 4796,
      "807": 4797,
      "tÄ±p": 4798,
      "408": 4799,
      "706": 4800,
      "ĠakÄ±ÅŁ": 4801,
      "Ä±lÄ±r": 4802,
      "Ġexpressing": 4803,
      "tirecek": 4804,
      "ĠdavranÄ±ÅŁ": 4805,
      "ĠaltÄ±nda": 4806,
      "Toplam": 4807,
      "air": 4808,
      "Ġahead": 4809,
      "lent": 4810,
      "lediÄŁiniz": 4811,
      "Ġcore": 4812,
      "837": 4813,
      "Ġrigid": 4814,
      "ĠÅŁeyleri": 4815,
      "ĠhazÄ±rlayÄ±n": 4816,
      "Ġdrink": 4817,
      "Ġcurtain": 4818,
      "ĠÄ±lÄ±k": 4819,
      "Ġyorgunlu": 4820,
      "Ġattractions": 4821,
      "oice": 4822,
      "Ġeks": 4823,
      "Ġdilin": 4824,
      "ĠÃ§ekecek": 4825,
      "849": 4826,
      "Ġtelefonunuzu": 4827,
      "Ġunutma": 4828,
      "ĠkapatÄ±p": 4829,
      "Ġayak": 4830,
      "Ġsnack": 4831,
      "Ġrezervasyon": 4832,
      "ĠTek": 4833,
      "lanÄ±r": 4834,
      "Ġzek": 4835,
      "Ġhaya": 4836,
      "Ġbelirleme": 4837,
      "335": 4838,
      "ĠÃ§Ä±kÄ±p": 4839,
      "dÄ±ÄŁÄ±nÄ±zda": 4840,
      "Ġfayd": 4841,
      "Ġpat": 4842,
      "ullan": 4843,
      "Ġidentif": 4844,
      "ĠLimit": 4845,
      "ĠkaÃ§Ä±n": 4846,
      "Ġacross": 4847,
      "503": 4848,
      "836": 4849,
      "Ġactionable": 4850,
      "Ġharder": 4851,
      "Ġavailability": 4852,
      "Ġshift": 4853,
      "ĠDesignate": 4854,
      "Start": 4855,
      "ĠtaÅŁ": 4856,
      "isel": 4857,
      "Ġfit": 4858,
      "Ġdrain": 4859,
      "lerinize": 4860,
      "ĠsatÄ±n": 4861,
      "885": 4862,
      "Ġcommitting": 4863,
      "Ġstretch": 4864,
      "Ġautomatically": 4865,
      "Ġassuming": 4866,
      "Ġileride": 4867,
      "Ġprotect": 4868,
      "Ġteaching": 4869,
      "Ġaler": 4870,
      "ilmiÅŁ": 4871,
      "Ġgest": 4872,
      "ÄŁunu": 4873,
      "Ġrushing": 4874,
      "loj": 4875,
      "Ġlearned": 4876,
      "333": 4877,
      "ĠpiÅŁiriyor": 4878,
      "ĠsÃ¼rede": 4879,
      "ĠgeÃ§mek": 4880,
      "Ġdesire": 4881,
      "ĠbahÃ§ede": 4882,
      "Ġaccum": 4883,
      "Ġproblem": 4884,
      "Ġsentences": 4885,
      "Ġswitch": 4886,
      "ĠBiraz": 4887,
      "Ġprofesyonel": 4888,
      "KÃ¼Ã§Ã¼k": 4889,
      "gen": 4890,
      "Ġada": 4891,
      "Ġali": 4892,
      "Ġcatch": 4893,
      "veriÅŁ": 4894,
      "Ġfill": 4895,
      "ĠbirleÅŁ": 4896,
      "Ġkonfor": 4897,
      "ayan": 4898,
      "ĠaydÄ±": 4899,
      "Ġdurumda": 4900,
      "ĠaraÅŁtÄ±r": 4901,
      "phra": 4902,
      "Ġinvolves": 4903,
      "not": 4904,
      "pend": 4905,
      "Ġnumber": 4906,
      "ksel": 4907,
      "Ġgoes": 4908,
      "ĠkullanÄ±m": 4909,
      "337": 4910,
      "603": 4911,
      "703": 4912,
      "ĠsaÄŁlam": 4913,
      "349": 4914,
      "Ä±lmÄ±ÅŁ": 4915,
      "ĠeÄŁiti": 4916,
      "Ġbalanced": 4917,
      "ĠÃ§iÃ§ek": 4918,
      "fen": 4919,
      "Ġassi": 4920,
      "ĠtÃ¼k": 4921,
      "Ġproj": 4922,
      "Ġmeal": 4923,
      "ics": 4924,
      "Ġvermek": 4925,
      "Ġsure": 4926,
      "ĠseÃ§imi": 4927,
      "901": 4928,
      "403": 4929,
      "Ġdeneyebilirsiniz": 4930,
      "Ġaccus": 4931,
      "Ġengel": 4932,
      "ĠdÃ¶nÃ¼ÅŁ": 4933,
      "Ġmeditation": 4934,
      "ĠdeÄŁiÅŁiklik": 4935,
      "Ġblackout": 4936,
      "Ġsound": 4937,
      "ÄŁunuz": 4938,
      "liÄŁini": 4939,
      "ĠbaÅŁtan": 4940,
      "efore": 4941,
      "ĠalmayÄ±": 4942,
      "Ġyeri": 4943,
      "Ġgetir": 4944,
      "Ġhedefi": 4945,
      "884": 4946,
      "835": 4947,
      "ĠgeÃ§in": 4948,
      "ĠÃ¶nemlidir": 4949,
      "ĠBaÅŁlangÄ±Ã§ta": 4950,
      "Ġevents": 4951,
      "oga": 4952,
      "sity": 4953,
      "Ã¢": 4954,
      "ĠkÃ¼tÃ¼phan": 4955,
      "ĠÃ§ay": 4956,
      "201": 4957,
      "Ġkali": 4958,
      "ĠseÃ§im": 4959,
      "803": 4960,
      "Ġupon": 4961,
      "708": 4962,
      "ĠduÅŁ": 4963,
      "Ġaraz": 4964,
      "Ġcloset": 4965,
      "Ġdinlenme": 4966,
      "Ġidentifying": 4967,
      "ĠsÄ±r": 4968,
      "Ġtest": 4969,
      "Ġkol": 4970,
      "Ġflow": 4971,
      "Ġmid": 4972,
      "ĠbaÅŁa": 4973,
      "Ġissu": 4974,
      "ĠbuluÅŁma": 4975,
      "Ġfeed": 4976,
      "Ġalt": 4977,
      "282": 4978,
      "886": 4979,
      "Ġokuyun": 4980,
      "Ġdijital": 4981,
      "ĠhÄ±zlandÄ±r": 4982,
      "ĠsorunlarÄ±": 4983,
      "ĠyÃ¼ksek": 4984,
      "ĠÄ±ÅŁÄ±ÄŁÄ±na": 4985,
      "Ġplacing": 4986,
      "Ġmutla": 4987,
      "ĠHabit": 4988,
      "Ġencourage": 4989,
      "Ġanaliz": 4990,
      "Ġcurtains": 4991,
      "Ġmy": 4992,
      "ĠAÄŁ": 4993,
      "ificant": 4994,
      "808": 4995,
      "Ġupda": 4996,
      "887": 4997,
      "ĠsÃ¼rekli": 4998,
      "ĠalÄ±ÅŁkanlÄ±": 4999,
      "ldur": 5000,
      "Ġlocation": 5001,
      "Ã¼tfen": 5002,
      "ĠseÃ§ene": 5003,
      "Ġkork": 5004,
      "-second": 5005,
      "Ġbarda": 5006,
      "Ġkesin": 5007,
      "Ġhonest": 5008,
      "Ġdata": 5009,
      "kiyor": 5010,
      "ĠÃ¶rnek": 5011,
      "ĠayÄ±rdÄ±ÄŁÄ±": 5012,
      "ĠolmanÄ±z": 5013,
      "Ġyapay": 5014,
      "Ġkalma": 5015,
      "Ġtraveling": 5016,
      "ĠyÃ¼rÃ¼yerek": 5017,
      "Ġetme": 5018,
      "608": 5019,
      "Ġuykuya": 5020,
      "Ġhikay": 5021,
      "ĠyapÄ±lacak": 5022,
      "acaÄŁÄ±nÄ±zÄ±": 5023,
      "ĠolduÄŁundan": 5024,
      "Ġshowing": 5025,
      "Ġbilgileri": 5026,
      "ĠÃ§evir": 5027,
      "Ġsecure": 5028,
      "-posta": 5029,
      "Bir": 5030,
      "Ġprep": 5031,
      "arlÄ±": 5032,
      "ĠMart": 5033,
      "Ġplanner": 5034,
      "Ġrates": 5035,
      "lÄ±klÄ±": 5036,
      "222": 5037,
      "Ġunne": 5038,
      "ĠkullanÄ±lan": 5039,
      "508": 5040,
      "Ġdenge": 5041,
      "ĠoluÅŁtu": 5042,
      "Ġinterruptions": 5043,
      "ĠolmalÄ±dÄ±r": 5044,
      "ĠsaÄŁlÄ±klÄ±": 5045,
      "Ġexplaining": 5046,
      "Ġelect": 5047,
      "Ġissues": 5048,
      "lus": 5049,
      "Ġtough": 5050,
      "Ġken": 5051,
      "vet": 5052,
      "ĠgÃ¼nkÃ¼": 5053,
      "Ġhedefleyin": 5054,
      "ĠalÄ±ÅŁveriÅŁ": 5055,
      "502": 5056,
      "Ġfaster": 5057,
      "ĠtÃ¼rÃ¼": 5058,
      "Ġrepeat": 5059,
      "ĠseÃ§mektir": 5060,
      "Ġgrab": 5061,
      "Ġmultitas": 5062,
      "Ġgerekiyor": 5063,
      "ĠYaz": 5064,
      "ĠÃ¶ne": 5065,
      "Ġdoldur": 5066,
      "ĠiÅŁler": 5067,
      "ĠBirkaÃ§": 5068,
      "ĠgeniÅŁ": 5069,
      "Ġschedules": 5070,
      "Ġaccount": 5071,
      "Ġseviyenizi": 5072,
      "ĠhatÄ±rlat": 5073,
      "Ġtransportation": 5074,
      "ĠHabits": 5075,
      "Ġmisunderstandings": 5076,
      "Ġban": 5077,
      "Ġemp": 5078,
      "ĠbaÅŁÄ±nda": 5079,
      "ĠMerhaba": 5080,
      "sÄ±l": 5081,
      "Ġyapmadan": 5082,
      "402": 5083,
      "com": 5084,
      "ĠgÃ¶rsel": 5085,
      "Ġmutlaka": 5086,
      "Ġ'": 5087,
      "rev": 5088,
      "Ġwil": 5089,
      "lak": 5090,
      "Ġbeyn": 5091,
      "Ġanlama": 5092,
      "iness": 5093,
      "ĠMaps": 5094,
      "Ġkonular": 5095,
      "Ġsafe": 5096,
      "ĠÃ¶ÄŁr": 5097,
      "302": 5098,
      "281": 5099,
      "ĠyÃ¼ze": 5100,
      "ĠBirlikte": 5101,
      "ĠbaÅŁlangÄ±Ã§ta": 5102,
      "ĠkonuÅŁmaya": 5103,
      "ĠyapÄ±yor": 5104,
      "gÃ¼nlÃ¼k": 5105,
      "Ġintensity": 5106,
      "Ġkaydedin": 5107,
      "Ġsignificant": 5108,
      "'dan": 5109,
      "ns": 5110,
      "Ġself": 5111,
      "lpower": 5112,
      "Ġzones": 5113,
      "Ġrun": 5114,
      "Ġspending": 5115,
      "ĠkahvaltÄ±": 5116,
      "ĠgiriÅŁ": 5117,
      "Ġelectron": 5118,
      "Do": 5119,
      "micro": 5120,
      "Ġiba": 5121,
      "Ġroutines": 5122,
      "tÄ±ÄŁÄ±nÄ±z": 5123,
      "ĠyÃ¶net": 5124,
      "ĠChange": 5125,
      "ĠgerÃ§ekÃ§i": 5126,
      "ĠulaÅŁÄ±labilir": 5127,
      "Ġproductivity": 5128,
      "-sleep": 5129,
      "Ġduygular": 5130,
      "ĠaydÄ±nlat": 5131,
      "gul": 5132,
      "mut": 5133,
      "Ġpap": 5134,
      "Ġtreat": 5135,
      "Ġyi": 5136,
      "Ġdim": 5137,
      "ĠiÃ§eri": 5138,
      "Ġris": 5139,
      "Ġspor": 5140,
      "Ġmasa": 5141,
      "ĠÃ§alÄ±ÅŁmayÄ±": 5142,
      "Ġilerleyin": 5143,
      "Ġbilim": 5144,
      "ĠgÃ¼Ã§lÃ¼": 5145,
      "Ġwillpower": 5146,
      "224": 5147,
      "fer": 5148,
      "ĠYeni": 5149,
      "lamayÄ±": 5150,
      "Ġokay": 5151,
      "riority": 5152,
      "ĠuÃ§": 5153,
      "ĠbaÅŁk": 5154,
      "ĠbaÅŁar": 5155,
      "Ġvererek": 5156,
      "ĠbaÅŁlamadan": 5157,
      "Ġsite": 5158,
      "ĠyazÄ±": 5159,
      "Ġvi": 5160,
      "ature": 5161,
      "Ġexc": 5162,
      "231": 5163,
      "Ġlabel": 5164,
      "Ġtutarak": 5165,
      "ĠseÃ§erek": 5166,
      "883": 5167,
      "889": 5168,
      "ĠbÄ±rakÄ±p": 5169,
      "ĠbakÄ±n": 5170,
      "ĠtamamlayÄ±n": 5171,
      "Ġharca": 5172,
      "Ġspots": 5173,
      "ĠkalÄ±cÄ±": 5174,
      "Ġsitu": 5175,
      "bing": 5176,
      "Ġtone": 5177,
      "Ġconstant": 5178,
      "Ġoc": 5179,
      "Ġstabil": 5180,
      "Ġharika": 5181,
      "888": 5182,
      "Ġcompleted": 5183,
      "Ġhisse": 5184,
      "layabilirsiniz": 5185,
      "ĠyanlÄ±ÅŁ": 5186,
      "ĠÃ§izim": 5187,
      "Ġpriorities": 5188,
      "Ġmakinesi": 5189,
      "Ġmesafe": 5190,
      "Ġspontaneous": 5191,
      "ĠÃĩalÄ±ÅŁma": 5192,
      "Ġdefensiveness": 5193,
      "ĠyumuÅŁ": 5194,
      "alara": 5195,
      "usunu": 5196,
      "Ġwon": 5197,
      "esinde": 5198,
      "ĠyetiÅŁ": 5199,
      "ĠeÅŁyadÄ±r": 5200,
      "ĠkullanÄ±mÄ±": 5201,
      "Ġlistener": 5202,
      "uyla": 5203,
      "702": 5204,
      "Ġflexibility": 5205,
      "ĠduyduÄŁ": 5206,
      "Ġparties": 5207,
      "ĠeÄŁlence": 5208,
      "Ġleads": 5209,
      "Ġslowly": 5210,
      "Ġparaphra": 5211,
      "Ġhyd": 5212,
      "Ġpicking": 5213,
      "Ġeksik": 5214,
      "Ġocc": 5215,
      "-reading": 5216,
      "Ġtw": 5217,
      "ĠYap": 5218,
      "Ġmeetings": 5219,
      "olute": 5220,
      "ĠkullanmaktÄ±r": 5221,
      "Ã¶yle": 5222,
      "ĠgÃ¼nÃ¼nÃ¼": 5223,
      "ĠayÄ±rd": 5224,
      "Ġvalu": 5225,
      "ĠyÃ¼rÃ¼me": 5226,
      "ĠzorluklarÄ±": 5227,
      "landÄ±ÄŁÄ±nÄ±z": 5228,
      "Ġwrong": 5229,
      "Ġoturup": 5230,
      "Ġswitching": 5231,
      "Ġabsolute": 5232,
      "Ġibaret": 5233,
      "310": 5234,
      "irken": 5235,
      "Ã§Ä±": 5236,
      "Ġbelirti": 5237,
      "Ġnod": 5238,
      "laÅŁma": 5239,
      "-priority": 5240,
      "menizdir": 5241,
      "Ġdrives": 5242,
      "Ġrenk": 5243,
      "Ġdeparture": 5244,
      "Ġzeka": 5245,
      "ĠaydÄ±rdÄ±": 5246,
      "know": 5247,
      "yÃ¼z": 5248,
      "met": 5249,
      "iding": 5250,
      "ĠÃ¶ncesi": 5251,
      "ient": 5252,
      "ĠolduÄŁun": 5253,
      "ĠyapÄ±l": 5254,
      "ĠÃ¶nÃ¼nde": 5255,
      "Ġcalls": 5256,
      "Ġblok": 5257,
      "Ġruh": 5258,
      "216": 5259,
      "duk": 5260,
      "mayan": 5261,
      "Ġsoon": 5262,
      "Ġhayal": 5263,
      "Ä±nÄ±zla": 5264,
      "173": 5265,
      "Ġgez": 5266,
      "Ġphra": 5267,
      "ards": 5268,
      "ĠiletiÅŁimi": 5269,
      "Ġbookings": 5270,
      "Ġkonuya": 5271,
      "Ġconcepts": 5272,
      "ĠdoÄŁrusu": 5273,
      "Ġintense": 5274,
      "Ġreacting": 5275,
      "Ġisterseniz": 5276,
      "Ġfeedback": 5277,
      "Ġunnecessary": 5278,
      "225": 5279,
      "Ġprovi": 5280,
      "Ġdeals": 5281,
      "ĠÄ°ki": 5282,
      "Ġjump": 5283,
      "301": 5284,
      "ĠbahÃ§eye": 5285,
      "enses": 5286,
      "Ġdefining": 5287,
      "Ġcategories": 5288,
      "Ġexchange": 5289,
      "Ä±yorum": 5290,
      "hed": 5291,
      "Ġemer": 5292,
      "Ġgather": 5293,
      "ĠBunun": 5294,
      "ĠayÄ±rarak": 5295,
      "Ġrece": 5296,
      "Ġyapabilir": 5297,
      "Ġbulup": 5298,
      "Ġyazmak": 5299,
      "Ġsonuna": 5300,
      "602": 5301,
      "832": 5302,
      "ĠodaklÄ±": 5303,
      "lantÄ±": 5304,
      "Ġafterward": 5305,
      "Ġstops": 5306,
      "Ġskills": 5307,
      "Ġintentional": 5308,
      "fak": 5309,
      "sadece": 5310,
      "ĠDil": 5311,
      "dÄ±ÄŁÄ±nÄ±zÄ±": 5312,
      "Ġora": 5313,
      "ĠSpend": 5314,
      "lig": 5315,
      "alÄ±r": 5316,
      "ĠÃ§ekin": 5317,
      "501": 5318,
      "ĠgeÃ§iÅŁ": 5319,
      "iziksel": 5320,
      "Ġdiscu": 5321,
      "Ġkelimeyi": 5322,
      "Ġtelefonunuzda": 5323,
      "ĠsÃ¼reÃ§te": 5324,
      "Ġamount": 5325,
      "hoto": 5326,
      "Ġnaz": 5327,
      "ries": 5328,
      "ĠMayÄ±": 5329,
      "142": 5330,
      "ĠkalÄ±n": 5331,
      "ĠyÃ¼zmeye": 5332,
      "uzu": 5333,
      "dÄ±ÄŁÄ±nda": 5334,
      "tÄ±racak": 5335,
      "Ġbarrier": 5336,
      "Ġattempting": 5337,
      "Ġreinforce": 5338,
      "Ġcity": 5339,
      "Ġgreat": 5340,
      "Ã¼zen": 5341,
      "Ġphysically": 5342,
      "'nin": 5343,
      "Ġtemper": 5344,
      "Ġlimits": 5345,
      "Ġgitmek": 5346,
      "Ġroutes": 5347,
      "ĠfÄ±rsa": 5348,
      "-se": 5349,
      "erin": 5350,
      "Ä±yorsanÄ±z": 5351,
      "Ġyu": 5352,
      "arp": 5353,
      "asit": 5354,
      "Ġacknow": 5355,
      "ĠOnce": 5356,
      "Ġloud": 5357,
      "Ġkitaplar": 5358,
      "802": 5359,
      "401": 5360,
      "Ġdonate": 5361,
      "Ġbakarak": 5362,
      "Ġalacak": 5363,
      "ĠartÄ±rÄ±n": 5364,
      "Ġziyaret": 5365,
      "Ġtesting": 5366,
      "Ġtarz": 5367,
      "lation": 5368,
      "Ġedecek": 5369,
      "ÄŁinden": 5370,
      "ĠadÄ±mÄ±n": 5371,
      "Ġmetin": 5372,
      "Ġorder": 5373,
      "Ġworry": 5374,
      "bies": 5375,
      "Ġexpenses": 5376,
      "Ġelinizdeki": 5377,
      "ĠÃ§Ã¶zmek": 5378,
      "Ġcuri": 5379,
      "ĠulaÅŁmak": 5380,
      "Ġdrawers": 5381,
      "ĠaÅŁaÄŁÄ±daki": 5382,
      "Ġyolculuk": 5383,
      "Ġappointment": 5384,
      "815": 5385,
      "Ben": 5386,
      "pr": 5387,
      "ser": 5388,
      "ism": 5389,
      "inking": 5390,
      "matik": 5391,
      "Ġbirbir": 5392,
      "Ġstra": 5393,
      "abin": 5394,
      "ĠÃ¶nerilir": 5395,
      "ates": 5396,
      "ĠkiÅŁisel": 5397,
      "Ġboundary": 5398,
      "Ġegzersizi": 5399,
      "ĠHaftanÄ±n": 5400,
      "Ġgently": 5401,
      "Ġlimit": 5402,
      "Ġstratej": 5403,
      "Ġlittle": 5404,
      "GÃ¼n": 5405,
      "Use": 5406,
      "gest": 5407,
      "Ġhang": 5408,
      "lÄ±yor": 5409,
      "Ġart": 5410,
      "leyici": 5411,
      "Ä±ÅŁtÄ±r": 5412,
      "221": 5413,
      "882": 5414,
      "332": 5415,
      "Ġjourney": 5416,
      "ĠolmadÄ±ÄŁÄ±nÄ±": 5417,
      "Ġolabilirim": 5418,
      "Ġbelirlemektir": 5419,
      "ĠConsistent": 5420,
      "Ġziyade": 5421,
      "'nda": 5422,
      "41": 5423,
      "812": 5424,
      "cessible": 5425,
      "Ġkan": 5426,
      "Ġfiziksel": 5427,
      "ĠuÄŁ": 5428,
      "ĠzamanÄ±nÄ±zÄ±": 5429,
      "Ġlez": 5430,
      "Ġchar": 5431,
      "malarÄ±": 5432,
      "Ġsuya": 5433,
      "ĠKÄ±sa": 5434,
      "Ġoverall": 5435,
      "Ġsormak": 5436,
      "Ġgeli": 5437,
      "ĠyÃ¼zer": 5438,
      "801": 5439,
      "ĠkullanÄ±l": 5440,
      "Ġpati": 5441,
      "Ġkayda": 5442,
      "Ġridic": 5443,
      "reket": 5444,
      "Ġitineraries": 5445,
      "ĠalanlarÄ±": 5446,
      "ĠnetleÅŁtirin": 5447,
      "Ġrahatla": 5448,
      "ĠdetaylarÄ±": 5449,
      "Ġhobbies": 5450,
      "ĠkaÄŁÄ±t": 5451,
      "Ġarrive": 5452,
      "Ġchores": 5453,
      "Ġnazik": 5454,
      "Ġtemperature": 5455,
      "Ġridicul": 5456,
      "327": 5457,
      "52": 5458,
      "816": 5459,
      "Ġcabin": 5460,
      "unting": 5461,
      "Ġrema": 5462,
      "Ġretention": 5463,
      "Ġistiyor": 5464,
      "Ġstepping": 5465,
      "601": 5466,
      "ĠkonuÅŁmalar": 5467,
      "alarÄ±nÄ±": 5468,
      "Ġrelaxation": 5469,
      "ĠulaÅŁÄ±m": 5470,
      "Ġadap": 5471,
      "ĠMayÄ±s": 5472,
      "'Ã¼": 5473,
      "217": 5474,
      "810": 5475,
      "ially": 5476,
      "ora": 5477,
      "Ġsli": 5478,
      "alama": 5479,
      "yÄ±r": 5480,
      "ĠgÃ¼zel": 5481,
      "Ġyazar": 5482,
      "Ġaccessible": 5483,
      "ackle": 5484,
      "Ġyola": 5485,
      "Ġtrash": 5486,
      "331": 5487,
      "ĠaÃ§Ä±n": 5488,
      "pecially": 5489,
      "ĠazaltÄ±n": 5490,
      "ĠTeach": 5491,
      "Ġpush": 5492,
      "Ġgestures": 5493,
      "72": 5494,
      "nerek": 5495,
      "Ġvers": 5496,
      "Ġwhy": 5497,
      "anÄ±p": 5498,
      "701": 5499,
      "cture": 5500,
      "kincisi": 5501,
      "acaÄŁÄ±m": 5502,
      "Ġinceleyin": 5503,
      "Ġincelemek": 5504,
      "Ġoblig": 5505,
      "Ġminimize": 5506,
      "ĠvÃ¼cudunuzun": 5507,
      "Ġvalidating": 5508,
      "ĠbunlarÄ±": 5509,
      "Ġsince": 5510,
      "Ġexpectations": 5511,
      "Ġslots": 5512,
      "-ste": 5513,
      "ups": 5514,
      "vÄ±": 5515,
      "Ġtab": 5516,
      "Ġidentify": 5517,
      "Ġdaunting": 5518,
      "Ġhid": 5519,
      "ĠExp": 5520,
      "Ã¼rÃ¼n": 5521,
      "Ġfees": 5522,
      "tarak": 5523,
      "ĠdoÄŁa": 5524,
      "ĠazalÄ±r": 5525,
      "ĠGÃ¼ne": 5526,
      "ĠaÃ§Ä±p": 5527,
      "ĠkiÅŁiler": 5528,
      "Ġrepeated": 5529,
      "ĠÅŀimdi": 5530,
      "Ġespecially": 5531,
      "ĠyaptÄ±ÄŁÄ±nÄ±z": 5532,
      "Ġcategory": 5533,
      "ĠyaÅŁayan": 5534,
      "Ġcontext": 5535,
      "Ġversus": 5536,
      "'ye": 5537,
      "-ins": 5538,
      "213": 5539,
      "314": 5540,
      "384": 5541,
      "480": 5542,
      "814": 5543,
      "826": 5544,
      "Create": 5545,
      "hil": 5546,
      "yg": 5547,
      "ĠÃ¼re": 5548,
      "inci": 5549,
      "racak": 5550,
      "ĠYoga": 5551,
      "ĠÃ¶de": 5552,
      "ĠOne": 5553,
      "app": 5554,
      "cast": 5555,
      "Ġyerinizi": 5556,
      "pport": 5557,
      "ĠkolayÄ±": 5558,
      "layacak": 5559,
      "andÄ±r": 5560,
      "ĠWork": 5561,
      "ĠolduÄŁunuzu": 5562,
      "Ġgereksiz": 5563,
      "ĠistediÄŁin": 5564,
      "ĠKendinize": 5565,
      "ĠaÅŁama": 5566,
      "Ġexplain": 5567,
      "Ġridiculously": 5568,
      "830": 5569,
      "uol": 5570,
      "yer": 5571,
      "ĠbaÅŁlÄ±k": 5572,
      "Ġjo": 5573,
      "Ġkutudaki": 5574,
      "lerinde": 5575,
      "Ġizleyin": 5576,
      "ĠgÃ¶revlerinizi": 5577,
      "Ġcomput": 5578,
      "larÄ±nÄ±zÄ±n": 5579,
      "Ġilerlemenizi": 5580,
      "ĠmÃ¼mkÃ¼nse": 5581,
      "ĠyazÄ±lÄ±m": 5582,
      "Ġresistance": 5583,
      "ĠfaydalÄ±": 5584,
      "215": 5585,
      "435": 5586,
      "820": 5587,
      "per": 5588,
      "resi": 5589,
      "unlu": 5590,
      "Ġyapar": 5591,
      "most": 5592,
      "Ġcevab": 5593,
      "831": 5594,
      "Ġnoktas": 5595,
      "ĠyÃ¼ksel": 5596,
      "ĠpaylaÅŁÄ±n": 5597,
      "Ġplaces": 5598,
      "Ġsolutions": 5599,
      "ĠuÄŁra": 5600,
      "Ġhidden": 5601,
      "317": 5602,
      "cÃ¼": 5603,
      "sÄ±nÄ±n": 5604,
      "Ġade": 5605,
      "Ġstim": 5606,
      "ingo": 5607,
      "ĠBugÃ¼n": 5608,
      "ĠBefore": 5609,
      "Ġmar": 5610,
      "Ġbaz": 5611,
      "ict": 5612,
      "ĠÄ°Ã§": 5613,
      "Ġkonak": 5614,
      "Ġseti": 5615,
      "Ġkoyarak": 5616,
      "Ġlog": 5617,
      "ĠKendinizi": 5618,
      "Ġproductive": 5619,
      "Ġgelir": 5620,
      "Ġengaged": 5621,
      "uolingo": 5622,
      "226": 5623,
      "330": 5624,
      "817": 5625,
      "try": 5626,
      "ĠayÄ±nda": 5627,
      "ĠanÄ±": 5628,
      "Ġoturum": 5629,
      "unuzun": 5630,
      "Ġpair": 5631,
      "ĠbaÅŁlayabilir": 5632,
      "ĠÃ¶zen": 5633,
      "Ġtemizleyin": 5634,
      "Ġbehaviors": 5635,
      "ducing": 5636,
      "ĠHafta": 5637,
      "ĠkatÄ±l": 5638,
      "ĠBelirli": 5639,
      "316": 5640,
      "320": 5641,
      "324": 5642,
      "829": 5643,
      "912": 5644,
      "Ġslight": 5645,
      "Ġga": 5646,
      "rip": 5647,
      "Ġforget": 5648,
      "Ġwilling": 5649,
      "ider": 5650,
      "larÄ±ndan": 5651,
      "Ġpast": 5652,
      "Ġistey": 5653,
      "ĠdÃ¼ÅŁÃ¼nd": 5654,
      "Ġpeak": 5655,
      "ĠFriends": 5656,
      "ĠKonuÅŁ": 5657,
      "Ġrefle": 5658,
      "ĠuyandÄ±ktan": 5659,
      "828": 5660,
      "824": 5661,
      "880": 5662,
      "hte": 5663,
      "mb": 5664,
      "ral": 5665,
      "ndle": 5666,
      "Ġsending": 5667,
      "leÅŁim": 5668,
      "usted": 5669,
      "ĠbeÅŁ": 5670,
      "ĠadÄ±mdÄ±r": 5671,
      "Ġveril": 5672,
      "rasÄ±nda": 5673,
      "Ġspark": 5674,
      "lenen": 5675,
      "evap": 5676,
      "ildirim": 5677,
      "tÄ±rarak": 5678,
      "ĠÃ¶ÄŁrenmeyi": 5679,
      "Ġmotivasyonu": 5680,
      "Ġprice": 5681,
      "ĠÅŁudur": 5682,
      "Ġsuppress": 5683,
      "Ġstatement": 5684,
      "ĠbÃ¶lg": 5685,
      "ĠgÃ¶sterin": 5686,
      "Ġpiles": 5687,
      "Ġhayatta": 5688,
      "Ã¼ÄŁÃ¼nÃ¼z": 5689,
      "Ġsearching": 5690,
      "Ġfrustrated": 5691,
      "ĠGÃ¶rev": 5692,
      "Ġapproach": 5693,
      "Ġjumping": 5694,
      "227": 5695,
      "313": 5696,
      "325": 5697,
      "328": 5698,
      "413": 5699,
      "414": 5700,
      "913": 5701,
      "ben": 5702,
      "sal": 5703,
      "anlÄ±k": 5704,
      "ĠEkim": 5705,
      "ĠTackle": 5706,
      "Ġeyes": 5707,
      "larÄ±nÄ±n": 5708,
      "Ġhaven": 5709,
      "Ġveriler": 5710,
      "Ġverilen": 5711,
      "Ġkons": 5712,
      "asons": 5713,
      "Ġmapping": 5714,
      "Ġduration": 5715,
      "Ġalana": 5716,
      "Ġbiggest": 5717,
      "Ġspaced": 5718,
      "Ġhareketleri": 5719,
      "Ġhalinde": 5720,
      "Ġderinlemesine": 5721,
      "Ġseviyeniz": 5722,
      "ÄŁaÃ§": 5723,
      "ĠNumarasÄ±": 5724,
      "329": 5725,
      "385": 5726,
      "416": 5727,
      "813": 5728,
      "823": 5729,
      "916": 5730,
      "bal": 5731,
      "Ġbes": 5732,
      "Ġyes": 5733,
      "masÄ±na": 5734,
      "ĠMev": 5735,
      "Ġentry": 5736,
      "Ġjar": 5737,
      "ĠFind": 5738,
      "Ġdeeper": 5739,
      "Ġopini": 5740,
      "ĠyÃ¶ntemi": 5741,
      "ĠInvite": 5742,
      "lÃ¼ÄŁ": 5743,
      "Ġseviyesini": 5744,
      "ebilirim": 5745,
      "ĠTravel": 5746,
      "214": 5747,
      "326": 5748,
      "410": 5749,
      "429": 5750,
      "827": 5751,
      "ĠaÄŁaÃ§": 5752,
      "Ġpower": 5753,
      "ÅŁe": 5754,
      "Ġbecer": 5755,
      "Ġstru": 5756,
      "Ġnecessary": 5757,
      "ĠPM": 5758,
      "diÄŁini": 5759,
      "ĠcÃ¼mleler": 5760,
      "Ġweekend": 5761,
      "layabilir": 5762,
      "âĢĶto": 5763,
      "Ġhuzurlu": 5764,
      "ĠSÃ¼rekli": 5765,
      "ĠhiÃ§bir": 5766,
      "Â°F": 5767,
      "Ġsubject": 5768,
      "Ġstabilize": 5769,
      "Ġnodding": 5770,
      "220": 5771,
      "388": 5772,
      "387": 5773,
      "415": 5774,
      "412": 5775,
      "436": 5776,
      "833": 5777,
      "910": 5778,
      "915": 5779,
      "920": 5780,
      "929": 5781,
      "Can": 5782,
      "gage": 5783,
      "Ġkil": 5784,
      "fully": 5785,
      "Ġeat": 5786,
      "ĠKullan": 5787,
      "Ġoutcome": 5788,
      "ĠsÃ¼resini": 5789,
      "ĠÃ¶zellikle": 5790,
      "ĠÃ¶ncelikli": 5791,
      "Ġsitting": 5792,
      "Ġslightly": 5793,
      "312": 5794,
      "cting": 5795,
      "iyi": 5796,
      "uÄŁu": 5797,
      "dum": 5798,
      "ĠBun": 5799,
      "Ġsoft": 5800,
      "Ġreally": 5801,
      "**,": 5802,
      "ĠHaya": 5803,
      "ĠdeÄŁiÅŁtir": 5804,
      "diÄŁin": 5805,
      "uture": 5806,
      "881": 5807,
      "Ġgerekecek": 5808,
      "ĠaracÄ±": 5809,
      "ĠokumayÄ±": 5810,
      "Ġguide": 5811,
      "Ġindirin": 5812,
      "Ġvadeli": 5813,
      "323": 5814,
      "437": 5815,
      "What": 5816,
      "gon": 5817,
      "kÃ¼Ã§Ã¼k": 5818,
      "sur": 5819,
      "Ġbis": 5820,
      "Ã¼st": 5821,
      "Ġbeats": 5822,
      "ĠyapabileceÄŁiniz": 5823,
      "ĠÃ§ab": 5824,
      "ĠnumaranÄ±z": 5825,
      "ĠÃĸz": 5826,
      "Ġnoise": 5827,
      "Ġgetirin": 5828,
      "ĠyÃ¼rÃ¼yÃ¼n": 5829,
      "Ġlowers": 5830,
      "Ġunderstands": 5831,
      "Ġarada": 5832,
      "ĠkapalÄ±": 5833,
      "ĠduyduÄŁunuz": 5834,
      "Ġbekleyin": 5835,
      "acaÄŁÄ±nÄ±": 5836,
      "Ġrutini": 5837,
      "Ġaccusing": 5838,
      "ĠÃ§ekim": 5839,
      "ront": 5840,
      "ĠkaynaÄŁÄ±": 5841,
      "ĠgerektiÄŁini": 5842,
      "Ġappointments": 5843,
      "ĠeÅŁyalar": 5844,
      "Ġpatter": 5845,
      "Ġmultitasking": 5846,
      "-see": 5847,
      "-tas": 5848,
      "223": 5849,
      "380": 5850,
      "386": 5851,
      "420": 5852,
      "417": 5853,
      "825": 5854,
      "935": 5855,
      "work": 5856,
      "Ãĩ": 5857,
      "Ġnor": 5858,
      "ysanÄ±z": 5859,
      "lamaya": 5860,
      "Ġfuture": 5861,
      "stru": 5862,
      "ĠÃ¶nerisi": 5863,
      "Ġatarak": 5864,
      "Ġpriority": 5865,
      "ĠgÃ¶rÃ¼": 5866,
      "ĠtemizliÄŁi": 5867,
      "leyecek": 5868,
      "Ġetmektir": 5869,
      "Ġuygulamaya": 5870,
      "ĠBelki": 5871,
      "ĠbaÅŁlangÄ±c": 5872,
      "Ġnearby": 5873,
      "ĠkÄ±sÄ±t": 5874,
      "Ġpaper": 5875,
      "315": 5876,
      "924": 5877,
      "eli": 5878,
      "urarak": 5879,
      "ysa": 5880,
      "Ġbri": 5881,
      "Ġfam": 5882,
      "Ġdizi": 5883,
      "ĠayÄ±rÄ±": 5884,
      "Ġkat": 5885,
      "Ġrecent": 5886,
      "ĠadÄ±mÄ±nÄ±": 5887,
      "Ġdele": 5888,
      "ĠÃ§Ã¶": 5889,
      "ksiniz": 5890,
      "Ġkuru": 5891,
      "Ġincrease": 5892,
      "Ġmesaf": 5893,
      "licit": 5894,
      "Ġsebz": 5895,
      ".'": 5896,
      "424": 5897,
      "488": 5898,
      "914": 5899,
      "930": 5900,
      "927": 5901,
      "980": 5902,
      "Set": 5903,
      "titu": 5904,
      "tiÄŁini": 5905,
      "rat": 5906,
      "heet": 5907,
      "leas": 5908,
      "ĠyalnÄ±z": 5909,
      "lÄ±ÄŁÄ±na": 5910,
      "ĠÃ¶nceli": 5911,
      "rog": 5912,
      "ĠolduÄŁuna": 5913,
      "Ġdeciding": 5914,
      "Ġhissetmeye": 5915,
      "Ġtension": 5916,
      "Ġreaching": 5917,
      "ĠAÄŁust": 5918,
      "'den": 5919,
      "389": 5920,
      "425": 5921,
      "485": 5922,
      "489": 5923,
      "934": 5924,
      "936": 5925,
      "949": 5926,
      "Avoid": 5927,
      "mis": 5928,
      "Ġsust": 5929,
      "ĠEat": 5930,
      "Ġeyle": 5931,
      "Ġstating": 5932,
      "ined": 5933,
      "asÄ±na": 5934,
      "Ġsat": 5935,
      "Ġrus": 5936,
      "Ġfear": 5937,
      "Ġetmeniz": 5938,
      "Ġgidip": 5939,
      "Ġokuy": 5940,
      "Ġkurul": 5941,
      "ĠÃ¶zg": 5942,
      "Ġbulunan": 5943,
      "ĠsÃ¼rdÃ¼r": 5944,
      "luluk": 5945,
      "Ġbisik": 5946,
      "430": 5947,
      "426": 5948,
      "926": 5949,
      "933": 5950,
      "cks": 5951,
      "elim": 5952,
      "ilg": 5953,
      "Ġfore": 5954,
      "lict": 5955,
      "Ġmovi": 5956,
      "ĠbaÅŁlamayÄ±": 5957,
      "lerken": 5958,
      "Ġseven": 5959,
      "Ġolaca": 5960,
      "Ġbitir": 5961,
      "Ġdille": 5962,
      "Ġaktif": 5963,
      "ĠyÃ¶nelik": 5964,
      "ĠyapÄ±sÄ±nÄ±": 5965,
      "Ġcommitments": 5966,
      "Ġhappy": 5967,
      "shop": 5968,
      "ĠÃ¶nceliklendir": 5969,
      "Ġdeadline": 5970,
      "ĠharitasÄ±": 5971,
      "Ġnormal": 5972,
      "'Ä±": 5973,
      "211": 5974,
      "917": 5975,
      "sc": 5976,
      "sen": 5977,
      "uel": 5978,
      "xim": 5979,
      "alan": 5980,
      "Ġcome": 5981,
      "uge": 5982,
      "umlu": 5983,
      "ĠiÃ§i": 5984,
      "ĠiÃ§erek": 5985,
      "makta": 5986,
      "ĠgÃ¼ne": 5987,
      "ĠÄ°kincisi": 5988,
      "Ġtidying": 5989,
      "ahÃ§": 5990,
      "Ġalmost": 5991,
      "check": 5992,
      "ersiniz": 5993,
      "Ġsuda": 5994,
      "Ġnotice": 5995,
      "Ġfriendships": 5996,
      "Ġsaatler": 5997,
      "night": 5998,
      "ĠhaftalÄ±k": 5999,
      "ĠolanÄ±": 6000,
      "ĠtÃ¼rden": 6001,
      "ĠolmasÄ±nÄ±": 6002,
      "Ġbekle": 6003,
      "Ġconflict": 6004,
      "Ġmissing": 6005,
      "Ġinitially": 6006,
      "Ġpiece": 6007,
      "Ġcategorize": 6008,
      "Ġanlamaya": 6009,
      "ĠÃ¶ÄŁleden": 6010,
      "Ġsignificantly": 6011,
      "427": 6012,
      "449": 6013,
      "928": 6014,
      "923": 6015,
      "yken": 6016,
      "Ġfla": 6017,
      "Ġstoring": 6018,
      "ĠbaÅŁÄ±nÄ±za": 6019,
      "Ġyazarak": 6020,
      "Ġmad": 6021,
      "cies": 6022,
      "Ġedil": 6023,
      "ĠgeÃ§miÅŁ": 6024,
      "Ġhiking": 6025,
      "Ġmix": 6026,
      "...\")": 6027,
      "ĠkolaylaÅŁtÄ±rmak": 6028,
      "ĠuygulamalarÄ±": 6029,
      "hotoshop": 6030,
      "Ġstructure": 6031,
      "487": 6032,
      "486": 6033,
      "62": 6034,
      "714": 6035,
      "984": 6036,
      "aÄŁ": 6037,
      "kward": 6038,
      "erti": 6039,
      "ĠErken": 6040,
      "urn": 6041,
      "vest": 6042,
      "mam": 6043,
      "ÄŁru": 6044,
      "ĠAc": 6045,
      "Ġdeli": 6046,
      "oci": 6047,
      "Ġtakv": 6048,
      "ĠyÃ¶ntemdir": 6049,
      "Ġconfus": 6050,
      "Ġdeneyi": 6051,
      "âĢĶlike": 6052,
      "Ġkavram": 6053,
      "Sadece": 6054,
      "Ġparaphrasing": 6055,
      "ygÄ±n": 6056,
      "428": 6057,
      "433": 6058,
      "484": 6059,
      "987": 6060,
      "can": 6061,
      "manÄ±": 6062,
      "Ġtu": 6063,
      "teful": 6064,
      "ĠÄ°ste": 6065,
      "ĠÃ§Ä±": 6066,
      "Ġenga": 6067,
      "meni": 6068,
      "ĠÃ§ekmeye": 6069,
      "ĠÅŁeyin": 6070,
      "Ġawkward": 6071,
      "Ġgrateful": 6072,
      "Ġobject": 6073,
      "Ġswims": 6074,
      "Ġtarif": 6075,
      "ĠsaÄŁlayan": 6076,
      "ĠiÃ§eren": 6077,
      "Ġindirip": 6078,
      "Ġhareketi": 6079,
      "Ġmalzemeleri": 6080,
      "Ġcontinu": 6081,
      "Ġcontinue": 6082,
      "Ġjargon": 6083,
      "'li": 6084,
      "985": 6085,
      "937": 6086,
      "Ġconc": 6087,
      "ounda": 6088,
      "melen": 6089,
      "Ġfounda": 6090,
      "ĠSÄ±k": 6091,
      "Ä±nca": 6092,
      "ĠOk": 6093,
      "dio": 6094,
      "iliar": 6095,
      "Ġtrips": 6096,
      "Ġcommitment": 6097,
      "Ġmessy": 6098,
      "ĠsÄ±kÄ±cÄ±": 6099,
      "Ġdikkatli": 6100,
      "Ġmedya": 6101,
      "Ġassoci": 6102,
      "Ġpassively": 6103,
      "Ġavailable": 6104,
      "ĠKayÄ±t": 6105,
      "434": 6106,
      "520": 6107,
      "986": 6108,
      "isidir": 6109,
      "ises": 6110,
      "Ġmist": 6111,
      "Ġsomut": 6112,
      "Ã¼kem": 6113,
      "sÄ±yla": 6114,
      "Ġhold": 6115,
      "Ġlikely": 6116,
      "Ġyerinde": 6117,
      "lenmiÅŁ": 6118,
      "Ġsaatlerinizi": 6119,
      "Ġworkday": 6120,
      "Ġimpul": 6121,
      "Ġistek": 6122,
      "ĠÅŁeklinde": 6123,
      "Ġmuhte": 6124,
      "Ġhaline": 6125,
      "Ġkoru": 6126,
      "Ġinitiating": 6127,
      "Ġyorgunluk": 6128,
      "Ġformulating": 6129,
      "Ġduygusal": 6130,
      "ĠsÃ¼recini": 6131,
      "Ġdefteri": 6132,
      "ĠAÄŁustos": 6133,
      "988": 6134,
      "App": 6135,
      "sim": 6136,
      "Ġkafa": 6137,
      "aten": 6138,
      "Ġtrusted": 6139,
      "ĠyÃ¼rÃ¼yÃ¼ÅŁÃ¼": 6140,
      "ĠÃĸnceki": 6141,
      "Ġkolayca": 6142,
      "Ġhissed": 6143,
      "Ġdeneyerek": 6144,
      "Ġeffic": 6145,
      "Ġokum": 6146,
      "Ġmiss": 6147,
      "Ġkutular": 6148,
      "Ġpopular": 6149,
      "Ġonunla": 6150,
      "ĠamaÃ§la": 6151,
      "ĠparÃ§alara": 6152,
      "Ġupdates": 6153,
      "-c": 6154,
      "423": 6155,
      "483": 6156,
      "925": 6157,
      "One": 6158,
      "ayÄ±n": 6159,
      "kes": 6160,
      "onu": 6161,
      "erken": 6162,
      "Ġport": 6163,
      "Ġtou": 6164,
      "Ġbildirim": 6165,
      "rabilirsiniz": 6166,
      "lated": 6167,
      "Ġbey": 6168,
      "lanma": 6169,
      "ĠyaygÄ±n": 6170,
      "ĠÄ°l": 6171,
      "Ġcompletion": 6172,
      "ĠÃĸncelik": 6173,
      "ĠsaÄŁlamak": 6174,
      "ĠAyda": 6175,
      "tesini": 6176,
      "ĠMotivasyon": 6177,
      "Ġizlemek": 6178,
      "Ġshows": 6179,
      "ability": 6180,
      "Ġdisrupt": 6181,
      "Ġcombat": 6182,
      "710": 6183,
      "749": 6184,
      "989": 6185,
      "Eat": 6186,
      "dil": 6187,
      "ete": 6188,
      "iyet": 6189,
      "mini": 6190,
      "ĠEvet": 6191,
      "Ġfar": 6192,
      "active": 6193,
      "Ġopport": 6194,
      "esine": 6195,
      "habit": 6196,
      "ĠBasit": 6197,
      "Ġdahil": 6198,
      "Ġreh": 6199,
      "Ġreducing": 6200,
      "Ġshower": 6201,
      "abilirim": 6202,
      "152": 6203,
      "Ġmaxim": 6204,
      "Ġyeten": 6205,
      "Ġcancel": 6206,
      "ĠfotoÄŁrafÄ±": 6207,
      "reads": 6208,
      "Ġenerjinizi": 6209,
      "Ãĸner": 6210,
      "Ġaktiviteler": 6211,
      "ĠaraÃ§larÄ±": 6212,
      "Ġtempt": 6213,
      "Ġdisrupts": 6214,
      "ĠbÃ¼tÃ§enizi": 6215,
      "Ġalign": 6216,
      "Ġlezzet": 6217,
      "Ġtuval": 6218,
      "Ġengaging": 6219,
      "Ġopportun": 6220,
      "383": 6221,
      "620": 6222,
      "715": 6223,
      "983": 6224,
      "Durum": 6225,
      "Ġconcent": 6226,
      "ĠBatch": 6227,
      "Ġdro": 6228,
      "Ġinerti": 6229,
      "Ġveren": 6230,
      "thinking": 6231,
      "Ġresearch": 6232,
      "Ġalso": 6233,
      "Ġbitirme": 6234,
      "Ġbitirin": 6235,
      "Ġinteres": 6236,
      "Ġelinizde": 6237,
      "ĠbaÅŁlayabilirsin": 6238,
      "Ġortadan": 6239,
      "Ġrelated": 6240,
      "cept": 6241,
      "ĠgerÃ§ekleÅŁ": 6242,
      "Ġaktiviteleri": 6243,
      "ĠbÃ¶lÃ¼n": 6244,
      "Ġkaynat": 6245,
      "lerinizden": 6246,
      "Ġsebze": 6247,
      "ĠiÅŁlemi": 6248,
      "ĠolduÄŁunca": 6249,
      "ĠMevcut": 6250,
      "Ġinertia": 6251,
      "534": 6252,
      "Not": 6253,
      "oÄŁu": 6254,
      "Ġ$": 6255,
      "Ġnut": 6256,
      "ĠDÃ¼zen": 6257,
      "lasik": 6258,
      "ĠAyÄ±": 6259,
      "Ã¼nya": 6260,
      "ĠgÃ¼nlerde": 6261,
      "Ġlun": 6262,
      "Ġhedefinize": 6263,
      "Ġexpand": 6264,
      "ĠodaklanÄ±p": 6265,
      "Ġdinner": 6266,
      "Ġlose": 6267,
      "ĠÃ¶nlemek": 6268,
      "larÄ±nÄ±za": 6269,
      "ĠkitabÄ±n": 6270,
      "ĠsÃ¶yleyin": 6271,
      "ĠTelefonu": 6272,
      "ĠiÃ§erik": 6273,
      "Ġaddress": 6274,
      "Ġsatis": 6275,
      "630": 6276,
      "822": 6277,
      "He": 6278,
      "fic": 6279,
      "you": 6280,
      "ĠÃ¼rÃ¼n": 6281,
      "Ġtuz": 6282,
      "reci": 6283,
      "ale": 6284,
      "ĠmÃ¼": 6285,
      "ĠGÃ¶r": 6286,
      "ĠbaÅŁlamalÄ±sÄ±nÄ±z": 6287,
      "Ġresmi": 6288,
      "ĠÃ¶nerim": 6289,
      "ĠBundle": 6290,
      "Ä±za": 6291,
      "ĠgÃ¶ÄŁ": 6292,
      "Ġkendiniz": 6293,
      "ĠFrog": 6294,
      "tedir": 6295,
      "ĠdÃ¼zenleyin": 6296,
      "Ġappreci": 6297,
      "ĠoluÅŁturur": 6298,
      "ĠuygulamayÄ±": 6299,
      "Ġairlines": 6300,
      "osity": 6301,
      "ayÄ±f": 6302,
      "ĠÃ¶nerileri": 6303,
      "ĠbahÃ§enize": 6304,
      "Ġmakinesini": 6305,
      "ĠSoru": 6306,
      "Ġistersiniz": 6307,
      "ĠÃĸneri": 6308,
      "ĠÃ¶ÄŁrene": 6309,
      "ĠTVs": 6310,
      "Ġnavigate": 6311,
      "Ġdiscuss": 6312,
      "Ġmuhtemelen": 6313,
      "Ġyetenek": 6314,
      "432": 6315,
      "526": 6316,
      "617": 6317,
      "626": 6318,
      "gre": 6319,
      "way": 6320,
      "ndi": 6321,
      "endir": 6322,
      "veya": 6323,
      "Ġfour": 6324,
      "ĠbeÄŁ": 6325,
      "ĠsoÄŁu": 6326,
      "Ġbat": 6327,
      "ĠGÃ¼ven": 6328,
      "ept": 6329,
      "ĠdeÄŁerli": 6330,
      "Ġplanlamak": 6331,
      "mall": 6332,
      "ĠÃ¶ÄŁrenmenin": 6333,
      "Ġpod": 6334,
      "Ġensures": 6335,
      "Ġstopping": 6336,
      "leÅŁtirerek": 6337,
      "Ġbulunur": 6338,
      "ĠyaptÄ±ÄŁÄ±nÄ±zÄ±": 6339,
      "ĠkiÅŁiyle": 6340,
      "ĠkarÅŁÄ±laÅŁacak": 6341,
      "Ġmonths": 6342,
      "ĠdÃ¼zelt": 6343,
      "ĠyumuÅŁak": 6344,
      "Ġbelirtilen": 6345,
      "Ġfoundation": 6346,
      "684": 6347,
      "725": 6348,
      "734": 6349,
      "811": 6350,
      "anti": 6351,
      "meyen": 6352,
      "orm": 6353,
      "Ġveri": 6354,
      "ecause": 6355,
      "ters": 6356,
      "ĠplanÄ±nÄ±": 6357,
      "Ġyerleri": 6358,
      "Ġworkout": 6359,
      "ĠeriÅŁ": 6360,
      "leÅŁtiri": 6361,
      "Ġtelefonla": 6362,
      "Ġoption": 6363,
      "Ġdeneme": 6364,
      "Ġimproves": 6365,
      "ĠuyandÄ±": 6366,
      "Ġcuriosity": 6367,
      "Ġkonaklama": 6368,
      "'yla": 6369,
      "-e": 6370,
      "615": 6371,
      "624": 6372,
      "713": 6373,
      "Pair": 6374,
      "pause": 6375,
      "Ġclu": 6376,
      "Ġsul": 6377,
      "Ġprefer": 6378,
      "Ġinv": 6379,
      "ndeki": 6380,
      "ĠyaÄŁ": 6381,
      "Ġbulmaya": 6382,
      "ĠdeÄŁiÅŁtirmek": 6383,
      "ĠiÅŁin": 6384,
      "Ġsaatlerini": 6385,
      "ĠkaydÄ±n": 6386,
      "ĠsaÄŁlayarak": 6387,
      "Ġekleyip": 6388,
      "Ġdinlemek": 6389,
      "ĠayÄ±rt": 6390,
      "mÄ±ÅŁtÄ±r": 6391,
      "Ġsayfa": 6392,
      "Ġyatmak": 6393,
      "ĠKendine": 6394,
      "Ġcompli": 6395,
      "Ġtelefonunuzdaki": 6396,
      "Ġliving": 6397,
      "Ġfailure": 6398,
      "Ġvalidate": 6399,
      "ĠTrack": 6400,
      "titude": 6401,
      "'dir": 6402,
      "515": 6403,
      "514": 6404,
      "785": 6405,
      "oz": 6406,
      "ranÄ±": 6407,
      "suz": 6408,
      "Ġneler": 6409,
      "yse": 6410,
      "Ġfuel": 6411,
      "ĠSab": 6412,
      "Ġmekan": 6413,
      "oosing": 6414,
      "Ġbuy": 6415,
      "tÄ±ÄŁÄ±nÄ±zda": 6416,
      "uyg": 6417,
      "ĠsabahÄ±": 6418,
      "000": 6419,
      "Ġawake": 6420,
      "Ġsorunun": 6421,
      "Ġknowledge": 6422,
      "ĠbaÅŁarÄ±lar": 6423,
      "ĠuyanÄ±ÅŁ": 6424,
      "Ġclarify": 6425,
      "ĠdoÄŁrul": 6426,
      "ĠkurallarÄ±nÄ±": 6427,
      "ĠgÃ¶zlemleyin": 6428,
      "Ġdraining": 6429,
      "Ġclub": 6430,
      "616": 6431,
      "625": 6432,
      "636": 6433,
      "735": 6434,
      "789": 6435,
      "Merhaba": 6436,
      "Ne": 6437,
      "Zaman": 6438,
      "pit": 6439,
      "Ġprom": 6440,
      "usuna": 6441,
      "ĠYe": 6442,
      "Ġyata": 6443,
      "ĠuyanÄ±p": 6444,
      "Ġchoosing": 6445,
      "Ġexplicit": 6446,
      "Ġlists": 6447,
      "Ġhissini": 6448,
      "Ġdedicating": 6449,
      "acaÄŁÄ±": 6450,
      "Ġparal": 6451,
      "Ġtelefonunuza": 6452,
      "Ġexperience": 6453,
      "-wake": 6454,
      "ĠtÃ¼ket": 6455,
      "Ġgrabbing": 6456,
      "Ġnutri": 6457,
      "382": 6458,
      "517": 6459,
      "535": 6460,
      "536": 6461,
      "613": 6462,
      "634": 6463,
      "687": 6464,
      "728": 6465,
      "737": 6466,
      "Google": 6467,
      "ldÄ±": 6468,
      "lilik": 6469,
      "ani": 6470,
      "tima": 6471,
      "rete": 6472,
      "Ġikinci": 6473,
      "Ġface": 6474,
      "Ġdish": 6475,
      "Ġstack": 6476,
      "Ġsoli": 6477,
      "ĠayÄ±rdÄ±ÄŁÄ±nÄ±": 6478,
      "sÄ±ndan": 6479,
      "lerinden": 6480,
      "enty": 6481,
      "Ġduruma": 6482,
      "ĠdÃ¼ÅŁÃ¼k": 6483,
      "Ġsenary": 6484,
      "Ġconnectivity": 6485,
      "Ġinterrupt": 6486,
      "larÄ±nÄ±zla": 6487,
      "Ġexercises": 6488,
      "Ġdecisions": 6489,
      "yoga": 6490,
      "Ġbenz": 6491,
      "ĠeÅŁyalarÄ±": 6492,
      "Ġotob": 6493,
      "Ġaccumulating": 6494,
      "Ġtwenty": 6495,
      "Ġslip": 6496,
      "Ġbisiklet": 6497,
      "585": 6498,
      "628": 6499,
      "729": 6500,
      "736": 6501,
      "Ġwould": 6502,
      "Ġreason": 6503,
      "ĠbaÅŁlamanÄ±zÄ±": 6504,
      "Ġvoice": 6505,
      "ĠbaÅŁlatmak": 6506,
      "diyor": 6507,
      "ĠÃ¶ÄŁÃ¼n": 6508,
      "Ġbol": 6509,
      "Ġdurumunuzu": 6510,
      "Ġrules": 6511,
      "Ġyoldur": 6512,
      "Ġeklemek": 6513,
      "ĠgÃ¶rÃ¼nÃ¼": 6514,
      "ĠhazÄ±rlamak": 6515,
      "Ġolursa": 6516,
      "Ġhalf": 6517,
      "ĠboÅŁluk": 6518,
      "Ġtespit": 6519,
      "Ġsearch": 6520,
      "Ġfacts": 6521,
      "Ġkilit": 6522,
      "ĠHayat": 6523,
      "Ġmovie": 6524,
      "maktadÄ±r": 6525,
      "Ã¼kemmel": 6526,
      "510": 6527,
      "524": 6528,
      "584": 6529,
      "537": 6530,
      "614": 6531,
      "712": 6532,
      "717": 6533,
      "780": 6534,
      "dilik": 6535,
      "isin": 6536,
      "isine": 6537,
      "inÃ§": 6538,
      "rada": 6539,
      "tesi": 6540,
      "around": 6541,
      "ĠBecause": 6542,
      "ĠSur": 6543,
      "Ġdal": 6544,
      "lies": 6545,
      "lanacak": 6546,
      "ĠkayÄ±": 6547,
      "ĠkÄ±ya": 6548,
      "Ġdelay": 6549,
      "Ġhit": 6550,
      "Ġtip": 6551,
      "Ġyapmaktan": 6552,
      "Ã¼ÅŁÃ¼n": 6553,
      "ĠalmanÄ±z": 6554,
      "Ġkalp": 6555,
      "ches": 6556,
      "ĠKah": 6557,
      "ĠFin": 6558,
      "lights": 6559,
      "ĠÃ§alÄ±ÅŁarak": 6560,
      "ileri": 6561,
      "Ġtamamlamak": 6562,
      "Ġalanda": 6563,
      "ĠgeÃ§irmek": 6564,
      "landÄ±rma": 6565,
      "Ġreviewing": 6566,
      "endiÄŁiniz": 6567,
      "Ġparkta": 6568,
      "Ġazaltmak": 6569,
      "Ġtarget": 6570,
      "ĠkÄ±smÄ±nÄ±": 6571,
      "'yi": 6572,
      "612": 6573,
      "724": 6574,
      "727": 6575,
      "keep": 6576,
      "oot": 6577,
      "Ġsmo": 6578,
      "Ġconve": 6579,
      "rating": 6580,
      "ceÄŁiniz": 6581,
      "lav": 6582,
      "ĠSpe": 6583,
      "Ġinsur": 6584,
      "Ġneut": 6585,
      "Ġonay": 6586,
      "Ġanswers": 6587,
      "Ġdok": 6588,
      "ata": 6589,
      "ĠhoÅŁ": 6590,
      "Ġetmeyi": 6591,
      "ĠettiÄŁiniz": 6592,
      "Ġkullanabilirsiniz": 6593,
      "Ġduva": 6594,
      "Ġgerekebilir": 6595,
      "Ġelde": 6596,
      "ĠkonuÅŁun": 6597,
      "Ġbigger": 6598,
      "Ġiyisidir": 6599,
      "ĠbaskÄ±": 6600,
      "ĠanlaÅŁÄ±lÄ±r": 6601,
      "Ġconsider": 6602,
      "Ġwebsites": 6603,
      "Ġtype": 6604,
      "Ġacknowledge": 6605,
      "Ġmadde": 6606,
      "Ġinsurance": 6607,
      "513": 6608,
      "527": 6609,
      "680": 6610,
      "629": 6611,
      "786": 6612,
      "821": 6613,
      "In": 6614,
      "gency": 6615,
      "kÄ±": 6616,
      "Ġsunu": 6617,
      "Ġconcer": 6618,
      "ene": 6619,
      "Ġrely": 6620,
      "ĠGe": 6621,
      "ĠGen": 6622,
      "ĠÃľ": 6623,
      "nasÄ±l": 6624,
      "Ġsuy": 6625,
      "Ġyerlere": 6626,
      "ĠsorularÄ±": 6627,
      "ĠalÄ±r": 6628,
      "ĠdÃ¼zenlemek": 6629,
      "Ġspaces": 6630,
      "ĠdÃ¼ÅŁÃ¼nmek": 6631,
      "ssential": 6632,
      "Ġfiyat": 6633,
      "Ġmesajlar": 6634,
      "Ġhareketler": 6635,
      "Ġvisually": 6636,
      "Ġsana": 6637,
      "Ġinceleyerek": 6638,
      "Ġsamimiyet": 6639,
      "ĠkeÅŁf": 6640,
      "Ġcolor": 6641,
      "Ġconcrete": 6642,
      "ĠsoÄŁuk": 6643,
      "ĠSurround": 6644,
      "-co": 6645,
      "549": 6646,
      "685": 6647,
      "635": 6648,
      "716": 6649,
      "720": 6650,
      "726": 6651,
      "784": 6652,
      "Ġtenc": 6653,
      "Ġklasik": 6654,
      "lease": 6655,
      "urt": 6656,
      "Ġinte": 6657,
      "start": 6658,
      "ĠMain": 6659,
      "ĠkonularÄ±": 6660,
      "Ã¼zik": 6661,
      "Ġvs": 6662,
      "ĠbaÅŁlatabilirsiniz": 6663,
      "Ġspreads": 6664,
      "ĠatÄ±ÅŁ": 6665,
      "ĠkalmayÄ±": 6666,
      "Ġlistesi": 6667,
      "Ġfinal": 6668,
      "Ġdinlendir": 6669,
      "Ġbeklemek": 6670,
      "ĠbÄ±rakmak": 6671,
      "ÃĸrneÄŁin": 6672,
      "ĠvÃ¼cut": 6673,
      "Ġidea": 6674,
      "ĠÄ±s": 6675,
      "ĠHafif": 6676,
      "Ġpassive": 6677,
      "Ġsinir": 6678,
      "Ġtotaling": 6679,
      "Ġetkinlik": 6680,
      "Ġelectronics": 6681,
      "Ġadedi": 6682,
      "Ġpodcast": 6683,
      "Ġneutral": 6684,
      "ĠMaintain": 6685,
      "411": 6686,
      "525": 6687,
      "529": 6688,
      "649": 6689,
      "932": 6690,
      "Cevap": 6691,
      "Ha": 6692,
      "How": 6693,
      "gÃ¶r": 6694,
      "sApp": 6695,
      "tÄ±ktan": 6696,
      "ceed": 6697,
      "ĠEt": 6698,
      "Ġice": 6699,
      "late": 6700,
      "Ġbeli": 6701,
      "abilirsin": 6702,
      "lÄ±yorum": 6703,
      "ĠÃ¶neriye": 6704,
      "ading": 6705,
      "ĠiyileÅŁtirmek": 6706,
      "Ġdistin": 6707,
      "ĠSabahÄ±n": 6708,
      "ĠalanÄ±nÄ±zÄ±": 6709,
      "Ġdinleyin": 6710,
      "Ġrewarding": 6711,
      "Ġbelirlemeniz": 6712,
      "ĠÃ¶zellik": 6713,
      "Ġplanda": 6714,
      "Ġarrival": 6715,
      "tiÅŁime": 6716,
      "Ġkaliteli": 6717,
      "Ġkaybol": 6718,
      "ĠtaÅŁÄ±": 6719,
      "ĠÃ¶dev": 6720,
      "Ġflash": 6721,
      "Ġsatisf": 6722,
      "311": 6723,
      "322": 6724,
      "512": 6725,
      "530": 6726,
      "637": 6727,
      "730": 6728,
      "788": 6729,
      "ctions": 6730,
      "nin": 6731,
      "tarÄ±": 6732,
      "Ġaff": 6733,
      "enden": 6734,
      "Ġign": 6735,
      "Ġnotlar": 6736,
      "ugh": 6737,
      "ĠbaÅŁlama": 6738,
      "Ġ**\"": 6739,
      "Ã¼yÃ¼": 6740,
      "Ġstead": 6741,
      "ĠÃ§alÄ±ÅŁan": 6742,
      "Ġdurumun": 6743,
      "Ġdurun": 6744,
      "Ġtrivi": 6745,
      "phone": 6746,
      "Ġyolda": 6747,
      "ĠekranÄ±": 6748,
      "ĠsÄ±fÄ±r": 6749,
      "Ġgratitude": 6750,
      "ĠÄ±ÅŁÄ±ÄŁÄ±nÄ±": 6751,
      "lerinizin": 6752,
      "Ġdepends": 6753,
      "Ġbitkileri": 6754,
      "Ġotomatik": 6755,
      "Ġsnacks": 6756,
      "Ġassig": 6757,
      "Ġmaruz": 6758,
      "Ġopportunities": 6759,
      "Ġlunch": 6760,
      "Ġduvara": 6761,
      "190": 6762,
      "422": 6763,
      "482": 6764,
      "516": 6765,
      "533": 6766,
      "610": 6767,
      "633": 6768,
      "723": 6769,
      "787": 6770,
      "922": 6771,
      "931": 6772,
      "related": 6773,
      "sam": 6774,
      "ĠTÃ¼m": 6775,
      "ĠgÃ¼nler": 6776,
      "Ġolmadan": 6777,
      "Ġrot": 6778,
      "ĠyazÄ±p": 6779,
      "Ġovercome": 6780,
      "ĠfotoÄŁrafÄ±nÄ±zÄ±": 6781,
      "Ġhedefle": 6782,
      "Ġpoli": 6783,
      "Ã¶zellikle": 6784,
      "ĠtÃ¼rÃ¼nÃ¼": 6785,
      "ĠhazÄ±rlan": 6786,
      "ĠHareket": 6787,
      "ĠolduÄŁunda": 6788,
      "Ġgrand": 6789,
      "ĠbaÄŁlam": 6790,
      "ĠpaylaÅŁmak": 6791,
      "ĠgÃ¶ndererek": 6792,
      "fety": 6793,
      "ĠsevdiÄŁiniz": 6794,
      "Ġmemorize": 6795,
      "ĠnumarasÄ±nÄ±": 6796,
      "ĠgeliÅŁtirmek": 6797,
      "Ġseferinde": 6798,
      "ĠfÄ±rsat": 6799,
      "Ġdeneyimi": 6800,
      "ĠSpeak": 6801,
      "Ġdistinct": 6802,
      "Ġtrivial": 6803,
      "07": 6804,
      "627": 6805,
      "733": 6806,
      "911": 6807,
      "Focus": 6808,
      "insel": 6809,
      "ulara": 6810,
      "Ġyiye": 6811,
      "mat": 6812,
      "Ġgaps": 6813,
      "ortant": 6814,
      "Ġmen": 6815,
      "Ġverme": 6816,
      "Ġyaprak": 6817,
      "acaktÄ±r": 6818,
      "Ġreserv": 6819,
      "ĠCÃ¼mle": 6820,
      "ĠbuluÅŁuyor": 6821,
      "atory": 6822,
      "Ä±rÄ±": 6823,
      "ĠUyan": 6824,
      "Ġimkan": 6825,
      "Ġbelirtir": 6826,
      "ĠfotoÄŁraflarÄ±": 6827,
      "Ġland": 6828,
      "Ġdakikadan": 6829,
      "unuzda": 6830,
      "ĠiÅŁinizi": 6831,
      "Ġevin": 6832,
      "Ġnews": 6833,
      "ĠsabahÄ±n": 6834,
      "Ġarama": 6835,
      "Ġtelefonun": 6836,
      "ĠgÃ¶rd": 6837,
      "Ġlearns": 6838,
      "ĠsÄ±rasÄ±nda": 6839,
      "Ġdinle": 6840,
      "Ġhafiflet": 6841,
      "larÄ±nÄ±zda": 6842,
      "ĠÃ¼st": 6843,
      "Ġyani": 6844,
      "Ġshoes": 6845,
      "Ġconsci": 6846,
      "ĠeÄŁitimi": 6847,
      "Ġsituation": 6848,
      "Ġcabinet": 6849,
      "Ġrehber": 6850,
      "Ãĸneri": 6851,
      "ĠgÃ¶rÃ¼nÃ¼yor": 6852,
      "ĠkeÅŁfed": 6853,
      "-a": 6854,
      "-light": 6855,
      "528": 6856,
      "523": 6857,
      "686": 6858,
      "rame": 6859,
      "Ã§Ä±k": 6860,
      "Ġequ": 6861,
      "Ġelimin": 6862,
      "ham": 6863,
      "Ġstrugg": 6864,
      "Ġneyi": 6865,
      "lamanÄ±z": 6866,
      "Ġoverthinking": 6867,
      "ĠaralÄ±k": 6868,
      "ĠfotoÄŁrafÃ§Ä±": 6869,
      "ĠsÃ¼reyi": 6870,
      "Ġtekni": 6871,
      "ĠÅŁeyden": 6872,
      "ĠayarlarÄ±nÄ±": 6873,
      "Ġloop": 6874,
      "Ġobs": 6875,
      "ĠuzaklaÅŁ": 6876,
      "Ġpile": 6877,
      "ĠgÃ¶rÃ¼ÅŁme": 6878,
      "Ġteknikleri": 6879,
      "Ġnavigation": 6880,
      "ĠeÄŁlenceli": 6881,
      "Ġefficient": 6882,
      "-essential": 6883,
      "580": 6884,
      "eti": 6885,
      "syon": 6886,
      "tile": 6887,
      "tiÄŁinizi": 6888,
      "Ġpleas": 6889,
      "telefon": 6890,
      "lev": 6891,
      "ories": 6892,
      "sak": 6893,
      "ĠTreat": 6894,
      "ĠzayÄ±f": 6895,
      "Ġsafety": 6896,
      "Ġzamanla": 6897,
      "Ġsuyla": 6898,
      "ification": 6899,
      "lenme": 6900,
      "ĠyÃ¼zey": 6901,
      "ĠHerhangi": 6902,
      "ĠalÄ±ÅŁtÄ±r": 6903,
      "mesine": 6904,
      "Ġphotos": 6905,
      "ĠkarÅŁÄ±lÄ±klÄ±": 6906,
      "ĠistediÄŁini": 6907,
      "lendi": 6908,
      "ĠBaÅŁka": 6909,
      "Ġkelimeler": 6910,
      "Ġsani": 6911,
      "Ġnedeniyle": 6912,
      "ĠbÃ¶lge": 6913,
      "ĠgÃ¼nÃ¼nÃ¼zÃ¼": 6914,
      "ĠZorluk": 6915,
      "Ġkalitesini": 6916,
      "Ġmistakes": 6917,
      "ĠFinally": 6918,
      "688": 6919,
      "683": 6920,
      "689": 6921,
      "Her": 6922,
      "kendi": 6923,
      "rabilir": 6924,
      "Ġik": 6925,
      "ĠDef": 6926,
      "ĠDuolingo": 6927,
      "yseniz": 6928,
      "iling": 6929,
      "Ġmark": 6930,
      "Ġstays": 6931,
      "Ġdevice": 6932,
      "Ġhiz": 6933,
      "ĠÄ°liÅŁ": 6934,
      "Ġisim": 6935,
      "usuz": 6936,
      "ksi": 6937,
      "Ġyete": 6938,
      "ĠsonrasÄ±": 6939,
      "siyon": 6940,
      "Ġtutmaya": 6941,
      "Ġdiving": 6942,
      "duÄŁu": 6943,
      "book": 6944,
      "ĠhaftanÄ±n": 6945,
      "ĠyÃ¶nel": 6946,
      "ĠsÄ±vÄ±": 6947,
      "ĠyapÄ±la": 6948,
      "Ġdinleme": 6949,
      "Ġvisa": 6950,
      "ĠgÃ¶revler": 6951,
      "ĠbaÅŁarÄ±yÄ±": 6952,
      "Ġclarification": 6953,
      "ĠdÄ±ÅŁarÄ±da": 6954,
      "Ġegzersizleri": 6955,
      "soli": 6956,
      "Ġuyumlu": 6957,
      "ĠÃ§imen": 6958,
      "Ġchallenges": 6959,
      "Ġseems": 6960,
      "Ġaccusations": 6961,
      "GÃ¼nlÃ¼k": 6962,
      "ĠnazikÃ§e": 6963,
      "Ġeliminating": 6964,
      "586": 6965,
      "982": 6966,
      "kal": 6967,
      "Ġfits": 6968,
      "ĠSecond": 6969,
      "Ġsilent": 6970,
      "**'": 6971,
      "dition": 6972,
      "Ġsprin": 6973,
      "Ġmade": 6974,
      "ĠKal": 6975,
      "Ġdiler": 6976,
      "Ġdeepen": 6977,
      "Ġtelefonunu": 6978,
      "Ġolanak": 6979,
      "malÄ±sÄ±n": 6980,
      "ĠyÃ¶ntemle": 6981,
      "Ġhappiness": 6982,
      "ĠsÄ±caklÄ±ÄŁÄ±na": 6983,
      "ĠbaÄŁlantÄ±": 6984,
      "Ġkorun": 6985,
      "ĠyaratÄ±r": 6986,
      "Ġincreas": 6987,
      "Ġenerjiyi": 6988,
      "ĠMesajÄ±nÄ±zÄ±": 6989,
      "Ġclothing": 6990,
      "Ġfrustration": 6991,
      "Ġuygulayarak": 6992,
      "dikten": 6993,
      "ĠtasarÄ±m": 6994,
      "Ġmerke": 6995,
      "Ġwebsite": 6996,
      "Ġrisk": 6997,
      "Ġsustain": 6998,
      "Ġconcentration": 6999,
      "Ġintent": 7000,
      "589": 7001,
      "ero": 7002,
      "Ġsil": 7003,
      "aling": 7004,
      "Ġekip": 7005,
      "ĠmÃ¼kemmel": 7006,
      "Ġdiz": 7007,
      "Ġyast": 7008,
      "Ġsharp": 7009,
      "Ġolsa": 7010,
      "ĠbaÅŁlayacak": 7011,
      "Ġsites": 7012,
      "Ġsaving": 7013,
      "Ġtim": 7014,
      "Ġmask": 7015,
      "162": 7016,
      "ĠaldÄ±": 7017,
      "172": 7018,
      "ĠiyileÅŁ": 7019,
      "Ġevinizdeki": 7020,
      "ÄŁinize": 7021,
      "Ġrepla": 7022,
      "ĠdÃ¼ÅŁÃ¼nÃ¼": 7023,
      "Ġfinished": 7024,
      "ĠkiÅŁinin": 7025,
      "ĠkalkÄ±n": 7026,
      "Ġderinlik": 7027,
      "Ġsanki": 7028,
      "Ġsanat": 7029,
      "Ġcloser": 7030,
      "Ġmutfak": 7031,
      "Ġhavada": 7032,
      "Ġuyuya": 7033,
      "Ġtavsiy": 7034,
      "Ġwashing": 7035,
      "Ġyolculu": 7036,
      "ĠgÃ¼Ã§lendirmek": 7037,
      "Ġbeklenti": 7038,
      "ĠbirleÅŁecek": 7039,
      "Ġempty": 7040,
      "Ġlabels": 7041,
      "Ġstraight": 7042,
      "Ġspreadsheet": 7043,
      "Ġsteady": 7044,
      "481": 7045,
      "783": 7046,
      "Pra": 7047,
      "ften": 7048,
      "kÃ¼r": 7049,
      "kitap": 7050,
      "Ġplay": 7051,
      "ysis": 7052,
      "umu": 7053,
      "Ġstren": 7054,
      "ĠiÃ§inden": 7055,
      "mektedir": 7056,
      "ĠLÃ¼tfen": 7057,
      "Ġsays": 7058,
      "Ġtips": 7059,
      "Ġzorunlu": 7060,
      "Ġ(\"": 7061,
      "Ġseasons": 7062,
      "Ġyear": 7063,
      "andÄ±": 7064,
      "ĠgeÃ§ire": 7065,
      "Ġlistesini": 7066,
      "ĠyÃ¶nlendir": 7067,
      "ĠsorunlarÄ±nÄ±": 7068,
      "asÄ±nda": 7069,
      "Ä±lma": 7070,
      "ĠhissettiÄŁiniz": 7071,
      "Ġearli": 7072,
      "Ġtranslation": 7073,
      "ĠuyanÄ±k": 7074,
      "Ġmutlu": 7075,
      "undry": 7076,
      "Ġdiscard": 7077,
      "ĠgeliÅŁtirme": 7078,
      "Ġreminders": 7079,
      "ĠsaÄŁlayacaktÄ±r": 7080,
      "ĠkarÄ±ÅŁtÄ±r": 7081,
      "Ġsaatinde": 7082,
      "Ġalert": 7083,
      "Ġalerts": 7084,
      "Ġkoltu": 7085,
      "Ġview": 7086,
      "Ġemergency": 7087,
      "Ġeylem": 7088,
      "Ġflashc": 7089,
      "588": 7090,
      "587": 7091,
      "ox": 7092,
      "pam": 7093,
      "Ġversa": 7094,
      "tiÄŁin": 7095,
      "Ġtour": 7096,
      "alling": 7097,
      "teki": 7098,
      "Ã¼nden": 7099,
      "urg": 7100,
      "Ġoyun": 7101,
      "Ġbirer": 7102,
      "ĠÃ¶nem": 7103,
      "orth": 7104,
      "Ġnega": 7105,
      "Ä°kinci": 7106,
      "Ġhaval": 7107,
      "ekkÃ¼r": 7108,
      "Ġyapman": 7109,
      "ĠzorlandÄ±": 7110,
      "Ġbuying": 7111,
      "eynman": 7112,
      "road": 7113,
      "Ġcannot": 7114,
      "Ġboosts": 7115,
      "Ġlaundry": 7116,
      "ĠkaygÄ±": 7117,
      "ĠduruÅŁ": 7118,
      "Ġkeyi": 7119,
      "erilen": 7120,
      "Ġsuppor": 7121,
      "ĠrahatÃ§a": 7122,
      "Ġstresli": 7123,
      "Ġdetaylar": 7124,
      "Ġhands": 7125,
      "ĠHaftalÄ±k": 7126,
      "Ġstronger": 7127,
      "Ġtyp": 7128,
      "Ġrecei": 7129,
      "Ġcomputers": 7130,
      "Ġtakvim": 7131,
      ")Ċ": 7132,
      "-day": 7133,
      "623": 7134,
      "Schedule": 7135,
      "pass": 7136,
      "Ġour": 7137,
      "Ġcrow": 7138,
      "urun": 7139,
      "ĠThat": 7140,
      "stac": 7141,
      "ĠgÃ¼ncel": 7142,
      "ĠiletiÅŁime": 7143,
      "ĠbaÅŁlamaya": 7144,
      "Ġdopam": 7145,
      "Ġtema": 7146,
      "Ġartar": 7147,
      "Ġboy": 7148,
      "ĠfotoÄŁraflar": 7149,
      "luÄŁu": 7150,
      "Ġimpact": 7151,
      "ĠsÃ¼resi": 7152,
      "Ġdurmak": 7153,
      "Ġkeys": 7154,
      "ĠkaranlÄ±k": 7155,
      "Ġglasses": 7156,
      "Ġpresence": 7157,
      "Ġobstac": 7158,
      "ĠhatÄ±rla": 7159,
      "diÄŁinde": 7160,
      "Ġgeneral": 7161,
      "ĠyaptÄ±m": 7162,
      "Ġbardak": 7163,
      "Ġibarettir": 7164,
      "ĠuÄŁraÅŁ": 7165,
      "Ġkeyif": 7166,
      "321": 7167,
      "583": 7168,
      "532": 7169,
      "Pause": 7170,
      "cha": 7171,
      "minizi": 7172,
      "pect": 7173,
      "sue": 7174,
      "anÄ±ÅŁ": 7175,
      "Ġnes": 7176,
      "hest": 7177,
      "ÄŁÄ±nÄ±n": 7178,
      "izde": 7179,
      "Ã¶ÄŁ": 7180,
      "Ġrental": 7181,
      "Ġthrow": 7182,
      "ĠbaÅŁta": 7183,
      "lÄ±r": 7184,
      "lamalar": 7185,
      "Ä±nÄ±zdan": 7186,
      "Ġtetik": 7187,
      "Ġovernight": 7188,
      "Ġbitirmek": 7189,
      "ĠkitaplarÄ±": 7190,
      "Ġbasic": 7191,
      "ĠaÃ§mak": 7192,
      "Ġdergi": 7193,
      "Ġbilgisi": 7194,
      "Ġhissetmek": 7195,
      "ĠseÃ§mekten": 7196,
      "berate": 7197,
      "Ġsunar": 7198,
      "Ġvalues": 7199,
      "Ġinterruption": 7200,
      "Ġuyanmak": 7201,
      "ĠkazandÄ±r": 7202,
      "Ġlives": 7203,
      "Ġjudging": 7204,
      "ĠkaÄŁÄ±da": 7205,
      "Ġsuppresses": 7206,
      "Ġopinion": 7207,
      "Ġdeliberate": 7208,
      "Ġassigning": 7209,
      "381": 7210,
      "Break": 7211,
      "IM": 7212,
      "dle": 7213,
      "uses": 7214,
      "ĠTell": 7215,
      "ĠYÃ¼z": 7216,
      "Ã¶n": 7217,
      "ĠsoÄŁ": 7218,
      "Ġhuge": 7219,
      "Ġhorm": 7220,
      "tirir": 7221,
      "imdilik": 7222,
      "Ġbegins": 7223,
      "Ġyazmaya": 7224,
      "Ġargu": 7225,
      "Ġdilde": 7226,
      "Ġkod": 7227,
      "Ġevinizin": 7228,
      "Ä±nav": 7229,
      "Ġdownload": 7230,
      "Ġpost": 7231,
      "Ġdurdur": 7232,
      "Ġride": 7233,
      "Ġkurmaya": 7234,
      "amera": 7235,
      "Ġsorarak": 7236,
      "ĠhazÄ±rla": 7237,
      "Ġtaze": 7238,
      "Ġhedeflerinize": 7239,
      "Ġlosing": 7240,
      "Ġknowing": 7241,
      "Ġsupporting": 7242,
      "ĠÃ¶nÃ¼ne": 7243,
      "Ġedebilir": 7244,
      "ĠLearn": 7245,
      "ĠSizinle": 7246,
      "Ġmetre": 7247,
      "Ġcritic": 7248,
      "ĠadÄ±ma": 7249,
      "Ġfactors": 7250,
      "Â°C": 7251,
      "Ġparalysis": 7252,
      "Ġstreng": 7253,
      "/no": 7254,
      "BÃ¼yÃ¼k": 7255,
      "aging": 7256,
      "oloj": 7257,
      "Ġtutu": 7258,
      "ĠEÄŁ": 7259,
      "daha": 7260,
      "Ġcost": 7261,
      "itch": 7262,
      "Ġever": 7263,
      "ĠiÃ§ip": 7264,
      "Ġkase": 7265,
      "Ġkafe": 7266,
      "Ġyapabilece": 7267,
      "Ġquanti": 7268,
      "ĠHem": 7269,
      "Ġseason": 7270,
      "Ġaloud": 7271,
      "Ġgetirmek": 7272,
      "Ġodada": 7273,
      "Ġdurumunuz": 7274,
      "manÄ±zdÄ±r": 7275,
      "Ġkurgu": 7276,
      "lamasÄ±": 7277,
      "ĠdÃ¼ÅŁÃ¼nerek": 7278,
      "Ġconnected": 7279,
      "Ġmindset": 7280,
      "ĠWhatsApp": 7281,
      "Ġdenemek": 7282,
      "ĠsÄ±caklÄ±ÄŁÄ±": 7283,
      "Ġolmaktan": 7284,
      "Ġbiriyle": 7285,
      "ĠÃ§Ä±karÄ±n": 7286,
      "ĠkalÄ±p": 7287,
      "ĠaydÄ±nlÄ±k": 7288,
      "ĠbelirtilmiÅŁtir": 7289,
      "Ġidealdir": 7290,
      "Ġvalued": 7291,
      "ĠAccept": 7292,
      "Ġmaximize": 7293,
      "Ġexplicitly": 7294,
      "ĠotobÃ¼s": 7295,
      "ĠkÄ±yafet": 7296,
      "Ġearlier": 7297,
      "Ġflashcards": 7298,
      "340": 7299,
      "421": 7300,
      "732": 7301,
      "921": 7302,
      "981": 7303,
      "An": 7304,
      "Keep": 7305,
      "Total": 7306,
      "baÅŁ": 7307,
      "the": 7308,
      "tmak": 7309,
      "Ġpromo": 7310,
      "Ġevi": 7311,
      "ĠBahÃ§": 7312,
      "Ġinitiate": 7313,
      "Ġstresi": 7314,
      "ried": 7315,
      "Ġzero": 7316,
      "Ġkonuyla": 7317,
      "think": 7318,
      "yorsa": 7319,
      "ocuk": 7320,
      "erseniz": 7321,
      "Ġkapak": 7322,
      "ĠÃ§ekip": 7323,
      "Ġsoruda": 7324,
      "Ġeser": 7325,
      "Ġperfectly": 7326,
      "Ġminimal": 7327,
      "Ġbunlar": 7328,
      "ĠSÄ±ra": 7329,
      "Ġoccas": 7330,
      "Ġkonsept": 7331,
      "Ġcontinuing": 7332,
      "ĠDefine": 7333,
      "Ġmerkez": 7334,
      "Ġreplacing": 7335,
      "Ġnegative": 7336,
      "'la": 7337,
      "360": 7338,
      "431": 7339,
      "tiren": 7340,
      "lemeniz": 7341,
      "Ã¼me": 7342,
      "Ġizmir": 7343,
      "ĠSay": 7344,
      "Ġnedir": 7345,
      "Ġyazma": 7346,
      "ĠÃĸnemli": 7347,
      "Ġworried": 7348,
      "Ġtutma": 7349,
      "ĠÃ§ekme": 7350,
      "Ġexplo": 7351,
      "ĠkurmayÄ±": 7352,
      "ĠkonuÅŁacak": 7353,
      "ĠyapÄ±sÄ±": 7354,
      "ĠyatÄ±n": 7355,
      "ĠkalkÄ±ÅŁ": 7356,
      "ĠkalkmayÄ±": 7357,
      "bilmek": 7358,
      "Ġkapatmak": 7359,
      "ĠyÃ¼rÃ¼ye": 7360,
      "ĠdÄ±ÅŁÄ±nda": 7361,
      "Ġsizinle": 7362,
      "Ġeski": 7363,
      "ĠnoktasÄ±dÄ±r": 7364,
      "Ġmetab": 7365,
      "ĠkaynaÄŁÄ±nÄ±": 7366,
      "ĠkarÄ±ÅŁ": 7367,
      "ĠtarafÄ±ndan": 7368,
      "ĠaÄŁÄ±r": 7369,
      "Ġmerak": 7370,
      "ĠnoktasÄ±nÄ±": 7371,
      "Ġversatile": 7372,
      "Ġquantity": 7373,
      "EÄŁer": 7374,
      "Eisenhower": 7375,
      "The": 7376,
      "ctive": 7377,
      "ile": 7378,
      "tri": 7379,
      "¸ı": 7380,
      "ï¸ı": 7381,
      "Ġskip": 7382,
      "ÅŁu": 7383,
      "ĠTurn": 7384,
      "itab": 7385,
      "ilmesi": 7386,
      "Ġflo": 7387,
      "Ġgrup": 7388,
      "akt": 7389,
      "ĠbaÅŁÄ±nÄ±zÄ±": 7390,
      "ĠMay": 7391,
      "ical": 7392,
      "amik": 7393,
      "ected": 7394,
      "Ġdolu": 7395,
      "ĠanlamÄ±": 7396,
      "ĠNot": 7397,
      "Ġtopra": 7398,
      "mediÄŁiniz": 7399,
      "Ġnoon": 7400,
      "ĠFeynman": 7401,
      "cover": 7402,
      "ĠgeÃ§en": 7403,
      "Ġtemelini": 7404,
      "ĠsayÄ±sÄ±nÄ±": 7405,
      "Ġsupplies": 7406,
      "ĠtamamÄ±nÄ±": 7407,
      "ĠsÄ±caklÄ±k": 7408,
      "Ġusual": 7409,
      "Ġsepet": 7410,
      "Ġpassport": 7411,
      "ĠbÃ¼tÃ§e": 7412,
      "tÄ±rabilirsiniz": 7413,
      ".**Ċ": 7414,
      "ĠkarÄ±ÅŁÄ±k": 7415,
      "ĠkeÅŁfetmek": 7416,
      "Ġassign": 7417,
      "Ġaccusatory": 7418,
      "Ġconfusion": 7419,
      "Ġconvey": 7420,
      "'d": 7421,
      "Sabah": 7422,
      "Ġsend": 7423,
      "rep": 7424,
      "lek": 7425,
      "Ã¼lebilir": 7426,
      "uru": 7427,
      "Ã§alÄ±ÅŁ": 7428,
      "Ġhelping": 7429,
      "Ġmey": 7430,
      "lÄ±ÄŁÄ±n": 7431,
      "imle": 7432,
      "geÃ§": 7433,
      "Ġdos": 7434,
      "Ġistiyorsunuz": 7435,
      "diÄŁinizi": 7436,
      "Ġsever": 7437,
      "ĠatÄ±p": 7438,
      "Ġtelef": 7439,
      "ersiz": 7440,
      "Ġokuyacak": 7441,
      "ĠÃ§alÄ±ÅŁtÄ±": 7442,
      "Ġcheap": 7443,
      "Ġolursunuz": 7444,
      "ĠbaÅŁarÄ±larÄ±": 7445,
      "bette": 7446,
      "Ġeffortless": 7447,
      "âĢĶand": 7448,
      "diÄŁinizde": 7449,
      "Ġcountert": 7450,
      "Ġoturmak": 7451,
      "ĠkÄ±sal": 7452,
      "Ġservice": 7453,
      "Ġmiktarda": 7454,
      "Ġbozul": 7455,
      "Ġhayata": 7456,
      "ĠduygularÄ±nÄ±zÄ±": 7457,
      "Ġkanal": 7458,
      "Practice": 7459,
      "ative": 7460,
      "ared": 7461,
      "bugÃ¼n": 7462,
      "cal": 7463,
      "hol": 7464,
      "nable": 7465,
      "ube": 7466,
      "vis": 7467,
      "ÉĻ": 7468,
      "Ġ%": 7469,
      "endik": 7470,
      "ĠsÄ±nÄ±": 7471,
      "rable": 7472,
      "Ġkim": 7473,
      "verbal": 7474,
      "ĠYa": 7475,
      "gram": 7476,
      "Ġdistant": 7477,
      "Ġinsp": 7478,
      "Ġrere": 7479,
      "Ġchoice": 7480,
      "Ġplanlayarak": 7481,
      "ĠlÃ¼tfen": 7482,
      "ĠÅŁÄ±k": 7483,
      "Ġtrue": 7484,
      "ource": 7485,
      "Ġbreakfa": 7486,
      "ĠseÃ§ebilirsiniz": 7487,
      "ĠFirst": 7488,
      "ĠyÃ¶netim": 7489,
      "Ġways": 7490,
      "ĠkonuÅŁurken": 7491,
      "ĠÃ§Ä±kmak": 7492,
      "Ġphotosh": 7493,
      "ĠgÃ¼venilir": 7494,
      "lendire": 7495,
      "Ġtalep": 7496,
      "ĠyÃ¼rÃ¼mek": 7497,
      "Ġdetail": 7498,
      "Ġsucceed": 7499,
      "ĠmantÄ±": 7500,
      "Ġederim": 7501,
      "Ġuyumaya": 7502,
      "Ġuygulayabilirsiniz": 7503,
      "Ġcontent": 7504,
      "ĠtatlÄ±": 7505,
      "ĠseÃ§eneÄŁi": 7506,
      "-task": 7507,
      "mission": 7508,
      "Ġimpuls": 7509,
      "Ġoccasion": 7510,
      "Ġrereading": 7511,
      "Ġphotoshoot": 7512,
      "ivi": 7513,
      "ices": 7514,
      "om": 7515,
      "ski": 7516,
      "ract": 7517,
      "rakarak": 7518,
      "ĠDerin": 7519,
      "Ġcondi": 7520,
      "Ġelinde": 7521,
      "ĠBlock": 7522,
      "ĠSmall": 7523,
      "izden": 7524,
      "ized": 7525,
      "ĠiÃ§ecek": 7526,
      "ĠonlarÄ±": 7527,
      "Ġalmaya": 7528,
      "Ġbike": 7529,
      "Ġpath": 7530,
      "mited": 7531,
      "Ġpermission": 7532,
      "ĠgÃ¶rmek": 7533,
      "Ġalanlarda": 7534,
      "Ġcluttering": 7535,
      "ĠkarÅŁÄ±laÅŁtÄ±r": 7536,
      "Ġuzman": 7537,
      "ĠInvest": 7538,
      "ĠbÄ±rakarak": 7539,
      "Ġbakmak": 7540,
      "ĠaÃ§Ä±kÃ§a": 7541,
      "Ġmuscle": 7542,
      "Ġcurrently": 7543,
      "ĠkalanlarÄ±": 7544,
      "Ġwinnable": 7545,
      "ĠsonuÃ§lar": 7546,
      "ĠgÃ¶rÃ¼ÅŁecek": 7547,
      "ĠkoÅŁu": 7548,
      "Ġrefer": 7549,
      "ĠTrans": 7550,
      "Ġsistemi": 7551,
      "Ġcram": 7552,
      "dÄ±ktan": 7553,
      "ĠkÄ±sÄ±m": 7554,
      "Ġquitting": 7555,
      "ĠuÃ§uÅŁ": 7556,
      "Ġprovide": 7557,
      "Ġpatient": 7558,
      "Ġstimulating": 7559,
      "Ġmetabol": 7560,
      "Ġbreakfast": 7561,
      "'m": 7562,
      "-h": 7563,
      "622": 7564,
      "632": 7565,
      "944": 7566,
      "ag": 7567,
      "ath": 7568,
      "gili": 7569,
      "ince": 7570,
      "Ġcould": 7571,
      "ante": 7572,
      "Ġfel": 7573,
      "Ġfue": 7574,
      "nded": 7575,
      "ĠanlÄ±yorum": 7576,
      "Ġuyar": 7577,
      "lerdeki": 7578,
      "ĠPhotoshop": 7579,
      "Ġmail": 7580,
      "Ġolay": 7581,
      "Ġolabilirsiniz": 7582,
      "Ġiyidir": 7583,
      "Ġdilden": 7584,
      "Ġilgin": 7585,
      "Ġodaklanmaya": 7586,
      "Ġleaves": 7587,
      "Ġyoldan": 7588,
      "ĠayÄ±rÄ±p": 7589,
      "ĠyÃ¶ntemler": 7590,
      "Ġmentally": 7591,
      "Ġlocations": 7592,
      "ĠseÃ§enekler": 7593,
      "ĠkalÄ±r": 7594,
      "Ġairports": 7595,
      "Ġblame": 7596,
      "melidir": 7597,
      "ĠyarÄ±sÄ±nÄ±": 7598,
      "ĠaltÄ±na": 7599,
      "duktan": 7600,
      "Ġobligation": 7601,
      "-steps": 7602,
      "ĠkayÄ±da": 7603,
      "Ġdopamine": 7604,
      "Ġfueled": 7605,
      "545": 7606,
      "lÃ¼m": 7607,
      "rt": 7608,
      "Ġcen": 7609,
      "Ġpsik": 7610,
      "ĠYÃ¼r": 7611,
      "Ġbeden": 7612,
      "Ġsometimes": 7613,
      "Ġforces": 7614,
      "Ġdayan": 7615,
      "Ġolmaya": 7616,
      "Ġolumlu": 7617,
      "ĠOffer": 7618,
      "ĠzamanÄ±nÄ±": 7619,
      "Ġdoor": 7620,
      "ored": 7621,
      "Ġtrains": 7622,
      "Ġasist": 7623,
      "Ġsong": 7624,
      "ources": 7625,
      "Ġyerin": 7626,
      "ĠbahÃ§enin": 7627,
      "Ġunf": 7628,
      "ĠÃ§alÄ±ÅŁÄ±r": 7629,
      "Ġevden": 7630,
      "Ġdiet": 7631,
      "cektir": 7632,
      "ĠakÄ±cÄ±": 7633,
      "Ġscheduled": 7634,
      "Ġtelefonu": 7635,
      "Ġdistracted": 7636,
      "tikten": 7637,
      "ĠÃ§Ä±kÄ±n": 7638,
      "Ġortaya": 7639,
      "Ġeasiest": 7640,
      "Ġachieving": 7641,
      "Ġmissed": 7642,
      "ĠdÃ¶k": 7643,
      "Ġbilgilerle": 7644,
      "ĠyansÄ±": 7645,
      "sÄ±zlÄ±k": 7646,
      "Ġreviews": 7647,
      "ynam": 7648,
      "Ġspontaneity": 7649,
      "Ġbitire": 7650,
      "ĠodanÄ±zÄ±": 7651,
      "Ġkaydede": 7652,
      "Ãĸncelikle": 7653,
      "Ġoccur": 7654,
      "Ġsebzeler": 7655,
      "Ġdrop": 7656,
      "711": 7657,
      "olu": 7658,
      "sit": 7659,
      "ðŁ": 7660,
      "ndÄ±r": 7661,
      "ereye": 7662,
      "ĠEr": 7663,
      "ĠEff": 7664,
      "iring": 7665,
      "dÄ±ÄŁÄ±n": 7666,
      "Ġfoto": 7667,
      "Ġinside": 7668,
      "Ġsok": 7669,
      "Ġsind": 7670,
      "uÅŁtur": 7671,
      "Ġresult": 7672,
      "Ġanswering": 7673,
      "ĠbuluÅŁtu": 7674,
      "ĠÅŁunu": 7675,
      "cade": 7676,
      "ĠKeli": 7677,
      "Ġyerini": 7678,
      "-break": 7679,
      "ĠiÅŁini": 7680,
      "melisin": 7681,
      "ĠkolaydÄ±r": 7682,
      "malÄ±dÄ±r": 7683,
      "ĠkontrolÃ¼": 7684,
      "ĠmesajÄ±nÄ±zÄ±": 7685,
      "Ġizleyerek": 7686,
      "Ġrahatlat": 7687,
      "Ġtamamlan": 7688,
      "masÄ±dÄ±r": 7689,
      "layÄ±sÄ±yla": 7690,
      "Ġgroups": 7691,
      "Ġkelimesi": 7692,
      "Ġsurround": 7693,
      "dÄ±ÄŁÄ±nÄ±zdan": 7694,
      "ĠgÃ¶sterir": 7695,
      "noon": 7696,
      "ĠyanÄ±na": 7697,
      "Ġvisualize": 7698,
      "ĠihtiyacÄ±": 7699,
      "Ġgidin": 7700,
      "Ġlimited": 7701,
      "ĠboÅŁal": 7702,
      "Ġloved": 7703,
      "Ġstrategy": 7704,
      "Ġchallenge": 7705,
      "Ġrelationships": 7706,
      "Ġbeklemeyin": 7707,
      "Ġbelongs": 7708,
      "Ġphrases": 7709,
      "Ġbeceriler": 7710,
      "Ġobstacles": 7711,
      "Ġpsikoloj": 7712,
      "440": 7713,
      "531": 7714,
      "682": 7715,
      "722": 7716,
      "Tube": 7717,
      "Yap": 7718,
      "ghest": 7719,
      "then": 7720,
      "Ġcup": 7721,
      "ĠDik": 7722,
      "Ġfalling": 7723,
      "Ġgev": 7724,
      "Ġdynam": 7725,
      "Ġbehi": 7726,
      "ĠayÄ±rdÄ±r": 7727,
      "lerek": 7728,
      "lerinin": 7729,
      "Ä±zda": 7730,
      "ĠplanlayÄ±p": 7731,
      "ĠDenizle": 7732,
      "arÄ±nda": 7733,
      "Ġkullanmadan": 7734,
      "ffic": 7735,
      "ĠÃ¶ÄŁrenmektir": 7736,
      "roup": 7737,
      "ĠmesajÄ±": 7738,
      "ĠmesajlaÅŁma": 7739,
      "ĠBaÅŁlamak": 7740,
      "Ġihtimal": 7741,
      "Ġkalkmak": 7742,
      "Ġalabilirsiniz": 7743,
      "ĠÃ¶zelliÄŁini": 7744,
      "ĠyÃ¼kÃ¼": 7745,
      "ĠpaylaÅŁarak": 7746,
      "ĠgÃ¶stermek": 7747,
      "abilecek": 7748,
      "ĠvÃ¼cudunu": 7749,
      "ĠyaÅŁama": 7750,
      "ĠYatak": 7751,
      "ĠkurallarÄ±": 7752,
      "important": 7753,
      "Ġzihn": 7754,
      "ĠHaftada": 7755,
      "Ġpromise": 7756,
      "Ġdishes": 7757,
      "Ġyetene": 7758,
      "Ġekipman": 7759,
      "Ġpromote": 7760,
      "ĠEffective": 7761,
      "Ġbehind": 7762,
      "445": 7763,
      "582": 7764,
      "546": 7765,
      "747": 7766,
      "840": 7767,
      "lili": 7768,
      "Ġlam": 7769,
      "Ġpan": 7770,
      "Ġkick": 7771,
      "used": 7772,
      "ĠDuyg": 7773,
      "Ġwere": 7774,
      "ĠeÄŁer": 7775,
      "ÄŁunuzu": 7776,
      "ĠSlow": 7777,
      "Ġreci": 7778,
      "ĠadÄ±mdan": 7779,
      "Ġori": 7780,
      "ĠÃ¶nerebilirim": 7781,
      "Ġuygulaman": 7782,
      "ĠkaÃ§Ä±nÄ±": 7783,
      "ĠcÃ¼mleleri": 7784,
      "Ġitself": 7785,
      "Ġsorunuz": 7786,
      "Ġgear": 7787,
      "ĠÃ§ekmeyi": 7788,
      "ĠÃ§ektirecek": 7789,
      "oken": 7790,
      "Ġokuyarak": 7791,
      "Ġsaatinizi": 7792,
      "ĠÃ§alÄ±ÅŁmayÄ±n": 7793,
      "Ġpausing": 7794,
      "Ä±narak": 7795,
      "ĠgÃ¼ve": 7796,
      "Ġkurt": 7797,
      "Ġswap": 7798,
      "Ġrooms": 7799,
      "ĠÅŁeker": 7800,
      "Ġortalama": 7801,
      "Ġhissetme": 7802,
      "Åŀu": 7803,
      "ĠmÄ±sÄ±nÄ±z": 7804,
      "Ġstresini": 7805,
      "Ġcycles": 7806,
      "Ġlimiting": 7807,
      "ĠbaÅŁlarsanÄ±z": 7808,
      "Ġpurcha": 7809,
      "ĠgereÄŁi": 7810,
      "ĠSÄ±fÄ±r": 7811,
      "Ġencoura": 7812,
      "Ġwindows": 7813,
      "Ġtablet": 7814,
      "Ġtatmin": 7815,
      "ublic": 7816,
      "Ġpreparing": 7817,
      "Ġconscious": 7818,
      "Ġsprints": 7819,
      "Ġdilerim": 7820,
      "Ġstrengthen": 7821,
      "522": 7822,
      "782": 7823,
      "No": 7824,
      "ilet": 7825,
      "ket": 7826,
      "oices": 7827,
      "incisi": 7828,
      "Ġpublic": 7829,
      "Ġtep": 7830,
      "Ġkuma": 7831,
      "Ġfund": 7832,
      "ĠBana": 7833,
      "ĠBilg": 7834,
      "ĠGroup": 7835,
      "Ġonlara": 7836,
      "Ġhaz": 7837,
      "usunda": 7838,
      "Ġbeginners": 7839,
      "Ġmas": 7840,
      "Ġexci": 7841,
      "raffic": 7842,
      "Ġilham": 7843,
      "Ġtuttu": 7844,
      "ĠseÃ§melisiniz": 7845,
      "ĠiÅŁinize": 7846,
      "Ġsaatine": 7847,
      "ĠÃ§alÄ±ÅŁÄ±rken": 7848,
      "Ġpace": 7849,
      "Ġhighest": 7850,
      "ĠdeÄŁilse": 7851,
      "ĠayÄ±rmak": 7852,
      "ĠmesajlarÄ±": 7853,
      "Ġdiscover": 7854,
      "ĠpratiÄŁi": 7855,
      "ĠaÃ§Ä±klayÄ±n": 7856,
      "ĠdÃ¶ne": 7857,
      "Ġdefa": 7858,
      "ebilirsin": 7859,
      "lerinizle": 7860,
      "ĠSessiz": 7861,
      "Ä±lacak": 7862,
      "ĠaÅŁmak": 7863,
      "ĠadÄ±na": 7864,
      "Ġalternatif": 7865,
      "ĠElbette": 7866,
      "ĠkolaylaÅŁtÄ±racak": 7867,
      "Ġseninle": 7868,
      "-traffic": 7869,
      "Ġaltyap": 7870,
      "Ġhikayeler": 7871,
      "Ġbank": 7872,
      "Ġadapt": 7873,
      "ĠExpress": 7874,
      "Ġbazen": 7875,
      "Ġpatterns": 7876,
      "1120": 7877,
      "419": 7878,
      "611": 7879,
      "aÄŁÄ±": 7880,
      "dim": 7881,
      "how": 7882,
      "lisiniz": 7883,
      "olo": 7884,
      "tra": 7885,
      "ture": 7886,
      "why": 7887,
      "Ġpage": 7888,
      "Ġkart": 7889,
      "ĠEski": 7890,
      "oru": 7891,
      "Ġworth": 7892,
      "ĠBen": 7893,
      "ĠdÃ¼nya": 7894,
      "aket": 7895,
      "Ġdesc": 7896,
      "ĠMÃ¼": 7897,
      "ĠyapÄ±ÅŁtÄ±r": 7898,
      "ĠOften": 7899,
      "yormuÅŁ": 7900,
      "1000": 7901,
      "terek": 7902,
      "ator": 7903,
      "1200": 7904,
      "Ġburada": 7905,
      "enize": 7906,
      "ĠyerleÅŁ": 7907,
      "bile": 7908,
      "ĠaralÄ±": 7909,
      "ems": 7910,
      "Ġhedefiniz": 7911,
      "ĠhedeflediÄŁiniz": 7912,
      "selves": 7913,
      "ĠiÅŁlerini": 7914,
      "ĠpiÅŁirin": 7915,
      "Ġdirek": 7916,
      "Ġafternoon": 7917,
      "Ġelsewhere": 7918,
      "Ġcausing": 7919,
      "ĠsÄ±kÄ±l": 7920,
      "leÅŁtirir": 7921,
      "leÅŁtirilmiÅŁ": 7922,
      "ĠÃ¶nler": 7923,
      "Ġdikk": 7924,
      "ĠAlso": 7925,
      "ĠyemeÄŁini": 7926,
      "Ġtarihi": 7927,
      "Ġuyumak": 7928,
      "Ġperfectionism": 7929,
      "ĠanlaÅŁÄ±l": 7930,
      "ĠtarafÄ±n": 7931,
      "Ġheading": 7932,
      "Ġvaluable": 7933,
      "Ġdeleg": 7934,
      "Ġtouch": 7935,
      "ĠYemek": 7936,
      "ĠTranslate": 7937,
      "940": 7938,
      "front": 7939,
      "ilebilir": 7940,
      "Ġ/": 7941,
      "ĠðŁ": 7942,
      "ĠDed": 7943,
      "ved": 7944,
      "Ġheart": 7945,
      "graf": 7946,
      "Ġez": 7947,
      "action": 7948,
      "ĠmÃ¼zik": 7949,
      "Ġmotive": 7950,
      "ĠverdiÄŁiniz": 7951,
      "lerseniz": 7952,
      "ĠadÄ±mlara": 7953,
      "ĠanlamÄ±na": 7954,
      "malara": 7955,
      "Ã¼rken": 7956,
      "Ġalloc": 7957,
      "ĠdakikasÄ±": 7958,
      "ĠdoÄŁum": 7959,
      "Ġwall": 7960,
      "Ġdue": 7961,
      "Ġdistracting": 7962,
      "ĠalanÄ±nÄ±": 7963,
      "Ġdetour": 7964,
      "ĠkarÅŁÄ±lÄ±k": 7965,
      "Ġdarkness": 7966,
      "Ġayarla": 7967,
      "ĠbakÄ±m": 7968,
      "Ġkelimesini": 7969,
      "Ġharc": 7970,
      "Ġseviye": 7971,
      "ĠeÄŁit": 7972,
      "Ġmusunuz": 7973,
      "Ġregarding": 7974,
      "Ġagainst": 7975,
      "Ġsessizce": 7976,
      "Ġkaydederek": 7977,
      "Ġagree": 7978,
      "Ġbaskets": 7979,
      "ĠolduÄŁunuzda": 7980,
      "comfort": 7981,
      "Ġbright": 7982,
      "ĠÄ°stediÄŁiniz": 7983,
      "Ġtemptation": 7984,
      "ï¸ıâ": 7985,
      "ĠDedicate": 7986,
      "746": 7987,
      "cÃ¼k": 7988,
      "ĥ£": 7989,
      "Ġcut": 7990,
      "Ġcell": 7991,
      "Ġcard": 7992,
      "Ġbana": 7993,
      "tep": 7994,
      "ĠYouTube": 7995,
      "Ġfer": 7996,
      "Ġfly": 7997,
      "Ġinf": 7998,
      "liyor": 7999,
      "Ġkonunun": 8000,
      "ĠÃ¶neriyle": 8001,
      "ĠÃ§im": 8002,
      "ĠzorlanÄ±yorsanÄ±z": 8003,
      "ĠkayÄ±tlarda": 8004,
      "ĠdolaÅŁ": 8005,
      "ĠdeÄŁiÅŁtirin": 8006,
      "141": 8007,
      "Ġmay": 8008,
      "Ã¼rÃ¼l": 8009,
      "Ġtraffic": 8010,
      "Ġbelirsiz": 8011,
      "ĠyÃ¼zÃ¼": 8012,
      "Ġtutar": 8013,
      "ĠtutarlÄ±": 8014,
      "Ġoturarak": 8015,
      "Ġkullanma": 8016,
      "tÄ±lmÄ±ÅŁ": 8017,
      "Ġkomp": 8018,
      "Ġwalks": 8019,
      "Ġedersiniz": 8020,
      "ĠWhere": 8021,
      "ĠgeÃ§ici": 8022,
      ":**Ċ": 8023,
      "Ġapply": 8024,
      "Ġfixing": 8025,
      "Ġyatarken": 8026,
      "leyece": 8027,
      "Ġsunabilirim": 8028,
      "Ġterms": 8029,
      "1180": 8030,
      "Ġyoludur": 8031,
      "Ġcircle": 8032,
      "Ġgerektiren": 8033,
      "Ġbaggage": 8034,
      "ĠSleeping": 8035,
      "ĠkolaylaÅŁÄ±r": 8036,
      "Ġfilm": 8037,
      "ĠdÃ¶nÃ¼ÅŁtÃ¼r": 8038,
      "ĠhatÄ±rlatÄ±n": 8039,
      "Ġbilimsel": 8040,
      "Ġexclus": 8041,
      "Ġpatience": 8042,
      "Ġrepeatedly": 8043,
      "ĠÃĸzellikle": 8044,
      "ĠDÃ¼zenli": 8045,
      "Ġfloor": 8046,
      "Ġcenter": 8047,
      "Ġsurroundings": 8048,
      "ï¸ıâĥ£": 8049,
      "540": 8050,
      "640": 8051,
      "960": 8052,
      "945": 8053,
      "bri": 8054,
      "put": 8055,
      "Ġcap": 8056,
      "enda": 8057,
      "Ġsm": 8058,
      "Ġbuna": 8059,
      "ants": 8060,
      "Ġtoilet": 8061,
      "ilim": 8062,
      "Ġfakt": 8063,
      "ĠBilgi": 8064,
      "mekle": 8065,
      "Ġuyul": 8066,
      "Ġsaves": 8067,
      "eyle": 8068,
      "Ġmanz": 8069,
      "1300": 8070,
      "Ġspoken": 8071,
      "emiz": 8072,
      "ĠkullanmanÄ±z": 8073,
      "ĠsaÄŁlayabilirsiniz": 8074,
      "ĠalÄ±ÅŁkanlÄ±klarÄ±": 8075,
      "Ġmotivasyonunuzu": 8076,
      "Ġpeace": 8077,
      "weight": 8078,
      "ĠtadÄ±": 8079,
      "Ġhedeflerin": 8080,
      "Ġhafifle": 8081,
      "Ġunexpectedly": 8082,
      "ĠartÄ±rmak": 8083,
      "Ã¼nÃ¼zde": 8084,
      "ĠyaklaÅŁÄ±k": 8085,
      "Ġgiderek": 8086,
      "ĠdoÄŁrult": 8087,
      "ĠbaÅŁlarsÄ±nÄ±z": 8088,
      "ĠClean": 8089,
      "Ġrequirements": 8090,
      "ĠsÄ±rayla": 8091,
      "ĠeÄŁitim": 8092,
      "ĠkÃ¼tÃ¼phane": 8093,
      "Ġelectronic": 8094,
      "Ġsituations": 8095,
      "Ġstacking": 8096,
      "ĠGenellikle": 8097,
      "Ġtencere": 8098,
      "Ġinspi": 8099,
      "Ġdescri": 8100,
      "Ġdirekt": 8101,
      "Ġexclusively": 8102,
      "544": 8103,
      "647": 8104,
      "721": 8105,
      "745": 8106,
      "918": 8107,
      "Make": 8108,
      "ho": 8109,
      "ix": 8110,
      "ucu": 8111,
      "wor": 8112,
      "Ġcities": 8113,
      "Ġtech": 8114,
      "Ġbacak": 8115,
      "Ġcop": 8116,
      "mayacak": 8117,
      "Ġfight": 8118,
      "Ġinstru": 8119,
      "ĠAt": 8120,
      "Ġdemektir": 8121,
      "ĠÃ§alÄ±": 8122,
      "ĠkaÃ§Ä±r": 8123,
      "Ġvict": 8124,
      "Ġaccu": 8125,
      "ganize": 8126,
      "lenmesi": 8127,
      "ĠtoplamÄ±": 8128,
      "Ġlay": 8129,
      "ĠdÃ¼zeniyle": 8130,
      "tÄ±ÄŁÄ±": 8131,
      "zeti": 8132,
      "bileceÄŁinizi": 8133,
      "ĠgÃ¼c": 8134,
      "Ġdenize": 8135,
      "Ġstuff": 8136,
      "ĠyanÄ±nda": 8137,
      "ĠÃ§Ä±kan": 8138,
      "ĠdÃ¼ÅŁÃ¼nme": 8139,
      "Ġstressful": 8140,
      "Ġefforts": 8141,
      "Ãĸz": 8142,
      "tirebilir": 8143,
      "Ġagenda": 8144,
      "ĠAlÄ±ÅŁkanlÄ±klarÄ±": 8145,
      "Ġbags": 8146,
      "Ġreminder": 8147,
      "Ġgrows": 8148,
      "ĠkÃ¶ÅŁ": 8149,
      "coming": 8150,
      "Ġhydration": 8151,
      "-step": 8152,
      "Ġappreciation": 8153,
      "Ġsuyunu": 8154,
      "Ġbelirtirseniz": 8155,
      "Ġobserv": 8156,
      "Ġmeyve": 8157,
      "Ġimpulsively": 8158,
      "Ġkurtul": 8159,
      "-verbal": 8160,
      "350": 8161,
      "511": 8162,
      "581": 8163,
      "566": 8164,
      "631": 8165,
      "740": 8166,
      "KÄ±sa": 8167,
      "kar": 8168,
      "lÄ±n": 8169,
      "tiniz": 8170,
      "tinde": 8171,
      "rely": 8172,
      "Ġbildir": 8173,
      "ĠDe": 8174,
      "itting": 8175,
      "hazÄ±r": 8176,
      "ĠdanÄ±ÅŁ": 8177,
      "ĠAdÄ±m": 8178,
      "ĠList": 8179,
      "Ġvere": 8180,
      "ĠyapmanÄ±zÄ±": 8181,
      "ahmin": 8182,
      "Ġleg": 8183,
      "Ġchoices": 8184,
      "ayarak": 8185,
      "Ġfeet": 8186,
      "ĠkaldÄ±": 8187,
      "care": 8188,
      "Ġbelirten": 8189,
      "Ġarm": 8190,
      "Ġgetirme": 8191,
      "ĠseÃ§tiÄŁiniz": 8192,
      "Ġgiden": 8193,
      "Ġunrelated": 8194,
      "Ġuykuyu": 8195,
      "ĠWell": 8196,
      "bileceÄŁin": 8197,
      "Ġkurma": 8198,
      "Ġgerektirme": 8199,
      "Ġgereksin": 8200,
      "Ġelinize": 8201,
      "Ġekra": 8202,
      "Ġtaki": 8203,
      "alarÄ±na": 8204,
      "ĠkarÅŁÄ±sÄ±nda": 8205,
      "ĠakÅŁamÄ±": 8206,
      "ĠayardÄ±": 8207,
      "ĠbakÄ±ÅŁ": 8208,
      "Ġenvironmental": 8209,
      "ĠsÄ±kÄ±ÅŁ": 8210,
      "leyelim": 8211,
      "Ġparlak": 8212,
      "ĠbÃ¶lerek": 8213,
      "ukarÄ±": 8214,
      "Ġmethods": 8215,
      "Ġcarefully": 8216,
      "Ġedebi": 8217,
      "Ġsabitleyin": 8218,
      "ĠÃ§izgi": 8219,
      "ĠnumarasÄ±nÄ±z": 8220,
      "ĠkÃ¶k": 8221,
      "Ġzihinsel": 8222,
      "Ġbarriers": 8223,
      "lmÄ±ÅŁtÄ±r": 8224,
      "ĠiliÅŁk": 8225,
      "ĠkullanÄ±mÄ±nÄ±": 8226,
      "Ġnutriti": 8227,
      "Ġsenaryo": 8228,
      "Ġsunuyorum": 8229,
      "Ġstruggle": 8230,
      "ĠfaktÃ¶r": 8231,
      "ĠdoÄŁrultusunda": 8232,
      "946": 8233,
      "Pick": 8234,
      "down": 8235,
      "plan": 8236,
      "ulation": 8237,
      "velo": 8238,
      "Ġhearing": 8239,
      "ĠTid": 8240,
      "ĠTaking": 8241,
      "ĠAM": 8242,
      "Ġanah": 8243,
      "larken": 8244,
      "ĠzamanÄ±n": 8245,
      "1500": 8246,
      "dif": 8247,
      "ĠplanlanmÄ±ÅŁ": 8248,
      "ĠplanlÄ±yor": 8249,
      "Ġmara": 8250,
      "Ġlink": 8251,
      "Ġhobi": 8252,
      "medik": 8253,
      "ĠartÄ±rarak": 8254,
      "Ġupfront": 8255,
      "ĠalÄ±m": 8256,
      "ĠiÅŁlerinizi": 8257,
      "ĠWa": 8258,
      "ĠyaÅŁamÄ±": 8259,
      "Ġilerleyebilirsiniz": 8260,
      "ĠÃ§Ä±kÄ±ÅŁ": 8261,
      "ĠbaÅŁlayabileceÄŁiniz": 8262,
      "ĠolanlarÄ±": 8263,
      "ĠalanÄ±nÄ±za": 8264,
      "ĠkapÄ±": 8265,
      "Ġyakala": 8266,
      "Ġstressed": 8267,
      "ĠÃĩev": 8268,
      "Ġharf": 8269,
      "Ġenerjisini": 8270,
      "Ġlooks": 8271,
      "ĠÃĸÄŁrenmeyi": 8272,
      "Ġachievement": 8273,
      "ĠUykuya": 8274,
      "Ġalarms": 8275,
      "Ġprocrastin": 8276,
      "Ġcontainer": 8277,
      "Ġassump": 8278,
      "Ġtekniklerini": 8279,
      "Ġkazanmak": 8280,
      "Ġsessizlik": 8281,
      "ĠsÃ¼recin": 8282,
      "tÄ±rabilir": 8283,
      "ĠiliÅŁki": 8284,
      "ĠkaÃ§Ä±nmak": 8285,
      "Ġsounding": 8286,
      "ĠbardaÄŁÄ±": 8287,
      "ĠaydÄ±nlatma": 8288,
      "Ġfamily": 8289,
      "ĠÃ§Ä±kara": 8290,
      "Ġinteresting": 8291,
      "ĠgÃ¶ÄŁÃ¼s": 8292,
      "Ġsmooth": 8293,
      "ĠkeÅŁfedin": 8294,
      "Ġefficiently": 8295,
      "Ġincreasing": 8296,
      "repare": 8297,
      "-hour": 8298,
      "Ġnutritious": 8299,
      "-habit": 8300,
      "396": 8301,
      "ada": 8302,
      "yna": 8303,
      "Ġ[": 8304,
      "Ġcam": 8305,
      "tial": 8306,
      "tely": 8307,
      "orba": 8308,
      "Ġila": 8309,
      "ural": 8310,
      "mamak": 8311,
      "yÄ±z": 8312,
      "Ġgems": 8313,
      "yak": 8314,
      "Ġinvite": 8315,
      "Ġstory": 8316,
      "ĠAÅŁ": 8317,
      "Ġza": 8318,
      "amiliar": 8319,
      "Ã¼ksek": 8320,
      "ĠuyarÄ±": 8321,
      "Ġabroad": 8322,
      "1034": 8323,
      "Ġseeing": 8324,
      "1400": 8325,
      "Ġmakine": 8326,
      "ĠayarÄ±": 8327,
      "Ġintern": 8328,
      "ĠdÃ¼zeninde": 8329,
      "layalÄ±m": 8330,
      "iliyor": 8331,
      "Ġdurumlarda": 8332,
      "Ġertesi": 8333,
      "erece": 8334,
      "Ġdenges": 8335,
      "ĠkonuÅŁarak": 8336,
      "Ġspeed": 8337,
      "ĠÃ§Ä±karÄ±": 8338,
      "Ġlightweight": 8339,
      "Ġmesajda": 8340,
      "Ġtemizlemek": 8341,
      "bilg": 8342,
      "ĠAddition": 8343,
      "Ġgirmeden": 8344,
      "ĠÃ§ekici": 8345,
      "ĠortamÄ±": 8346,
      "Ġobj": 8347,
      "ĠgÃ¶rÃ¼nen": 8348,
      "tirebilirsiniz": 8349,
      "ĠkaÄŁÄ±dÄ±": 8350,
      "Ġgrounding": 8351,
      "ĠÃ¼zerindeki": 8352,
      "Ġmodel": 8353,
      "Ġlisteleyin": 8354,
      "ĠuyumayÄ±": 8355,
      "ĠsÄ±nÄ±rlÄ±": 8356,
      "Ġchaos": 8357,
      "Ġcolle": 8358,
      "Ġkenar": 8359,
      "Ġaccountability": 8360,
      "Ġtuvalet": 8361,
      "Ġyiyecek": 8362,
      "kalem": 8363,
      "Ġunfamiliar": 8364,
      "Ġsindirim": 8365,
      "Ġdikkate": 8366,
      "Ġdetours": 8367,
      "Ġmarath": 8368,
      "Ġassumptions": 8369,
      "ĠAdditionally": 8370,
      "-care": 8371,
      "318": 8372,
      "319": 8373,
      "370": 8374,
      "521": 8375,
      "731": 8376,
      "947": 8377,
      "lge": 8378,
      "onda": 8379,
      "van": 8380,
      "Ġsar": 8381,
      "Ġski": 8382,
      "Ġbot": 8383,
      "Ġkum": 8384,
      "kiÅŁ": 8385,
      "ĠGreat": 8386,
      "Ġhay": 8387,
      "lerinizde": 8388,
      "Ġsix": 8389,
      "ĠRut": 8390,
      "1384": 8391,
      "1600": 8392,
      "ondan": 8393,
      "ĠÃ¶ÄŁret": 8394,
      "Ġbelirleyebilirsiniz": 8395,
      "242": 8396,
      "Ġgidiyor": 8397,
      "miyor": 8398,
      "Ġedici": 8399,
      "ĠkaydÄ±r": 8400,
      "ĠodaklanmÄ±ÅŁ": 8401,
      "Ġkurg": 8402,
      "Ġrestore": 8403,
      "Ġdeniz": 8404,
      "Ġelb": 8405,
      "Ġekleme": 8406,
      "ĠalanÄ±na": 8407,
      "ĠdÃ¼ÅŁÃ¼nelim": 8408,
      "Ġfig": 8409,
      "ĠyarÄ±m": 8410,
      "Ġdisag": 8411,
      "Ġbeklet": 8412,
      "Ġizleme": 8413,
      "ĠgÃ¶revlerin": 8414,
      "ĠsÄ±kÄ±": 8415,
      "oughly": 8416,
      "ĠbÃ¶lÃ¼": 8417,
      "Ġenerjisi": 8418,
      "ĠUyk": 8419,
      "Ãĸrn": 8420,
      "Ġdriven": 8421,
      "ĠEvde": 8422,
      "ĠgÃ¶ndermek": 8423,
      "Ġkaba": 8424,
      "ĠdÃ¼zenlemeye": 8425,
      "Ġkoyup": 8426,
      "ĠsÃ¼recinde": 8427,
      "Ġname": 8428,
      "Ġhavuzu": 8429,
      "ĠyarÄ±sÄ±": 8430,
      "Ġplatfor": 8431,
      "ĠSÄ±cak": 8432,
      "Ġmatch": 8433,
      "Ġkaydetmek": 8434,
      "ĠnoktalarÄ±": 8435,
      "ĠetkinliÄŁi": 8436,
      "Ġtonunu": 8437,
      "ĠÃ§eviri": 8438,
      "ĠoluÅŁturarak": 8439,
      "Hedef": 8440,
      "Ġdisagree": 8441,
      "1130": 8442,
      "460": 8443,
      "470": 8444,
      "621": 8445,
      "644": 8446,
      "744": 8447,
      "bah": 8448,
      "ih": 8449,
      "any": 8450,
      "ancing": 8451,
      "deep": 8452,
      "ouble": 8453,
      "rative": 8454,
      "tegor": 8455,
      "ĠEy": 8456,
      "ĠAÅŁaÄŁÄ±": 8457,
      "Ġkategor": 8458,
      "Ġrelease": 8459,
      "larÄ±m": 8460,
      "sting": 8461,
      "Ġneye": 8462,
      "ĠyapmayÄ±n": 8463,
      "ĠsayÄ±n": 8464,
      "ĠPrepare": 8465,
      "Ġbeginning": 8466,
      "ĠdeÄŁiÅŁir": 8467,
      "Ġspir": 8468,
      "ĠÅŁef": 8469,
      "ĠÃ¶ÄŁlen": 8470,
      "Ġkalmaya": 8471,
      "Ġtracking": 8472,
      "lenir": 8473,
      "Ġboard": 8474,
      "anÄ±za": 8475,
      "Ġlaugh": 8476,
      "Ġsettle": 8477,
      "ĠalÄ±rken": 8478,
      "Ġhedefleri": 8479,
      "ording": 8480,
      "Ġoutdo": 8481,
      "Ã¼rekli": 8482,
      "ĠiÅŁlerin": 8483,
      "Ġpages": 8484,
      "ĠhÄ±zlandÄ±": 8485,
      "ĠduyarlÄ±": 8486,
      "Ġvisits": 8487,
      "ĠÅŁunlar": 8488,
      "Ä±lÄ±m": 8489,
      "Ġmisin": 8490,
      "Ġyoktur": 8491,
      "ĠThey": 8492,
      "ĠÅŀehir": 8493,
      "beti": 8494,
      "Ġilerlemeler": 8495,
      "ĠuyanÄ±nca": 8496,
      "Ġedilen": 8497,
      "Ġinitiative": 8498,
      "ĠsÃ¶yle": 8499,
      "Ġsepara": 8500,
      "Ġroad": 8501,
      "ĠaydÄ±nla": 8502,
      "Ġchats": 8503,
      "Ġzihni": 8504,
      "Ġpicture": 8505,
      "Ġforced": 8506,
      "Ġrecomm": 8507,
      "ĠbaÅŁlÄ±yorsanÄ±z": 8508,
      "ĠduyduÄŁun": 8509,
      "Ġhydrated": 8510,
      "Ġyuvar": 8511,
      "ĠcevabÄ±": 8512,
      "ĠKahvaltÄ±": 8513,
      "ĠfotoÄŁrafÃ§Ä±lÄ±k": 8514,
      "cadele": 8515,
      "Ġferah": 8516,
      "08": 8517,
      "390": 8518,
      "650": 8519,
      "645": 8520,
      "770": 8521,
      "781": 8522,
      ">Ċ": 8523,
      "Fi": 8524,
      "ring": 8525,
      "teÅŁ": 8526,
      "ĠDolayÄ±sÄ±yla": 8527,
      "ably": 8528,
      "ĠanlarÄ±": 8529,
      "ĠGer": 8530,
      "Ġthir": 8531,
      "Ġmoder": 8532,
      "Ġhaber": 8533,
      "lÄ±ÄŁÄ±nÄ±z": 8534,
      "lÄ±ÄŁa": 8535,
      "lamanÄ±zÄ±": 8536,
      "1016": 8537,
      "1084": 8538,
      "1085": 8539,
      "**.Ċ": 8540,
      "ĠyazdÄ±ÄŁÄ±nÄ±z": 8541,
      "Ġvac": 8542,
      "1280": 8543,
      "Ġcharge": 8544,
      "suna": 8545,
      "ĠanlamlÄ±": 8546,
      "Ä±rsÄ±nÄ±z": 8547,
      "enizin": 8548,
      "giene": 8549,
      "Ġsuit": 8550,
      "Ġbelirgin": 8551,
      "Ġbiber": 8552,
      "sinde": 8553,
      "Ġgidece": 8554,
      "Ġthemselves": 8555,
      "ĠkullanÄ±p": 8556,
      "ÄŁinde": 8557,
      "Ġkayd": 8558,
      "comm": 8559,
      "ĠkuralÄ±": 8560,
      "ĠSabahÄ±": 8561,
      "Ġekle": 8562,
      "Ġokun": 8563,
      "earching": 8564,
      "ĠprogramÄ±nÄ±": 8565,
      "ĠEvdeki": 8566,
      "ĠvÃ¼cudu": 8567,
      "Ġcountry": 8568,
      "ĠRespect": 8569,
      "noloj": 8570,
      "Ġoturun": 8571,
      "ĠkiÅŁiyi": 8572,
      "Ġrefresh": 8573,
      "ĠÃ§evren": 8574,
      "ĠvÃ¼cudunuza": 8575,
      "Ġdefterine": 8576,
      "Ġhygiene": 8577,
      "Ġhesaplama": 8578,
      "ĠÃ¶lÃ§Ã¼n": 8579,
      "ĠiÅŁlev": 8580,
      "ĠBaÅŁarÄ±lÄ±": 8581,
      "ĠÄ°ÅŁte": 8582,
      "ĠiliÅŁkiler": 8583,
      "gencies": 8584,
      "Ġsounds": 8585,
      "Ġemergencies": 8586,
      "Ġchargers": 8587,
      "Ġwillingness": 8588,
      "ĠGÃ¶revlerinizi": 8589,
      "Ġseviyenize": 8590,
      "ĠOkuma": 8591,
      "Ġencourages": 8592,
      "Ġtoiletries": 8593,
      "Ġinternation": 8594,
      "Ġelbise": 8595,
      "-at": 8596,
      "-val": 8597,
      "1100": 8598,
      "290": 8599,
      "519": 8600,
      "547": 8601,
      "594": 8602,
      "577": 8603,
      "695": 8604,
      "796": 8605,
      "bre": 8606,
      "case": 8607,
      "hum": 8608,
      "ials": 8609,
      "niz": 8610,
      "rit": 8611,
      "roc": 8612,
      "urable": 8613,
      "isk": 8614,
      "inle": 8615,
      "ĠkÃ¼Ã§": 8616,
      "aris": 8617,
      "Ã§ok": 8618,
      "lations": 8619,
      "Ġfront": 8620,
      "Ġstreak": 8621,
      "Ġstories": 8622,
      "Ġkare": 8623,
      "ĠyatÄ±p": 8624,
      "Ġforg": 8625,
      "ĠyapacaÄŁÄ±nÄ±z": 8626,
      "Ġresearching": 8627,
      "1030": 8628,
      "1026": 8629,
      "1035": 8630,
      "1089": 8631,
      "Ġleft": 8632,
      "1534": 8633,
      "1224": 8634,
      "Ġmanaging": 8635,
      "1320": 8636,
      "Ġplanlar": 8637,
      "Ġrarely": 8638,
      "Ġtelev": 8639,
      "Ġtran": 8640,
      "Ġkalab": 8641,
      "emi": 8642,
      "Ġinterfer": 8643,
      "clear": 8644,
      "ĠalÄ±ÅŁkanlÄ±ÄŁÄ±nÄ±": 8645,
      "ĠakÄ±l": 8646,
      "Ġdurup": 8647,
      "Ġdistance": 8648,
      "Ġkursu": 8649,
      "Ġelinizi": 8650,
      "resim": 8651,
      "ĠtÃ¼rÃ¼ne": 8652,
      "ĠsorunlarÄ±nÄ±z": 8653,
      "ĠoluÅŁturmaya": 8654,
      "Ġtara": 8655,
      "Ġhedeflere": 8656,
      "ĠHayÄ±r": 8657,
      "?\"Ċ": 8658,
      "Ġkonudaki": 8659,
      "Ġrutine": 8660,
      "ĠparÃ§a": 8661,
      "Ġtelefonunuzdan": 8662,
      "Ġmutluluk": 8663,
      "ĠdÃ¼zenlemeyi": 8664,
      "ĠiÃ§erir": 8665,
      "istics": 8666,
      "Ġaggre": 8667,
      "ĠdeÄŁerlendirin": 8668,
      "Ġengagement": 8669,
      "ĠteÅŁekkÃ¼r": 8670,
      "ĠsÃ¶zlÃ¼k": 8671,
      "ĠgÃ¼Ã§lendirir": 8672,
      "ĠetkileÅŁim": 8673,
      "ĠuÃ§ak": 8674,
      "Ġlogistics": 8675,
      "Ġreflecting": 8676,
      "ĠÃ¶nceliÄŁiniz": 8677,
      "urgent": 8678,
      "visit": 8679,
      "ĠilginÃ§": 8680,
      "ĠKelime": 8681,
      "Ġdynamic": 8682,
      "-value": 8683,
      "Ġaggreg": 8684,
      "595": 8685,
      "690": 8686,
      "670": 8687,
      "643": 8688,
      "Ġisten": 8689,
      "Ġseni": 8690,
      "ĠtÄ±k": 8691,
      "alo": 8692,
      "Ġheps": 8693,
      "Ġzem": 8694,
      "Ġmek": 8695,
      "ĠbaÅŁÄ±": 8696,
      "ĠbaÅŁÄ±ndan": 8697,
      "Ġhass": 8698,
      "Ġissue": 8699,
      "lÄ±ÄŁÄ±nÄ±zÄ±": 8700,
      "Ġside": 8701,
      "Ġzorlama": 8702,
      "1017": 8703,
      "1024": 8704,
      "1524": 8705,
      "1584": 8706,
      "1314": 8707,
      "ĠPrag": 8708,
      "Ġkalkarak": 8709,
      "Ġexha": 8710,
      "Ġsona": 8711,
      "Ġword": 8712,
      "ĠsuÃ§": 8713,
      "Ġoversp": 8714,
      "Ġsorusuna": 8715,
      "ĠFlights": 8716,
      "ĠkullandÄ±ÄŁÄ±nÄ±z": 8717,
      "Ġhedefini": 8718,
      "Ġokuya": 8719,
      "uyun": 8720,
      "ĠBirincisi": 8721,
      "Ġerk": 8722,
      "ĠarayÄ±n": 8723,
      "kkab": 8724,
      "ĠbaÅŁlayanlar": 8725,
      "Ġyararlan": 8726,
      "Ġfollowing": 8727,
      "ĠakÅŁamlarÄ±": 8728,
      "ĠbÄ±rakmayÄ±n": 8729,
      "Ġactual": 8730,
      "Ġsunmak": 8731,
      "ĠbaÅŁarÄ±lÄ±": 8732,
      "ĠbaÅŁarÄ±sÄ±z": 8733,
      "Ġrealis": 8734,
      "ĠgÃ¶steren": 8735,
      "Ġendor": 8736,
      "Ġsohbeti": 8737,
      "Ġyapmam": 8738,
      "ĠkaynaklarÄ±": 8739,
      "ĠanlatÄ±m": 8740,
      "Ġdesignate": 8741,
      "Ġdocument": 8742,
      "ĠaÅŁaÄŁÄ±da": 8743,
      "Ġkavra": 8744,
      "box": 8745,
      "Ġguilty": 8746,
      "Ġvadede": 8747,
      "ĠtÃ¼ke": 8748,
      "Ġgathering": 8749,
      "ĠKonuÅŁma": 8750,
      "Ġrush": 8751,
      "Ġsulama": 8752,
      "Ġcompliments": 8753,
      "Ġdosya": 8754,
      "Ġcountertop": 8755,
      "ĠDikkat": 8756,
      "'ten": 8757,
      "1150": 8758,
      "450": 8759,
      "660": 8760,
      "619": 8761,
      "775": 8762,
      "776": 8763,
      "Son": 8764,
      "Uy": 8765,
      "gÃ¶z": 8766,
      "krar": 8767,
      "po": 8768,
      "isc": 8769,
      "Ä±yorsunuz": 8770,
      "ĠbÃ¶yle": 8771,
      "urther": 8772,
      "ÅŁek": 8773,
      "Ã§ay": 8774,
      "ĠYour": 8775,
      "Ġfurther": 8776,
      "ĠSw": 8777,
      "ither": 8778,
      "Ġinstant": 8779,
      "Ġstre": 8780,
      "Ã¼nÃ¼n": 8781,
      "Ġanlar": 8782,
      "Ġmoves": 8783,
      "Ġneyin": 8784,
      "Ġolman": 8785,
      "ĠyapÄ±mÄ±": 8786,
      "ĠÃ¶neriniz": 8787,
      "ĠzorlaÅŁtÄ±r": 8788,
      "Ġenter": 8789,
      "1020": 8790,
      "1036": 8791,
      "1284": 8792,
      "1234": 8793,
      "neden": 8794,
      "Ġseek": 8795,
      "1325": 8796,
      "1380": 8797,
      "Ġbypass": 8798,
      "1445": 8799,
      "ĠMayayla": 8800,
      "ĠgÃ¶st": 8801,
      "casts": 8802,
      "Ã¼yÃ¼ÅŁ": 8803,
      "inyal": 8804,
      "ĠKar": 8805,
      "Ġkendinizle": 8806,
      "ĠkullandÄ±": 8807,
      "Ġdire": 8808,
      "Ġdile": 8809,
      "ĠBirinci": 8810,
      "arklÄ±": 8811,
      "ĠsaÄŁla": 8812,
      "Ġduran": 8813,
      "Ġadim": 8814,
      "ssions": 8815,
      "ĠdakikasÄ±nÄ±": 8816,
      "Ġease": 8817,
      "Ġuzat": 8818,
      "Ġfolding": 8819,
      "ĠamacÄ±": 8820,
      "Ġdinamik": 8821,
      "Ġhareketlerle": 8822,
      "Ġdera": 8823,
      "Ġopening": 8824,
      "Ġsabr": 8825,
      "masÄ±yla": 8826,
      "Ġbudgeting": 8827,
      "ĠaÃ§Ä±klayÄ±cÄ±": 8828,
      "ĠbaÄŁÄ±m": 8829,
      "ĠyÃ¼rÃ¼menizi": 8830,
      "Ã¼nÃ¼zÃ¼n": 8831,
      "Ġbilgilerin": 8832,
      "Ġendless": 8833,
      "Ġsoruya": 8834,
      "Ġextend": 8835,
      "mezsiniz": 8836,
      "ĠKonuyu": 8837,
      "Ġminimum": 8838,
      "Ġhavuzun": 8839,
      "Ġcorrect": 8840,
      "ĠÃĸnerim": 8841,
      "Ġestablishing": 8842,
      "ĠuygulamalarÄ±nÄ±": 8843,
      "ĠhayatÄ±": 8844,
      "Ġgetirir": 8845,
      "gulama": 8846,
      "Ġprovides": 8847,
      "Ġpattern": 8848,
      "Ġtimers": 8849,
      "Ġaccurate": 8850,
      "Ġlayers": 8851,
      "Ġrealistically": 8852,
      "-S": 8853,
      "-or": 8854,
      "-en": 8855,
      "-go": 8856,
      "397": 8857,
      "576": 8858,
      "543": 8859,
      "681": 8860,
      "819": 8861,
      "996": 8862,
      "igh": 8863,
      "tma": 8864,
      "tÄ±m": 8865,
      "Ġcross": 8866,
      "Ġsinyal": 8867,
      "ssing": 8868,
      "anta": 8869,
      "Ġkop": 8870,
      "ĠyÄ±": 8871,
      "ĠyukarÄ±": 8872,
      "arks": 8873,
      "ĠTwo": 8874,
      "ilendir": 8875,
      "ĠBaz": 8876,
      "izyon": 8877,
      "ĠAra": 8878,
      "Ġkarak": 8879,
      "Ġzaten": 8880,
      "ĠadÄ±mlÄ±": 8881,
      "ĠbaÅŁÄ±nÄ±": 8882,
      "Ġmola": 8883,
      "ĠMix": 8884,
      "Ġabil": 8885,
      "ĠgÃ¼nÃ¼m": 8886,
      "1028": 8887,
      "1086": 8888,
      "ĠHang": 8889,
      "1533": 8890,
      "1230": 8891,
      "1324": 8892,
      "ĠplanlÄ±": 8893,
      "1436": 8894,
      "243": 8895,
      "244": 8896,
      "sinden": 8897,
      "Ġbahsed": 8898,
      "Ġhedefleyerek": 8899,
      "Ġpoten": 8900,
      "ĠgÃ¼lÃ¼m": 8901,
      "ĠÅŁeylerden": 8902,
      "reshed": 8903,
      "Ġlistele": 8904,
      "Ġspeech": 8905,
      "ĠaÃ§Ä±lÄ±": 8906,
      "Ġnefesini": 8907,
      "Ġfinally": 8908,
      "ĠoluÅŁturma": 8909,
      "Ġhissetmeniz": 8910,
      "Ġpressured": 8911,
      "Ġtamamlayarak": 8912,
      "Ġthoughtful": 8913,
      "1140": 8914,
      "elerini": 8915,
      "lÃ¼l": 8916,
      "ebiliriz": 8917,
      "ĠendiÅŁ": 8918,
      "ĠseÃ§enektir": 8919,
      "Ġsohbetler": 8920,
      "Ġminor": 8921,
      "Ġindivi": 8922,
      "Ġreplacement": 8923,
      "Ġmetni": 8924,
      "ĠbÃ¼tÃ¼n": 8925,
      "ĠSorun": 8926,
      "Ġsummarize": 8927,
      "ĠkatÄ±lacak": 8928,
      "ĠAlÄ±ÅŁkanlÄ±klar": 8929,
      "Ġenjoying": 8930,
      "ĠtanÄ±mlayÄ±n": 8931,
      "Ġkaybetmeden": 8932,
      "ĠmantÄ±klÄ±sÄ±": 8933,
      "Ġgeneric": 8934,
      "Ġempath": 8935,
      "Ġremaining": 8936,
      "Ġfamiliar": 8937,
      "Ġobjects": 8938,
      "Ġkoruyarak": 8939,
      "ozisyon": 8940,
      "Ġboyut": 8941,
      "Ġexplore": 8942,
      "ĠsÄ±nÄ±f": 8943,
      "Ġdiscoveries": 8944,
      "ĠEylÃ¼l": 8945,
      "Ġerkenden": 8946,
      "Ġkarakter": 8947,
      "Ġempathy": 8948,
      "'dÄ±r": 8949,
      "418": 8950,
      "550": 8951,
      "575": 8952,
      "646": 8953,
      "790": 8954,
      "750": 8955,
      "818": 8956,
      "HÄ±zlÄ±": 8957,
      "dge": 8958,
      "iÃ§": 8959,
      "ndÄ±": 8960,
      "dÄ±ÄŁÄ±na": 8961,
      "Ġbirinde": 8962,
      "Ġderece": 8963,
      "ĠinÅŁa": 8964,
      "abl": 8965,
      "ĠÃ¶rne": 8966,
      "likten": 8967,
      "1080": 8968,
      "ĠyazÄ±m": 8969,
      "atter": 8970,
      "1525": 8971,
      "1528": 8972,
      "Ġacqu": 8973,
      "1216": 8974,
      "1226": 8975,
      "1227": 8976,
      "Ġsele": 8977,
      "1330": 8978,
      "1327": 8979,
      "1333": 8980,
      "1385": 8981,
      "Ġbuz": 8982,
      "1427": 8983,
      "1485": 8984,
      "ĠeÅŁit": 8985,
      "ĠyerleÅŁtirin": 8986,
      "ĠaranÄ±z": 8987,
      "ĠfotoÄŁrafÃ§": 8988,
      "1116": 8989,
      "anÄ±zÄ±n": 8990,
      "Ġbahse": 8991,
      "ĠseÃ§meye": 8992,
      "olun": 8993,
      "Ġunhe": 8994,
      "ĠÃ§alÄ±ÅŁtÄ±r": 8995,
      "193": 8996,
      "ĠsÃ¼reler": 8997,
      "Ġexplan": 8998,
      "Ġadmin": 8999,
      "Ġfails": 9000,
      "Ġreplying": 9001,
      "Ġilerleyen": 9002,
      "Ġsorununuz": 9003,
      "Ġsens": 9004,
      "ident": 9005,
      "ĠortasÄ±nda": 9006,
      "Ġokur": 9007,
      "ĠbakÄ±p": 9008,
      "Ġconfident": 9009,
      "Ġknows": 9010,
      "leyebilirsin": 9011,
      "ĠÄ±ÅŁÄ±klandÄ±rma": 9012,
      "Ġazaltarak": 9013,
      "Ġcomment": 9014,
[...]
