{
  "version": "1.0",
  "truncation": null,
  "padding": null,
  "added_tokens": [
    {
      "id": 0,
      "content": "<unk>",
      "single_word": false,
      "lstrip": false,
      "rstrip": false,
      "normalized": false,
      "special": true
    },
    {
      "id": 1,
      "content": "<s>",
      "single_word": false,
      "lstrip": false,
      "rstrip": false,
      "normalized": false,
      "special": true
    },
    {
      "id": 2,
      "content": "</s>",
      "single_word": false,
      "lstrip": false,
      "rstrip": false,
      "normalized": false,
      "special": true
    },
    {
      "id": 3,
      "content": "<pad>",
      "single_word": false,
      "lstrip": false,
      "rstrip": false,
      "normalized": false,
      "special": true
    },
    {
      "id": 4,
      "content": "<|system|>",
      "single_word": false,
      "lstrip": false,
      "rstrip": false,
      "normalized": false,
      "special": true
    },
    {
      "id": 5,
      "content": "<|user|>",
      "single_word": false,
      "lstrip": false,
      "rstrip": false,
      "normalized": false,
      "special": true
    },
    {
      "id": 6,
      "content": "<|assistant|>",
      "single_word": false,
      "lstrip": false,
      "rstrip": false,
      "normalized": false,
      "special": true
    },
    {
      "id": 7,
      "content": "<|end|>",
      "single_word": false,
      "lstrip": false,
      "rstrip": false,
      "normalized": false,
      "special": true
    },
    {
      "id": 8,
      "content": "<|code|>",
      "single_word": false,
      "lstrip": false,
      "rstrip": false,
      "normalized": false,
      "special": true
    }
  ],
  "normalizer": null,
  "pre_tokenizer": {
    "type": "ByteLevel",
    "add_prefix_space": false,
    "trim_offsets": true,
    "use_regex": true
  },
  "post_processor": {
    "type": "ByteLevel",
    "add_prefix_space": true,
    "trim_offsets": false,
    "use_regex": true
  },
  "decoder": {
    "type": "ByteLevel",
    "add_prefix_space": true,
    "trim_offsets": true,
    "use_regex": true
  },
  "model": {
    "type": "BPE",
    "dropout": null,
    "unk_token": "<unk>",
    "continuing_subword_prefix": null,
    "end_of_word_suffix": null,
    "fuse_unk": false,
    "byte_fallback": false,
    "ignore_merges": false,
    "vocab": {
      "<unk>": 0,
      "<s>": 1,
      "</s>": 2,
      "<pad>": 3,
      "<|system|>": 4,
      "<|user|>": 5,
      "<|assistant|>": 6,
      "<|end|>": 7,
      "<|code|>": 8,
      "!": 9,
      "\"": 10,
      "#": 11,
      "$": 12,
      "%": 13,
      "&": 14,
      "'": 15,
      "(": 16,
      ")": 17,
      "*": 18,
      "+": 19,
      ",": 20,
      "-": 21,
      ".": 22,
      "/": 23,
      "0": 24,
      "1": 25,
      "2": 26,
      "3": 27,
      "4": 28,
      "5": 29,
      "6": 30,
      "7": 31,
      "8": 32,
      "9": 33,
      ":": 34,
      ";": 35,
      "<": 36,
      "=": 37,
      ">": 38,
      "?": 39,
      "@": 40,
      "A": 41,
      "B": 42,
      "C": 43,
      "D": 44,
      "E": 45,
      "F": 46,
      "G": 47,
      "H": 48,
      "I": 49,
      "J": 50,
      "K": 51,
      "L": 52,
      "M": 53,
      "N": 54,
      "O": 55,
      "P": 56,
      "Q": 57,
      "R": 58,
      "S": 59,
      "T": 60,
      "U": 61,
      "V": 62,
      "W": 63,
      "X": 64,
      "Y": 65,
      "Z": 66,
      "[": 67,
      "\\": 68,
      "]": 69,
      "^": 70,
      "_": 71,
      "`": 72,
      "a": 73,
      "b": 74,
      "c": 75,
      "d": 76,
      "e": 77,
      "f": 78,
      "g": 79,
      "h": 80,
      "i": 81,
      "j": 82,
      "k": 83,
      "l": 84,
      "m": 85,
      "n": 86,
      "o": 87,
      "p": 88,
      "q": 89,
      "r": 90,
      "s": 91,
      "t": 92,
      "u": 93,
      "v": 94,
      "w": 95,
      "x": 96,
      "y": 97,
      "z": 98,
      "{": 99,
      "|": 100,
      "}": 101,
      "~": 102,
      "¡": 103,
      "¢": 104,
      "£": 105,
      "¤": 106,
      "¥": 107,
      "¦": 108,
      "§": 109,
      "¨": 110,
      "©": 111,
      "ª": 112,
      "«": 113,
      "¬": 114,
      "®": 115,
      "¯": 116,
      "°": 117,
      "±": 118,
      "²": 119,
      "³": 120,
      "´": 121,
      "µ": 122,
      "¶": 123,
      "·": 124,
      "¸": 125,
      "¹": 126,
      "º": 127,
      "»": 128,
      "¼": 129,
      "½": 130,
      "¾": 131,
      "¿": 132,
      "À": 133,
      "Á": 134,
      "Â": 135,
      "Ã": 136,
      "Ä": 137,
      "Å": 138,
      "Æ": 139,
      "Ç": 140,
      "È": 141,
      "É": 142,
      "Ê": 143,
      "Ë": 144,
      "Ì": 145,
      "Í": 146,
      "Î": 147,
      "Ï": 148,
      "Ð": 149,
      "Ñ": 150,
      "Ò": 151,
      "Ó": 152,
      "Ô": 153,
      "Õ": 154,
      "Ö": 155,
      "×": 156,
      "Ø": 157,
      "Ù": 158,
      "Ú": 159,
      "Û": 160,
      "Ü": 161,
      "Ý": 162,
      "Þ": 163,
      "ß": 164,
      "à": 165,
      "á": 166,
      "â": 167,
      "ã": 168,
      "ä": 169,
      "å": 170,
      "æ": 171,
      "ç": 172,
      "è": 173,
      "é": 174,
      "ê": 175,
      "ë": 176,
      "ì": 177,
      "í": 178,
      "î": 179,
      "ï": 180,
      "ð": 181,
      "ñ": 182,
      "ò": 183,
      "ó": 184,
      "ô": 185,
      "õ": 186,
      "ö": 187,
      "÷": 188,
      "ø": 189,
      "ù": 190,
      "ú": 191,
      "û": 192,
      "ü": 193,
      "ý": 194,
      "þ": 195,
      "ÿ": 196,
      "Ā": 197,
      "ā": 198,
      "Ă": 199,
      "ă": 200,
      "Ą": 201,
      "ą": 202,
      "Ć": 203,
      "ć": 204,
      "Ĉ": 205,
      "ĉ": 206,
      "Ċ": 207,
      "ċ": 208,
      "Č": 209,
      "č": 210,
      "Ď": 211,
      "ď": 212,
      "Đ": 213,
      "đ": 214,
      "Ē": 215,
      "ē": 216,
      "Ĕ": 217,
      "ĕ": 218,
      "Ė": 219,
      "ė": 220,
      "Ę": 221,
      "ę": 222,
      "Ě": 223,
      "ě": 224,
      "Ĝ": 225,
      "ĝ": 226,
      "Ğ": 227,
      "ğ": 228,
      "Ġ": 229,
      "ġ": 230,
      "Ģ": 231,
      "ģ": 232,
      "Ĥ": 233,
      "ĥ": 234,
      "Ħ": 235,
      "ħ": 236,
      "Ĩ": 237,
      "ĩ": 238,
      "Ī": 239,
      "ī": 240,
      "Ĭ": 241,
      "ĭ": 242,
      "Į": 243,
      "į": 244,
      "İ": 245,
      "ı": 246,
      "Ĳ": 247,
      "ĳ": 248,
      "Ĵ": 249,
      "ĵ": 250,
      "Ķ": 251,
      "ķ": 252,
      "ĸ": 253,
      "Ĺ": 254,
      "ĺ": 255,
      "Ļ": 256,
      "ļ": 257,
      "Ľ": 258,
      "ľ": 259,
      "Ŀ": 260,
      "ŀ": 261,
      "Ł": 262,
      "ł": 263,
      "Ń": 264,
      "ĠĠ": 265,
      "ĠĠĠĠ": 266,
      "Ä±": 267,
      "in": 268,
      "Ġt": 269,
      "er": 270,
      "Ġa": 271,
      "Ġs": 272,
      "Ġb": 273,
      "en": 274,
      "ĠĠĠ": 275,
      "an": 276,
      "or": 277,
      "on": 278,
      "ar": 279,
      "Ġd": 280,
      "ĠĠĠĠĠĠĠĠ": 281,
      "Ġth": 282,
      "ou": 283,
      "Ġi": 284,
      "at": 285,
      "el": 286,
      "re": 287,
      "Ġy": 288,
      "Ġm": 289,
      "Ġh": 290,
      "Ġw": 291,
      "Ġg": 292,
      "le": 293,
      "Ã¼": 294,
      "Ġo": 295,
      "ÅŁ": 296,
      "al": 297,
      "st": 298,
      "Ġc": 299,
      "Ġthe": 300,
      "ir": 301,
      "Ġk": 302,
      "ed": 303,
      "ĠĠĠĠĠĠĠ": 304,
      "Ġf": 305,
      "et": 306,
      "am": 307,
      "il": 308,
      "Ġn": 309,
      "im": 310,
      "ing": 311,
      "ay": 312,
      "un": 313,
      "ÄŁ": 314,
      "es": 315,
      "Ã§": 316,
      "it": 317,
      "as": 318,
      "Ġyou": 319,
      "Ġp": 320,
      "Ġto": 321,
      "ad": 322,
      "..": 323,
      "Ġ'": 324,
      "Ä±n": 325,
      "is": 326,
      "ak": 327,
      "ur": 328,
      "Ġan": 329,
      "om": 330,
      "ve": 331,
      "ce": 332,
      "Ġin": 333,
      "Ġl": 334,
      "Ã¶": 335,
      "ot": 336,
      "ĠI": 337,
      "elf": 338,
      "yor": 339,
      "Ġde": 340,
      "ey": 341,
      "de": 342,
      "Ġ=": 343,
      "ow": 344,
      "um": 345,
      "ac": 346,
      "Ġre": 347,
      "'s": 348,
      "ek": 349,
      "Ġbir": 350,
      "Ġis": 351,
      "Ġof": 352,
      "Ġe": 353,
      "ut": 354,
      "ld": 355,
      "ĠĠĠĠĠĠĠĠĠĠĠ": 356,
      "iz": 357,
      "se": 358,
      "lar": 359,
      "ion": 360,
      "Ä±m": 361,
      "Ġon": 362,
      "ap": 363,
      "Ġ#": 364,
      "Ġv": 365,
      "em": 366,
      "id": 367,
      "ab": 368,
      "Th": 369,
      "ec": 370,
      "ent": 371,
      "Ġand": 372,
      "Ġit": 373,
      "ic": 374,
      "...": 375,
      "ere": 376,
      "ok": 377,
      "--": 378,
      "ll": 379,
      "ĠS": 380,
      "Ġself": 381,
      "Ġ\"": 382,
      "ik": 383,
      "Ä±r": 384,
      "ig": 385,
      "Ġr": 386,
      "Ġbe": 387,
      "od": 388,
      "Ġwh": 389,
      "'t": 390,
      "ĠA": 391,
      "Ġfor": 392,
      "ĠB": 393,
      "iyor": 394,
      "Ġu": 395,
      "Ġthat": 396,
      "ĠÃ§": 397,
      "ah": 398,
      "Ġ0": 399,
      "Ã¼n": 400,
      "ĠĠĠĠĠĠĠĠĠĠĠĠĠĠĠĠ": 401,
      "Ġif": 402,
      "Ġol": 403,
      "Ġdo": 404,
      "ler": 405,
      "Ġst": 406,
      "ĠL": 407,
      "ht": 408,
      "ol": 409,
      "ver": 410,
      "):": 411,
      "Ġme": 412,
      "ame": 413,
      "ul": 414,
      "di": 415,
      "Ġne": 416,
      "Ġnot": 417,
      "Ġ-": 418,
      "ĠC": 419,
      "You": 420,
      "ĠN": 421,
      "ĠÅŁ": 422,
      "out": 423,
      "and": 424,
      "self": 425,
      "th": 426,
      "ma": 427,
      "ly": 428,
      "aÅŁ": 429,
      "ĠD": 430,
      "__": 431,
      "Ä±z": 432,
      "op": 433,
      "Ġha": 434,
      "ch": 435,
      "ĠM": 436,
      "urn": 437,
      "ith": 438,
      "end": 439,
      "one": 440,
      "ile": 441,
      "Ä±k": 442,
      "\"\"": 443,
      "Wh": 444,
      "ĠH": 445,
      "oc": 446,
      "ĠT": 447,
      "ine": 448,
      "00": 449,
      "nd": 450,
      "ue": 451,
      "la": 452,
      "Ġbu": 453,
      "iy": 454,
      "Ġhe": 455,
      "ight": 456,
      "Ġ(": 457,
      "da": 458,
      "Ġar": 459,
      "Ġsh": 460,
      "ell": 461,
      "ri": 462,
      "ĠÃ¶": 463,
      "te": 464,
      "Ä±ÅŁ": 465,
      "Ġdef": 466,
      "ter": 467,
      "Ġwe": 468,
      "ĠĠĠĠĠĠĠĠĠĠĠĠĠĠĠ": 469,
      "Ġwith": 470,
      "Ġret": 471,
      "ust": 472,
      "Ġthis": 473,
      "',": 474,
      "Ä±yor": 475,
      "Ġse": 476,
      "ist": 477,
      "Ġreturn": 478,
      "if": 479,
      "az": 480,
      "us": 481,
      "Ġas": 482,
      "Ġve": 483,
      "ome": 484,
      "()": 485,
      "Ġgo": 486,
      "ass": 487,
      "Ġal": 488,
      "ĠiÃ§": 489,
      "ill": 490,
      "ĠgÃ¶": 491,
      "Ġhave": 492,
      "unu": 493,
      "Ġor": 494,
      "pt": 495,
      "Ġ'\\": 496,
      "ant": 497,
      "ect": 498,
      "Ġwas": 499,
      "yle": 500,
      "ĠG": 501,
      "ack": 502,
      "----": 503,
      "ers": 504,
      "ind": 505,
      "ro": 506,
      "Ġex": 507,
      "Ġyour": 508,
      "Ġkn": 509,
      "ry": 510,
      "ould": 511,
      "aÄŁ": 512,
      "Ġare": 513,
      "Ġyap": 514,
      "Ġcan": 515,
      "ra": 516,
      "'m": 517,
      "._": 518,
      "ĠP": 519,
      "ib": 520,
      "eni": 521,
      "ort": 522,
      "Ġget": 523,
      "iÅŁ": 524,
      "ĠO": 525,
      "Ä±l": 526,
      "Ġj": 527,
      "'re": 528,
      "all": 529,
      "ate": 530,
      "ard": 531,
      "ana": 532,
      "ge": 533,
      "Ã¼z": 534,
      "Ġmy": 535,
      "ĠiÃ§in": 536,
      "os": 537,
      "ĠE": 538,
      "Ġknow": 539,
      "Ġz": 540,
      "ece": 541,
      "ini": 542,
      "art": 543,
      "ode": 544,
      "rom": 545,
      "Ġat": 546,
      "ĠR": 547,
      "ĠdeÄŁ": 548,
      "Ã¼r": 549,
      "ER": 550,
      "Ä°": 551,
      "Ġ->": 552,
      "ĠF": 553,
      "ct": 554,
      "ath": 555,
      "ĠÅŁey": 556,
      "xt": 557,
      "The": 558,
      "Ġsu": 559,
      "Ġher": 560,
      "IN": 561,
      "Ġist": 562,
      "Ġel": 563,
      "ĠW": 564,
      "Ġold": 565,
      "Ġcon": 566,
      "Ġlo": 567,
      "Ġvar": 568,
      "ation": 569,
      "res": 570,
      "Ġch": 571,
      "ip": 572,
      "Ġ_": 573,
      "ĠK": 574,
      "ĠdeÄŁil": 575,
      "ess": 576,
      "Ä±nÄ±": 577,
      "Bu": 578,
      "our": 579,
      "ror": 580,
      "ie": 581,
      "Ġda": 582,
      "Ä±ÄŁ": 583,
      "Ġall": 584,
      "Ġle": 585,
      "Ġmi": 586,
      "Ġ\"\"\"": 587,
      "ike": 588,
      "get": 589,
      "iyorum": 590,
      "AL": 591,
      "Ã¶yle": 592,
      "It": 593,
      "cl": 594,
      "Ġ1": 595,
      "ime": 596,
      "port": 597,
      "Ġab": 598,
      "Ġdon": 599,
      "Ġout": 600,
      "What": 601,
      "Ġwhat": 602,
      "ĠmÄ±": 603,
      "sun": 604,
      "ake": 605,
      "Ġgel": 606,
      "uÄŁ": 607,
      "Ġver": 608,
      "ET": 609,
      "Ġed": 610,
      "Ġet": 611,
      "Ã¼m": 612,
      "ore": 613,
      "Ġup": 614,
      "ink": 615,
      "Ġus": 616,
      "Ġcom": 617,
      "Ã¼ÅŁ": 618,
      "Ġben": 619,
      "eth": 620,
      "ilir": 621,
      "ĠĠĠĠĠĠĠĠĠĠĠĠ": 622,
      "av": 623,
      "Ġun": 624,
      "TER": 625,
      "ta": 626,
      "Ġso": 627,
      "name": 628,
      "Ġjust": 629,
      "Ġen": 630,
      "')": 631,
      "ob": 632,
      "ĠNone": 633,
      "Ġad": 634,
      "Ġfrom": 635,
      "Ġger": 636,
      "pe": 637,
      "ast": 638,
      "uk": 639,
      "Ġhere": 640,
      "uÅŁ": 641,
      "li": 642,
      "he": 643,
      "ase": 644,
      "dan": 645,
      "('": 646,
      "ive": 647,
      "Ġlike": 648,
      "Ġbil": 649,
      "ff": 650,
      "qu": 651,
      "uy": 652,
      "'ll": 653,
      "ult": 654,
      "AT": 655,
      "ize": 656,
      "Ġhim": 657,
      "Ġolm": 658,
      "mek": 659,
      "ki": 660,
      "Ãĩ": 661,
      "Ġev": 662,
      "Ä±nda": 663,
      "Ġwant": 664,
      "Ġte": 665,
      "ĠJ": 666,
      "ple": 667,
      "yi": 668,
      "Ġabout": 669,
      "ally": 670,
      "ti": 671,
      "Ġright": 672,
      "Ġby": 673,
      "ETTER": 674,
      "':": 675,
      "acak": 676,
      "app": 677,
      "ĠLETTER": 678,
      "aya": 679,
      "sin": 680,
      "ise": 681,
      "And": 682,
      "Ã¼k": 683,
      "Ġwill": 684,
      "na": 685,
      "Ġkad": 686,
      "Ġsen": 687,
      "alue": 688,
      "Er": 689,
      "Ġcl": 690,
      "IT": 691,
      "We": 692,
      "sÄ±n": 693,
      "Ġthere": 694,
      "ork": 695,
      "Ġbut": 696,
      "He": 697,
      "Bir": 698,
      "ada": 699,
      "ĠY": 700,
      "aha": 701,
      "Ġdid": 702,
      "Ġsa": 703,
      "Ġthey": 704,
      "den": 705,
      "ĠgÃ¶r": 706,
      "Ben": 707,
      "Ġno": 708,
      "ĠÃ§ok": 709,
      "oth": 710,
      "'d": 711,
      "Ġany": 712,
      "ound": 713,
      "tr": 714,
      "uz": 715,
      "Ġone": 716,
      "ÄŁim": 717,
      "amam": 718,
      "able": 719,
      "Error": 720,
      "larÄ±": 721,
      "Ġpar": 722,
      "Ġim": 723,
      "oug": 724,
      "##": 725,
      "asÄ±": 726,
      "pl": 727,
      "Ġgot": 728,
      "That": 729,
      "Ġson": 730,
      "Åŀ": 731,
      "\",": 732,
      "orm": 733,
      "uc": 734,
      "==": 735,
      "ans": 736,
      "ayÄ±r": 737,
      "--------": 738,
      "ĠbaÅŁ": 739,
      "ĠsÃ¶yle": 740,
      "der": 741,
      "eri": 742,
      "ep": 743,
      "ose": 744,
      "cept": 745,
      "ĠiÅŁ": 746,
      "aman": 747,
      "set": 748,
      "iÃ§": 749,
      "gs": 750,
      "Ġpr": 751,
      "ĠolduÄŁ": 752,
      "Ġhis": 753,
      "ment": 754,
      "vet": 755,
      "Ġthink": 756,
      "ty": 757,
      "ĠĠĠĠĠĠĠĠĠĠĠĠĠĠĠĠĠĠĠ": 758,
      "mak": 759,
      "me": 760,
      "ire": 761,
      "iv": 762,
      "Ġra": 763,
      "Ġsay": 764,
      "ne": 765,
      "ject": 766,
      "ĠV": 767,
      "int": 768,
      "Ä±na": 769,
      "Ġkadar": 770,
      "acaÄŁ": 771,
      "ock": 772,
      "Ġyok": 773,
      "ide": 774,
      "miÅŁ": 775,
      "ure": 776,
      "eden": 777,
      "Ġtr": 778,
      "ong": 779,
      "No": 780,
      "Ġdaha": 781,
      "up": 782,
      "Ġmu": 783,
      "Ġkal": 784,
      "Ġname": 785,
      "af": 786,
      "Ġ2": 787,
      "edi": 788,
      "ick": 789,
      "ang": 790,
      "Ġsp": 791,
      "Ġelse": 792,
      "Ġtime": 793,
      "'ve": 794,
      "Ġgib": 795,
      "ĠU": 796,
      "Ġsome": 797,
      "au": 798,
      "ord": 799,
      "led": 800,
      "own": 801,
      "iniz": 802,
      "This": 803,
      "con": 804,
      "Ġthem": 805,
      "ost": 806,
      "Ġama": 807,
      "ber": 808,
      "Ġkon": 809,
      "Ġres": 810,
      "str": 811,
      "Ġbo": 812,
      "ions": 813,
      "Ġhas": 814,
      "Ġwho": 815,
      "iler": 816,
      "age": 817,
      "pr": 818,
      "Ã¼yor": 819,
      "Ġ*": 820,
      "Ġ+": 821,
      "Ġstr": 822,
      "ars": 823,
      "ule": 824,
      "inde": 825,
      "Ä±y": 826,
      "Ġpro": 827,
      "Ne": 828,
      "On": 829,
      "))": 830,
      "class": 831,
      "ATIN": 832,
      "ain": 833,
      "ĠLATIN": 834,
      "Ġkar": 835,
      "Ġgibi": 836,
      "Ġbur": 837,
      "ex": 838,
      "ayÄ±": 839,
      "Ġzaman": 840,
      "text": 841,
      "lo": 842,
      "lam": 843,
      "abilir": 844,
      "Ġneed": 845,
      "ance": 846,
      "Ġiyi": 847,
      "ev": 848,
      "uyor": 849,
      "Ġback": 850,
      "to": 851,
      "mem": 852,
      "ĠdÃ¼ÅŁ": 853,
      "ĠÃ¶n": 854,
      "Ġshe": 855,
      "mey": 856,
      "kay": 857,
      "Ġsee": 858,
      "ten": 859,
      "Ġob": 860,
      "def": 861,
      "Ġmis": 862,
      "Ġ[": 863,
      "ite": 864,
      "ix": 865,
      "ata": 866,
      "ÄŁr": 867,
      "ON": 868,
      "Ġman": 869,
      "ther": 870,
      "Oh": 871,
      "Ġwould": 872,
      "mÄ±ÅŁ": 873,
      "alk": 874,
      "ict": 875,
      "Ġnow": 876,
      "Ġki": 877,
      "ich": 878,
      "ĠÃ§Ä±k": 879,
      "ark": 880,
      "eb": 881,
      "Ġ%": 882,
      "eah": 883,
      "sa": 884,
      "ress": 885,
      "Ġtry": 886,
      "man": 887,
      "ert": 888,
      "lÄ±": 889,
      "Sen": 890,
      "Ġever": 891,
      "lan": 892,
      "Ġsor": 893,
      "Ġwhen": 894,
      "Ãĸ": 895,
      "dir": 896,
      "san": 897,
      "Ġbak": 898,
      "\"\"\"": 899,
      "code": 900,
      "path": 901,
      "Ä±yorum": 902,
      "yn": 903,
      "read": 904,
      "ook": 905,
      "odule": 906,
      "But": 907,
      "ag": 908,
      "Ġ==": 909,
      "act": 910,
      "way": 911,
      "est": 912,
      "Ġoff": 913,
      "larÄ±n": 914,
      "Ġhad": 915,
      "eÃ§": 916,
      "ild": 917,
      "(\"": 918,
      "Ġ__": 919,
      "ull": 920,
      "ity": 921,
      "onna": 922,
      "Ġraise": 923,
      "ice": 924,
      "Ġlook": 925,
      "aÃ§": 926,
      "other": 927,
      "len": 928,
      "ĠThe": 929,
      "ings": 930,
      "Ġbeen": 931,
      "alar": 932,
      ".\"": 933,
      "ous": 934,
      "ret": 935,
      "ank": 936,
      "Ã¼t": 937,
      "Ġgoing": 938,
      "ary": 939,
      "An": 940,
      "So": 941,
      "Ġgonna": 942,
      "com": 943,
      "atch": 944,
      "ĠÃ§al": 945,
      "RA": 946,
      "Ġother": 947,
      "Ã¼y": 948,
      "ub": 949,
      "yth": 950,
      "tÄ±": 951,
      "Ġbul": 952,
      "itt": 953,
      "par": 954,
      "Ġgerek": 955,
      "uck": 956,
      "Ġshould": 957,
      "ause": 958,
      "leri": 959,
      "In": 960,
      "ach": 961,
      "ALL": 962,
      "Well": 963,
      "lay": 964,
      "Ġwere": 965,
      "Ġcould": 966,
      "ies": 967,
      ">>": 968,
      ".__": 969,
      "ethod": 970,
      "per": 971,
      "ough": 972,
      "du": 973,
      "Ġfile": 974,
      "ĠYou": 975,
      "Ġgood": 976,
      "Ġac": 977,
      "Ġexcept": 978,
      "lik": 979,
      "ĠĠĠĠĠĠĠĠĠ": 980,
      "Ġnew": 981,
      "),": 982,
      "RE": 983,
      "dÄ±": 984,
      "ecek": 985,
      "Ġimport": 986,
      "iyorsun": 987,
      "day": 988,
      "Ġag": 989,
      "LE": 990,
      "ĠSM": 991,
      "ef": 992,
      "asÄ±l": 993,
      "Ġbel": 994,
      "ĠdÃ¼ÅŁÃ¼n": 995,
      "Ġover": 996,
      "AP": 997,
      "adece": 998,
      "form": 999,
      "cod": 1000,
      "Ġcall": 1001,
      "ĠolduÄŁunu": 1002,
      "ated": 1003,
      "Hey": 1004,
      "Ġfe": 1005,
      "HayÄ±r": 1006,
      "ish": 1007,
      "IG": 1008,
      "Ġvalue": 1009,
      "Ġfun": 1010,
      "They": 1011,
      "Ã¢": 1012,
      "__(": 1013,
      "iye": 1014,
      "Evet": 1015,
      "esi": 1016,
      "ign": 1017,
      "Ġwork": 1018,
      "ĠSMALL": 1019,
      "ĠgeÃ§": 1020,
      "ys": 1021,
      "ype": 1022,
      "Ġer": 1023,
      "irst": 1024,
      "Ġour": 1025,
      "None": 1026,
      "ction": 1027,
      "ĠgÃ¼n": 1028,
      "Ġlist": 1029,
      "Ġbr": 1030,
      "Ġam": 1031,
      "ial": 1032,
      "Ġtell": 1033,
      "**": 1034,
      "Ġgit": 1035,
      "Ġset": 1036,
      "Ġobject": 1037,
      "Ama": 1038,
      "Ġsom": 1039,
      "Ġil": 1040,
      "ilen": 1041,
      "Ġdur": 1042,
      "ez": 1043,
      "Ġbenim": 1044,
      "file": 1045,
      "ÄŁi": 1046,
      "Ġcome": 1047,
      "ĠdÃ¶": 1048,
      "be": 1049,
      "ĠÃ§alÄ±ÅŁ": 1050,
      "eler": 1051,
      "imdi": 1052,
      "ody": 1053,
      "Ġyer": 1054,
      "ething": 1055,
      "bu": 1056,
      "lat": 1057,
      "Ġdoes": 1058,
      "ents": 1059,
      "Ġpe": 1060,
      "ÄŁini": 1061,
      "og": 1062,
      "Ġ3": 1063,
      "alÄ±": 1064,
      "put": 1065,
      "ence": 1066,
      "Ġwr": 1067,
      "ĠhiÃ§": 1068,
      "IC": 1069,
      "ait": 1070,
      "Ġgir": 1071,
      "ave": 1072,
      "Ġthen": 1073,
      "ca": 1074,
      "ault": 1075,
      "elp": 1076,
      "izi": 1077,
      "Ġmore": 1078,
      "ven": 1079,
      "ered": 1080,
      "Ġway": 1081,
      "ya": 1082,
      "ĠCh": 1083,
      "Ġmus": 1084,
      "Do": 1085,
      "tÄ±k": 1086,
      "mand": 1087,
      "dum": 1088,
      "ames": 1089,
      "alse": 1090,
      "wo": 1091,
      "ree": 1092,
      "Ġhow": 1093,
      "ader": 1094,
      "Ġdown": 1095,
      "Ġay": 1096,
      "old": 1097,
      "rib": 1098,
      "Ġtake": 1099,
      "oun": 1100,
      "Ã§ek": 1101,
      "Ġbana": 1102,
      "ft": 1103,
      "Ġonly": 1104,
      "que": 1105,
      "tir": 1106,
      "Ã¼zel": 1107,
      "lad": 1108,
      "Ġday": 1109,
      "rue": 1110,
      "Ġclass": 1111,
      "sh": 1112,
      "min": 1113,
      "Ãĩok": 1114,
      "She": 1115,
      "Ä±mÄ±z": 1116,
      "ani": 1117,
      "ÄŁer": 1118,
      "ĠĠĠĠĠ": 1119,
      "fer": 1120,
      "Ġgr": 1121,
      "Ġtan": 1122,
      "Ġadam": 1123,
      "Ġtak": 1124,
      "ĠCAP": 1125,
      "Ġdidn": 1126,
      "ITAL": 1127,
      "unuz": 1128,
      "ĠCAPITAL": 1129,
      "ken": 1130,
      "ace": 1131,
      "\")": 1132,
      "Ġsomething": 1133,
      "There": 1134,
      "Ġmay": 1135,
      "ecause": 1136,
      "Ġsev": 1137,
      "ss": 1138,
      "Ġkim": 1139,
      "ov": 1140,
      "Ġmake": 1141,
      "init": 1142,
      "Ġpart": 1143,
      "oll": 1144,
      ";':": 1145,
      "Ġgid": 1146,
      "OR": 1147,
      "Ġlet": 1148,
      "How": 1149,
      "ĠkonuÅŁ": 1150,
      "Ġonu": 1151,
      "ĠAll": 1152,
      "ĠÄ°": 1153,
      "ople": 1154,
      "tin": 1155,
      "eck": 1156,
      "ud": 1157,
      "aba": 1158,
      "ely": 1159,
      "ING": 1160,
      "Tamam": 1161,
      "Ġtalk": 1162,
      "inin": 1163,
      "Ġhapp": 1164,
      "ife": 1165,
      "laÅŁ": 1166,
      "All": 1167,
      "gr": 1168,
      "Ġsaid": 1169,
      "ĠNe": 1170,
      "Ġcar": 1171,
      "mam": 1172,
      "Ġbeni": 1173,
      "Ã¼Ã§": 1174,
      "Ġtek": 1175,
      "add": 1176,
      "ning": 1177,
      "ĠyaÅŁ": 1178,
      "dim": 1179,
      "tan": 1180,
      "Ġhand": 1181,
      "aki": 1182,
      "####": 1183,
      "pp": 1184,
      "Ä±s": 1185,
      "Ġ<": 1186,
      "bir": 1187,
      "Ġtoo": 1188,
      "una": 1189,
      "stance": 1190,
      "Yeah": 1191,
      "Ġolur": 1192,
      "Ġreally": 1193,
      "Ġsc": 1194,
      "tÄ±r": 1195,
      "ood": 1196,
      "Ġye": 1197,
      "Ġnum": 1198,
      "ger": 1199,
      "Ġline": 1200,
      "Ġbit": 1201,
      "Ġdis": 1202,
      "key": 1203,
      "isi": 1204,
      "Ġread": 1205,
      "reat": 1206,
      "ka": 1207,
      "tÄ±ÄŁ": 1208,
      "inle": 1209,
      ".\"\"\"": 1210,
      "ND": 1211,
      "If": 1212,
      "acaÄŁÄ±m": 1213,
      "ory": 1214,
      "Ġkey": 1215,
      "Ġhay": 1216,
      "adan": 1217,
      "Ġfirst": 1218,
      "ute": 1219,
      "men": 1220,
      "Her": 1221,
      "Ġsan": 1222,
      "ĠÃ¶nce": 1223,
      "Ġexp": 1224,
      "Ġbet": 1225,
      "oy": 1226,
      "sp": 1227,
      "ittle": 1228,
      "ail": 1229,
      "ĠyÃ¼z": 1230,
      "====": 1231,
      "Ġyar": 1232,
      "Ġtar": 1233,
      "ĠĠĠĠĠĠĠĠĠĠĠĠĠĠĠĠĠ": 1234,
      "Ä±rak": 1235,
      "Ġaf": 1236,
      "dÄ±r": 1237,
      "Ġkur": 1238,
      "Ġ|": 1239,
      "cek": 1240,
      "Ġguy": 1241,
      "fore": 1242,
      "ens": 1243,
      "unda": 1244,
      "Ġmon": 1245,
      "tain": 1246,
      "ĠaÃ§": 1247,
      "Ġpre": 1248,
      "ĠsÃ¶": 1249,
      "ond": 1250,
      "Ä±ndan": 1251,
      "Ġnever": 1252,
      "Ġinto": 1253,
      "Ġarg": 1254,
      "Ġmust": 1255,
      "AR": 1256,
      "ardÄ±m": 1257,
      "Ġwor": 1258,
      "args": 1259,
      "ator": 1260,
      "ĠÃ¶ld": 1261,
      "fo": 1262,
      "ought": 1263,
      "tÃ¼": 1264,
      "Bur": 1265,
      "Ve": 1266,
      "ika": 1267,
      "Ġhak": 1268,
      "Ġsonra": 1269,
      "ble": 1270,
      "ade": 1271,
      "tim": 1272,
      "oÅŁ": 1273,
      "Ar": 1274,
      "Ä±nÄ±z": 1275,
      "Ġmisin": 1276,
      "Ġbile": 1277,
      "ĠIt": 1278,
      "we": 1279,
      "Ġmean": 1280,
      "Ġcode": 1281,
      "Ġpos": 1282,
      "maz": 1283,
      "Ġseni": 1284,
      "unun": 1285,
      "Ġos": 1286,
      "Ġlittle": 1287,
      "let": 1288,
      "wr": 1289,
      "Ġfind": 1290,
      "Ġhelp": 1291,
      "Ġpeople": 1292,
      "Ġwhere": 1293,
      "kÃ¼": 1294,
      "mel": 1295,
      "lace": 1296,
      "Ã¶r": 1297,
      "list": 1298,
      "rame": 1299,
      "Ġwhich": 1300,
      "Ġpath": 1301,
      "eki": 1302,
      "Ġtwo": 1303,
      "Ġyet": 1304,
      "Ġtheir": 1305,
      "ĠnasÄ±l": 1306,
      "Ġstart": 1307,
      "ĠkÄ±z": 1308,
      "ĠĠĠĠĠĠĠĠĠĠĠĠĠĠĠĠĠĠĠĠ": 1309,
      "----------------": 1310,
      "inden": 1311,
      "Ġbunu": 1312,
      "ci": 1313,
      "from": 1314,
      "Ġspec": 1315,
      "Ġop": 1316,
      "Ġolan": 1317,
      "Ġ...": 1318,
      "line": 1319,
      "Ã¼ÄŁ": 1320,
      "25": 1321,
      "Ġmethod": 1322,
      "ĠWh": 1323,
      "Ġ{": 1324,
      "ream": 1325,
      "gÃ¼n": 1326,
      "eld": 1327,
      ").": 1328,
      "ye": 1329,
      "ITH": 1330,
      "lease": 1331,
      "Ġyak": 1332,
      "ĠIf": 1333,
      "imiz": 1334,
      "eye": 1335,
      "Ġhal": 1336,
      "OU": 1337,
      "Ġadd": 1338,
      "tes": 1339,
      "Ġdel": 1340,
      "wn": 1341,
      "Ġsana": 1342,
      "Ġbefore": 1343,
      "St": 1344,
      "ove": 1345,
      "Ġtest": 1346,
      "ĠÃ¼z": 1347,
      "ily": 1348,
      "Ġopt": 1349,
      "eÅŁ": 1350,
      "ĠWITH": 1351,
      "ĠĠĠĠĠĠĠĠĠĠĠĠĠĠĠĠĠĠ": 1352,
      "anc": 1353,
      "ĠÃ§oc": 1354,
      "Ġcomp": 1355,
      "Ġkend": 1356,
      "Ġunder": 1357,
      "Ġmusun": 1358,
      "vers": 1359,
      "Ġpass": 1360,
      "Ġmodule": 1361,
      "Ġthan": 1362,
      "âĢ": 1363,
      "lara": 1364,
      "tern": 1365,
      "Ġuy": 1366,
      "Okay": 1367,
      "reak": 1368,
      "ĠAn": 1369,
      "Ġagain": 1370,
      "ÃĦ": 1371,
      "ĠkÃ¶": 1372,
      "Ġiz": 1373,
      "lu": 1374,
      "ource": 1375,
      "eturn": 1376,
      "Ġsenin": 1377,
      "ĠWe": 1378,
      "ley": 1379,
      "ied": 1380,
      "type": 1381,
      "so": 1382,
      "Ġqu": 1383,
      "adi": 1384,
      "ener": 1385,
      "ting": 1386,
      "Ä±yorsun": 1387,
      "Ġass": 1388,
      "ĠĠĠĠĠĠĠĠĠĠ": 1389,
      "Ġlast": 1390,
      "Ġya": 1391,
      "imal": 1392,
      "ython": 1393,
      "tur": 1394,
      "ash": 1395,
      "ĠgÃ¶re": 1396,
      "Ġduy": 1397,
      "Ġthing": 1398,
      "ia": 1399,
      "Ġistem": 1400,
      "Ġused": 1401,
      "Ä±rÄ±m": 1402,
      "Ġend": 1403,
      "IS": 1404,
      "Ġbl": 1405,
      "ĠbÄ±rak": 1406,
      "ĠĠĠĠĠĠĠĠĠĠĠĠĠĠĠĠĠĠĠĠĠĠĠ": 1407,
      "alled": 1408,
      "Ġlove": 1409,
      "din": 1410,
      "Ġzor": 1411,
      "ee": 1412,
      "row": 1413,
      "ĠBu": 1414,
      "mez": 1415,
      "Ġask": 1416,
      "ster": 1417,
      "Ã¼nkÃ¼": 1418,
      "Ġatt": 1419,
      "maya": 1420,
      "anÄ±": 1421,
      "pre": 1422,
      "vel": 1423,
      "quest": 1424,
      "eep": 1425,
      "fen": 1426,
      "cre": 1427,
      "Ġ!": 1428,
      "larak": 1429,
      "ather": 1430,
      "ince": 1431,
      "sg": 1432,
      "Ġeven": 1433,
      "Don": 1434,
      "ines": 1435,
      ".\\": 1436,
      "Con": 1437,
      "ĠÃ¶yle": 1438,
      "lÄ±k": 1439,
      "Ġro": 1440,
      "Ġresult": 1441,
      "her": 1442,
      "Ġinsan": 1443,
      "ĠgerÃ§ek": 1444,
      "ayan": 1445,
      "value": 1446,
      "ĠgÃ¼": 1447,
      "Ã¼yÃ¼k": 1448,
      "Ä±nÄ±n": 1449,
      "ĠNo": 1450,
      "Bunu": 1451,
      "Ġyol": 1452,
      "ĠIn": 1453,
      "ins": 1454,
      "alÄ±m": 1455,
      "Come": 1456,
      "Ġbiz": 1457,
      "Ġhar": 1458,
      "Ġolarak": 1459,
      "Ġsec": 1460,
      "Ġlen": 1461,
      "ange": 1462,
      "ĠSt": 1463,
      "']": 1464,
      "Ġmuch": 1465,
      "Ġbab": 1466,
      "ĠAllah": 1467,
      "ection": 1468,
      "val": 1469,
      "ĠdÃ¶n": 1470,
      "Ġbecause": 1471,
      "adÄ±ÄŁ": 1472,
      "EN": 1473,
      "ument": 1474,
      "esc": 1475,
      "by": 1476,
      "Ġburada": 1477,
      "ool": 1478,
      "import": 1479,
      "Ġuse": 1480,
      "not": 1481,
      "Ġevery": 1482,
      "Ġwon": 1483,
      "riend": 1484,
      "Ã¼tfen": 1485,
      "Ġoldu": 1486,
      "Ġafter": 1487,
      "Ġint": 1488,
      "Ġvery": 1489,
      "ton": 1490,
      "ount": 1491,
      "ĠHe": 1492,
      "edim": 1493,
      "Ġcr": 1494,
      "Ġstring": 1495,
      "back": 1496,
      "ĠWhat": 1497,
      "Ġolacak": 1498,
      "iyim": 1499,
      "ps": 1500,
      "ĠBen": 1501,
      "Ä±ld": 1502,
      "imi": 1503,
      "Ġthose": 1504,
      "ition": 1505,
      "ĠThis": 1506,
      "uh": 1507,
      "ĠgÃ¼zel": 1508,
      "Ġem": 1509,
      "tÄ±m": 1510,
      "Ġark": 1511,
      "Ġistiyorum": 1512,
      "Ġrun": 1513,
      "Seni": 1514,
      "En": 1515,
      "Ġlong": 1516,
      "idget": 1517,
      "Ġdoing": 1518,
      "meye": 1519,
      "arn": 1520,
      "Why": 1521,
      "Ġdata": 1522,
      "arÄ±": 1523,
      "call": 1524,
      "ili": 1525,
      "erim": 1526,
      "Ġthese": 1527,
      "ocess": 1528,
      "Ġwhy": 1529,
      "ÄŁru": 1530,
      "Ġsadece": 1531,
      "ĠTrue": 1532,
      "ĠbÃ¶yle": 1533,
      "ield": 1534,
      "Ġsub": 1535,
      "urr": 1536,
      "Ġtext": 1537,
      "My": 1538,
      "Ġuz": 1539,
      "Ä°ÅŁ": 1540,
      "mas": 1541,
      "Ġbek": 1542,
      "coding": 1543,
      "Is": 1544,
      "Ch": 1545,
      "Ãľ": 1546,
      "ĠÃ§ek": 1547,
      "append": 1548,
      "Ġak": 1549,
      "Åŀimdi": 1550,
      "oin": 1551,
      "attr": 1552,
      "Ġonun": 1553,
      "Ġmin": 1554,
      "ale": 1555,
      "Ġ('": 1556,
      "Ã¼l": 1557,
      "Ġdr": 1558,
      "Ġchar": 1559,
      "Ġhappen": 1560,
      "fix": 1561,
      "Ġtype": 1562,
      "Ġelif": 1563,
      "03": 1564,
      "ways": 1565,
      "Â±": 1566,
      "Ġsure": 1567,
      "Ġkay": 1568,
      "iter": 1569,
      "Ġstill": 1570,
      "Ġhead": 1571,
      "thing": 1572,
      "As": 1573,
      "ĠyardÄ±m": 1574,
      "Ä±mÄ±": 1575,
      "fig": 1576,
      "ont": 1577,
      "01": 1578,
      "Ġtra": 1579,
      "erh": 1580,
      "ES": 1581,
      "ĠTh": 1582,
      "module": 1583,
      "Not": 1584,
      "ug": 1585,
      "Ġgive": 1586,
      "ele": 1587,
      "Ġkap": 1588,
      "opt": 1589,
      "sel": 1590,
      "ser": 1591,
      "Look": 1592,
      ">>>": 1593,
      "oint": 1594,
      "Ġokay": 1595,
      "Ġfin": 1596,
      "Ġlife": 1597,
      "='": 1598,
      "error": 1599,
      "Ġact": 1600,
      "Ġ4": 1601,
      "endi": 1602,
      "ĠmÃ¼": 1603,
      "Ġfeel": 1604,
      "Ġsys": 1605,
      "ÄŁin": 1606,
      "Ġid": 1607,
      "Ġcol": 1608,
      "Ġpol": 1609,
      "esin": 1610,
      "essage": 1611,
      "ilename": 1612,
      "Get": 1613,
      "adaÅŁ": 1614,
      "Ġbiraz": 1615,
      "ĠkaÃ§": 1616,
      "Ġform": 1617,
      "ything": 1618,
      "ax": 1619,
      "my": 1620,
      "Ġanything": 1621,
      "Ġsize": 1622,
      "Ä±p": 1623,
      "Ġbelie": 1624,
      "iss": 1625,
      "Ġbiliyor": 1626,
      "elim": 1627,
      "Ġtut": 1628,
      "Ġile": 1629,
      "Ã¼re": 1630,
      "muÅŁ": 1631,
      "data": 1632,
      "Ġser": 1633,
      "ĠBir": 1634,
      "tk": 1635,
      "are": 1636,
      "ems": 1637,
      "Ġiht": 1638,
      "Ġmem": 1639,
      "Let": 1640,
      "miyor": 1641,
      "ĠÃ§ocuk": 1642,
      "instance": 1643,
      "uth": 1644,
      "enc": 1645,
      "Ġyan": 1646,
      "Ġhat": 1647,
      "ĠAr": 1648,
      "Onu": 1649,
      "ations": 1650,
      "HT": 1651,
      "Now": 1652,
      "ph": 1653,
      "Or": 1654,
      "wh": 1655,
      "Ġilg": 1656,
      "igh": 1657,
      "Ġwait": 1658,
      "eter": 1659,
      "ĠFalse": 1660,
      "ED": 1661,
      "body": 1662,
      "may": 1663,
      "Ġgu": 1664,
      "ript": 1665,
      "amaz": 1666,
      "Ex": 1667,
      "cÄ±": 1668,
      "Bana": 1669,
      "tu": 1670,
      "Ġx": 1671,
      "time": 1672,
      "Benim": 1673,
      "Just": 1674,
      "Ġ>": 1675,
      "Ġgiv": 1676,
      "Ġval": 1677,
      "alan": 1678,
      "22": 1679,
      "sunuz": 1680,
      "Ġsame": 1681,
      "Ġfuck": 1682,
      "Ġ--": 1683,
      "Ġwell": 1684,
      "Ġper": 1685,
      "larÄ±nÄ±": 1686,
      "ĠÃ¶ldÃ¼r": 1687,
      "Ġsiz": 1688,
      "anr": 1689,
      "ĠÃ¶l": 1690,
      "trol": 1691,
      "Ġsorry": 1692,
      "ĠGod": 1693,
      "oh": 1694,
      "Who": 1695,
      "miyorum": 1696,
      "ĠkarÅŁ": 1697,
      "ower": 1698,
      "Ġdefault": 1699,
      "Ġhayat": 1700,
      "Ġfaz": 1701,
      "Ġput": 1702,
      "Ġdoesn": 1703,
      "âĻ": 1704,
      "Ġent": 1705,
      "Ġthought": 1706,
      "ater": 1707,
      "mad": 1708,
      "Ġbreak": 1709,
      "ekk": 1710,
      "ara": 1711,
      "plement": 1712,
      "ext": 1713,
      "eceÄŁim": 1714,
      "Ġgirl": 1715,
      "Ġthr": 1716,
      "air": 1717,
      "Ġalways": 1718,
      "Ġboy": 1719,
      "ny": 1720,
      "Ġdev": 1721,
      "Ġwhile": 1722,
      "arch": 1723,
      "ĠEvet": 1724,
      "object": 1725,
      "Ġfunction": 1726,
      "âĻª": 1727,
      "HA": 1728,
      "hing": 1729,
      "side": 1730,
      "pos": 1731,
      "ĠÃ¶z": 1732,
      "Ġcommand": 1733,
      "Ġtamam": 1734,
      "Ġneden": 1735,
      "Ġnight": 1736,
      "Ġ>>>": 1737,
      "ebilir": 1738,
      "UT": 1739,
      "['": 1740,
      "Ġmak": 1741,
      "Ġreal": 1742,
      "Ġsm": 1743,
      "Ġ5": 1744,
      "ĠZ": 1745,
      "medi": 1746,
      "ayÄ±m": 1747,
      "eme": 1748,
      "indow": 1749,
      "Ġap": 1750,
      "ĠbÃ¼yÃ¼k": 1751,
      "als": 1752,
      "Ġden": 1753,
      "Yes": 1754,
      "ekkÃ¼r": 1755,
      "Ġkeep": 1756,
      "assert": 1757,
      "tar": 1758,
      "ues": 1759,
      "endim": 1760,
      "])": 1761,
      "Ġhome": 1762,
      "Al": 1763,
      "Ġald": 1764,
      "Ġkull": 1765,
      "Son": 1766,
      "Ġgeri": 1767,
      "Ġco": 1768,
      "Ġter": 1769,
      "ĠÅŁu": 1770,
      "arg": 1771,
      "Ġfriend": 1772,
      "Ġgetir": 1773,
      "LL": 1774,
      "mer": 1775,
      "ouse": 1776,
      "Ġihtiy": 1777,
      "ecimal": 1778,
      "test": 1779,
      "cs": 1780,
      "Ġgeldi": 1781,
      "anÄ±n": 1782,
      "ren": 1783,
      "ĠMr": 1784,
      "comp": 1785,
      "lib": 1786,
      "Ġaway": 1787,
      "Sh": 1788,
      "000": 1789,
      "Ġkat": 1790,
      "Ġfound": 1791,
      "ement": 1792,
      "Ġpat": 1793,
      "lerini": 1794,
      "Ġtold": 1795,
      "Re": 1796,
      "Ġcre": 1797,
      "qual": 1798,
      "sy": 1799,
      "bet": 1800,
      "Ġcalled": 1801,
      "sed": 1802,
      "ĠgÃ¶rd": 1803,
      "ala": 1804,
      "Ġplan": 1805,
      "Ġhakk": 1806,
      "ION": 1807,
      "Ġolabilir": 1808,
      "Ġkid": 1809,
      "ner": 1810,
      "sen": 1811,
      "Ãĥ": 1812,
      "alueError": 1813,
      "ĠsÃ¶y": 1814,
      "Ġvard": 1815,
      "ĠÅŁeyler": 1816,
      "eli": 1817,
      "Ġnumber": 1818,
      "arl": 1819,
      "Ġmade": 1820,
      "Ġok": 1821,
      "abi": 1822,
      "ĠAnd": 1823,
      "Ġerror": 1824,
      "size": 1825,
      "Ġbetter": 1826,
      "urrent": 1827,
      "aber": 1828,
      "Ġstop": 1829,
      "Beni": 1830,
      "Ġleft": 1831,
      "ĠarkadaÅŁ": 1832,
      "oper": 1833,
      "Ġinan": 1834,
      "ĠbaÅŁka": 1835,
      "Sana": 1836,
      "Ġbas": 1837,
      "dict": 1838,
      "ollow": 1839,
      "Ġthrough": 1840,
      "aj": 1841,
      "Ġkil": 1842,
      "Ġdif": 1843,
      "ote": 1844,
      "ible": 1845,
      "kin": 1846,
      "Ġrec": 1847,
      "Ġistedi": 1848,
      "Sadece": 1849,
      "amp": 1850,
      "Ġistiyor": 1851,
      "eh": 1852,
      "Ġisinstance": 1853,
      "ĠaÅŁ": 1854,
      "Ġdire": 1855,
      "Ġshow": 1856,
      "Ġsav": 1857,
      "Ġthings": 1858,
      "Ġkind": 1859,
      "ĠgÃ¶z": 1860,
      "ĠgÃ¶rÃ¼n": 1861,
      "Ä°yi": 1862,
      "Ġacc": 1863,
      "Ġcontext": 1864,
      "Ġopen": 1865,
      "ĠĠĠĠĠĠĠĠĠĠĠĠĠ": 1866,
      "Ġaz": 1867,
      "ually": 1868,
      "ĠÅŁeyi": 1869,
      "Ġstat": 1870,
      "Ġsign": 1871,
      "Ġtaraf": 1872,
      "aw": 1873,
      "ĠOh": 1874,
      "Ġaround": 1875,
      "():": 1876,
      "tra": 1877,
      "enden": 1878,
      "Ġiy": 1879,
      "Neden": 1880,
      "ved": 1881,
      "cc": 1882,
      "Ġbun": 1883,
      "obj": 1884,
      "Ġiki": 1885,
      "ribute": 1886,
      "arÄ±m": 1887,
      "ceÄŁim": 1888,
      "ected": 1889,
      "Are": 1890,
      "Hadi": 1891,
      "dur": 1892,
      "Ġona": 1893,
      "Ġbeing": 1894,
      "Ġloc": 1895,
      "opy": 1896,
      "Ġbelieve": 1897,
      "ĠyÄ±l": 1898,
      "ope": 1899,
      "osed": 1900,
      "REE": 1901,
      "mes": 1902,
      "Ġbiri": 1903,
      "stand": 1904,
      "info": 1905,
      "its": 1906,
      "Ġyears": 1907,
      "land": 1908,
      "dÄ±m": 1909,
      "Where": 1910,
      "Ġdone": 1911,
      "Ġown": 1912,
      "Ġdec": 1913,
      "ĠsÃ¼r": 1914,
      "IGHT": 1915,
      "Bak": 1916,
      "ew": 1917,
      "Ġyaz": 1918,
      "Ġchild": 1919,
      "Ä±ÄŁÄ±": 1920,
      "Can": 1921,
      "Kim": 1922,
      "Ġ.": 1923,
      "Ġgreat": 1924,
      "ful": 1925,
      "ons": 1926,
      "Return": 1927,
      "ama": 1928,
      "rar": 1929,
      "lass": 1930,
      "of": 1931,
      "Ġplace": 1932,
      "Bil": 1933,
      "Ã¼st": 1934,
      "yp": 1935,
      "ici": 1936,
      "Ġnothing": 1937,
      "ĠValueError": 1938,
      "ffer": 1939,
      "ST": 1940,
      "Bel": 1941,
      "Ġnext": 1942,
      "Ġresp": 1943,
      "########": 1944,
      "tÄ±n": 1945,
      "ĠkÃ¶tÃ¼": 1946,
      "string": 1947,
      "Ã¼tÃ¼n": 1948,
      "EÄŁer": 1949,
      "write": 1950,
      "ĠSh": 1951,
      "ĠHayÄ±r": 1952,
      "format": 1953,
      "Ġfazla": 1954,
      "Ġcour": 1955,
      "Ġkork": 1956,
      "ĠÅŁimdi": 1957,
      "ister": 1958,
      "ĠbaÄŁ": 1959,
      "ors": 1960,
      "yon": 1961,
      "Ġsah": 1962,
      "ĠPython": 1963,
      "ready": 1964,
      "When": 1965,
      "DE": 1966,
      "OL": 1967,
      "Ġdiye": 1968,
      "dd": 1969,
      "sw": 1970,
      "ĠdoÄŁru": 1971,
      "bo": 1972,
      "erede": 1973,
      "Ġph": 1974,
      "net": 1975,
      "ole": 1976,
      "Ġinde": 1977,
      "ical": 1978,
      "unc": 1979,
      "Ġihtiyac": 1980,
      "start": 1981,
      "ĠĠĠĠĠĠĠĠĠĠĠĠĠĠ": 1982,
      "Ġbiliyorum": 1983,
      "Ġalso": 1984,
      "Ġcase": 1985,
      "Biz": 1986,
      "ĠAl": 1987,
      "Ġinst": 1988,
      "alÄ±y": 1989,
      "method": 1990,
      "plit": 1991,
      "Ġhav": 1992,
      "nem": 1993,
      "Ġoper": 1994,
      "eyi": 1995,
      "Ġprot": 1996,
      "Pek": 1997,
      "use": 1998,
      "ĠThat": 1999,
      "isin": 2000,
      "''": 2001,
      "Hay": 2002,
      "Ġkaz": 2003,
      "BaÅŁ": 2004,
      "OT": 2005,
      "aÄŁÄ±": 2006,
      "ush": 2007,
      "col": 2008,
      "sub": 2009,
      "Ġav": 2010,
      "fe": 2011,
      "Ġbah": 2012,
      "ete": 2013,
      "ĠsaÄŁ": 2014,
      "ĠgÃ¶ster": 2015,
      "Ġits": 2016,
      "tt": 2017,
      "ves": 2018,
      "sÄ±nÄ±z": 2019,
      "iyle": 2020,
      "'),": 2021,
      "Ġguys": 2022,
      "ian": 2023,
      "ĠQ": 2024,
      "Ġvers": 2025,
      "member": 2026,
      "Ġbig": 2027,
      "ÃĩÃ¼nkÃ¼": 2028,
      "Ġhaz": 2029,
      "Ġkullan": 2030,
      "Ġeverything": 2031,
      "Ã¼Ã§Ã¼k": 2032,
      "ĠdÄ±ÅŁ": 2033,
      "Ġmod": 2034,
      "Ġgece": 2035,
      "Ã¼nÃ¼": 2036,
      "ĠOn": 2037,
      "Ġsy": 2038,
      "Ġinter": 2039,
      "Ġetti": 2040,
      "10": 2041,
      "HiÃ§": 2042,
      "til": 2043,
      "Ġnames": 2044,
      "emek": 2045,
      "Ġcheck": 2046,
      "bilir": 2047,
      "Ġfollow": 2048,
      "asÄ±nÄ±": 2049,
      "lear": 2050,
      "Ġplease": 2051,
      "Ġdirect": 2052,
      "Ġalready": 2053,
      "co": 2054,
      "Ġfark": 2055,
      "urt": 2056,
      "ating": 2057,
      "Ġmoney": 2058,
      "pack": 2059,
      "ene": 2060,
      "abil": 2061,
      "ĠBO": 2062,
      "ONT": 2063,
      "ĠsÃ¶yledi": 2064,
      "Sor": 2065,
      "unk": 2066,
      "Ġtem": 2067,
      "ĠdÃ¼ÅŁÃ¼nÃ¼yor": 2068,
      "Ġ?": 2069,
      "py": 2070,
      "imes": 2071,
      "util": 2072,
      "San": 2073,
      "Ġfam": 2074,
      "gin": 2075,
      "Yani": 2076,
      "ĠkiÅŁ": 2077,
      "Ġplay": 2078,
      "Ġhear": 2079,
      "****": 2080,
      "Ġkill": 2081,
      "ified": 2082,
      "Ãĸyle": 2083,
      "nin": 2084,
      "word": 2085,
      "ĠartÄ±k": 2086,
      "Ġgiven": 2087,
      "spec": 2088,
      "red": 2089,
      "ier": 2090,
      "med": 2091,
      "Ġum": 2092,
      "Ġwom": 2093,
      "ĠÅŁek": 2094,
      "Ġfil": 2095,
      "INGS": 2096,
      "Ġlot": 2097,
      "okt": 2098,
      "ĠAND": 2099,
      "hand": 2100,
      "True": 2101,
      "Ġbad": 2102,
      "erhaba": 2103,
      "les": 2104,
      "asÄ±n": 2105,
      "Åŀu": 2106,
      "acaÄŁÄ±z": 2107,
      "Ġmight": 2108,
      "Ġoluyor": 2109,
      "Ġturn": 2110,
      "Ġanother": 2111,
      "ters": 2112,
      "False": 2113,
      "ious": 2114,
      "ĠsÃ¶yley": 2115,
      "Ġweek": 2116,
      "Ä°n": 2117,
      "Ã¢l": 2118,
      "],": 2119,
      "fendim": 2120,
      "urs": 2121,
      "eyim": 2122,
      "Ġdiffer": 2123,
      "kw": 2124,
      "Ġsak": 2125,
      "May": 2126,
      "gg": 2127,
      "uct": 2128,
      "oup": 2129,
      "Ã¶z": 2130,
      "Ġfr": 2131,
      "ĠÃ§Ä±kar": 2132,
      "ates": 2133,
      "daki": 2134,
      "ĠhayÄ±r": 2135,
      "Ġrep": 2136,
      "siniz": 2137,
      "head": 2138,
      "Ġcls": 2139,
      "Ġunderstand": 2140,
      "Ġstand": 2141,
      "Did": 2142,
      "ĠhoÅŁ": 2143,
      "Your": 2144,
      "blem": 2145,
      "md": 2146,
      "the": 2147,
      "ocket": 2148,
      "Ġsur": 2149,
      "Ġdav": 2150,
      "Ġbytes": 2151,
      "exp": 2152,
      "ried": 2153,
      "TP": 2154,
      "ĠÃ¶ÄŁr": 2155,
      "85": 2156,
      "main": 2157,
      "ynÄ±": 2158,
      "ĠhiÃ§bir": 2159,
      "Ġsecond": 2160,
      "join": 2161,
      "RAW": 2162,
      "utes": 2163,
      "ĠSIG": 2164,
      "04": 2165,
      "lob": 2166,
      "emen": 2167,
      "Ġanlam": 2168,
      "ĠdeÄŁiÅŁ": 2169,
      "Senin": 2170,
      "Ä°ÅŁte": 2171,
      "dik": 2172,
      "Ġisn": 2173,
      "Ġ@": 2174,
      "Ġdead": 2175,
      "ĠĠĠĠĠĠĠĠĠĠĠĠĠĠĠĠĠĠĠĠĠĠĠĠĠĠĠĠĠĠĠĠ": 2176,
      "default": 2177,
      "Ġdurum": 2178,
      "uff": 2179,
      "Ġ10": 2180,
      "Ġdemek": 2181,
      "ĠFr": 2182,
      "Ġsup": 2183,
      "ular": 2184,
      "Ġbest": 2185,
      "ĠDRAW": 2186,
      "ĠBOX": 2187,
      "ĠDRAWINGS": 2188,
      "Ġister": 2189,
      "sÄ±z": 2190,
      "sc": 2191,
      "ude": 2192,
      "Ġsir": 2193,
      "Ġpay": 2194,
      "new": 2195,
      "oÄŁ": 2196,
      "elen": 2197,
      "Good": 2198,
      "ĠUn": 2199,
      "'.": 2200,
      "loc": 2201,
      "dam": 2202,
      "rist": 2203,
      "erson": 2204,
      "abile": 2205,
      "ĠSen": 2206,
      "dÄ±n": 2207,
      "Ġrel": 2208,
      "lerin": 2209,
      "ĠgerÃ§ekten": 2210,
      "Ã§a": 2211,
      "ised": 2212,
      "REEK": 2213,
      "Ger": 2214,
      "ĠGREEK": 2215,
      "Ġparam": 2216,
      "ĠÃ¼zer": 2217,
      "Ġ!=": 2218,
      "asÄ±nda": 2219,
      "Ġmet": 2220,
      "Thank": 2221,
      "ĠyaptÄ±ÄŁ": 2222,
      "Ġprint": 2223,
      "Ġolsun": 2224,
      "Ġapp": 2225,
      "Ġsch": 2226,
      "========": 2227,
      "ĠaÃ§Ä±k": 2228,
      "adÄ±": 2229,
      "Then": 2230,
      "Ġsal": 2231,
      "att": 2232,
      "OW": 2233,
      "ĠARA": 2234,
      "kes": 2235,
      "Ġmost": 2236,
      "Ġmessage": 2237,
      "ĠĠĠĠĠĠ": 2238,
      "ined": 2239,
      "Ġhell": 2240,
      "Ġcame": 2241,
      "Ġwrong": 2242,
      "ĠhakkÄ±nda": 2243,
      "BIC": 2244,
      "Burada": 2245,
      "Ġleave": 2246,
      "ĠARABIC": 2247,
      "Ġdoc": 2248,
      "Ġexc": 2249,
      "Ġmiss": 2250,
      "\".": 2251,
      "Ġcor": 2252,
      "Ġstay": 2253,
      "Ġediyor": 2254,
      "ran": 2255,
      "Ġdak": 2256,
      "lardan": 2257,
      "Ġproblem": 2258,
      "mÃ¼ÅŁ": 2259,
      "num": 2260,
      "leÅŁ": 2261,
      "stem": 2262,
      "mon": 2263,
      "Ġmeet": 2264,
      "Ġcoming": 2265,
      "ĠyÃ¼zden": 2266,
      "99": 2267,
      "Ġtu": 2268,
      "ĠsÃ¼re": 2269,
      "Ġmen": 2270,
      "Ġargs": 2271,
      "Ġ**": 2272,
      "RI": 2273,
      "Ġsaat": 2274,
      "Belki": 2275,
      "ml": 2276,
      "Ġsupp": 2277,
      "Ġreg": 2278,
      "abii": 2279,
      "lÃ¼": 2280,
      "Ġes": 2281,
      "Ã¼nde": 2282,
      "rc": 2283,
      "ĠsÄ±r": 2284,
      "ead": 2285,
      "'):": 2286,
      "Ġ[]": 2287,
      "BLE": 2288,
      "EF": 2289,
      "bar": 2290,
      "ĠX": 2291,
      "Ġsel": 2292,
      "ception": 2293,
      "Ġoption": 2294,
      "ĠgÃ¼ven": 2295,
      "Peki": 2296,
      "aster": 2297,
      "masÄ±": 2298,
      "Ġdict": 2299,
      "Ġyeni": 2300,
      "tÃ¼r": 2301,
      "Ġner": 2302,
      "Ġwanted": 2303,
      "ward": 2304,
      "Ġnode": 2305,
      "cls": 2306,
      "Ġolmak": 2307,
      "son": 2308,
      "oke": 2309,
      "gth": 2310,
      "Ġmany": 2311,
      "aten": 2312,
      "Ġmatch": 2313,
      "Ġframe": 2314,
      "ache": 2315,
      "ĠBr": 2316,
      "Ġdost": 2317,
      "Ġ:": 2318,
      "ĠhazÄ±r": 2319,
      "For": 2320,
      "ither": 2321,
      "Ġtrying": 2322,
      "ĠSIGN": 2323,
      "ormal": 2324,
      "Ġcare": 2325,
      "Ġcourse": 2326,
      "iydi": 2327,
      "Ġederim": 2328,
      "lÃ¼yor": 2329,
      "Ġort": 2330,
      "ĠYeah": 2331,
      "Ġsupport": 2332,
      "mayÄ±": 2333,
      "Ġ6": 2334,
      "Ġthree": 2335,
      "Ġhouse": 2336,
      "deÅŁ": 2337,
      "Ġrest": 2338,
      "root": 2339,
      "Ġtrue": 2340,
      "Ġbin": 2341,
      "Ġmor": 2342,
      "Ġmut": 2343,
      "ecut": 2344,
      "Ġbuld": 2345,
      "gether": 2346,
      "Ġtrans": 2347,
      "frame": 2348,
      "less": 2349,
      "Ġenough": 2350,
      "version": 2351,
      "ever": 2352,
      "Ġmer": 2353,
      "CK": 2354,
      "VE": 2355,
      "Ġtel": 2356,
      "Ġhard": 2357,
      "abel": 2358,
      "Ġ`": 2359,
      "bug": 2360,
      "Ä±yoruz": 2361,
      "Ġcurrent": 2362,
      "ift": 2363,
      "any": 2364,
      "Ġmat": 2365,
      "Ġmom": 2366,
      "Ġfather": 2367,
      "url": 2368,
      "Ġanlat": 2369,
      "Ġwithout": 2370,
      "edir": 2371,
      "Ġpl": 2372,
      "Ġworld": 2373,
      "ng": 2374,
      "Ġsil": 2375,
      "Ġroom": 2376,
      "Ã¢lÃ¢": 2377,
      "AM": 2378,
      "Ġmsg": 2379,
      "ilde": 2380,
      "ks": 2381,
      "Ġkoy": 2382,
      "Ġindex": 2383,
      "var": 2384,
      "Ġder": 2385,
      "Ġide": 2386,
      "Ġcount": 2387,
      "reg": 2388,
      "Ġnerede": 2389,
      "ĠteÅŁ": 2390,
      "Ġizin": 2391,
      "Ġfine": 2392,
      "ĠDecimal": 2393,
      "Ġargument": 2394,
      "lÄ±nda": 2395,
      "Ġsource": 2396,
      "ocol": 2397,
      "ĠdÃ¼n": 2398,
      "Ġdest": 2399,
      "ane": 2400,
      "ason": 2401,
      "ĠkadÄ±n": 2402,
      "Ġtalking": 2403,
      "split": 2404,
      "ĠBay": 2405,
      "Ġoy": 2406,
      "ĠBut": 2407,
      "char": 2408,
      "ĠTH": 2409,
      "Ġcont": 2410,
      "Ġsomeone": 2411,
      "nÄ±n": 2412,
      "Ġbar": 2413,
      "Ġyat": 2414,
      "Ġmother": 2415,
      "Ġword": 2416,
      "Ä±sÄ±": 2417,
      "Test": 2418,
      "context": 2419,
      "Go": 2420,
      "Un": 2421,
      "iew": 2422,
      "Siz": 2423,
      "und": 2424,
      "resent": 2425,
      "Ġtogether": 2426,
      "Ġrem": 2427,
      "Ġgetting": 2428,
      "Ġdi": 2429,
      "met": 2430,
      "Ġhappened": 2431,
      "win": 2432,
      "vert": 2433,
      "config": 2434,
      "Ġlooking": 2435,
      "cak": 2436,
      "Ġdist": 2437,
      "anrÄ±m": 2438,
      "Gel": 2439,
      "OM": 2440,
      "ual": 2441,
      "ede": 2442,
      "ĠiÃ§inde": 2443,
      "ĠsÃ¶z": 2444,
      "Ġ8": 2445,
      "Ġseen": 2446,
      "Onun": 2447,
      "Ġeach": 2448,
      "ness": 2449,
      "ative": 2450,
      "Ġpack": 2451,
      "crement": 2452,
      "ĠhatÄ±r": 2453,
      "ih": 2454,
      "mesi": 2455,
      "inen": 2456,
      "ĠTamam": 2457,
      "lock": 2458,
      "Ġdedi": 2459,
      "Ġmar": 2460,
      "Ever": 2461,
      "Ġgeliyor": 2462,
      "Ġik": 2463,
      "ample": 2464,
      "iden": 2465,
      "rip": 2466,
      "Ġtop": 2467,
      "Ġfamily": 2468,
      "ling": 2469,
      "oot": 2470,
      "ese": 2471,
      "Ġwasn": 2472,
      "[:": 2473,
      "ison": 2474,
      "ĠolmalÄ±": 2475,
      "Daha": 2476,
      "eg": 2477,
      "Ġtyp": 2478,
      "state": 2479,
      "Ġsuch": 2480,
      "El": 2481,
      "work": 2482,
      "Ġinstance": 2483,
      "idth": 2484,
      "OUBLE": 2485,
      "Ġtat": 2486,
      "Ġsl": 2487,
      "ĠvardÄ±": 2488,
      "ery": 2489,
      "ĠaÄŁ": 2490,
      "anna": 2491,
      "().": 2492,
      "gÃ¼nÃ¼m": 2493,
      "ĠHey": 2494,
      "ĠkÃ¼Ã§Ã¼k": 2495,
      "Ġorder": 2496,
      "Ġuntil": 2497,
      "Maybe": 2498,
      "diÄŁim": 2499,
      "Ġfull": 2500,
      "\":": 2501,
      "oo": 2502,
      "Ġtopl": 2503,
      "Ġwidget": 2504,
      "Ġuh": 2505,
      "Ġ+=": 2506,
      "Ġayr": 2507,
      "Ġpoint": 2508,
      "Ġsorun": 2509,
      "Ġsat": 2510,
      "Ã¶l": 2511,
      "ĠDOUBLE": 2512,
      "Ġmonth": 2513,
      "Ġboth": 2514,
      "anet": 2515,
      "Ġpick": 2516,
      "open": 2517,
      "Ġversion": 2518,
      "Ġtuple": 2519,
      "Ä±ma": 2520,
      "ds": 2521,
      "Ä±Ã§": 2522,
      "Ġgerekiyor": 2523,
      "Ġilk": 2524,
      "Ġcharac": 2525,
      "Please": 2526,
      "dun": 2527,
      "Ġlaz": 2528,
      "ĠlÃ¼tfen": 2529,
      "Ä±zÄ±": 2530,
      "ĠÃ¶nem": 2531,
      "11": 2532,
      "del": 2533,
      "ĠÃ¼st": 2534,
      "aret": 2535,
      "Ġbizim": 2536,
      "Ġ'\"": 2537,
      "ĠsuÃ§": 2538,
      "gram": 2539,
      "Ġbor": 2540,
      "item": 2541,
      "pty": 2542,
      "meyi": 2543,
      "06": 2544,
      "kat": 2545,
      "Ġdes": 2546,
      "umu": 2547,
      "acaÄŁÄ±nÄ±": 2548,
      "aut": 2549,
      "ersin": 2550,
      "Ġusing": 2551,
      "bol": 2552,
      "ĠÅŀ": 2553,
      "Ġnice": 2554,
      "ady": 2555,
      "ĠgÃ¶rÃ¼ÅŁ": 2556,
      "Ġburaya": 2557,
      "ENT": 2558,
      "Ġdir": 2559,
      "ayacak": 2560,
      "Ġyear": 2561,
      "Yap": 2562,
      "Ġfilename": 2563,
      "Ġremember": 2564,
      "ahat": 2565,
      "ello": 2566,
      "Ġjob": 2567,
      "Ġchang": 2568,
      "Ãĸz": 2569,
      "likte": 2570,
      "msg": 2571,
      "ouble": 2572,
      "Ġhour": 2573,
      "uments": 2574,
      "Ġemin": 2575,
      "ohn": 2576,
      "elam": 2577,
      "nder": 2578,
      "ĠReturn": 2579,
      "date": 2580,
      "Ġclose": 2581,
      "Ġimplement": 2582,
      "map": 2583,
      "ify": 2584,
      "=\"": 2585,
      "Ġposs": 2586,
      "ÂŁ": 2587,
      "ĠNot": 2588,
      "cremental": 2589,
      "kek": 2590,
      "part": 2591,
      "Ġcons": 2592,
      "Ġtoday": 2593,
      "ĠDo": 2594,
      "'))": 2595,
      "for": 2596,
      "Ġkor": 2597,
      "Ġhep": 2598,
      "ĠdeÄŁilim": 2599,
      "alarÄ±": 2600,
      "aln": 2601,
      "ific": 2602,
      "Ġorada": 2603,
      "plic": 2604,
      "Bun": 2605,
      "NasÄ±l": 2606,
      "Ġinv": 2607,
      "ident": 2608,
      "ĠFor": 2609,
      "Ġdevam": 2610,
      "Ġpret": 2611,
      "Ã¼ne": 2612,
      "oktor": 2613,
      "Ġwent": 2614,
      "azÄ±": 2615,
      "List": 2616,
      "node": 2617,
      "Ġbase": 2618,
      "ĠHow": 2619,
      "(),": 2620,
      "Ġcontain": 2621,
      "uÄŁu": 2622,
      "Ġkab": 2623,
      "SE": 2624,
      "pace": 2625,
      "alÄ±k": 2626,
      "ape": 2627,
      "Equal": 2628,
      "inal": 2629,
      "Ġgide": 2630,
      "command": 2631,
      "Here": 2632,
      "fr": 2633,
      "ina": 2634,
      "ĠtÃ¼m": 2635,
      "Ġvur": 2636,
      "ended": 2637,
      "bers": 2638,
      "Ġcontin": 2639,
      "valid": 2640,
      "filename": 2641,
      "iable": 2642,
      "ron": 2643,
      "Ġsim": 2644,
      "Ġperson": 2645,
      "andÄ±r": 2646,
      "ĠkarÅŁÄ±": 2647,
      "Bab": 2648,
      "Ġann": 2649,
      "ĠmÄ±sÄ±n": 2650,
      "Ġetmek": 2651,
      "aug": 2652,
      "ared": 2653,
      "Ġsaw": 2654,
      "umuz": 2655,
      "ĠĠĠĠĠĠĠĠĠĠĠĠĠĠĠĠĠĠĠĠĠĠĠĠĠĠĠ": 2656,
      "ĠsÃ¶ylÃ¼yor": 2657,
      "SanÄ±rÄ±m": 2658,
      "gel": 2659,
      "ĠÃĩ": 2660,
      "ÅŁey": 2661,
      "Ġefendim": 2662,
      "lags": 2663,
      "Ġliv": 2664,
      "Ġknew": 2665,
      "Ġfucking": 2666,
      "alnÄ±z": 2667,
      "ĠÃ§Ã¼nkÃ¼": 2668,
      "ĠseÃ§": 2669,
      "())": 2670,
      "host": 2671,
      "adÄ±m": 2672,
      "ĠeÄŁ": 2673,
      "Ġyourself": 2674,
      "ĠlazÄ±m": 2675,
      "Ġear": 2676,
      "coder": 2677,
      "Ġheader": 2678,
      "ĠteÅŁekkÃ¼r": 2679,
      "ID": 2680,
      "LÃ¼tfen": 2681,
      "Ġkol": 2682,
      "no": 2683,
      "Ġbuild": 2684,
      "close": 2685,
      "ĠÅŁekilde": 2686,
      "Im": 2687,
      "gn": 2688,
      "mi": 2689,
      "Ġbey": 2690,
      "Ġmov": 2691,
      "Ġfik": 2692,
      "Ġformat": 2693,
      "Ġguess": 2694,
      "32": 2695,
      "Ġ7": 2696,
      "Ġbec": 2697,
      "ĠaynÄ±": 2698,
      "Ġ\"__": 2699,
      "load": 2700,
      "Ġmind": 2701,
      "lÄ±yor": 2702,
      "()\"": 2703,
      "Ġprocess": 2704,
      "tik": 2705,
      "Ġtam": 2706,
      "Har": 2707,
      "ped": 2708,
      "ĠâĻª": 2709,
      "Ġsend": 2710,
      "Ġhast": 2711,
      "iyiz": 2712,
      "Ġeder": 2713,
      "raw": 2714,
      "yr": 2715,
      "Ġ'.": 2716,
      "Ġind": 2717,
      "ctions": 2718,
      "ween": 2719,
      "12": 2720,
      "kaÃ§": 2721,
      "Ġwar": 2722,
      "ably": 2723,
      "ĠiÅŁte": 2724,
      "ĠgeÃ§ir": 2725,
      "Ġ)": 2726,
      "encode": 2727,
      "Ã¼c": 2728,
      "light": 2729,
      "ÄŁiz": 2730,
      "Uh": 2731,
      "ĠyÃ¶": 2732,
      "Ġgener": 2733,
      "Ã¼s": 2734,
      "Ġexception": 2735,
      "Ġsince": 2736,
      "Ġdesc": 2737,
      "larla": 2738,
      "ired": 2739,
      "ĠHar": 2740,
      "iyet": 2741,
      "Com": 2742,
      "Ġkendi": 2743,
      "ayet": 2744,
      "ikkat": 2745,
      "Ġallow": 2746,
      "inizi": 2747,
      "base": 2748,
      "Ġspe": 2749,
      "Ġwouldn": 2750,
      "Ġbeh": 2751,
      "ĠĠĠĠĠĠĠĠĠĠĠĠĠĠĠĠĠĠĠĠĠĠĠĠĠĠĠĠĠĠĠ": 2752,
      "lere": 2753,
      "ĠsÄ±k": 2754,
      "index": 2755,
      "ica": 2756,
      "Ġ200": 2757,
      "Ġ{}": 2758,
      "GerÃ§ek": 2759,
      "names": 2760,
      "ĠtaÅŁ": 2761,
      "ĠAma": 2762,
      "AN": 2763,
      "Ona": 2764,
      "sem": 2765,
      "Ġevent": 2766,
      "efon": 2767,
      "Ġvalues": 2768,
      "lerim": 2769,
      "Ġaddress": 2770,
      "Ġsk": 2771,
      "Ah": 2772,
      "itch": 2773,
      "teÅŁ": 2774,
      "ustom": 2775,
      "ĠyapÄ±yor": 2776,
      "off": 2777,
      "akat": 2778,
      "idir": 2779,
      "doc": 2780,
      "Ġonce": 2781,
      "raf": 2782,
      "Ġdakika": 2783,
      "source": 2784,
      "Ġmove": 2785,
      "Ġhigh": 2786,
      "Ġoyn": 2787,
      "Ġstate": 2788,
      "usu": 2789,
      "Ġready": 2790,
      "Ġwoman": 2791,
      "Ġek": 2792,
      "Ġbody": 2793,
      "ĠLord": 2794,
      "rary": 2795,
      "Ġdet": 2796,
      "Ġolmaz": 2797,
      "dis": 2798,
      "ĠDr": 2799,
      "ilerim": 2800,
      "Ġdifferent": 2801,
      "Ġsing": 2802,
      "ĠonlarÄ±": 2803,
      "Ġitem": 2804,
      "Ġwhole": 2805,
      "prefix": 2806,
      "Ġidea": 2807,
      "ott": 2808,
      "Ġkaf": 2809,
      "play": 2810,
      "org": 2811,
      "Ġthank": 2812,
      "Ġmes": 2813,
      "UM": 2814,
      "Â¼": 2815,
      "Ġbunun": 2816,
      "Ġdays": 2817,
      "859": 2818,
      "larÄ±m": 2819,
      "Ġencoding": 2820,
      "Ġgitti": 2821,
      "(_": 2822,
      "Um": 2823,
      "Ġsab": 2824,
      "Ġprov": 2825,
      "CE": 2826,
      "IL": 2827,
      "ru": 2828,
      "Ġstack": 2829,
      "Ġbetween": 2830,
      "onse": 2831,
      "Ġmax": 2832,
      "aces": 2833,
      "ann": 2834,
      "utils": 2835,
      "8859": 2836,
      "ized": 2837,
      ":\\": 2838,
      "Bunun": 2839,
      "Ev": 2840,
      "Ġhaber": 2841,
      "Ġod": 2842,
      "Ġprom": 2843,
      "asÄ±na": 2844,
      "uture": 2845,
      "Ä±yla": 2846,
      "Ġkw": 2847,
      "Ġcook": 2848,
      "eyse": 2849,
      "Ġcomple": 2850,
      "ĠolduÄŁu": 2851,
      "AD": 2852,
      "Dur": 2853,
      "ke": 2854,
      "Ġfar": 2855,
      "Ġlive": 2856,
      "ution": 2857,
      "Ġunut": 2858,
      "mm": 2859,
      "right": 2860,
      "ĠÅŁans": 2861,
      "Ġwanna": 2862,
      "Ġmaybe": 2863,
      "ineno": 2864,
      "lim": 2865,
      "Ġdin": 2866,
      "check": 2867,
      "IGIT": 2868,
      "kan": 2869,
      "medim": 2870,
      "Ġsit": 2871,
      "Ġfight": 2872,
      "ots": 2873,
      "ĠMar": 2874,
      "typ": 2875,
      "leep": 2876,
      "Ġlib": 2877,
      "ĠdoÄŁ": 2878,
      "--------------------------------": 2879,
      "GÃ¶r": 2880,
      "Ġotur": 2881,
      "abb": 2882,
      "Ġmeans": 2883,
      "Because": 2884,
      "cel": 2885,
      "rect": 2886,
      "ĠDIGIT": 2887,
      "ures": 2888,
      "Ġilgili": 2889,
      "si": 2890,
      "Ġtook": 2891,
      "Ġconn": 2892,
      "Ġbiliyorsun": 2893,
      "ĠolmadÄ±ÄŁ": 2894,
      "uyorum": 2895,
      "lines": 2896,
      "Ġrequest": 2897,
      "ĠDon": 2898,
      "Biraz": 2899,
      "Ġgotta": 2900,
      "ĠdÃ¼ÅŁÃ¼nd": 2901,
      "Ġbaby": 2902,
      "Ġyani": 2903,
      "Ġmiyim": 2904,
      "Ġzam": 2905,
      "Ġfiles": 2906,
      "Pr": 2907,
      "wise": 2908,
      "ature": 2909,
      "rem": 2910,
      "Ġnon": 2911,
      "Ġwatch": 2912,
      "ypeError": 2913,
      "//": 2914,
      "Ġswe": 2915,
      "decode": 2916,
      "angi": 2917,
      "Bay": 2918,
      "Ġdilerim": 2919,
      "oken": 2920,
      "Ġexist": 2921,
      "Ġbilmiyorum": 2922,
      "Ġparent": 2923,
      "ĠÃ¶ÄŁren": 2924,
      "Ġbize": 2925,
      "ÄŁl": 2926,
      "Ä±ÄŁÄ±nÄ±": 2927,
      "acaksÄ±n": 2928,
      "quence": 2929,
      "ĠâĢ": 2930,
      "ically": 2931,
      "Ã¼nden": 2932,
      "where": 2933,
      "ilik": 2934,
      "sl": 2935,
      "Ä°Ã§": 2936,
      "resp": 2937,
      "Ġobjects": 2938,
      "bytes": 2939,
      "Ġmorning": 2940,
      "Ġmah": 2941,
      "Ġactually": 2942,
      "run": 2943,
      "process": 2944,
      "Ġwrite": 2945,
      "ited": 2946,
      "roy": 2947,
      "odec": 2948,
      "Hand": 2949,
      "IZ": 2950,
      "iet": 2951,
      "Ġsent": 2952,
      "ÄŁine": 2953,
      "Ġgidiyor": 2954,
      "Name": 2955,
      "Ġyeah": 2956,
      "Ġvere": 2957,
      "Ġhaf": 2958,
      "Ġmatter": 2959,
      "ĠAmer": 2960,
      "Ġdinle": 2961,
      "Ġhold": 2962,
      "Ġbirlikte": 2963,
      "ĠgÃ¶tÃ¼r": 2964,
      "operty": 2965,
      "?\"": 2966,
      "OS": 2967,
      "Ġdri": 2968,
      "rec": 2969,
      "Ġgen": 2970,
      "ision": 2971,
      "Ġistiyorsun": 2972,
      "likle": 2973,
      "Ġquest": 2974,
      "Ġber": 2975,
      "Ġincl": 2976,
      "Ġalt": 2977,
      "Ġsaying": 2978,
      "Ġmode": 2979,
      "ileri": 2980,
      "Ġbulun": 2981,
      "ĠbÃ¼tÃ¼n": 2982,
      "Ġlines": 2983,
      "ĠSo": 2984,
      "ptal": 2985,
      "Ġ\\": 2986,
      "ĠIs": 2987,
      "Ġheard": 2988,
      "Ġoutput": 2989,
      "Ġdostum": 2990,
      "sign": 2991,
      "ĠÃ¼Ã§": 2992,
      "Ġdeal": 2993,
      "ĠuÄŁr": 2994,
      "Kar": 2995,
      "fd": 2996,
      "repr": 2997,
      "stat": 2998,
      "amer": 2999,
      "Ġeither": 3000,
      "io": 3001,
      "ket": 3002,
      "ention": 3003,
      "Ġuser": 3004,
      "Ġistemiyorum": 3005,
      "IR": 3006,
      "Mr": 3007,
      "Ġkes": 3008,
      "Ġshit": 3009,
      "Ġwalk": 3010,
      "Ġheart": 3011,
      "Ya": 3012,
      "can": 3013,
      "encoding": 3014,
      "Ġshall": 3015,
      "Ġasla": 3016,
      "ĠEx": 3017,
      "Ġchange": 3018,
      "options": 3019,
      "OP": 3020,
      "nun": 3021,
      "ression": 3022,
      "ArtÄ±k": 3023,
      "Ġhey": 3024,
      "ĠeÅŁ": 3025,
      "Ġalone": 3026,
      "ĠOr": 3027,
      "ĠkardeÅŁ": 3028,
      "To": 3029,
      "Ġblock": 3030,
      "Merhaba": 3031,
      "amed": 3032,
      "Ġpri": 3033,
      "Ġlost": 3034,
      "struct": 3035,
      "Pekala": 3036,
      "CT": 3037,
      "find": 3038,
      "Ġbuy": 3039,
      "Ġassert": 3040,
      "Ãľz": 3041,
      "Ġkilled": 3042,
      "Ġpretty": 3043,
      "uma": 3044,
      "Ġago": 3045,
      "AS": 3046,
      "bably": 3047,
      "Ġded": 3048,
      "007": 3049,
      "input": 3050,
      "oss": 3051,
      "Ġlog": 3052,
      "Kend": 3053,
      "aydÄ±": 3054,
      "anda": 3055,
      "ĠOkay": 3056,
      "Ġinput": 3057,
      "ĠolmuÅŁ": 3058,
      "enin": 3059,
      "Ġexact": 3060,
      "Ġyeter": 3061,
      "eÅŁekkÃ¼r": 3062,
      "ĠkÄ±r": 3063,
      "endir": 3064,
      "006": 3065,
      "Ġfew": 3066,
      "Ġschool": 3067,
      "At": 3068,
      "Ġfix": 3069,
      "Ġfield": 3070,
      "Ġbuil": 3071,
      "Ġobj": 3072,
      "ray": 3073,
      "siz": 3074,
      "aps": 3075,
      "Ġload": 3076,
      "Ġbekle": 3077,
      "ĠyÃ¼k": 3078,
      "ĠgÃ¶nder": 3079,
      "apped": 3080,
      "Wait": 3081,
      "malÄ±y": 3082,
      "Ġwife": 3083,
      "Ã¼ÄŁÃ¼m": 3084,
      "assertEqual": 3085,
      "Ġsays": 3086,
      "Ġcodecs": 3087,
      "esinlikle": 3088,
      "QU": 3089,
      "Ġins": 3090,
      "ĠIS": 3091,
      "ĠCom": 3092,
      "Ġhaven": 3093,
      "005": 3094,
      "Ġmethods": 3095,
      "Ġkan": 3096,
      "004": 3097,
      "ĠRIGHT": 3098,
      "ĠYes": 3099,
      "gi": 3100,
      "ms": 3101,
      "ern": 3102,
      "ĠCon": 3103,
      "20": 3104,
      "Ġey": 3105,
      "ĠPr": 3106,
      "result": 3107,
      "lean": 3108,
      "ÅŁam": 3109,
      "GÃ¼zel": 3110,
      "Ġaff": 3111,
      "Ġclear": 3112,
      "ĠEn": 3113,
      "Ġbring": 3114,
      "dÃ¼": 3115,
      "vir": 3116,
      "Ġonlar": 3117,
      "buffer": 3118,
      "ORM": 3119,
      "LO": 3120,
      "Ġmyself": 3121,
      "Par": 3122,
      "Tek": 3123,
      "\\\\": 3124,
      "ĠOS": 3125,
      "keys": 3126,
      "âĢĻ": 3127,
      "ĠÃ¶nemli": 3128,
      "mÄ±yorum": 3129,
      "Ġmain": 3130,
      "ĠShe": 3131,
      "ĠNew": 3132,
      "Ġhost": 3133,
      "Ġ'__": 3134,
      "ĠuÃ§": 3135,
      "ĠgÃ¶rÃ¼nÃ¼yor": 3136,
      "liyor": 3137,
      "meden": 3138,
      "pro": 3139,
      "ral": 3140,
      "only": 3141,
      "Ġfl": 3142,
      "Ġtane": 3143,
      "21": 3144,
      "ires": 3145,
      "pat": 3146,
      "Ġsort": 3147,
      "Ã¼p": 3148,
      "ĠRe": 3149,
      "Ġeq": 3150,
      "emem": 3151,
      "Ġediyorum": 3152,
      "Ġbenz": 3153,
      "Right": 3154,
      "mod": 3155,
      "Ġmark": 3156,
      "Ġgone": 3157,
      "itle": 3158,
      "Ġlisten": 3159,
      "Of": 3160,
      "most": 3161,
      "Ġbed": 3162,
      "Ġlater": 3163,
      "ĠsavaÅŁ": 3164,
      "ildi": 3165,
      "ĠLEF": 3166,
      "Ġerkek": 3167,
      "Ġuzak": 3168,
      "lic": 3169,
      "ĠLEFT": 3170,
      "Ġmaster": 3171,
      "ceback": 3172,
      "Ġleast": 3173,
      "ĠbÃ¶l": 3174,
      "Ġdiy": 3175,
      "Ġmas": 3176,
      "Ġkom": 3177,
      "Sonra": 3178,
      "insert": 3179,
      "Ġuzun": 3180,
      "aa": 3181,
      "inc": 3182,
      "Ġseri": 3183,
      "ĠgÃ¼Ã§": 3184,
      "Ġcou": 3185,
      "Ġzaten": 3186,
      "gan": 3187,
      "level": 3188,
      "Ġcouldn": 3189,
      "Context": 3190,
      "Ġ9": 3191,
      "rep": 3192,
      "Ġyere": 3193,
      "Ġport": 3194,
      "Ġton": 3195,
      "ĠbakalÄ±m": 3196,
      "UN": 3197,
      "lÄ±m": 3198,
      "orrow": 3199,
      "Ġvak": 3200,
      "64": 3201,
      ")\\": 3202,
      "Ġinit": 3203,
      "ech": 3204,
      "lerine": 3205,
      "Ġverdi": 3206,
      "Ġpara": 3207,
      "Ġcontinue": 3208,
      "ĠÃĩok": 3209,
      "Ġface": 3210,
      "amÄ±yorum": 3211,
      "Ä±mÄ±zÄ±": 3212,
      "oid": 3213,
      "Ġsizi": 3214,
      "Ġcannot": 3215,
      "Ġwants": 3216,
      "apping": 3217,
      "Ġharika": 3218,
      "Ġpek": 3219,
      "atever": 3220,
      "Ġarguments": 3221,
      "Ġoptions": 3222,
      "Ġhaving": 3223,
      "US": 3224,
      "ERT": 3225,
      "parse": 3226,
      "Ġagainst": 3227,
      "orn": 3228,
      "Ġglob": 3229,
      "omb": 3230,
      "ĠiÅŁe": 3231,
      "param": 3232,
      "Ġexecut": 3233,
      "Ġ12": 3234,
      "Ġedin": 3235,
      "Ġhisset": 3236,
      "Ġyoksa": 3237,
      "oe": 3238,
      "Ġaw": 3239,
      "larÄ±na": 3240,
      "Ġ19": 3241,
      "Ġhandle": 3242,
      "oz": 3243,
      "pend": 3244,
      "Ġwindow": 3245,
      "Ġarab": 3246,
      "ĠgÃ¶rmek": 3247,
      "Ġworking": 3248,
      "Ġeas": 3249,
      "Ġstream": 3250,
      "ĠHer": 3251,
      "ross": 3252,
      "Ġsilah": 3253,
      "yla": 3254,
      "arak": 3255,
      "Ġdie": 3256,
      "Ġvis": 3257,
      "Ġstuff": 3258,
      "Ġwrit": 3259,
      "One": 3260,
      "iver": 3261,
      "match": 3262,
      "Ġknows": 3263,
      "Ġ<=": 3264,
      "ĠÃ¶ÄŁ": 3265,
      "ĠJack": 3266,
      "Ġtekrar": 3267,
      "Some": 3268,
      "Ġpower": 3269,
      "ider": 3270,
      "ĠWell": 3271,
      "Ġevet": 3272,
      "ladÄ±m": 3273,
      "ARK": 3274,
      "rew": 3275,
      "ĠBil": 3276,
      "Ġdol": 3277,
      "olog": 3278,
      "Ġconfig": 3279,
      "Ġsoon": 3280,
      "Ġtom": 3281,
      "arser": 3282,
      "address": 3283,
      "but": 3284,
      "isini": 3285,
      "ics": 3286,
      "Ä±yordum": 3287,
      "Ġyapmak": 3288,
      "ĠdÃ¼ny": 3289,
      "Ġdam": 3290,
      "Ġfact": 3291,
      "ĠAC": 3292,
      "Ġsuper": 3293,
      "ultip": 3294,
      "Ġzorunda": 3295,
      "Ä±cÄ±": 3296,
      "Ġaile": 3297,
      "Ġsleep": 3298,
      "erest": 3299,
      "lain": 3300,
      "psi": 3301,
      "ertain": 3302,
      "Ġblo": 3303,
      "Ġhurt": 3304,
      "avaÅŁ": 3305,
      "Ġinform": 3306,
      "othing": 3307,
      "Ä±ya": 3308,
      "ĠTypeError": 3309,
      "Ġdrink": 3310,
      "Ġkazan": 3311,
      "Ġprogram": 3312,
      "abilirim": 3313,
      "[-": 3314,
      "Ġanda": 3315,
      "Ġnef": 3316,
      "003": 3317,
      "Ġattribute": 3318,
      "viron": 3319,
      "ides": 3320,
      "Ġext": 3321,
      "ipe": 3322,
      "ĠboÅŁ": 3323,
      "Git": 3324,
      "vious": 3325,
      "Ġserver": 3326,
      "bette": 3327,
      "width": 3328,
      "Ġbizi": 3329,
      "ung": 3330,
      "Ġtoken": 3331,
      "Ġinte": 3332,
      "ladÄ±": 3333,
      "Ġlevel": 3334,
      "Ġkarar": 3335,
      "fun": 3336,
      "Ä±ca": 3337,
      "ero": 3338,
      "eleri": 3339,
      "Ġwin": 3340,
      "ises": 3341,
      "Ġlate": 3342,
      "ĠSp": 3343,
      "max": 3344,
      "Ġattr": 3345,
      "Ä±ÄŁÄ±m": 3346,
      "Ġbrother": 3347,
      "Have": 3348,
      "PE": 3349,
      "Ġbilir": 3350,
      "ĠBur": 3351,
      "ĠCar": 3352,
      "Ġreturned": 3353,
      "UL": 3354,
      "sek": 3355,
      "ĠEr": 3356,
      "Ġthinking": 3357,
      "Ġprefix": 3358,
      "Wr": 3359,
      "ersen": 3360,
      "Ä±ÄŁÄ±n": 3361,
      "Ġkaybet": 3362,
      "ĠkiÅŁi": 3363,
      "OK": 3364,
      "ding": 3365,
      "Ġgun": 3366,
      "Ġkah": 3367,
      "ility": 3368,
      "Ã§e": 3369,
      "ialog": 3370,
      "################": 3371,
      "Ġphone": 3372,
      "MA": 3373,
      "view": 3374,
      "ump": 3375,
      "Ġsave": 3376,
      "event": 3377,
      "Ġinstead": 3378,
      "cmd": 3379,
      "sam": 3380,
      "emez": 3381,
      "ounds": 3382,
      "BÃ¶yle": 3383,
      "Ġhemen": 3384,
      "ĠCONT": 3385,
      "ĠiÅŁi": 3386,
      "Ġempty": 3387,
      "elease": 3388,
      "Ġfinally": 3389,
      "Ġ>=": 3390,
      "EX": 3391,
      "cache": 3392,
      "anÄ±m": 3393,
      "Ġvariable": 3394,
      "Ġhappy": 3395,
      "Ġhope": 3396,
      "Ġspecified": 3397,
      "ISO": 3398,
      "Ġroot": 3399,
      "bit": 3400,
      "uld": 3401,
      "Ġflo": 3402,
      "Ġart": 3403,
      "miÅŁti": 3404,
      "lÄ±ÅŁ": 3405,
      "Ġsw": 3406,
      "001": 3407,
      "Ġkimse": 3408,
      "ĠdiÄŁer": 3409,
      "Ġtimes": 3410,
      "Ġrahat": 3411,
      "008": 3412,
      "Ä±yÄ±": 3413,
      "ught": 3414,
      "compile": 3415,
      "Sorry": 3416,
      "Ġside": 3417,
      "Ġcap": 3418,
      "009": 3419,
      "Ä±lmÄ±ÅŁ": 3420,
      "Allah": 3421,
      "50": 3422,
      "fin": 3423,
      "Ġiter": 3424,
      "Every": 3425,
      "uv": 3426,
      "uÃ§": 3427,
      "Ġ..": 3428,
      "Ġmur": 3429,
      "Ġhum": 3430,
      "esini": 3431,
      "eydi": 3432,
      "ĠtanÄ±ÅŁ": 3433,
      "do": 3434,
      "lÄ±yorum": 3435,
      "xy": 3436,
      "Ġcal": 3437,
      "siness": 3438,
      "parent": 3439,
      "Ġspecial": 3440,
      "Ġcreate": 3441,
      "Ġdad": 3442,
      "Ġhit": 3443,
      "Ġbusiness": 3444,
      "ector": 3445,
      "coded": 3446,
      "Ġmakes": 3447,
      "Ġdirectory": 3448,
      "sys": 3449,
      "amak": 3450,
      "Ġnormal": 3451,
      "ayÄ±n": 3452,
      "debug": 3453,
      "ĠÃ§aÄŁ": 3454,
      "Ġ(\"": 3455,
      "Ġ20": 3456,
      "Ġtarget": 3457,
      "box": 3458,
      "Ġsystem": 3459,
      "ael": 3460,
      "br": 3461,
      "lag": 3462,
      "tag": 3463,
      "meyecek": 3464,
      "Ġlocal": 3465,
      "Ġ'%": 3466,
      "omain": 3467,
      "iyi": 3468,
      "Ġfriends": 3469,
      "ROL": 3470,
      "adaki": 3471,
      "ants": 3472,
      "ATION": 3473,
      "Ġtruth": 3474,
      "Ġseviyorum": 3475,
      "Ġposition": 3476,
      "ĠyalnÄ±z": 3477,
      "Ġrequ": 3478,
      "Ġdavran": 3479,
      "malÄ±": 3480,
      "orge": 3481,
      "Ġhon": 3482,
      "Ġwish": 3483,
      "ĠIN": 3484,
      "dist": 3485,
      "ĠJohn": 3486,
      "IO": 3487,
      "madan": 3488,
      "asyon": 3489,
      "uÅŁtur": 3490,
      "header": 3491,
      "Ġworry": 3492,
      "ternal": 3493,
      "anrÄ±": 3494,
      "ĠistediÄŁim": 3495,
      "nf": 3496,
      "Ġsearch": 3497,
      "See": 3498,
      "bind": 3499,
      "mt": 3500,
      "undan": 3501,
      "iful": 3502,
      "Ġprobably": 3503,
      "Ġentry": 3504,
      "CH": 3505,
      "].": 3506,
      "with": 3507,
      "Ġgelir": 3508,
      "memiÅŁ": 3509,
      "Ġkurt": 3510,
      "ĠCONTROL": 3511,
      "come": 3512,
      "ĠdÃ¼z": 3513,
      "ouch": 3514,
      "umn": 3515,
      "ĠÅŁunu": 3516,
      "roll": 3517,
      "Ġanyone": 3518,
      "ences": 3519,
      "\\'": 3520,
      "ÄŁiniz": 3521,
      "ases": 3522,
      "Ġ'''": 3523,
      "Ãĩoc": 3524,
      "Ġhands": 3525,
      "Ġchildren": 3526,
      "ttribute": 3527,
      "Ġspeak": 3528,
      "mit": 3529,
      "Ġhissed": 3530,
      "Ġyarat": 3531,
      "errors": 3532,
      "mesini": 3533,
      "Ġreason": 3534,
      "idden": 3535,
      "user": 3536,
      "swith": 3537,
      "fl": 3538,
      "widget": 3539,
      "Ġfall": 3540,
      "aÄŁa": 3541,
      "UTE": 3542,
      "ĠdÄ±ÅŁarÄ±": 3543,
      "Ġyen": 3544,
      "Ġinside": 3545,
      "ekt": 3546,
      "eket": 3547,
      "Ġreturns": 3548,
      "Ġgetattr": 3549,
      "ĠparÃ§": 3550,
      "EV": 3551,
      "Ġfig": 3552,
      "larda": 3553,
      "ops": 3554,
      "ICAL": 3555,
      "IA": 3556,
      "inst": 3557,
      "erek": 3558,
      "Ġign": 3559,
      "deki": 3560,
      "Ġkontrol": 3561,
      "Ġident": 3562,
      "Selam": 3563,
      "xF": 3564,
      "ĠVe": 3565,
      "Ġminutes": 3566,
      "Ġsocket": 3567,
      "Ġhot": 3568,
      "Ġgiz": 3569,
      "ital": 3570,
      "azy": 3571,
      "Ġolduk": 3572,
      "Ġmaking": 3573,
      "Be": 3574,
      "func": 3575,
      "Ġdig": 3576,
      "Ġmil": 3577,
      "Ġkabul": 3578,
      "Implement": 3579,
      "db": 3580,
      "more": 3581,
      "Ġgave": 3582,
      "ird": 3583,
      "Ġkez": 3584,
      "Ġdeath": 3585,
      "used": 3586,
      "Ġminute": 3587,
      "Ġerrors": 3588,
      "Ġtelefon": 3589,
      "Ġpossible": 3590,
      "Ġtonight": 3591,
      "dÄ±k": 3592,
      "Ġyalan": 3593,
      "Ġcopy": 3594,
      "Ġextra": 3595,
      "miÅŁtim": 3596,
      "Type": 3597,
      "diÅŁ": 3598,
      "ĠmÄ±y": 3599,
      "Ġpackage": 3600,
      "Ġhafta": 3601,
      "Hi": 3602,
      "luk": 3603,
      "Ġolmam": 3604,
      "build": 3605,
      "Ġhala": 3606,
      "Ġwonder": 3607,
      ",\"": 3608,
      "patch": 3609,
      "Ãħ": 3610,
      "ÄŁinde": 3611,
      "Ġrange": 3612,
      "Dec": 3613,
      "Kap": 3614,
      "full": 3615,
      "ony": 3616,
      "Ä±lan": 3617,
      "uyorsun": 3618,
      "ichael": 3619,
      "ync": 3620,
      "ĠWho": 3621,
      "tuple": 3622,
      "Ġkids": 3623,
      "Ġtypes": 3624,
      "Ġexactly": 3625,
      "mÄ±yor": 3626,
      "sk": 3627,
      "Ġima": 3628,
      "INE": 3629,
      "Ġmisiniz": 3630,
      "30": 3631,
      "bed": 3632,
      "ĠThey": 3633,
      "Ġhuh": 3634,
      "Ġdoor": 3635,
      "Ġtomorrow": 3636,
      "dit": 3637,
      "Ã¼ph": 3638,
      "ĠkÄ±s": 3639,
      "ĠAB": 3640,
      "Ġverir": 3641,
      "ucu": 3642,
      "ished": 3643,
      "Hello": 3644,
      "Ġyield": 3645,
      "Ġfalan": 3646,
      "Ġansw": 3647,
      "ĠExt": 3648,
      "ERTICAL": 3649,
      "Like": 3650,
      "Take": 3651,
      "over": 3652,
      "ĠyÄ±ld": 3653,
      "Ġgec": 3654,
      "Ġ'|": 3655,
      "Ġreport": 3656,
      "ĠFORM": 3657,
      "airs": 3658,
      "DÃ¼n": 3659,
      "Ġnedir": 3660,
      "Ġlight": 3661,
      "Ġparser": 3662,
      "larÄ±nÄ±n": 3663,
      "Ġlooks": 3664,
      "Ġgroup": 3665,
      "Ġcolle": 3666,
      "Tell": 3667,
      "Ġsin": 3668,
      "ekle": 3669,
      "ĠKim": 3670,
      "ĠVERTICAL": 3671,
      "ĠgÃ¶rev": 3672,
      "types": 3673,
      "Pro": 3674,
      "Ġsol": 3675,
      "Ġdat": 3676,
      "unca": 3677,
      "ĠanlaÅŁ": 3678,
      "ĠIP": 3679,
      "ided": 3680,
      "ground": 3681,
      "Ġkurtar": 3682,
      "AslÄ±nda": 3683,
      "Ġsizin": 3684,
      "ÃĸzÃ¼r": 3685,
      "KÄ±z": 3686,
      "Ġgar": 3687,
      "Ġeve": 3688,
      "ersiniz": 3689,
      "Ġgereken": 3690,
      "Ġstatement": 3691,
      "Ä°nsan": 3692,
      "Ġsingle": 3693,
      "Tr": 3694,
      "top": 3695,
      "els": 3696,
      "lex": 3697,
      "Ġkul": 3698,
      "Ã¼nÃ¼z": 3699,
      "Ġorig": 3700,
      "ĠPar": 3701,
      "Ġteh": 3702,
      "Ã¼yorum": 3703,
      "ayÄ±p": 3704,
      "Ġyakal": 3705,
      "ĠOSError": 3706,
      "Sak": 3707,
      "Ġwarn": 3708,
      "amb": 3709,
      "ether": 3710,
      "GerÃ§ekten": 3711,
      "De": 3712,
      "Ġsok": 3713,
      "ities": 3714,
      "Ġbeaut": 3715,
      "Ġsever": 3716,
      "ĠĠĠĠĠĠĠĠĠĠĠĠĠĠĠĠĠĠĠĠĠĠ": 3717,
      "prec": 3718,
      "gun": 3719,
      "ĠateÅŁ": 3720,
      "ĠbirkaÃ§": 3721,
      "Ġgets": 3722,
      "ĠChrist": 3723,
      "Ġsahip": 3724,
      "Ġinformation": 3725,
      "19": 3726,
      "ĠThere": 3727,
      "enn": 3728,
      "ately": 3729,
      "Ġfa": 3730,
      "child": 3731,
      "Ä°l": 3732,
      "Ab": 3733,
      "Decimal": 3734,
      "gu": 3735,
      "ored": 3736,
      "ĠyÃ¼r": 3737,
      "uss": 3738,
      "Ġcho": 3739,
      "ĠÃ§alÄ±ÅŁÄ±yor": 3740,
      "mamÄ±z": 3741,
      "Ġinterest": 3742,
      "ces": 3743,
      "xB": 3744,
      "Ġbay": 3745,
      "Ġyes": 3746,
      "Ġmad": 3747,
      "Ġeat": 3748,
      "ĠST": 3749,
      "ĠCHA": 3750,
      "dirs": 3751,
      "ĠakÅŁam": 3752,
      "Ġpolice": 3753,
      "arÄ±n": 3754,
      "Ġkit": 3755,
      "unch": 3756,
      "iddi": 3757,
      "002": 3758,
      "ĠGet": 3759,
      "obody": 3760,
      "Ġimportant": 3761,
      "ributes": 3762,
      "ĠtarafÄ±ndan": 3763,
      "Ġgiy": 3764,
      "Ġpres": 3765,
      "Ġforg": 3766,
      "ĠMy": 3767,
      "ĠKey": 3768,
      "BugÃ¼n": 3769,
      "avi": 3770,
      "band": 3771,
      "ving": 3772,
      "Ġsand": 3773,
      "Ġfav": 3774,
      "Ġlaw": 3775,
      "ĠCan": 3776,
      "log": 3777,
      "Ġyerde": 3778,
      "adÄ±n": 3779,
      "idd": 3780,
      "ries": 3781,
      "ĠUP": 3782,
      "ages": 3783,
      "IM": 3784,
      "copy": 3785,
      "Ġlock": 3786,
      "iled": 3787,
      "ĠdeÄŁildi": 3788,
      "ĠihtiyacÄ±m": 3789,
      "((": 3790,
      "Ner": 3791,
      "arning": 3792,
      "rest": 3793,
      "Ġbook": 3794,
      "masÄ±nÄ±": 3795,
      "File": 3796,
      "ĠtÃ¼r": 3797,
      "ĠBaÅŁ": 3798,
      "Hayat": 3799,
      "Ġmurder": 3800,
      "By": 3801,
      "Base": 3802,
      "ionary": 3803,
      "ĠyapÄ±yorsun": 3804,
      "ĠsaÃ§": 3805,
      "Ġinsanlar": 3806,
      "color": 3807,
      "Handler": 3808,
      "ughter": 3809,
      "oon": 3810,
      "src": 3811,
      "ĠbÃ¼y": 3812,
      "Ġkut": 3813,
      "Ġtaking": 3814,
      "Ġrunning": 3815,
      "Ġsupposed": 3816,
      "Tabii": 3817,
      "ĠhÄ±z": 3818,
      "ailable": 3819,
      "Buraya": 3820,
      "ĠÃ¶lÃ¼m": 3821,
      "TÃ¼m": 3822,
      "YRI": 3823,
      "Ġetk": 3824,
      "Ãĸn": 3825,
      "ĠkarÅŁÄ±l": 3826,
      "Yok": 3827,
      "Ä±lar": 3828,
      "Ġthough": 3829,
      "ĠeÄŁer": 3830,
      "lerde": 3831,
      "ĠCYRI": 3832,
      "Ġsequence": 3833,
      "ctor": 3834,
      "Ġherkes": 3835,
      "Ġbilmiyor": 3836,
      "RAC": 3837,
      "LLIC": 3838,
      "ĠCYRILLIC": 3839,
      "yim": 3840,
      "Ġyemek": 3841,
      "left": 3842,
      "Ä±mda": 3843,
      "Hep": 3844,
      "Ġparty": 3845,
      "HiÃ§bir": 3846,
      "Ġfollowing": 3847,
      "Br": 3848,
      "por": 3849,
      "inter": 3850,
      "amÄ±": 3851,
      "lerle": 3852,
      "Ġneeds": 3853,
      "********": 3854,
      "Kon": 3855,
      "cuse": 3856,
      "unday": 3857,
      "items": 3858,
      "mail": 3859,
      "Ġ|\\": 3860,
      "ĠÃ§ocuklar": 3861,
      "Ġhours": 3862,
      "RACTER": 3863,
      "God": 3864,
      "ges": 3865,
      "anlar": 3866,
      "aka": 3867,
      "ĠCome": 3868,
      "ĠvardÄ±r": 3869,
      "eorge": 3870,
      "Ġhik": 3871,
      "Ġhus": 3872,
      "amay": 3873,
      "Ġneeded": 3874,
      "action": 3875,
      "Ġbelki": 3876,
      "ESIS": 3877,
      "Ġcharacter": 3878,
      "ĠCHARACTER": 3879,
      "RL": 3880,
      "Set": 3881,
      "Ġsection": 3882,
      "Ġmana": 3883,
      "ÄŁe": 3884,
      "ĠÃ§ev": 3885,
      "Any": 3886,
      "02": 3887,
      "Dr": 3888,
      "field": 3889,
      "Ġdikkat": 3890,
      "Ġwater": 3891,
      "ĠBayan": 3892,
      "lerden": 3893,
      "ĠHOR": 3894,
      "Ġbenimle": 3895,
      "selves": 3896,
      "ĠdeÄŁiÅŁtir": 3897,
      "abilece": 3898,
      "aught": 3899,
      "Tom": 3900,
      "irc": 3901,
      "Ġonlara": 3902,
      "ĠTo": 3903,
      "Ġveya": 3904,
      "Ġcontrol": 3905,
      "ĠkaÃ§Ä±r": 3906,
      "ONTAL": 3907,
      "IZONTAL": 3908,
      "\"\\": 3909,
      "down": 3910,
      "Ġluck": 3911,
      "utf": 3912,
      "ĠSee": 3913,
      "Ġcertain": 3914,
      "Ġplat": 3915,
      "Ġref": 3916,
      "ĠSe": 3917,
      "ĠLet": 3918,
      "ĠTanrÄ±m": 3919,
      "property": 3920,
      "ĠHORIZONTAL": 3921,
      "\"),": 3922,
      "SÃ¶yle": 3923,
      "suz": 3924,
      "ĠSam": 3925,
      "ption": 3926,
      "Ġburadan": 3927,
      "ĠyakÄ±n": 3928,
      "BaÅŁka": 3929,
      "TH": 3930,
      "xD": 3931,
      "Ġain": 3932,
      "ĠbirÅŁey": 3933,
      "ĠGer": 3934,
      "Ġtrust": 3935,
      "Ġmusunuz": 3936,
      "Stream": 3937,
      "Ġasked": 3938,
      "madÄ±m": 3939,
      "ga": 3940,
      "ying": 3941,
      "Ġdedim": 3942,
      "Ġocc": 3943,
      "Ġlik": 3944,
      "Ġseb": 3945,
      "Ġlead": 3946,
      "ĠÄ°yi": 3947,
      "Ġcrazy": 3948,
      ":]": 3949,
      "Ġberi": 3950,
      "Ġfail": 3951,
      "__()\"": 3952,
      "ĠMARK": 3953,
      "ĠGood": 3954,
      "Ġconf": 3955,
      "Bence": 3956,
      "Ġyerine": 3957,
      "ship": 3958,
      "256": 3959,
      "hash": 3960,
      "rt": 3961,
      "Ġdate": 3962,
      "ask": 3963,
      "Ġstory": 3964,
      "255": 3965,
      "Ġpattern": 3966,
      "Ġfilm": 3967,
      "emin": 3968,
      "ĠSan": 3969,
      "Implemented": 3970,
      "SC": 3971,
      "link": 3972,
      "Ġpast": 3973,
      "Ġdefined": 3974,
      "ĠOF": 3975,
      "ured": 3976,
      "abilirsin": 3977,
      "dÃ¼r": 3978,
      "fil": 3979,
      "xC": 3980,
      "reet": 3981,
      "ĠTom": 3982,
      "plat": 3983,
      "Ġkonu": 3984,
      "print": 3985,
      "Ġheaders": 3986,
      "ĠÃ¼zerinde": 3987,
      "Ġdescript": 3988,
      "GÃ¶": 3989,
      "mp": 3990,
      "point": 3991,
      "xA": 3992,
      "Ġtab": 3993,
      "icy": 3994,
      "ĠWhere": 3995,
      "modules": 3996,
      "Ġaccess": 3997,
      "16": 3998,
      "message": 3999,
      "ĠSE": 4000,
      "ĠkarÄ±ÅŁ": 4001,
      "yan": 4002,
      "Ġshot": 4003,
      "Ä°ki": 4004,
      "Ġpassed": 4005,
      "âĢĿ": 4006,
      "Ġeveryone": 4007,
      "Listen": 4008,
      "count": 4009,
      "gÄ±n": 4010,
      "sup": 4011,
      "ilmiÅŁ": 4012,
      "ĠSte": 4013,
      "Ã¼rÃ¼z": 4014,
      "conn": 4015,
      "exc": 4016,
      "Ġresults": 4017,
      "mayÄ±n": 4018,
      "Haydi": 4019,
      "ĠsaldÄ±r": 4020,
      "Ġeski": 4021,
      "TanrÄ±m": 4022,
      "Ġsar": 4023,
      "Ġfour": 4024,
      "outh": 4025,
      "ĠGr": 4026,
      "Ġhadi": 4027,
      "Ġfinal": 4028,
      "madÄ±": 4029,
      "Adam": 4030,
      "Ġbuna": 4031,
      "ref": 4032,
      "Ġfire": 4033,
      "Ġ'*": 4034,
      "ura": 4035,
      "eks": 4036,
      "Ġchance": 4037,
      "lamak": 4038,
      "Ġaccept": 4039,
      "ĠgÃ¶rdÃ¼m": 4040,
      "Ġhang": 4041,
      "Ġyapar": 4042,
      "Ann": 4043,
      "Ġfunc": 4044,
      "Ġkendini": 4045,
      "replace": 4046,
      "FC": 4047,
      "duk": 4048,
      "Ġise": 4049,
      "ĠAs": 4050,
      "elli": 4051,
      "eceÄŁiz": 4052,
      "BÃ¼tÃ¼n": 4053,
      "ient": 4054,
      "Ġesc": 4055,
      "Ġrefer": 4056,
      "ĠLIGHT": 4057,
      "aÅŁtÄ±r": 4058,
      "ĠOK": 4059,
      "Ġgelen": 4060,
      "ments": 4061,
      "after": 4062,
      "Ġkonus": 4063,
      "Ġerr": 4064,
      "Ä±ldÄ±": 4065,
      "ehir": 4066,
      "Ãĩocuk": 4067,
      "Ser": 4068,
      "gil": 4069,
      "ivers": 4070,
      "Ġtah": 4071,
      "Ġtag": 4072,
      "omet": 4073,
      "icode": 4074,
      "Ġolay": 4075,
      "ĠMon": 4076,
      "lama": 4077,
      "Ġwaiting": 4078,
      "Class": 4079,
      "Codec": 4080,
      "Ġauth": 4081,
      "Ġdiyor": 4082,
      "Ġhem": 4083,
      "ĠoÄŁl": 4084,
      "Ġcev": 4085,
      "ĠSc": 4086,
      "ĠÃ¶d": 4087,
      "Ġless": 4088,
      "Ġprotocol": 4089,
      "Sorun": 4090,
      "ĠeÄŁlen": 4091,
      "Ġeyes": 4092,
      "KE": 4093,
      "now": 4094,
      "sak": 4095,
      "tum": 4096,
      "Ġ$": 4097,
      "Ġkav": 4098,
      "Ġdaughter": 4099,
      "handle": 4100,
      "Ġaptal": 4101,
      "aÅŁÄ±r": 4102,
      "Ġ15": 4103,
      "Ġstarted": 4104,
      "ances": 4105,
      "Ġblood": 4106,
      "mac": 4107,
      "Ġthread": 4108,
      "ĠbugÃ¼n": 4109,
      "ride": 4110,
      "ists": 4111,
      "Ġseninle": 4112,
      "Ġbahset": 4113,
      "PT": 4114,
      "meni": 4115,
      "yse": 4116,
      "ĠbazÄ±": 4117,
      "ories": 4118,
      "strip": 4119,
      "Ġdisplay": 4120,
      "OWN": 4121,
      "ÃľzgÃ¼nÃ¼m": 4122,
      "ased": 4123,
      "loop": 4124,
      "Ġpolis": 4125,
      "Ġmissing": 4126,
      "With": 4127,
      "aul": 4128,
      "lÃ¼k": 4129,
      "elik": 4130,
      "Ġgelecek": 4131,
      "aving": 4132,
      "UTF": 4133,
      "Ġresponse": 4134,
      "ĠyÃ¶n": 4135,
      "Ġsabah": 4136,
      "AG": 4137,
      "Bayan": 4138,
      "xf": 4139,
      "err": 4140,
      "tens": 4141,
      "cy": 4142,
      "gine": 4143,
      "Â¶": 4144,
      "atÄ±": 4145,
      "Ġfuture": 4146,
      "imin": 4147,
      "Ä±lÄ±": 4148,
      "ĠÃ¼zgÃ¼nÃ¼m": 4149,
      "TeÅŁekkÃ¼r": 4150,
      "anÄ±z": 4151,
      "Ġedecek": 4152,
      "Ġsafe": 4153,
      "Ġhasattr": 4154,
      "ĠsanÄ±rÄ±m": 4155,
      "year": 4156,
      "handler": 4157,
      "ttributeError": 4158,
      "ĠExtended": 4159,
      "Ġhusband": 4160,
      "29": 4161,
      "Give": 4162,
      "Pol": 4163,
      "mode": 4164,
      "Ġyine": 4165,
      "Ġneler": 4166,
      "Ġpo": 4167,
      "Ġtot": 4168,
      "otocol": 4169,
      "diÄŁini": 4170,
      "raid": 4171,
      "strict": 4172,
      "Ġburad": 4173,
      "Ġonunla": 4174,
      "Ġstandard": 4175,
      "Ġquestion": 4176,
      "([": 4177,
      "dout": 4178,
      "flags": 4179,
      "~~": 4180,
      "Ġbound": 4181,
      "Ġdoktor": 4182,
      "Ġces": 4183,
      "secon": 4184,
      "ĠBunu": 4185,
      "Ġ['": 4186,
      "ĠThank": 4187,
      "14": 4188,
      "Ayr": 4189,
      "GeÃ§": 4190,
      "table": 4191,
      "warn": 4192,
      "osp": 4193,
      "trans": 4194,
      "Ġoffset": 4195,
      "Ġnews": 4196,
      "ĠteÅŁekkÃ¼rler": 4197,
      "xE": 4198,
      "Ġdok": 4199,
      "Ġfive": 4200,
      "Ġnamed": 4201,
      "entry": 4202,
      "ĠEl": 4203,
      "ĠolmasÄ±": 4204,
      "ublic": 4205,
      "Ġbeautiful": 4206,
      "Size": 4207,
      "ai": 4208,
      "mbol": 4209,
      "Ġsus": 4210,
      "Ġdied": 4211,
      "ĠLe": 4212,
      "Ġcompar": 4213,
      "Ġraised": 4214,
      "ĠdÃ¶nd": 4215,
      "Ã¼ÄŁÃ¼nÃ¼": 4216,
      "Af": 4217,
      "Mar": 4218,
      "gul": 4219,
      "zen": 4220,
      "Ġmuy": 4221,
      "ali": 4222,
      "ĠIm": 4223,
      "Ġstep": 4224,
      "Ġable": 4225,
      "Ġboz": 4226,
      "codecs": 4227,
      "ĠyaklaÅŁ": 4228,
      "Ġrepresent": 4229,
      "Ġserious": 4230,
      "mun": 4231,
      "try": 4232,
      "Ġdream": 4233,
      "oph": 4234,
      "Ġeden": 4235,
      "cont": 4236,
      "Stop": 4237,
      "local": 4238,
      "ĠExtendedContext": 4239,
      "Ol": 4240,
      "duÄŁ": 4241,
      "lin": 4242,
      "Ġyeme": 4243,
      "eder": 4244,
      "ĠHT": 4245,
      "ĠyaptÄ±": 4246,
      "Ġzar": 4247,
      "tiÄŁini": 4248,
      "Ġanymore": 4249,
      "DoÄŁru": 4250,
      "Ġsmall": 4251,
      "Ġbehind": 4252,
      "ĠACUTE": 4253,
      "IF": 4254,
      "kÄ±": 4255,
      "aring": 4256,
      "elib": 4257,
      "Ġmag": 4258,
      "Ġitems": 4259,
      "ĠAP": 4260,
      "Ä±yorlar": 4261,
      "ĠalÄ±n": 4262,
      "Incremental": 4263,
      "Ġcreated": 4264,
      "Ġtemiz": 4265,
      "Lo": 4266,
      "Ġdu": 4267,
      "Ġ'<": 4268,
      "Ġlink": 4269,
      "Ġparse": 4270,
      "Ġhandler": 4271,
      "ĠWhy": 4272,
      "Ġberaber": 4273,
      "diniz": 4274,
      "miss": 4275,
      "elcome": 4276,
      "Ġcut": 4277,
      "ĠulaÅŁ": 4278,
      "iles": 4279,
      "Ġtaken": 4280,
      "ĠÃ¶zel": 4281,
      "Yak": 4282,
      "Ġfree": 4283,
      "unt": 4284,
      "Ġyoung": 4285,
      "Ġ'-": 4286,
      "Ġwhether": 4287,
      "Ġdolar": 4288,
      "__,": 4289,
      "last": 4290,
      "Ġconc": 4291,
      "Ġclasses": 4292,
      "cii": 4293,
      "Ġmonths": 4294,
      "ĠNotImplemented": 4295,
      "Ġcouple": 4296,
      "His": 4297,
      "NE": 4298,
      "OD": 4299,
      "eal": 4300,
      "font": 4301,
      "yÄ±": 4302,
      "rag": 4303,
      "Info": 4304,
      "ladÄ±n": 4305,
      "ĠkatÄ±l": 4306,
      "Reader": 4307,
      "Ġeasy": 4308,
      "like": 4309,
      "mar": 4310,
      "Ġcur": 4311,
      "Ġclean": 4312,
      "Ġkoc": 4313,
      "ief": 4314,
      "Ġbrought": 4315,
      "Ġafraid": 4316,
      "Ġhalf": 4317,
      "lant": 4318,
      "vis": 4319,
      "alt": 4320,
      "imple": 4321,
      "ittest": 4322,
      "Ġpresent": 4323,
      "Ġforget": 4324,
      "Gr": 4325,
      "friend": 4326,
      "lÄ±y": 4327,
      "python": 4328,
      "Ġtes": 4329,
      "Ġgame": 4330,
      "ĠfÄ±r": 4331,
      "Ġlim": 4332,
      "ĠSING": 4333,
      "Ġistey": 4334,
      "Ġlength": 4335,
      "PA": 4336,
      "aid": 4337,
      "ĠÃĸ": 4338,
      "Ġtown": 4339,
      "Ġbirbir": 4340,
      "abÄ±": 4341,
      "iyoruz": 4342,
      "Ġshoot": 4343,
      "ĠRFC": 4344,
      "Ġtrouble": 4345,
      "ĠWhen": 4346,
      "Ġ/": 4347,
      "erry": 4348,
      "Ġses": 4349,
      "Ġdecode": 4350,
      "Ġ100": 4351,
      "Ġkeyword": 4352,
      "Exception": 4353,
      "Ġdestroy": 4354,
      "ĠSINGLE": 4355,
      "GÃ¼n": 4356,
      "Nothing": 4357,
      "Ġtable": 4358,
      "Ġmine": 4359,
      "Ġmess": 4360,
      "Ġdebug": 4361,
      "Ġeff": 4362,
      "ĠonlarÄ±n": 4363,
      "ĠSer": 4364,
      "Ġdefinit": 4365,
      "Ġoutside": 4366,
      "ÄŁimi": 4367,
      "Onlar": 4368,
      "comple": 4369,
      "ĠQU": 4370,
      "Ġbuilt": 4371,
      "Ġurl": 4372,
      "Ġris": 4373,
      "ĠÃ§ar": 4374,
      "ĠyanlÄ±ÅŁ": 4375,
      "15": 4376,
      "Buna": 4377,
      "ney": 4378,
      "vate": 4379,
      "ats": 4380,
      "ĠHE": 4381,
      "ĠWill": 4382,
      "liÄŁi": 4383,
      "ĠJust": 4384,
      "Ġinteger": 4385,
      "ML": 4386,
      "glob": 4387,
      "ena": 4388,
      "Ġmill": 4389,
      "amÄ±z": 4390,
      "Ġpop": 4391,
      "ibility": 4392,
      "exit": 4393,
      "Harika": 4394,
      "alog": 4395,
      "imde": 4396,
      "stract": 4397,
      "Ġquite": 4398,
      "Orada": 4399,
      "ĠfarklÄ±": 4400,
      "Ġcharacters": 4401,
      "ĠÃ§aÄŁÄ±r": 4402,
      "Ġanswer": 4403,
      "Ġtouch": 4404,
      "Ġaut": 4405,
      "Ġmily": 4406,
      "Ġgre": 4407,
      "Ġshut": 4408,
      "ĠdeÄŁilsin": 4409,
      "apper": 4410,
      "update": 4411,
      "Ġoffice": 4412,
      "ribution": 4413,
      "create": 4414,
      "offset": 4415,
      "Ġinitial": 4416,
      "xb": 4417,
      "Ġ''": 4418,
      "ĠBe": 4419,
      "Ġetme": 4420,
      "Ä±nÄ±zÄ±": 4421,
      "meliyim": 4422,
      "Ġchanges": 4423,
      "Ġkolay": 4424,
      "Ġfikir": 4425,
      "lineno": 4426,
      "Ġseem": 4427,
      "gest": 4428,
      "ational": 4429,
      "\"]": 4430,
      "II": 4431,
      "Ġfel": 4432,
      "Ġround": 4433,
      "Ġexample": 4434,
      "Ġcalls": 4435,
      "Ġparameter": 4436,
      "================": 4437,
      "bel": 4438,
      "lÄ±ÄŁ": 4439,
      "Ġah": 4440,
      "ĠPh": 4441,
      "Ġettim": 4442,
      "next": 4443,
      "Ġ30": 4444,
      "group": 4445,
      "ĠyÃ¼zÃ¼nden": 4446,
      "ency": 4447,
      "amazsÄ±n": 4448,
      "ĠolmadÄ±ÄŁÄ±nÄ±": 4449,
      "fect": 4450,
      "lower": 4451,
      "ume": 4452,
      "ĠÃ§Ã¶z": 4453,
      "Ġabs": 4454,
      "Ġolursa": 4455,
      "etime": 4456,
      "Ġanne": 4457,
      "ĠSeni": 4458,
      "ĠDe": 4459,
      "Ġsex": 4460,
      "Ġextens": 4461,
      "ĠyaptÄ±m": 4462,
      "manÄ±n": 4463,
      "Ġbitch": 4464,
      "Ġnefret": 4465,
      "face": 4466,
      "ĠÃ¼l": 4467,
      "ĠkanÄ±": 4468,
      "Ġbuffer": 4469,
      "Ġcomes": 4470,
      "Ġencode": 4471,
      "ĠbaÅŁar": 4472,
      "files": 4473,
      "IX": 4474,
      "aat": 4475,
      "lus": 4476,
      "van": 4477,
      "Ġ]": 4478,
      "ĠBak": 4479,
      "ĠMay": 4480,
      "istan": 4481,
      "ĠYork": 4482,
      "Ġmoment": 4483,
      "Res": 4484,
      "aydÄ±n": 4485,
      "ĠDav": 4486,
      "ilecek": 4487,
      "Ä±lmaz": 4488,
      "uyu": 4489,
      "Ġraw": 4490,
      "ĠgÃ¼nÃ¼": 4491,
      "mamÄ±ÅŁ": 4492,
      "Ġskip": 4493,
      "CUM": 4494,
      "Emin": 4495,
      "OF": 4496,
      "Se": 4497,
      "{}": 4498,
      "alib": 4499,
      "ĠAb": 4500,
      "uluk": 4501,
      "Ġaren": 4502,
      "tax": 4503,
      "option": 4504,
      "ĠIPv": 4505,
      "Kah": 4506,
      "kli": 4507,
      "emi": 4508,
      "extens": 4509,
      "Ġavailable": 4510,
      "ĠFrank": 4511,
      "XX": 4512,
      "iam": 4513,
      "rol": 4514,
      "window": 4515,
      "lem": 4516,
      "Ġot": 4517,
      "Ġcustom": 4518,
      "search": 4519,
      "ĠNote": 4520,
      "Ġbelir": 4521,
      "Ġnumar": 4522,
      "Ġrecord": 4523,
      "Ġfront": 4524,
      "Will": 4525,
      "gative": 4526,
      "Ġhed": 4527,
      "eters": 4528,
      "abuk": 4529,
      "Ġherh": 4530,
      "ĠKar": 4531,
      "writ": 4532,
      "ÃľÃ§": 4533,
      "uation": 4534,
      "Ġcli": 4535,
      "yntax": 4536,
      "Ġgider": 4537,
      "ĠBenim": 4538,
      "button": 4539,
      "Qu": 4540,
      "Tam": 4541,
      "pen": 4542,
      "Ġcla": 4543,
      "ĠĠĠĠĠĠĠĠĠĠĠĠĠĠĠĠĠĠĠĠĠ": 4544,
      "Ġnear": 4545,
      "ĠMc": 4546,
      "iÅŁk": 4547,
      "ressed": 4548,
      "ookie": 4549,
      "Ġsecret": 4550,
      "ĠÃ¶zÃ¼r": 4551,
      "!\"": 4552,
      "Key": 4553,
      "Le": 4554,
      "Say": 4555,
      "lelib": 4556,
      "Ġbra": 4557,
      "Ġdiv": 4558,
      "Ġbirini": 4559,
      "idence": 4560,
      "ĠMerhaba": 4561,
      "iyon": 4562,
      "ifier": 4563,
      "Ġalive": 4564,
      "anger": 4565,
      "manÄ±": 4566,
      "Ġbre": 4567,
      "irket": 4568,
      "Ġpap": 4569,
      "Ġ'_": 4570,
      "abc": 4571,
      "ĠBel": 4572,
      "ĠTr": 4573,
      "Ġshort": 4574,
      "melisin": 4575,
      "server": 4576,
      "medin": 4577,
      "Ok": 4578,
      "cÃ¼": 4579,
      "Ġgod": 4580,
      "stack": 4581,
      "Ġcnf": 4582,
      "Ġkok": 4583,
      "Ġheav": 4584,
      "Ġsepar": 4585,
      "ĠGo": 4586,
      "ĠyaptÄ±n": 4587,
      "lice": 4588,
      "ĠkaldÄ±r": 4589,
      "Ġattack": 4590,
      "ĠaÅŁk": 4591,
      "Ġbahsed": 4592,
      "Ġdocument": 4593,
      "Ġdictionary": 4594,
      "Ġcountry": 4595,
      "UP": 4596,
      "Ġbomb": 4597,
      "request": 4598,
      "Ġmal": 4599,
      "Ġgoes": 4600,
      "Ġoraya": 4601,
      "portError": 4602,
      "headers": 4603,
      "05": 4604,
      "you": 4605,
      "Ġbenden": 4606,
      "adÄ±k": 4607,
      "ĠBar": 4608,
      "Ġolsa": 4609,
      "ĠDist": 4610,
      "iyat": 4611,
      "Ġayak": 4612,
      "Ġexpect": 4613,
      "arlie": 4614,
      "AME": 4615,
      "Ġplatform": 4616,
      "bin": 4617,
      "case": 4618,
      "send": 4619,
      "udi": 4620,
      "Ġ&": 4621,
      "Ġdile": 4622,
      "larÄ±nda": 4623,
      "Ä±lÄ±r": 4624,
      "Ġconv": 4625,
      "larÄ±ndan": 4626,
      "Ġbecome": 4627,
      "clear": 4628,
      "abs": 4629,
      "verse": 4630,
      "ĠyaptÄ±k": 4631,
      "Ġche": 4632,
      "Ġedebilir": 4633,
      "Ã¼kem": 4634,
      "LEX": 4635,
      "Ġfunctions": 4636,
      "Ġkeys": 4637,
      "wards": 4638,
      "Ġip": 4639,
      "Ġinc": 4640,
      "Ġwhatever": 4641,
      "Ġalmost": 4642,
      "ards": 4643,
      "Ġtimeout": 4644,
      "Ġassign": 4645,
      "ARE": 4646,
      "Ġsun": 4647,
      "Ġpi": 4648,
      "lerinden": 4649,
      "ĠEd": 4650,
      "Ġteam": 4651,
      "Ġimp": 4652,
      "upid": 4653,
      "Ġstrings": 4654,
      "Ġgidip": 4655,
      "Ġmember": 4656,
      "'\\": 4657,
      "Ak": 4658,
      "KÃ¶": 4659,
      "ascii": 4660,
      "....": 4661,
      "aced": 4662,
      "oder": 4663,
      "Ġjoin": 4664,
      "ĠYOU": 4665,
      "alarÄ±nÄ±": 4666,
      "Ġcalling": 4667,
      "Ġfavor": 4668,
      "oj": 4669,
      "ĠÃĸyle": 4670,
      "Ġair": 4671,
      "Ġcop": 4672,
      "Ġkas": 4673,
      "iltin": 4674,
      "Ġinfo": 4675,
      "umb": 4676,
      "aph": 4677,
      "ĠNeden": 4678,
      "Ä±lÄ±k": 4679,
      "Ġevlen": 4680,
      "exception": 4681,
      "abiliriz": 4682,
      "Ġoperation": 4683,
      "13": 4684,
      "gar": 4685,
      "nie": 4686,
      "erg": 4687,
      "Ġsick": 4688,
      "Ġnet": 4689,
      "urum": 4690,
      "Ġkalk": 4691,
      "Herkes": 4692,
      "ails": 4693,
      "ancel": 4694,
      "Ġchanged": 4695,
      "Ac": 4696,
      "baÅŁ": 4697,
      "Ġtried": 4698,
      "Ġyiy": 4699,
      "Ġgez": 4700,
      "ices": 4701,
      "---": 4702,
      "iff": 4703,
      "eceÄŁini": 4704,
      "Ġbilg": 4705,
      "Excuse": 4706,
      "target": 4707,
      "Ġpromise": 4708,
      "Ã¼kemmel": 4709,
      ")\"": 4710,
      "pass": 4711,
      "Ġtabii": 4712,
      "asÄ±nÄ±n": 4713,
      "Ġadv": 4714,
      "Ark": 4715,
      "Ġcover": 4716,
      "startswith": 4717,
      "Ġwomen": 4718,
      "``": 4719,
      "tip": 4720,
      "Ġ,": 4721,
      "Ġdialog": 4722,
      "Ġnor": 4723,
      "imizi": 4724,
      "Ġbegin": 4725,
      "diÄŁi": 4726,
      "control": 4727,
      "Ġtelling": 4728,
      "Ġhareket": 4729,
      "Ġboyunca": 4730,
      "Ġsimple": 4731,
      "Demek": 4732,
      "dÃ¼n": 4733,
      "pol": 4734,
      "Ġahead": 4735,
      "Ġondan": 4736,
      "Ġdoctor": 4737,
      "Ġsomebody": 4738,
      "ĠReturns": 4739,
      "Ġvisit": 4740,
      "(*": 4741,
      "+--------------------------------": 4742,
      "Would": 4743,
      "fa": 4744,
      "ris": 4745,
      "ĠkÄ±": 4746,
      "ikle": 4747,
      "iktir": 4748,
      "ĠalÄ±r": 4749,
      "Ġprof": 4750,
      "length": 4751,
      "retsin": 4752,
      "Ġcolumn": 4753,
      "Ġappe": 4754,
      "PekÃ¢lÃ¢": 4755,
      "Ġwords": 4756,
      "Ġmarried": 4757,
      "ĠgenÃ§": 4758,
      "Ġkonusunda": 4759,
      "AyrÄ±ca": 4760,
      "lak": 4761,
      "pec": 4762,
      "vest": 4763,
      "Ġoldum": 4764,
      "anged": 4765,
      "ĠÃ§Ä±ktÄ±": 4766,
      "lÄ±sÄ±n": 4767,
      "Ġdurdur": 4768,
      "queue": 4769,
      "register": 4770,
      "FF": 4771,
      "ha": 4772,
      "Ġsister": 4773,
      "Ġmed": 4774,
      "Ġmist": 4775,
      "ural": 4776,
      "oto": 4777,
      "ements": 4778,
      "These": 4779,
      "ĠAttributeError": 4780,
      "andÄ±": 4781,
      "Ä±yordu": 4782,
      "ĠPro": 4783,
      "('-": 4784,
      "Fr": 4785,
      "ged": 4786,
      "pop": 4787,
      "ecess": 4788,
      "ĠAre": 4789,
      "direct": 4790,
      "ĠHadi": 4791,
      "ĠEm": 4792,
      "Ġleg": 4793,
      "Ġlearn": 4794,
      "ĠendiÅŁ": 4795,
      "itting": 4796,
      "ached": 4797,
      "Ġgidelim": 4798,
      "Ġeverybody": 4799,
      "script": 4800,
      "Ġmutlu": 4801,
      "function": 4802,
      "BÃ¼yÃ¼k": 4803,
      "FLEX": 4804,
      "bat": 4805,
      "lor": 4806,
      "enÃ¼z": 4807,
      "Ġcatch": 4808,
      "Ä±ndaki": 4809,
      "htem": 4810,
      "ĠDIA": 4811,
      "ĠRabb": 4812,
      "ĠdeÄŁer": 4813,
      "ERESIS": 4814,
      "ĠbaÅŁk": 4815,
      "Ġinclud": 4816,
      "IRCUM": 4817,
      "ĠDIAERESIS": 4818,
      "IRCUMFLEX": 4819,
      "dig": 4820,
      "madÄ±ÄŁ": 4821,
      "socket": 4822,
      "ets": 4823,
      "ocus": 4824,
      "Ã¼mÃ¼z": 4825,
      "Ã¼ÄŁÃ¼": 4826,
      "package": 4827,
      "rel": 4828,
      "ĠsÄ±": 4829,
      "Ġbaba": 4830,
      "Ġhap": 4831,
      "imize": 4832,
      "icro": 4833,
      "ĠSon": 4834,
      "ĠCIRCUMFLEX": 4835,
      "Ġalmak": 4836,
      "Ġspace": 4837,
      "ĠaldÄ±m": 4838,
      "ĠtatlÄ±m": 4839,
      "Ġimplementation": 4840,
      ".'": 4841,
      "Call": 4842,
      "Sc": 4843,
      "cause": 4844,
      "tem": 4845,
      "uce": 4846,
      "Ġhate": 4847,
      "Ġpush": 4848,
      "ĠCol": 4849,
      "ĠTest": 4850,
      "Ġknown": 4851,
      "except": 4852,
      "sanÄ±z": 4853,
      "Ġotherwise": 4854,
      "Ġgitmek": 4855,
      "meliyiz": 4856,
      "Ġcookie": 4857,
      "Am": 4858,
      "EL": 4859,
      "Ġyas": 4860,
      "Ġsefer": 4861,
      "ffed": 4862,
      "derr": 4863,
      "Anne": 4864,
      "Ġworks": 4865,
      "Ġtakes": 4866,
      "ĠâĢľ": 4867,
      "NO": 4868,
      "wait": 4869,
      "Ġtav": 4870,
      "Ġrepr": 4871,
      "lerinde": 4872,
      "ĠTO": 4873,
      "ĠiÃ§eri": 4874,
      "Ġclosed": 4875,
      "ĠolduÄŁumu": 4876,
      "ĠÄ°ÅŁ": 4877,
      "Ġexpected": 4878,
      "Ġdrop": 4879,
      "Ġgirls": 4880,
      "ĠazÄ±ndan": 4881,
      "Ġmeeting": 4882,
      "Ġnereden": 4883,
      "Ġearth": 4884,
      "Ġhuman": 4885,
      "AB": 4886,
      "Dinle": 4887,
      "fak": 4888,
      "Ġhtt": 4889,
      "Ġcmd": 4890,
      "Ġfood": 4891,
      "isine": 4892,
      "output": 4893,
      "room": 4894,
      "Ä°st": 4895,
      "Ġ16": 4896,
      "Ġparents": 4897,
      "Ġscript": 4898,
      "ĠÃ¶ldÃ¼": 4899,
      "Ġhalde": 4900,
      "values": 4901,
      "malÄ±yÄ±z": 4902,
      "80": 4903,
      "bil": 4904,
      "eff": 4905,
      "Ġtree": 4906,
      "Ġmach": 4907,
      "Ġmultip": 4908,
      "Ġpict": 4909,
      "Ġans": 4910,
      "Ġbebe": 4911,
      "die": 4912,
      "Ġship": 4913,
      "ĠÅŁeye": 4914,
      "Does": 4915,
      "Ġtakip": 4916,
      "ĠkonuÅŁmak": 4917,
      "Ġbitti": 4918,
      "Ġattributes": 4919,
      "gging": 4920,
      "\"?": 4921,
      "Fakat": 4922,
      "Sev": 4923,
      "YardÄ±m": 4924,
      "kez": 4925,
      "ping": 4926,
      "anny": 4927,
      "Ġflags": 4928,
      "itive": 4929,
      "ĠSor": 4930,
      "ĠMichael": 4931,
      "ĠÅŁeyin": 4932,
      "Ġloop": 4933,
      "Ġenum": 4934,
      "Seninle": 4935,
      "Ġcomplet": 4936,
      "ae": 4937,
      "first": 4938,
      "order": 4939,
      "Ġchunk": 4940,
      "classmethod": 4941,
      "mÄ±ÅŁtÄ±m": 4942,
      "Ġprec": 4943,
      "Bizim": 4944,
      "Writer": 4945,
      "Ġmilyon": 4946,
      "Geri": 4947,
      "kÃ¼n": 4948,
      "Ġburn": 4949,
      "Ġgitt": 4950,
      "Ã§i": 4951,
      "Ã§Ä±": 4952,
      "Ġpur": 4953,
      "ows": 4954,
      "Ġrece": 4955,
      "Ġsonr": 4956,
      "memiz": 4957,
      "Decoder": 4958,
      "Ġcevap": 4959,
      "Ad": 4960,
      "Fuck": 4961,
      "parser": 4962,
      "iling": 4963,
      "sep": 4964,
      "lerinin": 4965,
      "Ġliving": 4966,
      "Ġdamn": 4967,
      ")):": 4968,
      "pek": 4969,
      "Ġtri": 4970,
      "Ġbat": 4971,
      "Ġbind": 4972,
      "Ġhor": 4973,
      "Ġ'/": 4974,
      "ĠbeÅŁ": 4975,
      "Ġyapacak": 4976,
      "Ġyoktu": 4977,
      "Ġhayal": 4978,
      "Ġcolor": 4979,
      "ĠsÃ¶yler": 4980,
      "htemelen": 4981,
      "24": 4982,
      "EM": 4983,
      "IAL": 4984,
      "Â§": 4985,
      "Ġtim": 4986,
      "Ġsn": 4987,
      "esinde": 4988,
      "emey": 4989,
      "Ġstud": 4990,
      "ĠÅŁÃ¼ph": 4991,
      "Ġseems": 4992,
      "lamÄ±ÅŁ": 4993,
      "Ġsoru": 4994,
      "ĠadamÄ±": 4995,
      "Ġletter": 4996,
      "Ġdisc": 4997,
      "Ġkapat": 4998,
      "fp": 4999,
      "Ġait": 5000,
      "Ġsix": 5001,
      "ĠĠĠĠĠĠĠĠĠĠĠĠĠĠĠĠĠĠĠĠĠĠĠĠ": 5002,
      "ĠDOWN": 5003,
      "ĠarasÄ±nda": 5004,
      "Ä±ÅŁÄ±k": 5005,
      "Ġgerekir": 5006,
      "Ġdrive": 5007,
      "Hak": 5008,
      "ox": 5009,
      "Ġland": 5010,
      "Ġlineno": 5011,
      "ĠNow": 5012,
      "Ġalong": 5013,
      "Ġolmayacak": 5014,
      "Ġsubclass": 5015,
      "Ġbekliyor": 5016,
      "Ġvalid": 5017,
      "ccess": 5018,
      "kwargs": 5019,
      "ĠayrÄ±l": 5020,
      "pattern": 5021,
      "34": 5022,
      "Me": 5023,
      "cle": 5024,
      "cur": 5025,
      "fort": 5026,
      "rim": 5027,
      "tp": 5028,
      "Ġrather": 5029,
      "ĠMom": 5030,
      "Åŀey": 5031,
      "Ġilgilen": 5032,
      "Ġconnection": 5033,
      "Dev": 5034,
      "ÄŁinden": 5035,
      "entle": 5036,
      "flo": 5037,
      "mÃ¼yor": 5038,
      "ĠÄ±s": 5039,
      "rey": 5040,
      "ĠhÃ¼k": 5041,
      "rozen": 5042,
      "ardÄ±": 5043,
      "ĠsÃ¶yledim": 5044,
      "Hemen": 5045,
      "just": 5046,
      "lÄ±ÄŁÄ±": 5047,
      "mark": 5048,
      "Ġanlay": 5049,
      "ceÄŁiz": 5050,
      "idle": 5051,
      "Ġrule": 5052,
      "Ġdog": 5053,
      "ĠHay": 5054,
      "Ġyours": 5055,
      "ĠsÃ¶ylemek": 5056,
      "OnlarÄ±": 5057,
      "ĠpeÅŁ": 5058,
      "Ġbitir": 5059,
      "BurasÄ±": 5060,
      "ĠsÃ¼rÃ¼": 5061,
      "Ġglobal": 5062,
      "Ġsenden": 5063,
      "oud": 5064,
      "Ġcin": 5065,
      "adÄ±r": 5066,
      "otoÄŁ": 5067,
      "Ġran": 5068,
      "ĠĠĠĠĠĠĠĠĠĠĠĠĠĠĠĠĠĠĠĠĠĠĠĠĠĠ": 5069,
      "Ġstupid": 5070,
      "ĠÅŁark": 5071,
      "ĠaslÄ±nda": 5072,
      "ĠyapacaÄŁÄ±m": 5073,
      "Ä°k": 5074,
      "Ã¼ÄŁÃ¼n": 5075,
      "ĠyanÄ±nda": 5076,
      "Ġperfect": 5077,
      "Yine": 5078,
      "bb": 5079,
      "iÄŁer": 5080,
      "lif": 5081,
      "enter": 5082,
      "ĠBeni": 5083,
      "ĠBana": 5084,
      "ĠRob": 5085,
      "Ġbox": 5086,
      "ĠÃ§alÄ±ÅŁÄ±yorum": 5087,
      "delete": 5088,
      "Babam": 5089,
      "Ġsweet": 5090,
      "Def": 5091,
      "block": 5092,
      "gener": 5093,
      "pid": 5094,
      "xe": 5095,
      "ename": 5096,
      "Ġpost": 5097,
      "dev": 5098,
      "ĠSelam": 5099,
      "Ġols": 5100,
      "Ġstick": 5101,
      "Ä±mÄ±za": 5102,
      "ĠtanÄ±m": 5103,
      "ĠÃ§ocuÄŁ": 5104,
      "Ġserv": 5105,
      "Ġnamespace": 5106,
      "Ġ``": 5107,
      "(?": 5108,
      ")[": 5109,
      "Uz": 5110,
      "ĠsÄ±n": 5111,
      "enny": 5112,
      "Ġindir": 5113,
      "Ä±mÄ±n": 5114,
      "ĠDad": 5115,
      "ibi": 5116,
      "Ġconvert": 5117,
      "Ġanyway": 5118,
      "builtin": 5119,
      "ĠyaÅŁam": 5120,
      "Conf": 5121,
      "Ġyolu": 5122,
      "Ġprotect": 5123,
      "ĠOnu": 5124,
      "leÅŁtir": 5125,
      "Ä°lk": 5126,
      "HoÅŁ": 5127,
      "aint": 5128,
      "awn": 5129,
      "fg": 5130,
      "mana": 5131,
      "Ġsist": 5132,
      "Ġfre": 5133,
      "Ġlanet": 5134,
      "Ġherif": 5135,
      "Ġelement": 5136,
      "Ġlose": 5137,
      "ukarÄ±": 5138,
      "ester": 5139,
      "ĠYour": 5140,
      "Ġgrand": 5141,
      "oved": 5142,
      "Ġnumbers": 5143,
      "Ġapart": 5144,
      "ĠdÃ¼ÅŁÃ¼nÃ¼yorsun": 5145,
      "oul": 5146,
      "Ġred": 5147,
      "section": 5148,
      "iding": 5149,
      "ĠMiss": 5150,
      "Ġwithin": 5151,
      "ĠGeorge": 5152,
      "ĠbaÅŁÄ±na": 5153,
      "ĠzamanÄ±": 5154,
      "eredeyse": 5155,
      "Ġblack": 5156,
      "mesine": 5157,
      "Ġmerak": 5158,
      "Ġlives": 5159,
      "ĠHTTP": 5160,
      "otoÄŁraf": 5161,
      "HE": 5162,
      "break": 5163,
      "ones": 5164,
      "thers": 5165,
      "Ġsuff": 5166,
      "ives": 5167,
      "return": 5168,
      "Ġ{'": 5169,
      "Thanks": 5170,
      "Bar": 5171,
      "BÄ±rak": 5172,
      "nown": 5173,
      "ĠhÃ¢lÃ¢": 5174,
      "Ġcreat": 5175,
      "ites": 5176,
      "ĠAv": 5177,
      "Ġyapmam": 5178,
      "closed": 5179,
      "Ġsense": 5180,
      "ĠiÅŁin": 5181,
      "meyeceÄŁim": 5182,
      "Ġoffic": 5183,
      "Ġcallback": 5184,
      "number": 5185,
      "aliba": 5186,
      "Em": 5187,
      "Id": 5188,
      "su": 5189,
      "Ã©": 5190,
      "Ġmot": 5191,
      "Ġpeki": 5192,
      "eyin": 5193,
      "ĠJim": 5194,
      "###": 5195,
      "Encoder": 5196,
      "Ġdinner": 5197,
      "ĠÃ¶ÄŁret": 5198,
      "Ġkonuda": 5199,
      "://": 5200,
      "GÃ¼": 5201,
      "]:": 5202,
      "bt": 5203,
      "vas": 5204,
      "Ġglad": 5205,
      "Ġinsp": 5206,
      "ĠAt": 5207,
      "Ä±yorsunuz": 5208,
      "ĠÅŁeyleri": 5209,
      "Ġclos": 5210,
      "ived": 5211,
      "addy": 5212,
      "Ġbekley": 5213,
      "Ġsurpr": 5214,
      "Ġselect": 5215,
      "install": 5216,
      "aur": 5217,
      "sÃ¼n": 5218,
      "sana": 5219,
      "Ġten": 5220,
      "illa": 5221,
      "dest": 5222,
      "Ġvir": 5223,
      "ĠHiÃ§": 5224,
      "ardon": 5225,
      "Ġshouldn": 5226,
      "Add": 5227,
      "gers": 5228,
      "miyorsun": 5229,
      "yal": 5230,
      "alent": 5231,
      "Ġnecess": 5232,
      "omething": 5233,
      "Ġlabel": 5234,
      "dialog": 5235,
      "andan": 5236,
      "azen": 5237,
      "ĠPeki": 5238,
      "Ġteach": 5239,
      "Ġ25": 5240,
      "ĠdÃ¼ÅŁÃ¼nÃ¼yorum": 5241,
      "ĠTHE": 5242,
      "Ġtehlik": 5243,
      "Jack": 5244,
      "Kork": 5245,
      "ba": 5246,
      "diler": 5247,
      "tun": 5248,
      "edik": 5249,
      "dec": 5250,
      "iyorlar": 5251,
      "Ġolun": 5252,
      "Ġhepsi": 5253,
      "ĠRight": 5254,
      "Ġleaving": 5255,
      "ÄŁimiz": 5256,
      "ilerin": 5257,
      "uhaf": 5258,
      "ĠÃ¼zerine": 5259,
      "Ġlibrary": 5260,
      "Our": 5261,
      "Ġut": 5262,
      "Ġmac": 5263,
      "Ġliter": 5264,
      "Ġrap": 5265,
      "ording": 5266,
      "Ġlonger": 5267,
      "18": 5268,
      "Up": 5269,
      "[\"": 5270,
      "title": 5271,
      "elle": 5272,
      "Ġpain": 5273,
      "Ä±nday": 5274,
      "ndan": 5275,
      "Ġsuc": 5276,
      "arken": 5277,
      "Ġfunny": 5278,
      "Ġduring": 5279,
      "Ġhappens": 5280,
      "Ġsaniye": 5281,
      "timeout": 5282,
      "Ġoptional": 5283,
      "Ġhikay": 5284,
      "GÃ¶z": 5285,
      "called": 5286,
      "Ġtw": 5287,
      "Ġtre": 5288,
      "Ġball": 5289,
      "Ġwidth": 5290,
      "Ġpy": 5291,
      "urity": 5292,
      "ĠHis": 5293,
      "raise": 5294,
      "Ġupon": 5295,
      "ĠbaÅŁlay": 5296,
      "memi": 5297,
      "Ġparts": 5298,
      "Ġuygun": 5299,
      "Ġfeeling": 5300,
      "Case": 5301,
      "Ġhop": 5302,
      "raight": 5303,
      "Ġhimself": 5304,
      "Ġkims": 5305,
      "Ġbunlar": 5306,
      "Gid": 5307,
      "SS": 5308,
      "rik": 5309,
      "tz": 5310,
      "ĠÃĩÃ¼nkÃ¼": 5311,
      "environ": 5312,
      "Ġmiyiz": 5313,
      "Ġcity": 5314,
      "Ġ\"%": 5315,
      "ĠdoÄŁr": 5316,
      "ĠMart": 5317,
      "ATOR": 5318,
      "Ġpark": 5319,
      "Ġprod": 5320,
      "menin": 5321,
      "Ġexpression": 5322,
      "Ġzorunday": 5323,
      "Bunlar": 5324,
      "Doc": 5325,
      "Gener": 5326,
      "vars": 5327,
      "Ġcez": 5328,
      "itor": 5329,
      "Ġancak": 5330,
      "ĠĠĠĠĠĠĠĠĠĠĠĠĠĠĠĠĠĠĠĠĠĠĠĠĠĠĠĠĠĠĠĠĠĠ": 5331,
      "ĠPat": 5332,
      "ĠkaldÄ±": 5333,
      "meyin": 5334,
      "itted": 5335,
      "efore": 5336,
      "Ġindic": 5337,
      "\"):": 5338,
      "Bekle": 5339,
      "SaÄŁ": 5340,
      "TanrÄ±": 5341,
      "Wow": 5342,
      "Ġcool": 5343,
      "Ġfp": 5344,
      "izing": 5345,
      "aptain": 5346,
      "ĠLook": 5347,
      "vern": 5348,
      "Ġcommon": 5349,
      "Ġstrong": 5350,
      "itional": 5351,
      "Ġoyun": 5352,
      "ĠaltÄ±nda": 5353,
      "KaÃ§": 5354,
      "Uy": 5355,
      "Ä±sÄ±n": 5356,
      "akes": 5357,
      "Ġinvest": 5358,
      "ĠBl": 5359,
      "Ġhair": 5360,
      "ession": 5361,
      "Ä±ÄŁÄ±nda": 5362,
      "Ġ11": 5363,
      "ĠyardÄ±mcÄ±": 5364,
      "Ġmesaj": 5365,
      "platform": 5366,
      "KEY": 5367,
      "From": 5368,
      "Hat": 5369,
      "Help": 5370,
      "Pat": 5371,
      "Yeni": 5372,
      "Ġothers": 5373,
      "Ġciddi": 5374,
      "acy": 5375,
      "odes": 5376,
      "theme": 5377,
      "ĠgelmiÅŁ": 5378,
      "afe": 5379,
      "eceksin": 5380,
      "ators": 5381,
      "Ġperform": 5382,
      "ĠhÄ±zlÄ±": 5383,
      "support": 5384,
      "AY": 5385,
      "Even": 5386,
      "Sizi": 5387,
      "Yan": 5388,
      "eniz": 5389,
      "Ġgire": 5390,
      "ĠkoÅŁ": 5391,
      "Which": 5392,
      "Ġbutton": 5393,
      "ĠacÄ±": 5394,
      "show": 5395,
      "Ġcompany": 5396,
      "Ġbundan": 5397,
      "Elbette": 5398,
      "ĠoldukÃ§a": 5399,
      "Ġwarnings": 5400,
      "Car": 5401,
      "Lanet": 5402,
      "Sure": 5403,
      "auth": 5404,
      "rat": 5405,
      "esus": 5406,
      "Ġdear": 5407,
      "thread": 5408,
      "ĠÃ¶r": 5409,
      "ĠGener": 5410,
      "ĠEv": 5411,
      "ĠgÃ¶rÃ¼yor": 5412,
      "Ġ50": 5413,
      "Ġokul": 5414,
      "kinter": 5415,
      "Ġeminim": 5416,
      "ĠImportError": 5417,
      "wd": 5418,
      "enry": 5419,
      "Ġcry": 5420,
      "Ġfast": 5421,
      "urry": 5422,
      "Ġlab": 5423,
      "ĠID": 5424,
      "ican": 5425,
      "ĠBy": 5426,
      "ĠÅŁirket": 5427,
      "ĠMan": 5428,
      "Ġvarsa": 5429,
      "Ġhash": 5430,
      "mÄ±ÅŁtÄ±": 5431,
      "ĠbuluÅŁ": 5432,
      "escript": 5433,
      "erhaps": 5434,
      "Ay": 5435,
      "sing": 5436,
      "Ġgem": 5437,
      "acÄ±": 5438,
      "Ġequ": 5439,
      "ĠdeÄŁildir": 5440,
      "ĠJul": 5441,
      "convert": 5442,
      "ogn": 5443,
      "Ġmodules": 5444,
      "ĠarkadaÅŁÄ±m": 5445,
      "STR": 5446,
      "Ġweeks": 5447,
      "Ġzarar": 5448,
      "Str": 5449,
      "current": 5450,
      "fet": 5451,
      "Ġpublic": 5452,
      "Ġones": 5453,
      "ĠBiz": 5454,
      "Ġ18": 5455,
      "Ġolmayan": 5456,
      "Ġfear": 5457,
      "Ġspecific": 5458,
      "indows": 5459,
      "kinci": 5460,
      "ĠhoÅŁlan": 5461,
      "BU": 5462,
      "EG": 5463,
      "Mer": 5464,
      "dom": 5465,
      "lendir": 5466,
      "Ġsound": 5467,
      "Ġpis": 5468,
      "Ġlie": 5469,
      "Ġdepend": 5470,
      "aclass": 5471,
      "ending": 5472,
      "Ġsorum": 5473,
      "Annem": 5474,
      "ceksin": 5475,
      "Ġquot": 5476,
      "Ġtraceback": 5477,
      "plicit": 5478,
      "ĠISO": 5479,
      ")*": 5480,
      "Cl": 5481,
      "gen": 5482,
      "tree": 5483,
      "aly": 5484,
      "ĠDoc": 5485,
      "ĠHi": 5486,
      "Ġgeldim": 5487,
      "ĠdÃ¶nÃ¼ÅŁ": 5488,
      "ighlight": 5489,
      "Ġinclude": 5490,
      "Ġkurtul": 5491,
      "ĠkanÄ±t": 5492,
      "Bize": 5493,
      "Got": 5494,
      "YÃ¼z": 5495,
      "bek": 5496,
      "Ġsey": 5497,
      "ense": 5498,
      "Ġdah": 5499,
      "Ġlar": 5500,
      "api": 5501,
      "ĠMer": 5502,
      "Ġscared": 5503,
      "imizin": 5504,
      "Ġbabam": 5505,
      "039": 5506,
      "Ġidlelib": 5507,
      "Ġdistutils": 5508,
      ")]": 5509,
      "ILE": 5510,
      "Kal": 5511,
      "Pe": 5512,
      "bye": 5513,
      "yu": 5514,
      "ining": 5515,
      "Ġbank": 5516,
      "Ġdersin": 5517,
      "imden": 5518,
      "Ġannem": 5519,
      "onest": 5520,
      "Ġaram": 5521,
      "Ġboys": 5522,
      "ancÄ±": 5523,
      "ially": 5524,
      "label": 5525,
      "Ã¼ld": 5526,
      "Ġlady": 5527,
      "__.": 5528,
      "__',": 5529,
      "inder": 5530,
      "Ġistedim": 5531,
      "Ġeval": 5532,
      "Ġadded": 5533,
      "Ġfinish": 5534,
      "ĠXXX": 5535,
      "23": 5536,
      "AÃ§": 5537,
      "Put": 5538,
      "lÃ¼m": 5539,
      "xc": 5540,
      "Ġdans": 5541,
      "Ġfoot": 5542,
      "Ġlow": 5543,
      "ĠAd": 5544,
      "ĠĠĠĠĠĠĠĠĠĠĠĠĠĠĠĠĠĠĠĠĠĠĠĠĠ": 5545,
      "chor": 5546,
      "Ġorgan": 5547,
      "ĠPol": 5548,
      "essiz": 5549,
      "ources": 5550,
      "Ġsold": 5551,
      ")))": 5552,
      "reader": 5553,
      "ORT": 5554,
      "ĠdÃ¼ÅŁÃ¼ndÃ¼m": 5555,
      ">'": 5556,
      "AÅŁ": 5557,
      "Man": 5558,
      "dÃ¼m": 5559,
      "iers": 5560,
      "malar": 5561,
      "meler": 5562,
      "normal": 5563,
      "za": 5564,
      "ĠÃ¼n": 5565,
      "Ġdeter": 5566,
      "reate": 5567,
      "Ġcell": 5568,
      "Ġke": 5569,
      "Ġfont": 5570,
      "itness": 5571,
      "ĠStr": 5572,
      "ĠaraÅŁtÄ±r": 5573,
      "race": 5574,
      "Ġzero": 5575,
      "Ġcomput": 5576,
      "ĠadamÄ±n": 5577,
      "Ġworth": 5578,
      "Ġtamamen": 5579,
      "library": 5580,
      "abileceÄŁim": 5581,
      "Ġbuldum": 5582,
      "Ġdokun": 5583,
      "Ġsusp": 5584,
      "Tel": 5585,
      "Var": 5586,
      "pick": 5587,
      "ĠÃĥ": 5588,
      "Ġbal": 5589,
      "Ġthrow": 5590,
      "ĠmÃ¼z": 5591,
      "ism": 5592,
      "ĠSana": 5593,
      "istry": 5594,
      "Ġgovern": 5595,
      "ective": 5596,
      "Ġsuccess": 5597,
      "Ġbyte": 5598,
      "Ġtrack": 5599,
      "tÄ±ÄŁÄ±nÄ±": 5600,
      "ĠÃ¶ldÃ¼re": 5601,
      "Ġthanks": 5602,
      "ĠKeyError": 5603,
      "100": 5604,
      "Neler": 5605,
      "SÄ±r": 5606,
      "custom": 5607,
      "Ġfill": 5608,
      "inger": 5609,
      "Ġ',": 5610,
      "umber": 5611,
      "Ġamong": 5612,
      "olly": 5613,
      "Ġkendimi": 5614,
      "Ġ::": 5615,
      "Everything": 5616,
      "malÄ±sÄ±n": 5617,
      "Ġignore": 5618,
      "ospital": 5619,
      "AND": 5620,
      "Keep": 5621,
      "Kesinlikle": 5622,
      "Mu": 5623,
      "YarÄ±n": 5624,
      "ced": 5625,
      "go": 5626,
      "help": 5627,
      "kar": 5628,
      "xa": 5629,
      "Ġq": 5630,
      "Ġtas": 5631,
      "Ġsum": 5632,
      "Ġmap": 5633,
      "ĠÃ§Ã¶": 5634,
      "div": 5635,
      "chars": 5636,
      "iley": 5637,
      "ĠetmiÅŁ": 5638,
      "ĠolduÄŁuna": 5639,
      "Ġdefaults": 5640,
      "Onunla": 5641,
      "+\\": 5642,
      "DÃ¼ÅŁ": 5643,
      "John": 5644,
      "yl": 5645,
      "enÃ§": 5646,
      "ĠkÄ±y": 5647,
      "Ġkesinlikle": 5648,
      "Ġbirth": 5649,
      "Ġvict": 5650,
      "ĠBob": 5651,
      "chunk": 5652,
      "ĠRes": 5653,
      "IND": 5654,
      "Ã¼mkÃ¼n": 5655,
      "Ġanybody": 5656,
      "ĠChar": 5657,
      "ORD": 5658,
      "masÄ±na": 5659,
      "Ġpolit": 5660,
      "Ġfigure": 5661,
      "65": 5662,
      "Hold": 5663,
      "Kendi": 5664,
      "stdout": 5665,
      "Those": 5666,
      "ĠAm": 5667,
      "ĠDid": 5668,
      "Ġarch": 5669,
      "Ġ14": 5670,
      "uke": 5671,
      "Ġ*,": 5672,
      "landÄ±r": 5673,
      "Ġturned": 5674,
      "abilecek": 5675,
      "Ġortaya": 5676,
      "Ġclient": 5677,
      "Ġ::=": 5678,
      "Mom": 5679,
      "tuÄŁ": 5680,
      "tÃ¼m": 5681,
      "Ġur": 5682,
      "Ġsap": 5683,
      "Ġbast": 5684,
      "Ġyum": 5685,
      "Ġyold": 5686,
      "Ġitself": 5687,
      "lying": 5688,
      "__.__": 5689,
      "Ġcompat": 5690,
      "Ġquick": 5691,
      "Ġkorum": 5692,
      "bur": 5693,
      "nan": 5694,
      "Ġbes": 5695,
      "Ġlang": 5696,
      "ĠSadece": 5697,
      "outine": 5698,
      "ĠbaÅŁladÄ±": 5699,
      "Ġprison": 5700,
      "pare": 5701,
      "Ġteklif": 5702,
      "Ġmemory": 5703,
      "ĠMrs": 5704,
      "CKET": 5705,
      "ĠyÃ¶net": 5706,
      "ĠDistutils": 5707,
      "NAME": 5708,
      "dat": 5709,
      "ĠÅŀimdi": 5710,
      "Ġdal": 5711,
      "Ġcoun": 5712,
      "ization": 5713,
      "ĠolacaÄŁÄ±m": 5714,
      "html": 5715,
      "ols": 5716,
      "ĠMin": 5717,
      "Ġistersen": 5718,
      "acaklar": 5719,
      "ĠbaÅŁl": 5720,
      "ĠiliÅŁk": 5721,
      "ĠÃ§ekil": 5722,
      "Ġcharset": 5723,
      "Ġentire": 5724,
      "nemli": 5725,
      "UmarÄ±m": 5726,
      "NA": 5727,
      "YaÅŁ": 5728,
      "long": 5729,
      "ts": 5730,
      "Ġdst": 5731,
      "ilar": 5732,
      "ĠSet": 5733,
      "ĠĠĠĠĠĠĠĠĠĠĠĠĠĠĠĠĠĠĠĠĠĠĠĠĠĠĠĠ": 5734,
      "Ġstraight": 5735,
      "ĠGre": 5736,
      "ĠGRA": 5737,
      "ĠyapmÄ±ÅŁ": 5738,
      "Ġjud": 5739,
      "Ġabove": 5740,
      "uya": 5741,
      "Only": 5742,
      "Benimle": 5743,
      "Ġreplace": 5744,
      "Ġmutl": 5745,
      "Ġfullname": 5746,
      "Ġzamanda": 5747,
      "Ġoriginal": 5748,
      "ĠÃ§evir": 5749,
      "NS": 5750,
      "Vay": 5751,
      "dst": 5752,
      "Ġsorm": 5753,
      "Ġnone": 5754,
      "Ġpress": 5755,
      "Ġarada": 5756,
      "Ġevents": 5757,
      "Ġexplain": 5758,
      "ĠQu": 5759,
      "Ġcorrect": 5760,
      "remove": 5761,
      "ULT": 5762,
      "Ġhoney": 5763,
      "Ġmillion": 5764,
      "Affed": 5765,
      "Baba": 5766,
      "mitted": 5767,
      "Ġsek": 5768,
      "Ġyal": 5769,
      "irler": 5770,
      "edin": 5771,
      "esine": 5772,
      "Ġpot": 5773,
      "Ġinf": 5774,
      "ĠAh": 5775,
      "diÄŁin": 5776,
      "ĠNasÄ±l": 5777,
      "Ġenviron": 5778,
      "ĠsÃ¶ylemiÅŁ": 5779,
      "Child": 5780,
      "ajor": 5781,
      "expected": 5782,
      "Ġdurumda": 5783,
      "rupt": 5784,
      "Ġgarip": 5785,
      "Nereye": 5786,
      "KonuÅŁ": 5787,
      "Sir": 5788,
      "Warning": 5789,
      "bs": 5790,
      "fic": 5791,
      "range": 5792,
      "eren": 5793,
      "Ġple": 5794,
      "Ä±rsÄ±z": 5795,
      "Ġstreet": 5796,
      "ects": 5797,
      "ĠKap": 5798,
      "Ġgelip": 5799,
      "ava": 5800,
      "Ġsonunda": 5801,
      "ĠdÃ¶v": 5802,
      "Ġduydum": 5803,
      "callback": 5804,
      "EST": 5805,
      "ĠgÃ¶rdÃ¼n": 5806,
      "Ġavoid": 5807,
      "Comp": 5808,
      "After": 5809,
      "ĠGRAVE": 5810,
      "17": 5811,
      "det": 5812,
      "ni": 5813,
      "Ġgentle": 5814,
      "Ġfakat": 5815,
      "Ġflag": 5816,
      "Ä±ntÄ±": 5817,
      "ĠBo": 5818,
      "ĠÃ§en": 5819,
      "ĠolacaÄŁÄ±nÄ±": 5820,
      "indim": 5821,
      "ĠPek": 5822,
      "Ġsett": 5823,
      "Ġcompiler": 5824,
      "mask": 5825,
      "OTATION": 5826,
      "Ġremove": 5827,
      "ĠyÃ¼ksek": 5828,
      "Ġyeniden": 5829,
      "float": 5830,
      "33": 5831,
      "Aman": 5832,
      "Could": 5833,
      "ULL": 5834,
      "mal": 5835,
      "page": 5836,
      "ski": 5837,
      "uction": 5838,
      "Ġbayan": 5839,
      "irim": 5840,
      "Ġfell": 5841,
      "ĠfotoÄŁraf": 5842,
      "amadÄ±m": 5843,
      "Ġlay": 5844,
      "Ġiss": 5845,
      "larÄ±mÄ±z": 5846,
      "ently": 5847,
      "...?": 5848,
      "Ġren": 5849,
      "Ġgetire": 5850,
      "osh": 5851,
      "Ġunless": 5852,
      "ATED": 5853,
      "ĠgeÃ§ti": 5854,
      "olean": 5855,
      "ĠoÄŁlum": 5856,
      "</": 5857,
      "joy": 5858,
      "kil": 5859,
      "incl": 5860,
      "asure": 5861,
      "ceÄŁini": 5862,
      "Ġbirisi": 5863,
      "ĠÃ§iz": 5864,
      "ĠDep": 5865,
      "Ġhaft": 5866,
      "ĠMe": 5867,
      "Ġexit": 5868,
      "Ġsoy": 5869,
      "larÄ±nÄ±z": 5870,
      "addr": 5871,
      "ĠsanmÄ±yorum": 5872,
      "ĠsanÄ±yordum": 5873,
      "configure": 5874,
      "Bizi": 5875,
      "Widget": 5876,
      "domain": 5877,
      "Ġdanger": 5878,
      "Ġio": 5879,
      "Ġma": 5880,
      "Ġhab": 5881,
      "Ġfault": 5882,
      "Ġemail": 5883,
      "lardÄ±": 5884,
      "Ġruh": 5885,
      "ĠMike": 5886,
      "ĠHim": 5887,
      "ĠRay": 5888,
      "Ġgeldin": 5889,
      "Ġetmeye": 5890,
      "lied": 5891,
      "Hepsi": 5892,
      "'])": 5893,
      "HTTP": 5894,
      "month": 5895,
      "Run": 5896,
      "lish": 5897,
      "Ġhel": 5898,
      "Ġtheme": 5899,
      "ille": 5900,
      "asÄ±ndan": 5901,
      "ĠDev": 5902,
      "ĠMac": 5903,
      "allow": 5904,
      "ĠRa": 5905,
      "INT": 5906,
      "Ġverdim": 5907,
      "Onlara": 5908,
      "ebile": 5909,
      "duce": 5910,
      "ĠCharlie": 5911,
      "Ġpartic": 5912,
      "Ġmahk": 5913,
      "CTION": 5914,
      "Ġinsert": 5915,
      "sock": 5916,
      "Ġwed": 5917,
      "Ġkov": 5918,
      "Ġforce": 5919,
      "ĠBab": 5920,
      "ender": 5921,
      "Ġara": 5922,
      "azÄ±r": 5923,
      "Ġziy": 5924,
      "Ġ17": 5925,
      "Ä±sÄ±nÄ±": 5926,
      "Ġmembers": 5927,
      "cover": 5928,
      "ĠyaptÄ±ÄŁÄ±nÄ±": 5929,
      "ĠbÃ¶lÃ¼m": 5930,
      "Server": 5931,
      ",\\": 5932,
      "Sub": 5933,
      "Ġdark": 5934,
      "Ġhes": 5935,
      "ilah": 5936,
      "omat": 5937,
      "Ġdeep": 5938,
      "ĠSim": 5939,
      "ĠAg": 5940,
      "Ġolamaz": 5941,
      "Ġmeant": 5942,
      "ĠTk": 5943,
      "ĠRom": 5944,
      "Ġvermek": 5945,
      "ĠiÅŁler": 5946,
      "execut": 5947,
      "ebe": 5948,
      "Ġasking": 5949,
      "Ġsaved": 5950,
      "::": 5951,
      "VER": 5952,
      "tor": 5953,
      "Ġdik": 5954,
      "Ġdomain": 5955,
      "ĠyÄ±k": 5956,
      "Ġhospital": 5957,
      "ayla": 5958,
      "ĠTHA": 5959,
      "ĠÃ¶de": 5960,
      "Ġali": 5961,
      "Ġevde": 5962,
      "Ġevlat": 5963,
      "ĠJo": 5964,
      "loader": 5965,
      "rible": 5966,
      "ĠAngel": 5967,
      "Ãľst": 5968,
      "Ġcoff": 5969,
      "Kimse": 5970,
      "Ġchoice": 5971,
      "Ġkitap": 5972,
      "PACE": 5973,
      "AH": 5974,
      "Ste": 5975,
      "Ġtitle": 5976,
      "Ġsig": 5977,
      "ora": 5978,
      "Ġgaz": 5979,
      "Ġcaught": 5980,
      "ceed": 5981,
      "Ġseeing": 5982,
      "mayacak": 5983,
      "Ġgiving": 5984,
      "ĠdÄ±ÅŁÄ±nda": 5985,
      "Ġallowed": 5986,
      "Ä°Ã§eri": 5987,
      "EXT": 5988,
      "Ġcinayet": 5989,
      "PO": 5990,
      "bas": 5991,
      "ram": 5992,
      "yer": 5993,
      "})": 5994,
      "Ġtz": 5995,
      "Ġsell": 5996,
      "Ġpen": 5997,
      "Ġpull": 5998,
      "Ġequal": 5999,
      "ĠSH": 6000,
      "ĠBRA": 6001,
      "rav": 6002,
      "ĠPaul": 6003,
      "Ġolmadan": 6004,
      "Ġ24": 6005,
      "Ġsignal": 6006,
      "Ġbuilding": 6007,
      "children": 6008,
      "Ġextension": 6009,
      "Ġmachine": 6010,
      "Ġkept": 6011,
      ".,": 6012,
      "oes": 6013,
      "Ġtkinter": 6014,
      "Ġcache": 6015,
      "omin": 6016,
      "ĠCl": 6017,
      "ĠDay": 6018,
      "aste": 6019,
      "ilerini": 6020,
      "indeki": 6021,
      "ĠÃ§Ä±kart": 6022,
      "Ġquiet": 6023,
      "ddy": 6024,
      "ĠihtiyacÄ±": 6025,
      "ĠgÃ¼Ã§lÃ¼": 6026,
      "FA": 6027,
      "cancel": 6028,
      "ky": 6029,
      "post": 6030,
      "Ġaction": 6031,
      "rev": 6032,
      "Ġvide": 6033,
      "Ġru": 6034,
      "__()": 6035,
      "Ġbuf": 6036,
      "ĠGel": 6037,
      "ĠadÄ±m": 6038,
      "tire": 6039,
      "prop": 6040,
      "therwise": 6041,
      "ĠbakÄ±n": 6042,
      "tÄ±ÄŁÄ±": 6043,
      "ĠStop": 6044,
      "Ġnereye": 6045,
      "Ġtoplant": 6046,
      "Old": 6047,
      "Two": 6048,
      "inize": 6049,
      "Ġkick": 6050,
      "Ġpad": 6051,
      "Ġbebek": 6052,
      "ands": 6053,
      "Ä±ÅŁÄ±": 6054,
      "ĠJoe": 6055,
      "New": 6056,
      "ebil": 6057,
      "Ġyolunda": 6058,
      "Ġharc": 6059,
      "Ġterk": 6060,
      "Ġindent": 6061,
      "Ġfields": 6062,
      "TeÅŁekkÃ¼rler": 6063,
      "ĠBRACKET": 6064,
      "AÄŁ": 6065,
      "onent": 6066,
      "ald": 6067,
      "Ġfalse": 6068,
      "amet": 6069,
      "ileÅŁ": 6070,
      "0001": 6071,
      "ĠGÃ¼n": 6072,
      "indent": 6073,
      "Ġyoktur": 6074,
      "Ġkalb": 6075,
      "inizin": 6076,
      "active": 6077,
      "AnlaÅŁ": 6078,
      "Invalid": 6079,
      "Ġoverride": 6080,
      "ĠdÃ¶rt": 6081,
      "Ġgidiyorum": 6082,
      "ĠÃ¼zere": 6083,
      "Ġakl": 6084,
      "Ġplaying": 6085,
      "Ġdakik": 6086,
      "ĠdÃ¼zen": 6087,
      "Ġhttp": 6088,
      "Ġdil": 6089,
      "Ġhalk": 6090,
      "Ġcirc": 6091,
      "Ġkart": 6092,
      "apon": 6093,
      "Ġrid": 6094,
      "oloj": 6095,
      "Ġcond": 6096,
      "ips": 6097,
      "Ġverin": 6098,
      "Ġveriyorum": 6099,
      "Ġedil": 6100,
      "efendi": 6101,
      "Ġidle": 6102,
      "Ġrespons": 6103,
      "viously": 6104,
      "iddle": 6105,
      "Ġsebeb": 6106,
      "ĠDavid": 6107,
      "Ġherhangi": 6108,
      "ĠhÃ¼kÃ¼m": 6109,
      "Act": 6110,
      "BI": 6111,
      "tuk": 6112,
      "Ġbag": 6113,
      "enek": 6114,
      "ĠdÃ¼zel": 6115,
      "emiz": 6116,
      "ĠĠĠĠĠĠĠĠĠĠĠĠĠĠĠĠĠĠĠĠĠĠĠĠĠĠĠĠĠĠ": 6117,
      "ĠTanrÄ±": 6118,
      "Ġsomewhere": 6119,
      "protocol": 6120,
      "cale": 6121,
      "Ġtests": 6122,
      "Ġdifference": 6123,
      "Ġseconds": 6124,
      "mlink": 6125,
      "Ġcontent": 6126,
      "Ġpickle": 6127,
      "response": 6128,
      "ĠuÄŁraÅŁ": 6129,
      "amera": 6130,
      "malÄ±yÄ±m": 6131,
      "Ġforgot": 6132,
      "Ell": 6133,
      "Hala": 6134,
      "aN": 6135,
      "Ġeye": 6136,
      "inda": 6137,
      "Ġmention": 6138,
      "Ġhide": 6139,
      "Ġcause": 6140,
      "Ġintern": 6141,
      "Ġisim": 6142,
      "Ġep": 6143,
      "ĠAdam": 6144,
      "ĠÃ§ift": 6145,
      "Ġolup": 6146,
      "ĠDaha": 6147,
      "oci": 6148,
      "ĠWith": 6149,
      "ayÄ±t": 6150,
      "Ġistemiyor": 6151,
      "raries": 6152,
      "Biliyorum": 6153,
      "Ġsymbol": 6154,
      "ĠgÃ¶rÃ¼ÅŁÃ¼rÃ¼z": 6155,
      "Ġquestions": 6156,
      "finity": 6157,
      "27": 6158,
      "Dikkat": 6159,
      "]]": 6160,
      "har": 6161,
      "oad": 6162,
      "Ġbok": 6163,
      "Ġdiyorsun": 6164,
      "Ġmapping": 6165,
      "Ġhom": 6166,
      "Ã¼f": 6167,
      "unÃ§": 6168,
      "Ä±rÄ±": 6169,
      "Ġwhose": 6170,
      "lerimi": 6171,
      "ĠMary": 6172,
      "ĠiÃ§ine": 6173,
      "Ġyapma": 6174,
      "Ġdair": 6175,
      "('<": 6176,
      "ffered": 6177,
      "Ġ[\"": 6178,
      "Ġcallable": 6179,
      "Ġmemnun": 6180,
      "Ġcommands": 6181,
      "Ġmoving": 6182,
      "Ġbreath": 6183,
      "KÃ¼Ã§Ã¼k": 6184,
      "cor": 6185,
      "orth": 6186,
      "Ġdouble": 6187,
      "Ġcold": 6188,
      "empt": 6189,
      "Ġrob": 6190,
      "Ġstar": 6191,
      "aÄŁÄ±n": 6192,
      "ĠPer": 6193,
      "Ġloader": 6194,
      "ĠgeliÅŁ": 6195,
      "Ġediyorsun": 6196,
      "Ġetraf": 6197,
      "ĠYap": 6198,
      "Ġoffer": 6199,
      "Ġworked": 6200,
      "Ġseviyor": 6201,
      "Ġolurdu": 6202,
      "ĠkÃ¶pek": 6203,
      "mission": 6204,
      "Ġnecessary": 6205,
      "CL": 6206,
      "Dam": 6207,
      "Down": 6208,
      "Great": 6209,
      "eel": 6210,
      "ming": 6211,
      "Ä±c": 6212,
      "ino": 6213,
      "Ġtur": 6214,
      "stream": 6215,
      "acti": 6216,
      "...\"": 6217,
      "Ġrelease": 6218,
      "ĠTV": 6219,
      "ĠOf": 6220,
      "geÃ§": 6221,
      "ĠEur": 6222,
      "ĠEND": 6223,
      "Ġcommun": 6224,
      "ÃĩÄ±k": 6225,
      "Ġprop": 6226,
      "Ġsanki": 6227,
      "Ġizle": 6228,
      "Ġroad": 6229,
      "Ġlocale": 6230,
      "Ġcontains": 6231,
      "Ġbuiltin": 6232,
      "ĠQUOTATION": 6233,
      "AynÄ±": 6234,
      "Ey": 6235,
      "Nice": 6236,
      "cu": 6237,
      "zip": 6238,
      "Ä±ll": 6239,
      "Ġtreat": 6240,
      "erve": 6241,
      "Ġsplit": 6242,
      "arah": 6243,
      "Ġih": 6244,
      "Ġkiss": 6245,
      "uts": 6246,
      "__)": 6247,
      "ĠHere": 6248,
      "Ä±lacak": 6249,
      "osing": 6250,
      "ĠEng": 6251,
      "Ġ199": 6252,
      "plist": 6253,
      "Ġproper": 6254,
      "ilerine": 6255,
      "eful": 6256,
      "ĠayÄ±r": 6257,
      "Ġcompile": 6258,
      "Ġkayn": 6259,
      "Ä°nan": 6260,
      "Ġbinary": 6261,
      "Ġmerkez": 6262,
      "Ġearly": 6263,
      "Az": 6264,
      "zing": 6265,
      "Ġca": 6266,
      "Ġpun": 6267,
      "Ġview": 6268,
      "ĠCodec": 6269,
      "Ġarrest": 6270,
      "Ġweak": 6271,
      "Ġweird": 6272,
      "ĠONE": 6273,
      "Ġpray": 6274,
      ")),": 6275,
      "Ġreading": 6276,
      "Ġstarting": 6277,
      "Ġkendine": 6278,
      "mayacaÄŁÄ±m": 6279,
      "ebilirim": 6280,
      "Ġhissediyorum": 6281,
      "=[": 6282,
      "DiÄŁer": 6283,
      "PAR": 6284,
      "Something": 6285,
      "Ver": 6286,
      "sik": 6287,
      "Ġsrc": 6288,
      "ĠyaÄŁ": 6289,
      "stderr": 6290,
      "ĠAdd": 6291,
      "ĠolmadÄ±": 6292,
      "buf": 6293,
      "Ġtanr": 6294,
      "initial": 6295,
      "ools": 6296,
      "Ġkidding": 6297,
      "Ġcontents": 6298,
      "augh": 6299,
      "Ġcomplete": 6300,
      "ArkadaÅŁ": 6301,
      ")'": 6302,
      "Hem": 6303,
      "PC": 6304,
      "Sel": 6305,
      "make": 6306,
      "ric": 6307,
      "inn": 6308,
      "ĠkuÅŁ": 6309,
      "Ã§ok": 6310,
      "iso": 6311,
      "ĠSiz": 6312,
      "Ġrock": 6313,
      "Ġdolu": 6314,
      "Ġconstruct": 6315,
      "ĠYani": 6316,
      "arsh": 6317,
      "traceback": 6318,
      "Ġparameters": 6319,
      "Sizin": 6320,
      "Bey": 6321,
      "CENT": 6322,
      "Was": 6323,
      "hel": 6324,
      "Ä±t": 6325,
      "Ġmouth": 6326,
      "adies": 6327,
      "Ġremain": 6328,
      "Ġ\"<": 6329,
      "ĠÅŁÃ¶yle": 6330,
      "ĠOne": 6331,
      "Ġettik": 6332,
      "quote": 6333,
      "Ġevidence": 6334,
      "ICE": 6335,
      "Ġsevindim": 6336,
      "ĠaldÄ±": 6337,
      "compiler": 6338,
      "ĠsakÄ±n": 6339,
      "ĠSenin": 6340,
      "frames": 6341,
      "Very": 6342,
      "token": 6343,
      "Ġta": 6344,
      "Ġidi": 6345,
      "Ġceh": 6346,
      "ita": 6347,
      "ĠTeÅŁekkÃ¼r": 6348,
      "istory": 6349,
      "getitem": 6350,
      "Ġdayan": 6351,
      "Ġprev": 6352,
      "ĠÃ§ocuÄŁu": 6353,
      "byte": 6354,
      "eleg": 6355,
      "ĠbunlarÄ±": 6356,
      "'''": 6357,
      "Bundan": 6358,
      "Ġauthor": 6359,
      "content": 6360,
      "ĠTHAI": 6361,
      "38": 6362,
      "OVE": 6363,
      "uf": 6364,
      "Ġtill": 6365,
      "Ġmiy": 6366,
      "ĠhanÄ±m": 6367,
      "Ġcross": 6368,
      "Ġfair": 6369,
      "amÄ±ÅŁ": 6370,
      "ÄŁinizi": 6371,
      "Ġincre": 6372,
      "ĠiÃ§er": 6373,
      "ĠgÃ¶st": 6374,
      "ĠGu": 6375,
      "ĠburasÄ±": 6376,
      "ichard": 6377,
      "ĠinsanlarÄ±n": 6378,
      "Ġfazl": 6379,
      "locale": 6380,
      "Ġselection": 6381,
      "Ġsupported": 6382,
      "winapi": 6383,
      "slots": 6384,
      "Ġkomik": 6385,
      "Ġattrs": 6386,
      "Kahretsin": 6387,
      "Cause": 6388,
      "UR": 6389,
      "ball": 6390,
      "jan": 6391,
      "Ġbott": 6392,
      "Ġwhom": 6393,
      "http": 6394,
      "ĠÅŁaÅŁÄ±r": 6395,
      "ellikle": 6396,
      "Ġord": 6397,
      "ros": 6398,
      "road": 6399,
      "Ġevil": 6400,
      "ĠgeÃ§en": 6401,
      "ĠgeÃ§miÅŁ": 6402,
      "ĠyarÄ±ÅŁ": 6403,
      "Ġiyiyim": 6404,
      "ĠUnicode": 6405,
      "Ġwritten": 6406,
      "Ġgovernment": 6407,
      "rit": 6408,
      "ĠÃ¼y": 6409,
      "Ġsad": 6410,
      "Ġders": 6411,
      "Ġ'(": 6412,
      "Ġla": 6413,
      "ĠSA": 6414,
      "Ġrow": 6415,
      "ĠAlex": 6416,
      "Ġufak": 6417,
      "ĠMA": 6418,
      "ĠvarmÄ±ÅŁ": 6419,
      "Ġuses": 6420,
      "Ġenc": 6421,
      "abled": 6422,
      "tains": 6423,
      "EDI": 6424,
      "madÄ±n": 6425,
      "argument": 6426,
      "ĠgÃ¶rdÃ¼ÄŁÃ¼m": 6427,
      "Ġfollowed": 6428,
      "Ġappro": 6429,
      "charset": 6430,
      "################################": 6431,
      "Ġgizli": 6432,
      "IME": 6433,
      "ĠbebeÄŁim": 6434,
      "Kaf": 6435,
      "cul": 6436,
      "dy": 6437,
      "sey": 6438,
      "xd": 6439,
      "alth": 6440,
      "iller": 6441,
      "Ġniye": 6442,
      "esiz": 6443,
      "Ġdep": 6444,
      "Ġstore": 6445,
      "ola": 6446,
      "ĠCall": 6447,
      "Ġseek": 6448,
      "Ġloved": 6449,
      "Ġbence": 6450,
      "Ġhappening": 6451,
      "gged": 6452,
      "Ġbehavi": 6453,
      "emember": 6454,
      "Ġvariables": 6455,
      "second": 6456,
      "Ġrules": 6457,
      "201": 6458,
      "Efendim": 6459,
      "Over": 6460,
      "Python": 6461,
      "Senden": 6462,
      "has": 6463,
      "rp": 6464,
      "urur": 6465,
      "Ã¼nÃ¼n": 6466,
      "ĠMark": 6467,
      "0000": 6468,
      "Ġaraba": 6469,
      "artÄ±ÅŁ": 6470,
      "ĠsonuÃ§": 6471,
      "ansÄ±z": 6472,
      "Ġkalan": 6473,
      "afet": 6474,
      "Sence": 6475,
      "Ġcodec": 6476,
      "meli": 6477,
      "Ġasker": 6478,
      "Ġsecurity": 6479,
      "Ġrecogn": 6480,
      "Ġinterface": 6481,
      "LOCK": 6482,
      "belie": 6483,
      "Node": 6484,
      "Tak": 6485,
      "ded": 6486,
      "uage": 6487,
      "Ġbi": 6488,
      "anlÄ±k": 6489,
      "Ġyem": 6490,
      "Ġwitness": 6491,
      "Ġkir": 6492,
      "etimes": 6493,
      "oking": 6494,
      "rian": 6495,
      "azar": 6496,
      "Ġalan": 6497,
      "ĠRun": 6498,
      "ĠgerektiÄŁini": 6499,
      "layacak": 6500,
      "ileno": 6501,
      "ĠStream": 6502,
      "ĠThen": 6503,
      "abiliyor": 6504,
      "Ġexists": 6505,
      "ektif": 6506,
      "Ġescape": 6507,
      "baÅŁÄ±": 6508,
      "Ġmistake": 6509,
      "Oper": 6510,
      "bound": 6511,
      "muyor": 6512,
      "rak": 6513,
      "see": 6514,
      "Ġvo": 6515,
      "Ġride": 6516,
      "ĠDÃ¼n": 6517,
      "ĠText": 6518,
      "ibly": 6519,
      "ĠWindows": 6520,
      "Ġconst": 6521,
      "ukat": 6522,
      "Ġbilmek": 6523,
      "BirkaÃ§": 6524,
      "readline": 6525,
      "Ġacross": 6526,
      "ĠCheck": 6527,
      "rowser": 6528,
      "Ġevening": 6529,
      "Ġrespect": 6530,
      "Ġkorkut": 6531,
      "ĠtatlÄ±": 6532,
      "Ġbenziyor": 6533,
      "Ġrisk": 6534,
      "ĠÃ§eneni": 6535,
      "Doktor": 6536,
      "PL": 6537,
      "ham": 6538,
      "sample": 6539,
      "Ġtb": 6540,
      "ela": 6541,
      "Ġyeri": 6542,
      "Ġnobody": 6543,
      "Ġvaz": 6544,
      "ĠdolaÅŁ": 6545,
      "olved": 6546,
      "that": 6547,
      "ĠPeter": 6548,
      "Ġherk": 6549,
      "Ġsensin": 6550,
      "Ġstruct": 6551,
      "opts": 6552,
      "Biliyor": 6553,
      "Ġhava": 6554,
      "filter": 6555,
      "Ġpiece": 6556,
      "56": 6557,
      "Nobody": 6558,
      "Tab": 6559,
      "cil": 6560,
      "gÃ¼r": 6561,
      "rin": 6562,
      "ww": 6563,
      "oney": 6564,
      "Ġdress": 6565,
      "ĠoÄŁ": 6566,
      "eta": 6567,
      "ecan": 6568,
      "__\"": 6569,
      "ĠHello": 6570,
      "Ġdavet": 6571,
      "Ġunittest": 6572,
      "ĠUN": 6573,
      "ĠboÄŁ": 6574,
      "ĠadamÄ±m": 6575,
      "eÅŁke": 6576,
      "attrs": 6577,
      "Ġtutuk": 6578,
      "TestCase": 6579,
      "ĠBurada": 6580,
      "Ġtotal": 6581,
      "Ġcoffee": 6582,
      "Mut": 6583,
      "Parser": 6584,
      "Tat": 6585,
      "ĠmÃ¼kemmel": 6586,
      "Ġhonest": 6587,
      "Ġge": 6588,
      "Ġkesin": 6589,
      "amayacak": 6590,
      "aket": 6591,
      "ĠTON": 6592,
      "ifest": 6593,
      "ĠalÄ±ÅŁ": 6594,
      "ĠadÄ±": 6595,
      "exec": 6596,
      "alarda": 6597,
      "Ġfeet": 6598,
      "eÅŁit": 6599,
      "Ġhayatta": 6600,
      "ĠihtiyacÄ±n": 6601,
      "words": 6602,
      "ĠaÄŁÄ±r": 6603,
      "Ġvictim": 6604,
      ".')": 6605,
      "Net": 6606,
      "Ġweren": 6607,
      "itz": 6608,
      "icate": 6609,
      "ikan": 6610,
      "olut": 6611,
      "ebek": 6612,
      "ĠÄ°n": 6613,
      "Ġdispatch": 6614,
      "Arab": 6615,
      "seniz": 6616,
      "ĠaÅŁaÄŁÄ±": 6617,
      "Returns": 6618,
      "Ġmodel": 6619,
      "oÄŁu": 6620,
      "Ġdedin": 6621,
      "Ġfelt": 6622,
      "hook": 6623,
      "luÄŁ": 6624,
      "Ġtor": 6625,
      "Ġsord": 6626,
      "Ġnokt": 6627,
      "Ġbusy": 6628,
      "ĠEll": 6629,
      "appy": 6630,
      "Ġlooked": 6631,
      "Ġpeace": 6632,
      "Ġayar": 6633,
      "HAN": 6634,
      "sych": 6635,
      "respond": 6636,
      "Ġrequires": 6637,
      "Ġmanager": 6638,
      "Polis": 6639,
      "ĠsÄ±cak": 6640,
      "Gu": 6641,
      "Su": 6642,
      "han": 6643,
      "sort": 6644,
      "Ġayn": 6645,
      "ĠsÄ±nÄ±": 6646,
      "ength": 6647,
      "Ġcent": 6648,
      "irt": 6649,
      "akal": 6650,
      "Ġreach": 6651,
      "seq": 6652,
      "Ġwhite": 6653,
      "ĠLou": 6654,
      "ĠCont": 6655,
      "laÃ§": 6656,
      "ills": 6657,
      "ĠPlease": 6658,
      "Ġevl": 6659,
      "maktan": 6660,
      "ively": 6661,
      "ĠÃ¶nÃ¼nde": 6662,
      "meyen": 6663,
      "Ġsometimes": 6664,
      "ancy": 6665,
      "Ġistemez": 6666,
      "ĠIncremental": 6667,
      "Ġdirectly": 6668,
      "Ãĸyleyse": 6669,
      "parts": 6670,
      "Ġcontaining": 6671,
      "Yoksa": 6672,
      "26": 6673,
      "ban": 6674,
      "Ġsem": 6675,
      "Ġdance": 6676,
      "else": 6677,
      "Ã¼b": 6678,
      "irm": 6679,
      "ĠÅŁiÅŁ": 6680,
      "Ã¼rÃ¼st": 6681,
      "Ġsug": 6682,
      "Ġetmez": 6683,
      "ĠsoÄŁ": 6684,
      "('\\": 6685,
      "Ãĸld": 6686,
      "Ġbelow": 6687,
      "tÃ¼re": 6688,
      "Ġdeli": 6689,
      "Ġblow": 6690,
      "ESS": 6691,
      "Ġconsider": 6692,
      "ĠeÄŁit": 6693,
      "ĠkÄ±sm": 6694,
      "IncrementalDecoder": 6695,
      "extensions": 6696,
      "YalnÄ±z": 6697,
      "iant": 6698,
      "known": 6699,
      "mo": 6700,
      "Ġboss": 6701,
      "anÄ±ÅŁ": 6702,
      "ĠyukarÄ±": 6703,
      "Ġpan": 6704,
      "Ġring": 6705,
      "ĠÅŁehir": 6706,
      "Ġ13": 6707,
      "acaÄŁÄ±": 6708,
      "Ġstrict": 6709,
      "Ġmusic": 6710,
      "Ġground": 6711,
      "Ġkimin": 6712,
      "ĠThese": 6713,
      "senin": 6714,
      "Ġmoved": 6715,
      "Ġfloat": 6716,
      "ĠparÃ§asÄ±": 6717,
      "BRE": 6718,
      "Del": 6719,
      "Dav": 6720,
      "Sam": 6721,
      "bl": 6722,
      "fn": 6723,
      "ji": 6724,
      "kg": 6725,
      "safe": 6726,
      "array": 6727,
      "Ġfat": 6728,
      "imd": 6729,
      "urch": 6730,
      "izmet": 6731,
      "lardÄ±r": 6732,
      "empty": 6733,
      "olf": 6734,
      "ĠMor": 6735,
      "Ġseven": 6736,
      "ĠalÄ±p": 6737,
      "Ġsuite": 6738,
      "ALF": 6739,
      "lies": 6740,
      "tract": 6741,
      "ously": 6742,
      "ĠtakÄ±m": 6743,
      "ĠyarÄ±n": 6744,
      "week": 6745,
      "ĠkÄ±zÄ±": 6746,
      "which": 6747,
      "ĠihtiyacÄ±mÄ±z": 6748,
      "Ġverecek": 6749,
      "skip": 6750,
      "Ãĸnce": 6751,
      "Actually": 6752,
      "Ġsuggest": 6753,
      "FL": 6754,
      "Open": 6755,
      "RO": 6756,
      "dated": 6757,
      "iol": 6758,
      "nt": 6759,
      "ware": 6760,
      "ydi": 6761,
      "inÃ§": 6762,
      "Ġtip": 6763,
      "Ġtuhaf": 6764,
      "Ġsqu": 6765,
      "ante": 6766,
      "ilt": 6767,
      "asa": 6768,
      "isinin": 6769,
      "Ġlamb": 6770,
      "ummy": 6771,
      "ecode": 6772,
      "ĠaltÄ±": 6773,
      "resh": 6774,
      "ĠmÄ±sÄ±nÄ±z": 6775,
      "ĠolmasÄ±nÄ±": 6776,
      "ĠkalÄ±r": 6777,
      "Ġthemselves": 6778,
      "OUR": 6779,
      "ĠistediÄŁini": 6780,
      "charmap": 6781,
      "Ġmagic": 6782,
      "Ġcompletely": 6783,
      "Ġsuffix": 6784,
      "Ġinvestig": 6785,
      "88": 6786,
      "fc": 6787,
      "yd": 6788,
      "Ġ}": 6789,
      "erved": 6790,
      "Ġage": 6791,
      "Ġbath": 6792,
      "Ġdra": 6793,
      "ĠyavaÅŁ": 6794,
      "Ġmel": 6795,
      "irl": 6796,
      "Ġkere": 6797,
      "Ġfd": 6798,
      "aydÄ±m": 6799,
      "emy": 6800,
      "Ġ\"-": 6801,
      "ĠTur": 6802,
      "Ġyapmaya": 6803,
      "quences": 6804,
      "ledim": 6805,
      "Ġbroken": 6806,
      "dummy": 6807,
      "Ġgrow": 6808,
      "ĠtanÄ±": 6809,
      "Ġgidiyorsun": 6810,
      "ĠsanÄ±yorsun": 6811,
      "psini": 6812,
      "Ġstatus": 6813,
      "Ġcourt": 6814,
      "OLATED": 6815,
      "Ġsurv": 6816,
      "[:-": 6817,
      "Ġslow": 6818,
      "Ġprovide": 6819,
      "ĠISOLATED": 6820,
      "ĠError": 6821,
      "fullname": 6822,
      "Sakin": 6823,
      "+------------------------------------------------": 6824,
      "Ġpicture": 6825,
      "40": 6826,
      "IVE": 6827,
      "Mes": 6828,
      "Niye": 6829,
      "celi": 6830,
      "yin": 6831,
      "inci": 6832,
      "Ġwake": 6833,
      "Ġcost": 6834,
      "ids": 6835,
      "ĠLÃ¼tfen": 6836,
      "ĠalmÄ±ÅŁ": 6837,
      "ĠPark": 6838,
      "Ġimmedi": 6839,
      "ĠiÅŁaret": 6840,
      "foo": 6841,
      "Ġ40": 6842,
      "ĠtaÅŁÄ±n": 6843,
      "ĠdolayÄ±": 6844,
      "Ġfloor": 6845,
      "Ġmultiple": 6846,
      "People": 6847,
      "olutely": 6848,
      "36": 6849,
      "got": 6850,
      "Ġsock": 6851,
      "Ġwelcome": 6852,
      "Ġkel": 6853,
      "ĠpiÅŁ": 6854,
      "dex": 6855,
      "ĠAN": 6856,
      "ĠBul": 6857,
      "ĠClass": 6858,
      "Ä±ÅŁarÄ±": 6859,
      "Ä±lÄ±yor": 6860,
      "Ġzen": 6861,
      "uyum": 6862,
      "ĠUh": 6863,
      "ordin": 6864,
      ".\")": 6865,
      "Ġworried": 6866,
      "notation": 6867,
      "ĠhayatÄ±m": 6868,
      "Ġapplic": 6869,
      "Ġkatil": 6870,
      "Ġaccount": 6871,
      "ĠrahatsÄ±z": 6872,
      "esterday": 6873,
      "Ġbirthday": 6874,
      "Ġwedding": 6875,
      ".)": 6876,
      "Duy": 6877,
      "First": 6878,
      "OÄŁl": 6879,
      "Zaman": 6880,
      "dÄ±ÄŁ": 6881,
      "highlight": 6882,
      "ĠmÃ¼mkÃ¼n": 6883,
      "Ġpal": 6884,
      "ury": 6885,
      "idge": 6886,
      "ĠBE": 6887,
      "ĠCr": 6888,
      "Ġshare": 6889,
      "Ġexpl": 6890,
      "Ã¼mÃ¼": 6891,
      "Ġbende": 6892,
      "Ġenv": 6893,
      "Ġencoded": 6894,
      "ĠUse": 6895,
      "Ancak": 6896,
      "Ġexceptions": 6897,
      "aniel": 6898,
      "mene": 6899,
      "ĠyetiÅŁ": 6900,
      "Ġindeed": 6901,
      "aÄŁÄ±t": 6902,
      "Ġproblems": 6903,
      "Ġdetails": 6904,
      "Ġglobals": 6905,
      "Ġwriting": 6906,
      "Ġlucky": 6907,
      "seconds": 6908,
      "Ġrapor": 6909,
      "ĠTONOS": 6910,
      "\"))": 6911,
      "=',": 6912,
      "Kur": 6913,
      "MÃ¼": 6914,
      "MAP": 6915,
      "Path": 6916,
      "][": 6917,
      "aff": 6918,
      "future": 6919,
      "Ġsounds": 6920,
      "arlar": 6921,
      "Ġdou": 6922,
      "Ġgay": 6923,
      "Ġneyse": 6924,
      "Ġang": 6925,
      "Ġintr": 6926,
      "umda": 6927,
      "Ġbeat": 6928,
      "hteÅŁ": 6929,
      "ĠmeÅŁ": 6930,
      "ĠMad": 6931,
      "Ġshell": 6932,
      "rie": 6933,
      "Ġelb": 6934,
      "Ġfeed": 6935,
      "laÅŁtÄ±r": 6936,
      "writer": 6937,
      "Ġassoci": 6938,
      "'],": 6939,
      "ĠkapÄ±": 6940,
      "sidebar": 6941,
      "Ġdeniz": 6942,
      "Ġaccording": 6943,
      "Ġregular": 6944,
      "display": 6945,
      "ĠâĢĵ": 6946,
      "precated": 6947,
      "Ġfailed": 6948,
      "Eminim": 6949,
      "hteÅŁem": 6950,
      "Men": 6951,
      "PRE": 6952,
      "uel": 6953,
      "Ġsyntax": 6954,
      "Ġmir": 6955,
      "Ġmiydi": 6956,
      "Ġham": 6957,
      "alÄ±ÅŁ": 6958,
      "Ġcases": 6959,
      "eyiz": 6960,
      "Ġrepe": 6961,
      "ĠSch": 6962,
      "ĠLuc": 6963,
      "ĠDel": 6964,
      "ĠTra": 6965,
      "ĠaltÄ±n": 6966,
      "rog": 6967,
      "Ġyapan": 6968,
      "ĠyapacaÄŁÄ±z": 6969,
      "ĠEOF": 6970,
      "ĠWil": 6971,
      "mekten": 6972,
      "edence": 6973,
      "lamaz": 6974,
      "manÄ±z": 6975,
      "grid": 6976,
      "imizde": 6977,
      "Ġkaybed": 6978,
      "select": 6979,
      "Ġpolicy": 6980,
      "what": 6981,
      "Ġinstall": 6982,
      "Ġmovie": 6983,
      "Ġtotally": 6984,
      "complet": 6985,
      "Devam": 6986,
      "92": 6987,
      "Bit": 6988,
      "BazÄ±": 6989,
      "Window": 6990,
      "gili": 6991,
      "rup": 6992,
      "va": 6993,
      "Ġsiy": 6994,
      "arth": 6995,
      "izer": 6996,
      "ĠĠĠĠĠĠĠĠĠĠĠĠĠĠĠĠĠĠĠĠĠĠĠĠĠĠĠĠĠ": 6997,
      "Ġarri": 6998,
      "Ġshared": 6999,
      "ĠÅŁeyden": 7000,
      "Ġenjoy": 7001,
      "uyla": 7002,
      "ĠÄ°Ã§": 7003,
      "Check": 7004,
      "Ġaccident": 7005,
      "Ġcookies": 7006,
      "Ġdigits": 7007,
      "ĠEurope": 7008,
      "48": 7009,
      "Benden": 7010,
      "Kan": 7011,
      "Remember": 7012,
      "dunuz": 7013,
      "low": 7014,
      "tiniz": 7015,
      "ennem": 7016,
      "arry": 7017,
      "imum": 7018,
      "Ġincremental": 7019,
      "lerdi": 7020,
      "Ġnegative": 7021,
      "ĠCal": 7022,
      "ĠDEV": 7023,
      "__':": 7024,
      "ĠHep": 7025,
      "ĠyapÄ±yorum": 7026,
      "ĠPe": 7027,
      "avall": 7028,
      "ĠUND": 7029,
      "Ġtalked": 7030,
      "Ġhalle": 7031,
      "preter": 7032,
      "ĠgÃ¼c": 7033,
      "Ġbekl": 7034,
      "Ġtrace": 7035,
      "selection": 7036,
      "extra": 7037,
      "Ġsmell": 7038,
      "Ġortak": 7039,
      "ĠmÄ±ydÄ±": 7040,
      "Ġdatetime": 7041,
      "abileceÄŁini": 7042,
      "Ġcertainly": 7043,
      "IncrementalEncoder": 7044,
      "ĠÃ§arp": 7045,
      "ĠidleConf": 7046,
      "Dad": 7047,
      "Ha": 7048,
      "SÃ¶z": 7049,
      "TA": 7050,
      "bold": 7051,
      "well": 7052,
      "Ġthous": 7053,
      "reci": 7054,
      "Ġyoll": 7055,
      "Ġwall": 7056,
      "lek": 7057,
      "ÅŁeyi": 7058,
      "Ġciv": 7059,
      "Ġfn": 7060,
      "amÄ±yor": 7061,
      "ĠList": 7062,
      "ĠDur": 7063,
      "ĠMa": 7064,
      "Ġasync": 7065,
      "Ġexec": 7066,
      "ĠOl": 7067,
      "ationship": 7068,
      "ĠolmalÄ±y": 7069,
      "ĠYok": 7070,
      "Ġproperty": 7071,
      "Ġduruyor": 7072,
      "tÄ±ÄŁÄ±m": 7073,
      "escape": 7074,
      "Ġbiliyoruz": 7075,
      "Read": 7076,
      "system": 7077,
      "Ġbased": 7078,
      "StreamReader": 7079,
      "StreamWriter": 7080,
      "Ġsebep": 7081,
      "Ġpaper": 7082,
      "45": 7083,
      "Hast": 7084,
      "Kes": 7085,
      "Kom": 7086,
      "Mad": 7087,
      "Ph": 7088,
      "WO": 7089,
      "WORD": 7090,
      "ging": 7091,
      "sat": 7092,
      "Ġtired": 7093,
      "ĠsÃ¼": 7094,
      "Ġdry": 7095,
      "Ġmail": 7096,
      "ĠkayÄ±t": 7097,
      "amber": 7098,
      "Ġnak": 7099,
      "Ġpipe": 7100,
      "Ġpsych": 7101,
      "Ġinher": 7102,
      "Ġbirine": 7103,
      "sec": 7104,
      "Ġsteal": 7105,
      "ĠDef": 7106,
      "ĠgÃ¶tÃ¼re": 7107,
      "iÅŁim": 7108,
      "Ä°z": 7109,
      "ĠKing": 7110,
      "ĠYa": 7111,
      "ĠURL": 7112,
      "Button": 7113,
      "layÄ±n": 7114,
      "elerini": 7115,
      "Ġnumer": 7116,
      "OUND": 7117,
      "Ġmemo": 7118,
      "Shit": 7119,
      "ĠbaÄŁlant": 7120,
      "expression": 7121,
      "attle": 7122,
      "Ġsituation": 7123,
      "Ġlogger": 7124,
      "ĠABOVE": 7125,
      "Ġbrain": 7126,
      "ĠkÄ±sa": 7127,
      "Ġinspect": 7128,
      "Ġcompatibility": 7129,
      "Aile": 7130,
      "Otur": 7131,
      "Ra": 7132,
      "kind": 7133,
      "las": 7134,
      "rate": 7135,
      "Ġinvalid": 7136,
      "iday": 7137,
      "ĠBase": 7138,
      "ĠBLOCK": 7139,
      "ĠĠĠĠĠĠĠĠĠĠĠĠĠĠĠĠĠĠĠĠĠĠĠĠĠĠĠĠĠĠĠĠĠĠĠ": 7140,
      "oly": 7141,
      "ĠNO": 7142,
      "nda": 7143,
      "ĠcanÄ±m": 7144,
      "Ġcancel": 7145,
      "Ġsuit": 7146,
      "Ġproxy": 7147,
      "ĠkonuÅŁuyor": 7148,
      "mamÄ±": 7149,
      "OUT": 7150,
      "ĠAny": 7151,
      "ĠaldÄ±n": 7152,
      "Ġkiller": 7153,
      "Ġcorrespond": 7154,
      "GÃ¶rÃ¼n": 7155,
      "Ġexisting": 7156,
      "aaaa": 7157,
      "Ġdescriptor": 7158,
      "ĠSEPAR": 7159,
      "Ġteslim": 7160,
      "ĠSEPARATOR": 7161,
      "90": 7162,
      "Make": 7163,
      "Silah": 7164,
      "Top": 7165,
      "Ġ//": 7166,
      "Ġtail": 7167,
      "Ġbp": 7168,
      "Ġdraw": 7169,
      "Ġmey": 7170,
      "Ġhata": 7171,
      "lement": 7172,
      "Ġlat": 7173,
      "Ġdek": 7174,
      "Ġbirinin": 7175,
      "ĠÃ§abuk": 7176,
      "andy": 7177,
      "ĠÃ¶p": 7178,
      "Ġoradan": 7179,
      "Ġexplicit": 7180,
      "ĠEX": 7181,
      "Ġlov": 7182,
      "Ġhasn": 7183,
      "Never": 7184,
      "exe": 7185,
      "ully": 7186,
      "ĠyaÅŁÄ±nda": 7187,
      "mezsin": 7188,
      "Ġbreakpoint": 7189,
      "Ġdecided": 7190,
      "ĠyaptÄ±ÄŁÄ±": 7191,
      "Ġtransport": 7192,
      "Ġremoved": 7193,
      "Ġhighlight": 7194,
      "Ġvakit": 7195,
      "Ġbeginning": 7196,
      "HazÄ±r": 7197,
      "aled": 7198,
      "rick": 7199,
      "uge": 7200,
      "ĠtartÄ±ÅŁ": 7201,
      "Ġsoul": 7202,
      "otstr": 7203,
      "decoder": 7204,
      "icle": 7205,
      "ĠMax": 7206,
      "ĠPres": 7207,
      "ĠOur": 7208,
      "Ä±lgÄ±n": 7209,
      "Ġele": 7210,
      "Ġengel": 7211,
      "Ġtep": 7212,
      "ĠsÃ¶yledin": 7213,
      "Ġamazing": 7214,
      "Ãĸnemli": 7215,
      "Ġagree": 7216,
      "Ġdeliver": 7217,
      "ĠinsanlarÄ±": 7218,
      "arling": 7219,
      "ĠbaÄŁlÄ±": 7220,
      "subwidget": 7221,
      "special": 7222,
      "Ġoyunc": 7223,
      "Ġprovided": 7224,
      "IZE": 7225,
      "Ġfixed": 7226,
      "Ġsorted": 7227,
      "Ġfaith": 7228,
      "Kay": 7229,
      "bor": 7230,
      "}'": 7231,
      "Ġgift": 7232,
      "ÄŁinin": 7233,
      "Ġpaid": 7234,
      "decoding": 7235,
      "owers": 7236,
      "Ġforward": 7237,
      "ĠÃ§eÅŁit": 7238,
      "ĠNOT": 7239,
      "Whatever": 7240,
      "ĠGÃ¶r": 7241,
      "indir": 7242,
      "Ġgelin": 7243,
      "ĠJames": 7244,
      "Ġsayg": 7245,
      "Ġmuh": 7246,
      "defined": 7247,
      "Ġnewline": 7248,
      "ladÄ±k": 7249,
      "adÄ±ÄŁÄ±nÄ±": 7250,
      "Ä±pkÄ±": 7251,
      "Shut": 7252,
      "ĠistediÄŁin": 7253,
      "ĠsÃ¼rekli": 7254,
      "Ġmenu": 7255,
      "Ġmarry": 7256,
      "Ã¼cÃ¼": 7257,
      "Ġwatching": 7258,
      "KardeÅŁ": 7259,
      "ĠkardeÅŁim": 7260,
      "Ġpoor": 7261,
      "~~~~": 7262,
      "ĠendiÅŁelen": 7263,
      "Cal": 7264,
      "Text": 7265,
      "Zaten": 7266,
      "fes": 7267,
      "Ġikinci": 7268,
      "alter": 7269,
      "Ġkr": 7270,
      "ayÄ±z": 7271,
      "ayacaÄŁÄ±m": 7272,
      "unittest": 7273,
      "isa": 7274,
      "isay": 7275,
      "acing": 7276,
      "ĠNer": 7277,
      "ĠDoktor": 7278,
      "ends": 7279,
      "Ġarm": 7280,
      "Ä±ÅŁtÄ±r": 7281,
      "Ġisterim": 7282,
      "ĠKat": 7283,
      "Ã¼ÅŁter": 7284,
      "Ġeng": 7285,
      "struction": 7286,
      "arsan": 7287,
      "ager": 7288,
      "Ġsets": 7289,
      "State": 7290,
      "Ġuyar": 7291,
      "extend": 7292,
      "subclass": 7293,
      "Ġvideo": 7294,
      "AF": 7295,
      "before": 7296,
      "mine": 7297,
      "non": 7298,
      "alim": 7299,
      "alde": 7300,
      "stop": 7301,
      "stdin": 7302,
      "Ġkam": 7303,
      "Ġfool": 7304,
      "itions": 7305,
      "Ġpair": 7306,
      "aking": 7307,
      "Ġanimal": 7308,
      "Ġlunch": 7309,
      "Ġrom": 7310,
      "Ġroll": 7311,
      "ĠÅŁah": 7312,
      "Ġwear": 7313,
      "usura": 7314,
      "ĠFile": 7315,
      "othes": 7316,
      "Inter": 7317,
      "ova": 7318,
      "Ġworse": 7319,
      "Stay": 7320,
      "Ġcrime": 7321,
      "Ġfinished": 7322,
      "Ġdeney": 7323,
      "Ġproto": 7324,
      "bilirim": 7325,
      "ĠdÃ¼nya": 7326,
      "Ġcontact": 7327,
      "ĠÃ¼stÃ¼nde": 7328,
      "Ġborn": 7329,
      "Ġgidecek": 7330,
      "QUAL": 7331,
      "Loader": 7332,
      "Ġlimit": 7333,
      "ĠDEVICE": 7334,
      "60": 7335,
      "={}": 7336,
      "Ġ'+": 7337,
      "Ġstyle": 7338,
      "ĠLINE": 7339,
      "ĠCOM": 7340,
      "ĠGÃ¼zel": 7341,
      "ardan": 7342,
      "INED": 7343,
      "Ġtrick": 7344,
      "Ġmissed": 7345,
      "larÄ±nÄ±zÄ±": 7346,
      "Ġcarry": 7347,
      "ĠyaÅŁlÄ±": 7348,
      "Ġattention": 7349,
      "ĠOnun": 7350,
      "oÄŁun": 7351,
      "Ġpersonal": 7352,
      "Ġheyecan": 7353,
      "Ġyeterli": 7354,
      "Tekrar": 7355,
      "Ġreference": 7356,
      "Ġtahmin": 7357,
      "ĠÄ°ÅŁte": 7358,
      "GÃ¼ven": 7359,
      "Module": 7360,
      "Miss": 7361,
      "Option": 7362,
      "SION": 7363,
      "gie": 7364,
      "simple": 7365,
      "ĠÃ¢": 7366,
      "Ġsert": 7367,
      "anya": 7368,
      "Ġmiddle": 7369,
      "ÄŁil": 7370,
      "Ġrepl": 7371,
      "ĠSQU": 7372,
      "Ġnote": 7373,
      "ĠCaptain": 7374,
      "Ġbuddy": 7375,
      "ifies": 7376,
      "Ġalmaya": 7377,
      "ĠEver": 7378,
      "Ġclub": 7379,
      "Ġanywhere": 7380,
      "Ġzamanlar": 7381,
      "alara": 7382,
      "LEF": 7383,
      "Ä±nÄ±za": 7384,
      "Ã¶rt": 7385,
      "ĠÃ¶lÃ¼": 7386,
      "ĠinanamÄ±yorum": 7387,
      "Ġdeclar": 7388,
      "ufffe": 7389,
      "Ġrelationship": 7390,
      "undred": 7391,
      "ĠAPI": 7392,
      "Bye": 7393,
      "Ed": 7394,
      "GE": 7395,
      "Nerede": 7396,
      "Yar": 7397,
      "sr": 7398,
      "env": 7399,
      "adata": 7400,
      "ising": 7401,
      "llib": 7402,
      "ĠLa": 7403,
      "ulu": 7404,
      "Ġheight": 7405,
      "riate": 7406,
      "Ġverb": 7407,
      "ĠgerÃ§e": 7408,
      "ĠVer": 7409,
      "ONE": 7410,
      "Ã¢r": 7411,
      "tesIO": 7412,
      "ĠolacaksÄ±n": 7413,
      "Ġtravel": 7414,
      "Ġbiliyordum": 7415,
      "Ġgives": 7416,
      "Ġgirlfriend": 7417,
      "ebilirsin": 7418,
      "ĠzamandÄ±r": 7419,
      "Ġberbat": 7420,
      "ology": 7421,
      "global": 7422,
      "destroy": 7423,
      "DÃ¼ÅŁÃ¼n": 7424,
      "Damn": 7425,
      "otstrap": 7426,
      "ĠSQUARE": 7427,
      "86": 7428,
      "EP": 7429,
      "IP": 7430,
      "ODE": 7431,
      "eq": 7432,
      "Ġtick": 7433,
      "enum": 7434,
      "Ġdiyorum": 7435,
      "unction": 7436,
      "apt": 7437,
      "Ä±rken": 7438,
      "Ġstation": 7439,
      "ĠHenry": 7440,
      "ĠOtherwise": 7441,
      "Ã¼rÃ¼m": 7442,
      "ERR": 7443,
      "Ä±ÄŁa": 7444,
      "Ã¼ÅŁe": 7445,
      "asÄ±yla": 7446,
      "ĠolduÄŁumuz": 7447,
      "iving": 7448,
      "Ġspend": 7449,
      "abilirsiniz": 7450,
      "achel": 7451,
      "Ġbroke": 7452,
      "elerin": 7453,
      "cih": 7454,
      "Whoa": 7455,
      "position": 7456,
      "Ġtermin": 7457,
      "BakÄ±n": 7458,
      "Ġchecked": 7459,
      "Ġregister": 7460,
      "EFINED": 7461,
      "force": 7462,
      "Ġgidiyoruz": 7463,
      "Ġrequired": 7464,
      "uÅŁturucu": 7465,
      "Ãĩocuklar": 7466,
      "ĠÅŁarkÄ±": 7467,
      "Ġparticular": 7468,
      "ĠUNDEFINED": 7469,
      "Create": 7470,
      "Kat": 7471,
      "Koc": 7472,
      "Try": 7473,
      "Yer": 7474,
      "pa": 7475,
      "rb": 7476,
      "release": 7477,
      "sal": 7478,
      "tri": 7479,
      "ari": 7480,
      "Ġglass": 7481,
      "Ġking": 7482,
      "Ġfit": 7483,
      "Ġ':": 7484,
      "Ġdeprecated": 7485,
      "ĠNick": 7486,
      "this": 7487,
      "ĠÃ¶le": 7488,
      "usun": 7489,
      "uses": 7490,
      "anta": 7491,
      "-------": 7492,
      "ĠKon": 7493,
      "ĠKur": 7494,
      "Ġbilgi": 7495,
      "Ãĩek": 7496,
      "larÄ±yla": 7497,
      "ĠolduÄŁun": 7498,
      "Ġthinks": 7499,
      "ĠVal": 7500,
      "Ġspent": 7501,
      "(\"<": 7502,
      "ĠSMTP": 7503,
      "ribut": 7504,
      "Ġtekn": 7505,
      "Ġzorund": 7506,
      "ĠgÃ¼le": 7507,
      "insel": 7508,
      "Ġsubprocess": 7509,
      "poss": 7510,
      "Ġinstances": 7511,
      "Ġdestek": 7512,
      "Ġhasta": 7513,
      "Ġ'.'": 7514,
      "ĠException": 7515,
      "params": 7516,
      "Ġmillet": 7517,
      "ĠyÄ±ldÄ±r": 7518,
      "Ä°nsanlar": 7519,
      "Ġdocumentation": 7520,
      "Operation": 7521,
      "Ġvoice": 7522,
      "07": 7523,
      "Data": 7524,
      "FILE": 7525,
      "NOW": 7526,
      "how": 7527,
      "house": 7528,
      "tiler": 7529,
      "ĠÄ±ÅŁ": 7530,
      "Ġtech": 7531,
      "Ġsoc": 7532,
      "Ġmock": 7533,
      "Ġhook": 7534,
      "Ġcard": 7535,
      "Ġken": 7536,
      "Ġfish": 7537,
      "Ġdem": 7538,
      "ĠSome": 7539,
      "Ġdold": 7540,
      "master": 7541,
      "ĠEÄŁer": 7542,
      "ĠFrame": 7543,
      "ĠFBI": 7544,
      "Ġchars": 7545,
      "lier": 7546,
      "ĠiÅŁle": 7547,
      "ĠistemiÅŁ": 7548,
      "Ġyola": 7549,
      "ĠBiraz": 7550,
      "defaults": 7551,
      "ĠborÃ§": 7552,
      "dispatch": 7553,
      "ĠChristmas": 7554,
      "GeÃ§en": 7555,
      "ĠNotImplementedError": 7556,
      "Telefon": 7557,
      "Ġgentlemen": 7558,
      "Ġissue": 7559,
      "Ġcondition": 7560,
      "\".\\": 7561,
      "AteÅŁ": 7562,
      "Ob": 7563,
      "mÄ±zÄ±": 7564,
      "ring": 7565,
      "tok": 7566,
      "ination": 7567,
      "Ġthreat": 7568,
      "ĠkÄ±l": 7569,
      "edel": 7570,
      "Ġfut": 7571,
      "Ġneredeyse": 7572,
      "Ġpython": 7573,
      "changed": 7574,
      "Ġbull": 7575,
      "riage": 7576,
      "Ġdefa": 7577,
      "Ġalacak": 7578,
      "plete": 7579,
      "iven": 7580,
      "Ġprog": 7581,
      "Anlam": 7582,
      "ART": 7583,
      "notations": 7584,
      "Ġenter": 7585,
      "objects": 7586,
      "Ġselected": 7587,
      "Ġprivate": 7588,
      "Ġwonderful": 7589,
      "Ġinteresting": 7590,
      "KÃ¶tÃ¼": 7591,
      "ĠolsaydÄ±": 7592,
      "Ġenvironment": 7593,
      "mlinks": 7594,
      "55": 7595,
      "=%": 7596,
      "ACK": 7597,
      "Frame": 7598,
      "Yet": 7599,
      "raman": 7600,
      "eller": 7601,
      "Ã¼le": 7602,
      "Ġfur": 7603,
      "Ġfold": 7604,
      "aklar": 7605,
      "akta": 7606,
      "vey": 7607,
      "Ġviol": 7608,
      "Ä±rlar": 7609,
      "ulations": 7610,
      "ĠTix": 7611,
      "lav": 7612,
      "().__": 7613,
      "ĠalacaÄŁÄ±m": 7614,
      "Ġarea": 7615,
      "Ġmix": 7616,
      "ĠgÃ¶rmÃ¼ÅŁ": 7617,
      "ĠparayÄ±": 7618,
      "Ġbulmak": 7619,
      "Ġagre": 7620,
      "ĠAnne": 7621,
      "background": 7622,
      "Ġsmart": 7623,
      "ajest": 7624,
      "Ġmatches": 7625,
      "Process": 7626,
      "SakÄ±n": 7627,
      "ĠÃ¼lk": 7628,
      "temp": 7629,
      "ĠTestInfo": 7630,
      "ĠGeneral": 7631,
      "Network": 7632,
      "ĠsÄ±nÄ±f": 7633,
      "avallÄ±": 7634,
      "37": 7635,
      "Bas": 7636,
      "Dialog": 7637,
      "Jim": 7638,
      "Mon": 7639,
      "Out": 7640,
      "Turn": 7641,
      "dÄ±nÄ±z": 7642,
      "fast": 7643,
      "raph": 7644,
      "sent": 7645,
      "Ġbought": 7646,
      "ĠdiÅŁ": 7647,
      "Ġmajor": 7648,
      "ĠhenÃ¼z": 7649,
      "Ġhundred": 7650,
      "Ġgeni": 7651,
      "iting": 7652,
      "Ġpage": 7653,
      "ĠdemiÅŁ": 7654,
      "Ġeight": 7655,
      "ication": 7656,
      "ĠÅŁur": 7657,
      "unuyor": 7658,
      "ersion": 7659,
      "ĠyaptÄ±r": 7660,
      "Biri": 7661,
      "Ġsonu": 7662,
      "ĠolduÄŁum": 7663,
      "ivalent": 7664,
      "Ä±ydÄ±": 7665,
      "ynch": 7666,
      "ilenames": 7667,
      "ĠtanÄ±yor": 7668,
      "Ġprefer": 7669,
      "Ġprevious": 7670,
      "wrap": 7671,
      "Ġattempt": 7672,
      "Ġbasit": 7673,
      "Ġmission": 7674,
      "Ġbulduk": 7675,
      "ĠButton": 7676,
      "ĠsÃ¶ylÃ¼yorum": 7677,
      "namespace": 7678,
      "Ġyeterince": 7679,
      "Everybody": 7680,
      "ĠyÃ¼rÃ¼y": 7681,
      "Ġoccur": 7682,
      "Ġpadx": 7683,
      "Av": 7684,
      "BoÅŁ": 7685,
      "Eve": 7686,
      "PER": 7687,
      "lt": 7688,
      "zu": 7689,
      "iny": 7690,
      "Ġbother": 7691,
      "ores": 7692,
      "Ġic": 7693,
      "ĠkÄ±Ã§": 7694,
      "Ġinn": 7695,
      "Ġeg": 7696,
      "seek": 7697,
      "appe": 7698,
      "ĠSat": 7699,
      "ĠbeÄŁ": 7700,
      "ahtar": 7701,
      "ĠLabel": 7702,
      "Ä±klÄ±": 7703,
      "ĠTcl": 7704,
      "ĠOR": 7705,
      "gex": 7706,
      "Ġelements": 7707,
      "ĠdeÄŁiliz": 7708,
      "Ġgeldik": 7709,
      "ledge": 7710,
      "lanmÄ±ÅŁ": 7711,
      "Ġdelete": 7712,
      "Ġcharge": 7713,
      "Looks": 7714,
      "ĠkorkunÃ§": 7715,
      "ĠbaÄŁÄ±ÅŁ": 7716,
      "board": 7717,
      "ĠQue": 7718,
      "kwds": 7719,
      "Ġappreci": 7720,
      "ĠTHREE": 7721,
      "ĠhatÄ±rlÄ±yor": 7722,
      "emezsin": 7723,
      "Ġlovely": 7724,
      "COM": 7725,
      "MIN": 7726,
      "SaÃ§": 7727,
      "fork": 7728,
      "och": 7729,
      "Ġseks": 7730,
      "Ġband": 7731,
      "encoder": 7732,
      "reduce": 7733,
      "Ġneydi": 7734,
      "asy": 7735,
      "Ä±mdan": 7736,
      "ĠSir": 7737,
      "Ġradi": 7738,
      "ĠBecause": 7739,
      "Ġneigh": 7740,
      "ĠHALF": 7741,
      "ĠiÃ§ki": 7742,
      "ĠyapacaksÄ±n": 7743,
      "ibar": 7744,
      "athan": 7745,
      "getattr": 7746,
      "Ġedip": 7747,
      "tiÄŁim": 7748,
      "Erkek": 7749,
      "uzey": 7750,
      "Ä±yÄ±m": 7751,
      "lamaya": 7752,
      "eze": 7753,
      "Ġcareful": 7754,
      "Ġpaths": 7755,
      "Ġblue": 7756,
      "Ġtercih": 7757,
      "rench": 7758,
      "Request": 7759,
      "Ġsigns": 7760,
      "Ġoperations": 7761,
      "Ġdirectories": 7762,
      "medik": 7763,
      "Ġbuldun": 7764,
      "ĠseÃ§im": 7765,
      "ĠGerÃ§ek": 7766,
      "extension": 7767,
      "itespace": 7768,
      "Ġimmediately": 7769,
      "Amer": 7770,
      "Sup": 7771,
      "fileno": 7772,
      "malÄ±k": 7773,
      "rop": 7774,
      "eless": 7775,
      "Ġyemin": 7776,
      "Ġyesterday": 7777,
      "stmt": 7778,
      "Ġcen": 7779,
      "eti": 7780,
      "ett": 7781,
      "une": 7782,
      "isiniz": 7783,
      "Three": 7784,
      "enty": 7785,
      "ĠSÄ±r": 7786,
      "Ġolma": 7787,
      "lerimiz": 7788,
      "ula": 7789,
      "ĠNode": 7790,
      "though": 7791,
      "Ġdefine": 7792,
      "ĠKom": 7793,
      "ĠÃ§alÄ±ÅŁan": 7794,
      "meniz": 7795,
      "Ġtarz": 7796,
      "ĠhaklÄ±": 7797,
      "IST": 7798,
      "Ġxml": 7799,
      "Ġdiffic": 7800,
      "ĠbaÄŁÄ±r": 7801,
      "ĠAmerican": 7802,
      "Ġimage": 7803,
      "Ġlarge": 7804,
      "Ġlanguage": 7805,
      "Ġdifficult": 7806,
      "78": 7807,
      "Fine": 7808,
      "LY": 7809,
      "THAN": 7810,
      "gal": 7811,
      "hur": 7812,
      "mÄ±yorsun": 7813,
      "night": 7814,
      "sure": 7815,
      "tb": 7816,
      "ze": 7817,
      "ĠÅŀu": 7818,
      "Ġtap": 7819,
      "Ġsos": 7820,
      "ĠbÃ¶": 7821,
      "Ġgaliba": 7822,
      "Ġfrozen": 7823,
      "Ġez": 7824,
      "idered": 7825,
      "Think": 7826,
      "Ġforever": 7827,
      "ĠÃ§at": 7828,
      "Ġshop": 7829,
      "istered": 7830,
      "ĠOption": 7831,
      "ctools": 7832,
      "Ġelect": 7833,
      "ipp": 7834,
      "ĠKend": 7835,
      "Ġedildi": 7836,
      "Ġupdated": 7837,
      "ĠadÄ±na": 7838,
      "Ġtear": 7839,
      "Ġsende": 7840,
      "Ġclothes": 7841,
      "ploy": 7842,
      "Ġresource": 7843,
      "Ġboard": 7844,
      "Ġerken": 7845,
      "Ġscene": 7846,
      "ĠyanÄ±na": 7847,
      "bootstrap": 7848,
      "network": 7849,
      "locals": 7850,
      "diÄŁimiz": 7851,
      "ĠÃ¼stÃ¼ne": 7852,
      "Trans": 7853,
      "Ġdetermin": 7854,
      "ĠvazgeÃ§": 7855,
      "CS": 7856,
      "EH": 7857,
      "More": 7858,
      "Sab": 7859,
      "Watch": 7860,
      "]\\": 7861,
      "dot": 7862,
      "Ġqueue": 7863,
      "orld": 7864,
      "reen": 7865,
      "ĠgÃĥ": 7866,
      "Ġopp": 7867,
      "Ġcamp": 7868,
      "eyle": 7869,
      "Ġest": 7870,
      "ĠraÄŁ": 7871,
      "ĠrÃ¼y": 7872,
      "ĠTek": 7873,
      "ĠTWO": 7874,
      "ĠGit": 7875,
      "tiÄŁi": 7876,
      "evk": 7877,
      "layan": 7878,
      "ssl": 7879,
      "ĠhayatÄ±nÄ±": 7880,
      "Ġboyfriend": 7881,
      "traverse": 7882,
      "Ġiyisi": 7883,
      "Ġphot": 7884,
      "ursor": 7885,
      "Ġfighting": 7886,
      "canvas": 7887,
      "ĠBiliyorum": 7888,
      "Ġbilirsin": 7889,
      "Ġdefinitely": 7890,
      "Frank": 7891,
      "Ġdoubt": 7892,
      "={},": 7893,
      "Sah": 7894,
      "bad": 7895,
      "bile": 7896,
      "fold": 7897,
      "gus": 7898,
      "hi": 7899,
      "ned": 7900,
      "Ġsik": 7901,
      "aron": 7902,
      "Ġoh": 7903,
      "sted": 7904,
      "stairs": 7905,
      "edit": 7906,
      "ette": 7907,
      "ima": 7908,
      "Ġrah": 7909,
      "ĠAss": 7910,
      "olun": 7911,
      "ĠDO": 7912,
      "ĠRed": 7913,
      "Ġelbette": 7914,
      "Ġvars": 7915,
      "actor": 7916,
      "(\"%": 7917,
      "ounter": 7918,
      "Ġstarts": 7919,
      "Ġkaybol": 7920,
      "Asla": 7921,
      "ĠArab": 7922,
      "Ġplane": 7923,
      "ILDE": 7924,
      "ĠdoÄŁum": 7925,
      "static": 7926,
      "Ġappear": 7927,
      "Ġdangerous": 7928,
      "Iter": 7929,
      "LD": 7930,
      "Michael": 7931,
      "Oy": 7932,
      "SavaÅŁ": 7933,
      "Saat": 7934,
      "URL": 7935,
      "sim": 7936,
      "winfo": 7937,
      "Ġble": 7938,
      "ĠbiÃ§": 7939,
      "Ġill": 7940,
      "Ġmant": 7941,
      "stit": 7942,
      "Ġlan": 7943,
      "Ġlying": 7944,
      "utton": 7945,
      "dia": 7946,
      "ĠÅŁeh": 7947,
      "ĠTabii": 7948,
      "ĠTILDE": 7949,
      "ĠEarth": 7950,
      "ĠRuss": 7951,
      "ĠWait": 7952,
      "Ġetmem": 7953,
      "Ġusually": 7954,
      "ATA": 7955,
      "Ġtruck": 7956,
      "Oraya": 7957,
      "Ġrealize": 7958,
      "Ġapprop": 7959,
      "Ġopened": 7960,
      "attribute": 7961,
      "Ġmatching": 7962,
      "Ġborder": 7963,
      "commands": 7964,
      "Ġbecom": 7965,
      "ĠHarry": 7966,
      "Kendini": 7967,
      "Someone": 7968,
      "ĠbÃ¼yÃ¼": 7969,
      "Ġconcern": 7970,
      "Ġclaim": 7971,
      "Ġincluding": 7972,
      "Ġservice": 7973,
      "ĠIDLE": 7974,
      "Ġpunish": 7975,
      "edelta": 7976,
      "ĠraÄŁmen": 7977,
      "'\"": 7978,
      "70": 7979,
      "Ag": 7980,
      "Dis": 7981,
      "Pardon": 7982,
      "Time": 7983,
      "best": 7984,
      "focus": 7985,
      "ker": 7986,
      "nel": 7987,
      "pose": 7988,
      "place": 7989,
      "pipe": 7990,
      "sine": 7991,
      "Ġtk": 7992,
      "Ġbelli": 7993,
      "Ġcel": 7994,
      "isinde": 7995,
      "Ġrich": 7996,
      "ĠBaba": 7997,
      "olu": 7998,
      "ĠMm": 7999,
      "ĠyaparÄ±m": 8000,
      "ĠedeceÄŁim": 8001,
      "Ġbildir": 8002,
      "others": 8003,
      "anges": 8004,
      "dirname": 8005,
      "Ġbakma": 8006,
      "Ã¼yÃ¼": 8007,
      "Ġimportlib": 8008,
      "ĠgÃ¼neÅŁ": 8009,
      "shut": 8010,
      "Ġizley": 8011,
      "Ġquote": 8012,
      "Conn": 8013,
      "Ġtrain": 8014,
      "Ġterrible": 8015,
      "compress": 8016,
      "Ġdecor": 8017,
      "Sanki": 8018,
      "asÄ±ndaki": 8019,
      "ĠpaylaÅŁ": 8020,
      "Ġcurrently": 8021,
      "Ġplaces": 8022,
      "ĠaÄŁz": 8023,
      "Ġsimp": 8024,
      "Ġswear": 8025,
      "Ġprior": 8026,
      "Ġexecuted": 8027,
      "ĠSanÄ±rÄ±m": 8028,
      "Compiler": 8029,
      "ĠDeprec": 8030,
      "Ġziyaret": 8031,
      "Dost": 8032,
      "Hang": 8033,
      "SH": 8034,
      "SIZE": 8035,
      "bc": 8036,
      "descript": 8037,
      "pay": 8038,
      "tak": 8039,
      "ened": 8040,
      "orat": 8041,
      "orig": 8042,
      "oups": 8043,
      "Ġilet": 8044,
      "Ġyay": 8045,
      "ĠyanÄ±": 8046,
      "Ġmik": 8047,
      "Ġgurur": 8048,
      "Ġpil": 8049,
      "Ġtopr": 8050,
      "Ġ'')": 8051,
      "ĠLike": 8052,
      "Ġmez": 8053,
      "Ġbuz": 8054,
      "ifiers": 8055,
      "ĠalÄ±yor": 8056,
      "Ġalabilir": 8057,
      "osity": 8058,
      "ĠKÄ±z": 8059,
      "aves": 8060,
      "ĠolmasÄ±n": 8061,
      "ĠdÃ¼ÅŁÃ¼nmÃ¼ÅŁ": 8062,
      "ĠgitmiÅŁ": 8063,
      "Ġgitmem": 8064,
      "Ġsetting": 8065,
      "wood": 8066,
      "Ġhandling": 8067,
      "Ġscrew": 8068,
      "ashed": 8069,
      "Cont": 8070,
      "Ġactual": 8071,
      "Ġfeels": 8072,
      "Ġistiyorsan": 8073,
      "Ġsavun": 8074,
      "Ġlocals": 8075,
      "ĠgÃ¼venli": 8076,
      "ĠgÃ¶rÃ¼nÃ¼yorsun": 8077,
      "Ġhonor": 8078,
      "supported": 8079,
      "executable": 8080,
      "Ġbehavior": 8081,
      "Ġlambda": 8082,
      "35": 8083,
      "Col": 8084,
      "Jo": 8085,
      "RON": 8086,
      "Since": 8087,
      "hip": 8088,
      "sÄ±": 8089,
      "elist": 8090,
      "Ġhizmet": 8091,
      "Ġlaugh": 8092,
      "acter": 8093,
      "Ġreq": 8094,
      "Ġitir": 8095,
      "Ġ\"\"": 8096,
      "ĠCor": 8097,
      "ĠCAR": 8098,
      "acket": 8099,
      "ardÄ±n": 8100,
      "Ġevine": 8101,
      "Ġkalacak": 8102,
      "ĠdÃ¼ÅŁÃ¼r": 8103,
      "ĠgÃ¼nler": 8104,
      "udur": 8105,
      "tÄ±ÄŁÄ±n": 8106,
      "Ġhayvan": 8107,
      "Ġyarg": 8108,
      "archive": 8109,
      "mediÄŁini": 8110,
      "Ġokum": 8111,
      "Ġiyilik": 8112,
      "ĠAlb": 8113,
      "Ġoperator": 8114,
      "Ġdurumu": 8115,
      "Ġ'\"__": 8116,
      "ĠvereceÄŁim": 8117,
      "ĠCommand": 8118,
      "Ġawait": 8119,
      "Ġiterable": 8120,
      "memiÅŁtim": 8121,
      "Ġgeceler": 8122,
      "DÃ¼ny": 8123,
      "ĠParis": 8124,
      "****************": 8125,
      "amayÄ±z": 8126,
      "Ġreceived": 8127,
      "Uzun": 8128,
      ").__": 8129,
      ">',": 8130,
      "Hav": 8131,
      "PH": 8132,
      "Sp": 8133,
      "Sal": 8134,
      "Welcome": 8135,
      "gor": 8136,
      "ja": 8137,
      "nl": 8138,
      "sig": 8139,
      "Ġted": 8140,
      "Ġice": 8141,
      "Ġhung": 8142,
      "ality": 8143,
      "eds": 8144,
      "uru": 8145,
      "uten": 8146,
      "aped": 8147,
      "ĠvÃ¼c": 8148,
      "abstract": 8149,
      "ĠSaÄŁ": 8150,
      "iki": 8151,
      "oda": 8152,
      "ĠBer": 8153,
      "dire": 8154,
      "andÄ±m": 8155,
      "endar": 8156,
      "ĠGÃ¶": 8157,
      "ĠKos": 8158,
      "Ġveriyor": 8159,
      "ĠgÃ¶rmeye": 8160,
      "ĠolduÄŁundan": 8161,
      "ĠkalmÄ±ÅŁ": 8162,
      "Ġspot": 8163,
      "Ġboat": 8164,
      "tÄ±lar": 8165,
      "Ġacaba": 8166,
      "Ä±mÄ±zda": 8167,
      "ĠyaÅŁÄ±yor": 8168,
      "Ġistemem": 8169,
      "ĠihtiyaÃ§": 8170,
      "Ġsahibi": 8171,
      "ĠanlamÄ±na": 8172,
      "ĠsÃ¶ylÃ¼yorsun": 8173,
      "Ġgeneral": 8174,
      "ĠHarika": 8175,
      "Ġdebugger": 8176,
      "Ġdefinition": 8177,
      "Ġhedef": 8178,
      "Leave": 8179,
      "Ġsistem": 8180,
      "31": 8181,
      "Bazen": 8182,
      "Hal": 8183,
      "Rob": 8184,
      "Too": 8185,
      "fs": 8186,
      "hour": 8187,
      "mond": 8188,
      "onu": 8189,
      "Ġthird": 8190,
      "Ġcat": 8191,
      "iri": 8192,
      "amaya": 8193,
      "Ġpid": 8194,
      "erece": 8195,
      "ĠMal": 8196,
      "Ġjump": 8197,
      "ĠRichard": 8198,
      "Ã¼rk": 8199,
      "ĠWest": 8200,
      "Ġchick": 8201,
      "Ä±ÄŁÄ±na": 8202,
      "Ġcomment": 8203,
      "ĠJan": 8204,
      "\",\"": 8205,
      "ĠUm": 8206,
      "manda": 8207,
      "Buradan": 8208,
      "Isn": 8209,
      "Ġsakin": 8210,
      "variable": 8211,
      "Ġhastan": 8212,
      "Ġdollar": 8213,
      "Ġdescription": 8214,
      "ĠsoÄŁuk": 8215,
      "08": 8216,
      ">\\": 8217,
      "PORT": 8218,
      "Yeter": 8219,
      "ners": 8220,
      "Ġtrip": 8221,
      "Ġmekt": 8222,
      "Ġnorm": 8223,
      "isel": 8224,
      "urun": 8225,
      "Ġ\".": 8226,
      "ĠoluÅŁ": 8227,
      "ulmuÅŁ": 8228,
      "Ġwearing": 8229,
      "ĠadÄ±nÄ±": 8230,
      "height": 8231,
      "Ġstrange": 8232,
      "Ġbrow": 8233,
      "Ġamb": 8234,
      "Ġtarih": 8235,
      "Ġmeaning": 8236,
      "ĠÃ¶zgÃ¼r": 8237,
      "Ġkilling": 8238,
      "Ġmesel": 8239,
      "Ġignored": 8240,
      "Ġsinir": 8241,
      "ometimes": 8242,
      "Ġapartment": 8243,
      ".âĢĿ": 8244,
      "UE": 8245,
      "fill": 8246,
      "final": 8247,
      "hmm": 8248,
      "Ġba": 8249,
      "lect": 8250,
      "lemek": 8251,
      "stant": 8252,
      "Ġcash": 8253,
      "ila": 8254,
      "ington": 8255,
      "Ġonlardan": 8256,
      "ĠSk": 8257,
      "ĠSal": 8258,
      "leriyle": 8259,
      "ĠLo": 8260,
      "Ġsoft": 8261,
      "Ġsens": 8262,
      "Ġproud": 8263,
      "OnlarÄ±n": 8264,
      "evin": 8265,
      "alarÄ±n": 8266,
      "Ġbulur": 8267,
      "aches": 8268,
      "Ġpartner": 8269,
      "Ġopcode": 8270,
      "Ġuyum": 8271,
      "ĠArg": 8272,
      "timeError": 8273,
      "Ġinterpreter": 8274,
      "Ġsuppose": 8275,
      "Ġpossibly": 8276,
      "Ġbeyaz": 8277,
      "ĠAmerica": 8278,
      "Ġmask": 8279,
      "Ġkahve": 8280,
      "Everyone": 8281,
      "About": 8282,
      "Ġinterested": 8283,
      "globals": 8284,
      "ĠPhil": 8285,
      "Ġevalu": 8286,
      "FLAG": 8287,
      "Bet": 8288,
      "BIN": 8289,
      "DÄ±ÅŁarÄ±": 8290,
      "EC": 8291,
      "Eski": 8292,
      "HÃ¢lÃ¢": 8293,
      "Kab": 8294,
      "Ma": 8295,
      "Mm": 8296,
      "RPC": 8297,
      "SET": 8298,
      "hoÅŁ": 8299,
      "norm": 8300,
      "warning": 8301,
      "ystem": 8302,
      "arp": 8303,
      "Ġiler": 8304,
      "Ġhi": 8305,
      "irin": 8306,
      "ilere": 8307,
      "Ġpaint": 8308,
      "ĠanlÄ±yorum": 8309,
      "Ġanchor": 8310,
      "Ġlower": 8311,
      "ĠIT": 8312,
      "ĠIND": 8313,
      "Ġvia": 8314,
      "ĠSU": 8315,
      "ĠSHA": 8316,
      "ĠALL": 8317,
      "tha": 8318,
      "ĠMus": 8319,
      "endswith": 8320,
      "Ġsep": 8321,
      "Ġseat": 8322,
      "istic": 8323,
      "Ġalak": 8324,
      "ĠGe": 8325,
      "oses": 8326,
      "Ã¼rÃ¼": 8327,
      "Ġchain": 8328,
      "Ġettin": 8329,
      "Ġunto": 8330,
      "quot": 8331,
      "Ġolmaya": 8332,
      "ĠgÃ¶rÃ¼r": 8333,
      "Ġsong": 8334,
      "ĠiÅŁini": 8335,
      "Ġraises": 8336,
      "Ġspir": 8337,
      "DoÄŁ": 8338,
      "shell": 8339,
      "ference": 8340,
      "Ġpathname": 8341,
      "Ġactiv": 8342,
      "Ġguar": 8343,
      "ĠÃ¶ldÃ¼rmek": 8344,
      "ĠiyileÅŁ": 8345,
      "Ġlocation": 8346,
      "Ġstanding": 8347,
      "Ġrelative": 8348,
      "Ġbizimle": 8349,
      "Ġconsidered": 8350,
      "Ġfigured": 8351,
      "ĠyÄ±ldÄ±z": 8352,
      "warnings": 8353,
      "Ġassignment": 8354,
      "ĠsÄ±nÄ±r": 8355,
      "Affedersiniz": 8356,
      "ĠgÃ¶stere": 8357,
      "Bob": 8358,
      "George": 8359,
      "Pre": 8360,
      "bell": 8361,
      "dÄ±ÄŁÄ±nÄ±": 8362,
      "gy": 8363,
      "ior": 8364,
      "multip": 8365,
      "vc": 8366,
      "ĠilaÃ§": 8367,
      "ades": 8368,
      "Ġana": 8369,
      "olve": 8370,
      "ĠCo": 8371,
      "ĠDan": 8372,
      "ĠDNA": 8373,
      "ĠHave": 8374,
      "reset": 8375,
      "ĠKah": 8376,
      "uced": 8377,
      "===": 8378,
      "Ġproject": 8379,
      "comment": 8380,
      "Ġdisappe": 8381,
      "Still": 8382,
      "ĠarkadaÅŁÄ±": 8383,
      "Ãĸzel": 8384,
      "Ġkoruy": 8385,
      "limit": 8386,
      "Ġcaller": 8387,
      "ĠGerman": 8388,
      "Ġlikes": 8389,
      "Ġclause": 8390,
      "Ä°stedi": 8391,
      "ĠRobert": 8392,
      "Ġpislik": 8393,
      "Muhtemelen": 8394,
      "include": 8395,
      "=_": 8396,
      "Bo": 8397,
      "Ondan": 8398,
      "cb": 8399,
      "cal": 8400,
      "lang": 8401,
      "tÄ±nÄ±z": 8402,
      "tecode": 8403,
      "vin": 8404,
      "arr": 8405,
      "Ġdue": 8406,
      "Ġir": 8407,
      "Ġhangi": 8408,
      "Ġhistory": 8409,
      "asks": 8410,
      "Ä±nca": 8411,
      "uration": 8412,
      "umed": 8413,
      "Ġoften": 8414,
      "ĠSm": 8415,
      "ĠAk": 8416,
      "ĠAy": 8417,
      "ĠÃ§Ä±lgÄ±n": 8418,
      "andom": 8419,
      "Ġyapabilir": 8420,
      "Ġzek": 8421,
      "Ġupdate": 8422,
      "Ã¼ÅŁÃ¼rÃ¼z": 8423,
      "ÃĩalÄ±ÅŁ": 8424,
      "Ġsaf": 8425,
      "Åŀuna": 8426,
      "owner": 8427,
      "Ġprove": 8428,
      "ictor": 8429,
      "ago": 8430,
      "shole": 8431,
      "Ġpositive": 8432,
      "ĠbabasÄ±": 8433,
      "Ġstopped": 8434,
      "ĠaÅŁÄ±k": 8435,
      "Bilmiyorum": 8436,
      "bilirsin": 8437,
      "Ġexcuse": 8438,
      "Ġtransform": 8439,
      "Ġsimilar": 8440,
      "Ġkwargs": 8441,
      "ASC": 8442,
      "ĠSpec": 8443,
      "uvvet": 8444,
      "fields": 8445,
      "complete": 8446,
      "written": 8447,
      "Ġtehlikeli": 8448,
      "Merak": 8449,
      "Ġappropriate": 8450,
      "BER": 8451,
      "Den": 8452,
      "Jul": 8453,
      "Per": 8454,
      "SM": 8455,
      "Sit": 8456,
      "Version": 8457,
      "hood": 8458,
      "sb": 8459,
      "tÃ¼k": 8460,
      "ĠbÄ±Ã§": 8461,
      "Ġdiz": 8462,
      "atural": 8463,
      "Ġyedi": 8464,
      "ĠmaÃ§": 8465,
      "Ġhuz": 8466,
      "Ġcops": 8467,
      "Ã¶n": 8468,
      "otion": 8469,
      "ential": 8470,
      "icon": 8471,
      "oked": 8472,
      "Ġrot": 8473,
      "lerdir": 8474,
      "ĠTim": 8475,
      "Ġshift": 8476,
      "ffic": 8477,
      "ATH": 8478,
      "Ġolman": 8479,
      "ĠsÃ¶ylemiÅŁtim": 8480,
      "Ġkalmak": 8481,
      "parator": 8482,
      "Ä±sÄ±z": 8483,
      "Ġdiscover": 8484,
      "Ġkural": 8485,
      "adÄ±ÄŁÄ±": 8486,
      "ĠÃ¶lmÃ¼ÅŁ": 8487,
      "Ġpatron": 8488,
      "ĠarkadaÅŁÄ±n": 8489,
      "Ġdecision": 8490,
      "ĠUnix": 8491,
      "ĠolmalÄ±sÄ±n": 8492,
      "diÄŁimi": 8493,
      "Ã¼phe": 8494,
      "Ġexecutable": 8495,
      "ĠACCENT": 8496,
      "Ġcalm": 8497,
      "Ġforgive": 8498,
      "Ġequivalent": 8499,
      "Ġapplication": 8500,
      "*\\": 8501,
      "28": 8502,
      "AK": 8503,
      "CP": 8504,
      "Hangi": 8505,
      "MENT": 8506,
      "SIL": 8507,
      "cÄ±k": 8508,
      "lapped": 8509,
      "malarÄ±": 8510,
      "micro": 8511,
      "Ġderece": 8512,
      "atures": 8513,
      "real": 8514,
      "Ġwind": 8515,
      "Ġgal": 8516,
      "Ġov": 8517,
      "edeni": 8518,
      "Ġpul": 8519,
      "Ġpady": 8520,
      "omuz": 8521,
      "Ġli": 8522,
      "eci": 8523,
      "icide": 8524,
      "ĠSup": 8525,
      "iyordum": 8526,
      "Ġifade": 8527,
      "roat": 8528,
      "ĠcanÄ±na": 8529,
      "ĠPL": 8530,
      "Ġverici": 8531,
      "Ã¼me": 8532,
      "Ġresim": 8533,
      "ĠdÃ¼ÅŁman": 8534,
      "ynen": 8535,
      "Ã¢n": 8536,
      "Ġgitsin": 8537,
      "Ġsevgil": 8538,
      "ĠÄ°ng": 8539,
      "ĠyakÄ±nda": 8540,
      "Ġihtimal": 8541,
      "sene": 8542,
      "trace": 8543,
      "ypes": 8544,
      "ĠsÃ¶yleyeyim": 8545,
      "ĠsÄ±ra": 8546,
      "ĠyemeÄŁi": 8547,
      "Ġdiscuss": 8548,
      "KEYWORD": 8549,
      "Ġintrod": 8550,
      "ĠPresident": 8551,
      "ynchron": 8552,
      "shutdown": 8553,
      "utenant": 8554,
      "SILON": 8555,
      ":\"": 8556,
      "Hmm": 8557,
      "Last": 8558,
      "ValueError": 8559,
      "YT": 8560,
      "bon": 8561,
      "dar": 8562,
      "ford": 8563,
      "ns": 8564,
      "Ġsla": 8565,
      "Ġskin": 8566,
      "Ġsessiz": 8567,
      "ano": 8568,
      "Ġmid": 8569,
      "Ġwine": 8570,
      "Ġkum": 8571,
      "Ġfay": 8572,
      "Ġfreak": 8573,
      "Ġfocus": 8574,
      "Ġfinger": 8575,
      "esinin": 8576,
      "deed": 8577,
      "abet": 8578,
      "Ġ\"\\": 8579,
      "lerce": 8580,
      "ĠLond": 8581,
      "olution": 8582,
      "thur": 8583,
      "Ġyapamam": 8584,
      "Ġyapmaz": 8585,
      "artesi": 8586,
      "INAL": 8587,
      "Ãĩabuk": 8588,
      "Ġimm": 8589,
      "Ġgrup": 8590,
      "Ġadama": 8591,
      "Config": 8592,
      "LLA": 8593,
      "Ġpatient": 8594,
      "icient": 8595,
      "Ġavukat": 8596,
      "Ġidentifier": 8597,
      "Ġcollege": 8598,
      "Ġlawyer": 8599,
      "Ġbilmiyordum": 8600,
      "Ġcompare": 8601,
      "Ġrandev": 8602,
      "generate": 8603,
      "ĠkÄ±yafet": 8604,
      "helplist": 8605,
      "Ġcorresponding": 8606,
      "payload": 8607,
      "Jesus": 8608,
      "KadÄ±n": 8609,
      "SU": 8610,
      "hes": 8611,
      "push": 8612,
      "vat": 8613,
      "yet": 8614,
      "Ġtuz": 8615,
      "eng": 8616,
      "Ġdude": 8617,
      "rek": 8618,
      "req": 8619,
      "Ġcy": 8620,
      "Ġcamera": 8621,
      "Ġkem": 8622,
      "amadÄ±": 8623,
      "imp": 8624,
      "async": 8625,
      "Ġeh": 8626,
      "Ġvilla": 8627,
      "ĠStan": 8628,
      "ĠAT": 8629,
      "Ġstrip": 8630,
      "ĠCarl": 8631,
      "ĠÅŁar": 8632,
      "ĠDanny": 8633,
      "ocal": 8634,
      "Ġarmy": 8635,
      "ĠgÃ¶m": 8636,
      "ĠcanlÄ±": 8637,
      "ĠEmin": 8638,
      "Ä°y": 8639,
      "ationWarning": 8640,
      "uÄŁun": 8641,
      "Ġedit": 8642,
      "Ġimk": 8643,
      "ansa": 8644,
      "ĠiÅŁim": 8645,
      "Ġkalp": 8646,
      "bert": 8647,
      "ynam": 8648,
      "codes": 8649,
      "codings": 8650,
      "Ġwriter": 8651,
      "Ġgrab": 8652,
      "ĠÃ¶nceki": 8653,
      "ĠkÄ±zlar": 8654,
      "ĠgÃ¼cÃ¼": 8655,
      "ĠaÅŁaÄŁ": 8656,
      "Ġumut": 8657,
      "Ġfilter": 8658,
      "Ġtransfer": 8659,
      "Ġmarriage": 8660,
      "ĠgideceÄŁim": 8661,
      "Ġholding": 8662,
      "Ġvakti": 8663,
      "Ġimagine": 8664,
      "Ġleading": 8665,
      "ĠkarÄ±ÅŁtÄ±r": 8666,
      "ĠBelki": 8667,
      "Ġnetwork": 8668,
      "Address": 8669,
      "INDIC": 8670,
      "Ġconstructor": 8671,
      "rupa": 8672,
      "'{": 8673,
      "ASE": 8674,
      "EÅŁ": 8675,
      "HI": 8676,
      "Ot": 8677,
      "UID": 8678,
      "]*": 8679,
      "ued": 8680,
      "udum": 8681,
      "ĠÄ±ÅŁÄ±k": 8682,
      "inv": 8683,
      "Ġtough": 8684,
      "Ġdarling": 8685,
      "elde": 8686,
      "ÅŁÄ±k": 8687,
      "style": 8688,
      "Ġkral": 8689,
      "Ġfly": 8690,
      "oday": 8691,
      "Ġuc": 8692,
      "Ġdosy": 8693,
      "ulate": 8694,
      "Ġloves": 8695,
      "Ġclock": 8696,
      "Ġimz": 8697,
      "ĠsÃ¶yleme": 8698,
      "Ġmuhtemelen": 8699,
      "lamb": 8700,
      "uyorlar": 8701,
      "tools": 8702,
      "Ġsetup": 8703,
      "Ġways": 8704,
      "ension": 8705,
      "ĠkapÄ±yÄ±": 8706,
      "Ġilgil": 8707,
      "Exp": 8708,
      "Ġistiyoruz": 8709,
      "Ġoperand": 8710,
      "ĠdeÄŁiÅŁik": 8711,
      "ĠgÃ¼venlik": 8712,
      "ĠDoÄŁru": 8713,
      "ĠaltÄ±na": 8714,
      "Ġcollections": 8715,
      "Ġseveral": 8716,
      "porter": 8717,
      "ĠJimmy": 8718,
      "Ġliteral": 8719,
      "STRING": 8720,
      "Find": 8721,
      "Found": 8722,
      "SON": 8723,
      "ben": 8724,
      "ique": 8725,
      "lamam": 8726,
      "nÃĦ": 8727,
      "xml": 8728,
      "ĠÃ¼": 8729,
      "Ġsitting": 8730,
      "Ġdying": 8731,
      "Ġneck": 8732,
      "asing": 8733,
      "uty": 8734,
      "sequence": 8735,
      "larÄ±mÄ±": 8736,
      "eref": 8737,
      "iyordu": 8738,
      "dian": 8739,
      "laire": 8740,
      "Ġbuc": 8741,
      "ĠarÄ±yor": 8742,
      "Ġweight": 8743,
      "Ġjoke": 8744,
      "Ġgeliyorum": 8745,
      "quire": 8746,
      "ĠJesus": 8747,
      "ITE": 8748,
      "ĠgÃ¶rÃ¼yorum": 8749,
      "ĠUT": 8750,
      "Ġbool": 8751,
      "priz": 8752,
      "eviz": 8753,
      "Ãĸl": 8754,
      "Ġbelong": 8755,
      "oger": 8756,
      "Ġgrub": 8757,
      "mama": 8758,
      "Ã¼ÄŁÃ¼nde": 8759,
      "Ġkendisi": 8760,
      "Ġuygul": 8761,
      "Ġdrunk": 8762,
      "Ġtrailing": 8763,
      "ĠsÃ¶ylen": 8764,
      "ĠgÃ¶zÃ¼k": 8765,
      "Didn": 8766,
      "Ġsupplied": 8767,
      "Ġimplemented": 8768,
      "ĠyÃ¼ksel": 8769,
      "Ġkulak": 8770,
      "ĠkarÅŁÄ±laÅŁ": 8771,
      "ĠSorry": 8772,
      "HatÄ±r": 8773,
      "ĠdÃ¶vÃ¼ÅŁ": 8774,
      "ĠRuntimeError": 8775,
      "Ġzengin": 8776,
      "Ġappreciate": 8777,
      ">\",": 8778,
      "Ciddi": 8779,
      "KeÅŁke": 8780,
      "Move": 8781,
      "Yat": 8782,
      "here": 8783,
      "sch": 8784,
      "invalid": 8785,
      "Ġters": 8786,
      "Ġsake": 8787,
      "Ġbill": 8788,
      "Ġthou": 8789,
      "Ġyor": 8790,
      "ĠmaÄŁ": 8791,
      "ĠmÃ¼ÅŁter": 8792,
      "Ä±nd": 8793,
      "Ġangel": 8794,
      "Ġdepart": 8795,
      "Ġreset": 8796,
      "ico": 8797,
      "Ġbeg": 8798,
      "ĠAf": 8799,
      "Ġstdout": 8800,
      "ĠTam": 8801,
      "Ġ()": 8802,
      "ĠOk": 8803,
      "Ġelinde": 8804,
      "Ġconvers": 8805,
      "ports": 8806,
      "uÄŁunu": 8807,
      "ĠÃ¶ner": 8808,
      "ĠgeÃ§er": 8809,
      "Ġamel": 8810,
      "ĠÄ°s": 8811,
      "menu": 8812,
      "Ġexpand": 8813,
      "wrapper": 8814,
      "Ġistemedim": 8815,
      "Ġyolunu": 8816,
      "Ġuseful": 8817,
      "symbol": 8818,
      "Ġokuy": 8819,
      "Ġrecent": 8820,
      "ĠXML": 8821,
      "Unut": 8822,
      "Ġgerekiyordu": 8823,
      "Ġhepimiz": 8824,
      "Ġearlier": 8825,
      "Ġbeyler": 8826,
      "flow": 8827,
      "Ġchoose": 8828,
      "connection": 8829,
      "GÃ¼naydÄ±n": 8830,
      "ĠHEBRE": 8831,
      "policy": 8832,
      "Ġsebebi": 8833,
      "ĠHEBREW": 8834,
      "44": 8835,
      "77": 8836,
      "Bul": 8837,
      "GET": 8838,
      "HO": 8839,
      "Siktir": 8840,
      "cÄ±sÄ±": 8841,
      "cnf": 8842,
      "cmp": 8843,
      "cfg": 8844,
      "ean": 8845,
      "ko": 8846,
      "Ġssl": 8847,
      "Ġgra": 8848,
      "ira": 8849,
      "eda": 8850,
      "omas": 8851,
      "Ġrema": 8852,
      "Ġvamp": 8853,
      "ĠBunun": 8854,
      "Ġneither": 8855,
      "ĠCEDI": 8856,
      "andÄ±k": 8857,
      "ĠDam": 8858,
      "ĠTake": 8859,
      "iydim": 8860,
      "Ġgold": 8861,
      "iÅŁan": 8862,
      "Ġevi": 8863,
      "ĠbaÅŁlat": 8864,
      "iÃ§ek": 8865,
      "Ġbullet": 8866,
      "Ġoverr": 8867,
      "Ġlists": 8868,
      "shit": 8869,
      "Ġexperi": 8870,
      "Ġprepar": 8871,
      "Ġadditional": 8872,
      "Ġbaban": 8873,
      "adÄ±ÄŁÄ±m": 8874,
      "Ġrecurs": 8875,
      "urtle": 8876,
      "damn": 8877,
      "Ġdescrib": 8878,
      "ĠbÃ¶lg": 8879,
      "Ġexecution": 8880,
      "Ġnefes": 8881,
      "Ġkahraman": 8882,
      "Ġswitch": 8883,
      "fully": 8884,
      "Ġisteyen": 8885,
      "Ġdestroyed": 8886,
      "Ġfavorite": 8887,
      "Ġtavs": 8888,
      "ominator": 8889,
      "Ġceleb": 8890,
      "Ġsimply": 8891,
      "ĠCEDILLA": 8892,
      "09": 8893,
      "66": 8894,
      "LINE": 8895,
      "MIC": 8896,
      "TR": 8897,
      "bak": 8898,
      "cookie": 8899,
      "ugs": 8900,
      "zone": 8901,
      "inte": 8902,
      "erini": 8903,
      "arily": 8904,
      "atÃ¶r": 8905,
      "Ġyab": 8906,
      "Ġladies": 8907,
      "Ġbiriyle": 8908,
      "ulous": 8909,
      "ĠCopy": 8910,
      "ĠHa": 8911,
      "Ġbus": 8912,
      "using": 8913,
      "aÄŁÄ±m": 8914,
      "ĠPart": 8915,
      "ĠOna": 8916,
      "osu": 8917,
      "Ġgeldiniz": 8918,
      "ĠolmayÄ±": 8919,
      "Ġparmak": 8920,
      "inizden": 8921,
      "expr": 8922,
      "ĠÃ¶nc": 8923,
      "days": 8924,
      "ania": 8925,
      "Ġscr": 8926,
      "Ġhallet": 8927,
      "Ġcrap": 8928,
      "ĠilginÃ§": 8929,
      "ĠaldÄ±k": 8930,
      "Should": 8931,
      "Ġplanet": 8932,
      "Ġbunch": 8933,
      "landÄ±": 8934,
      "Ġsahib": 8935,
      "Ġturns": 8936,
      "Ġstaying": 8937,
      "Ġikna": 8938,
      "ification": 8939,
      "lication": 8940,
      "distribution": 8941,
      "Annen": 8942,
      "Ġsonraki": 8943,
      "+----------------------------------------------------": 8944,
      "84": 8945,
      "Back": 8946,
      "Kul": 8947,
      "MIS": 8948,
      "Ooh": 8949,
      "Que": 8950,
      "Rahat": 8951,
      "Tabi": 8952,
      "fact": 8953,
      "mini": 8954,
      "nek": 8955,
      "vi": 8956,
      "ws": 8957,
      "Ġsample": 8958,
      "ĠdaÄŁ": 8959,
      "Ġmiles": 8960,
      "Ã¼ce": 8961,
      "Ã¼ler": 8962,
      "Ġkelim": 8963,
      "ĠkayÄ±p": 8964,
      "ĠnasÄ±": 8965,
      "eyg": 8966,
      "ĠSus": 8967,
      "ĠSub": 8968,
      "ĠSarah": 8969,
      "ĠBet": 8970,
      "ĠÃ§ant": 8971,
      "verb": 8972,
      "ĠÅŁÃ¼k": 8973,
      "ĠDet": 8974,
      "ĠMag": 8975,
      "elling": 8976,
      "()'": 8977,
      "ĠyapalÄ±m": 8978,
      "eceÄŁi": 8979,
      "Ġedeyim": 8980,
      "Ġetc": 8981,
      "Ġupset": 8982,
      "ĠkadÄ±nÄ±n": 8983,
      "ĠsÃ¶ylemem": 8984,
      "Ġstrength": 8985,
      "ÄŁrenÃ§": 8986,
      "save": 8987,
      "adding": 8988,
      "Ä±sÄ±nda": 8989,
      "Ġ<<": 8990,
      "Ġinsanlara": 8991,
      "ĠgerÃ§ekleÅŁ": 8992,
      "ĠhayatÄ±": 8993,
      "madÄ±k": 8994,
      "Ġkeeps": 8995,
      "Sonunda": 8996,
      "Ġstatic": 8997,
      "Ġdavr": 8998,
      "numer": 8999,
      "Ã¼sÃ¼": 9000,
      "Ġallows": 9001,
      "Ġlibraries": 9002,
      "Ġconnect": 9003,
      "Protocol": 9004,
      "Handle": 9005,
      "Ġdedik": 9006,
      "MAX": 9007,
      "rollbar": 9008,
      "ĠThanks": 9009,
      "ĠSerb": 9010,
      "manager": 9011,
      "ĠAngeles": 9012,
      "basename": 9013,
      "triple": 9014,
      "Ġfurther": 9015,
      "93": 9016,
      "Bek": 9017,
      "IK": 9018,
      "Kol": 9019,
      "Simple": 9020,
      "Ter": 9021,
      "bg": 9022,
      "boy": 9023,
      "cd": 9024,
      "kim": 9025,
      "kiler": 9026,
      "ls": 9027,
      "round": 9028,
      "uid": 9029,
      "Ã®": 9030,
      "Ġtight": 9031,
      "ĠdÃ¼rÃ¼st": 9032,
      "leme": 9033,
      "ĠkeÅŁ": 9034,
      "esinden": 9035,
      "ĠanladÄ±m": 9036,
      "Ġrev": 9037,
      "Ġreve": 9038,
      "ĠSÃ¶yle": 9039,
      "Ġ\"\\'": 9040,
      "Ġbear": 9041,
      "diÄŁiniz": 9042,
      "ĠClar": 9043,
      "Ġhale": 9044,
      "ĠMil": 9045,
      "ERE": 9046,
      "ĠKal": 9047,
      "ĠKÃ¶": 9048,
      "uÄŁum": 9049,
      "Ġcomfort": 9050,
      "ĠJess": 9051,
      "setup": 9052,
      "Ġ201": 9053,
      "external": 9054,
      "ĠkonuÅŁur": 9055,
      "inleÅŁ": 9056,
      "meleri": 9057,
      "Ġolanlar": 9058,
      "Ġuyan": 9059,
      "soft": 9060,
      "Ġquit": 9061,
      "Ġputting": 9062,
      "Ġmakin": 9063,
      "argv": 9064,
      "Ġkilit": 9065,
      "Ġdecide": 9066,
      "DEFA": 9067,
      "slash": 9068,
      "flush": 9069,
      "Anyway": 9070,
      "ometry": 9071,
      "Ġauto": 9072,
      "ĠzorundayÄ±m": 9073,
      "Ġdahil": 9074,
      "Ġjudge": 9075,
      "ĠEnglish": 9076,
      "isayar": 9077,
      "possible": 9078,
      "DEFAULT": 9079,
      "*.": 9080,
      "54": 9081,
      "Alex": 9082,
      "Red": 9083,
      "Tah": 9084,
      "card": 9085,
      "Ġsurr": 9086,
      "Ġscale": 9087,
      "Ġbod": 9088,
      "ĠdÃ¼k": 9089,
      "Ġhurry": 9090,
      "Ġpairs": 9091,
      "Ġ'{": 9092,
      "Ġdecoded": 9093,
      "idx": 9094,
      "Ġfore": 9095,
      "ĠĠĠĠĠĠĠĠĠĠĠĠĠĠĠĠĠĠĠĠĠĠĠĠĠĠĠĠĠĠĠĠĠĠĠĠĠĠĠ": 9096,
      "Ġ-=": 9097,
      "Ġsea": 9098,
      "ieve": 9099,
      "Item": 9100,
      "ĠJeff": 9101,
      "Åŀur": 9102,
      "Ġwrap": 9103,
      "Ġexpress": 9104,
      "space": 9105,
      "Ġyaramaz": 9106,
      "Ġistemedi": 9107,
      "Ġsubject": 9108,
      "Ġdrug": 9109,
      "encer": 9110,
      "tual": 9111,
      "biliriz": 9112,
      "Ġpayload": 9113,
      "Ġappoint": 9114,
      "RIPT": 9115,
      "Ġdistribution": 9116,
      "Command": 9117,
      "ĠAmerika": 9118,
      "ĠmÄ±yÄ±m": 9119,
      "iddet": 9120,
      "Ġliked": 9121,
      "ĠeÄŁlenceli": 9122,
      "Ġcomparison": 9123,
      "ederal": 9124,
      "ĠWilliam": 9125,
      "ĠSorun": 9126,
      "Ġutan": 9127,
      "Ġcehennem": 9128,
      "Content": 9129,
      "(-": 9130,
      "Guy": 9131,
      "Mem": 9132,
      "Sometimes": 9133,
      "[^": 9134,
      "cad": 9135,
      "kel": 9136,
      "kÄ±n": 9137,
      "xx": 9138,
      "Â´": 9139,
      "Ġtec": 9140,
      "Ġtabi": 9141,
      "aries": 9142,
      "Ġctypes": 9143,
      "Ġnin": 9144,
      "Ġnaz": 9145,
      "Ġnedeni": 9146,
      "ayabilir": 9147,
      "Ġredd": 9148,
      "ĠSec": 9149,
      "Ä±rt": 9150,
      "Ġbeer": 9151,
      "ĠBÃ¶yle": 9152,
      "ĠĠĠĠĠĠĠĠĠĠĠĠĠĠĠĠĠĠĠĠĠĠĠĠĠĠĠĠĠĠĠĠĠ": 9153,
      "ĠLee": 9154,
      "diff": 9155,
      "ĠDem": 9156,
      "endin": 9157,
      "ĠHelp": 9158,
      "ersiz": 9159,
      "allen": 9160,
      "Ġzip": 9161,
      "ĠRus": 9162,
      "ĠRead": 9163,
      "Ġsuffer": 9164,
      "Ġelem": 9165,
      "essor": 9166,
      "ÃĸlÃ¼m": 9167,
      "reading": 9168,
      "READ": 9169,
      "Ġfeature": 9170,
      "Ġyerinde": 9171,
      "ograph": 9172,
      "Ġwrote": 9173,
      "Ġwrapper": 9174,
      "ounce": 9175,
      "leyin": 9176,
      "ĠbÄ±rakÄ±n": 9177,
      "assertTrue": 9178,
      "qualname": 9179,
      "Ġtempor": 9180,
      "ĠsÃ¶yleyecek": 9181,
      "Ġwidgets": 9182,
      "lerimizi": 9183,
      "Ġcapital": 9184,
      "ĠburadayÄ±m": 9185,
      "Ġautomat": 9186,
      "ĠaÅŁkÄ±na": 9187,
      "udio": 9188,
      "urumda": 9189,
      "Bebe": 9190,
      "Fark": 9191,
      "GI": 9192,
      "HenÃ¼z": 9193,
      "Perhaps": 9194,
      "YPE": 9195,
      "dden": 9196,
      "mur": 9197,
      "oom": 9198,
      "Ġtale": 9199,
      "eral": 9200,
      "Ġdar": 9201,
      "Ġdump": 9202,
      "elly": 9203,
      "Ã¼ll": 9204,
      "Ġflight": 9205,
      "imet": 9206,
      "itary": 9207,
      "Ġperhaps": 9208,
      "Ġdevel": 9209,
      "eymiÅŁ": 9210,
      "Ġonay": 9211,
      "Ġrol": 9212,
      "iyorsunuz": 9213,
      "uly": 9214,
      "ĠChe": 9215,
      "ĠCity": 9216,
      "ĠTel": 9217,
      "rier": 9218,
      "istent": 9219,
      "ĠyapÄ±l": 9220,
      "Ġyapabilirim": 9221,
      "ĠEU": 9222,
      "ĠFather": 9223,
      "Ġsudden": 9224,
      "Ġchurch": 9225,
      "Ġengine": 9226,
      "Ġbilim": 9227,
      "acaktÄ±r": 9228,
      "need": 9229,
      "Once": 9230,
      "ayÄ±cÄ±": 9231,
      "ĠgÃ¼nah": 9232,
      "ĠsetUp": 9233,
      "Ġspecify": 9234,
      "Ġolabilirim": 9235,
      "Ġdecimal": 9236,
      "ĠFranc": 9237,
      "Ġmahvet": 9238,
      "Ġtehdit": 9239,
      "Ġsurprise": 9240,
      "lambda": 9241,
      "AdÄ±": 9242,
      "Honey": 9243,
      "Rabb": 9244,
      "SL": 9245,
      "SO": 9246,
      "Te": 9247,
      "cent": 9248,
      "ux": 9249,
      "Ġutil": 9250,
      "Ġtask": 9251,
      "Ġhig": 9252,
      "Ġheld": 9253,
      "Ġgas": 9254,
      "Ġcam": 9255,
      "Ġfresh": 9256,
      "unpack": 9257,
      "asÄ±z": 9258,
      "Ġant": 9259,
      "aca": 9260,
      "Ġbirden": 9261,
      "okes": 9262,
      "ĠSw": 9263,
      "ĠAp": 9264,
      "ĠNothing": 9265,
      "rive": 9266,
      "Ġweapon": 9267,
      "ĠyapmadÄ±m": 9268,
      "Ġjail": 9269,
      "ĠEQUAL": 9270,
      "Ġabstract": 9271,
      "ĠsÃ¶yledik": 9272,
      "ĠkalÄ±n": 9273,
      "cons": 9274,
      "Ġlookup": 9275,
      "AnlÄ±yorum": 9276,
      "alÄ±sÄ±n": 9277,
      "tÃ¼ÄŁ": 9278,
      "ĠkÄ±zÄ±m": 9279,
      "atherine": 9280,
      "Ġapolog": 9281,
      "ĠayrÄ±ld": 9282,
      "Ġinvolved": 9283,
      "Ġbulunan": 9284,
      "ĠdÃ¼nyanÄ±n": 9285,
      "Ġpositional": 9286,
      "Bring": 9287,
      "Ġboundary": 9288,
      "IFT": 9289,
      "ĠMaybe": 9290,
      "Ġofficer": 9291,
      "ĠgerÃ§eÄŁi": 9292,
      "Ġinnoc": 9293,
      "Ġvillage": 9294,
      "52": 9295,
      "Nered": 9296,
      "Rep": 9297,
      "Send": 9298,
      "URI": 9299,
      "dÄ±ÄŁÄ±m": 9300,
      "pkg": 9301,
      "}:": 9302,
      "Ġwood": 9303,
      "Ġowe": 9304,
      "under": 9305,
      "itude": 9306,
      "Ġpiss": 9307,
      "Ġreached": 9308,
      "Ġbirlik": 9309,
      "ĠSure": 9310,
      "ĠSev": 9311,
      "Ġ\")": 9312,
      "ĠAL": 9313,
      "ĠBye": 9314,
      "ĠBÃ¼yÃ¼k": 9315,
      "ĠMo": 9316,
      "ĠOver": 9317,
      "ĠRep": 9318,
      "ĠherÅŁeyi": 9319,
      "ĠvermiÅŁ": 9320,
      "ĠJake": 9321,
      "ayalet": 9322,
      "Ã¼yorsun": 9323,
      "Ġmanifest": 9324,
      "ĠÃ§Ä±kan": 9325,
      "ĠÃ§Ä±kÄ±yor": 9326,
      "ebrik": 9327,
      "Ġgirdi": 9328,
      "acaÄŁÄ±mÄ±": 9329,
      "Ġyetenek": 9330,
      "ĠbÃ¶ylece": 9331,
      "ointer": 9332,
      "Ġsizinle": 9333,
      "ĠsÃ¶yleyeceÄŁim": 9334,
      "ĠanlamÄ±": 9335,
      "Ġsched": 9336,
      "Ġediyoruz": 9337,
      "ĠhatÄ±rlat": 9338,
      "ĠsatÄ±n": 9339,
      "Ġwarning": 9340,
      "ĠkÄ±rÄ±k": 9341,
      "Ġhotel": 9342,
      "Ġpresident": 9343,
      "Ġlikely": 9344,
      "Ġcloser": 9345,
      "Ġhoping": 9346,
      "String": 9347,
      "Ġbastard": 9348,
      "ĠEuropean": 9349,
      "Ġdoldur": 9350,
      "ĠDeprecationWarning": 9351,
      "Bl": 9352,
      "CON": 9353,
      "EW": 9354,
      "Gar": 9355,
      "Yol": 9356,
      "alet": 9357,
      "bap": 9358,
      "draw": 9359,
      "dÃ¼ÄŁÃ¼m": 9360,
      "laman": 9361,
      "teki": 9362,
      "vous": 9363,
      "ongs": 9364,
      "Ġdanc": 9365,
      "Ġmult": 9366,
      "Ġhall": 9367,
      "ĠhÄ±rsÄ±z": 9368,
      "alph": 9369,
      "Ġcc": 9370,
      "Ġkus": 9371,
      "edy": 9372,
      "etch": 9373,
      "isyon": 9374,
      "omplete": 9375,
      "otal": 9376,
      "Ġreader": 9377,
      "Ġvan": 9378,
      "emove": 9379,
      "ĠAfr": 9380,
      "ĠBa": 9381,
      "ĠolasÄ±": 9382,
      "maÄŁ": 9383,
      "ocomplete": 9384,
      "Ġard": 9385,
      "Ġshoes": 9386,
      "rif": 9387,
      "ĠgÃ¶k": 9388,
      "ĠGreat": 9389,
      "Ġknowledge": 9390,
      "Ġoldun": 9391,
      "Ġener": 9392,
      "').": 9393,
      "ounded": 9394,
      "Åŀunu": 9395,
      "negative": 9396,
      "paths": 9397,
      "Ġourselves": 9398,
      "ĠÃ§alÄ±ÅŁÄ±yorsun": 9399,
      "sha": 9400,
      "Ġkimsenin": 9401,
      "ĠyaÅŁamak": 9402,
      "Ġbits": 9403,
      "ĠkÄ±zÄ±n": 9404,
      "Ġassume": 9405,
      "Ġactive": 9406,
      "ĠÃ¶ldÃ¼rdÃ¼": 9407,
      "Ġgetirdim": 9408,
      "ĠgeldiÄŁini": 9409,
      "icious": 9410,
      "ĠfarkÄ±nda": 9411,
      "Ġisterdim": 9412,
      "Ġplans": 9413,
      "UMBER": 9414,
      "Ġprompt": 9415,
      "ĠeÅŁy": 9416,
      "ĠCarol": 9417,
      "ĠdÄ±ÅŁarÄ±da": 9418,
      "Ġlocked": 9419,
      "ĠSteve": 9420,
      "Ġcesaret": 9421,
      "Ġrepresentation": 9422,
      "lÄ±ÄŁa": 9423,
      "Ġprecision": 9424,
      "Ġtwice": 9425,
      "YanlÄ±ÅŁ": 9426,
      "evizyon": 9427,
      "(\\": 9428,
      "47": 9429,
      "91": 9430,
      "Ber": 9431,
      "Dep": 9432,
      "Yemek": 9433,
      "]+": 9434,
      "dr": 9435,
      "frozen": 9436,
      "gÃ¼": 9437,
      "ius": 9438,
      "sur": 9439,
      "Ġbow": 9440,
      "onnie": 9441,
      "atik": 9442,
      "Ġcoll": 9443,
      "Ġkop": 9444,
      "izz": 9445,
      "ental": 9446,
      "ĠSay": 9447,
      "ĠSOL": 9448,
      "ikalÄ±": 9449,
      "ĠBÄ±rak": 9450,
      "ĠoluÅŁtur": 9451,
      "ander": 9452,
      "ĠDen": 9453,
      "ĠDis": 9454,
      "ĠDOT": 9455,
      "ĠaradÄ±": 9456,
      "Ġzevk": 9457,
      "aved": 9458,
      "Ġsene": 9459,
      "Ġsence": 9460,
[...]
