{
  "version": "1.0",
  "truncation": null,
  "padding": null,
  "added_tokens": [
    {
      "id": 0,
      "content": "<unk>",
      "single_word": false,
      "lstrip": false,
      "rstrip": false,
      "normalized": false,
      "special": true
    },
    {
      "id": 1,
      "content": "<s>",
      "single_word": false,
      "lstrip": false,
      "rstrip": false,
      "normalized": false,
      "special": true
    },
    {
      "id": 2,
      "content": "</s>",
      "single_word": false,
      "lstrip": false,
      "rstrip": false,
      "normalized": false,
      "special": true
    },
    {
      "id": 3,
      "content": "<pad>",
      "single_word": false,
      "lstrip": false,
      "rstrip": false,
      "normalized": false,
      "special": true
    },
    {
      "id": 4,
      "content": "<|system|>",
      "single_word": false,
      "lstrip": false,
      "rstrip": false,
      "normalized": false,
      "special": true
    },
    {
      "id": 5,
      "content": "<|user|>",
      "single_word": false,
      "lstrip": false,
      "rstrip": false,
      "normalized": false,
      "special": true
    },
    {
      "id": 6,
      "content": "<|assistant|>",
      "single_word": false,
      "lstrip": false,
      "rstrip": false,
      "normalized": false,
      "special": true
    },
    {
      "id": 7,
      "content": "<|end|>",
      "single_word": false,
      "lstrip": false,
      "rstrip": false,
      "normalized": false,
      "special": true
    },
    {
      "id": 8,
      "content": "<|code|>",
      "single_word": false,
      "lstrip": false,
      "rstrip": false,
      "normalized": false,
      "special": true
    }
  ],
  "normalizer": null,
  "pre_tokenizer": {
    "type": "ByteLevel",
    "add_prefix_space": false,
    "trim_offsets": true,
    "use_regex": true
  },
  "post_processor": {
    "type": "ByteLevel",
    "add_prefix_space": true,
    "trim_offsets": false,
    "use_regex": true
  },
  "decoder": {
    "type": "ByteLevel",
    "add_prefix_space": true,
    "trim_offsets": true,
    "use_regex": true
  },
  "model": {
    "type": "BPE",
    "dropout": null,
    "unk_token": "<unk>",
    "continuing_subword_prefix": null,
    "end_of_word_suffix": null,
    "fuse_unk": false,
    "byte_fallback": false,
    "ignore_merges": false,
    "vocab": {
      "<unk>": 0,
      "<s>": 1,
      "</s>": 2,
      "<pad>": 3,
      "<|system|>": 4,
      "<|user|>": 5,
      "<|assistant|>": 6,
      "<|end|>": 7,
      "<|code|>": 8,
      "!": 9,
      "\"": 10,
      "#": 11,
      "$": 12,
      "%": 13,
      "&": 14,
      "'": 15,
      "(": 16,
      ")": 17,
      "*": 18,
      "+": 19,
      ",": 20,
      "-": 21,
      ".": 22,
      "/": 23,
      "0": 24,
      "1": 25,
      "2": 26,
      "3": 27,
      "4": 28,
      "5": 29,
      "6": 30,
      "7": 31,
      "8": 32,
      "9": 33,
      ":": 34,
      ";": 35,
      "<": 36,
      "=": 37,
      ">": 38,
      "?": 39,
      "@": 40,
      "A": 41,
      "B": 42,
      "C": 43,
      "D": 44,
      "E": 45,
      "F": 46,
      "G": 47,
      "H": 48,
      "I": 49,
      "J": 50,
      "K": 51,
      "L": 52,
      "M": 53,
      "N": 54,
      "O": 55,
      "P": 56,
      "Q": 57,
      "R": 58,
      "S": 59,
      "T": 60,
      "U": 61,
      "V": 62,
      "W": 63,
      "X": 64,
      "Y": 65,
      "Z": 66,
      "[": 67,
      "\\": 68,
      "]": 69,
      "^": 70,
      "_": 71,
      "`": 72,
      "a": 73,
      "b": 74,
      "c": 75,
      "d": 76,
      "e": 77,
      "f": 78,
      "g": 79,
      "h": 80,
      "i": 81,
      "j": 82,
      "k": 83,
      "l": 84,
      "m": 85,
      "n": 86,
      "o": 87,
      "p": 88,
      "q": 89,
      "r": 90,
      "s": 91,
      "t": 92,
      "u": 93,
      "v": 94,
      "w": 95,
      "x": 96,
      "y": 97,
      "z": 98,
      "{": 99,
      "|": 100,
      "}": 101,
      "~": 102,
      "¡": 103,
      "¢": 104,
      "£": 105,
      "¤": 106,
      "¥": 107,
      "¦": 108,
      "§": 109,
      "¨": 110,
      "©": 111,
      "ª": 112,
      "«": 113,
      "¬": 114,
      "®": 115,
      "¯": 116,
      "°": 117,
      "±": 118,
      "²": 119,
      "³": 120,
      "´": 121,
      "µ": 122,
      "¶": 123,
      "·": 124,
      "¸": 125,
      "¹": 126,
      "º": 127,
      "»": 128,
      "¼": 129,
      "½": 130,
      "¾": 131,
      "¿": 132,
      "À": 133,
      "Á": 134,
      "Â": 135,
      "Ã": 136,
      "Ä": 137,
      "Å": 138,
      "Æ": 139,
      "Ç": 140,
      "È": 141,
      "É": 142,
      "Ê": 143,
      "Ë": 144,
      "Ì": 145,
      "Í": 146,
      "Î": 147,
      "Ï": 148,
      "Ð": 149,
      "Ñ": 150,
      "Ò": 151,
      "Ó": 152,
      "Ô": 153,
      "Õ": 154,
      "Ö": 155,
      "×": 156,
      "Ø": 157,
      "Ù": 158,
      "Ú": 159,
      "Û": 160,
      "Ü": 161,
      "Ý": 162,
      "Þ": 163,
      "ß": 164,
      "à": 165,
      "á": 166,
      "â": 167,
      "ã": 168,
      "ä": 169,
      "å": 170,
      "æ": 171,
      "ç": 172,
      "è": 173,
      "é": 174,
      "ê": 175,
      "ë": 176,
      "ì": 177,
      "í": 178,
      "î": 179,
      "ï": 180,
      "ð": 181,
      "ñ": 182,
      "ò": 183,
      "ó": 184,
      "ô": 185,
      "õ": 186,
      "ö": 187,
      "÷": 188,
      "ø": 189,
      "ù": 190,
      "ú": 191,
      "û": 192,
      "ü": 193,
      "ý": 194,
      "þ": 195,
      "ÿ": 196,
      "Ā": 197,
      "ā": 198,
      "Ă": 199,
      "ă": 200,
      "Ą": 201,
      "ą": 202,
      "Ć": 203,
      "ć": 204,
      "Ĉ": 205,
      "ĉ": 206,
      "Ċ": 207,
      "ċ": 208,
      "Č": 209,
      "č": 210,
      "Ď": 211,
      "ď": 212,
      "Đ": 213,
      "đ": 214,
      "Ē": 215,
      "ē": 216,
      "Ĕ": 217,
      "ĕ": 218,
      "Ė": 219,
      "ė": 220,
      "Ę": 221,
      "ę": 222,
      "Ě": 223,
      "ě": 224,
      "Ĝ": 225,
      "ĝ": 226,
      "Ğ": 227,
      "ğ": 228,
      "Ġ": 229,
      "ġ": 230,
      "Ģ": 231,
      "ģ": 232,
      "Ĥ": 233,
      "ĥ": 234,
      "Ħ": 235,
      "ħ": 236,
      "Ĩ": 237,
      "ĩ": 238,
      "Ī": 239,
      "ī": 240,
      "Ĭ": 241,
      "ĭ": 242,
      "Į": 243,
      "į": 244,
      "İ": 245,
      "ı": 246,
      "Ĳ": 247,
      "ĳ": 248,
      "Ĵ": 249,
      "ĵ": 250,
      "Ķ": 251,
      "ķ": 252,
      "ĸ": 253,
      "Ĺ": 254,
      "ĺ": 255,
      "Ļ": 256,
      "ļ": 257,
      "Ľ": 258,
      "ľ": 259,
      "Ŀ": 260,
      "ŀ": 261,
      "Ł": 262,
      "ł": 263,
      "Ń": 264,
      "ĠĠ": 265,
      "ĠĠĠĠ": 266,
      "Ä±": 267,
      "in": 268,
      "Ġt": 269,
      "er": 270,
      "Ġa": 271,
      "Ġs": 272,
      "Ġb": 273,
      "en": 274,
      "ĠĠĠ": 275,
      "an": 276,
      "or": 277,
      "on": 278,
      "ar": 279,
      "Ġd": 280,
      "ĠĠĠĠĠĠĠĠ": 281,
      "Ġth": 282,
      "ou": 283,
      "Ġi": 284,
      "at": 285,
      "el": 286,
      "re": 287,
      "Ġy": 288,
      "Ġm": 289,
      "Ġh": 290,
      "Ġw": 291,
      "Ġg": 292,
      "le": 293,
      "Ã¼": 294,
      "ÅŁ": 295,
      "Ġo": 296,
      "al": 297,
      "st": 298,
      "Ġc": 299,
      "Ġthe": 300,
      "ir": 301,
      "Ġk": 302,
      "ed": 303,
      "ĠĠĠĠĠĠĠ": 304,
      "Ġf": 305,
      "et": 306,
      "am": 307,
      "il": 308,
      "Ġn": 309,
      "im": 310,
      "ing": 311,
      "ay": 312,
      "ÄŁ": 313,
      "un": 314,
      "es": 315,
      "Ã§": 316,
      "it": 317,
      "as": 318,
      "Ġyou": 319,
      "Ġp": 320,
      "Ġto": 321,
      "ad": 322,
      "Ä±n": 323,
      "..": 324,
      "Ġ'": 325,
      "is": 326,
      "ak": 327,
      "ur": 328,
      "Ġan": 329,
      "om": 330,
      "ce": 331,
      "ve": 332,
      "Ġin": 333,
      "Ã¶": 334,
      "Ġl": 335,
      "ot": 336,
      "ĠI": 337,
      "elf": 338,
      "yor": 339,
      "Ġde": 340,
      "ey": 341,
      "de": 342,
      "Ġ=": 343,
      "ow": 344,
      "um": 345,
      "ac": 346,
      "Ġre": 347,
      "'s": 348,
      "ek": 349,
      "Ġbir": 350,
      "Ġis": 351,
      "Ġof": 352,
      "Ġe": 353,
      "ut": 354,
      "ld": 355,
      "ĠĠĠĠĠĠĠĠĠĠĠ": 356,
      "iz": 357,
      "se": 358,
      "lar": 359,
      "ion": 360,
      "Ä±m": 361,
      "Ġon": 362,
      "ap": 363,
      "Ġ#": 364,
      "Ġv": 365,
      "em": 366,
      "ab": 367,
      "id": 368,
      "Th": 369,
      "ec": 370,
      "Ġand": 371,
      "ent": 372,
      "Ġit": 373,
      "ic": 374,
      "...": 375,
      "ere": 376,
      "ok": 377,
      "--": 378,
      "ll": 379,
      "ĠS": 380,
      "Ġself": 381,
      "Ġ\"": 382,
      "Ä±r": 383,
      "ik": 384,
      "ig": 385,
      "Ġr": 386,
      "Ġbe": 387,
      "od": 388,
      "Ġwh": 389,
      "'t": 390,
      "ĠA": 391,
      "Ġfor": 392,
      "ĠB": 393,
      "iyor": 394,
      "Ġu": 395,
      "Ġthat": 396,
      "ĠÃ§": 397,
      "ah": 398,
      "Ġ0": 399,
      "Ã¼n": 400,
      "ĠĠĠĠĠĠĠĠĠĠĠĠĠĠĠĠ": 401,
      "Ġif": 402,
      "Ġol": 403,
      "ler": 404,
      "Ġdo": 405,
      "Ġst": 406,
      "ĠL": 407,
      "ht": 408,
      "ol": 409,
      "ver": 410,
      "):": 411,
      "Ġme": 412,
      "ame": 413,
      "ul": 414,
      "Ġne": 415,
      "di": 416,
      "Ġnot": 417,
      "Ġ-": 418,
      "ĠC": 419,
      "You": 420,
      "ĠÅŁ": 421,
      "ĠN": 422,
      "out": 423,
      "and": 424,
      "self": 425,
      "aÅŁ": 426,
      "th": 427,
      "ma": 428,
      "ly": 429,
      "Ä±z": 430,
      "ĠD": 431,
      "__": 432,
      "op": 433,
      "Ġha": 434,
      "ch": 435,
      "urn": 436,
      "ĠM": 437,
      "end": 438,
      "ith": 439,
      "one": 440,
      "Ä±k": 441,
      "ile": 442,
      "\"\"": 443,
      "Wh": 444,
      "ĠH": 445,
      "oc": 446,
      "ine": 447,
      "ĠT": 448,
      "00": 449,
      "nd": 450,
      "ue": 451,
      "la": 452,
      "Ġbu": 453,
      "iy": 454,
      "Ġhe": 455,
      "ight": 456,
      "da": 457,
      "Ġ(": 458,
      "Ġar": 459,
      "ĠÃ¶": 460,
      "ell": 461,
      "Ġsh": 462,
      "ist": 463,
      "te": 464,
      "Ä±ÅŁ": 465,
      "ib": 466,
      "Ġdef": 467,
      "ter": 468,
      "ĠĠĠĠĠĠĠĠĠĠĠĠĠĠĠ": 469,
      "Ġwe": 470,
      "ust": 471,
      "Ġwith": 472,
      "Ġret": 473,
      "Ġthis": 474,
      "if": 475,
      "',": 476,
      "Ä±yor": 477,
      "Ġse": 478,
      "Ġreturn": 479,
      "az": 480,
      "us": 481,
      "Ġas": 482,
      "Ġve": 483,
      "ome": 484,
      "()": 485,
      "Ġgo": 486,
      "ass": 487,
      "Ġal": 488,
      "ĠiÃ§": 489,
      "ĠgÃ¶": 490,
      "ill": 491,
      "Ġhave": 492,
      "unu": 493,
      "Ġor": 494,
      "pt": 495,
      "Ġ'\\": 496,
      "ant": 497,
      "ect": 498,
      "Ġwas": 499,
      "yle": 500,
      "ack": 501,
      "ĠG": 502,
      "----": 503,
      "ind": 504,
      "ers": 505,
      "ro": 506,
      "Ġex": 507,
      "Ġyour": 508,
      "aÄŁ": 509,
      "Ġkn": 510,
      "ry": 511,
      "ould": 512,
      "Ġare": 513,
      "Ġyap": 514,
      "Ġcan": 515,
      "ra": 516,
      "'m": 517,
      "._": 518,
      "ĠP": 519,
      "eni": 520,
      "ort": 521,
      "iÅŁ": 522,
      "Ġget": 523,
      "ĠO": 524,
      "Ä±l": 525,
      "Ġj": 526,
      "'re": 527,
      "all": 528,
      "ate": 529,
      "ard": 530,
      "ana": 531,
      "Ã¼z": 532,
      "ĠiÃ§in": 533,
      "Ġmy": 534,
      "ge": 535,
      "os": 536,
      "ĠE": 537,
      "Ġknow": 538,
      "ece": 539,
      "Ġz": 540,
      "art": 541,
      "ini": 542,
      "rom": 543,
      "ode": 544,
      "Ġat": 545,
      "Ã¼r": 546,
      "ĠdeÄŁ": 547,
      "ĠR": 548,
      "ri": 549,
      "Ä°": 550,
      "ER": 551,
      "Ġ->": 552,
      "ĠF": 553,
      "ct": 554,
      "ĠÅŁey": 555,
      "ath": 556,
      "xt": 557,
      "The": 558,
      "Ġsu": 559,
      "Ġher": 560,
      "Ġel": 561,
      "IN": 562,
      "Ġist": 563,
      "ĠW": 564,
      "Ġold": 565,
      "Ġlo": 566,
      "Ġvar": 567,
      "Ġcon": 568,
      "Ġch": 569,
      "res": 570,
      "ation": 571,
      "ip": 572,
      "ĠK": 573,
      "Ġ_": 574,
      "Ä±nÄ±": 575,
      "ess": 576,
      "ĠdeÄŁil": 577,
      "Bu": 578,
      "our": 579,
      "ror": 580,
      "Ä±ÄŁ": 581,
      "ie": 582,
      "Ġda": 583,
      "Ġall": 584,
      "Ġle": 585,
      "Ġmi": 586,
      "Ġ\"\"\"": 587,
      "iyorum": 588,
      "get": 589,
      "ike": 590,
      "Ã¶yle": 591,
      "AL": 592,
      "It": 593,
      "Ġ1": 594,
      "cl": 595,
      "ime": 596,
      "port": 597,
      "Ġab": 598,
      "Ġdon": 599,
      "Ġout": 600,
      "What": 601,
      "Ġwhat": 602,
      "ĠmÄ±": 603,
      "sun": 604,
      "ake": 605,
      "Ġgel": 606,
      "uÄŁ": 607,
      "Ġver": 608,
      "ET": 609,
      "Ġed": 610,
      "Ã¼m": 611,
      "Ġet": 612,
      "Ġup": 613,
      "ore": 614,
      "Ã¼ÅŁ": 615,
      "ink": 616,
      "Ġus": 617,
      "Ġcom": 618,
      "tr": 619,
      "Ġben": 620,
      "eth": 621,
      "ilir": 622,
      "av": 623,
      "ĠĠĠĠĠĠĠĠĠĠĠĠ": 624,
      "TER": 625,
      "Ġun": 626,
      "ta": 627,
      "name": 628,
      "Ġso": 629,
      "Ġjust": 630,
      "Ġen": 631,
      "')": 632,
      "ob": 633,
      "Ġad": 634,
      "ĠNone": 635,
      "Ġfrom": 636,
      "Ġger": 637,
      "uÅŁ": 638,
      "ast": 639,
      "uk": 640,
      "iÄŁ": 641,
      "Ġhere": 642,
      "pe": 643,
      "he": 644,
      "ase": 645,
      "dan": 646,
      "ive": 647,
      "('": 648,
      "Ġlike": 649,
      "Ġbil": 650,
      "ff": 651,
      "qu": 652,
      "uy": 653,
      "'ll": 654,
      "ult": 655,
      "AT": 656,
      "Ġolm": 657,
      "Ġhim": 658,
      "ize": 659,
      "mek": 660,
      "Ãĩ": 661,
      "ki": 662,
      "Ä±nda": 663,
      "Ġcl": 664,
      "Ġev": 665,
      "Ġwant": 666,
      "ĠJ": 667,
      "Ġte": 668,
      "ple": 669,
      "yi": 670,
      "Ġabout": 671,
      "ally": 672,
      "Ġright": 673,
      "Ġby": 674,
      "ETTER": 675,
      "':": 676,
      "acak": 677,
      "app": 678,
      "Ã¼k": 679,
      "ĠLETTER": 680,
      "ise": 681,
      "aya": 682,
      "sin": 683,
      "And": 684,
      "Ġwill": 685,
      "alue": 686,
      "Ġkad": 687,
      "Ġsen": 688,
      "Er": 689,
      "na": 690,
      "IT": 691,
      "We": 692,
      "sÄ±n": 693,
      "Ġthere": 694,
      "ork": 695,
      "Ġbut": 696,
      "He": 697,
      "Bir": 698,
      "ada": 699,
      "ĠY": 700,
      "aha": 701,
      "Ġdid": 702,
      "pl": 703,
      "Ġsa": 704,
      "Ġthey": 705,
      "den": 706,
      "ĠgÃ¶r": 707,
      "Ben": 708,
      "Ġno": 709,
      "ĠÃ§ok": 710,
      "'d": 711,
      "oth": 712,
      "Ġany": 713,
      "ound": 714,
      "uz": 715,
      "Ġone": 716,
      "amam": 717,
      "larÄ±": 718,
      "Ġpar": 719,
      "Error": 720,
      "able": 721,
      "Ġim": 722,
      "oug": 723,
      "asÄ±": 724,
      "##": 725,
      "Ġgot": 726,
      "That": 727,
      "Åŀ": 728,
      "Ġson": 729,
      "\",": 730,
      "uc": 731,
      "ĠbaÅŁ": 732,
      "orm": 733,
      "ĠsÃ¶yle": 734,
      "==": 735,
      "ayÄ±r": 736,
      "ans": 737,
      "iv": 738,
      "--------": 739,
      "der": 740,
      "ire": 741,
      "ĠiÅŁ": 742,
      "set": 743,
      "ep": 744,
      "aman": 745,
      "gs": 746,
      "cept": 747,
      "ose": 748,
      "Ġpr": 749,
      "iÃ§": 750,
      "itt": 751,
      "ĠolduÄŁ": 752,
      "li": 753,
      "eri": 754,
      "ment": 755,
      "Ġhis": 756,
      "vet": 757,
      "Ġthink": 758,
      "ĠĠĠĠĠĠĠĠĠĠĠĠĠĠĠĠĠĠĠ": 759,
      "mak": 760,
      "int": 761,
      "me": 762,
      "ert": 763,
      "Ġra": 764,
      "Ä±na": 765,
      "Ġsay": 766,
      "ĠV": 767,
      "ne": 768,
      "ock": 769,
      "ject": 770,
      "acaÄŁ": 771,
      "Ġkadar": 772,
      "Ġyok": 773,
      "ype": 774,
      "Ġtr": 775,
      "miÅŁ": 776,
      "ide": 777,
      "ure": 778,
      "eden": 779,
      "ong": 780,
      "No": 781,
      "Ġdaha": 782,
      "Ġmu": 783,
      "Ġkal": 784,
      "Ġname": 785,
      "up": 786,
      "Ġ2": 787,
      "af": 788,
      "ang": 789,
      "ick": 790,
      "Ġsp": 791,
      "Ġelse": 792,
      "'ve": 793,
      "Ġtime": 794,
      "Ġgib": 795,
      "ĠU": 796,
      "str": 797,
      "Ġsome": 798,
      "au": 799,
      "ord": 800,
      "led": 801,
      "own": 802,
      "iniz": 803,
      "This": 804,
      "Ġthem": 805,
      "Ġama": 806,
      "ost": 807,
      "Ġres": 808,
      "Ġkon": 809,
      "Ġbo": 810,
      "con": 811,
      "Ġwho": 812,
      "iler": 813,
      "Ġhas": 814,
      "ions": 815,
      "age": 816,
      "Ã¼yor": 817,
      "pr": 818,
      "ule": 819,
      "ars": 820,
      "Ġ+": 821,
      "Ġstr": 822,
      "Ġ*": 823,
      "Ä±y": 824,
      "inde": 825,
      "Ne": 826,
      "Ġpro": 827,
      "On": 828,
      "ber": 829,
      "ayÄ±": 830,
      "ATIN": 831,
      "class": 832,
      "))": 833,
      "ĠLATIN": 834,
      "Ġkar": 835,
      "Ġbur": 836,
      "Ġgibi": 837,
      "ain": 838,
      "ex": 839,
      "Ġzaman": 840,
      "text": 841,
      "lo": 842,
      "lam": 843,
      "abilir": 844,
      "Ġneed": 845,
      "ÄŁim": 846,
      "ance": 847,
      "ĠÃ¶n": 848,
      "Ġiyi": 849,
      "uyor": 850,
      "ev": 851,
      "ix": 852,
      "Ġback": 853,
      "mem": 854,
      "ĠdÃ¼ÅŁ": 855,
      "Ġshe": 856,
      "mey": 857,
      "kay": 858,
      "Ġsee": 859,
      "Ġob": 860,
      "def": 861,
      "Ġint": 862,
      "Ġmis": 863,
      "ite": 864,
      "Ġ[": 865,
      "ata": 866,
      "ÄŁr": 867,
      "ON": 868,
      "ther": 869,
      "Oh": 870,
      "Ġman": 871,
      "mÄ±ÅŁ": 872,
      "Ġwould": 873,
      "ĠÃ§Ä±k": 874,
      "alk": 875,
      "Ġnow": 876,
      "Ġki": 877,
      "ict": 878,
      "ich": 879,
      "eb": 880,
      "ark": 881,
      "Ġ%": 882,
      "act": 883,
      "sa": 884,
      "eah": 885,
      "lÄ±": 886,
      "Ġtry": 887,
      "ress": 888,
      "man": 889,
      "Sen": 890,
      "Ġever": 891,
      "Ġsor": 892,
      "Ãĸ": 893,
      "lan": 894,
      "Ġwhen": 895,
      "Ġbak": 896,
      "san": 897,
      "dir": 898,
      "\"\"\"": 899,
      "code": 900,
      "Ä±yorum": 901,
      "yn": 902,
      "read": 903,
      "odule": 904,
      "path": 905,
      "ook": 906,
      "ice": 907,
      "Ġ==": 908,
      "But": 909,
      "ag": 910,
      "larÄ±n": 911,
      "way": 912,
      "Ġoff": 913,
      "eÃ§": 914,
      "(\"": 915,
      "Ġhad": 916,
      "est": 917,
      "ild": 918,
      "Ġ__": 919,
      "Ġraise": 920,
      "ull": 921,
      "ity": 922,
      "aÃ§": 923,
      "onna": 924,
      "ten": 925,
      "Ġlook": 926,
      "ies": 927,
      "other": 928,
      "ret": 929,
      "len": 930,
      "ĠThe": 931,
      "ings": 932,
      "alar": 933,
      "Ġbeen": 934,
      "ous": 935,
      "Ã¼t": 936,
      ".\"": 937,
      "ank": 938,
      "ary": 939,
      "Ġgoing": 940,
      "An": 941,
      "So": 942,
      "Ġgonna": 943,
      "Ã¼y": 944,
      "ĠÃ§al": 945,
      "RA": 946,
      "com": 947,
      "Ġother": 948,
      "ub": 949,
      "atch": 950,
      "tÄ±": 951,
      "yth": 952,
      "Ġbul": 953,
      "par": 954,
      "Ġgerek": 955,
      "uck": 956,
      "Ġshould": 957,
      "ause": 958,
      "leri": 959,
      "In": 960,
      "ach": 961,
      "ALL": 962,
      "Well": 963,
      "lay": 964,
      "Ġwere": 965,
      "Ġcould": 966,
      ">>": 967,
      ".__": 968,
      "ethod": 969,
      "per": 970,
      "ough": 971,
      "Ġfile": 972,
      "du": 973,
      "ĠYou": 974,
      "Ġgood": 975,
      "Ġexcept": 976,
      "lik": 977,
      "Ġnew": 978,
      "Ġac": 979,
      "ĠĠĠĠĠĠĠĠĠ": 980,
      "dÄ±": 981,
      "RE": 982,
      "Ġimport": 983,
      "),": 984,
      "ecek": 985,
      "iyorsun": 986,
      "day": 987,
      "Ġag": 988,
      "LE": 989,
      "ĠSM": 990,
      "asÄ±l": 991,
      "ef": 992,
      "Ġbel": 993,
      "ĠdÃ¼ÅŁÃ¼n": 994,
      "Ġover": 995,
      "AP": 996,
      "adece": 997,
      "ĠolduÄŁunu": 998,
      "cod": 999,
      "form": 1000,
      "Ġcall": 1001,
      "Hey": 1002,
      "ated": 1003,
      "Ġfe": 1004,
      "HayÄ±r": 1005,
      "IG": 1006,
      "ish": 1007,
      "Ġfun": 1008,
      "They": 1009,
      "Ġvalue": 1010,
      "__(": 1011,
      "med": 1012,
      "iye": 1013,
      "Evet": 1014,
      "ĠgÃ¼n": 1015,
      "Ġwork": 1016,
      "esi": 1017,
      "ign": 1018,
      "ĠgeÃ§": 1019,
      "ĠSMALL": 1020,
      "ys": 1021,
      "Ġer": 1022,
      "irst": 1023,
      "Ã¢": 1024,
      "Ġbr": 1025,
      "Ġour": 1026,
      "ction": 1027,
      "None": 1028,
      "Ġlist": 1029,
      "Ġam": 1030,
      "Ġtell": 1031,
      "Ġil": 1032,
      "ial": 1033,
      "**": 1034,
      "Ġobject": 1035,
      "Ġset": 1036,
      "Ama": 1037,
      "Ġsom": 1038,
      "ilen": 1039,
      "Ġdur": 1040,
      "ĠdÃ¶": 1041,
      "og": 1042,
      "Ġbenim": 1043,
      "ez": 1044,
      "Ġcome": 1045,
      "file": 1046,
      "ĠÃ§alÄ±ÅŁ": 1047,
      "eler": 1048,
      "imdi": 1049,
      "imiz": 1050,
      "ody": 1051,
      "Ġyer": 1052,
      "ething": 1053,
      "bu": 1054,
      "lat": 1055,
      "Ġwr": 1056,
      "Ġdoes": 1057,
      "alÄ±": 1058,
      "nt": 1059,
      "Ġpe": 1060,
      "Ġ3": 1061,
      "ents": 1062,
      "ence": 1063,
      "ĠhiÃ§": 1064,
      "ait": 1065,
      "ca": 1066,
      "IC": 1067,
      "ault": 1068,
      "Ġgir": 1069,
      "elp": 1070,
      "Ġthen": 1071,
      "ave": 1072,
      "ti": 1073,
      "put": 1074,
      "ayb": 1075,
      "ven": 1076,
      "Ġmore": 1077,
      "Ġway": 1078,
      "ered": 1079,
      "ĠCh": 1080,
      "ya": 1081,
      "mand": 1082,
      "Ġmus": 1083,
      "tÄ±k": 1084,
      "Do": 1085,
      "dum": 1086,
      "ames": 1087,
      "ft": 1088,
      "Ġhow": 1089,
      "Ġay": 1090,
      "ader": 1091,
      "wo": 1092,
      "Ġdown": 1093,
      "alse": 1094,
      "ree": 1095,
      "Ġtake": 1096,
      "Ã§ek": 1097,
      "old": 1098,
      "Ġbana": 1099,
      "Ġonly": 1100,
      "que": 1101,
      "Ã¼zel": 1102,
      "tir": 1103,
      "lad": 1104,
      "Ġday": 1105,
      "Ġclass": 1106,
      "min": 1107,
      "rue": 1108,
      "Ãĩok": 1109,
      "Ġgr": 1110,
      "She": 1111,
      "Ä±mÄ±z": 1112,
      "ĠĠĠĠĠ": 1113,
      "sh": 1114,
      "ani": 1115,
      "fer": 1116,
      "Ġtan": 1117,
      "\")": 1118,
      "Ġadam": 1119,
      "ken": 1120,
      "Ġtak": 1121,
      "ĠCAP": 1122,
      "unuz": 1123,
      "ITAL": 1124,
      "ace": 1125,
      "Ġdidn": 1126,
      "ĠCAPITAL": 1127,
      "Ġsomething": 1128,
      "ecause": 1129,
      "Ġsev": 1130,
      "There": 1131,
      "ss": 1132,
      "Ġkim": 1133,
      "Ġmake": 1134,
      "Ġpart": 1135,
      "ov": 1136,
      "ĠÄ°": 1137,
      "oll": 1138,
      "init": 1139,
      "Ġgid": 1140,
      ";':": 1141,
      "OR": 1142,
      "ĠkonuÅŁ": 1143,
      "Ġlet": 1144,
      "How": 1145,
      "eck": 1146,
      "Ġonu": 1147,
      "ĠAll": 1148,
      "ople": 1149,
      "tin": 1150,
      "ud": 1151,
      "aba": 1152,
      "diÄŁ": 1153,
      "ely": 1154,
      "Tamam": 1155,
      "laÅŁ": 1156,
      "ING": 1157,
      "gr": 1158,
      "Ġtalk": 1159,
      "inin": 1160,
      "ife": 1161,
      "Ġhapp": 1162,
      "Ã¼Ã§": 1163,
      "All": 1164,
      "Ġsaid": 1165,
      "mam": 1166,
      "ĠNe": 1167,
      "Ġbeni": 1168,
      "Ġcar": 1169,
      "add": 1170,
      "ning": 1171,
      "Ä±s": 1172,
      "Ġtek": 1173,
      "ĠyaÅŁ": 1174,
      "Ġ<": 1175,
      "aki": 1176,
      "tan": 1177,
      "####": 1178,
      "dim": 1179,
      "Ġhand": 1180,
      "bir": 1181,
      "Ġtoo": 1182,
      "tÄ±r": 1183,
      "una": 1184,
      "stance": 1185,
      "Ġolur": 1186,
      "Yeah": 1187,
      "Ġreally": 1188,
      "Ġsc": 1189,
      "Ġnum": 1190,
      "tÄ±ÄŁ": 1191,
      "ood": 1192,
      "Ġye": 1193,
      "Ġline": 1194,
      "ger": 1195,
      "Ġdis": 1196,
      "isi": 1197,
      "Ġread": 1198,
      "reat": 1199,
      "key": 1200,
      "inle": 1201,
      ".\"\"\"": 1202,
      "ka": 1203,
      "ND": 1204,
      "ory": 1205,
      "acaÄŁÄ±m": 1206,
      "If": 1207,
      "ĠÃ¶nce": 1208,
      "Ġhay": 1209,
      "adan": 1210,
      "Her": 1211,
      "oy": 1212,
      "ute": 1213,
      "men": 1214,
      "Ġsan": 1215,
      "Ġfirst": 1216,
      "Ġkey": 1217,
      "Ġbet": 1218,
      "sp": 1219,
      "Ġbiz": 1220,
      "ĠyÃ¼z": 1221,
      "Ġexp": 1222,
      "ail": 1223,
      "Ġap": 1224,
      "ittle": 1225,
      "====": 1226,
      "Ġgit": 1227,
      "Ġtar": 1228,
      "Ġyar": 1229,
      "dÄ±r": 1230,
      "ĠĠĠĠĠĠĠĠĠĠĠĠĠĠĠĠĠ": 1231,
      "Ä±rak": 1232,
      "Ġaf": 1233,
      "Ġkur": 1234,
      "ty": 1235,
      "ĠaÃ§": 1236,
      "cek": 1237,
      "Ġguy": 1238,
      "fore": 1239,
      "ĠsÃ¶": 1240,
      "unda": 1241,
      "ens": 1242,
      "Ġmon": 1243,
      "Ä±ndan": 1244,
      "Ġ|": 1245,
      "Ġpre": 1246,
      "Ġmust": 1247,
      "Ġarg": 1248,
      "Ġinto": 1249,
      "ond": 1250,
      "args": 1251,
      "Ġnever": 1252,
      "ardÄ±m": 1253,
      "tain": 1254,
      "AR": 1255,
      "Ġop": 1256,
      "Ġwor": 1257,
      "ĠÃ¶ld": 1258,
      "ought": 1259,
      "fo": 1260,
      "tÃ¼": 1261,
      "Bur": 1262,
      "let": 1263,
      "Ve": 1264,
      "Ġsonra": 1265,
      "ator": 1266,
      "Ġhak": 1267,
      "ika": 1268,
      "Ar": 1269,
      "ade": 1270,
      "ble": 1271,
      "oÅŁ": 1272,
      "Ã¶r": 1273,
      "Ä±nÄ±z": 1274,
      "Ġmisin": 1275,
      "Ġbile": 1276,
      "ĠIt": 1277,
      "we": 1278,
      "Ġpos": 1279,
      "Ġmean": 1280,
      "maz": 1281,
      "Ġseni": 1282,
      "Ġcode": 1283,
      "unun": 1284,
      "Ġhelp": 1285,
      "Ġlittle": 1286,
      "Ġos": 1287,
      "ied": 1288,
      "kÃ¼": 1289,
      "Ġfind": 1290,
      "wr": 1291,
      "Ġpeople": 1292,
      "mel": 1293,
      "Ġwhere": 1294,
      "lace": 1295,
      "list": 1296,
      "imi": 1297,
      "rame": 1298,
      "Ġwhich": 1299,
      "Ġstart": 1300,
      "pre": 1301,
      "ĠnasÄ±l": 1302,
      "Ġyet": 1303,
      "Ġtheir": 1304,
      "Ġtwo": 1305,
      "ia": 1306,
      "ĠkÄ±z": 1307,
      "eki": 1308,
      "ĠĠĠĠĠĠĠĠĠĠĠĠĠĠĠĠĠĠĠĠ": 1309,
      "from": 1310,
      "----------------": 1311,
      "Ġbunu": 1312,
      "inden": 1313,
      "Ġspec": 1314,
      "Ġ...": 1315,
      "Ã¼ÄŁ": 1316,
      "Ġolan": 1317,
      "line": 1318,
      "Ġpath": 1319,
      "Ġ{": 1320,
      "Ġmethod": 1321,
      "ĠWh": 1322,
      "gÃ¼n": 1323,
      "ye": 1324,
      "eld": 1325,
      "ITH": 1326,
      "lease": 1327,
      "ream": 1328,
      "Ġyak": 1329,
      "ĠIf": 1330,
      "eye": 1331,
      "OU": 1332,
      "ĠÃ¼z": 1333,
      "Ġhal": 1334,
      "25": 1335,
      "eÅŁ": 1336,
      "Ġsana": 1337,
      "St": 1338,
      ").": 1339,
      "Ġtest": 1340,
      "ove": 1341,
      "wn": 1342,
      "Ġdel": 1343,
      "Ġadd": 1344,
      "Ġbefore": 1345,
      "anc": 1346,
      "tim": 1347,
      "ily": 1348,
      "Ġbit": 1349,
      "ĠWITH": 1350,
      "ĠĠĠĠĠĠĠĠĠĠĠĠĠĠĠĠĠĠ": 1351,
      "ĠÃ§oc": 1352,
      "Ġkend": 1353,
      "Ġopt": 1354,
      "Ġmodule": 1355,
      "Ġunder": 1356,
      "Ġmusun": 1357,
      "tes": 1358,
      "Ġpass": 1359,
      "vers": 1360,
      "tern": 1361,
      "âĢ": 1362,
      "Ġsiz": 1363,
      "lara": 1364,
      "Ġthan": 1365,
      "pos": 1366,
      "Ġuy": 1367,
      "reak": 1368,
      "Okay": 1369,
      "Ġagain": 1370,
      "ĠkÃ¶": 1371,
      "Ġiz": 1372,
      "ci": 1373,
      "lu": 1374,
      "Ġmay": 1375,
      "eturn": 1376,
      "Ġsenin": 1377,
      "ener": 1378,
      "ĠWe": 1379,
      "ley": 1380,
      "ount": 1381,
      "so": 1382,
      "Ġqu": 1383,
      "Ġass": 1384,
      "Ä±yorsun": 1385,
      "ĠgÃ¶re": 1386,
      "ool": 1387,
      "ĠĠĠĠĠĠĠĠĠĠ": 1388,
      "Ġlast": 1389,
      "adi": 1390,
      "Ġsup": 1391,
      "imal": 1392,
      "tur": 1393,
      "Ġcomp": 1394,
      "anÄ±": 1395,
      "Ġduy": 1396,
      "Ġbl": 1397,
      "Ġya": 1398,
      "Ġend": 1399,
      "ython": 1400,
      "Ġthing": 1401,
      "Ġistem": 1402,
      "Ä±rÄ±m": 1403,
      "ource": 1404,
      "ee": 1405,
      "Ġused": 1406,
      "ĠbÄ±rak": 1407,
      "ash": 1408,
      "row": 1409,
      "alled": 1410,
      "Ġlove": 1411,
      "din": 1412,
      "IS": 1413,
      "Ġzor": 1414,
      "lÄ±k": 1415,
      "ĠĠĠĠĠĠĠĠĠĠĠĠĠĠĠĠĠĠĠĠĠĠĠ": 1416,
      "attr": 1417,
      "ĠBu": 1418,
      "mez": 1419,
      "ster": 1420,
      "Ġask": 1421,
      "Ġded": 1422,
      "ting": 1423,
      "Ã¼nkÃ¼": 1424,
      "maya": 1425,
      "quest": 1426,
      "vel": 1427,
      "Ġ!": 1428,
      "Ã¼l": 1429,
      "eep": 1430,
      "fen": 1431,
      "larak": 1432,
      "Ġeven": 1433,
      "ĠAn": 1434,
      "ince": 1435,
      "Ä±nÄ±n": 1436,
      "ather": 1437,
      "Don": 1438,
      "sg": 1439,
      "ÄŁer": 1440,
      "Ġresult": 1441,
      "ĠÃ¶yle": 1442,
      ".\\": 1443,
      "cre": 1444,
      "ines": 1445,
      "Ġro": 1446,
      "ĠgerÃ§ek": 1447,
      "her": 1448,
      "Ġinsan": 1449,
      "Ã¼yÃ¼k": 1450,
      "ayan": 1451,
      "value": 1452,
      "Con": 1453,
      "Bunu": 1454,
      "ĠNo": 1455,
      "Ġyol": 1456,
      "ĠSt": 1457,
      "ins": 1458,
      "alÄ±m": 1459,
      "Come": 1460,
      "Ġhar": 1461,
      "Ġolarak": 1462,
      "Ġsec": 1463,
      "Ġlen": 1464,
      "type": 1465,
      "ĠdÃ¶n": 1466,
      "Ġbab": 1467,
      "Ġmuch": 1468,
      "']": 1469,
      "ange": 1470,
      "ĠAllah": 1471,
      "adÄ±ÄŁ": 1472,
      "Ġbecause": 1473,
      "ection": 1474,
      "esc": 1475,
      "val": 1476,
      "EN": 1477,
      "not": 1478,
      "Ġburada": 1479,
      "ument": 1480,
      "Ġuse": 1481,
      "import": 1482,
      "Ġevery": 1483,
      "Ġwon": 1484,
      "riend": 1485,
      "Ġisted": 1486,
      "Ã¼tfen": 1487,
      "tÄ±m": 1488,
      "Ġafter": 1489,
      "ps": 1490,
      "Ġcr": 1491,
      "ĠIn": 1492,
      "Ġvery": 1493,
      "ĠHe": 1494,
      "by": 1495,
      "Ġstring": 1496,
      "ĠWhat": 1497,
      "Ä±ld": 1498,
      "back": 1499,
      "Ġolacak": 1500,
      "Ġoldu": 1501,
      "ition": 1502,
      "iyim": 1503,
      "ĠBen": 1504,
      "Ġthose": 1505,
      "ĠThis": 1506,
      "ĠgÃ¼zel": 1507,
      "uh": 1508,
      "arÄ±": 1509,
      "Seni": 1510,
      "Ġark": 1511,
      "Ġistiyorum": 1512,
      "Ġem": 1513,
      "Ġrun": 1514,
      "Ġlong": 1515,
      "idget": 1516,
      "Ġdoing": 1517,
      "meye": 1518,
      "Ġdata": 1519,
      "Why": 1520,
      "ocess": 1521,
      "call": 1522,
      "ÄŁru": 1523,
      "Ġthese": 1524,
      "Ġwhy": 1525,
      "arn": 1526,
      "Ġsadece": 1527,
      "ton": 1528,
      "erim": 1529,
      "ĠTrue": 1530,
      "ĠbÃ¶yle": 1531,
      "urr": 1532,
      "Ġsub": 1533,
      "ield": 1534,
      "Ãľ": 1535,
      "aybe": 1536,
      "Ġtext": 1537,
      "append": 1538,
      "My": 1539,
      "Ġuz": 1540,
      "Ä°ÅŁ": 1541,
      "Ġbek": 1542,
      "ĠÃ§ek": 1543,
      "Is": 1544,
      "coding": 1545,
      "Ch": 1546,
      "Ġak": 1547,
      "Ġdr": 1548,
      "Ġmin": 1549,
      "Åŀimdi": 1550,
      "ĠgÃ¼": 1551,
      "Ġonun": 1552,
      "oin": 1553,
      "Ġ('": 1554,
      "Ġchar": 1555,
      "ale": 1556,
      "Ġtype": 1557,
      "Ġhappen": 1558,
      "Ġelif": 1559,
      "fix": 1560,
      "En": 1561,
      "03": 1562,
      "ways": 1563,
      "mas": 1564,
      "opt": 1565,
      "ser": 1566,
      "ĠyardÄ±m": 1567,
      "Ġsure": 1568,
      "Ä±mÄ±": 1569,
      "Ġstill": 1570,
      "thing": 1571,
      "Ġhead": 1572,
      "As": 1573,
      "01": 1574,
      "gil": 1575,
      "module": 1576,
      "erh": 1577,
      "ES": 1578,
      "Ġtra": 1579,
      "oint": 1580,
      "ĠTh": 1581,
      "Ġkap": 1582,
      "iter": 1583,
      "Not": 1584,
      "ug": 1585,
      "Ġgive": 1586,
      "ele": 1587,
      "ĠmÃ¼": 1588,
      "sel": 1589,
      "Look": 1590,
      "ax": 1591,
      ">>>": 1592,
      "error": 1593,
      "ĠkaÃ§": 1594,
      "Ġsys": 1595,
      "Ġlife": 1596,
      "Ġfin": 1597,
      "='": 1598,
      "ont": 1599,
      "Ġokay": 1600,
      "Ġ4": 1601,
      "Ġfeel": 1602,
      "Ġact": 1603,
      "Ġid": 1604,
      "Ġpol": 1605,
      "Ġcol": 1606,
      "essage": 1607,
      "tiÄŁ": 1608,
      "esin": 1609,
      "Ġbiraz": 1610,
      "ilename": 1611,
      "Get": 1612,
      "adaÅŁ": 1613,
      "ything": 1614,
      "Ġanything": 1615,
      "my": 1616,
      "Ä±p": 1617,
      "Ġsize": 1618,
      "Ã¼re": 1619,
      "Ġbelie": 1620,
      "iss": 1621,
      "Ġile": 1622,
      "elim": 1623,
      "Ġbiliyor": 1624,
      "muÅŁ": 1625,
      "eÄŁ": 1626,
      "Ġtut": 1627,
      "data": 1628,
      "ĠBir": 1629,
      "tk": 1630,
      "Ġser": 1631,
      "Ġiht": 1632,
      "ems": 1633,
      "are": 1634,
      "Ġmem": 1635,
      "instance": 1636,
      "enc": 1637,
      "Let": 1638,
      "miyor": 1639,
      "ĠAr": 1640,
      "ĠÃ§ocuk": 1641,
      "uth": 1642,
      "Ġform": 1643,
      "Ġhat": 1644,
      "Ġyan": 1645,
      "Onu": 1646,
      "ations": 1647,
      "ible": 1648,
      "âĻ": 1649,
      "HT": 1650,
      "Now": 1651,
      "trib": 1652,
      "eter": 1653,
      "ph": 1654,
      "endi": 1655,
      "Or": 1656,
      "wh": 1657,
      "to": 1658,
      "igh": 1659,
      "âĻª": 1660,
      "Ġwait": 1661,
      "cÄ±": 1662,
      "Ex": 1663,
      "ED": 1664,
      "body": 1665,
      "ĠFalse": 1666,
      "ript": 1667,
      "Ġgu": 1668,
      "amaz": 1669,
      "larÄ±nÄ±": 1670,
      "Bana": 1671,
      "Benim": 1672,
      "time": 1673,
      "Just": 1674,
      "Ġgiv": 1675,
      "Ġ>": 1676,
      "sunuz": 1677,
      "tu": 1678,
      "Ġval": 1679,
      "22": 1680,
      "alan": 1681,
      "fig": 1682,
      "Ġ--": 1683,
      "Ġfuck": 1684,
      "Ġx": 1685,
      "ĠÃ¶l": 1686,
      "trol": 1687,
      "ĠÃ¶ldÃ¼r": 1688,
      "Ġsame": 1689,
      "Ġwell": 1690,
      "anr": 1691,
      "Ġsorry": 1692,
      "ĠkarÅŁ": 1693,
      "Ġdefault": 1694,
      "ĠGod": 1695,
      "oh": 1696,
      "Ġper": 1697,
      "Who": 1698,
      "miyorum": 1699,
      "ower": 1700,
      "Ġhayat": 1701,
      "Ġfaz": 1702,
      "Ġput": 1703,
      "Ġdoesn": 1704,
      "mad": 1705,
      "Ġbreak": 1706,
      "Ġthought": 1707,
      "ater": 1708,
      "Ġent": 1709,
      "Ġdev": 1710,
      "ekk": 1711,
      "ext": 1712,
      "ara": 1713,
      "Ġthr": 1714,
      "eceÄŁim": 1715,
      "Ġgirl": 1716,
      "plement": 1717,
      "Ġalways": 1718,
      "Ġcommand": 1719,
      "Ġboy": 1720,
      "air": 1721,
      "ny": 1722,
      "may": 1723,
      "Ġwhile": 1724,
      "ĠÃ¶z": 1725,
      "ĠEvet": 1726,
      "object": 1727,
      "Ġfunction": 1728,
      "Ġ5": 1729,
      "arch": 1730,
      "HA": 1731,
      "hing": 1732,
      "side": 1733,
      "Ġtamam": 1734,
      "Ġneden": 1735,
      "ebilir": 1736,
      "Ġnight": 1737,
      "Ġ>>>": 1738,
      "UT": 1739,
      "Ġsm": 1740,
      "Ġmak": 1741,
      "Ġreal": 1742,
      "['": 1743,
      "ayÄ±m": 1744,
      "ĠZ": 1745,
      "ĠbÃ¼yÃ¼k": 1746,
      "Ġden": 1747,
      "als": 1748,
      "ues": 1749,
      "ekkÃ¼r": 1750,
      "Yes": 1751,
      "arg": 1752,
      "assert": 1753,
      "indow": 1754,
      "Biz": 1755,
      "Ġkeep": 1756,
      "Al": 1757,
      "tar": 1758,
      "Ġhome": 1759,
      "Ġter": 1760,
      "Ġald": 1761,
      "Ġkull": 1762,
      "])": 1763,
      "Son": 1764,
      "endim": 1765,
      "Ġgeri": 1766,
      "Ġgetir": 1767,
      "Ġco": 1768,
      "anÄ±n": 1769,
      "ĠÅŁu": 1770,
      "Ġfriend": 1771,
      "Ġihtiy": 1772,
      "LL": 1773,
      "ouse": 1774,
      "ecimal": 1775,
      "test": 1776,
      "cs": 1777,
      "sed": 1778,
      "ĠMr": 1779,
      "Ġaway": 1780,
      "000": 1781,
      "ren": 1782,
      "Ġkat": 1783,
      "Ġfound": 1784,
      "Sh": 1785,
      "sy": 1786,
      "lerini": 1787,
      "Ġcre": 1788,
      "Ġpat": 1789,
      "Ġtold": 1790,
      "qual": 1791,
      "Re": 1792,
      "alueError": 1793,
      "ĠgÃ¶rd": 1794,
      "mer": 1795,
      "lib": 1796,
      "Ġcalled": 1797,
      "ement": 1798,
      "Ġhakk": 1799,
      "Ġplan": 1800,
      "ala": 1801,
      "ION": 1802,
      "sen": 1803,
      "Ġolabilir": 1804,
      "Ġkid": 1805,
      "ĠsÃ¶y": 1806,
      "Ġleft": 1807,
      "comp": 1808,
      "Ġvard": 1809,
      "ĠÅŁeyler": 1810,
      "ner": 1811,
      "Ġnumber": 1812,
      "arl": 1813,
      "Ġok": 1814,
      "Ġmade": 1815,
      "abi": 1816,
      "ĠAnd": 1817,
      "Ġbetter": 1818,
      "urrent": 1819,
      "aber": 1820,
      "Ġerror": 1821,
      "Ġstop": 1822,
      "Beni": 1823,
      "ĠarkadaÅŁ": 1824,
      "eh": 1825,
      "ĠbaÅŁka": 1826,
      "Ġinan": 1827,
      "Sana": 1828,
      "Ġbas": 1829,
      "nem": 1830,
      "size": 1831,
      "ollow": 1832,
      "Ġthrough": 1833,
      "aj": 1834,
      "Ġkil": 1835,
      "dict": 1836,
      "Ġdif": 1837,
      "Sadece": 1838,
      "kin": 1839,
      "ĠaÅŁ": 1840,
      "Ġrec": 1841,
      "Ġisinstance": 1842,
      "ĠgÃ¶z": 1843,
      "amp": 1844,
      "ote": 1845,
      "Ġistiyor": 1846,
      "Ġshow": 1847,
      "ceÄŁ": 1848,
      "Ġdire": 1849,
      "Ġthings": 1850,
      "ĠgÃ¶rÃ¼n": 1851,
      "Ä°yi": 1852,
      "Ġsav": 1853,
      "Ġkind": 1854,
      "Ġacc": 1855,
      "Ġopen": 1856,
      "Ġcontext": 1857,
      "ĠĠĠĠĠĠĠĠĠĠĠĠĠ": 1858,
      "Ġaz": 1859,
      "ually": 1860,
      "ĠÅŁeyi": 1861,
      "Ġsign": 1862,
      "Ġstat": 1863,
      "():": 1864,
      "Ġyem": 1865,
      "ĠOh": 1866,
      "Ġtaraf": 1867,
      "aw": 1868,
      "Ġaround": 1869,
      "ĠyÄ±l": 1870,
      "Ġiy": 1871,
      "enden": 1872,
      "Neden": 1873,
      "Ġbun": 1874,
      "cc": 1875,
      "tra": 1876,
      "ected": 1877,
      "obj": 1878,
      "Ġiki": 1879,
      "arÄ±m": 1880,
      "ceÄŁim": 1881,
      "Are": 1882,
      "Ä±ÄŁÄ±": 1883,
      "Ġona": 1884,
      "Hadi": 1885,
      "dur": 1886,
      "Ġbeing": 1887,
      "ĠsÃ¼r": 1888,
      "Ġbelieve": 1889,
      "ian": 1890,
      "info": 1891,
      "opy": 1892,
      "Ġbiri": 1893,
      "REE": 1894,
      "mes": 1895,
      "stand": 1896,
      "eceÄŁ": 1897,
      "land": 1898,
      "Ġyears": 1899,
      "Ġdec": 1900,
      "dÄ±m": 1901,
      "gin": 1902,
      "Where": 1903,
      "ew": 1904,
      "Ġdone": 1905,
      "Ġown": 1906,
      "Ġloc": 1907,
      "IGHT": 1908,
      "Bak": 1909,
      "lass": 1910,
      "Ġyaz": 1911,
      "ope": 1912,
      "Ġ.": 1913,
      "Ġchild": 1914,
      "ĠValueError": 1915,
      "Can": 1916,
      "Kim": 1917,
      "tÄ±n": 1918,
      "Ġgreat": 1919,
      "ful": 1920,
      "Ã¼st": 1921,
      "its": 1922,
      "ons": 1923,
      "ama": 1924,
      "of": 1925,
      "rar": 1926,
      "Return": 1927,
      "yp": 1928,
      "Bil": 1929,
      "Ġplace": 1930,
      "Ġnothing": 1931,
      "Bel": 1932,
      "Ġnext": 1933,
      "ST": 1934,
      "Ã¼tÃ¼n": 1935,
      "Ġresp": 1936,
      "ĠbaÄŁ": 1937,
      "########": 1938,
      "ious": 1939,
      "ĠkÃ¶tÃ¼": 1940,
      "string": 1941,
      "EÄŁer": 1942,
      "ĠSh": 1943,
      "ĠHayÄ±r": 1944,
      "Ġfazla": 1945,
      "eli": 1946,
      "Ġcour": 1947,
      "write": 1948,
      "ĠÅŁimdi": 1949,
      "ister": 1950,
      "format": 1951,
      "Ġkork": 1952,
      "yon": 1953,
      "Ġsah": 1954,
      "ors": 1955,
      "ĠdoÄŁru": 1956,
      "ffer": 1957,
      "ved": 1958,
      "ĠPython": 1959,
      "ready": 1960,
      "OL": 1961,
      "When": 1962,
      "ole": 1963,
      "sw": 1964,
      "Ġdiye": 1965,
      "start": 1966,
      "dd": 1967,
      "bo": 1968,
      "erede": 1969,
      "DE": 1970,
      "net": 1971,
      "Ġihtiyac": 1972,
      "Ġph": 1973,
      "unc": 1974,
      "Ġinde": 1975,
      "ĠAl": 1976,
      "ĠĠĠĠĠĠĠĠĠĠĠĠĠĠ": 1977,
      "Ġbiliyorum": 1978,
      "Ġalso": 1979,
      "Ġcase": 1980,
      "alÄ±y": 1981,
      "Ġinst": 1982,
      "Siz": 1983,
      "Ġhav": 1984,
      "method": 1985,
      "ical": 1986,
      "Ġoper": 1987,
      "Ġprot": 1988,
      "BaÅŁ": 1989,
      "Pek": 1990,
      "ĠsaÄŁ": 1991,
      "use": 1992,
      "ĠThat": 1993,
      "isin": 1994,
      "col": 1995,
      "eyi": 1996,
      "ĠgÃ¶ster": 1997,
      "''": 1998,
      "Ġkaz": 1999,
      "ete": 2000,
      "Hay": 2001,
      "OT": 2002,
      "aÄŁÄ±": 2003,
      "ush": 2004,
      "Ġbah": 2005,
      "sub": 2006,
      "lear": 2007,
      "Ġav": 2008,
      "Ġits": 2009,
      "Ã¼nÃ¼": 2010,
      "sÄ±nÄ±z": 2011,
      "iyle": 2012,
      "'),": 2013,
      "Ġguys": 2014,
      "ÃĩÃ¼nkÃ¼": 2015,
      "member": 2016,
      "Ã¼Ã§Ã¼k": 2017,
      "Ġbig": 2018,
      "Ġvers": 2019,
      "Ġsy": 2020,
      "ĠdÄ±ÅŁ": 2021,
      "Ġhaz": 2022,
      "Ġkullan": 2023,
      "ĠQ": 2024,
      "Ġinter": 2025,
      "plit": 2026,
      "Ġeverything": 2027,
      "Ġmod": 2028,
      "Ġgece": 2029,
      "fe": 2030,
      "Ġcheck": 2031,
      "ĠOn": 2032,
      "10": 2033,
      "HiÃ§": 2034,
      "urt": 2035,
      "Ġnames": 2036,
      "asÄ±nÄ±": 2037,
      "bilir": 2038,
      "tor": 2039,
      "ves": 2040,
      "Ġfollow": 2041,
      "Ġplease": 2042,
      "ified": 2043,
      "Ġdirect": 2044,
      "Ġalready": 2045,
      "abil": 2046,
      "co": 2047,
      "Ġfark": 2048,
      "Ġmoney": 2049,
      "unk": 2050,
      "pack": 2051,
      "ating": 2052,
      "ĠBO": 2053,
      "Sor": 2054,
      "py": 2055,
      "ier": 2056,
      "ONT": 2057,
      "ĠdÃ¼ÅŁÃ¼nÃ¼yor": 2058,
      "Ġ?": 2059,
      "San": 2060,
      "imes": 2061,
      "util": 2062,
      "ĠkiÅŁ": 2063,
      "Ġtem": 2064,
      "Ġfam": 2065,
      "ĠistediÄŁ": 2066,
      "Yani": 2067,
      "word": 2068,
      "Ġplay": 2069,
      "Ġhear": 2070,
      "****": 2071,
      "Ġkill": 2072,
      "Ãĸyle": 2073,
      "nin": 2074,
      "ĠartÄ±k": 2075,
      "spec": 2076,
      "Ġgiven": 2077,
      "Ġfil": 2078,
      "ĠÅŁek": 2079,
      "red": 2080,
      "Ġwom": 2081,
      "diÄŁim": 2082,
      "Ġum": 2083,
      "ters": 2084,
      "INGS": 2085,
      "tribute": 2086,
      "Ġlot": 2087,
      "ĠAND": 2088,
      "asÄ±n": 2089,
      "hand": 2090,
      "les": 2091,
      "Ġbad": 2092,
      "urs": 2093,
      "Ġoluyor": 2094,
      "acaÄŁÄ±z": 2095,
      "erhaba": 2096,
      "Ġturn": 2097,
      "oup": 2098,
      "Åŀu": 2099,
      "daki": 2100,
      "Ġmight": 2101,
      "fendim": 2102,
      "Ã¶z": 2103,
      "ĠsÃ¶yley": 2104,
      "ĠÃ§Ä±kar": 2105,
      "Ġanother": 2106,
      "Ã¢l": 2107,
      "Ġweek": 2108,
      "eyim": 2109,
      "True": 2110,
      "kw": 2111,
      "Ġkayb": 2112,
      "Ġdiffer": 2113,
      "Ġsak": 2114,
      "Ġfr": 2115,
      "head": 2116,
      "ĠhayÄ±r": 2117,
      "siniz": 2118,
      "be": 2119,
      "uct": 2120,
      "False": 2121,
      "bug": 2122,
      "Ġunderstand": 2123,
      "ates": 2124,
      "ĠhoÅŁ": 2125,
      "Ġsur": 2126,
      "Ġstand": 2127,
      "Ġcls": 2128,
      "Did": 2129,
      "Your": 2130,
      "blem": 2131,
      "md": 2132,
      "ocket": 2133,
      "the": 2134,
      "Ġdav": 2135,
      "ried": 2136,
      "exp": 2137,
      "TP": 2138,
      "],": 2139,
      "ĠÃ¶ÄŁr": 2140,
      "Ġbytes": 2141,
      "ynÄ±": 2142,
      "85": 2143,
      "elen": 2144,
      "ĠhiÃ§bir": 2145,
      "Ġsecond": 2146,
      "Ġrep": 2147,
      "utes": 2148,
      "ĠdeÄŁiÅŁ": 2149,
      "RAW": 2150,
      "til": 2151,
      "Ġanlam": 2152,
      "ĠSIG": 2153,
      "04": 2154,
      "join": 2155,
      "lob": 2156,
      "Ġ@": 2157,
      "default": 2158,
      "Senin": 2159,
      "Ä°ÅŁte": 2160,
      "dik": 2161,
      "uff": 2162,
      "Ġdurum": 2163,
      "oÄŁ": 2164,
      "Ġgitt": 2165,
      "Ġdead": 2166,
      "ĠĠĠĠĠĠĠĠĠĠĠĠĠĠĠĠĠĠĠĠĠĠĠĠĠĠĠĠĠĠĠĠ": 2167,
      "sÄ±z": 2168,
      "Ġisn": 2169,
      "new": 2170,
      "ular": 2171,
      "Ġdemek": 2172,
      "ĠFr": 2173,
      "Ġbest": 2174,
      "Ġ10": 2175,
      "emen": 2176,
      "ĠDRAW": 2177,
      "Ġprint": 2178,
      "ĠBOX": 2179,
      "ĠDRAWINGS": 2180,
      "Ġister": 2181,
      "sc": 2182,
      "Ġsir": 2183,
      "Ä°n": 2184,
      "dam": 2185,
      "ĠaÃ§Ä±k": 2186,
      "ude": 2187,
      "ĠyaptÄ±ÄŁ": 2188,
      "iÄŁi": 2189,
      "ĠÃ¼zer": 2190,
      "Good": 2191,
      "asÄ±nda": 2192,
      "ĠSen": 2193,
      "Ġpay": 2194,
      "'.": 2195,
      "ici": 2196,
      "abile": 2197,
      "dÄ±n": 2198,
      "ined": 2199,
      "Ã§a": 2200,
      "erson": 2201,
      "Ġ!=": 2202,
      "ĠgerÃ§ekten": 2203,
      "ised": 2204,
      "lerin": 2205,
      "Ġparam": 2206,
      "REEK": 2207,
      "Ger": 2208,
      "adÄ±": 2209,
      "ĠGREEK": 2210,
      "Ġrel": 2211,
      "ih": 2212,
      "Ġmet": 2213,
      "Thank": 2214,
      "loc": 2215,
      "ene": 2216,
      "stem": 2217,
      "Ġolsun": 2218,
      "ĠhakkÄ±nda": 2219,
      "Ġargs": 2220,
      "========": 2221,
      "Ġsch": 2222,
      "Ġcount": 2223,
      "Then": 2224,
      "Ġsal": 2225,
      "OW": 2226,
      "kes": 2227,
      "ĠARA": 2228,
      "Ġder": 2229,
      "Ġmost": 2230,
      "Ġmessage": 2231,
      "leÅŁ": 2232,
      "ĠĠĠĠĠĠ": 2233,
      "Ġcame": 2234,
      "ĠBr": 2235,
      "main": 2236,
      "Ġwrong": 2237,
      "Burada": 2238,
      "BIC": 2239,
      "Ġhell": 2240,
      "Ġleave": 2241,
      "masÄ±": 2242,
      "ĠARABIC": 2243,
      "mÃ¼ÅŁ": 2244,
      "lardan": 2245,
      "Ġstay": 2246,
      "Ġexc": 2247,
      "Ġmiss": 2248,
      "ĠsÃ¼re": 2249,
      "Ġediyor": 2250,
      "Ġtu": 2251,
      "Ġdak": 2252,
      "Ġproblem": 2253,
      "\".": 2254,
      "num": 2255,
      "Ġmeet": 2256,
      "Ġsaat": 2257,
      "Ã¼nde": 2258,
      "Ġcor": 2259,
      "Ġcoming": 2260,
      "ĠyÃ¼zden": 2261,
      "Ġmen": 2262,
      "RI": 2263,
      "Belki": 2264,
      "mon": 2265,
      "99": 2266,
      "eg": 2267,
      "Ġ**": 2268,
      "lÃ¼": 2269,
      "Ġ[]": 2270,
      "ĠsÄ±r": 2271,
      "Ġreg": 2272,
      "abii": 2273,
      "Ġes": 2274,
      "Ġsel": 2275,
      "ĠUn": 2276,
      "ĠgÃ¼ven": 2277,
      "ml": 2278,
      "rc": 2279,
      "Ġdoc": 2280,
      "tÃ¼r": 2281,
      "ĠX": 2282,
      "rip": 2283,
      "'):": 2284,
      "ead": 2285,
      "BLE": 2286,
      "EF": 2287,
      "bar": 2288,
      "Peki": 2289,
      "ception": 2290,
      "ran": 2291,
      "Ġyeni": 2292,
      "Ġdict": 2293,
      "Ġner": 2294,
      "aster": 2295,
      "Ġoption": 2296,
      "Ġwanted": 2297,
      "Ġnode": 2298,
      "Ġolmak": 2299,
      "ĠhazÄ±r": 2300,
      "mayÄ±": 2301,
      "aten": 2302,
      "oke": 2303,
      "cls": 2304,
      "Ġmany": 2305,
      "Ġframe": 2306,
      "Ġdost": 2307,
      "ift": 2308,
      "Ġmatch": 2309,
      "Ġ6": 2310,
      "For": 2311,
      "Ġatt": 2312,
      "Ġtrying": 2313,
      "ĠSIGN": 2314,
      "ither": 2315,
      "Ġcare": 2316,
      "Ġsupport": 2317,
      "Ġcourse": 2318,
      "abel": 2319,
      "Ġort": 2320,
      "Ġederim": 2321,
      "Ġ:": 2322,
      "ache": 2323,
      "ĠYeah": 2324,
      "son": 2325,
      "Ġthree": 2326,
      "deÅŁ": 2327,
      "ward": 2328,
      "Ġhouse": 2329,
      "Ġtrue": 2330,
      "Ġbuld": 2331,
      "Ġbin": 2332,
      "Ġmor": 2333,
      "less": 2334,
      "ecut": 2335,
      "gether": 2336,
      "CK": 2337,
      "frame": 2338,
      "Ġtrans": 2339,
      "ever": 2340,
      "Ġmat": 2341,
      "Ġmut": 2342,
      "Ġenough": 2343,
      "Ġtel": 2344,
      "Ġmer": 2345,
      "Ġrest": 2346,
      "ormal": 2347,
      "VE": 2348,
      "Ġhard": 2349,
      "gth": 2350,
      "Ä±yoruz": 2351,
      "root": 2352,
      "version": 2353,
      "Ġcurrent": 2354,
      "Ġ`": 2355,
      "any": 2356,
      "Ġmom": 2357,
      "Ġfather": 2358,
      "url": 2359,
      "Ġanlat": 2360,
      "Ġwithout": 2361,
      "Ġsil": 2362,
      "reg": 2363,
      "ilde": 2364,
      "Ġworld": 2365,
      "AM": 2366,
      "lÃ¼yor": 2367,
      "Ã¢lÃ¢": 2368,
      "ĠteÅŁ": 2369,
      "Ġroom": 2370,
      "Ġpl": 2371,
      "Ġmsg": 2372,
      "var": 2373,
      "Ġkoy": 2374,
      "edir": 2375,
      "Ġide": 2376,
      "Ġizin": 2377,
      "Ġnerede": 2378,
      "char": 2379,
      "Ġindex": 2380,
      "Ġfine": 2381,
      "ĠDecimal": 2382,
      "Ġargument": 2383,
      "lÄ±nda": 2384,
      "ĠdÃ¼n": 2385,
      "ĠkadÄ±n": 2386,
      "ĠsÃ¶z": 2387,
      "ason": 2388,
      "ocol": 2389,
      "iydi": 2390,
      "Ġtalking": 2391,
      "Ä±sÄ±": 2392,
      "ane": 2393,
      "ĠBay": 2394,
      "nÄ±n": 2395,
      "Ġoy": 2396,
      "ĠBut": 2397,
      "ific": 2398,
      "Ġyat": 2399,
      "ĠTH": 2400,
      "Ġsomeone": 2401,
      "context": 2402,
      "ks": 2403,
      "Ġbar": 2404,
      "Ġmother": 2405,
      "Ġword": 2406,
      "Ġdest": 2407,
      "Test": 2408,
      "Ġ8": 2409,
      "und": 2410,
      "Go": 2411,
      "lock": 2412,
      "ample": 2413,
      "ette": 2414,
      "medi": 2415,
      "Ġtogether": 2416,
      "Ġgetting": 2417,
      "resent": 2418,
      "iew": 2419,
      "Ġgeldi": 2420,
      "Ġhappened": 2421,
      "gili": 2422,
      "win": 2423,
      "ĠiÃ§inde": 2424,
      "ual": 2425,
      "vert": 2426,
      "Ġseen": 2427,
      "Ġlooking": 2428,
      "cak": 2429,
      "Ġdist": 2430,
      "anrÄ±m": 2431,
      "OM": 2432,
      "Ġpack": 2433,
      "Onun": 2434,
      "ĠhatÄ±r": 2435,
      "Gel": 2436,
      "Ġrem": 2437,
      "Ġeach": 2438,
      "iÄŁer": 2439,
      "crement": 2440,
      "At": 2441,
      "mesi": 2442,
      "inen": 2443,
      "ĠTamam": 2444,
      "Ġsource": 2445,
      "ness": 2446,
      "Ġformat": 2447,
      "split": 2448,
      "Ġmar": 2449,
      "Ġtop": 2450,
      "Ever": 2451,
      "Ġik": 2452,
      "Ġgeliyor": 2453,
      "ede": 2454,
      "iden": 2455,
      "ling": 2456,
      "oot": 2457,
      "ese": 2458,
      "Ġwasn": 2459,
      "Ġfamily": 2460,
      "Ġtyp": 2461,
      "Ġsl": 2462,
      "ative": 2463,
      "ĠolmalÄ±": 2464,
      "Daha": 2465,
      "Ã¶l": 2466,
      "Ġsuch": 2467,
      "El": 2468,
      "Ġtat": 2469,
      "ison": 2470,
      "Ġ+=": 2471,
      "met": 2472,
      "rist": 2473,
      "work": 2474,
      "ĠkÃ¼Ã§Ã¼k": 2475,
      "OUBLE": 2476,
      "ĠvardÄ±": 2477,
      "\":": 2478,
      "Ġinstance": 2479,
      "ĠaÄŁ": 2480,
      "anna": 2481,
      "ĠsuÃ§": 2482,
      "gÃ¼nÃ¼m": 2483,
      "oo": 2484,
      "ĠHey": 2485,
      "Maybe": 2486,
      "Ġsat": 2487,
      "idth": 2488,
      "Ġuntil": 2489,
      "Ġpoint": 2490,
      "Ġorder": 2491,
      "Ġayr": 2492,
      "ery": 2493,
      "Ġfull": 2494,
      "Ġtopl": 2495,
      "Ġuh": 2496,
      "ĠÃ¶nem": 2497,
      "Ġtuple": 2498,
      "[:": 2499,
      "Ġwidget": 2500,
      "().": 2501,
      "Ġsorun": 2502,
      "ds": 2503,
      "oun": 2504,
      "ĠDOUBLE": 2505,
      "ĠgÃ¶rÃ¼ÅŁ": 2506,
      "Ġmonth": 2507,
      "Ġcharac": 2508,
      "ĠÃ¼st": 2509,
      "Ä±Ã§": 2510,
      "state": 2511,
      "Ġpick": 2512,
      "Ä±ma": 2513,
      "Ä±zÄ±": 2514,
      "aut": 2515,
      "dun": 2516,
      "Ġboth": 2517,
      "ify": 2518,
      "del": 2519,
      "ĠÅŀ": 2520,
      "Ġlaz": 2521,
      "Ġcont": 2522,
      "Ġgerekiyor": 2523,
      "Ġilk": 2524,
      "Ġversion": 2525,
      "Please": 2526,
      "ĠlÃ¼tfen": 2527,
      "open": 2528,
      "11": 2529,
      "acaÄŁÄ±nÄ±": 2530,
      "Ġbizim": 2531,
      "=\"": 2532,
      "Ġ'\"": 2533,
      "pty": 2534,
      "kat": 2535,
      "ĠâĻª": 2536,
      "Ġbor": 2537,
      "06": 2538,
      "ped": 2539,
      "ayacak": 2540,
      "item": 2541,
      "umu": 2542,
      "ersin": 2543,
      "Ġchang": 2544,
      "Ġusing": 2545,
      "Ġdes": 2546,
      "meyi": 2547,
      "Ãĸz": 2548,
      "anet": 2549,
      "Ġnice": 2550,
      "ady": 2551,
      "Ġburaya": 2552,
      "ENT": 2553,
      "Ġdir": 2554,
      "Ġyear": 2555,
      "Yap": 2556,
      "Ġfilename": 2557,
      "Ġremember": 2558,
      "eme": 2559,
      "ahat": 2560,
      "ello": 2561,
      "Ġjob": 2562,
      "likte": 2563,
      "Ġdok": 2564,
      "ouble": 2565,
      "msg": 2566,
      "Ġhour": 2567,
      "Ġemin": 2568,
      "ohn": 2569,
      "elam": 2570,
      "nder": 2571,
      "pro": 2572,
      "ĠReturn": 2573,
      "Ġclose": 2574,
      "Un": 2575,
      "date": 2576,
      "alarÄ±": 2577,
      "Ġposs": 2578,
      "map": 2579,
      "ĠNot": 2580,
      "cremental": 2581,
      "kek": 2582,
      "part": 2583,
      "ĠDo": 2584,
      "Ġcons": 2585,
      "Ġimplement": 2586,
      "gram": 2587,
      "Ġkor": 2588,
      "Ġtoday": 2589,
      "'))": 2590,
      "Ġhep": 2591,
      "ĠdeÄŁilim": 2592,
      "fr": 2593,
      "aln": 2594,
      "Ġorada": 2595,
      "Bun": 2596,
      "NasÄ±l": 2597,
      "ĠÃĩ": 2598,
      "uÄŁu": 2599,
      "for": 2600,
      "Ã¼ne": 2601,
      "azÄ±": 2602,
      "ĠFor": 2603,
      "Ġdevam": 2604,
      "Ġpret": 2605,
      "Ġwent": 2606,
      "alÄ±k": 2607,
      "Ġinv": 2608,
      "uments": 2609,
      "ident": 2610,
      "gel": 2611,
      "node": 2612,
      "ĠHow": 2613,
      "Ġcontain": 2614,
      "List": 2615,
      "Ġlog": 2616,
      "Ġkab": 2617,
      "Ġbase": 2618,
      "config": 2619,
      "command": 2620,
      "Equal": 2621,
      "SE": 2622,
      "Here": 2623,
      "ĠtÃ¼m": 2624,
      "Ġgide": 2625,
      "Ġcontin": 2626,
      "plic": 2627,
      "ina": 2628,
      "andÄ±r": 2629,
      "ĠkarÅŁÄ±": 2630,
      "Ġvur": 2631,
      "ended": 2632,
      "())": 2633,
      "pace": 2634,
      "ron": 2635,
      "inal": 2636,
      "(),": 2637,
      "Bab": 2638,
      "bers": 2639,
      "filename": 2640,
      "iable": 2641,
      "no": 2642,
      "Ġsim": 2643,
      "Ġefendim": 2644,
      "ĠseÃ§": 2645,
      "ĠmÄ±sÄ±n": 2646,
      "Ġetmek": 2647,
      "aug": 2648,
      "ĠsÃ¶ylÃ¼yor": 2649,
      "Ġperson": 2650,
      "Ġsaw": 2651,
      "SanÄ±rÄ±m": 2652,
      "umuz": 2653,
      "ĠĠĠĠĠĠĠĠĠĠĠĠĠĠĠĠĠĠĠĠĠĠĠĠĠĠĠ": 2654,
      "ĠsÃ¶yledi": 2655,
      "ared": 2656,
      "ÅŁey": 2657,
      "lags": 2658,
      "Ġliv": 2659,
      "Ġknew": 2660,
      "valid": 2661,
      "alnÄ±z": 2662,
      "Ġfucking": 2663,
      "Ġear": 2664,
      "ĠeÄŁ": 2665,
      "ĠÃ§Ã¼nkÃ¼": 2666,
      "ĠlazÄ±m": 2667,
      "Ã¼c": 2668,
      "adÄ±m": 2669,
      "Ġyourself": 2670,
      "coder": 2671,
      "ĠteÅŁekkÃ¼r": 2672,
      "Ġheader": 2673,
      "ĠÅŁekilde": 2674,
      "ID": 2675,
      "LÃ¼tfen": 2676,
      "ape": 2677,
      "Ġbuild": 2678,
      "host": 2679,
      "Ġkol": 2680,
      "Ġbey": 2681,
      "aret": 2682,
      "Ġmov": 2683,
      "Ġfik": 2684,
      "close": 2685,
      "12": 2686,
      "32": 2687,
      "Im": 2688,
      "gn": 2689,
      "Ġ7": 2690,
      "ĠaynÄ±": 2691,
      "Ġbec": 2692,
      "Ġ\"__": 2693,
      "Ġguess": 2694,
      "osed": 2695,
      "lÄ±yor": 2696,
      "Ġprocess": 2697,
      "ĠyÃ¶": 2698,
      "Ġmind": 2699,
      "Ġtam": 2700,
      "()\"": 2701,
      "load": 2702,
      "Har": 2703,
      "Ġsend": 2704,
      "Ġhast": 2705,
      "iyiz": 2706,
      "Ġeder": 2707,
      "Ã¼s": 2708,
      "raw": 2709,
      "ĠgeÃ§ir": 2710,
      "yr": 2711,
      "ired": 2712,
      "kaÃ§": 2713,
      "mi": 2714,
      "Ġwar": 2715,
      "Ġ'.": 2716,
      "Ġind": 2717,
      "ĠiÅŁte": 2718,
      "ween": 2719,
      "ably": 2720,
      "Ġgener": 2721,
      "ctions": 2722,
      "off": 2723,
      "Ġ)": 2724,
      "Uh": 2725,
      "ng": 2726,
      "light": 2727,
      "Ġexception": 2728,
      "diÄŁini": 2729,
      "Ġsince": 2730,
      "encode": 2731,
      "Ġdesc": 2732,
      "larla": 2733,
      "ikkat": 2734,
      "ĠHar": 2735,
      "Com": 2736,
      "Ġkendi": 2737,
      "inizi": 2738,
      "Ġallow": 2739,
      "tik": 2740,
      "Ġspe": 2741,
      "Ġann": 2742,
      "ĠĠĠĠĠĠĠĠĠĠĠĠĠĠĠĠĠĠĠĠĠĠĠĠĠĠĠĠĠĠĠ": 2743,
      "Ġ200": 2744,
      "lere": 2745,
      "ĠtaÅŁ": 2746,
      "ĠsÄ±k": 2747,
      "Ġbeh": 2748,
      "Ġ{}": 2749,
      "Ġvalues": 2750,
      "base": 2751,
      "ica": 2752,
      "ĠAma": 2753,
      "Ġwouldn": 2754,
      "GerÃ§ek": 2755,
      "AN": 2756,
      "ĠAt": 2757,
      "Ona": 2758,
      "efon": 2759,
      "Ġmax": 2760,
      "edi": 2761,
      "itch": 2762,
      "sem": 2763,
      "Ġevent": 2764,
      "Ġaddress": 2765,
      "Ġsk": 2766,
      "opert": 2767,
      "teÅŁ": 2768,
      "ĠyapÄ±yor": 2769,
      "Ah": 2770,
      "akat": 2771,
      "ustom": 2772,
      "names": 2773,
      "idir": 2774,
      "index": 2775,
      "Ġonce": 2776,
      "usu": 2777,
      "raf": 2778,
      "Ġdakika": 2779,
      "Ġek": 2780,
      "Ġbody": 2781,
      "Ġmove": 2782,
      "Ġoyn": 2783,
      "Ġready": 2784,
      "Ġwoman": 2785,
      "Ġhigh": 2786,
      "Ġstate": 2787,
      "ĠLord": 2788,
      "ĠDr": 2789,
      "Ġolmaz": 2790,
      "rary": 2791,
      "Ġdet": 2792,
      "dis": 2793,
      "ayet": 2794,
      "Ġdifferent": 2795,
      "ĠonlarÄ±": 2796,
      "Ġwhole": 2797,
      "pend": 2798,
      "abb": 2799,
      "prefix": 2800,
      "Ġidea": 2801,
      "Ġsing": 2802,
      "org": 2803,
      "Ġkaf": 2804,
      "iyet": 2805,
      "Ġprom": 2806,
      "ott": 2807,
      "play": 2808,
      "ilerim": 2809,
      "Ġthank": 2810,
      "Ġmes": 2811,
      "UM": 2812,
      "Ġbunun": 2813,
      "Ġdays": 2814,
      "859": 2815,
      "larÄ±m": 2816,
      "Um": 2817,
      "Ġitem": 2818,
      "check": 2819,
      "Ä±yla": 2820,
      "Ġprov": 2821,
      "IL": 2822,
      "Ġbetween": 2823,
      "CE": 2824,
      "ann": 2825,
      "onse": 2826,
      "aces": 2827,
      "Ġencoding": 2828,
      "utils": 2829,
      "8859": 2830,
      ":\\": 2831,
      "Ġsab": 2832,
      "Ġhaber": 2833,
      "Ġstack": 2834,
      "(_": 2835,
      "Bunun": 2836,
      "Ev": 2837,
      "doc": 2838,
      "ru": 2839,
      "Ġod": 2840,
      "uture": 2841,
      "oken": 2842,
      "ĠÃ¶ÄŁren": 2843,
      "cel": 2844,
      "gi": 2845,
      "asÄ±na": 2846,
      "izi": 2847,
      "ĠolduÄŁu": 2848,
      "Ġkw": 2849,
      "Ġcomple": 2850,
      "AD": 2851,
      "Dur": 2852,
      "source": 2853,
      "Ġcook": 2854,
      "eyse": 2855,
      "Ġfar": 2856,
      "ution": 2857,
      "Ġlive": 2858,
      "ĠÅŁans": 2859,
      "Ġunut": 2860,
      "mm": 2861,
      "right": 2862,
      "ized": 2863,
      "Ä±ÄŁÄ±nÄ±": 2864,
      "Ġmaybe": 2865,
      "Ġwanna": 2866,
      "ots": 2867,
      "ineno": 2868,
      "Ġdin": 2869,
      "ĠMar": 2870,
      "IGIT": 2871,
      "medim": 2872,
      "Ġsit": 2873,
      "Ġfight": 2874,
      "ĠdoÄŁ": 2875,
      "GÃ¶r": 2876,
      "leep": 2877,
      "typ": 2878,
      "Ġlib": 2879,
      "Ġrequest": 2880,
      "ĠolmadÄ±ÄŁ": 2881,
      "--------------------------------": 2882,
      "ient": 2883,
      "ature": 2884,
      "Ġotur": 2885,
      "Ġmeans": 2886,
      "Ġilgili": 2887,
      "Because": 2888,
      "Pr": 2889,
      "ĠDIGIT": 2890,
      "rib": 2891,
      "Ġbiliyorsun": 2892,
      "uyorum": 2893,
      "Ġtook": 2894,
      "ĠDon": 2895,
      "Ġzam": 2896,
      "Biraz": 2897,
      "Ġgotta": 2898,
      "Ġfiles": 2899,
      "ĠdÃ¼ÅŁÃ¼nd": 2900,
      "Ġbaby": 2901,
      "si": 2902,
      "wise": 2903,
      "Ġyani": 2904,
      "Ġconn": 2905,
      "ures": 2906,
      "Ġswe": 2907,
      "Ġmiyim": 2908,
      "ision": 2909,
      "decode": 2910,
      "rect": 2911,
      "Ġwatch": 2912,
      "Ġnon": 2913,
      "ypeError": 2914,
      "angi": 2915,
      "lines": 2916,
      "Ġdilerim": 2917,
      "Ġbilmiyorum": 2918,
      "Bay": 2919,
      "Ã¼nden": 2920,
      "Ġparent": 2921,
      "iet": 2922,
      "Ġbize": 2923,
      "rem": 2924,
      "ÄŁl": 2925,
      "//": 2926,
      "ĠâĢ": 2927,
      "acaksÄ±n": 2928,
      "kan": 2929,
      "aydÄ±": 2930,
      "ĠCon": 2931,
      "Ġexist": 2932,
      "lim": 2933,
      "ilik": 2934,
      "resp": 2935,
      "Ġobjects": 2936,
      "where": 2937,
      "Ġmah": 2938,
      "ically": 2939,
      "Ä°Ã§": 2940,
      "diÄŁi": 2941,
      "Ġmorning": 2942,
      "emek": 2943,
      "process": 2944,
      "Ġactually": 2945,
      "run": 2946,
      "Ġwrite": 2947,
      "sl": 2948,
      "ited": 2949,
      "Ġalt": 2950,
      "roy": 2951,
      "odec": 2952,
      "Ġgidiyor": 2953,
      "Hand": 2954,
      "IZ": 2955,
      "Ġsent": 2956,
      "quence": 2957,
      "operty": 2958,
      "Name": 2959,
      "Ġyeah": 2960,
      "Ġvere": 2961,
      "Ġhaf": 2962,
      "Ġblock": 2963,
      "Ġmatter": 2964,
      "OS": 2965,
      "Ġdinle": 2966,
      "Ġbirlikte": 2967,
      "ĠAmer": 2968,
      "ĠgÃ¶tÃ¼r": 2969,
      "ĠÃ¼Ã§": 2970,
      "ĠbÃ¼tÃ¼n": 2971,
      "Ġhold": 2972,
      "likle": 2973,
      "?\"": 2974,
      "Ġber": 2975,
      "rec": 2976,
      "Ġistiyorsun": 2977,
      "iÄŁini": 2978,
      "Ġmode": 2979,
      "Ġsaying": 2980,
      "Ġquest": 2981,
      "Ġgen": 2982,
      "ptal": 2983,
      "Ġincl": 2984,
      "Ġlines": 2985,
      "ĠSo": 2986,
      "ĠuÄŁr": 2987,
      "Ġuser": 2988,
      "sign": 2989,
      "ĠIs": 2990,
      "Ġheard": 2991,
      "Ġdostum": 2992,
      "Kar": 2993,
      "Ġ\\": 2994,
      "stat": 2995,
      "Ġkes": 2996,
      "Ġdeal": 2997,
      "Ġbulun": 2998,
      "IR": 2999,
      "fd": 3000,
      "repr": 3001,
      "amer": 3002,
      "Ġeither": 3003,
      "Ġistemiyorum": 3004,
      "Mr": 3005,
      "Ya": 3006,
      "Ġwalk": 3007,
      "amed": 3008,
      "Ġheart": 3009,
      "Ġshall": 3010,
      "Ġasla": 3011,
      "ĠEx": 3012,
      "Ġchange": 3013,
      "Ġoutput": 3014,
      "options": 3015,
      "Kend": 3016,
      "nun": 3017,
      "Ġpri": 3018,
      "ĠeÅŁ": 3019,
      "ĠkardeÅŁ": 3020,
      "ression": 3021,
      "ArtÄ±k": 3022,
      "Ġhey": 3023,
      "ĠOr": 3024,
      "To": 3025,
      "Ġalone": 3026,
      "Merhaba": 3027,
      "find": 3028,
      "encoding": 3029,
      "Ġlost": 3030,
      "Pekala": 3031,
      "Ġpretty": 3032,
      "AS": 3033,
      "CT": 3034,
      "mb": 3035,
      "uma": 3036,
      "Ġbuy": 3037,
      "Ġassert": 3038,
      "Ãľz": 3039,
      "Ġkilled": 3040,
      "io": 3041,
      "ĠPr": 3042,
      "Ġload": 3043,
      "Ġago": 3044,
      "OP": 3045,
      "bably": 3046,
      "007": 3047,
      "ĠolmuÅŁ": 3048,
      "can": 3049,
      "enin": 3050,
      "ĠOkay": 3051,
      "ket": 3052,
      "tp": 3053,
      "Ġdri": 3054,
      "struct": 3055,
      "input": 3056,
      "anda": 3057,
      "bytes": 3058,
      "sted": 3059,
      "ĠkÄ±r": 3060,
      "Ġyeter": 3061,
      "eÅŁekkÃ¼r": 3062,
      "ĠyÃ¼k": 3063,
      "Ġfix": 3064,
      "endir": 3065,
      "006": 3066,
      "oss": 3067,
      "Ġfew": 3068,
      "Ġschool": 3069,
      "mod": 3070,
      "siz": 3071,
      "result": 3072,
      "Ġobj": 3073,
      "ÅŁam": 3074,
      "Ġins": 3075,
      "aps": 3076,
      "Ġbuil": 3077,
      "ĠgÃ¶nder": 3078,
      "Ã¼ÄŁÃ¼m": 3079,
      "Ġbekle": 3080,
      "apped": 3081,
      "Wait": 3082,
      "malÄ±y": 3083,
      "ray": 3084,
      "Ġwife": 3085,
      "Ġfield": 3086,
      "Ġshit": 3087,
      "esinlikle": 3088,
      "assertEqual": 3089,
      "ern": 3090,
      "Ġsays": 3091,
      "Ġcodecs": 3092,
      "QU": 3093,
      "ĠIS": 3094,
      "ention": 3095,
      "Ġhaven": 3096,
      "005": 3097,
      "tag": 3098,
      "Ġmethods": 3099,
      "Ġkan": 3100,
      "ĠCom": 3101,
      "004": 3102,
      "ĠRIGHT": 3103,
      "Ġ12": 3104,
      "Ġinput": 3105,
      "ĠYes": 3106,
      "Ġey": 3107,
      "ĠÃ¶nemli": 3108,
      "Ġclear": 3109,
      "âĢĻ": 3110,
      "GÃ¼zel": 3111,
      "dÃ¼": 3112,
      "Ġbring": 3113,
      "Ġaff": 3114,
      "Ã¼p": 3115,
      "Ġonlar": 3116,
      "Ġexact": 3117,
      "ORM": 3118,
      "LO": 3119,
      "vir": 3120,
      "ĠbÃ¶l": 3121,
      "Ġmyself": 3122,
      "ĠsavaÅŁ": 3123,
      "Tek": 3124,
      "\\\\": 3125,
      "ĠOS": 3126,
      "mÄ±yorum": 3127,
      "ĠShe": 3128,
      "ĠuÃ§": 3129,
      "Ġtane": 3130,
      "ĠNew": 3131,
      "Par": 3132,
      "Ġhost": 3133,
      "Ġ'__": 3134,
      "ires": 3135,
      "liyor": 3136,
      "ms": 3137,
      "meden": 3138,
      "ral": 3139,
      "Ġmark": 3140,
      "oper": 3141,
      "ĠgÃ¶rÃ¼nÃ¼yor": 3142,
      "lean": 3143,
      "keys": 3144,
      "pat": 3145,
      "Ġfl": 3146,
      "Ġeq": 3147,
      "Ġbenz": 3148,
      "Right": 3149,
      "inc": 3150,
      "only": 3151,
      "Ġgone": 3152,
      "itle": 3153,
      "Ġlater": 3154,
      "lerim": 3155,
      "Ġediyorum": 3156,
      "Ġlisten": 3157,
      "Of": 3158,
      "most": 3159,
      "Ġbed": 3160,
      "21": 3161,
      "ĠgÃ¼Ã§": 3162,
      "ĠLEF": 3163,
      "Ġerkek": 3164,
      "Ġuzak": 3165,
      "Ġleast": 3166,
      "ĠLEFT": 3167,
      "ke": 3168,
      "ileri": 3169,
      "ceback": 3170,
      "Sonra": 3171,
      "lic": 3172,
      "Ġdiy": 3173,
      "att": 3174,
      "Ġmaster": 3175,
      "Ġkom": 3176,
      "Ġseri": 3177,
      "insert": 3178,
      "Ġuzun": 3179,
      "Ġ9": 3180,
      "Ġzaten": 3181,
      "buffer": 3182,
      "aa": 3183,
      "Ġyere": 3184,
      "level": 3185,
      "Ġcou": 3186,
      "Context": 3187,
      "Ġsort": 3188,
      "emem": 3189,
      "Ġcouldn": 3190,
      "lÄ±m": 3191,
      "Ġton": 3192,
      "ero": 3193,
      "Ġport": 3194,
      "ĠbakalÄ±m": 3195,
      "gan": 3196,
      "rep": 3197,
      "Ġcannot": 3198,
      "Ġcontinue": 3199,
      "64": 3200,
      "iver": 3201,
      "orrow": 3202,
      "Ġmain": 3203,
      "larÄ±na": 3204,
      "Ġvak": 3205,
      "parse": 3206,
      "imizi": 3207,
      "20": 3208,
      "UN": 3209,
      ")\\": 3210,
      "ech": 3211,
      "lerine": 3212,
      "Ġpara": 3213,
      "ged": 3214,
      "ĠÃĩok": 3215,
      "Ġface": 3216,
      "amÄ±yorum": 3217,
      "Ġwants": 3218,
      "apping": 3219,
      "param": 3220,
      "Ä±mÄ±zÄ±": 3221,
      "Ġinit": 3222,
      "Ġsizi": 3223,
      "Ġharika": 3224,
      "Ġglob": 3225,
      "Ġpek": 3226,
      "omb": 3227,
      "atever": 3228,
      "Ġarguments": 3229,
      "Ġoptions": 3230,
      "Ġagainst": 3231,
      "Ġhaving": 3232,
      "point": 3233,
      "ERT": 3234,
      "US": 3235,
      "ask": 3236,
      "ĠiÅŁe": 3237,
      "Ġstream": 3238,
      "Ġexecut": 3239,
      "Ġ19": 3240,
      "Ġedin": 3241,
      "ĠgÃ¶rmek": 3242,
      "Ġhisset": 3243,
      "Ġyoksa": 3244,
      "oe": 3245,
      "Ġaw": 3246,
      "Ġarab": 3247,
      "oz": 3248,
      "Ġvis": 3249,
      "arser": 3250,
      "Ġworking": 3251,
      "Ġ<=": 3252,
      "Ġsilah": 3253,
      "fin": 3254,
      "ĠBil": 3255,
      "One": 3256,
      "arak": 3257,
      "Ġdie": 3258,
      "Ġtoken": 3259,
      "Ġstuff": 3260,
      "ĠettiÄŁ": 3261,
      "Ġtekrar": 3262,
      "Ġeas": 3263,
      "ĠÃ¶ÄŁ": 3264,
      "ross": 3265,
      "Ġknows": 3266,
      "ultip": 3267,
      "ladÄ±": 3268,
      "ider": 3269,
      "ĠJack": 3270,
      "Ġhandle": 3271,
      "Some": 3272,
      "Ġwindow": 3273,
      "Ġflo": 3274,
      "Ġpower": 3275,
      "olog": 3276,
      "ĠWell": 3277,
      "Ġevet": 3278,
      "ladÄ±m": 3279,
      "ARK": 3280,
      "rew": 3281,
      "Ġkay": 3282,
      "Ġdol": 3283,
      "avaÅŁ": 3284,
      "Ġsoon": 3285,
      "yla": 3286,
      "Ġfact": 3287,
      "ĠHer": 3288,
      "Ä±ya": 3289,
      "address": 3290,
      "ĠdÃ¼ny": 3291,
      "[-": 3292,
      "but": 3293,
      "ili": 3294,
      "isini": 3295,
      "Ä±yordum": 3296,
      "Ġyapmak": 3297,
      "ĠRe": 3298,
      "Ġdam": 3299,
      "ics": 3300,
      "ĠAC": 3301,
      "Ġzorunda": 3302,
      "match": 3303,
      "Ä±cÄ±": 3304,
      "Ġaile": 3305,
      "Ġsleep": 3306,
      "debug": 3307,
      "lain": 3308,
      "psi": 3309,
      "Ġhurt": 3310,
      "Ġinform": 3311,
      "Ä±ca": 3312,
      "Ġblo": 3313,
      "othing": 3314,
      "ĠTypeError": 3315,
      "Ġdrink": 3316,
      "Ġkazan": 3317,
      "oid": 3318,
      "max": 3319,
      "Ġprogram": 3320,
      "abilirim": 3321,
      "viron": 3322,
      "vious": 3323,
      "Ġanda": 3324,
      "Ġnef": 3325,
      "003": 3326,
      "Ġattribute": 3327,
      "Ġsuper": 3328,
      "ipe": 3329,
      "ĠboÅŁ": 3330,
      "bette": 3331,
      "ides": 3332,
      "Ġserver": 3333,
      "Ġbizi": 3334,
      "sek": 3335,
      "eleri": 3336,
      "Ġinte": 3337,
      "Ä±ÄŁÄ±n": 3338,
      "Ä±ÄŁÄ±m": 3339,
      "Ġlevel": 3340,
      "eÄŁi": 3341,
      "Ġbilir": 3342,
      "Ġwin": 3343,
      "ung": 3344,
      "ises": 3345,
      "Ġlate": 3346,
      "ĠSp": 3347,
      "ĠBur": 3348,
      "Ġattr": 3349,
      "miÅŁti": 3350,
      "Ġbrother": 3351,
      "Have": 3352,
      "Ġcer": 3353,
      "ĠCar": 3354,
      "Ġext": 3355,
      "ĠEr": 3356,
      "ĠkiÅŁi": 3357,
      "UL": 3358,
      "Ġkah": 3359,
      "Ġtom": 3360,
      "Ġreturned": 3361,
      "Ġthinking": 3362,
      "Ġprefix": 3363,
      "Ġkaybet": 3364,
      "PE": 3365,
      "Wr": 3366,
      "fun": 3367,
      "ility": 3368,
      "ersen": 3369,
      "Ġkarar": 3370,
      "Ġdedi": 3371,
      "ialog": 3372,
      "################": 3373,
      "Ġphone": 3374,
      "Ġgun": 3375,
      "ump": 3376,
      "ĠiÅŁi": 3377,
      "event": 3378,
      "MA": 3379,
      "OK": 3380,
      "cmd": 3381,
      "width": 3382,
      "anÄ±m": 3383,
      "ounds": 3384,
      "Ġempty": 3385,
      "Ġ>=": 3386,
      "Ġinstead": 3387,
      "BÃ¶yle": 3388,
      "sam": 3389,
      "uÃ§": 3390,
      "Ġhemen": 3391,
      "EX": 3392,
      "ĠdiÄŁer": 3393,
      "ĠCONT": 3394,
      "Ġvariable": 3395,
      "uÅŁtur": 3396,
      "Ġsave": 3397,
      "Ġhappy": 3398,
      "elease": 3399,
      "bit": 3400,
      "lÄ±ÅŁ": 3401,
      "view": 3402,
      "Ġhope": 3403,
      "ISO": 3404,
      "Ġfinally": 3405,
      "uld": 3406,
      "Ġsw": 3407,
      "Ä±yÄ±": 3408,
      "Ġspecified": 3409,
      "ĠÃ§aÄŁ": 3410,
      "001": 3411,
      "Ä±lmÄ±ÅŁ": 3412,
      "coded": 3413,
      "Ġkimse": 3414,
      "Sorry": 3415,
      "Ġtimes": 3416,
      "Ġrahat": 3417,
      "008": 3418,
      "ught": 3419,
      "cache": 3420,
      "Ġside": 3421,
      "009": 3422,
      "lag": 3423,
      "Allah": 3424,
      "Ġroot": 3425,
      "50": 3426,
      "uv": 3427,
      "omain": 3428,
      "eydi": 3429,
      "Ġcreate": 3430,
      "Ġsystem": 3431,
      "Every": 3432,
      "lÄ±yorum": 3433,
      "Ġmur": 3434,
      "Ġhum": 3435,
      "ayÄ±n": 3436,
      "esini": 3437,
      "Ġart": 3438,
      "ĠtanÄ±ÅŁ": 3439,
      "compile": 3440,
      "Ġ..": 3441,
      "Ġcap": 3442,
      "emez": 3443,
      "ector": 3444,
      "Ġetti": 3445,
      "Ġ20": 3446,
      "Ġtarget": 3447,
      "posed": 3448,
      "box": 3449,
      "Ġdad": 3450,
      "ĠdÃ¼z": 3451,
      "Ġhit": 3452,
      "Ġcal": 3453,
      "iting": 3454,
      "Ġrequ": 3455,
      "siness": 3456,
      "Ġspecial": 3457,
      "Ġmakes": 3458,
      "Ġdirectory": 3459,
      "nf": 3460,
      "sys": 3461,
      "amak": 3462,
      "Ġbusiness": 3463,
      "Ġconfig": 3464,
      "parent": 3465,
      "ael": 3466,
      "do": 3467,
      "ding": 3468,
      "meyecek": 3469,
      "br": 3470,
      "ging": 3471,
      "adaki": 3472,
      "Ġ'%": 3473,
      "Ġ(\"": 3474,
      "Ġseviyorum": 3475,
      "Ġposition": 3476,
      "Ġfriends": 3477,
      "xy": 3478,
      "ĠyalnÄ±z": 3479,
      "ATION": 3480,
      "Ġtruth": 3481,
      "Ġilg": 3482,
      "malÄ±": 3483,
      "iyi": 3484,
      "anrÄ±": 3485,
      "Ġlocal": 3486,
      "Ġdavran": 3487,
      "ROL": 3488,
      "orge": 3489,
      "Ġwish": 3490,
      "asyon": 3491,
      "ĠIN": 3492,
      "ants": 3493,
      "ĠJohn": 3494,
      "IO": 3495,
      "madan": 3496,
      "Ġhon": 3497,
      "header": 3498,
      "Ġworry": 3499,
      "Git": 3500,
      "Ġnormal": 3501,
      "Ġsearch": 3502,
      "Ġparser": 3503,
      "memiÅŁ": 3504,
      "See": 3505,
      "].": 3506,
      "bind": 3507,
      "undan": 3508,
      "iful": 3509,
      "Ä±lan": 3510,
      "Ġgelir": 3511,
      "Ġprobably": 3512,
      "ternal": 3513,
      "Ġentry": 3514,
      "CH": 3515,
      "user": 3516,
      "Ġkurt": 3517,
      "come": 3518,
      "ĠÅŁunu": 3519,
      "Ġanyone": 3520,
      "ĠCONTROL": 3521,
      "\\'": 3522,
      "with": 3523,
      "ouch": 3524,
      "Ġ'''": 3525,
      "roll": 3526,
      "Ġgetattr": 3527,
      "Ãĩoc": 3528,
      "Ġhissed": 3529,
      "Ġhands": 3530,
      "Ġyarat": 3531,
      "Ġchildren": 3532,
      "Ġspeak": 3533,
      "umn": 3534,
      "errors": 3535,
      "mesini": 3536,
      "swith": 3537,
      "Ġgiy": 3538,
      "ases": 3539,
      "Ġreason": 3540,
      "ekt": 3541,
      "eket": 3542,
      "ences": 3543,
      "ĠdÄ±ÅŁarÄ±": 3544,
      "widget": 3545,
      "Ġyen": 3546,
      "aÄŁa": 3547,
      "UTE": 3548,
      "Ġfall": 3549,
      "Ġreturns": 3550,
      "ĠparÃ§": 3551,
      "EV": 3552,
      "over": 3553,
      "erek": 3554,
      "Ġsok": 3555,
      "Ġfig": 3556,
      "larda": 3557,
      "ICAL": 3558,
      "IA": 3559,
      "inst": 3560,
      "Ġign": 3561,
      "Ġinside": 3562,
      "Ġkontrol": 3563,
      "Selam": 3564,
      "Ġolduk": 3565,
      "ĠVe": 3566,
      "Ġminutes": 3567,
      "Ġsocket": 3568,
      "Ġhot": 3569,
      "Ġgiz": 3570,
      "ital": 3571,
      "deki": 3572,
      "azy": 3573,
      "log": 3574,
      "dÄ±k": 3575,
      "func": 3576,
      "Ġmil": 3577,
      "Ġkez": 3578,
      "miÅŁtim": 3579,
      "Ġmaking": 3580,
      "Ġkabul": 3581,
      "Implement": 3582,
      "db": 3583,
      "more": 3584,
      "top": 3585,
      "Ġyalan": 3586,
      "Ġgave": 3587,
      "Ġdeath": 3588,
      "used": 3589,
      "Ġminute": 3590,
      "Ġtelefon": 3591,
      "Ġpossible": 3592,
      "Ġtonight": 3593,
      "ird": 3594,
      "Ġextra": 3595,
      "Ġgroup": 3596,
      "ĠgÃ¶rev": 3597,
      "Ġident": 3598,
      "Type": 3599,
      "fl": 3600,
      "orn": 3601,
      "ony": 3602,
      "Ġdat": 3603,
      "Ġcopy": 3604,
      "diÅŁ": 3605,
      "ĠmÄ±y": 3606,
      "Ġerrors": 3607,
      "Ġpackage": 3608,
      "Ġhafta": 3609,
      "Hi": 3610,
      "luk": 3611,
      "mit": 3612,
      "Ġolmam": 3613,
      "larÄ±nÄ±n": 3614,
      "build": 3615,
      "Ġhala": 3616,
      "Ġwonder": 3617,
      ",\"": 3618,
      "mÄ±yor": 3619,
      "patch": 3620,
      "Kap": 3621,
      "Ġdig": 3622,
      "Ġima": 3623,
      "Ã¼ph": 3624,
      "ĠanlaÅŁ": 3625,
      "uyorsun": 3626,
      "ichael": 3627,
      "ync": 3628,
      "ĠWho": 3629,
      "Ġkids": 3630,
      "Dec": 3631,
      "INE": 3632,
      "Ġmisiniz": 3633,
      "Ġtypes": 3634,
      "Ġexactly": 3635,
      "ĠThey": 3636,
      "ĠyÄ±ld": 3637,
      "Ġhuh": 3638,
      "idden": 3639,
      "Ġdoor": 3640,
      "prec": 3641,
      "Ġtomorrow": 3642,
      "30": 3643,
      "ĠkÄ±s": 3644,
      "amb": 3645,
      "Ġverir": 3646,
      "ucu": 3647,
      "Hello": 3648,
      "sk": 3649,
      "Ġyield": 3650,
      "Ġcop": 3651,
      "Ġfalan": 3652,
      "Ġansw": 3653,
      "ĠEn": 3654,
      "ĠExt": 3655,
      "Ġedil": 3656,
      "tuple": 3657,
      "ERTICAL": 3658,
      "Like": 3659,
      "Tr": 3660,
      "Take": 3661,
      "full": 3662,
      "Ġgec": 3663,
      "Ġ'|": 3664,
      "Ġlight": 3665,
      "Ġrange": 3666,
      "ĠAB": 3667,
      "ĠFORM": 3668,
      "ground": 3669,
      "DÃ¼n": 3670,
      "xF": 3671,
      "Ġnedir": 3672,
      "Ġreport": 3673,
      "ekle": 3674,
      "ĠKim": 3675,
      "Ġlooks": 3676,
      "ĠtarafÄ±ndan": 3677,
      "Tell": 3678,
      "ided": 3679,
      "ĠVERTICAL": 3680,
      "Ã¼yorum": 3681,
      "Ġcolle": 3682,
      "ÃĸzÃ¼r": 3683,
      "Pro": 3684,
      "Ġsol": 3685,
      "lex": 3686,
      "unca": 3687,
      "ĠIP": 3688,
      "ĠGr": 3689,
      "Ġkurtar": 3690,
      "Ġsizin": 3691,
      "AslÄ±nda": 3692,
      "types": 3693,
      "KÄ±z": 3694,
      "els": 3695,
      "Ġgar": 3696,
      "Ġkul": 3697,
      "Ġeve": 3698,
      "ĠBaÅŁ": 3699,
      "ersiniz": 3700,
      "ether": 3701,
      "ayÄ±p": 3702,
      "Ġgereken": 3703,
      "ished": 3704,
      "airs": 3705,
      "Ġstatement": 3706,
      "Ä°nsan": 3707,
      "Ã¼nÃ¼z": 3708,
      "Ġorig": 3709,
      "ĠPar": 3710,
      "Ġteh": 3711,
      "Ġyakal": 3712,
      "Ġsingle": 3713,
      "ĠOSError": 3714,
      "19": 3715,
      "Sak": 3716,
      "Ġsin": 3717,
      "Ġwarn": 3718,
      "GerÃ§ekten": 3719,
      "Ab": 3720,
      "dit": 3721,
      "ored": 3722,
      "Ġdebug": 3723,
      "Ġbeaut": 3724,
      "Ġsever": 3725,
      "ĠĠĠĠĠĠĠĠĠĠĠĠĠĠĠĠĠĠĠĠĠĠ": 3726,
      "Ġinformation": 3727,
      "ean": 3728,
      "gu": 3729,
      "gun": 3730,
      "ĠateÅŁ": 3731,
      "ities": 3732,
      "ĠbirkaÃ§": 3733,
      "Ġgets": 3734,
      "Ä°l": 3735,
      "ĠChrist": 3736,
      "mamÄ±z": 3737,
      "Ġsahip": 3738,
      "ĠThere": 3739,
      "ĠyÃ¼r": 3740,
      "Ġfa": 3741,
      "child": 3742,
      "Ġcho": 3743,
      "Ġintere": 3744,
      "ĠakÅŁam": 3745,
      "Decimal": 3746,
      "arÄ±n": 3747,
      "Ġmad": 3748,
      "ĠST": 3749,
      "uss": 3750,
      "ĠÃ§alÄ±ÅŁÄ±yor": 3751,
      "Ġbay": 3752,
      "ately": 3753,
      "Ġyes": 3754,
      "Ġeat": 3755,
      "ĠCHA": 3756,
      "dirs": 3757,
      "Ġpolice": 3758,
      "xB": 3759,
      "unch": 3760,
      "iddi": 3761,
      "002": 3762,
      "ĠGet": 3763,
      "BugÃ¼n": 3764,
      "obody": 3765,
      "masÄ±nÄ±": 3766,
      "((": 3767,
      "ces": 3768,
      "Ġpres": 3769,
      "idd": 3770,
      "ĠMy": 3771,
      "Ġimportant": 3772,
      "arning": 3773,
      "Ġfav": 3774,
      "Ġlaw": 3775,
      "ĠKey": 3776,
      "avi": 3777,
      "Ġyerde": 3778,
      "color": 3779,
      "File": 3780,
      "Ġsand": 3781,
      "adÄ±n": 3782,
      "ĠCan": 3783,
      "ries": 3784,
      "ĠUP": 3785,
      "IM": 3786,
      "copy": 3787,
      "Ġlock": 3788,
      "iled": 3789,
      "rag": 3790,
      "ĠdeÄŁildi": 3791,
      "ĠihtiyacÄ±m": 3792,
      "Ner": 3793,
      "ĠtÃ¼r": 3794,
      "ĠbÃ¼y": 3795,
      "ĠsaÃ§": 3796,
      "ages": 3797,
      "ĠÃ¶lÃ¼m": 3798,
      "ĠkarÅŁÄ±l": 3799,
      "ving": 3800,
      "ĠhÄ±z": 3801,
      "ionary": 3802,
      "ĠyapÄ±yorsun": 3803,
      "Ġbook": 3804,
      "action": 3805,
      "Hayat": 3806,
      "Ġmurder": 3807,
      "By": 3808,
      "Base": 3809,
      "band": 3810,
      "oon": 3811,
      "Ġkut": 3812,
      "ailable": 3813,
      "Ġinsanlar": 3814,
      "Handler": 3815,
      "ughter": 3816,
      "Ä±lar": 3817,
      "Ġforg": 3818,
      "Ġtaking": 3819,
      "Tabii": 3820,
      "src": 3821,
      "Ġetk": 3822,
      "Buraya": 3823,
      "Ġsupposed": 3824,
      "Ġrunning": 3825,
      "Be": 3826,
      "TÃ¼m": 3827,
      "YRI": 3828,
      "ĠeÄŁer": 3829,
      "lerde": 3830,
      "Yok": 3831,
      "Ġthough": 3832,
      "left": 3833,
      "amÄ±": 3834,
      "Ä±mda": 3835,
      "ĠCYRI": 3836,
      "Ġherkes": 3837,
      "Ġbilmiyor": 3838,
      "RAC": 3839,
      "ĠkaÃ§Ä±r": 3840,
      "LLIC": 3841,
      "ĠCYRILLIC": 3842,
      "yim": 3843,
      "Hep": 3844,
      "Ãĸn": 3845,
      "HiÃ§bir": 3846,
      "Ġfollowing": 3847,
      "Br": 3848,
      "ctor": 3849,
      "Ġcontrol": 3850,
      "Ġneeds": 3851,
      "Ġparty": 3852,
      "********": 3853,
      "Ġcharacter": 3854,
      "Kon": 3855,
      "cuse": 3856,
      "por": 3857,
      "unday": 3858,
      "aka": 3859,
      "lerle": 3860,
      "mail": 3861,
      "Ġ|\\": 3862,
      "ĠÃ§ocuklar": 3863,
      "Ġhours": 3864,
      "RACTER": 3865,
      "Dr": 3866,
      "God": 3867,
      "items": 3868,
      "ĠCome": 3869,
      "ĠvardÄ±r": 3870,
      "02": 3871,
      "eorge": 3872,
      "anlar": 3873,
      "Ġhik": 3874,
      "Ġhus": 3875,
      "amay": 3876,
      "imin": 3877,
      "imde": 3878,
      "Ġiter": 3879,
      "ĠÃ§ev": 3880,
      "itten": 3881,
      "Ġneeded": 3882,
      "Ġbelki": 3883,
      "ESIS": 3884,
      "Ġyemek": 3885,
      "ĠdeÄŁiÅŁtir": 3886,
      "ĠCHARACTER": 3887,
      "RL": 3888,
      "Ġsection": 3889,
      "Ġdikkat": 3890,
      "Ġmana": 3891,
      "Ġveya": 3892,
      "Any": 3893,
      "Set": 3894,
      "inter": 3895,
      "Ġonlara": 3896,
      "ĠBayan": 3897,
      "lerden": 3898,
      "ĠHOR": 3899,
      "property": 3900,
      "Ġbenimle": 3901,
      "ĠyakÄ±n": 3902,
      "selves": 3903,
      "aught": 3904,
      "\"\\": 3905,
      "Tom": 3906,
      "ges": 3907,
      "liÄŁ": 3908,
      "Ġwater": 3909,
      "irc": 3910,
      "ĠTo": 3911,
      "ONTAL": 3912,
      "IZONTAL": 3913,
      "16": 3914,
      "field": 3915,
      "Ġluck": 3916,
      "ĠSee": 3917,
      "ists": 3918,
      "dÃ¼r": 3919,
      "down": 3920,
      "suz": 3921,
      "Ġplat": 3922,
      "Ġref": 3923,
      "ĠLet": 3924,
      "ĠTanrÄ±m": 3925,
      "ption": 3926,
      "ĠHORIZONTAL": 3927,
      "SÃ¶yle": 3928,
      "ga": 3929,
      "ĠSam": 3930,
      "Ġsequence": 3931,
      "Ġburadan": 3932,
      "Ġmusunuz": 3933,
      "BaÅŁka": 3934,
      "ĠÃ¼zerinde": 3935,
      "abileceÄŁ": 3936,
      "TH": 3937,
      "ney": 3938,
      "Ġain": 3939,
      "ĠbirÅŁey": 3940,
      "ĠGer": 3941,
      "Ġtrust": 3942,
      "ĠÄ°yi": 3943,
      "Stream": 3944,
      "Ġasked": 3945,
      "madÄ±m": 3946,
      "Ġgitti": 3947,
      ":]": 3948,
      "Ġfail": 3949,
      "Ġlik": 3950,
      "Bence": 3951,
      "Ġdedim": 3952,
      "Ġcrazy": 3953,
      "Ġberi": 3954,
      "Ġocc": 3955,
      "Ġkit": 3956,
      "__()\"": 3957,
      "ĠMARK": 3958,
      "Ġseb": 3959,
      "ĠGood": 3960,
      "Ġconf": 3961,
      "Ġlead": 3962,
      "Ġyerine": 3963,
      "ship": 3964,
      "count": 3965,
      "mt": 3966,
      "rt": 3967,
      "Ġdate": 3968,
      "ĠSan": 3969,
      "Ġstory": 3970,
      "255": 3971,
      "Ġfilm": 3972,
      "Ġmas": 3973,
      "Ġdefined": 3974,
      "Ä°ki": 3975,
      "Ġgelen": 3976,
      "modules": 3977,
      "Implemented": 3978,
      "\"),": 3979,
      "Ol": 3980,
      "SC": 3981,
      "link": 3982,
      "reet": 3983,
      "Ġpast": 3984,
      "ĠOF": 3985,
      "abilirsin": 3986,
      "fil": 3987,
      "xC": 3988,
      "xD": 3989,
      "ĠTom": 3990,
      "plat": 3991,
      "ured": 3992,
      "Ġheaders": 3993,
      "ĠsaldÄ±r": 3994,
      "Ġdescript": 3995,
      "GÃ¶": 3996,
      "ivers": 3997,
      "xA": 3998,
      "yan": 3999,
      "Ġtab": 4000,
      "ĠWhere": 4001,
      "Ġpattern": 4002,
      "Ġaccess": 4003,
      "iam": 4004,
      "message": 4005,
      "icy": 4006,
      "ĠSE": 4007,
      "ments": 4008,
      "ĠkarÄ±ÅŁ": 4009,
      "ĠgÃ¼nÃ¼": 4010,
      "Ġeveryone": 4011,
      "mp": 4012,
      "Ġshot": 4013,
      "Ġpassed": 4014,
      "âĢĿ": 4015,
      "Ä±ldÄ±": 4016,
      "Listen": 4017,
      "Adam": 4018,
      "gÄ±n": 4019,
      "Ġfour": 4020,
      "ĠSte": 4021,
      "outh": 4022,
      "Ã¼rÃ¼z": 4023,
      "exc": 4024,
      "Ġresults": 4025,
      "madÄ±": 4026,
      "mayÄ±n": 4027,
      "Haydi": 4028,
      "Ġeski": 4029,
      "TanrÄ±m": 4030,
      "Ġsar": 4031,
      "Ġhang": 4032,
      "ura": 4033,
      "Ġkonu": 4034,
      "conn": 4035,
      "Ġhadi": 4036,
      "Ġfinal": 4037,
      "ĠgÃ¶rdÃ¼m": 4038,
      "Ġcertain": 4039,
      "sup": 4040,
      "tum": 4041,
      "Ġbuna": 4042,
      "Ġht": 4043,
      "eder": 4044,
      "Ġfire": 4045,
      "Ġ'*": 4046,
      "eks": 4047,
      "utf": 4048,
      "Ġyapar": 4049,
      "Ġchance": 4050,
      "lamak": 4051,
      "eceÄŁiz": 4052,
      "duk": 4053,
      "Ġise": 4054,
      "itti": 4055,
      "Ġaccept": 4056,
      "Ġfunc": 4057,
      "Ġkendini": 4058,
      "replace": 4059,
      "FC": 4060,
      "Ġesc": 4061,
      "icode": 4062,
      "ĠAs": 4063,
      "aÅŁtÄ±r": 4064,
      "ĠÃ¶d": 4065,
      "BÃ¼tÃ¼n": 4066,
      "Ġtah": 4067,
      "Ġtot": 4068,
      "Ġolay": 4069,
      "ĠLIGHT": 4070,
      "ĠOK": 4071,
      "Ġless": 4072,
      "after": 4073,
      "Ġkonus": 4074,
      "print": 4075,
      "lama": 4076,
      "Ġerr": 4077,
      "ehir": 4078,
      "Ãĩocuk": 4079,
      "Ser": 4080,
      "Ġtag": 4081,
      "ref": 4082,
      "ĠMon": 4083,
      "Ġwaiting": 4084,
      "ĠeÄŁlen": 4085,
      "Ġeyes": 4086,
      "Class": 4087,
      "Codec": 4088,
      "Ġauth": 4089,
      "Ġdiyor": 4090,
      "Ġhem": 4091,
      "ĠoÄŁl": 4092,
      "Ġcev": 4093,
      "Ġkav": 4094,
      "ĠSc": 4095,
      "Ġ15": 4096,
      "Ġprotocol": 4097,
      "Sorun": 4098,
      "KE": 4099,
      "now": 4100,
      "sak": 4101,
      "Ġ$": 4102,
      "strip": 4103,
      "omet": 4104,
      "Ġrefer": 4105,
      "Ġdaughter": 4106,
      "Ġaptal": 4107,
      "ased": 4108,
      "aÅŁÄ±r": 4109,
      "ĠbugÃ¼n": 4110,
      "Ġstarted": 4111,
      "Ġbahset": 4112,
      "handle": 4113,
      "([": 4114,
      "eal": 4115,
      "hash": 4116,
      "mac": 4117,
      "ying": 4118,
      "ĠbazÄ±": 4119,
      "Ġthread": 4120,
      "ride": 4121,
      "Ġseninle": 4122,
      "ances": 4123,
      "Ġblood": 4124,
      "PT": 4125,
      "lÃ¼k": 4126,
      "meni": 4127,
      "yse": 4128,
      "atÄ±": 4129,
      "secon": 4130,
      "loop": 4131,
      "Ġoffset": 4132,
      "Ġdisplay": 4133,
      "OWN": 4134,
      "ÃľzgÃ¼nÃ¼m": 4135,
      "aul": 4136,
      "ories": 4137,
      "aving": 4138,
      "Ġpolis": 4139,
      "Ġmissing": 4140,
      "With": 4141,
      "elik": 4142,
      "Ġgelecek": 4143,
      "UTF": 4144,
      "Ġresponse": 4145,
      "Ġsabah": 4146,
      "AG": 4147,
      "Bayan": 4148,
      "xf": 4149,
      "Ä±lÄ±": 4150,
      "256": 4151,
      "cy": 4152,
      "nie": 4153,
      "anÄ±z": 4154,
      "ĠyaklaÅŁ": 4155,
      "ĠÃ¼zgÃ¼nÃ¼m": 4156,
      "TeÅŁekkÃ¼r": 4157,
      "gine": 4158,
      "raid": 4159,
      "Ġedecek": 4160,
      "Ġhasattr": 4161,
      "Ġburad": 4162,
      "ĠsanÄ±rÄ±m": 4163,
      "year": 4164,
      "tributeError": 4165,
      "handler": 4166,
      "ĠExtended": 4167,
      "Ġhusband": 4168,
      "29": 4169,
      "Give": 4170,
      "GeÃ§": 4171,
      "Pol": 4172,
      "dout": 4173,
      "ply": 4174,
      "Ġyine": 4175,
      "alt": 4176,
      "Ġneler": 4177,
      "Ġpo": 4178,
      "ĠBunu": 4179,
      "Ġonunla": 4180,
      "Ġquestion": 4181,
      "14": 4182,
      "Ayr": 4183,
      "flags": 4184,
      "mode": 4185,
      "~~": 4186,
      "Ġces": 4187,
      "Ġfuture": 4188,
      "ĠolmasÄ±": 4189,
      "Ġsafe": 4190,
      "strict": 4191,
      "Ġ['": 4192,
      "Ã¼ÄŁÃ¼nÃ¼": 4193,
      "ĠThank": 4194,
      "Ġdoktor": 4195,
      "ĠteÅŁekkÃ¼rler": 4196,
      "table": 4197,
      "warn": 4198,
      "Ġ/": 4199,
      "Ġfive": 4200,
      "otocol": 4201,
      "ĠalÄ±n": 4202,
      "osp": 4203,
      "Ġnews": 4204,
      "ĠkatÄ±l": 4205,
      "Ġstandard": 4206,
      "xE": 4207,
      "Ġnamed": 4208,
      "entry": 4209,
      "ĠEl": 4210,
      "ublic": 4211,
      "Ġbeautiful": 4212,
      "Af": 4213,
      "Mar": 4214,
      "Size": 4215,
      "Ġsus": 4216,
      "Ġbound": 4217,
      "Ġdied": 4218,
      "trans": 4219,
      "Ġraised": 4220,
      "ĠdÃ¶nd": 4221,
      "Ġsmall": 4222,
      "mbol": 4223,
      "ai": 4224,
      "duÄŁ": 4225,
      "gul": 4226,
      "Ġmuy": 4227,
      "ali": 4228,
      "ĠIm": 4229,
      "Ġstep": 4230,
      "Ġable": 4231,
      "Ġcompar": 4232,
      "Ġboz": 4233,
      "codecs": 4234,
      "Stop": 4235,
      "ĠÃ¶zel": 4236,
      "Ġserious": 4237,
      "mun": 4238,
      "Ġdream": 4239,
      "Ġpop": 4240,
      "ĠulaÅŁ": 4241,
      "oph": 4242,
      "Ġeden": 4243,
      "ĠExtendedContext": 4244,
      "Lo": 4245,
      "lin": 4246,
      "ĠLe": 4247,
      "ĠHT": 4248,
      "Ä±yorlar": 4249,
      "ĠyaptÄ±": 4250,
      "Ġzar": 4251,
      "Ġanymore": 4252,
      "DoÄŁru": 4253,
      "Ġrepresent": 4254,
      "Ġbehind": 4255,
      "ĠACUTE": 4256,
      "IF": 4257,
      "kÄ±": 4258,
      "zen": 4259,
      "elib": 4260,
      "Ġitems": 4261,
      "Incremental": 4262,
      "Ġcreated": 4263,
      "Ġtemiz": 4264,
      "local": 4265,
      "Ġberaber": 4266,
      "diniz": 4267,
      "vis": 4268,
      "aring": 4269,
      "Ġmag": 4270,
      "edim": 4271,
      "Ġ'<": 4272,
      "Ġlink": 4273,
      "Ġwhether": 4274,
      "Ġconc": 4275,
      "Ġparse": 4276,
      "Ġhandler": 4277,
      "ĠWhy": 4278,
      "Gr": 4279,
      "Yak": 4280,
      "miss": 4281,
      "elcome": 4282,
      "Ġcut": 4283,
      "ĠAP": 4284,
      "Ġdolar": 4285,
      "iles": 4286,
      "Ġtaken": 4287,
      "diÄŁin": 4288,
      "Ġcouple": 4289,
      "ĠÃ¼l": 4290,
      "unt": 4291,
      "Ġyoung": 4292,
      "Ġ'-": 4293,
      "__,": 4294,
      "Ġclasses": 4295,
      "Ġmonths": 4296,
      "ĠNotImplemented": 4297,
      "His": 4298,
      "NE": 4299,
      "OD": 4300,
      "font": 4301,
      "yÄ±": 4302,
      "ĠÃĸ": 4303,
      "Ġfree": 4304,
      "ladÄ±n": 4305,
      "ĠÄ°n": 4306,
      "Ġafraid": 4307,
      "Ġhalf": 4308,
      "Reader": 4309,
      "offset": 4310,
      "lant": 4311,
      "mar": 4312,
      "Ġdu": 4313,
      "Ġcur": 4314,
      "Ġkoc": 4315,
      "ief": 4316,
      "tens": 4317,
      "Ġbrought": 4318,
      "like": 4319,
      "ĠfÄ±r": 4320,
      "imple": 4321,
      "ittest": 4322,
      "Ġpresent": 4323,
      "oktor": 4324,
      "Ġforget": 4325,
      "cii": 4326,
      "Ġeasy": 4327,
      "friend": 4328,
      "lÄ±y": 4329,
      "Ġtes": 4330,
      "Ġmed": 4331,
      "Ġgame": 4332,
      "ĠSING": 4333,
      "last": 4334,
      "Ġistey": 4335,
      "aid": 4336,
      "Ġtown": 4337,
      "Ġbirbir": 4338,
      "abÄ±": 4339,
      "iyoruz": 4340,
      "Ġshoot": 4341,
      "ĠRFC": 4342,
      "Ġ100": 4343,
      "Ġtrouble": 4344,
      "ĠWhen": 4345,
      "15": 4346,
      "erry": 4347,
      "Ġses": 4348,
      "Ġclean": 4349,
      "Ġdecode": 4350,
      "Ġeff": 4351,
      "Info": 4352,
      "Ġkeyword": 4353,
      "ĠyanlÄ±ÅŁ": 4354,
      "Exception": 4355,
      "Ġdestroy": 4356,
      "ĠSINGLE": 4357,
      "GÃ¼n": 4358,
      "Nothing": 4359,
      "PA": 4360,
      "Ġtable": 4361,
      "Ġmine": 4362,
      "Ġmess": 4363,
      "Ġlim": 4364,
      "ĠonlarÄ±n": 4365,
      "ĠSer": 4366,
      "Ġoutside": 4367,
      "Onlar": 4368,
      "comple": 4369,
      "ĠQU": 4370,
      "Ġbuilt": 4371,
      "liÄŁi": 4372,
      "Ġurl": 4373,
      "Ġkok": 4374,
      "Ġris": 4375,
      "ĠÃ§ar": 4376,
      "Ġdefinit": 4377,
      "Buna": 4378,
      "face": 4379,
      "ĠHE": 4380,
      "ibility": 4381,
      "Ġexample": 4382,
      "ĠWill": 4383,
      "ĠJust": 4384,
      "ML": 4385,
      "python": 4386,
      "err": 4387,
      "ena": 4388,
      "Ġmill": 4389,
      "ĠAb": 4390,
      "Ġcharacters": 4391,
      "Harika": 4392,
      "Ġinteger": 4393,
      "ĠÃ§aÄŁÄ±r": 4394,
      "lÄ±ÄŁ": 4395,
      "xb": 4396,
      "Ġaut": 4397,
      "Ġgre": 4398,
      "alog": 4399,
      "amÄ±z": 4400,
      "ived": 4401,
      "Ġquite": 4402,
      "Orada": 4403,
      "ĠfarklÄ±": 4404,
      "Ġanswer": 4405,
      "glob": 4406,
      "Ġtouch": 4407,
      "ats": 4408,
      "Ġmily": 4409,
      "Ġshut": 4410,
      "ĠdeÄŁilsin": 4411,
      "Ġetme": 4412,
      "apper": 4413,
      "Ġoffice": 4414,
      "meliyim": 4415,
      "create": 4416,
      "tributes": 4417,
      "Ġparameter": 4418,
      "Ġchanges": 4419,
      "rest": 4420,
      "Ġ''": 4421,
      "ational": 4422,
      "update": 4423,
      "stract": 4424,
      "Ä±nÄ±zÄ±": 4425,
      "Ġkolay": 4426,
      "Ġfikir": 4427,
      "ĠolmadÄ±ÄŁÄ±nÄ±": 4428,
      "II": 4429,
      "lineno": 4430,
      "Ġround": 4431,
      "Ġseem": 4432,
      "Ġabs": 4433,
      "ĠbaÅŁar": 4434,
      "ĠyÃ¼zÃ¼nden": 4435,
      "Ġinitial": 4436,
      "lower": 4437,
      "Ġfel": 4438,
      "ĠSeni": 4439,
      "ĠÃ§Ã¶z": 4440,
      "Ġcalls": 4441,
      "Ġlength": 4442,
      "================": 4443,
      "Ġnefret": 4444,
      "Ġah": 4445,
      "ume": 4446,
      "ĠPh": 4447,
      "Ġettim": 4448,
      "next": 4449,
      "exit": 4450,
      "manÄ±n": 4451,
      "Ġ30": 4452,
      "group": 4453,
      "ency": 4454,
      "amazsÄ±n": 4455,
      "gers": 4456,
      "iff": 4457,
      "Ġolursa": 4458,
      "ÃľÃ§": 4459,
      "Res": 4460,
      "Ġ]": 4461,
      "etime": 4462,
      "Ġanne": 4463,
      "Ġsex": 4464,
      "Ġextens": 4465,
      "ĠyaptÄ±m": 4466,
      "cont": 4467,
      "Ġbitch": 4468,
      "anÄ±t": 4469,
      "aat": 4470,
      "fect": 4471,
      "Ġbuffer": 4472,
      "Ġcomes": 4473,
      "Ġraw": 4474,
      "option": 4475,
      "IX": 4476,
      "lus": 4477,
      "aydÄ±n": 4478,
      "ĠBak": 4479,
      "istan": 4480,
      "ĠYork": 4481,
      "files": 4482,
      "Ġmoment": 4483,
      "OF": 4484,
      "ĠDav": 4485,
      "ilecek": 4486,
      "Ä±lmaz": 4487,
      "Ġencode": 4488,
      "uyu": 4489,
      "ĠiliÅŁ": 4490,
      "mamÄ±ÅŁ": 4491,
      "Ġdrop": 4492,
      "Ġskip": 4493,
      "\"]": 4494,
      "CUM": 4495,
      "Emin": 4496,
      "{}": 4497,
      "alib": 4498,
      "ites": 4499,
      "uluk": 4500,
      "Ġaren": 4501,
      "Ġavailable": 4502,
      "ĠIPv": 4503,
      "Kah": 4504,
      "gative": 4505,
      "ping": 4506,
      "rol": 4507,
      "van": 4508,
      "tax": 4509,
      "Ġbelir": 4510,
      "Ġnumar": 4511,
      "extens": 4512,
      "ĠFrank": 4513,
      "XX": 4514,
      "kli": 4515,
      "pen": 4516,
      "Ġdiv": 4517,
      "Ġcustom": 4518,
      "search": 4519,
      "ĠNote": 4520,
      "Ġrecord": 4521,
      "Ġfront": 4522,
      "Will": 4523,
      "bel": 4524,
      "vice": 4525,
      "window": 4526,
      "Ġhed": 4527,
      "abuk": 4528,
      "Ġherh": 4529,
      "ĠKar": 4530,
      "Ġgider": 4531,
      "ools": 4532,
      "tiÄŁini": 4533,
      "larÄ±nda": 4534,
      "Ann": 4535,
      "ĠBenim": 4536,
      "button": 4537,
      "Tam": 4538,
      "clear": 4539,
      "Ġot": 4540,
      "Ġcla": 4541,
      "ĠĠĠĠĠĠĠĠĠĠĠĠĠĠĠĠĠĠĠĠĠ": 4542,
      "Ġnear": 4543,
      "dist": 4544,
      "ĠMc": 4545,
      "ĠTr": 4546,
      "anger": 4547,
      "ressed": 4548,
      "yntax": 4549,
      "ookie": 4550,
      "Ġsecret": 4551,
      "ĠÃ¶zÃ¼r": 4552,
      "!\"": 4553,
      "Key": 4554,
      "Say": 4555,
      "cÃ¼": 4556,
      "lelib": 4557,
      "uation": 4558,
      "Ġpi": 4559,
      "Ġpap": 4560,
      "Ġbirini": 4561,
      "idence": 4562,
      "ĠMerhaba": 4563,
      "iyon": 4564,
      "Ġsepar": 4565,
      "Ġalive": 4566,
      "ĠkaldÄ±r": 4567,
      "manÄ±": 4568,
      "melisin": 4569,
      "Qu": 4570,
      "bil": 4571,
      "Ġ'_": 4572,
      "abc": 4573,
      "ifier": 4574,
      "ĠyaptÄ±n": 4575,
      "medin": 4576,
      "server": 4577,
      "Ġdictionary": 4578,
      "Ok": 4579,
      "baÅŁ": 4580,
      "Ġbre": 4581,
      "request": 4582,
      "Ġmal": 4583,
      "Ġgod": 4584,
      "stack": 4585,
      "Ġcnf": 4586,
      "ĠBel": 4587,
      "Ġshort": 4588,
      "ĠGo": 4589,
      "portError": 4590,
      "larÄ±ndan": 4591,
      "ĠaÅŁk": 4592,
      "Ġbahsed": 4593,
      "Ġcountry": 4594,
      "Ġattack": 4595,
      "AME": 4596,
      "UP": 4597,
      "you": 4598,
      "Ġbomb": 4599,
      "Ġheav": 4600,
      "Ġgoes": 4601,
      "Ġoraya": 4602,
      "headers": 4603,
      "05": 4604,
      "bin": 4605,
      "gar": 4606,
      "oj": 4607,
      "Ġbenden": 4608,
      "adÄ±k": 4609,
      "abs": 4610,
      "ĠBar": 4611,
      "Ġolsa": 4612,
      "iyat": 4613,
      "elli": 4614,
      "ĠyaptÄ±k": 4615,
      "Ġayak": 4616,
      "Ġexpect": 4617,
      "arlie": 4618,
      "Ġplatform": 4619,
      "send": 4620,
      "udi": 4621,
      "enn": 4622,
      "Ġdile": 4623,
      "ĠDist": 4624,
      "Ä±lÄ±r": 4625,
      "gest": 4626,
      "Ġconv": 4627,
      "Ġedebilir": 4628,
      "lice": 4629,
      "alarÄ±nÄ±": 4630,
      "ĠistediÄŁim": 4631,
      "Ġbecome": 4632,
      "case": 4633,
      "umb": 4634,
      "Ġche": 4635,
      "Ã¼kem": 4636,
      "LEX": 4637,
      "Ġfunctions": 4638,
      "wards": 4639,
      "eters": 4640,
      "Ġinc": 4641,
      "Ġwhatever": 4642,
      "Ġalmost": 4643,
      "ards": 4644,
      "Ġtimeout": 4645,
      "Ġgidip": 4646,
      "Ġassign": 4647,
      "ARE": 4648,
      "Ġbra": 4649,
      "Ġip": 4650,
      "irket": 4651,
      "lerinden": 4652,
      "ĠEd": 4653,
      "Ġteam": 4654,
      "upid": 4655,
      "Ġstrings": 4656,
      "Ġmember": 4657,
      "Ġchanged": 4658,
      "Ġindic": 4659,
      "'\\": 4660,
      "Ak": 4661,
      "KÃ¶": 4662,
      "Ġ&": 4663,
      "Ġsun": 4664,
      "asÄ±nÄ±n": 4665,
      "....": 4666,
      "aced": 4667,
      "Ä±lÄ±k": 4668,
      "Ġjoin": 4669,
      "ĠYOU": 4670,
      "Ġcalling": 4671,
      "Ġkeys": 4672,
      "Ġfavor": 4673,
      "ĠÃĸyle": 4674,
      "Ġair": 4675,
      "Ġkas": 4676,
      "iltin": 4677,
      "Ġinfo": 4678,
      "ĠSe": 4679,
      "ĠBe": 4680,
      "verse": 4681,
      "ĠNeden": 4682,
      "Ġevlen": 4683,
      "exception": 4684,
      "abiliriz": 4685,
      "Herkes": 4686,
      "13": 4687,
      "Ġsick": 4688,
      "ets": 4689,
      "urum": 4690,
      "aph": 4691,
      "oder": 4692,
      "Ġleg": 4693,
      "Ġkalk": 4694,
      "ails": 4695,
      "ancel": 4696,
      "eceÄŁini": 4697,
      "Ġoperation": 4698,
      ")\"": 4699,
      "Ac": 4700,
      "Ġtried": 4701,
      "Ġyiy": 4702,
      "Ġgez": 4703,
      "ascii": 4704,
      "---": 4705,
      "Excuse": 4706,
      "target": 4707,
      "startswith": 4708,
      "Ġpromise": 4709,
      "Ã¼kemmel": 4710,
      "Le": 4711,
      "pol": 4712,
      "Ġtabii": 4713,
      "erg": 4714,
      "Ä±ndaki": 4715,
      "Ġbeb": 4716,
      "Ark": 4717,
      "Ġcover": 4718,
      "Ġwomen": 4719,
      "pec": 4720,
      "Ġ,": 4721,
      "Ġdialog": 4722,
      "Ġnor": 4723,
      "Ġbegin": 4724,
      "control": 4725,
      "Ġtelling": 4726,
      "Ġhareket": 4727,
      "Ġboyunca": 4728,
      "Ġdocument": 4729,
      "Ġsimple": 4730,
      "AyrÄ±ca": 4731,
      "Demek": 4732,
      "dÃ¼n": 4733,
      "pass": 4734,
      "ris": 4735,
      "tip": 4736,
      "Ġahead": 4737,
      "lem": 4738,
      "ĠkÄ±": 4739,
      "Ġondan": 4740,
      "Ġdoctor": 4741,
      "andÄ±": 4742,
      "Ġsomebody": 4743,
      "Ġwords": 4744,
      "ĠReturns": 4745,
      "(*": 4746,
      "+--------------------------------": 4747,
      "Would": 4748,
      "fa": 4749,
      "lak": 4750,
      "imize": 4751,
      "iktir": 4752,
      "ĠalÄ±r": 4753,
      "Ġloop": 4754,
      "ĠbaÅŁk": 4755,
      "Ġprof": 4756,
      "ĠÃ§Ä±ktÄ±": 4757,
      "retsin": 4758,
      "Ġappe": 4759,
      "PekÃ¢lÃ¢": 4760,
      "Ġmarried": 4761,
      "ĠgenÃ§": 4762,
      "Ġkonusunda": 4763,
      "oto": 4764,
      "Ä±yordu": 4765,
      "Ġoldum": 4766,
      "anged": 4767,
      "lÄ±sÄ±n": 4768,
      "Ġdurdur": 4769,
      "queue": 4770,
      "``": 4771,
      "ha": 4772,
      "pop": 4773,
      "Ġsister": 4774,
      "Ġmist": 4775,
      "ĠhÃ¼k": 4776,
      "Ġgem": 4777,
      "These": 4778,
      "ĠHadi": 4779,
      "Ã¼mÃ¼z": 4780,
      "('-": 4781,
      "Ġcolumn": 4782,
      "register": 4783,
      "ĠAttributeError": 4784,
      "Fr": 4785,
      "enÃ¼z": 4786,
      "ecess": 4787,
      "ĠAre": 4788,
      "ĠendiÅŁ": 4789,
      "itting": 4790,
      "Ġgidelim": 4791,
      "Ã¼ÄŁÃ¼": 4792,
      "Ġeverybody": 4793,
      "script": 4794,
      "Ġmutlu": 4795,
      "BÃ¼yÃ¼k": 4796,
      "FLEX": 4797,
      "lor": 4798,
      "etwork": 4799,
      "ural": 4800,
      "htem": 4801,
      "direct": 4802,
      "ĠDIA": 4803,
      "ĠPro": 4804,
      "ĠdeÄŁer": 4805,
      "ĠRabb": 4806,
      "ERESIS": 4807,
      "Ġprec": 4808,
      "IRCUM": 4809,
      "function": 4810,
      "ĠDIAERESIS": 4811,
      "IRCUMFLEX": 4812,
      "madÄ±ÄŁ": 4813,
      "socket": 4814,
      "ements": 4815,
      "ĠSon": 4816,
      "ocus": 4817,
      "ĠÄ°ÅŁ": 4818,
      "package": 4819,
      "ĠtatlÄ±m": 4820,
      "Ġinclud": 4821,
      "Call": 4822,
      "Sc": 4823,
      "uce": 4824,
      "ĠsÄ±": 4825,
      "Ġbaba": 4826,
      "Ġhap": 4827,
      "Ġcatch": 4828,
      "icro": 4829,
      "ĠCIRCUMFLEX": 4830,
      "Ġalmak": 4831,
      "derr": 4832,
      "Ġotherwise": 4833,
      "values": 4834,
      "ĠaldÄ±m": 4835,
      ".'": 4836,
      "FF": 4837,
      "bat": 4838,
      "cause": 4839,
      "Ġhate": 4840,
      "ilmiÅŁ": 4841,
      "Ġpush": 4842,
      "ĠCol": 4843,
      "ĠTest": 4844,
      "Ġknown": 4845,
      "Ġspace": 4846,
      "except": 4847,
      "sanÄ±z": 4848,
      "ached": 4849,
      "Ġgitmek": 4850,
      "meliyiz": 4851,
      "Ġimplementation": 4852,
      "Ġcookie": 4853,
      "EL": 4854,
      "aint": 4855,
      "Ġyas": 4856,
      "Ġsefer": 4857,
      "ffed": 4858,
      "Anne": 4859,
      "Ġworks": 4860,
      "Ġtakes": 4861,
      "Ġmeeting": 4862,
      "ĠâĢľ": 4863,
      "NO": 4864,
      "fp": 4865,
      "wait": 4866,
      "Ġtav": 4867,
      "ikle": 4868,
      "lerinde": 4869,
      "ĠTO": 4870,
      "Ġclosed": 4871,
      "ĠolduÄŁumu": 4872,
      "ĠÃ¶ldÃ¼": 4873,
      "Ġgirls": 4874,
      "ĠazÄ±ndan": 4875,
      "Ġnereden": 4876,
      "Ġearth": 4877,
      "Ġhuman": 4878,
      "80": 4879,
      "AB": 4880,
      "Dinle": 4881,
      "dig": 4882,
      "Ġcmd": 4883,
      "Ġfood": 4884,
      "isine": 4885,
      "Ġrepr": 4886,
      "Ġdog": 4887,
      "room": 4888,
      "ĠÅŁeye": 4889,
      "Ġparents": 4890,
      "length": 4891,
      "Ġscript": 4892,
      "Ġexpected": 4893,
      "Ġhalde": 4894,
      "malÄ±yÄ±z": 4895,
      "YardÄ±m": 4896,
      "eff": 4897,
      "fak": 4898,
      "parser": 4899,
      "Ġpict": 4900,
      "Ġans": 4901,
      "die": 4902,
      "ĠarasÄ±nda": 4903,
      "Ġship": 4904,
      "ĠEm": 4905,
      "Ġattributes": 4906,
      "Ġenum": 4907,
      "Does": 4908,
      "Ġtakip": 4909,
      "ĠkonuÅŁmak": 4910,
      "ĠyÃ¶n": 4911,
      "Ġinterest": 4912,
      "\"?": 4913,
      "Ad": 4914,
      "Fakat": 4915,
      "Sev": 4916,
      "first": 4917,
      "kez": 4918,
      "rel": 4919,
      "Ġtree": 4920,
      "anny": 4921,
      "Ġmach": 4922,
      "Ġmultip": 4923,
      "Ġflags": 4924,
      "Ã§i": 4925,
      "ĠSor": 4926,
      "output": 4927,
      "ĠMichael": 4928,
      "ĠÅŁeyin": 4929,
      "ives": 4930,
      "mÄ±ÅŁtÄ±m": 4931,
      "Seninle": 4932,
      "Ġcolor": 4933,
      "Ġcomplet": 4934,
      "Geri": 4935,
      "Se": 4936,
      "ae": 4937,
      "Ġchunk": 4938,
      "Ġ16": 4939,
      "Bizim": 4940,
      "Writer": 4941,
      "Ġmilyon": 4942,
      "block": 4943,
      "kÃ¼n": 4944,
      "pose": 4945,
      "Ġburn": 4946,
      "order": 4947,
      "iling": 4948,
      "Ã§Ä±": 4949,
      "ĠbeÅŁ": 4950,
      "lerinin": 4951,
      "ĠÅŁÃ¼ph": 4952,
      "Ġsonr": 4953,
      "classmethod": 4954,
      "lamÄ±ÅŁ": 4955,
      "memiz": 4956,
      "Ġcevap": 4957,
      "Fuck": 4958,
      "mark": 4959,
      "Ġsn": 4960,
      "Ã§e": 4961,
      "ows": 4962,
      "sep": 4963,
      "ĠiÃ§eri": 4964,
      "Ġkapat": 4965,
      "Ġliving": 4966,
      "Ġdamn": 4967,
      ")):": 4968,
      "lÄ±ÄŁÄ±": 4969,
      "Ġtim": 4970,
      "Ġbat": 4971,
      "Ġbind": 4972,
      "Ġpur": 4973,
      "Ġ'/": 4974,
      "vest": 4975,
      "dec": 4976,
      "Ġyapacak": 4977,
      "Ġlearn": 4978,
      "Ġyoktu": 4979,
      "ĠadamÄ±": 4980,
      "Ġletter": 4981,
      "Ġhayal": 4982,
      "ĠsÃ¶yler": 4983,
      "Decoder": 4984,
      "htemelen": 4985,
      "EM": 4986,
      "IAL": 4987,
      "pek": 4988,
      "itive": 4989,
      "Ġrece": 4990,
      "Ġseems": 4991,
      "Ġdisc": 4992,
      "24": 4993,
      "34": 4994,
      "Ġsix": 4995,
      "Ġhor": 4996,
      "itor": 4997,
      "ĠĠĠĠĠĠĠĠĠĠĠĠĠĠĠĠĠĠĠĠĠĠĠĠ": 4998,
      "Ġstud": 4999,
      "ĠDOWN": 5000,
      "Ä±ÅŁÄ±k": 5001,
      "rozen": 5002,
      "Ġverdi": 5003,
      "Ġolmayacak": 5004,
      "Åŀey": 5005,
      "Ġoffic": 5006,
      "Ġgerekir": 5007,
      "ccess": 5008,
      "ĠayrÄ±l": 5009,
      "Ġdrive": 5010,
      "Hak": 5011,
      "ense": 5012,
      "Ġland": 5013,
      "Ġlineno": 5014,
      "ĠNow": 5015,
      "Ġalong": 5016,
      "Ġsubclass": 5017,
      "Ġbekliyor": 5018,
      "kwargs": 5019,
      "cle": 5020,
      "cur": 5021,
      "fort": 5022,
      "gener": 5023,
      "mÃ¼yor": 5024,
      "rim": 5025,
      "emey": 5026,
      "ĠMom": 5027,
      "iÄŁin": 5028,
      "leÅŁtir": 5029,
      "Ġconnection": 5030,
      "pattern": 5031,
      "Ġilgilen": 5032,
      "Dev": 5033,
      "ĠÄ±s": 5034,
      "esinde": 5035,
      "entle": 5036,
      "ibi": 5037,
      "ardÄ±": 5038,
      "Ġglobal": 5039,
      "rey": 5040,
      "Ġrather": 5041,
      "ession": 5042,
      "ĠsÃ¶yledim": 5043,
      "OnlarÄ±": 5044,
      "ĠpeÅŁ": 5045,
      "Ġbitir": 5046,
      "Hemen": 5047,
      "just": 5048,
      "ox": 5049,
      "ĠsÄ±n": 5050,
      "Ġpost": 5051,
      "Ġanlay": 5052,
      "idle": 5053,
      "ĠHay": 5054,
      "Ġyours": 5055,
      "ĠsÃ¶ylemek": 5056,
      "BurasÄ±": 5057,
      "ĠyanÄ±nda": 5058,
      "ceÄŁiz": 5059,
      "ĠsÃ¼rÃ¼": 5060,
      "bb": 5061,
      "Ġsenden": 5062,
      "oud": 5063,
      "adÄ±r": 5064,
      "Ġannem": 5065,
      "otoÄŁ": 5066,
      "Ġran": 5067,
      "Ġrule": 5068,
      "ĠĠĠĠĠĠĠĠĠĠĠĠĠĠĠĠĠĠĠĠĠĠĠĠĠĠ": 5069,
      "Ġstupid": 5070,
      "ĠÅŁark": 5071,
      "ĠaslÄ±nda": 5072,
      "ĠyapacaÄŁÄ±m": 5073,
      "Ä°k": 5074,
      "ĠtanÄ±m": 5075,
      "Ã¼ÄŁÃ¼n": 5076,
      "Ġvalid": 5077,
      "Ġperfect": 5078,
      "Yine": 5079,
      "lif": 5080,
      "Ġcin": 5081,
      "enter": 5082,
      "ĠBeni": 5083,
      "ĠBana": 5084,
      "ĠRob": 5085,
      "Ġbox": 5086,
      "Ġsoru": 5087,
      "ĠÃ§alÄ±ÅŁÄ±yorum": 5088,
      "ĠyaÅŁam": 5089,
      "delete": 5090,
      "Babam": 5091,
      "Ġsweet": 5092,
      "Uz": 5093,
      "pid": 5094,
      "xe": 5095,
      "ename": 5096,
      "Ä±mÄ±n": 5097,
      "ĠSelam": 5098,
      "Ġols": 5099,
      "Ġstick": 5100,
      "iÄŁim": 5101,
      "Ä±mÄ±za": 5102,
      "ĠÃ§ocuÄŁ": 5103,
      "Ä°lk": 5104,
      "(?": 5105,
      "Def": 5106,
      "nown": 5107,
      "enny": 5108,
      "Ġindir": 5109,
      "ĠDad": 5110,
      "Ġherif": 5111,
      "Ġlose": 5112,
      "Ġconvert": 5113,
      "ukarÄ±": 5114,
      "Ġanyway": 5115,
      "ĠbaÅŁÄ±na": 5116,
      "builtin": 5117,
      "Conf": 5118,
      "Ġyolu": 5119,
      "Ġprotect": 5120,
      "ĠOnu": 5121,
      "Ġnamespace": 5122,
      ")[": 5123,
      "HoÅŁ": 5124,
      "awn": 5125,
      "fg": 5126,
      "flo": 5127,
      "mana": 5128,
      "Ã©": 5129,
      "Ġsist": 5130,
      "Ġlanet": 5131,
      "ester": 5132,
      "ĠYour": 5133,
      "Ġgrand": 5134,
      "Ġnumbers": 5135,
      "Ġapart": 5136,
      "ĠdÃ¼ÅŁÃ¼nÃ¼yorsun": 5137,
      "Ġait": 5138,
      "oul": 5139,
      "Ġred": 5140,
      "iding": 5141,
      "ĠMiss": 5142,
      "ĠGeorge": 5143,
      "ĠzamanÄ±": 5144,
      "return": 5145,
      "eredeyse": 5146,
      "Ġblack": 5147,
      "mesine": 5148,
      "Thanks": 5149,
      "Ġlives": 5150,
      "ĠHTTP": 5151,
      "otoÄŁraf": 5152,
      "BÄ±rak": 5153,
      "HE": 5154,
      "break": 5155,
      "tun": 5156,
      "ĠhÃ¢lÃ¢": 5157,
      "eyin": 5158,
      "section": 5159,
      "ĠAv": 5160,
      "thers": 5161,
      "Ġsuff": 5162,
      "ĠiÅŁin": 5163,
      "meyeceÄŁim": 5164,
      "Ġ{'": 5165,
      "Ġmerak": 5166,
      "Ġ``": 5167,
      "ĠÃ¶ÄŁret": 5168,
      "Bar": 5169,
      "Ġcreat": 5170,
      "Ġwithin": 5171,
      "Ä±yorsunuz": 5172,
      "Ġyapmam": 5173,
      "Ġsense": 5174,
      "Ġ25": 5175,
      "Ġcallback": 5176,
      "aliba": 5177,
      "su": 5178,
      "Ġmot": 5179,
      "Ġglad": 5180,
      "Ġfre": 5181,
      "Ġpeki": 5182,
      "Ġlabel": 5183,
      "closed": 5184,
      "Ġclos": 5185,
      "ĠJim": 5186,
      "###": 5187,
      "Encoder": 5188,
      "Ġdinner": 5189,
      "Ġkonuda": 5190,
      "://": 5191,
      "GÃ¼": 5192,
      "Id": 5193,
      "vas": 5194,
      "ones": 5195,
      "Ġinsp": 5196,
      "Ġvir": 5197,
      "ĠÅŁeyleri": 5198,
      "addy": 5199,
      "Ġbekley": 5200,
      "ĠÃ¼zerine": 5201,
      "install": 5202,
      "Am": 5203,
      "aur": 5204,
      "diler": 5205,
      "miyorsun": 5206,
      "sÃ¼n": 5207,
      "sana": 5208,
      "illa": 5209,
      "andan": 5210,
      "ĠHiÃ§": 5211,
      "ardon": 5212,
      "Ġshouldn": 5213,
      "Ġsurpr": 5214,
      "Ġselect": 5215,
      "Add": 5216,
      "Jack": 5217,
      "Ġwidth": 5218,
      "alent": 5219,
      "Ġnecess": 5220,
      "omething": 5221,
      "iyorlar": 5222,
      "dialog": 5223,
      "azen": 5224,
      "ĠPeki": 5225,
      "Ġelement": 5226,
      "Ġleaving": 5227,
      "Ġparts": 5228,
      "ĠdÃ¼ÅŁÃ¼nÃ¼yorum": 5229,
      "number": 5230,
      "ĠTHE": 5231,
      "Ġtehlik": 5232,
      "Kork": 5233,
      "]:": 5234,
      "Ġolun": 5235,
      "Ġhepsi": 5236,
      "ĠRight": 5237,
      "Ġteach": 5238,
      "ilerin": 5239,
      "oved": 5240,
      "uhaf": 5241,
      "Our": 5242,
      "tz": 5243,
      "Ġut": 5244,
      "Ġmac": 5245,
      "Ġliter": 5246,
      "dest": 5247,
      "Ġrap": 5248,
      "ĠbaÅŁlay": 5249,
      "irecek": 5250,
      "ording": 5251,
      "Ġlonger": 5252,
      "ehen": 5253,
      "Ġlibrary": 5254,
      "18": 5255,
      "GÃ¶z": 5256,
      "Up": 5257,
      "title": 5258,
      "Ä±nday": 5259,
      "Ġsuc": 5260,
      "Ġbilg": 5261,
      "Annem": 5262,
      "Ġfunny": 5263,
      "Ġduring": 5264,
      "Ġhappens": 5265,
      "Ġsaniye": 5266,
      "timeout": 5267,
      "Ġhikay": 5268,
      "\"):": 5269,
      "called": 5270,
      "yal": 5271,
      "Ġtw": 5272,
      "Ġtre": 5273,
      "Ġball": 5274,
      "Ġpain": 5275,
      "urity": 5276,
      "ikler": 5277,
      "raise": 5278,
      "Ġupon": 5279,
      "Ġuygun": 5280,
      "Ġfeeling": 5281,
      "ĠaltÄ±nda": 5282,
      "Case": 5283,
      "ĠÃĩÃ¼nkÃ¼": 5284,
      "environ": 5285,
      "Ġhop": 5286,
      "Ġpy": 5287,
      "aclass": 5288,
      "ĠdoÄŁr": 5289,
      "ĠHis": 5290,
      "raight": 5291,
      "Ġhimself": 5292,
      "arken": 5293,
      "Ġkims": 5294,
      "ancÄ±": 5295,
      "Ġbunlar": 5296,
      "Ġoptional": 5297,
      "Bunlar": 5298,
      "De": 5299,
      "Gid": 5300,
      "SS": 5301,
      "vate": 5302,
      "Ġmiyiz": 5303,
      "Ġcity": 5304,
      "Ġcez": 5305,
      "Ġ\"%": 5306,
      "ĠMart": 5307,
      "ATOR": 5308,
      "Ġpark": 5309,
      "memi": 5310,
      "show": 5311,
      "menin": 5312,
      "Ġexpression": 5313,
      "Ġzorunday": 5314,
      "Gener": 5315,
      "vars": 5316,
      "Ġancak": 5317,
      "ĠĠĠĠĠĠĠĠĠĠĠĠĠĠĠĠĠĠĠĠĠĠĠĠĠĠĠĠĠĠĠĠĠĠ": 5318,
      "ĠPat": 5319,
      "ĠkaldÄ±": 5320,
      "meyin": 5321,
      "ehennem": 5322,
      "Bekle": 5323,
      "SaÄŁ": 5324,
      "TanrÄ±": 5325,
      "Wow": 5326,
      "elle": 5327,
      "Ġfp": 5328,
      "aptain": 5329,
      "ĠLook": 5330,
      "vern": 5331,
      "Ġcommon": 5332,
      "Ġprod": 5333,
      "itted": 5334,
      "Ġstrong": 5335,
      "ebr": 5336,
      "ĠacÄ±": 5337,
      "efore": 5338,
      "imizin": 5339,
      "ĠyardÄ±mcÄ±": 5340,
      "Ġoyun": 5341,
      "Em": 5342,
      "KaÃ§": 5343,
      "Uy": 5344,
      "ba": 5345,
      "gle": 5346,
      "eniz": 5347,
      "Ġcool": 5348,
      "acÄ±": 5349,
      "ĠBl": 5350,
      "Ġhair": 5351,
      "Ä±ÄŁÄ±nda": 5352,
      "Ġ11": 5353,
      "itional": 5354,
      "ĠÃ§ekil": 5355,
      "Ġmesaj": 5356,
      "ĠhÄ±zlÄ±": 5357,
      "platform": 5358,
      "KEY": 5359,
      "From": 5360,
      "Hat": 5361,
      "Help": 5362,
      "Pat": 5363,
      "Yeni": 5364,
      "bt": 5365,
      "label": 5366,
      "Ġothers": 5367,
      "Ġciddi": 5368,
      "imden": 5369,
      "akes": 5370,
      "acy": 5371,
      "odes": 5372,
      "theme": 5373,
      "ĠgelmiÅŁ": 5374,
      "afe": 5375,
      "eceksin": 5376,
      "Ġperform": 5377,
      "Sizi": 5378,
      "plicit": 5379,
      "ĠoldukÃ§a": 5380,
      "AY": 5381,
      "Even": 5382,
      "Yan": 5383,
      "current": 5384,
      "ĠkoÅŁ": 5385,
      "izing": 5386,
      "Which": 5387,
      "ĠGener": 5388,
      "Ġbutton": 5389,
      "ĠgÃ¶rÃ¼yor": 5390,
      "Ġspecific": 5391,
      "Ġmodules": 5392,
      "Ġcompany": 5393,
      "Ġokul": 5394,
      "Ġbundan": 5395,
      "Elbette": 5396,
      "Ġwarnings": 5397,
      "ĠImportError": 5398,
      "Car": 5399,
      "Lanet": 5400,
      "Sure": 5401,
      "auth": 5402,
      "enry": 5403,
      "Ġfast": 5404,
      "esus": 5405,
      "Ġlab": 5406,
      "ĠID": 5407,
      "Ġdear": 5408,
      "thread": 5409,
      "ĠÃ¶r": 5410,
      "ĠEv": 5411,
      "Ġvarsa": 5412,
      "Ġ18": 5413,
      "mÄ±ÅŁtÄ±": 5414,
      "ators": 5415,
      "escript": 5416,
      "Ġ50": 5417,
      "kinter": 5418,
      "Ġeminim": 5419,
      "support": 5420,
      "Doc": 5421,
      "sing": 5422,
      "tem": 5423,
      "wd": 5424,
      "Ġten": 5425,
      "Ġtri": 5426,
      "ĠmÃ¼z": 5427,
      "Ġcry": 5428,
      "urry": 5429,
      "dev": 5430,
      "Ġequ": 5431,
      "ican": 5432,
      "ĠBy": 5433,
      "ĠMan": 5434,
      "ĠbuluÅŁ": 5435,
      "erhaps": 5436,
      "Ġvisit": 5437,
      "Ay": 5438,
      "ĠBiz": 5439,
      "ĠÅŁirket": 5440,
      "ĠdeÄŁildir": 5441,
      "ĠJul": 5442,
      "convert": 5443,
      "ogn": 5444,
      "ĠarkadaÅŁÄ±m": 5445,
      "STR": 5446,
      "Ġweeks": 5447,
      "Ġzarar": 5448,
      "Cl": 5449,
      "Mer": 5450,
      "Str": 5451,
      "tree": 5452,
      "Ġpis": 5453,
      "Ġpublic": 5454,
      "Ġolmayan": 5455,
      "Ġfear": 5456,
      "ĠdÃ¶nÃ¼ÅŁ": 5457,
      "indows": 5458,
      "kinci": 5459,
      "ĠhoÅŁlan": 5460,
      ")]": 5461,
      "BU": 5462,
      "EG": 5463,
      "dom": 5464,
      "ially": 5465,
      "lendir": 5466,
      "rat": 5467,
      "Ġsound": 5468,
      "Ġlie": 5469,
      "Ġones": 5470,
      "ĠAd": 5471,
      "Ġsorum": 5472,
      "Ġquot": 5473,
      "Ġtraceback": 5474,
      "ĠISO": 5475,
      ")*": 5476,
      "gen": 5477,
      "aly": 5478,
      "ĠkanÄ±t": 5479,
      "Ġdepend": 5480,
      "emin": 5481,
      "ĠMer": 5482,
      "ĠHi": 5483,
      "Ġgeldim": 5484,
      "ighlight": 5485,
      "Ġkurtul": 5486,
      "Bize": 5487,
      "Got": 5488,
      "YÃ¼z": 5489,
      "fet": 5490,
      "iers": 5491,
      "ĠÃ¼n": 5492,
      "Ġsey": 5493,
      "Ġdah": 5494,
      "Ġscared": 5495,
      "Ġbabam": 5496,
      "039": 5497,
      "Ġidlelib": 5498,
      "Ġdistutils": 5499,
      "Ġinclude": 5500,
      "100": 5501,
      "ILE": 5502,
      "Kal": 5503,
      "bye": 5504,
      "help": 5505,
      "tuÄŁ": 5506,
      "yu": 5507,
      "Ġbank": 5508,
      "Ġdersin": 5509,
      "Ã¼ld": 5510,
      "Ġinvest": 5511,
      "api": 5512,
      "onest": 5513,
      "Ġaram": 5514,
      "race": 5515,
      "Ġboys": 5516,
      "23": 5517,
      "AÃ§": 5518,
      "Ġlady": 5519,
      "__.": 5520,
      "__',": 5521,
      "inder": 5522,
      "Ġimp": 5523,
      "tÄ±ÄŁÄ±nÄ±": 5524,
      "Ġistedim": 5525,
      "Ġfinish": 5526,
      "ĠXXX": 5527,
      "Put": 5528,
      "xc": 5529,
      "Ġbitti": 5530,
      "Ġdans": 5531,
      "Ġdeter": 5532,
      "Ġfoot": 5533,
      "ĠÃ§Ã¶": 5534,
      "ĠĠĠĠĠĠĠĠĠĠĠĠĠĠĠĠĠĠĠĠĠĠĠĠĠ": 5535,
      "chor": 5536,
      "ĠaraÅŁtÄ±r": 5537,
      "Ġorgan": 5538,
      "ĠPol": 5539,
      "essiz": 5540,
      "Ġsold": 5541,
      "Ġhash": 5542,
      "reader": 5543,
      "ORT": 5544,
      "Ġworth": 5545,
      "masÄ±na": 5546,
      "Ġterr": 5547,
      "Ġbuldum": 5548,
      "ĠdÃ¼ÅŁÃ¼ndÃ¼m": 5549,
      ">'": 5550,
      "AÅŁ": 5551,
      "Man": 5552,
      "SÄ±r": 5553,
      "dÃ¼m": 5554,
      "eople": 5555,
      "meler": 5556,
      "za": 5557,
      "Ä±sÄ±n": 5558,
      "reate": 5559,
      "Ġcell": 5560,
      "Ġfont": 5561,
      "itness": 5562,
      "Ġlar": 5563,
      "ĠSana": 5564,
      "ĠStr": 5565,
      "ĠDoc": 5566,
      "ective": 5567,
      "Ġsuccess": 5568,
      "Ġeval": 5569,
      "Ġbyte": 5570,
      "ĠadamÄ±n": 5571,
      "Ġadded": 5572,
      "Ġtamamen": 5573,
      "library": 5574,
      "abileceÄŁim": 5575,
      "Ġdokun": 5576,
      "Ġsusp": 5577,
      "Me": 5578,
      "Neler": 5579,
      "Tel": 5580,
      "malar": 5581,
      "pick": 5582,
      "Ġbal": 5583,
      "Ġthrow": 5584,
      "ism": 5585,
      "Ġgovern": 5586,
      "Ġzero": 5587,
      "ources": 5588,
      "Ġtrack": 5589,
      "Ãĸl": 5590,
      "olly": 5591,
      "ĠÃ¶ldÃ¼re": 5592,
      "abilecek": 5593,
      "Ġthanks": 5594,
      "Kesinlikle": 5595,
      "Var": 5596,
      "custom": 5597,
      "go": 5598,
      "Ġfill": 5599,
      "Ġ',": 5600,
      "Ġlow": 5601,
      "ĠolduÄŁuna": 5602,
      "Ġamong": 5603,
      "Ġkendimi": 5604,
      "landÄ±r": 5605,
      "Ġ::": 5606,
      "Everything": 5607,
      "malÄ±sÄ±n": 5608,
      "Ġignore": 5609,
      "ospital": 5610,
      "AND": 5611,
      "Keep": 5612,
      "Mu": 5613,
      "YarÄ±n": 5614,
      "ced": 5615,
      "dat": 5616,
      "xa": 5617,
      "Ġtas": 5618,
      "Ġsum": 5619,
      "Ġke": 5620,
      "div": 5621,
      "chars": 5622,
      "iley": 5623,
      "istry": 5624,
      "ĠetmiÅŁ": 5625,
      "ĠbaÅŁladÄ±": 5626,
      "Ġdefaults": 5627,
      "Onunla": 5628,
      "ĠKeyError": 5629,
      "+\\": 5630,
      "DÃ¼ÅŁ": 5631,
      "John": 5632,
      "[\"": 5633,
      "stdout": 5634,
      "ĠkÄ±y": 5635,
      "Ġkesinlikle": 5636,
      "umber": 5637,
      "Ġbirth": 5638,
      "Ġvict": 5639,
      "emi": 5640,
      "ĠBob": 5641,
      "ĠMin": 5642,
      "IND": 5643,
      "Ã¼mÃ¼": 5644,
      "Ã¼mkÃ¼n": 5645,
      "Ġcomput": 5646,
      "Ġanybody": 5647,
      ")))": 5648,
      "ĠChar": 5649,
      "ORD": 5650,
      "Ġpolit": 5651,
      "Ġfigure": 5652,
      "65": 5653,
      "Hold": 5654,
      "Kendi": 5655,
      "Ġbast": 5656,
      "enÃ§": 5657,
      "Ġyold": 5658,
      "Those": 5659,
      "Ġitself": 5660,
      "ices": 5661,
      "ĠDid": 5662,
      "chunk": 5663,
      "ĠRes": 5664,
      "Ġ14": 5665,
      "uke": 5666,
      "Ġclient": 5667,
      "Ġ*,": 5668,
      "ebil": 5669,
      "Ġturned": 5670,
      "Ġortaya": 5671,
      "Ġ::=": 5672,
      "Mom": 5673,
      "long": 5674,
      "Ġur": 5675,
      "Ġsap": 5676,
      "Ġyum": 5677,
      "Ġmap": 5678,
      "Ġlang": 5679,
      "ĠSadece": 5680,
      "__.__": 5681,
      "ndan": 5682,
      "Ġquick": 5683,
      "Ġcompat": 5684,
      "Ġmemory": 5685,
      "Ġkorum": 5686,
      "ĠyÃ¶net": 5687,
      "ĠiliÅŁk": 5688,
      "NAME": 5689,
      "yl": 5690,
      "Ġbes": 5691,
      "irim": 5692,
      "irler": 5693,
      "outine": 5694,
      "Ġprison": 5695,
      "pare": 5696,
      "Ġteklif": 5697,
      "ĠMrs": 5698,
      "Ġreplace": 5699,
      "CKET": 5700,
      "ĠDistutils": 5701,
      "ĠhÃ¼kÃ¼m": 5702,
      "normal": 5703,
      "ĠÅŀimdi": 5704,
      "inize": 5705,
      "Ġdal": 5706,
      "ĠolacaÄŁÄ±m": 5707,
      "html": 5708,
      "ops": 5709,
      "Ġistersen": 5710,
      "ĠbaÅŁl": 5711,
      "Ġcharset": 5712,
      "Ġtrain": 5713,
      "Ġentire": 5714,
      "mayacak": 5715,
      "UmarÄ±m": 5716,
      "NA": 5717,
      "NS": 5718,
      "Vay": 5719,
      "YaÅŁ": 5720,
      "kar": 5721,
      "range": 5722,
      "Ġdst": 5723,
      "ilar": 5724,
      "ĠSet": 5725,
      "ĠĠĠĠĠĠĠĠĠĠĠĠĠĠĠĠĠĠĠĠĠĠĠĠĠĠĠĠ": 5726,
      "Ġstraight": 5727,
      "ĠGRA": 5728,
      "ĠyapmÄ±ÅŁ": 5729,
      "Ġjud": 5730,
      "Ġabove": 5731,
      "uya": 5732,
      "Only": 5733,
      "Benimle": 5734,
      "Ġmutl": 5735,
      "Ġfullname": 5736,
      "Ġzamanda": 5737,
      "Ġoriginal": 5738,
      "ĠÃ§evir": 5739,
      "dst": 5740,
      "mitted": 5741,
      "Ġq": 5742,
      "Ġsorm": 5743,
      "Ġflag": 5744,
      "Ġnone": 5745,
      "Ġpress": 5746,
      "Ġarada": 5747,
      "Ġevents": 5748,
      "Ġexplain": 5749,
      "ĠQu": 5750,
      "rupt": 5751,
      "remove": 5752,
      "ULT": 5753,
      "Ġhoney": 5754,
      "KonuÅŁ": 5755,
      "Ġmillion": 5756,
      "Affed": 5757,
      "Baba": 5758,
      "Ġsek": 5759,
      "Ġyal": 5760,
      "ildi": 5761,
      "esine": 5762,
      "Ġpot": 5763,
      "ently": 5764,
      "ĠAh": 5765,
      "ĠolacaÄŁÄ±nÄ±": 5766,
      "ĠNasÄ±l": 5767,
      "ending": 5768,
      "Ġenviron": 5769,
      "ĠsÃ¶ylemiÅŁ": 5770,
      "Child": 5771,
      "ajor": 5772,
      "expected": 5773,
      "Ġdurumda": 5774,
      "Ġgarip": 5775,
      "Nereye": 5776,
      "17": 5777,
      "Sir": 5778,
      "Warning": 5779,
      "det": 5780,
      "ts": 5781,
      "tÃ¼m": 5782,
      "eren": 5783,
      "Ġfakat": 5784,
      "itable": 5785,
      "Ġple": 5786,
      "Ä±ntÄ±": 5787,
      "Ä±rsÄ±z": 5788,
      "Ġstreet": 5789,
      "ects": 5790,
      "indim": 5791,
      "ĠKap": 5792,
      "Ġgelip": 5793,
      "Ġsonunda": 5794,
      "Ġsett": 5795,
      "ĠdÃ¶v": 5796,
      "Ġduydum": 5797,
      "callback": 5798,
      "EST": 5799,
      "ĠgÃ¶rdÃ¼n": 5800,
      "Ġcorrect": 5801,
      "Comp": 5802,
      "Ġinsert": 5803,
      "After": 5804,
      "ĠGRAVE": 5805,
      "bs": 5806,
      "Ġgentle": 5807,
      "ÄŁi": 5808,
      "Ġinf": 5809,
      "lardÄ±": 5810,
      "ĠÃ§en": 5811,
      "Ġarch": 5812,
      "ĠPek": 5813,
      "Ġunless": 5814,
      "ceÄŁini": 5815,
      "OTATION": 5816,
      "ĠyÃ¼ksek": 5817,
      "Ġyeniden": 5818,
      "33": 5819,
      "Aman": 5820,
      "Could": 5821,
      "ULL": 5822,
      "domain": 5823,
      "mal": 5824,
      "ski": 5825,
      "Ġbayan": 5826,
      "Ġfell": 5827,
      "ĠfotoÄŁraf": 5828,
      "amadÄ±m": 5829,
      "asure": 5830,
      "Ġiss": 5831,
      "larÄ±mÄ±z": 5832,
      "...?": 5833,
      "Ġren": 5834,
      "ĠÃ§iz": 5835,
      "ĠDep": 5836,
      "osh": 5837,
      "ava": 5838,
      "ATED": 5839,
      "diÄŁinde": 5840,
      "Ġcompiler": 5841,
      "nemli": 5842,
      "olean": 5843,
      "Ġremove": 5844,
      "ĠoÄŁlum": 5845,
      "</": 5846,
      "bed": 5847,
      "joy": 5848,
      "kil": 5849,
      "uction": 5850,
      "incl": 5851,
      "Ġdanger": 5852,
      "Ġma": 5853,
      "Ġnok": 5854,
      "inger": 5855,
      "Ġbirisi": 5856,
      "ĠBo": 5857,
      "Ġhaft": 5858,
      "Ġgeldin": 5859,
      "Ġsoy": 5860,
      "indeki": 5861,
      "larÄ±nÄ±z": 5862,
      "addr": 5863,
      "ĠsanmÄ±yorum": 5864,
      "ĠsanÄ±yordum": 5865,
      "configure": 5866,
      "Run": 5867,
      "Widget": 5868,
      "Ġdomain": 5869,
      "Ġio": 5870,
      "Ġfault": 5871,
      "Ġdeep": 5872,
      "Ġemail": 5873,
      "Ġruh": 5874,
      "ĠMike": 5875,
      "ender": 5876,
      "ĠHim": 5877,
      "Ä±lacak": 5878,
      "Ġetmeye": 5879,
      "Hepsi": 5880,
      "attrib": 5881,
      "'])": 5882,
      "HTTP": 5883,
      "Bizi": 5884,
      "month": 5885,
      "Ġmahk": 5886,
      "lish": 5887,
      "Ġhel": 5888,
      "Ġhab": 5889,
      "Ġtheme": 5890,
      "asÄ±ndan": 5891,
      "ĠCl": 5892,
      "ĠDev": 5893,
      "ĠMac": 5894,
      "ĠGre": 5895,
      "ĠRa": 5896,
      "INT": 5897,
      "Ġverdim": 5898,
      "Onlara": 5899,
      "ebile": 5900,
      "ĠCharlie": 5901,
      "ceksin": 5902,
      "Ġavoid": 5903,
      "ĠyaptÄ±ÄŁÄ±nÄ±": 5904,
      "CTION": 5905,
      "sock": 5906,
      "Ġaction": 5907,
      "Ġwed": 5908,
      "Ã¼f": 5909,
      "Ġkov": 5910,
      "omat": 5911,
      "Ġequal": 5912,
      "Ġforce": 5913,
      "ĠBab": 5914,
      "Ġolamaz": 5915,
      "Ġara": 5916,
      "azÄ±r": 5917,
      "Ġziy": 5918,
      "ĠRay": 5919,
      "Ġ17": 5920,
      "duce": 5921,
      "Ġpartic": 5922,
      "Ä±sÄ±nÄ±": 5923,
      "cover": 5924,
      "Server": 5925,
      ",\\": 5926,
      "Sub": 5927,
      "page": 5928,
      "Ġdark": 5929,
      "Ġhes": 5930,
      "ilah": 5931,
      "ayla": 5932,
      "Ġmeant": 5933,
      "ĠTk": 5934,
      "allow": 5935,
      "ĠRom": 5936,
      "Ġvermek": 5937,
      "ĠiÅŁler": 5938,
      "execut": 5939,
      "Ġasking": 5940,
      "Ãľst": 5941,
      "Ġmembers": 5942,
      "Ġsaved": 5943,
      "ĠdÃ¼zen": 5944,
      "float": 5945,
      "::": 5946,
      "Ste": 5947,
      "VER": 5948,
      "})": 5949,
      "Ġdik": 5950,
      "ĠyÄ±k": 5951,
      "Ġhospital": 5952,
      "ille": 5953,
      "lardÄ±r": 5954,
      "ĠSim": 5955,
      "ĠTHA": 5956,
      "ĠÃ¶de": 5957,
      "Ġevde": 5958,
      "Ġevlat": 5959,
      "ĠJo": 5960,
      "inizin": 5961,
      "loader": 5962,
      "ĠÃ¼zere": 5963,
      "ĠAngel": 5964,
      "argument": 5965,
      "Ġcoff": 5966,
      "Kimse": 5967,
      "Ġchoice": 5968,
      "Ġkitap": 5969,
      "AH": 5970,
      "yer": 5971,
      "Ġtitle": 5972,
      "Ġsig": 5973,
      "ora": 5974,
      "Ġgaz": 5975,
      "Ġcaught": 5976,
      "ization": 5977,
      "ĠAg": 5978,
      "rav": 5979,
      "Ġ24": 5980,
      "Ġseeing": 5981,
      "Ġgiving": 5982,
      "ĠdÄ±ÅŁÄ±nda": 5983,
      "EXT": 5984,
      "PO": 5985,
      "ĠÃ¼y": 5986,
      "Ġtz": 5987,
      "Ġsell": 5988,
      "Ġpen": 5989,
      "Ġpull": 5990,
      "ceed": 5991,
      "ĠSH": 5992,
      "ĠBRA": 5993,
      "Ġali": 5994,
      "ĠGel": 5995,
      "ĠadÄ±m": 5996,
      "Ġolmadan": 5997,
      "Ġkalb": 5998,
      "active": 5999,
      "cale": 6000,
      "tÄ±ÄŁÄ±": 6001,
      "Ġnereye": 6002,
      "Ġbuilding": 6003,
      "children": 6004,
      "PACE": 6005,
      "Ġextension": 6006,
      "Ġcinayet": 6007,
      ".,": 6008,
      "gie": 6009,
      "oes": 6010,
      "ram": 6011,
      "ric": 6012,
      "Ġtkinter": 6013,
      "Ġpad": 6014,
      "omin": 6015,
      "ĠDay": 6016,
      "Ä±ÅŁÄ±": 6017,
      "ĠGÃ¼n": 6018,
      "ĠPaul": 6019,
      "aste": 6020,
      "ilerini": 6021,
      "ĠÃ§Ä±kart": 6022,
      "Ġquiet": 6023,
      "Ġsignal": 6024,
      "ddy": 6025,
      "ĠihtiyacÄ±": 6026,
      "Ġallowed": 6027,
      "Ä°Ã§eri": 6028,
      "ĠgÃ¼Ã§lÃ¼": 6029,
      "Ġmachine": 6030,
      "FA": 6031,
      "cancel": 6032,
      "iant": 6033,
      "ky": 6034,
      "oad": 6035,
      "tuk": 6036,
      "Ġcache": 6037,
      "Ġvide": 6038,
      "Ġru": 6039,
      "ĠAdam": 6040,
      "ĠOl": 6041,
      "ips": 6042,
      "Ġadv": 6043,
      "therwise": 6044,
      "ĠbakÄ±n": 6045,
      "ĠdÃ¶rt": 6046,
      "Ġyolunda": 6047,
      "ĠStop": 6048,
      "mask": 6049,
      "Ġtoplant": 6050,
      "ribution": 6051,
      "Old": 6052,
      "Two": 6053,
      "token": 6054,
      "onent": 6055,
      "Ġkick": 6056,
      "Ġfalse": 6057,
      "ĠJoe": 6058,
      "New": 6059,
      "ayÄ±t": 6060,
      "Ġharc": 6061,
      "Ġterk": 6062,
      "iddle": 6063,
      "TeÅŁekkÃ¼rler": 6064,
      "Ġbebek": 6065,
      "Ġkept": 6066,
      "ĠBRACKET": 6067,
      "AÄŁ": 6068,
      "bur": 6069,
      "post": 6070,
      "try": 6071,
      "ĠÃ§ift": 6072,
      "ileÅŁ": 6073,
      "ĠTanrÄ±": 6074,
      "0001": 6075,
      "indent": 6076,
      "Ġexit": 6077,
      "Ġyoktur": 6078,
      "prop": 6079,
      "AnlaÅŁ": 6080,
      "Invalid": 6081,
      "Ġoverride": 6082,
      "Ġgidiyorum": 6083,
      "Ġakl": 6084,
      "Ġdiff": 6085,
      "Ġplaying": 6086,
      "Ġdakik": 6087,
      "Ġfloat": 6088,
      "Ġhttp": 6089,
      "Ġbag": 6090,
      "enek": 6091,
      "Ġdil": 6092,
      "Ġhalk": 6093,
      "ald": 6094,
      "stream": 6095,
      "Ġcirc": 6096,
      "Ġkart": 6097,
      "amet": 6098,
      "apon": 6099,
      "Ġrid": 6100,
      "oloj": 6101,
      "ands": 6102,
      "ĠgeliÅŁ": 6103,
      "Ġverin": 6104,
      "Ġveriyorum": 6105,
      "efendi": 6106,
      "Ġidle": 6107,
      "Ġrespons": 6108,
      "Ġseconds": 6109,
      "ounter": 6110,
      "Ġfields": 6111,
      "viously": 6112,
      "Ġsebeb": 6113,
      "ĠDavid": 6114,
      "Ġherhangi": 6115,
      "Act": 6116,
      "BI": 6117,
      "bas": 6118,
      "cu": 6119,
      "ĠdÃ¼zel": 6120,
      "Ġep": 6121,
      "emiz": 6122,
      "ĠĠĠĠĠĠĠĠĠĠĠĠĠĠĠĠĠĠĠĠĠĠĠĠĠĠĠĠĠĠ": 6123,
      "ĠMay": 6124,
      "Ġcond": 6125,
      "Ġsomewhere": 6126,
      "protocol": 6127,
      "Ġtests": 6128,
      "Ġcommands": 6129,
      "Ġdifference": 6130,
      "mlink": 6131,
      "response": 6132,
      "ĠuÄŁraÅŁ": 6133,
      "amera": 6134,
      "malÄ±yÄ±m": 6135,
      "Ell": 6136,
      "Hala": 6137,
      "aN": 6138,
      "Ġeye": 6139,
      "inda": 6140,
      "Ġmention": 6141,
      "Ġmapping": 6142,
      "Ġhide": 6143,
      "Ġcause": 6144,
      "Ġintern": 6145,
      "Ġisim": 6146,
      "Ġbebe": 6147,
      "Ġwhose": 6148,
      "Ġolup": 6149,
      "ĠÅŁiÅŁ": 6150,
      "ĠDaha": 6151,
      "oci": 6152,
      "ĠWith": 6153,
      "Ġ[\"": 6154,
      "Ġistemiyor": 6155,
      "raries": 6156,
      "Biliyorum": 6157,
      "Ġsymbol": 6158,
      "ĠgÃ¶rÃ¼ÅŁÃ¼rÃ¼z": 6159,
      "Ġindent": 6160,
      "finity": 6161,
      "Ġforgot": 6162,
      "27": 6163,
      "Dikkat": 6164,
      "Ġsrc": 6165,
      "Ġbok": 6166,
      "Ġdiyorsun": 6167,
      "Ġdouble": 6168,
      "Ġhom": 6169,
      "unÃ§": 6170,
      "Ä±rÄ±": 6171,
      "ĠMary": 6172,
      "ĠiÃ§ine": 6173,
      "Ġyapma": 6174,
      "geÃ§": 6175,
      "Ġdair": 6176,
      "Ġetraf": 6177,
      "('<": 6178,
      "ffered": 6179,
      "Ġcallable": 6180,
      "Ġmemnun": 6181,
      "Ġmoving": 6182,
      "Ġquestions": 6183,
      "Ġbreath": 6184,
      "KÃ¼Ã§Ã¼k": 6185,
      "]]": 6186,
      "ted": 6187,
      "Ġtur": 6188,
      "Ġtreat": 6189,
      "orth": 6190,
      "Ġcold": 6191,
      "Ġrob": 6192,
      "Ġstar": 6193,
      "__()": 6194,
      "aÄŁÄ±n": 6195,
      "Ġloader": 6196,
      "Ġediyorsun": 6197,
      "ĠYap": 6198,
      "Ġoffer": 6199,
      "layacak": 6200,
      "Ġworked": 6201,
      "ĠayÄ±r": 6202,
      "Ġseviyor": 6203,
      "Ġolurdu": 6204,
      "ĠkÃ¶pek": 6205,
      "ĠaldÄ±": 6206,
      "Ġcontains": 6207,
      "Ġearly": 6208,
      "mission": 6209,
      "Ġnecessary": 6210,
      "AynÄ±": 6211,
      "CL": 6212,
      "Dam": 6213,
      "Down": 6214,
      "Great": 6215,
      "cor": 6216,
      "eel": 6217,
      "ni": 6218,
      "zip": 6219,
      "Ä±c": 6220,
      "ino": 6221,
      "...\"": 6222,
      "__)": 6223,
      "ĠMe": 6224,
      "ĠTV": 6225,
      "Ġbuf": 6226,
      "ĠPer": 6227,
      "ĠOf": 6228,
      "ĠEur": 6229,
      "ĠEND": 6230,
      "Ġcommun": 6231,
      "ÃĩÄ±k": 6232,
      "Ġprop": 6233,
      "ilerine": 6234,
      "Ġsanki": 6235,
      "Ġizle": 6236,
      "Ġroad": 6237,
      "Ġlocale": 6238,
      "augh": 6239,
      "Ġbuiltin": 6240,
      "Ġkayn": 6241,
      "ĠQUOTATION": 6242,
      "ĠbebeÄŁim": 6243,
      "Ey": 6244,
      "Nice": 6245,
      "Ä±ll": 6246,
      "arah": 6247,
      "Ġih": 6248,
      "Ġkiss": 6249,
      "uts": 6250,
      "Ġrelease": 6251,
      "ĠAm": 6252,
      "ĠHere": 6253,
      "ĠiÃ§er": 6254,
      "Ġ199": 6255,
      "plist": 6256,
      "plied": 6257,
      "Ġcompile": 6258,
      "mayacaÄŁÄ±m": 6259,
      "Ä°nan": 6260,
      "Ġbinary": 6261,
      "Ġmerkez": 6262,
      "Ġhissediyorum": 6263,
      "Az": 6264,
      "DiÄŁer": 6265,
      "bet": 6266,
      "zing": 6267,
      "rev": 6268,
      "stderr": 6269,
      "Ġpun": 6270,
      "Ġview": 6271,
      "ola": 6272,
      "ĠCodec": 6273,
      "Ġweak": 6274,
      "Ġweird": 6275,
      "ĠONE": 6276,
      "ĠolmadÄ±": 6277,
      "Ġpray": 6278,
      "eful": 6279,
      "Ġreading": 6280,
      "Ġstarting": 6281,
      "Ġkendine": 6282,
      "ebilirim": 6283,
      "Ġcomplete": 6284,
      "=[": 6285,
      "PAR": 6286,
      "Something": 6287,
      "Ver": 6288,
      "erve": 6289,
      "ĠyaÄŁ": 6290,
      "Ã§ok": 6291,
      "ĠAdd": 6292,
      "istory": 6293,
      ")),": 6294,
      "buf": 6295,
      "Ġtanr": 6296,
      "Ġkidding": 6297,
      "Ġpickle": 6298,
      "Ġcontent": 6299,
      "Ġcontents": 6300,
      "Ġtotal": 6301,
      "ArkadaÅŁ": 6302,
      ")'": 6303,
      "Hem": 6304,
      "PC": 6305,
      "make": 6306,
      "sik": 6307,
      "Ä±t": 6308,
      "inn": 6309,
      "Ġsplit": 6310,
      "Ġmouth": 6311,
      "ĠkuÅŁ": 6312,
      "iso": 6313,
      "Ġlay": 6314,
      "ĠSiz": 6315,
      "Ġrock": 6316,
      "Ġdolu": 6317,
      "ĠYani": 6318,
      "arsh": 6319,
      "Ġsevindim": 6320,
      "initial": 6321,
      "traceback": 6322,
      "Sizin": 6323,
      "Bey": 6324,
      "CENT": 6325,
      "Was": 6326,
      "hel": 6327,
      "ming": 6328,
      "adies": 6329,
      "Ġincre": 6330,
      "Ġ\"<": 6331,
      "ĠÅŁÃ¶yle": 6332,
      "getitem": 6333,
      "Ġettik": 6334,
      "quote": 6335,
      "Ġevidence": 6336,
      "ĠgeÃ§en": 6337,
      "ICE": 6338,
      "byte": 6339,
      "compiler": 6340,
      "ĠsakÄ±n": 6341,
      "ĠSenin": 6342,
      "frames": 6343,
      "38": 6344,
      "Sel": 6345,
      "Very": 6346,
      "Ġidi": 6347,
      "Ġmiy": 6348,
      "Ġcross": 6349,
      "ita": 6350,
      "ids": 6351,
      "ĠTeÅŁekkÃ¼r": 6352,
      "ĠgÃ¶st": 6353,
      "ĠEng": 6354,
      "Ġconstruct": 6355,
      "ĠsonuÃ§": 6356,
      "Ġdayan": 6357,
      "Ġprev": 6358,
      "ĠÃ§ocuÄŁu": 6359,
      "eleg": 6360,
      "ĠbunlarÄ±": 6361,
      "'''": 6362,
      "Ġparameters": 6363,
      "Ġselection": 6364,
      "Ġsupported": 6365,
      "Bundan": 6366,
      "Ġauthor": 6367,
      "ĠTHAI": 6368,
      "May": 6369,
      "OVE": 6370,
      "jan": 6371,
      "uf": 6372,
      "Ġta": 6373,
      "Ġtill": 6374,
      "ĠhanÄ±m": 6375,
      "Ġfair": 6376,
      "amÄ±ÅŁ": 6377,
      "iller": 6378,
      "lying": 6379,
      "Ġord": 6380,
      "ĠGu": 6381,
      "ĠOne": 6382,
      "ĠburasÄ±": 6383,
      "ichard": 6384,
      "ĠgeÃ§miÅŁ": 6385,
      "imizde": 6386,
      "Ġwritten": 6387,
      "ĠinsanlarÄ±n": 6388,
      "Ġfazl": 6389,
      "locale": 6390,
      "ĠUnicode": 6391,
      "winapi": 6392,
      "slots": 6393,
      "Ġkomik": 6394,
      "Ġattrs": 6395,
      "second": 6396,
      "Kahretsin": 6397,
      "UR": 6398,
      "ball": 6399,
      "sey": 6400,
      "Ġbott": 6401,
      "alth": 6402,
      "Ġca": 6403,
      "Ġwhom": 6404,
      "http": 6405,
      "ĠÅŁaÅŁÄ±r": 6406,
      "ĠDÃ¼n": 6407,
      "ellikle": 6408,
      "ros": 6409,
      "artÄ±ÅŁ": 6410,
      "Ġevil": 6411,
      "abled": 6412,
      "ĠyarÄ±ÅŁ": 6413,
      "tains": 6414,
      "madÄ±n": 6415,
      "ĠgÃ¶rdÃ¼ÄŁÃ¼m": 6416,
      "Ġiyiyim": 6417,
      "Ġgovernment": 6418,
      "Cause": 6419,
      "has": 6420,
      "sample": 6421,
      "Ġsad": 6422,
      "Ġders": 6423,
      "Ġ'(": 6424,
      "Ġla": 6425,
      "ĠSA": 6426,
      "Ġrow": 6427,
      "ĠAlex": 6428,
      "ĠCall": 6429,
      "ĠvarmÄ±ÅŁ": 6430,
      "Ġenc": 6431,
      "ĠgerektiÄŁini": 6432,
      "Ġappro": 6433,
      "EDI": 6434,
      "Ġfollowed": 6435,
      "charset": 6436,
      "################################": 6437,
      "Ġgizli": 6438,
      "IME": 6439,
      "Ġpiece": 6440,
      "Kaf": 6441,
      "cul": 6442,
      "dy": 6443,
      "xd": 6444,
      "anlÄ±k": 6445,
      "Ġniye": 6446,
      "esiz": 6447,
      "urur": 6448,
      "Ġdep": 6449,
      "Ġufak": 6450,
      "Ã¼nÃ¼n": 6451,
      "Ġseek": 6452,
      "Ġalan": 6453,
      "Ġloved": 6454,
      "Ġuses": 6455,
      "Ġbence": 6456,
      "Ġmusic": 6457,
      "Ġhappening": 6458,
      "emember": 6459,
      "Ġvariables": 6460,
      "Ġrules": 6461,
      "201": 6462,
      "Over": 6463,
      "Python": 6464,
      "Senden": 6465,
      "cil": 6466,
      "Ġstore": 6467,
      "ĠMA": 6468,
      "ĠMark": 6469,
      "0000": 6470,
      "Ġaraba": 6471,
      "azar": 6472,
      "road": 6473,
      "osing": 6474,
      "ĠRun": 6475,
      "ansÄ±z": 6476,
      "ively": 6477,
      "Ġkalan": 6478,
      "Sence": 6479,
      "Ġcodec": 6480,
      "Ġasker": 6481,
      "Ġsecurity": 6482,
      "Ġrecogn": 6483,
      "Ġmodel": 6484,
      "Ġbehavi": 6485,
      "LOCK": 6486,
      "belie": 6487,
      "Beb": 6488,
      "Efendim": 6489,
      "Node": 6490,
      "Tak": 6491,
      "inci": 6492,
      "Ġwitness": 6493,
      "Ġcehennem": 6494,
      "Ġkir": 6495,
      "etimes": 6496,
      "itz": 6497,
      "oking": 6498,
      "rian": 6499,
      "BirkaÃ§": 6500,
      "Ġstruct": 6501,
      "ileno": 6502,
      "position": 6503,
      "ĠStream": 6504,
      "ĠThen": 6505,
      "abiliyor": 6506,
      "oÄŁu": 6507,
      "Ġexists": 6508,
      "ektif": 6509,
      "Ġescape": 6510,
      "content": 6511,
      "baÅŁÄ±": 6512,
      "Ġmistake": 6513,
      "Oper": 6514,
      "PL": 6515,
      "Parser": 6516,
      "muyor": 6517,
      "uage": 6518,
      "Ġkr": 6519,
      "see": 6520,
      "Ġvo": 6521,
      "Ġvaz": 6522,
      "Ġride": 6523,
      "ĠdolaÅŁ": 6524,
      "ĠText": 6525,
      "ibly": 6526,
      "ĠWindows": 6527,
      "ukat": 6528,
      "Ġbilmek": 6529,
      "afet": 6530,
      "readline": 6531,
      "rowser": 6532,
      "Ġevening": 6533,
      "Ġrespect": 6534,
      "Ġkorkut": 6535,
      "Ġinterface": 6536,
      "ĠtatlÄ±": 6537,
      "Ġbenziyor": 6538,
      "Ġrisk": 6539,
      "ĠÃ§eneni": 6540,
      "Doktor": 6541,
      "bound": 6542,
      "ded": 6543,
      "gy": 6544,
      "Ġtb": 6545,
      "ela": 6546,
      "Ġyeri": 6547,
      "Ġnobody": 6548,
      "izer": 6549,
      "that": 6550,
      "ĠPeter": 6551,
      "Ġherk": 6552,
      "Ġconst": 6553,
      "Ġsensin": 6554,
      "eÅŁit": 6555,
      "opts": 6556,
      "ĠyemeÄŁ": 6557,
      "Biliyor": 6558,
      "Ġhava": 6559,
      "ĠBurada": 6560,
      "filter": 6561,
      "Ġmagic": 6562,
      "56": 6563,
      "Nobody": 6564,
      "Tat": 6565,
      "Tab": 6566,
      "gÃ¼r": 6567,
      "nan": 6568,
      "rin": 6569,
      "ww": 6570,
      "oney": 6571,
      "Ġdress": 6572,
      "eta": 6573,
      "Ġpan": 6574,
      "ecan": 6575,
      "Ġbeg": 6576,
      "olved": 6577,
      "__\"": 6578,
      "ĠHello": 6579,
      "Ġdavet": 6580,
      "Ġunittest": 6581,
      "ĠUN": 6582,
      "ĠboÄŁ": 6583,
      "Ġacross": 6584,
      "ĠadamÄ±m": 6585,
      "meli": 6586,
      "eÅŁke": 6587,
      "attrs": 6588,
      "Ġistedi": 6589,
      "Ġtutuk": 6590,
      "Ġhayatta": 6591,
      "ĠaÅŁaÄŁÄ±": 6592,
      "Ġaccount": 6593,
      "words": 6594,
      "TestCase": 6595,
      "Ġcoffee": 6596,
      "Mut": 6597,
      "luÄŁ": 6598,
      "Ġsem": 6599,
      "ĠmÃ¼kemmel": 6600,
      "Ġhonest": 6601,
      "ĠgÃ¼l": 6602,
      "ĠoÄŁ": 6603,
      "amayacak": 6604,
      "Ġeg": 6605,
      "ikan": 6606,
      "ĠDe": 6607,
      "ĠTON": 6608,
      "ĠalÄ±ÅŁ": 6609,
      "ĠadÄ±": 6610,
      "exec": 6611,
      "alarda": 6612,
      "Ġfeet": 6613,
      "ĠihtiyacÄ±n": 6614,
      "ĠaÄŁÄ±r": 6615,
      "Ġvictim": 6616,
      ".')": 6617,
      "26": 6618,
      "Ġweren": 6619,
      "icate": 6620,
      "lerimi": 6621,
      "olut": 6622,
      "Ġdispatch": 6623,
      "Arab": 6624,
      "Ġdedin": 6625,
      "seniz": 6626,
      "Returns": 6627,
      "Ġrequires": 6628,
      "Ġfelt": 6629,
      "han": 6630,
      "ham": 6631,
      "hook": 6632,
      "Ġsord": 6633,
      "Ã¼b": 6634,
      "Ġkesin": 6635,
      "Ġwhite": 6636,
      "Ġbusy": 6637,
      "ĠEll": 6638,
      "appy": 6639,
      "Ġlooked": 6640,
      "Ġpeace": 6641,
      "ĠCheck": 6642,
      "Ġayar": 6643,
      "HAN": 6644,
      "sych": 6645,
      "Ġdirectly": 6646,
      "respond": 6647,
      "Ġmanager": 6648,
      "Polis": 6649,
      "ĠsÄ±cak": 6650,
      "Ġnokt": 6651,
      "Gu": 6652,
      "Su": 6653,
      "ĠsÄ±nÄ±": 6654,
      "ength": 6655,
      "Ġcent": 6656,
      "irt": 6657,
      "imum": 6658,
      "akal": 6659,
      "aket": 6660,
      "Ġreach": 6661,
      "seq": 6662,
      "ĠSÄ±r": 6663,
      "ĠLou": 6664,
      "laÃ§": 6665,
      "ills": 6666,
      "ĠPlease": 6667,
      "Ġevl": 6668,
      "Ġpract": 6669,
      "maktan": 6670,
      "acaÄŁÄ±": 6671,
      "ĠÃ¶nÃ¼nde": 6672,
      "meyen": 6673,
      "ynen": 6674,
      "Ġsometimes": 6675,
      "tÃ¼re": 6676,
      "ancy": 6677,
      "Ġistemez": 6678,
      "ĠIncremental": 6679,
      "Ãĸyleyse": 6680,
      "parts": 6681,
      "Ġcontaining": 6682,
      "Yoksa": 6683,
      "ban": 6684,
      "sort": 6685,
      "Ġdance": 6686,
      "else": 6687,
      "ĠyukarÄ±": 6688,
      "irm": 6689,
      "Ġremain": 6690,
      "Ã¼rÃ¼st": 6691,
      "Ġsug": 6692,
      "Ġetmez": 6693,
      "ĠsoÄŁ": 6694,
      "('\\": 6695,
      "Ãĸld": 6696,
      "Ġbelow": 6697,
      "diÄŁiniz": 6698,
      "Ġblow": 6699,
      "ESS": 6700,
      "ĠihtiyacÄ±mÄ±z": 6701,
      "Ġconsider": 6702,
      "ĠkÄ±sm": 6703,
      "IncrementalDecoder": 6704,
      "extensions": 6705,
      "Del": 6706,
      "YalnÄ±z": 6707,
      "known": 6708,
      "mo": 6709,
      "Ġsqu": 6710,
      "Ġboss": 6711,
      "anÄ±ÅŁ": 6712,
      "isinin": 6713,
      "Ġring": 6714,
      "ĠÅŁehir": 6715,
      "ĠalÄ±p": 6716,
      "Ġencoded": 6717,
      "ĠgeÃ§ti": 6718,
      "Ġground": 6719,
      "Ġkimin": 6720,
      "ĠThese": 6721,
      "Ġenter": 6722,
      "senin": 6723,
      "ĠAlb": 6724,
      "Ġmoved": 6725,
      "ĠparÃ§asÄ±": 6726,
      "BRE": 6727,
      "Dav": 6728,
      "Sam": 6729,
      "fn": 6730,
      "iol": 6731,
      "kg": 6732,
      "rak": 6733,
      "safe": 6734,
      "ydi": 6735,
      "array": 6736,
      "Ġfat": 6737,
      "imd": 6738,
      "urch": 6739,
      "izmet": 6740,
      "empty": 6741,
      "olf": 6742,
      "ĠMor": 6743,
      "Ġseven": 6744,
      "Ġsuite": 6745,
      "ALF": 6746,
      "Ġ13": 6747,
      "Ġett": 6748,
      "ĠkalÄ±r": 6749,
      "Ġstrict": 6750,
      "ĠtanÄ±": 6751,
      "ĠtakÄ±m": 6752,
      "ĠyarÄ±n": 6753,
      "week": 6754,
      "ĠkÄ±zÄ±": 6755,
      "which": 6756,
      "ĠyaptÄ±ÄŁÄ±": 6757,
      "Ġverecek": 6758,
      "skip": 6759,
      "Ãĸnce": 6760,
      "Actually": 6761,
      "FL": 6762,
      "Open": 6763,
      "RO": 6764,
      "alet": 6765,
      "Ġ}": 6766,
      "Ġtip": 6767,
      "Ġtuhaf": 6768,
      "erved": 6769,
      "Ġbi": 6770,
      "ante": 6771,
      "ĠyavaÅŁ": 6772,
      "Ġcost": 6773,
      "Ġlamb": 6774,
      "ummy": 6775,
      "ecode": 6776,
      "ĠaltÄ±": 6777,
      "ĠmÄ±sÄ±nÄ±z": 6778,
      "tract": 6779,
      "ĠolmasÄ±nÄ±": 6780,
      "ledim": 6781,
      "Ġthemselves": 6782,
      "Ġgidiyorsun": 6783,
      "OUR": 6784,
      "ĠistediÄŁini": 6785,
      "diÄŁimiz": 6786,
      "charmap": 6787,
      "Ġslow": 6788,
      "seconds": 6789,
      "Ġcompletely": 6790,
      "Ġsuffix": 6791,
      "Ġinvestig": 6792,
      "40": 6793,
      "88": 6794,
      "Mes": 6795,
      "dated": 6796,
      "fc": 6797,
      "future": 6798,
      "ware": 6799,
      "Ġage": 6800,
      "Ġbath": 6801,
      "Ġmel": 6802,
      "irl": 6803,
      "Ġkere": 6804,
      "Ġfd": 6805,
      "aydÄ±m": 6806,
      "asa": 6807,
      "emy": 6808,
      "empt": 6809,
      "Ġ\"-": 6810,
      "Ġstrip": 6811,
      "ĠCr": 6812,
      "ĠalmÄ±ÅŁ": 6813,
      "Ġyapmaya": 6814,
      "quences": 6815,
      "ously": 6816,
      "Ġbroken": 6817,
      "dummy": 6818,
      "Ġgrow": 6819,
      "ĠsanÄ±yorsun": 6820,
      "ĠyetiÅŁ": 6821,
      "psini": 6822,
      "Ġstatus": 6823,
      "Ġcourt": 6824,
      "OLATED": 6825,
      "Ġsurv": 6826,
      "[:-": 6827,
      "Ġprovide": 6828,
      "ĠISOLATED": 6829,
      "ĠbÃ¶lÃ¼m": 6830,
      "ĠError": 6831,
      "fullname": 6832,
      "Sakin": 6833,
      "+------------------------------------------------": 6834,
      "Ġpicture": 6835,
      "Ġmultiple": 6836,
      "IVE": 6837,
      "Niye": 6838,
      "People": 6839,
      "ji": 6840,
      "yin": 6841,
      "Ġwake": 6842,
      "ĠLÃ¼tfen": 6843,
      "ĠClass": 6844,
      "ĠPark": 6845,
      "Ä±lÄ±yor": 6846,
      "Ġimmedi": 6847,
      "irebilir": 6848,
      "ĠiÅŁaret": 6849,
      "ĠÄ°Ã§": 6850,
      "foo": 6851,
      "Ġ40": 6852,
      "system": 6853,
      "ĠeÄŁit": 6854,
      "ĠtaÅŁÄ±n": 6855,
      "Ġfloor": 6856,
      "ĠdolayÄ±": 6857,
      "olutely": 6858,
      "36": 6859,
      "Path": 6860,
      "][": 6861,
      "aff": 6862,
      "bl": 6863,
      "bol": 6864,
      "pa": 6865,
      "rp": 6866,
      "yd": 6867,
      "Ġsock": 6868,
      "Ġwelcome": 6869,
      "Ġkel": 6870,
      "Ġnet": 6871,
      "ĠpiÅŁ": 6872,
      "dex": 6873,
      "ĠAN": 6874,
      "ĠBul": 6875,
      "ĠTur": 6876,
      "Ä±ÅŁarÄ±": 6877,
      "rog": 6878,
      "Ġzen": 6879,
      "resh": 6880,
      "uyum": 6881,
      "ĠUh": 6882,
      "ordin": 6883,
      ".\")": 6884,
      "Ġapplic": 6885,
      "Ġworried": 6886,
      "notation": 6887,
      "ĠkapÄ±": 6888,
      "ĠhayatÄ±m": 6889,
      "Ġkatil": 6890,
      "aÄŁÄ±t": 6891,
      "ĠrahatsÄ±z": 6892,
      "esterday": 6893,
      "Ġbirthday": 6894,
      "Ġwedding": 6895,
      ".)": 6896,
      "Duy": 6897,
      "First": 6898,
      "MÃ¼": 6899,
      "OÄŁl": 6900,
      "Zaman": 6901,
      "dÄ±ÄŁ": 6902,
      "highlight": 6903,
      "Ġtor": 6904,
      "arlar": 6905,
      "ĠmÃ¼mkÃ¼n": 6906,
      "ury": 6907,
      "Ġintr": 6908,
      "idge": 6909,
      "ĠBE": 6910,
      "Ġshare": 6911,
      "Ġexpl": 6912,
      "ĠWil": 6913,
      "Ġbende": 6914,
      "Ġenv": 6915,
      "ĠUse": 6916,
      "Ancak": 6917,
      "Ġexceptions": 6918,
      "Ġwriting": 6919,
      "aniel": 6920,
      "laÅŁtÄ±r": 6921,
      "mene": 6922,
      "Ġindeed": 6923,
      "Ġproblems": 6924,
      "Ġregular": 6925,
      "Ġdescrib": 6926,
      "Ġdetails": 6927,
      "Ġglobals": 6928,
      "Ġlucky": 6929,
      "Ġrapor": 6930,
      "ĠTONOS": 6931,
      "=',": 6932,
      "Kur": 6933,
      "MAP": 6934,
      "Ġsounds": 6935,
      "arth": 6936,
      "Ġdou": 6937,
      "Ġneyse": 6938,
      "umda": 6939,
      "Ġrepe": 6940,
      "Ġbeat": 6941,
      "hteÅŁ": 6942,
      "ĠmeÅŁ": 6943,
      "ĠMad": 6944,
      "Ġshell": 6945,
      "ĠaltÄ±n": 6946,
      "rie": 6947,
      "Ġelb": 6948,
      "writer": 6949,
      "Ġassoci": 6950,
      "'],": 6951,
      "sidebar": 6952,
      "Ġdeniz": 6953,
      "Ġaccording": 6954,
      "display": 6955,
      "ĠâĢĵ": 6956,
      "precated": 6957,
      "Ġfailed": 6958,
      "abileceÄŁini": 6959,
      "Eminim": 6960,
      "hteÅŁem": 6961,
      "Men": 6962,
      "PRE": 6963,
      "got": 6964,
      "uel": 6965,
      "Ġmir": 6966,
      "Ġmiydi": 6967,
      "Ġham": 6968,
      "lek": 6969,
      "alÄ±ÅŁ": 6970,
      "Ġcases": 6971,
      "Ġpal": 6972,
      "ĠSch": 6973,
      "ĠAp": 6974,
      "ĠLuc": 6975,
      "ĠDel": 6976,
      "Ġexplicit": 6977,
      "Ġyapan": 6978,
      "ĠyapacaÄŁÄ±z": 6979,
      "ĠEOF": 6980,
      "uyla": 6981,
      "mekten": 6982,
      "edence": 6983,
      "lamaz": 6984,
      "manÄ±z": 6985,
      "Ġfeed": 6986,
      "grid": 6987,
      "select": 6988,
      "Ġpolicy": 6989,
      "what": 6990,
      "Ġmovie": 6991,
      "Ġtotally": 6992,
      "Devam": 6993,
      "48": 6994,
      "92": 6995,
      "BazÄ±": 6996,
      "SÃ¶z": 6997,
      "Window": 6998,
      "ko": 6999,
      "Ġsiy": 7000,
      "Ġsyntax": 7001,
      "eyiz": 7002,
      "ĠĠĠĠĠĠĠĠĠĠĠĠĠĠĠĠĠĠĠĠĠĠĠĠĠĠĠĠĠ": 7003,
      "Ġnegative": 7004,
      "ĠTra": 7005,
      "Ġarri": 7006,
      "iÅŁim": 7007,
      "ĠÅŁeyden": 7008,
      "Ġenjoy": 7009,
      "OUND": 7010,
      "Ġbekl": 7011,
      "Check": 7012,
      "Ġinstall": 7013,
      "Ġcookies": 7014,
      "Ġdigits": 7015,
      "ĠEurope": 7016,
      "Benden": 7017,
      "Kan": 7018,
      "Remember": 7019,
      "TA": 7020,
      "dunuz": 7021,
      "rup": 7022,
      "arry": 7023,
      "ĠkayÄ±t": 7024,
      "Ġincremental": 7025,
      "lerdi": 7026,
      "ĠCal": 7027,
      "ĠDEV": 7028,
      "__':": 7029,
      "ĠHep": 7030,
      "Ġexec": 7031,
      "ĠyapÄ±yorum": 7032,
      "avall": 7033,
      "ĠolmalÄ±y": 7034,
      "ĠUND": 7035,
      "Ġtalked": 7036,
      "Ġhalle": 7037,
      "ĠgÃ¼c": 7038,
      "selection": 7039,
      "extra": 7040,
      "Ġsmell": 7041,
      "Read": 7042,
      "ĠbaÄŁlant": 7043,
      "diÄŁimi": 7044,
      "Ġortak": 7045,
      "Ġdatetime": 7046,
      "ĠmÄ±ydÄ±": 7047,
      "Ġcertainly": 7048,
      "IncrementalEncoder": 7049,
      "Ġpaper": 7050,
      "ĠkÄ±sa": 7051,
      "ĠidleConf": 7052,
      "Dad": 7053,
      "Ha": 7054,
      "Kes": 7055,
      "low": 7056,
      "sat": 7057,
      "Ġthous": 7058,
      "Ġyoll": 7059,
      "Ġwall": 7060,
      "Ġgay": 7061,
      "ÅŁeyi": 7062,
      "Ġciv": 7063,
      "amÄ±yor": 7064,
      "ĠList": 7065,
      "ĠDur": 7066,
      "ĠDef": 7067,
      "ĠMa": 7068,
      "Ġasync": 7069,
      "ĠgÃ¶tÃ¼re": 7070,
      "Ä°z": 7071,
      "ationship": 7072,
      "ĠYok": 7073,
      "Ġproperty": 7074,
      "Ġduruyor": 7075,
      "tÄ±ÄŁÄ±m": 7076,
      "preter": 7077,
      "escape": 7078,
      "Ġtrace": 7079,
      "Ġbiliyoruz": 7080,
      "Ġbased": 7081,
      "Ġaccident": 7082,
      "StreamReader": 7083,
      "StreamWriter": 7084,
      "ĠÃ§arp": 7085,
      "45": 7086,
      "Hast": 7087,
      "Kom": 7088,
      "Mad": 7089,
      "Ph": 7090,
      "WO": 7091,
      "WORD": 7092,
      "Ġtired": 7093,
      "Ġdry": 7094,
      "Ġmail": 7095,
      "Ġfn": 7096,
      "Ġnak": 7097,
      "Ġpipe": 7098,
      "Ġpsych": 7099,
      "Ġinher": 7100,
      "Ġinvalid": 7101,
      "Ġrepl": 7102,
      "Ġbirine": 7103,
      "sec": 7104,
      "iday": 7105,
      "Ġsteal": 7106,
      "ifest": 7107,
      "ĠKing": 7108,
      "ĠYa": 7109,
      "Ġmuh": 7110,
      "ĠURL": 7111,
      "Button": 7112,
      "layÄ±n": 7113,
      "elerini": 7114,
      "Ġnumer": 7115,
      "Ġmemo": 7116,
      "Shit": 7117,
      "expression": 7118,
      "Ġlogger": 7119,
      "Ġsituation": 7120,
      "ĠABOVE": 7121,
      "Ġsebep": 7122,
      "Ġbrain": 7123,
      "Ġinspect": 7124,
      "Ġcompatibility": 7125,
      "Aile": 7126,
      "Otur": 7127,
      "Ra": 7128,
      "las": 7129,
      "ĠtartÄ±ÅŁ": 7130,
      "Ġdraw": 7131,
      "lement": 7132,
      "Ġdek": 7133,
      "ĠBase": 7134,
      "ĠBLOCK": 7135,
      "ĠĠĠĠĠĠĠĠĠĠĠĠĠĠĠĠĠĠĠĠĠĠĠĠĠĠĠĠĠĠĠĠĠĠĠ": 7136,
      "oly": 7137,
      "ĠNO": 7138,
      "Ġshared": 7139,
      "ĠcanÄ±m": 7140,
      "Ġcancel": 7141,
      "ully": 7142,
      "ĠkonuÅŁuyor": 7143,
      "mamÄ±": 7144,
      "OUT": 7145,
      "mezsin": 7146,
      "ĠaldÄ±n": 7147,
      "Ġkiller": 7148,
      "Ġcorrespond": 7149,
      "GÃ¶rÃ¼n": 7150,
      "aaaa": 7151,
      "Ġdescriptor": 7152,
      "ĠSEPAR": 7153,
      "Ġteslim": 7154,
      "ĠendiÅŁelen": 7155,
      "ĠSEPARATOR": 7156,
      "07": 7157,
      "Ded": 7158,
      "Make": 7159,
      "Silah": 7160,
      "Top": 7161,
      "tok": 7162,
      "Ġtail": 7163,
      "Ġbp": 7164,
      "Ġdi": 7165,
      "Ġmey": 7166,
      "Ġhata": 7167,
      "Ġlat": 7168,
      "Ġbirinin": 7169,
      "ikleri": 7170,
      "ĠÃ§abuk": 7171,
      "andy": 7172,
      "ĠÃ¶p": 7173,
      "Ġalacak": 7174,
      "Ġoradan": 7175,
      "indir": 7176,
      "ĠEX": 7177,
      "Ġlov": 7178,
      "Ġhasn": 7179,
      "Never": 7180,
      "exe": 7181,
      "ĠyaÅŁÄ±nda": 7182,
      "Ġbreakpoint": 7183,
      "Ġdecided": 7184,
      "ĠbaÄŁlÄ±": 7185,
      "special": 7186,
      "Ġtransport": 7187,
      "Ġhighlight": 7188,
      "Ġexisting": 7189,
      "Ġfixed": 7190,
      "attle": 7191,
      "Ġvakit": 7192,
      "Ġbeginning": 7193,
      "HazÄ±r": 7194,
      "rick": 7195,
      "uge": 7196,
      "well": 7197,
      "Ġsoul": 7198,
      "Ġyed": 7199,
      "Ã¼per": 7200,
      "otstr": 7201,
      "decoder": 7202,
      "icle": 7203,
      "ĠÃ§eÅŁit": 7204,
      "ĠMax": 7205,
      "ĠOur": 7206,
      "Ä±lgÄ±n": 7207,
      "Ġengel": 7208,
      "Ġtep": 7209,
      "ĠsÃ¶yledin": 7210,
      "Ġamazing": 7211,
      "Ġproxy": 7212,
      "Ãĸnemli": 7213,
      "Ġagree": 7214,
      "Ġtekn": 7215,
      "Ġdeliver": 7216,
      "ĠinsanlarÄ±": 7217,
      "adÄ±ÄŁÄ±nÄ±": 7218,
      "extend": 7219,
      "arling": 7220,
      "subwidget": 7221,
      "oÄŁun": 7222,
      "Ġoyunc": 7223,
      "Ġprovided": 7224,
      "IZE": 7225,
      "Ġfaith": 7226,
      "Av": 7227,
      "bor": 7228,
      "celi": 7229,
      "}'": 7230,
      "ened": 7231,
      "Ġgift": 7232,
      "stdin": 7233,
      "Ġpaid": 7234,
      "decoding": 7235,
      "owers": 7236,
      "ĠNOT": 7237,
      "Whatever": 7238,
      "ĠGÃ¶r": 7239,
      "ĠPres": 7240,
      "ĠKat": 7241,
      "Ġgelin": 7242,
      "Ã¼ÅŁter": 7243,
      "ĠJames": 7244,
      "Ġproper": 7245,
      "Ġsayg": 7246,
      "Ġnewline": 7247,
      "Ġsets": 7248,
      "ladÄ±k": 7249,
      "State": 7250,
      "Ä±pkÄ±": 7251,
      "Shut": 7252,
      "ĠsÃ¼rekli": 7253,
      "Ġmenu": 7254,
      "Ġmarry": 7255,
      "Ã¼cÃ¼": 7256,
      "Ġwatching": 7257,
      "KardeÅŁ": 7258,
      "ĠkardeÅŁim": 7259,
      "Ġpoor": 7260,
      "~~~~": 7261,
      "AF": 7262,
      "Cal": 7263,
      "Zaten": 7264,
      "aled": 7265,
      "fes": 7266,
      "kind": 7267,
      "non": 7268,
      "sr": 7269,
      "Ġ//": 7270,
      "Ġikinci": 7271,
      "alde": 7272,
      "alter": 7273,
      "ayÄ±z": 7274,
      "ayacaÄŁÄ±m": 7275,
      "unittest": 7276,
      "isa": 7277,
      "isay": 7278,
      "ĠNer": 7279,
      "ĠDoktor": 7280,
      "Ä±ÅŁtÄ±r": 7281,
      "usura": 7282,
      "Ġisterim": 7283,
      "Ġeng": 7284,
      "iÄŁine": 7285,
      "struction": 7286,
      "arsan": 7287,
      "Inter": 7288,
      "subclass": 7289,
      "Ġvideo": 7290,
      "\"))": 7291,
      "Text": 7292,
      "ients": 7293,
      "mine": 7294,
      "Ġge": 7295,
      "alim": 7296,
      "stop": 7297,
      "Ġkam": 7298,
      "Ġfool": 7299,
      "Ġanimal": 7300,
      "Ġlunch": 7301,
      "Ġrom": 7302,
      "Ġroll": 7303,
      "ĠÅŁah": 7304,
      "Ġarm": 7305,
      "Ġwear": 7306,
      "Ã¼rk": 7307,
      "othes": 7308,
      "Ġspend": 7309,
      "defined": 7310,
      "ager": 7311,
      "ova": 7312,
      "Ġworse": 7313,
      "Stay": 7314,
      "Ġuyar": 7315,
      "Ġcrime": 7316,
      "Ġdeney": 7317,
      "Ġproto": 7318,
      "ĠdÃ¼nya": 7319,
      "ĠÃ¼stÃ¼nde": 7320,
      "Ġcontact": 7321,
      "Ġborn": 7322,
      "Ġgidecek": 7323,
      "QUAL": 7324,
      "Ġrequired": 7325,
      "Loader": 7326,
      "ĠDEVICE": 7327,
      "90": 7328,
      "={}": 7329,
      "before": 7330,
      "Ġsert": 7331,
      "Ġmiddle": 7332,
      "Ġ'+": 7333,
      "aking": 7334,
      "acing": 7335,
      "Ġstyle": 7336,
      "ĠLINE": 7337,
      "ĠCOM": 7338,
      "master": 7339,
      "ĠGÃ¼zel": 7340,
      "ardan": 7341,
      "INED": 7342,
      "asÄ±yla": 7343,
      "Ġtrick": 7344,
      "Ġmissed": 7345,
      "larÄ±nÄ±zÄ±": 7346,
      "ĠyaÅŁlÄ±": 7347,
      "preci": 7348,
      "Ġgives": 7349,
      "Ġtermin": 7350,
      "ginÃ§": 7351,
      "ĠOnun": 7352,
      "ĠistediÄŁin": 7353,
      "Ġremoved": 7354,
      "Ġpersonal": 7355,
      "Ġheyecan": 7356,
      "Ġyeterli": 7357,
      "Tekrar": 7358,
      "Ġtahmin": 7359,
      "ĠÄ°ÅŁte": 7360,
      "GÃ¼ven": 7361,
      "Ġsuggest": 7362,
      "60": 7363,
      "Miss": 7364,
      "Option": 7365,
      "SION": 7366,
      "simple": 7367,
      "anya": 7368,
      "leg": 7369,
      "ett": 7370,
      "Ġpair": 7371,
      "ĠSQU": 7372,
      "Ġnote": 7373,
      "ĠCaptain": 7374,
      "Ġbuddy": 7375,
      "ifies": 7376,
      "Ġalmaya": 7377,
      "ĠEver": 7378,
      "ĠFile": 7379,
      "Ä±ÄŁa": 7380,
      "ĠgerÃ§": 7381,
      "Ġclub": 7382,
      "Ġanywhere": 7383,
      "Ġzamanlar": 7384,
      "alara": 7385,
      "LEF": 7386,
      "Ã¢r": 7387,
      "Ġcarry": 7388,
      "Ä±nÄ±za": 7389,
      "ĠÃ¶lÃ¼": 7390,
      "ĠinanamÄ±yorum": 7391,
      "Ġdeclar": 7392,
      "ufffe": 7393,
      "Ġrelationship": 7394,
      "Ġselected": 7395,
      "undred": 7396,
      "ĠzamandÄ±r": 7397,
      "params": 7398,
      "global": 7399,
      "Bye": 7400,
      "Ed": 7401,
      "GE": 7402,
      "Nerede": 7403,
      "Yar": 7404,
      "irin": 7405,
      "amber": 7406,
      "llib": 7407,
      "ĠHenry": 7408,
      "Ġheight": 7409,
      "Ã¼rÃ¼m": 7410,
      "riate": 7411,
      "Ġverb": 7412,
      "larÄ±yla": 7413,
      "iving": 7414,
      "ĠVer": 7415,
      "Ġkalacak": 7416,
      "abilirsiniz": 7417,
      "ONE": 7418,
      "Ã¶rt": 7419,
      "tesIO": 7420,
      "notations": 7421,
      "ĠolacaksÄ±n": 7422,
      "Ġtravel": 7423,
      "Ġbiliyordum": 7424,
      "Ġgirlfriend": 7425,
      "ebilirsin": 7426,
      "Ġberbat": 7427,
      "ology": 7428,
      "Ġmillet": 7429,
      "ĠÃ¼lk": 7430,
      "destroy": 7431,
      "DÃ¼ÅŁÃ¼n": 7432,
      "Damn": 7433,
      "otstrap": 7434,
      "ĠSQUARE": 7435,
      "86": 7436,
      "EP": 7437,
      "IP": 7438,
      "Yer": 7439,
      "Ġtick": 7440,
      "env": 7441,
      "enum": 7442,
      "Ġdiyorum": 7443,
      "unction": 7444,
      "ising": 7445,
      "Ä±rken": 7446,
      "Ġstation": 7447,
      "ĠOtherwise": 7448,
      "ERR": 7449,
      "Ã¼ÅŁe": 7450,
      "Ãĩek": 7451,
      "ĠolduÄŁumuz": 7452,
      "lier": 7453,
      "achel": 7454,
      "Ġbroke": 7455,
      "cih": 7456,
      "ĠAny": 7457,
      "Ġfinished": 7458,
      "Whoa": 7459,
      "BakÄ±n": 7460,
      "Ġchecked": 7461,
      "Ġregister": 7462,
      "EFINED": 7463,
      "Ġdestek": 7464,
      "force": 7465,
      "Ġgidiyoruz": 7466,
      "Ġsorted": 7467,
      "uÅŁturucu": 7468,
      "Ãĩocuklar": 7469,
      "Ġreference": 7470,
      "ĠAPI": 7471,
      "ĠÅŁarkÄ±": 7472,
      "ĠUNDEFINED": 7473,
      "ACK": 7474,
      "Create": 7475,
      "Kat": 7476,
      "Try": 7477,
      "eq": 7478,
      "release": 7479,
      "sal": 7480,
      "Ġglass": 7481,
      "Ġking": 7482,
      "Ġfit": 7483,
      "itions": 7484,
      "adata": 7485,
      "Ġ':": 7486,
      "Ġdeprecated": 7487,
      "icult": 7488,
      "ĠLa": 7489,
      "ĠNick": 7490,
      "this": 7491,
      "lav": 7492,
      "ĠÃ¶le": 7493,
      "usun": 7494,
      "uses": 7495,
      "anta": 7496,
      "-------": 7497,
      "Ġchars": 7498,
      "ĠKon": 7499,
      "ĠKur": 7500,
      "Ġbilgi": 7501,
      "ĠolduÄŁun": 7502,
      "Ġthinks": 7503,
      "ĠVal": 7504,
      "Ġspent": 7505,
      "(\"<": 7506,
      "ĠSMTP": 7507,
      "elerin": 7508,
      "poss": 7509,
      "ĠistemiÅŁ": 7510,
      "Ġzorund": 7511,
      "insel": 7512,
      "Ġsubprocess": 7513,
      "ĠgÃ¼le": 7514,
      "Ġinstances": 7515,
      "ĠborÃ§": 7516,
      "Ġhasta": 7517,
      "Ġ'.'": 7518,
      "ĠException": 7519,
      "ĠyÄ±ldÄ±r": 7520,
      "Ä°nsanlar": 7521,
      "GeÃ§en": 7522,
      "Ġdocumentation": 7523,
      "Ġparticular": 7524,
      "Operation": 7525,
      "Ġvoice": 7526,
      "AteÅŁ": 7527,
      "Data": 7528,
      "FILE": 7529,
      "Koc": 7530,
      "NOW": 7531,
      "eÄŁim": 7532,
      "how": 7533,
      "house": 7534,
      "ĠÄ±ÅŁ": 7535,
      "Ġtech": 7536,
      "Ġsoc": 7537,
      "Ġmock": 7538,
      "Ġcard": 7539,
      "Ġken": 7540,
      "Ġkem": 7541,
      "Ġfish": 7542,
      "Ġdem": 7543,
      "ĠSome": 7544,
      "Ġdold": 7545,
      "ulu": 7546,
      "ĠEÄŁer": 7547,
      "ĠFrame": 7548,
      "ĠFBI": 7549,
      "Ġele": 7550,
      "ĠgÃ¶rmÃ¼ÅŁ": 7551,
      "iven": 7552,
      "ART": 7553,
      "Ġyola": 7554,
      "ĠBiraz": 7555,
      "ursor": 7556,
      "defaults": 7557,
      "dispatch": 7558,
      "Process": 7559,
      "ĠChristmas": 7560,
      "ĠNotImplementedError": 7561,
      "ĠolsaydÄ±": 7562,
      "Telefon": 7563,
      "Ġgentlemen": 7564,
      "Ġissue": 7565,
      "Ġcondition": 7566,
      "\".\\": 7567,
      "Ob": 7568,
      "mÄ±zÄ±": 7569,
      "ring": 7570,
      "rop": 7571,
      "raman": 7572,
      "tri": 7573,
      "Ġhook": 7574,
      "ĠkÄ±l": 7575,
      "edel": 7576,
      "Ġfut": 7577,
      "Ġneredeyse": 7578,
      "Ġpython": 7579,
      "vey": 7580,
      "changed": 7581,
      "Ä±klÄ±": 7582,
      "Ġbull": 7583,
      "Ġdefa": 7584,
      "ĠyaptÄ±r": 7585,
      "riage": 7586,
      "plete": 7587,
      "Ġprog": 7588,
      "ynch": 7589,
      "Anlam": 7590,
      "Ġbulmak": 7591,
      "ference": 7592,
      "background": 7593,
      "objects": 7594,
      "Ġprivate": 7595,
      "Ġwonderful": 7596,
      "complet": 7597,
      "KÃ¶tÃ¼": 7598,
      "Ġinteresting": 7599,
      "Ġenvironment": 7600,
      "mlinks": 7601,
      "55": 7602,
      "=%": 7603,
      "Dialog": 7604,
      "Frame": 7605,
      "Network": 7606,
      "Yet": 7607,
      "ari": 7608,
      "Ġdrag": 7609,
      "Ġthreat": 7610,
      "eller": 7611,
      "ĠhenÃ¼z": 7612,
      "Ġfur": 7613,
      "Ġfold": 7614,
      "akta": 7615,
      "Ġviol": 7616,
      "ulations": 7617,
      "ends": 7618,
      "ĠTix": 7619,
      "ĠalacaÄŁÄ±m": 7620,
      "Ġarea": 7621,
      "iÄŁimi": 7622,
      "ĠparayÄ±": 7623,
      "ĠolduÄŁum": 7624,
      "Ġagre": 7625,
      "ĠAnne": 7626,
      "tiÄŁi": 7627,
      "Ġsmart": 7628,
      "ajest": 7629,
      "ĠseÃ§im": 7630,
      "SakÄ±n": 7631,
      "ĠyÃ¼rÃ¼y": 7632,
      "Ġlimit": 7633,
      "ĠTestInfo": 7634,
      "ĠGeneral": 7635,
      "temp": 7636,
      "ĠsÄ±nÄ±f": 7637,
      "avallÄ±": 7638,
      "37": 7639,
      "Ap": 7640,
      "BoÅŁ": 7641,
      "Jim": 7642,
      "ODE": 7643,
      "Turn": 7644,
      "dÄ±nÄ±z": 7645,
      "fast": 7646,
      "ned": 7647,
      "raph": 7648,
      "sent": 7649,
      "tps": 7650,
      "iny": 7651,
      "Ġbought": 7652,
      "ĠdiÅŁ": 7653,
      "Ġmajor": 7654,
      "Ġhundred": 7655,
      "Ġgeni": 7656,
      "Ã¼le": 7657,
      "Ġpage": 7658,
      "ĠdemiÅŁ": 7659,
      "ication": 7660,
      "ĠÅŁur": 7661,
      "unuyor": 7662,
      "ersion": 7663,
      "Biri": 7664,
      "ivalent": 7665,
      "Ä±ydÄ±": 7666,
      "ilenames": 7667,
      "ĠtanÄ±yor": 7668,
      "Ġprevious": 7669,
      "wrap": 7670,
      "ĠbaÄŁÄ±ÅŁ": 7671,
      "board": 7672,
      "Ġmission": 7673,
      "Ġmatches": 7674,
      "Ġattempt": 7675,
      "Ġbulduk": 7676,
      "ĠButton": 7677,
      "ĠsÃ¶ylÃ¼yorum": 7678,
      "Ġyeterince": 7679,
      "Everybody": 7680,
      "Ġoccur": 7681,
      "Ġpadx": 7682,
      "Bas": 7683,
      "Eve": 7684,
      "PER": 7685,
      "zu": 7686,
      "Ġbother": 7687,
      "oups": 7688,
      "Ġic": 7689,
      "ĠkÄ±Ã§": 7690,
      "aklar": 7691,
      "Ġinn": 7692,
      "Ġeight": 7693,
      "seek": 7694,
      "appe": 7695,
      "ĠSat": 7696,
      "Ä±rlar": 7697,
      "ĠbeÄŁ": 7698,
      "ahtar": 7699,
      "ĠLabel": 7700,
      "ĠTcl": 7701,
      "ĠOR": 7702,
      "gex": 7703,
      "Ä°st": 7704,
      "Ġelements": 7705,
      "ĠdeÄŁiliz": 7706,
      "Ġgeldik": 7707,
      "ĠiÅŁle": 7708,
      "ledge": 7709,
      "lanmÄ±ÅŁ": 7710,
      "ntry": 7711,
      "Ġappreci": 7712,
      "Ġdelete": 7713,
      "Ġcharge": 7714,
      "Looks": 7715,
      "ĠkorkunÃ§": 7716,
      "ĠQue": 7717,
      "kwds": 7718,
      "Ġkaybed": 7719,
      "ĠTHREE": 7720,
      "ĠhatÄ±rlÄ±yor": 7721,
      "Ġlanguage": 7722,
      "Ġlovely": 7723,
      "COM": 7724,
      "Mon": 7725,
      "MIN": 7726,
      "Module": 7727,
      "SaÃ§": 7728,
      "fork": 7729,
      "malÄ±k": 7730,
      "Ġseks": 7731,
      "encoder": 7732,
      "reduce": 7733,
      "Ġneydi": 7734,
      "une": 7735,
      "asy": 7736,
      "Ä±mdan": 7737,
      "ĠSir": 7738,
      "Ġradi": 7739,
      "Ġforward": 7740,
      "ĠBecause": 7741,
      "ula": 7742,
      "Ġneigh": 7743,
      "ĠHALF": 7744,
      "ibar": 7745,
      "ĠiÃ§ki": 7746,
      "ĠyapacaksÄ±n": 7747,
      "athan": 7748,
      "ĠKend": 7749,
      "Ġmix": 7750,
      "getattr": 7751,
      "Ġedip": 7752,
      "ĠadÄ±na": 7753,
      "Erkek": 7754,
      "uzey": 7755,
      "Ä±yÄ±m": 7756,
      "lamaya": 7757,
      "Ġcareful": 7758,
      "Ġblue": 7759,
      "Ġtercih": 7760,
      "rench": 7761,
      "Request": 7762,
      "Ġbasit": 7763,
      "Ġsigns": 7764,
      "Ġoperations": 7765,
      "Ġdirectories": 7766,
      "Ġbuldun": 7767,
      "emezsin": 7768,
      "ĠGerÃ§ek": 7769,
      "itespace": 7770,
      "extension": 7771,
      "ĠvazgeÃ§": 7772,
      "Ġimmediately": 7773,
      "Amer": 7774,
      "Sup": 7775,
      "fileno": 7776,
      "Ġtap": 7777,
      "ores": 7778,
      "Ġyesterday": 7779,
      "stmt": 7780,
      "Ġcen": 7781,
      "isiniz": 7782,
      "Three": 7783,
      "enty": 7784,
      "iki": 7785,
      "ĠÃ§at": 7786,
      "Ġolma": 7787,
      "ĠNode": 7788,
      "though": 7789,
      "Ġdefine": 7790,
      "ĠReg": 7791,
      "ĠKom": 7792,
      "ploy": 7793,
      "miÅŁtir": 7794,
      "ĠÃ§alÄ±ÅŁan": 7795,
      "meniz": 7796,
      "Ġtarz": 7797,
      "ĠhaklÄ±": 7798,
      "ĠyanÄ±na": 7799,
      "Ġxml": 7800,
      "ĠhayatÄ±nÄ±": 7801,
      "Ġyemin": 7802,
      "ĠbaÄŁÄ±r": 7803,
      "ĠAmerican": 7804,
      "Ġimage": 7805,
      "Trans": 7806,
      "Ġdetermin": 7807,
      "78": 7808,
      "Fine": 7809,
      "LY": 7810,
      "Out": 7811,
      "THAN": 7812,
      "hur": 7813,
      "lt": 7814,
      "mÄ±yorsun": 7815,
      "night": 7816,
      "och": 7817,
      "tb": 7818,
      "ĠÅŀu": 7819,
      "Ġsos": 7820,
      "ĠbÃ¶": 7821,
      "eless": 7822,
      "Ġgaliba": 7823,
      "Ġez": 7824,
      "idered": 7825,
      "Think": 7826,
      "ĠraÄŁ": 7827,
      "Ġforever": 7828,
      "Ġshop": 7829,
      "ĠOption": 7830,
      "ĠRE": 7831,
      "Ä°sted": 7832,
      "ctools": 7833,
      "Ġelect": 7834,
      "ipp": 7835,
      "Ġclothes": 7836,
      "Ġtear": 7837,
      "Ġsende": 7838,
      "Ġboard": 7839,
      "Ġerken": 7840,
      "Ġscene": 7841,
      "Ġiyisi": 7842,
      "bootstrap": 7843,
      "network": 7844,
      "locals": 7845,
      "ĠÃ¼stÃ¼ne": 7846,
      "Ġbilirsin": 7847,
      "Ġdifficult": 7848,
      "CS": 7849,
      "More": 7850,
      "Sab": 7851,
      "Watch": 7852,
      "]\\": 7853,
      "ze": 7854,
      "Ġqueue": 7855,
      "orld": 7856,
      "arr": 7857,
      "Ġcamp": 7858,
      "Ġfrozen": 7859,
      "ĠrÃ¼y": 7860,
      "ĠTek": 7861,
      "ĠTWO": 7862,
      "istered": 7863,
      "Ġupdated": 7864,
      "Ġsonu": 7865,
      "Ġresource": 7866,
      "evk": 7867,
      "ssl": 7868,
      "Ġstarts": 7869,
      "Ġboyfriend": 7870,
      "traverse": 7871,
      "Ġphot": 7872,
      "namespace": 7873,
      "Ġfighting": 7874,
      "Ġprior": 7875,
      "canvas": 7876,
      "ĠBiliyorum": 7877,
      "Ġdefinitely": 7878,
      "Frank": 7879,
      "Ġlarge": 7880,
      "Ġdangerous": 7881,
      "Ġdoubt": 7882,
      "={},": 7883,
      "Ag": 7884,
      "Oy": 7885,
      "Sah": 7886,
      "bad": 7887,
      "dot": 7888,
      "gus": 7889,
      "hi": 7890,
      "Ġted": 7891,
      "Ġtrip": 7892,
      "aron": 7893,
      "Ġoh": 7894,
      "stairs": 7895,
      "ima": 7896,
      "Ġest": 7897,
      "Ġrah": 7898,
      "olun": 7899,
      "ĠDO": 7900,
      "().__": 7901,
      "ĠRed": 7902,
      "Ġelbette": 7903,
      "Ġvars": 7904,
      "inizden": 7905,
      "actor": 7906,
      "(\"%": 7907,
      "layan": 7908,
      "Asla": 7909,
      "ĠArab": 7910,
      "Ġplane": 7911,
      "asÄ±ndaki": 7912,
      "Ġkaybol": 7913,
      "Ġattention": 7914,
      "ILDE": 7915,
      "ĠdoÄŁum": 7916,
      "static": 7917,
      "Ġappear": 7918,
      "ĠraÄŁmen": 7919,
      "70": 7920,
      "Dis": 7921,
      "Iter": 7922,
      "LD": 7923,
      "Michael": 7924,
      "SavaÅŁ": 7925,
      "Saat": 7926,
      "URL": 7927,
      "bile": 7928,
      "multip": 7929,
      "sure": 7930,
      "winfo": 7931,
      "Ġble": 7932,
      "ĠbiÃ§": 7933,
      "Ġill": 7934,
      "reen": 7935,
      "Ġmant": 7936,
      "stit": 7937,
      "edit": 7938,
      "eti": 7939,
      "Ġlan": 7940,
      "Ġlying": 7941,
      "eyle": 7942,
      "utton": 7943,
      "ĠAss": 7944,
      "dia": 7945,
      "distr": 7946,
      "ĠÅŁeh": 7947,
      "ĠTabii": 7948,
      "ĠTILDE": 7949,
      "ĠEarth": 7950,
      "ĠRuss": 7951,
      "ĠWait": 7952,
      "Ġetmem": 7953,
      "Ġusually": 7954,
      "ATA": 7955,
      "Ġtruck": 7956,
      "Ġbakma": 7957,
      "ĠgÃ¼nler": 7958,
      "Ġapprop": 7959,
      "IST": 7960,
      "Ġservice": 7961,
      "Oraya": 7962,
      "Ġrealize": 7963,
      "Ġopened": 7964,
      "Ġborder": 7965,
      "commands": 7966,
      "Ġbecom": 7967,
      "ĠHarry": 7968,
      "Kendini": 7969,
      "Someone": 7970,
      "ĠbÃ¼yÃ¼": 7971,
      "Ġconcern": 7972,
      "Ġclaim": 7973,
      "Ġincluding": 7974,
      "ĠIDLE": 7975,
      "Ġpunish": 7976,
      "edelta": 7977,
      "distrib": 7978,
      "'\"": 7979,
      "={": 7980,
      "Pardon": 7981,
      "Time": 7982,
      "best": 7983,
      "descript": 7984,
      "fold": 7985,
      "focus": 7986,
      "nel": 7987,
      "place": 7988,
      "pipe": 7989,
      "sÄ±": 7990,
      "sine": 7991,
      "Ġtk": 7992,
      "Ġband": 7993,
      "Ġbelli": 7994,
      "orat": 7995,
      "Ġgurur": 7996,
      "Ġcel": 7997,
      "Ġpil": 7998,
      "Ġtopr": 7999,
      "isinde": 8000,
      "acter": 8001,
      "Ġrich": 8002,
      "ĠBaba": 8003,
      "ĠLike": 8004,
      "olu": 8005,
      "Ġmez": 8006,
      "andom": 8007,
      "ĠMm": 8008,
      "ĠalÄ±yor": 8009,
      "Ġalabilir": 8010,
      "ĠyaparÄ±m": 8011,
      "ĠedeceÄŁim": 8012,
      "Ġbildir": 8013,
      "others": 8014,
      "anges": 8015,
      "dirname": 8016,
      "Ã¼yÃ¼": 8017,
      "Ġimportlib": 8018,
      "ĠgÃ¼neÅŁ": 8019,
      "eze": 8020,
      "shut": 8021,
      "Ġgitmem": 8022,
      "Ġpaths": 8023,
      "Ġizley": 8024,
      "Ġquote": 8025,
      "Conn": 8026,
      "Ġactual": 8027,
      "compress": 8028,
      "Ġdecor": 8029,
      "Sanki": 8030,
      "ĠpaylaÅŁ": 8031,
      "Ġmatching": 8032,
      "Ġplaces": 8033,
      "ĠaÄŁz": 8034,
      "Ġswear": 8035,
      "Ġexecuted": 8036,
      "ĠSanÄ±rÄ±m": 8037,
      "Ġterrible": 8038,
      "Compiler": 8039,
      "ĠDeprec": 8040,
      "Col": 8041,
      "Dost": 8042,
      "Hang": 8043,
      "Jo": 8044,
      "SH": 8045,
      "SIZE": 8046,
      "ker": 8047,
      "sm": 8048,
      "sim": 8049,
      "tak": 8050,
      "orig": 8051,
      "Ġilet": 8052,
      "Ġmik": 8053,
      "Ġ'')": 8054,
      "lerimiz": 8055,
      "Ġbuz": 8056,
      "ifiers": 8057,
      "acket": 8058,
      "ardÄ±n": 8059,
      "osity": 8060,
      "ĠKÄ±z": 8061,
      "aves": 8062,
      "ĠolmasÄ±n": 8063,
      "ĠdÃ¼ÅŁÃ¼r": 8064,
      "ĠdÃ¼ÅŁÃ¼nmÃ¼ÅŁ": 8065,
      "Ġsetting": 8066,
      "wood": 8067,
      "Ġhandling": 8068,
      "Ġscrew": 8069,
      "ashed": 8070,
      "Cont": 8071,
      "Ġfeels": 8072,
      "Ġistiyorsan": 8073,
      "Ġsavun": 8074,
      "Ġlocals": 8075,
      "Ġcurrently": 8076,
      "ĠgÃ¶rÃ¼nÃ¼yorsun": 8077,
      "Ġhonor": 8078,
      "Uzun": 8079,
      "executable": 8080,
      "Ġlambda": 8081,
      ").__": 8082,
      "35": 8083,
      "RON": 8084,
      "Since": 8085,
      "hip": 8086,
      "sur": 8087,
      "tÄ±nÄ±z": 8088,
      "arp": 8089,
      "elist": 8090,
      "Ġhizmet": 8091,
      "Ġlaugh": 8092,
      "Ġreq": 8093,
      "Ġitir": 8094,
      "ĠSm": 8095,
      "ĠSaÄŁ": 8096,
      "Ġ\"\"": 8097,
      "ĠCor": 8098,
      "ĠCAR": 8099,
      "andÄ±m": 8100,
      "ĠGÃ¶": 8101,
      "Ġevine": 8102,
      "mediÄŁini": 8103,
      "Ä±mÄ±zda": 8104,
      "udur": 8105,
      "tÄ±ÄŁÄ±n": 8106,
      "Ġhayvan": 8107,
      "Ġyarg": 8108,
      "Ġprefer": 8109,
      "archive": 8110,
      "Ġokum": 8111,
      "Ġiyilik": 8112,
      "Ġoperator": 8113,
      "Ġdurumu": 8114,
      "Ġ'\"__": 8115,
      "ĠvereceÄŁim": 8116,
      "ĠCommand": 8117,
      "Ġawait": 8118,
      "memiÅŁtim": 8119,
      "Ġgeceler": 8120,
      "DÃ¼ny": 8121,
      "ĠParis": 8122,
      "****************": 8123,
      "amayÄ±z": 8124,
      "Ġiterable": 8125,
      "Ġreceived": 8126,
      "Ġbehavior": 8127,
      ">',": 8128,
      "Hav": 8129,
      "PH": 8130,
      "Sp": 8131,
      "Sal": 8132,
      "Welcome": 8133,
      "Yeter": 8134,
      "ja": 8135,
      "ystem": 8136,
      "Ġsik": 8137,
      "Ġice": 8138,
      "Ġhung": 8139,
      "ality": 8140,
      "eds": 8141,
      "Ġrema": 8142,
      "uten": 8143,
      "apt": 8144,
      "aped": 8145,
      "ĠvÃ¼c": 8146,
      "oda": 8147,
      "ĠBer": 8148,
      "dire": 8149,
      "endar": 8150,
      "istic": 8151,
      "ĠKos": 8152,
      "Ä±ÄŁÄ±na": 8153,
      "Ġveriyor": 8154,
      "ĠgÃ¶rmeye": 8155,
      "ĠolduÄŁundan": 8156,
      "ĠkalmÄ±ÅŁ": 8157,
      "Ġspot": 8158,
      "Ġboat": 8159,
      "tÄ±lar": 8160,
      "Ġacaba": 8161,
      "Ã¢y": 8162,
      "ĠyaÅŁÄ±yor": 8163,
      "Ġpositive": 8164,
      "ĠihtiyaÃ§": 8165,
      "Ġsahibi": 8166,
      "ĠanlamÄ±na": 8167,
      "ĠsÃ¶ylÃ¼yorsun": 8168,
      "Ġgeneral": 8169,
      "ĠHarika": 8170,
      "Ġdebugger": 8171,
      "Ġhedef": 8172,
      "Leave": 8173,
      "Ġsistem": 8174,
      "supported": 8175,
      "attribute": 8176,
      "Ġziyaret": 8177,
      "31": 8178,
      "Bazen": 8179,
      "Hal": 8180,
      "Rob": 8181,
      "Too": 8182,
      "gor": 8183,
      "hour": 8184,
      "sig": 8185,
      "onu": 8186,
      "Ġthird": 8187,
      "Ġyay": 8188,
      "iri": 8189,
      "amaya": 8190,
      "Ġpid": 8191,
      "abstract": 8192,
      "ĠoluÅŁ": 8193,
      "ĠMal": 8194,
      "Ġjump": 8195,
      "ĠRichard": 8196,
      "ĠWest": 8197,
      "Ġchick": 8198,
      "reset": 8199,
      "Ġcomment": 8200,
      "ĠadÄ±nÄ±": 8201,
      "ĠJan": 8202,
      "\",\"": 8203,
      "manda": 8204,
      "Ġtarih": 8205,
      "Buradan": 8206,
      "Ġistemem": 8207,
      "Isn": 8208,
      "timeError": 8209,
      "Ġsakin": 8210,
      "variable": 8211,
      "Ġhastan": 8212,
      "Ġdollar": 8213,
      "Ġdescription": 8214,
      "Ġdefinition": 8215,
      "ĠsÄ±nÄ±r": 8216,
      "ĠRobert": 8217,
      "ĠgÃ¶stere": 8218,
      "ĠsoÄŁuk": 8219,
      ">\\": 8220,
      "PORT": 8221,
      "SET": 8222,
      "fs": 8223,
      "nl": 8224,
      "ners": 8225,
      "rik": 8226,
      "warning": 8227,
      "Ġdere": 8228,
      "Ġmekt": 8229,
      "lemek": 8230,
      "Ġcat": 8231,
      "isel": 8232,
      "urun": 8233,
      "olve": 8234,
      "ulmuÅŁ": 8235,
      "Ġwearing": 8236,
      "height": 8237,
      "acaklar": 8238,
      "Ġstrange": 8239,
      "alarÄ±n": 8240,
      "Ġbrow": 8241,
      "Ġamb": 8242,
      "ĠÃ¶zgÃ¼r": 8243,
      "Ġkilling": 8244,
      "Ġmesel": 8245,
      "Everyone": 8246,
      "Ġignored": 8247,
      "ometimes": 8248,
      "Ġapartment": 8249,
      ".âĢĿ": 8250,
      "08": 8251,
      "Kab": 8252,
      "UE": 8253,
      "hmm": 8254,
      "mond": 8255,
      "rb": 8256,
      "sb": 8257,
      "Ġiler": 8258,
      "aller": 8259,
      "stant": 8260,
      "Ġcash": 8261,
      "ington": 8262,
      "Ġpaint": 8263,
      "Ġonlardan": 8264,
      "ĠSk": 8265,
      "Ġ\".": 8266,
      "ĠLo": 8267,
      "Ã¼rÃ¼": 8268,
      "Ġsens": 8269,
      "uced": 8270,
      "Ġproud": 8271,
      "OnlarÄ±n": 8272,
      "evin": 8273,
      "Ġbulur": 8274,
      "aches": 8275,
      "medik": 8276,
      "Ġpartner": 8277,
      "Ġopcode": 8278,
      "Ġmeaning": 8279,
      "Ġdeli": 8280,
      "Ġuyum": 8281,
      "Ġsuppose": 8282,
      "giliz": 8283,
      "Ġactiv": 8284,
      "Ġserv": 8285,
      "bilirim": 8286,
      "Ãĸzel": 8287,
      "Ġpossibly": 8288,
      "Ġbeyaz": 8289,
      "ĠAmerica": 8290,
      "Ġkahve": 8291,
      "Ġsinir": 8292,
      "About": 8293,
      "Ġinterested": 8294,
      "globals": 8295,
      "ĠPhil": 8296,
      "FLAG": 8297,
      "Bet": 8298,
      "BIN": 8299,
      "DÄ±ÅŁarÄ±": 8300,
      "EH": 8301,
      "Eski": 8302,
      "HÃ¢lÃ¢": 8303,
      "Ma": 8304,
      "Mm": 8305,
      "RPC": 8306,
      "cb": 8307,
      "dÄ±ÄŁÄ±nÄ±": 8308,
      "hoÅŁ": 8309,
      "press": 8310,
      "Ġhi": 8311,
      "ilere": 8312,
      "uration": 8313,
      "ĠanlÄ±yorum": 8314,
      "Ġanchor": 8315,
      "Ġlower": 8316,
      "ĠIT": 8317,
      "ĠIND": 8318,
      "Ġvia": 8319,
      "ĠSU": 8320,
      "ĠSHA": 8321,
      "ĠALL": 8322,
      "tha": 8323,
      "ĠDan": 8324,
      "ĠMus": 8325,
      "endswith": 8326,
      "Ġsep": 8327,
      "Ġseat": 8328,
      "Ġalak": 8329,
      "Ġchain": 8330,
      "Ġettin": 8331,
      "Ġunto": 8332,
      "Ġsoft": 8333,
      "quot": 8334,
      "ATH": 8335,
      "Ġolmaya": 8336,
      "ĠgÃ¶rÃ¼r": 8337,
      "Ġsong": 8338,
      "ĠiÅŁini": 8339,
      "Ġraises": 8340,
      "Ġspir": 8341,
      "owner": 8342,
      "DoÄŁ": 8343,
      "shell": 8344,
      "Ġpathname": 8345,
      "ĠArg": 8346,
      "Ġguar": 8347,
      "ĠÃ¶ldÃ¼rmek": 8348,
      "ĠiyileÅŁ": 8349,
      "Ġlocation": 8350,
      "Ġinterpreter": 8351,
      "Ġstanding": 8352,
      "Ġbizimle": 8353,
      "Ġconsidered": 8354,
      "Ġkoruy": 8355,
      "Ġfigured": 8356,
      "ĠyÄ±ldÄ±z": 8357,
      "fields": 8358,
      "warnings": 8359,
      "Ġassignment": 8360,
      "Ġpislik": 8361,
      "Ġevalu": 8362,
      "Affedersiniz": 8363,
      "Bob": 8364,
      "George": 8365,
      "fill": 8366,
      "final": 8367,
      "ior": 8368,
      "vc": 8369,
      "ining": 8370,
      "ĠilaÃ§": 8371,
      "Ġhistory": 8372,
      "ila": 8373,
      "ades": 8374,
      "Ġana": 8375,
      "Ã¶n": 8376,
      "ĠCo": 8377,
      "ĠCont": 8378,
      "ĠDNA": 8379,
      "ĠHave": 8380,
      "ĠKah": 8381,
      "Ã¼me": 8382,
      "===": 8383,
      "comment": 8384,
      "Ã¢n": 8385,
      "Ä±sÄ±z": 8386,
      "Ġdisappe": 8387,
      "Still": 8388,
      "ĠarkadaÅŁÄ±": 8389,
      "ĠaÅŁÄ±k": 8390,
      "limit": 8391,
      "ASC": 8392,
      "ĠGerman": 8393,
      "Ġlikes": 8394,
      "Ġclause": 8395,
      "Merak": 8396,
      "Muhtemelen": 8397,
      "include": 8398,
      "CP": 8399,
      "Ondan": 8400,
      "Pre": 8401,
      "bell": 8402,
      "tÃ¼k": 8403,
      "tecode": 8404,
      "vin": 8405,
      "Ġdue": 8406,
      "Ġir": 8407,
      "Ġhuz": 8408,
      "Ġhangi": 8409,
      "asks": 8410,
      "Ä±nca": 8411,
      "Ġoften": 8412,
      "ĠAy": 8413,
      "ĠÃ§Ä±lgÄ±n": 8414,
      "ĠTim": 8415,
      "Ġyapabilir": 8416,
      "Ġzek": 8417,
      "Ġupdate": 8418,
      "Ã¼ÅŁÃ¼rÃ¼z": 8419,
      "ÃĩalÄ±ÅŁ": 8420,
      "Ġsaf": 8421,
      "Åŀuna": 8422,
      "ĠsÃ¶ylemiÅŁtim": 8423,
      "ĠUm": 8424,
      "Ġbool": 8425,
      "Ġprove": 8426,
      "ictor": 8427,
      "ago": 8428,
      "shole": 8429,
      "written": 8430,
      "ĠbabasÄ±": 8431,
      "adÄ±ÄŁÄ±": 8432,
      "sene": 8433,
      "Ġstopped": 8434,
      "Bilmiyorum": 8435,
      "Ġexcuse": 8436,
      "ĠsÄ±ra": 8437,
      "Ġtransform": 8438,
      "Ġsimilar": 8439,
      "Ġkwargs": 8440,
      "ĠSpec": 8441,
      "uvvet": 8442,
      "Ġcaller": 8443,
      "complete": 8444,
      "generate": 8445,
      "Ġtehlikeli": 8446,
      "ynchron": 8447,
      "Ġappropriate": 8448,
      "=_": 8449,
      "Bo": 8450,
      "BER": 8451,
      "Jul": 8452,
      "Per": 8453,
      "SM": 8454,
      "Version": 8455,
      "hood": 8456,
      "malarÄ±": 8457,
      "ĠbÄ±Ã§": 8458,
      "Ġdiz": 8459,
      "atural": 8460,
      "ĠmaÃ§": 8461,
      "ilt": 8462,
      "otion": 8463,
      "umed": 8464,
      "ential": 8465,
      "icon": 8466,
      "oked": 8467,
      "Ġrot": 8468,
      "lerdir": 8469,
      "leriyle": 8470,
      "Ġshift": 8471,
      "ĠcanÄ±na": 8472,
      "Ġolman": 8473,
      "Ġkalmak": 8474,
      "Ġproject": 8475,
      "parator": 8476,
      "Ġsevgil": 8477,
      "Ġdiscover": 8478,
      "Ġkural": 8479,
      "Ġistemed": 8480,
      "ĠÃ¶lmÃ¼ÅŁ": 8481,
      "Ġpatron": 8482,
      "ĠarkadaÅŁÄ±n": 8483,
      "Ġdecision": 8484,
      "ĠUnix": 8485,
      "ĠolmalÄ±sÄ±n": 8486,
      "Ã¼phe": 8487,
      "Ġexecutable": 8488,
      "ĠACCENT": 8489,
      "Ġcalm": 8490,
      "Ġcops": 8491,
      "Ġforgive": 8492,
      "Ġequivalent": 8493,
      "Ġapplication": 8494,
      "Ġintrod": 8495,
      "*\\": 8496,
      "28": 8497,
      "AK": 8498,
      "Hangi": 8499,
      "MENT": 8500,
      "SIL": 8501,
      "cal": 8502,
      "lapped": 8503,
      "micro": 8504,
      "ination": 8505,
      "eng": 8506,
      "real": 8507,
      "Ġwind": 8508,
      "Ġgire": 8509,
      "Ġov": 8510,
      "edeni": 8511,
      "Ġpul": 8512,
      "Ġpady": 8513,
      "Ġang": 8514,
      "omuz": 8515,
      "Ġli": 8516,
      "icide": 8517,
      "ĠSup": 8518,
      "iyordum": 8519,
      "Ġifade": 8520,
      "ĠGe": 8521,
      "roat": 8522,
      "ĠPL": 8523,
      "Ġverici": 8524,
      "ffic": 8525,
      "Ġresim": 8526,
      "ĠdÃ¼ÅŁman": 8527,
      "codes": 8528,
      "Ġadama": 8529,
      "diÄŁine": 8530,
      "ĠÃ¶nceki": 8531,
      "Ġgitsin": 8532,
      "ension": 8533,
      "ĠyakÄ±nda": 8534,
      "eÄŁil": 8535,
      "Ġihtimal": 8536,
      "ĠyemeÄŁi": 8537,
      "ypes": 8538,
      "Ġfilter": 8539,
      "ĠsÃ¶yleyeyim": 8540,
      "Ġrelative": 8541,
      "porter": 8542,
      "Ġcompare": 8543,
      "Ġdiscuss": 8544,
      "KEYWORD": 8545,
      "ĠPresident": 8546,
      "shutdown": 8547,
      "utenant": 8548,
      "Ġderece": 8549,
      "SILON": 8550,
      ":\"": 8551,
      "Hmm": 8552,
      "Last": 8553,
      "Sit": 8554,
      "SON": 8555,
      "ValueError": 8556,
      "YT": 8557,
      "bon": 8558,
      "cÄ±k": 8559,
      "dar": 8560,
      "ford": 8561,
      "lang": 8562,
      "Ġayn": 8563,
      "Ġsla": 8564,
      "Ġskin": 8565,
      "Ġsessiz": 8566,
      "rek": 8567,
      "Ġmid": 8568,
      "Ġwine": 8569,
      "Ġkum": 8570,
      "Ġfay": 8571,
      "Ġfreak": 8572,
      "Ġfocus": 8573,
      "esinin": 8574,
      "deed": 8575,
      "abet": 8576,
      "ĠStan": 8577,
      "ĠAk": 8578,
      "lerce": 8579,
      "ĠLond": 8580,
      "olution": 8581,
      "thur": 8582,
      "Ġarrest": 8583,
      "ĠGit": 8584,
      "Ġyapamam": 8585,
      "Ġyapmaz": 8586,
      "oses": 8587,
      "artesi": 8588,
      "INAL": 8589,
      "Ãĩabuk": 8590,
      "ĠbaÅŁlat": 8591,
      "Ġilgil": 8592,
      "Ġgrup": 8593,
      "Ä±sÄ±nda": 8594,
      "LLA": 8595,
      "Ġpatient": 8596,
      "Ġavukat": 8597,
      "ĠdeÄŁiÅŁik": 8598,
      "icient": 8599,
      "ĠgÃ¼venlik": 8600,
      "Ġcollege": 8601,
      "Ġlawyer": 8602,
      "Ġbilmiyordum": 8603,
      "Ġrandev": 8604,
      "ĠkÄ±yafet": 8605,
      "helplist": 8606,
      "rupa": 8607,
      "Ġcorresponding": 8608,
      "CA": 8609,
      "Jesus": 8610,
      "KadÄ±n": 8611,
      "SU": 8612,
      "hes": 8613,
      "kanÄ±": 8614,
      "ns": 8615,
      "pay": 8616,
      "push": 8617,
      "Ġtuz": 8618,
      "Ġdude": 8619,
      "atures": 8620,
      "Ġcy": 8621,
      "Ġcamera": 8622,
      "amadÄ±": 8623,
      "Ġnetwork": 8624,
      "async": 8625,
      "Ġeh": 8626,
      "Ġvilla": 8627,
      "ĠAT": 8628,
      "dian": 8629,
      "ĠCarl": 8630,
      "ĠÅŁar": 8631,
      "ĠDanny": 8632,
      "ocal": 8633,
      "Ġarmy": 8634,
      "ĠgÃ¶m": 8635,
      "ĠcanlÄ±": 8636,
      "ĠEmin": 8637,
      "Ä°y": 8638,
      "ationWarning": 8639,
      "ansa": 8640,
      "ĠiÅŁim": 8641,
      "ĠUT": 8642,
      "ynam": 8643,
      "codings": 8644,
      "Ġwriter": 8645,
      "Ġgrab": 8646,
      "ĠkÄ±zlar": 8647,
      "ĠgÃ¼cÃ¼": 8648,
      "ĠkapÄ±yÄ±": 8649,
      "ĠaÅŁaÄŁ": 8650,
      "trace": 8651,
      "Ġumut": 8652,
      "Ġtransfer": 8653,
      "Ġmarriage": 8654,
      "ĠgideceÄŁim": 8655,
      "ĠaltÄ±na": 8656,
      "Ġholding": 8657,
      "ĠbÃ¶lg": 8658,
      "Ġvakti": 8659,
      "Ġidentifier": 8660,
      "Ġimagine": 8661,
      "ĠkarÄ±ÅŁtÄ±r": 8662,
      "ĠBelki": 8663,
      "Address": 8664,
      "INDIC": 8665,
      "'{": 8666,
      "EÅŁ": 8667,
      "HI": 8668,
      "Ot": 8669,
      "UID": 8670,
      "]*": 8671,
      "ued": 8672,
      "udum": 8673,
      "vat": 8674,
      "ĠÄ±ÅŁÄ±k": 8675,
      "Ġtough": 8676,
      "Ġdarling": 8677,
      "elde": 8678,
      "Ġmask": 8679,
      "Ã¼ret": 8680,
      "style": 8681,
      "Ġkral": 8682,
      "Ġfly": 8683,
      "Ġnorm": 8684,
      "asing": 8685,
      "Ġreset": 8686,
      "oday": 8687,
      "Ġuc": 8688,
      "Ġdosy": 8689,
      "Ġloves": 8690,
      "Ġconvers": 8691,
      "uÄŁunu": 8692,
      "Ġedit": 8693,
      "Ġclock": 8694,
      "Ġimz": 8695,
      "ĠsÃ¶yleme": 8696,
      "Ġmuhtemelen": 8697,
      "ĠÃ¶ner": 8698,
      "uyorlar": 8699,
      "Ġsetup": 8700,
      "oger": 8701,
      "Ġways": 8702,
      "Ġistiyoruz": 8703,
      "Ġoperand": 8704,
      "ĠDoÄŁru": 8705,
      "Ġseveral": 8706,
      "Ġleading": 8707,
      "ĠJimmy": 8708,
      "Ġliteral": 8709,
      "STRING": 8710,
      "Ġconstructor": 8711,
      "ĠRuntimeError": 8712,
      "Find": 8713,
      "ben": 8714,
      "cÄ±sÄ±": 8715,
      "lamam": 8716,
      "mut": 8717,
      "xml": 8718,
      "inv": 8719,
      "Ġsample": 8720,
      "Ġsitting": 8721,
      "Ġdying": 8722,
      "ĠmÃ¼ÅŁter": 8723,
      "lect": 8724,
      "Ġneck": 8725,
      "uty": 8726,
      "larÄ±mÄ±": 8727,
      "eref": 8728,
      "iyordu": 8729,
      "ulate": 8730,
      "laire": 8731,
      "ĠarÄ±yor": 8732,
      "usan": 8733,
      "Ġjoke": 8734,
      "Ġgeliyorum": 8735,
      "uÄŁun": 8736,
      "quire": 8737,
      "ĠJesus": 8738,
      "ITE": 8739,
      "ĠgÃ¶rÃ¼yorum": 8740,
      "priz": 8741,
      "eviz": 8742,
      "Ġbelong": 8743,
      "ĠgeÃ§er": 8744,
      "Ġgrub": 8745,
      "mama": 8746,
      "ĠgitmiÅŁ": 8747,
      "Ã¼ÄŁÃ¼nde": 8748,
      "Ġkendisi": 8749,
      "Ġuygul": 8750,
      "Ġuseful": 8751,
      "Ġdrunk": 8752,
      "Ġtrailing": 8753,
      "eÄŁin": 8754,
      "ĠsÃ¶ylen": 8755,
      "Ġrecent": 8756,
      "ĠgÃ¶zÃ¼k": 8757,
      "Didn": 8758,
      "ifying": 8759,
      "Ã¼sÃ¼": 8760,
      "ĠyÃ¼ksel": 8761,
      "Ġcollections": 8762,
      "Ġkulak": 8763,
      "ĠkarÅŁÄ±laÅŁ": 8764,
      "ĠSorry": 8765,
      "HatÄ±r": 8766,
      "ĠdÃ¶vÃ¼ÅŁ": 8767,
      "Ġzengin": 8768,
      "Ġappreciate": 8769,
      ">\",": 8770,
      "Ciddi": 8771,
      "KeÅŁke": 8772,
      "Move": 8773,
      "Yat": 8774,
      "here": 8775,
      "ique": 8776,
      "invalid": 8777,
      "Ġters": 8778,
      "Ġsake": 8779,
      "Ġbill": 8780,
      "Ġdra": 8781,
      "Ġthou": 8782,
      "Ġyor": 8783,
      "ĠmaÄŁ": 8784,
      "Ġgra": 8785,
      "Ġtool": 8786,
      "Ä±nd": 8787,
      "Ġangel": 8788,
      "Ġdepart": 8789,
      "eces": 8790,
      "ico": 8791,
      "ĠSal": 8792,
      "ĠAf": 8793,
      "Ġstdout": 8794,
      "ĠTam": 8795,
      "Ġ()": 8796,
      "Ġelinde": 8797,
      "inizde": 8798,
      "Ġoverr": 8799,
      "Ġamel": 8800,
      "menu": 8801,
      "Ġexpand": 8802,
      "wrapper": 8803,
      "Ġsupplied": 8804,
      "Ġistemedim": 8805,
      "Ġyolunu": 8806,
      "Ġbaban": 8807,
      "argv": 8808,
      "symbol": 8809,
      "Ġokuy": 8810,
      "ĠXML": 8811,
      "ification": 8812,
      "Ġgerekiyordu": 8813,
      "Unut": 8814,
      "Ġimplemented": 8815,
      "Ġhepimiz": 8816,
      "Ġearlier": 8817,
      "Ġbeyler": 8818,
      "Ġkahraman": 8819,
      "Ġswitch": 8820,
      "connection": 8821,
      "GÃ¼naydÄ±n": 8822,
      "ĠHEBRE": 8823,
      "policy": 8824,
      "Ġsebebi": 8825,
      "ĠHEBREW": 8826,
      "09": 8827,
      "44": 8828,
      "77": 8829,
      "Bul": 8830,
      "Found": 8831,
      "GET": 8832,
      "HO": 8833,
      "Siktir": 8834,
      "cnf": 8835,
      "cmp": 8836,
      "cfg": 8837,
      "kiler": 8838,
      "Ġssl": 8839,
      "req": 8840,
      "Ã¼ler": 8841,
      "ira": 8842,
      "eda": 8843,
      "Ġant": 8844,
      "sequence": 8845,
      "Ġvamp": 8846,
      "ĠBunun": 8847,
      "Ġneither": 8848,
      "ĠCEDI": 8849,
      "andÄ±k": 8850,
      "ĠDam": 8851,
      "ĠTake": 8852,
      "Ġbuc": 8853,
      "iydim": 8854,
      "Ġgold": 8855,
      "iÅŁan": 8856,
      "ports": 8857,
      "Ġevi": 8858,
      "iÃ§ek": 8859,
      "Ġbullet": 8860,
      "Ġlists": 8861,
      "shit": 8862,
      "Ġexperi": 8863,
      "Ġadditional": 8864,
      "adÄ±ÄŁÄ±m": 8865,
      "Exp": 8866,
      "Ġrecurs": 8867,
      "eceÄŁi": 8868,
      "urtle": 8869,
      "Ġturns": 8870,
      "damn": 8871,
      "Ġsimply": 8872,
      "Ġexecution": 8873,
      "Ġnefes": 8874,
      "fully": 8875,
      "Ġchoose": 8876,
      "Ġisteyen": 8877,
      "Ġdestroyed": 8878,
      "Ġfavorite": 8879,
      "Ġtavs": 8880,
      "ominator": 8881,
      "Ġcelebr": 8882,
      "ĠCEDILLA": 8883,
      "66": 8884,
      "Den": 8885,
      "LINE": 8886,
      "MIC": 8887,
      "TR": 8888,
      "bak": 8889,
      "cp": 8890,
      "cer": 8891,
      "cad": 8892,
      "cookie": 8893,
      "nek": 8894,
      "sch": 8895,
      "ugs": 8896,
      "zone": 8897,
      "Ä±da": 8898,
      "inte": 8899,
      "erini": 8900,
      "arily": 8901,
      "ĠdaÄŁ": 8902,
      "atÃ¶r": 8903,
      "Ġyab": 8904,
      "ĠkayÄ±p": 8905,
      "Ġfinger": 8906,
      "omas": 8907,
      "Ġladies": 8908,
      "Ġbiriyle": 8909,
      "ulous": 8910,
      "ĠCopy": 8911,
      "Ġbus": 8912,
      "using": 8913,
      "aÄŁÄ±m": 8914,
      "ĠPart": 8915,
      "Ġgetire": 8916,
      "ĠOk": 8917,
      "ĠOna": 8918,
      "osu": 8919,
      "Ġgeldiniz": 8920,
      "Ġupset": 8921,
      "ĠolmayÄ±": 8922,
      "Ġparmak": 8923,
      "Ã¼yorsun": 8924,
      "expr": 8925,
      "ĠÃ¶nc": 8926,
      "days": 8927,
      "ĠilginÃ§": 8928,
      "ania": 8929,
      "Ġprepar": 8930,
      "Ġhallet": 8931,
      "Ġcrap": 8932,
      "ĠaldÄ±k": 8933,
      "Should": 8934,
      "Ġplanet": 8935,
      "Ġbunch": 8936,
      "landÄ±": 8937,
      "Ġsahib": 8938,
      "Ġstaying": 8939,
      "Ġikna": 8940,
      "Ġprompt": 8941,
      "flow": 8942,
      "Annen": 8943,
      "Ġsonraki": 8944,
      "+----------------------------------------------------": 8945,
      "distribution": 8946,
      "*.": 8947,
      "84": 8948,
      "Back": 8949,
      "Kul": 8950,
      "MIS": 8951,
      "Ooh": 8952,
      "Que": 8953,
      "Rahat": 8954,
      "Tabi": 8955,
      "fact": 8956,
      "ws": 8957,
      "Ġmiles": 8958,
      "Ã¼ce": 8959,
      "Ġkelim": 8960,
      "ĠnasÄ±": 8961,
      "eyg": 8962,
      "Ġrev": 8963,
      "ĠSub": 8964,
      "ĠSarah": 8965,
      "ĠBet": 8966,
      "ĠÃ§ant": 8967,
      "verb": 8968,
      "ĠÅŁÃ¼k": 8969,
      "ĠDet": 8970,
      "Ġhale": 8971,
      "ĠMil": 8972,
      "ĠMag": 8973,
      "ĠHa": 8974,
      "Ġweight": 8975,
      "()'": 8976,
      "ĠyapalÄ±m": 8977,
      "ĠKal": 8978,
      "Ġedeyim": 8979,
      "Ġetc": 8980,
      "ĠkadÄ±nÄ±n": 8981,
      "plies": 8982,
      "ĠsÃ¶ylemem": 8983,
      "Ġstrength": 8984,
      "lamb": 8985,
      "Ġscr": 8986,
      "ĠgerÃ§ekleÅŁ": 8987,
      "Ġinsanlara": 8988,
      "ĠhayatÄ±": 8989,
      "madÄ±k": 8990,
      "Sonunda": 8991,
      "Ġstatic": 8992,
      "Ġdavr": 8993,
      "numer": 8994,
      "Ġallows": 8995,
      "Ġlibraries": 8996,
      "Ġconnect": 8997,
      "Handle": 8998,
      "lication": 8999,
      "MAX": 9000,
      "rollbar": 9001,
      "ĠThanks": 9002,
      "ĠSerb": 9003,
      "Ġauto": 9004,
      "manager": 9005,
      "ĠAngeles": 9006,
      "basename": 9007,
      "triple": 9008,
      "Ġfurther": 9009,
      "93": 9010,
      "Bek": 9011,
      "IK": 9012,
      "Kol": 9013,
      "Simple": 9014,
      "bg": 9015,
      "cd": 9016,
      "kim": 9017,
      "round": 9018,
      "uid": 9019,
      "vi": 9020,
      "Ã®": 9021,
      "Ġtight": 9022,
      "aries": 9023,
      "ĠdÃ¼rÃ¼st": 9024,
      "leme": 9025,
      "ĠkeÅŁ": 9026,
      "esinden": 9027,
      "uru": 9028,
      "ĠanladÄ±m": 9029,
      "Ġreve": 9030,
      "ĠSÃ¶yle": 9031,
      "Ġ\"\\": 9032,
      "Ġ\"\\'": 9033,
      "Ġbear": 9034,
      "Ġfore": 9035,
      "ĠClar": 9036,
      "elling": 9037,
      "ERE": 9038,
      "ĠKÃ¶": 9039,
      "Ġcomfort": 9040,
      "Åŀur": 9041,
      "setup": 9042,
      "Ġ201": 9043,
      "external": 9044,
      "ÄŁrenÃ§": 9045,
      "save": 9046,
      "ĠkonuÅŁur": 9047,
      "adding": 9048,
      "inleÅŁ": 9049,
      "meleri": 9050,
      "Ġolanlar": 9051,
      "Ġuyan": 9052,
      "Ġquit": 9053,
      "Ġputting": 9054,
      "Ġmakin": 9055,
      "Ġkeeps": 9056,
      "Ġkilit": 9057,
      "Ġdecide": 9058,
      "DEFA": 9059,
      "Ġdistribution": 9060,
      "Command": 9061,
      "Protocol": 9062,
      "slash": 9063,
      "flush": 9064,
      "Anyway": 9065,
      "Ġprecision": 9066,
      "ĠzorundayÄ±m": 9067,
      "Ġdahil": 9068,
      "Ġjudge": 9069,
      "ĠEnglish": 9070,
      "isayar": 9071,
      "possible": 9072,
      "DEFAULT": 9073,
      "54": 9074,
      "Alex": 9075,
      "Red": 9076,
      "Tah": 9077,
      "card": 9078,
      "Ġsurr": 9079,
      "Ġbod": 9080,
      "anch": 9081,
      "ĠdÃ¼k": 9082,
      "Ġhurry": 9083,
      "Ġ'{": 9084,
      "Ġdecoded": 9085,
      "emed": 9086,
      "ĠĠĠĠĠĠĠĠĠĠĠĠĠĠĠĠĠĠĠĠĠĠĠĠĠĠĠĠĠĠĠĠĠĠĠĠĠĠĠ": 9087,
      "ĠoluÅŁtur": 9088,
      "diff": 9089,
      "Ġ-=": 9090,
      "Ġsea": 9091,
      "Ġzip": 9092,
      "essor": 9093,
      "ieve": 9094,
      "Item": 9095,
      "uÄŁum": 9096,
      "ĠJess": 9097,
      "ĠJeff": 9098,
      "Ġyerinde": 9099,
      "Ġwrap": 9100,
      "Ġ<<": 9101,
      "space": 9102,
      "Ġappoint": 9103,
      "Ġyaramaz": 9104,
      "tÃ¼ÄŁ": 9105,
      "soft": 9106,
      "Ġsubject": 9107,
      "Ġdrug": 9108,
      "encer": 9109,
      "tual": 9110,
      "RIPT": 9111,
      "ĠAmerika": 9112,
      "ĠmÄ±yÄ±m": 9113,
      "iddet": 9114,
      "Ġliked": 9115,
      "ĠeÄŁlenceli": 9116,
      "ĠburadayÄ±m": 9117,
      "ĠWilliam": 9118,
      "ĠSorun": 9119,
      "Ġutan": 9120,
      "Content": 9121,
      "CON": 9122,
      "Fark": 9123,
      "Guy": 9124,
      "Mem": 9125,
      "Sometimes": 9126,
      "ear": 9127,
      "frozen": 9128,
      "kÄ±n": 9129,
      "ls": 9130,
      "norm": 9131,
      "xx": 9132,
      "Â´": 9133,
      "Â¶": 9134,
      "Ġtec": 9135,
      "Ġtabi": 9136,
      "Ġctypes": 9137,
      "irk": 9138,
      "etler": 9139,
      "Ġnin": 9140,
      "Ġnaz": 9141,
      "Ġnedeni": 9142,
      "ayabilir": 9143,
      "otal": 9144,
      "Ġredd": 9145,
      "ĠSec": 9146,
      "Ä±rt": 9147,
      "Ġbeer": 9148,
      "ĠBÃ¶yle": 9149,
      "ĠBÃ¼yÃ¼k": 9150,
      "ĠĠĠĠĠĠĠĠĠĠĠĠĠĠĠĠĠĠĠĠĠĠĠĠĠĠĠĠĠĠĠĠĠ": 9151,
      "ĠLee": 9152,
      "ĠDem": 9153,
      "endin": 9154,
      "ĠHelp": 9155,
      "ibe": 9156,
      "ersiz": 9157,
      "allen": 9158,
      "ĠRus": 9159,
      "ĠRead": 9160,
      "Ġsuffer": 9161,
      "Ġelem": 9162,
      "ayÄ±cÄ±": 9163,
      "ĠÃ§Ä±kan": 9164,
      "reading": 9165,
      "READ": 9166,
      "ograph": 9167,
      "Ġwrote": 9168,
      "Ġwrapper": 9169,
      "ĠÄ°s": 9170,
      "Ġexpress": 9171,
      "leyin": 9172,
      "ĠbÄ±rakÄ±n": 9173,
      "assertTrue": 9174,
      "qualname": 9175,
      "ĠsÃ¶yleyecek": 9176,
      "Ġwidgets": 9177,
      "ounce": 9178,
      "Ġcapital": 9179,
      "ometry": 9180,
      "Ġautomat": 9181,
      "ĠaÅŁkÄ±na": 9182,
      "udio": 9183,
      "urumda": 9184,
      "GI": 9185,
      "HenÃ¼z": 9186,
      "Perhaps": 9187,
      "YPE": 9188,
      "[^": 9189,
      "boy": 9190,
      "dden": 9191,
      "mur": 9192,
      "oom": 9193,
      "teki": 9194,
      "Ġtale": 9195,
      "Ġscale": 9196,
      "Ġdar": 9197,
      "Ġdump": 9198,
      "elly": 9199,
      "Ã¼ll": 9200,
      "Ġflight": 9201,
      "itary": 9202,
      "Ġpairs": 9203,
      "Ġperhaps": 9204,
      "Ġdevel": 9205,
      "eymiÅŁ": 9206,
      "Ġrol": 9207,
      "iyorsunuz": 9208,
      "uly": 9209,
      "ĠChe": 9210,
      "ĠCity": 9211,
      "ĠTel": 9212,
      "Ġyapabilirim": 9213,
      "ĠEU": 9214,
      "rier": 9215,
      "ĠFather": 9216,
      "Ġsudden": 9217,
      "Ġchurch": 9218,
      "Ġengine": 9219,
      "Ġbilim": 9220,
      "acaktÄ±r": 9221,
      "need": 9222,
      "Once": 9223,
      "AnlÄ±yorum": 9224,
      "ĠgÃ¼nah": 9225,
      "ĠsetUp": 9226,
      "Ġappend": 9227,
      "ĠkÄ±zÄ±m": 9228,
      "Ġolabilirim": 9229,
      "Ġdecimal": 9230,
      "bilirsin": 9231,
      "ĠFranc": 9232,
      "Ġpayload": 9233,
      "ĠayrÄ±ld": 9234,
      "Ġmahvet": 9235,
      "Ġcomparison": 9236,
      "Ġsurprise": 9237,
      "AdÄ±": 9238,
      "Honey": 9239,
      "Rabb": 9240,
      "SL": 9241,
      "SO": 9242,
      "dÄ±ÄŁÄ±m": 9243,
      "Ġutil": 9244,
      "Ġtask": 9245,
      "ano": 9246,
      "Ġhig": 9247,
      "Ġheld": 9248,
      "Ġgas": 9249,
      "Ġcam": 9250,
      "Ġfresh": 9251,
      "unpack": 9252,
      "asÄ±z": 9253,
      "Ġbirden": 9254,
      "Ġonay": 9255,
      "icious": 9256,
      "okes": 9257,
      "ĠSure": 9258,
      "ĠAnt": 9259,
      "ĠNothing": 9260,
      "ĠMaybe": 9261,
      "Ġweapon": 9262,
      "ĠyapmadÄ±m": 9263,
      "ĠEQUAL": 9264,
      "rive": 9265,
      "ayalet": 9266,
      "ĠsÃ¶yledik": 9267,
      "ĠkalÄ±n": 9268,
      "cons": 9269,
      "alÄ±sÄ±n": 9270,
      "Ġapolog": 9271,
      "atherine": 9272,
      "Ġsched": 9273,
      "ĠhatÄ±rlat": 9274,
      "ĠsatÄ±n": 9275,
      "Ġinvolved": 9276,
      "Ġwarning": 9277,
      "Ġgenerated": 9278,
      "Ġbulunan": 9279,
      "ĠkÄ±rÄ±k": 9280,
      "ĠdÃ¼nyanÄ±n": 9281,
      "Bring": 9282,
      "IFT": 9283,
      "Ġofficer": 9284,
      "ĠgerÃ§eÄŁi": 9285,
      "Ġinnoc": 9286,
      "payload": 9287,
      "Ġvillage": 9288,
      "52": 9289,
      "Form": 9290,
      "Nered": 9291,
      "Rep": 9292,
      "Send": 9293,
      "URI": 9294,
      "cent": 9295,
      "dÃ¼ÄŁÃ¼m": 9296,
      "ius": 9297,
      "pkg": 9298,
      "arc": 9299,
      "Ġmek": 9300,
      "Ġwood": 9301,
      "Ġowe": 9302,
      "under": 9303,
      "Ġpiss": 9304,
      "Ġreached": 9305,
      "Ġbirlik": 9306,
      "ĠSev": 9307,
      "Ġ\")": 9308,
      "ĠAL": 9309,
      "ĠBye": 9310,
      "maÄŁ": 9311,
      "istent": 9312,
      "ĠOver": 9313,
      "Ġjail": 9314,
      "ĠherÅŁeyi": 9315,
      "Ġabstract": 9316,
      "Ġbilin": 9317,
      "ĠJake": 9318,
      "negative": 9319,
      "acaÄŁÄ±na": 9320,
      "ĠÃ§Ä±kÄ±yor": 9321,
      "ebek": 9322,
      "Ġfeature": 9323,
      "acaÄŁÄ±mÄ±": 9324,
      "Ġyetenek": 9325,
      "Ġsizinle": 9326,
      "ĠgÃ¶rebil": 9327,
      "ĠbÃ¶ylece": 9328,
      "ointer": 9329,
      "ability": 9330,
      "ĠsÃ¶yleyeceÄŁim": 9331,
      "ĠanlamÄ±": 9332,
      "Ġediyoruz": 9333,
      "ĠettiÄŁini": 9334,
      "Ġpositional": 9335,
      "Ġhotel": 9336,
      "Ġtehdit": 9337,
      "Ġpresident": 9338,
      "Ġlikely": 9339,
      "Ġboundary": 9340,
      "Ġhoping": 9341,
      "String": 9342,
      "Ġbastard": 9343,
      "ĠEuropean": 9344,
      "ĠDeprecationWarning": 9345,
      "'}": 9346,
      "Bl": 9347,
      "Ber": 9348,
      "EW": 9349,
      "bap": 9350,
      "draw": 9351,
      "gÃ¼": 9352,
      "kel": 9353,
      "laman": 9354,
      "ux": 9355,
      "vous": 9356,
      "ĠÃľ": 9357,
      "ongs": 9358,
      "Ġdanc": 9359,
      "Ġhall": 9360,
      "ĠhÄ±rsÄ±z": 9361,
      "Ġgal": 9362,
      "alph": 9363,
      "Ġcc": 9364,
      "edy": 9365,
      "etch": 9366,
      "imp": 9367,
      "itude": 9368,
      "isyon": 9369,
      "omplete": 9370,
      "Ġreader": 9371,
      "Ġvan": 9372,
      "emove": 9373,
      "ental": 9374,
      "ĠSw": 9375,
      "ĠAfr": 9376,
      "ĠolasÄ±": 9377,
      "ĠMo": 9378,
      "ocomplete": 9379,
      "Ġard": 9380,
      "Ġshoes": 9381,
      "ĠgÃ¶k": 9382,
      "ĠGreat": 9383,
      "Ġknowledge": 9384,
      "ĠRep": 9385,
      "Ġoldun": 9386,
      "ĠgeldiÄŁini": 9387,
      "aved": 9388,
      "Ġener": 9389,
      "').": 9390,
      "ounded": 9391,
      "Åŀunu": 9392,
      "ayÄ±f": 9393,
      "Ġourselves": 9394,
      "ĠÃ§alÄ±ÅŁÄ±yorsun": 9395,
      "Ġkimsenin": 9396,
      "ĠyaÅŁamak": 9397,
      "ĠkÄ±zÄ±n": 9398,
      "Ġbits": 9399,
      "Ġassume": 9400,
      "Ġduydun": 9401,
      "ĠÃ¶ldÃ¼rdÃ¼": 9402,
      "Ġgetirdim": 9403,
      "ĠfarkÄ±nda": 9404,
      "Ġisterdim": 9405,
      "Ġ60": 9406,
      "Ġplans": 9407,
      "UMBER": 9408,
      "ĠeÅŁy": 9409,
      "ĠCarol": 9410,
      "ĠyalnÄ±zca": 9411,
      "ĠdÄ±ÅŁarÄ±da": 9412,
      "Ġlocked": 9413,
      "ĠSteve": 9414,
      "lÄ±ÄŁa": 9415,
      "Ġcloser": 9416,
      "Ġtwice": 9417,
      "YanlÄ±ÅŁ": 9418,
      "ĠDÃ¼nya": 9419,
      "tokens": 9420,
      "Ġdoldur": 9421,
      "evizyon": 9422,
      "(\\": 9423,
      "47": 9424,
      "91": 9425,
      "Dep": 9426,
      "Yol": 9427,
      "Yemek": 9428,
      "bc": 9429,
      "dr": 9430,
      "eral": 9431,
      "Ġbow": 9432,
      "onnie": 9433,
      "atik": 9434,
      "Ġmult": 9435,
      "Ġkop": 9436,
      "Ġkus": 9437,
      "Ġincel": 9438,
      "izz": 9439,
      "idx": 9440,
      "iced": 9441,
      "ĠSay": 9442,
      "ĠSOL": 9443,
      "ikalÄ±": 9444,
      "ĠBÄ±rak": 9445,
      "ander": 9446,
      "ĠDis": 9447,
      "ĠDOT": 9448,
      "ĠaradÄ±": 9449,
      "ĠyapÄ±l": 9450,
      "Ġzevk": 9451,
      "rompt": 9452,
      "ĠWr": 9453,
      "Ġsene": 9454,
      "Ġsence": 9455,
      "Header": 9456,
      "Ġimk": 9457,
      "miÅŁsin": 9458,
[...]
