{
  "version": "1.0",
  "truncation": null,
  "padding": null,
  "added_tokens": [
    {
      "id": 0,
      "content": "<unk>",
      "single_word": false,
      "lstrip": false,
      "rstrip": false,
      "normalized": false,
      "special": true
    },
    {
      "id": 1,
      "content": "<s>",
      "single_word": false,
      "lstrip": false,
      "rstrip": false,
      "normalized": false,
      "special": true
    },
    {
      "id": 2,
      "content": "</s>",
      "single_word": false,
      "lstrip": false,
      "rstrip": false,
      "normalized": false,
      "special": true
    },
    {
      "id": 3,
      "content": "<pad>",
      "single_word": false,
      "lstrip": false,
      "rstrip": false,
      "normalized": false,
      "special": true
    },
    {
      "id": 4,
      "content": "<|system|>",
      "single_word": false,
      "lstrip": false,
      "rstrip": false,
      "normalized": false,
      "special": true
    },
    {
      "id": 5,
      "content": "<|user|>",
      "single_word": false,
      "lstrip": false,
      "rstrip": false,
      "normalized": false,
      "special": true
    },
    {
      "id": 6,
      "content": "<|assistant|>",
      "single_word": false,
      "lstrip": false,
      "rstrip": false,
      "normalized": false,
      "special": true
    },
    {
      "id": 7,
      "content": "<|end|>",
      "single_word": false,
      "lstrip": false,
      "rstrip": false,
      "normalized": false,
      "special": true
    },
    {
      "id": 8,
      "content": "<|code|>",
      "single_word": false,
      "lstrip": false,
      "rstrip": false,
      "normalized": false,
      "special": true
    }
  ],
  "normalizer": null,
  "pre_tokenizer": {
    "type": "Sequence",
    "pretokenizers": [
      {
        "type": "Split",
        "pattern": {
          "Regex": "'(?i:[sdmt]|ll|ve|re)|[^\\r\\n\\p{L}\\p{N}]?+\\p{L}++|\\p{N}{1,3}+| ?[^\\s\\p{L}\\p{N}]++[\\r\\n]*+|\\s*[\\r\\n]|\\s+(?!\\S)|\\s+"
        },
        "behavior": "Isolated",
        "invert": false
      },
      {
        "type": "ByteLevel",
        "add_prefix_space": false,
        "trim_offsets": true,
        "use_regex": false
      }
    ]
  },
  "post_processor": {
    "type": "ByteLevel",
    "add_prefix_space": true,
    "trim_offsets": false,
    "use_regex": true
  },
  "decoder": {
    "type": "ByteLevel",
    "add_prefix_space": true,
    "trim_offsets": true,
    "use_regex": true
  },
  "model": {
    "type": "BPE",
    "dropout": null,
    "unk_token": "<unk>",
    "continuing_subword_prefix": null,
    "end_of_word_suffix": null,
    "fuse_unk": false,
    "byte_fallback": false,
    "ignore_merges": false,
    "vocab": {
      "<unk>": 0,
      "<s>": 1,
      "</s>": 2,
      "<pad>": 3,
      "<|system|>": 4,
      "<|user|>": 5,
      "<|assistant|>": 6,
      "<|end|>": 7,
      "<|code|>": 8,
      "!": 9,
      "\"": 10,
      "#": 11,
      "$": 12,
      "%": 13,
      "&": 14,
      "'": 15,
      "(": 16,
      ")": 17,
      "*": 18,
      "+": 19,
      ",": 20,
      "-": 21,
      ".": 22,
      "/": 23,
      "0": 24,
      "1": 25,
      "2": 26,
      "3": 27,
      "4": 28,
      "5": 29,
      "6": 30,
      "7": 31,
      "8": 32,
      "9": 33,
      ":": 34,
      ";": 35,
      "<": 36,
      "=": 37,
      ">": 38,
      "?": 39,
      "@": 40,
      "A": 41,
      "B": 42,
      "C": 43,
      "D": 44,
      "E": 45,
      "F": 46,
      "G": 47,
      "H": 48,
      "I": 49,
      "J": 50,
      "K": 51,
      "L": 52,
      "M": 53,
      "N": 54,
      "O": 55,
      "P": 56,
      "Q": 57,
      "R": 58,
      "S": 59,
      "T": 60,
      "U": 61,
      "V": 62,
      "W": 63,
      "X": 64,
      "Y": 65,
      "Z": 66,
      "[": 67,
      "\\": 68,
      "]": 69,
      "^": 70,
      "_": 71,
      "`": 72,
      "a": 73,
      "b": 74,
      "c": 75,
      "d": 76,
      "e": 77,
      "f": 78,
      "g": 79,
      "h": 80,
      "i": 81,
      "j": 82,
      "k": 83,
      "l": 84,
      "m": 85,
      "n": 86,
      "o": 87,
      "p": 88,
      "q": 89,
      "r": 90,
      "s": 91,
      "t": 92,
      "u": 93,
      "v": 94,
      "w": 95,
      "x": 96,
      "y": 97,
      "z": 98,
      "{": 99,
      "|": 100,
      "}": 101,
      "~": 102,
      "¡": 103,
      "¢": 104,
      "£": 105,
      "¤": 106,
      "¥": 107,
      "¦": 108,
      "§": 109,
      "¨": 110,
      "©": 111,
      "ª": 112,
      "«": 113,
      "¬": 114,
      "®": 115,
      "¯": 116,
      "°": 117,
      "±": 118,
      "²": 119,
      "³": 120,
      "´": 121,
      "µ": 122,
      "¶": 123,
      "·": 124,
      "¸": 125,
      "¹": 126,
      "º": 127,
      "»": 128,
      "¼": 129,
      "½": 130,
      "¾": 131,
      "¿": 132,
      "À": 133,
      "Á": 134,
      "Â": 135,
      "Ã": 136,
      "Ä": 137,
      "Å": 138,
      "Æ": 139,
      "Ç": 140,
      "È": 141,
      "É": 142,
      "Ê": 143,
      "Ë": 144,
      "Ì": 145,
      "Í": 146,
      "Î": 147,
      "Ï": 148,
      "Ð": 149,
      "Ñ": 150,
      "Ò": 151,
      "Ó": 152,
      "Ô": 153,
      "Õ": 154,
      "Ö": 155,
      "×": 156,
      "Ø": 157,
      "Ù": 158,
      "Ú": 159,
      "Û": 160,
      "Ü": 161,
      "Ý": 162,
      "Þ": 163,
      "ß": 164,
      "à": 165,
      "á": 166,
      "â": 167,
      "ã": 168,
      "ä": 169,
      "å": 170,
      "æ": 171,
      "ç": 172,
      "è": 173,
      "é": 174,
      "ê": 175,
      "ë": 176,
      "ì": 177,
      "í": 178,
      "î": 179,
      "ï": 180,
      "ð": 181,
      "ñ": 182,
      "ò": 183,
      "ó": 184,
      "ô": 185,
      "õ": 186,
      "ö": 187,
      "÷": 188,
      "ø": 189,
      "ù": 190,
      "ú": 191,
      "û": 192,
      "ü": 193,
      "ý": 194,
      "þ": 195,
      "ÿ": 196,
      "Ā": 197,
      "ā": 198,
      "Ă": 199,
      "ă": 200,
      "Ą": 201,
      "ą": 202,
      "Ć": 203,
      "ć": 204,
      "Ĉ": 205,
      "ĉ": 206,
      "Ċ": 207,
      "ċ": 208,
      "Č": 209,
      "č": 210,
      "Ď": 211,
      "ď": 212,
      "Đ": 213,
      "đ": 214,
      "Ē": 215,
      "ē": 216,
      "Ĕ": 217,
      "ĕ": 218,
      "Ė": 219,
      "ė": 220,
      "Ę": 221,
      "ę": 222,
      "Ě": 223,
      "ě": 224,
      "Ĝ": 225,
      "ĝ": 226,
      "Ğ": 227,
      "ğ": 228,
      "Ġ": 229,
      "ġ": 230,
      "Ģ": 231,
      "ģ": 232,
      "Ĥ": 233,
      "ĥ": 234,
      "Ħ": 235,
      "ħ": 236,
      "Ĩ": 237,
      "ĩ": 238,
      "Ī": 239,
      "ī": 240,
      "Ĭ": 241,
      "ĭ": 242,
      "Į": 243,
      "į": 244,
      "İ": 245,
      "ı": 246,
      "Ĳ": 247,
      "ĳ": 248,
      "Ĵ": 249,
      "ĵ": 250,
      "Ķ": 251,
      "ķ": 252,
      "ĸ": 253,
      "Ĺ": 254,
      "ĺ": 255,
      "Ļ": 256,
      "ļ": 257,
      "Ľ": 258,
      "ľ": 259,
      "Ŀ": 260,
      "ŀ": 261,
      "Ł": 262,
      "ł": 263,
      "Ń": 264,
      "ĠĠ": 265,
      "ĠĠĠĠ": 266,
      ".Ċ": 267,
      "Ä±": 268,
      "in": 269,
      "Ġt": 270,
      "er": 271,
      "Ġa": 272,
      "Ġs": 273,
      "Ġb": 274,
      "en": 275,
      "ĠĠĠ": 276,
      "an": 277,
      "or": 278,
      "on": 279,
      "ar": 280,
      "Ġd": 281,
      "ĠĠĠĠĠĠĠĠ": 282,
      "Ġth": 283,
      "ou": 284,
      "Ġi": 285,
      "at": 286,
      "el": 287,
      "re": 288,
      "Ġy": 289,
      "Ġm": 290,
      "Ġh": 291,
      "Ġw": 292,
      "Ġg": 293,
      "le": 294,
      "Ã¼": 295,
      "ÅŁ": 296,
      "Ġo": 297,
      "al": 298,
      "st": 299,
      "?Ċ": 300,
      "Ġc": 301,
      "Ġthe": 302,
      "ir": 303,
      "Ġk": 304,
      "ed": 305,
      "ĠĠĠĠĠĠĠ": 306,
      "Ġf": 307,
      "et": 308,
      "am": 309,
      "il": 310,
      "Ġn": 311,
      "im": 312,
      "ing": 313,
      "ay": 314,
      "ÄŁ": 315,
      "un": 316,
      "es": 317,
      "Ã§": 318,
      "it": 319,
      "as": 320,
      "Ġyou": 321,
      "Ġp": 322,
      "Ġto": 323,
      "ad": 324,
      "Ä±n": 325,
      "Ġ'": 326,
      "is": 327,
      "ak": 328,
      "ur": 329,
      "Ġan": 330,
      "om": 331,
      "ce": 332,
      "ve": 333,
      "Ġin": 334,
      "Ã¶": 335,
      "Ġl": 336,
      "ot": 337,
      "ĠI": 338,
      "elf": 339,
      "yor": 340,
      "..": 341,
      "Ġde": 342,
      ":Ċ": 343,
      ")Ċ": 344,
      "ey": 345,
      "de": 346,
      "Ġ=": 347,
      "ow": 348,
      "um": 349,
      "ac": 350,
      "Ġre": 351,
      "!Ċ": 352,
      "'s": 353,
      "ek": 354,
      "Ġbir": 355,
      "Ġis": 356,
      "Ġof": 357,
      "Ġe": 358,
      "ut": 359,
      "ld": 360,
      "ĠĠĠĠĠĠĠĠĠĠĠ": 361,
      "iz": 362,
      "se": 363,
      "lar": 364,
      "ion": 365,
      "Ä±m": 366,
      "Ġon": 367,
      "ap": 368,
      "Ġ#": 369,
      "Ġv": 370,
      "em": 371,
      "ab": 372,
      "id": 373,
      "Th": 374,
      "ec": 375,
      "Ġand": 376,
      "ent": 377,
      "Ġit": 378,
      "ic": 379,
      "ere": 380,
      "ok": 381,
      "--": 382,
      "ll": 383,
      "ĠS": 384,
      "Ġself": 385,
      "Ġ\"": 386,
      "Ä±r": 387,
      "ik": 388,
      "ig": 389,
      "Ġr": 390,
      "Ġbe": 391,
      "od": 392,
      "Ġwh": 393,
      "'t": 394,
      "ĠA": 395,
      "Ġfor": 396,
      "ĠB": 397,
      "iyor": 398,
      "Ġu": 399,
      "Ġthat": 400,
      "ĠÃ§": 401,
      "ah": 402,
      "Ã¼n": 403,
      "ĠĠĠĠĠĠĠĠĠĠĠĠĠĠĠĠ": 404,
      "Ġif": 405,
      "Ġol": 406,
      "ler": 407,
      "Ġdo": 408,
      "Ġst": 409,
      "ĠL": 410,
      "ht": 411,
      "ol": 412,
      "ver": 413,
      "Ġme": 414,
      "ame": 415,
      "ul": 416,
      "Ġne": 417,
      "di": 418,
      "):Ċ": 419,
      "Ġnot": 420,
      "Ġ-": 421,
      "ĠC": 422,
      "You": 423,
      "ĠÅŁ": 424,
      "ĠN": 425,
      "out": 426,
      "and": 427,
      "self": 428,
      "aÅŁ": 429,
      "th": 430,
      "ma": 431,
      "ly": 432,
      "Ä±z": 433,
      "ĠD": 434,
      "__": 435,
      "op": 436,
      "Ġha": 437,
      "ch": 438,
      "urn": 439,
      "ĠM": 440,
      "end": 441,
      "ith": 442,
      "one": 443,
      "'Ċ": 444,
      "Ä±k": 445,
      "ile": 446,
      "\"\"": 447,
      "Wh": 448,
      "ĠH": 449,
      "oc": 450,
      "00": 451,
      "ine": 452,
      "ĠT": 453,
      ",Ċ": 454,
      "nd": 455,
      "ue": 456,
      "la": 457,
      "...": 458,
      "Ġbu": 459,
      "iy": 460,
      "Ġhe": 461,
      "ight": 462,
      "da": 463,
      "Ġ(": 464,
      "Ġar": 465,
      "ĠÃ¶": 466,
      "ell": 467,
      "Ġsh": 468,
      "ist": 469,
      "te": 470,
      "...Ċ": 471,
      "Ä±ÅŁ": 472,
      "ib": 473,
      "Ġdef": 474,
      "ter": 475,
      "ĠĠĠĠĠĠĠĠĠĠĠĠĠĠĠ": 476,
      "Ġwe": 477,
      "ust": 478,
      "Ġwith": 479,
      "Ġret": 480,
      "Ġthis": 481,
      "if": 482,
      "Ä±yor": 483,
      "Ġse": 484,
      "Ġreturn": 485,
      "az": 486,
      "us": 487,
      "Ġas": 488,
      "Ġve": 489,
      "ome": 490,
      "Ġgo": 491,
      "ass": 492,
      "Ġal": 493,
      "ĠiÃ§": 494,
      "ĠgÃ¶": 495,
      "ill": 496,
      "Ġhave": 497,
      "unu": 498,
      "Ġor": 499,
      "pt": 500,
      "Ġ'\\": 501,
      "ant": 502,
      "ect": 503,
      "Ġwas": 504,
      "yle": 505,
      "ack": 506,
      "ĠG": 507,
      "----": 508,
      "ind": 509,
      "ers": 510,
      "(self": 511,
      "ro": 512,
      "Ġex": 513,
      "Ġyour": 514,
      "aÄŁ": 515,
      "Ġkn": 516,
      "ry": 517,
      "ould": 518,
      "Ġare": 519,
      "Ġyap": 520,
      "Ġcan": 521,
      "ra": 522,
      "'m": 523,
      "._": 524,
      "ĠP": 525,
      "eni": 526,
      "ort": 527,
      "iÅŁ": 528,
      "Ġget": 529,
      "ĠO": 530,
      "Ä±l": 531,
      "Ġj": 532,
      "'re": 533,
      "all": 534,
      "ate": 535,
      "ard": 536,
      "ana": 537,
      "Ã¼z": 538,
      "ĠiÃ§in": 539,
      "Ġmy": 540,
      "ge": 541,
      "os": 542,
      "ĠE": 543,
      "Ġknow": 544,
      "ece": 545,
      "Ġz": 546,
      "art": 547,
      "ini": 548,
      "rom": 549,
      "ode": 550,
      "Ġat": 551,
      "Ã¼r": 552,
      "ĠdeÄŁ": 553,
      "ĠR": 554,
      "ri": 555,
      "Ä°": 556,
      "ER": 557,
      "Ġ->": 558,
      "ĠF": 559,
      "ct": 560,
      "ĠÅŁey": 561,
      "ath": 562,
      "xt": 563,
      "The": 564,
      "Ġsu": 565,
      "Ġher": 566,
      "Ġel": 567,
      "IN": 568,
      "Ġist": 569,
      "ĠW": 570,
      "Ġold": 571,
      "Ġlo": 572,
      "Ġvar": 573,
      "Ġcon": 574,
      "Ġch": 575,
      "res": 576,
      "ation": 577,
      "ip": 578,
      "ĠK": 579,
      "Ġ_": 580,
      "Ä±nÄ±": 581,
      "ess": 582,
      "ĠdeÄŁil": 583,
      "Bu": 584,
      "our": 585,
      "ror": 586,
      "Ä±ÄŁ": 587,
      "\"Ċ": 588,
      "ie": 589,
      "Ġda": 590,
      "Ġall": 591,
      "Ġle": 592,
      "Ġmi": 593,
      "Ġ\"\"\"": 594,
      "iyorum": 595,
      "get": 596,
      "ike": 597,
      "Ã¶yle": 598,
      "AL": 599,
      "It": 600,
      "cl": 601,
      "ime": 602,
      "port": 603,
      "Ġab": 604,
      "',": 605,
      "Ġdon": 606,
      "Ġout": 607,
      "What": 608,
      "Ġwhat": 609,
      "ĠmÄ±": 610,
      "sun": 611,
      "ake": 612,
      "Ġgel": 613,
      "uÄŁ": 614,
      "Ġver": 615,
      "ET": 616,
      "Ġed": 617,
      "Ã¼m": 618,
      "Ġet": 619,
      "Ġup": 620,
      "ore": 621,
      "Ã¼ÅŁ": 622,
      "ink": 623,
      "Ġus": 624,
      "Ġcom": 625,
      "tr": 626,
      "Ġben": 627,
      "eth": 628,
      "ilir": 629,
      "av": 630,
      "ĠĠĠĠĠĠĠĠĠĠĠĠ": 631,
      "TER": 632,
      "Ġun": 633,
      "ta": 634,
      "name": 635,
      "Ġso": 636,
      "Ġjust": 637,
      "Ġen": 638,
      "ob": 639,
      "Ġad": 640,
      "ĠNone": 641,
      "Ġfrom": 642,
      "Ġger": 643,
      "uÅŁ": 644,
      "ast": 645,
      "uk": 646,
      "iÄŁ": 647,
      "Ġhere": 648,
      "pe": 649,
      "he": 650,
      "ase": 651,
      "dan": 652,
      "ive": 653,
      "('": 654,
      "Ġlike": 655,
      "Ġbil": 656,
      "ff": 657,
      "qu": 658,
      "uy": 659,
      "'ll": 660,
      "ult": 661,
      "AT": 662,
      "Ġolm": 663,
      "()": 664,
      "Ġhim": 665,
      "ize": 666,
      "mek": 667,
      "Ãĩ": 668,
      "ki": 669,
      "Ä±nda": 670,
      "()Ċ": 671,
      "Ġcl": 672,
      "Ġev": 673,
      "Ġwant": 674,
      "ĠJ": 675,
      "Ġte": 676,
      "ple": 677,
      "yi": 678,
      "Ġabout": 679,
      "ally": 680,
      "Ġright": 681,
      "Ġby": 682,
      "ETTER": 683,
      "acak": 684,
      "app": 685,
      "Ã¼k": 686,
      "ĠLETTER": 687,
      "ise": 688,
      "aya": 689,
      "sin": 690,
      "And": 691,
      "Ġwill": 692,
      "alue": 693,
      "Ġkad": 694,
      "Ġsen": 695,
      "Er": 696,
      "na": 697,
      "IT": 698,
      "We": 699,
      "sÄ±n": 700,
      "Ġthere": 701,
      "ork": 702,
      "Ġbut": 703,
      "He": 704,
      "Bir": 705,
      "ada": 706,
      "ĠY": 707,
      "aha": 708,
      "Ġdid": 709,
      "pl": 710,
      "Ġsa": 711,
      "Ġthey": 712,
      "\\n": 713,
      "den": 714,
      "ĠgÃ¶r": 715,
      "Ben": 716,
      "Ġno": 717,
      "ĠÃ§ok": 718,
      "'d": 719,
      "oth": 720,
      "Ġany": 721,
      "ound": 722,
      "uz": 723,
      "Ġone": 724,
      "amam": 725,
      "larÄ±": 726,
      "Ġpar": 727,
      "Error": 728,
      "able": 729,
      "Ġim": 730,
      "oug": 731,
      "asÄ±": 732,
      "##": 733,
      "Ġgot": 734,
      "Åŀ": 735,
      "That": 736,
      "Ġson": 737,
      "Ġ'Ċ": 738,
      "',Ċ": 739,
      "uc": 740,
      "ĠbaÅŁ": 741,
      "orm": 742,
      "ĠsÃ¶yle": 743,
      "==": 744,
      "ayÄ±r": 745,
      "ans": 746,
      "iv": 747,
      "--------": 748,
      "':": 749,
      "der": 750,
      "ire": 751,
      "ĠiÅŁ": 752,
      "set": 753,
      "ep": 754,
      "aman": 755,
      "gs": 756,
      "cept": 757,
      "ose": 758,
      "Ġpr": 759,
      "iÃ§": 760,
      "itt": 761,
      "ĠolduÄŁ": 762,
      "li": 763,
      "eri": 764,
      "ment": 765,
      "Ġhis": 766,
      "vet": 767,
      "Ġthink": 768,
      "ĠĠĠĠĠĠĠĠĠĠĠĠĠĠĠĠĠĠĠ": 769,
      "mak": 770,
      "int": 771,
      "me": 772,
      "ert": 773,
      "Ġra": 774,
      "Ä±na": 775,
      "Ġsay": 776,
      "ĠV": 777,
      "ne": 778,
      "ock": 779,
      "ject": 780,
      "acaÄŁ": 781,
      "Ġkadar": 782,
      "Ġyok": 783,
      "ype": 784,
      "Ġtr": 785,
      "miÅŁ": 786,
      "ide": 787,
      "]Ċ": 788,
      "ure": 789,
      "eden": 790,
      "ong": 791,
      "No": 792,
      "Ġdaha": 793,
      "Ġmu": 794,
      "Ġkal": 795,
      ".p": 796,
      "Ġname": 797,
      "up": 798,
      "af": 799,
      "ang": 800,
      "ick": 801,
      "Ġsp": 802,
      "Ġelse": 803,
      "'ve": 804,
      "Ġtime": 805,
      "Ġgib": 806,
      "ĠU": 807,
      "str": 808,
      "Ġsome": 809,
      "au": 810,
      "ord": 811,
      "led": 812,
      "own": 813,
      "iniz": 814,
      "This": 815,
      "Ġthem": 816,
      "Ġama": 817,
      "ost": 818,
      ".c": 819,
      "Ġres": 820,
      "Ġkon": 821,
      "\",": 822,
      "Ġbo": 823,
      "Ġwho": 824,
      "_c": 825,
      "iler": 826,
      "Ġhas": 827,
      "ions": 828,
      "age": 829,
      "Ã¼yor": 830,
      "ule": 831,
      "ars": 832,
      "Ġ+": 833,
      "Ġstr": 834,
      "Ġ*": 835,
      "Ä±y": 836,
      "inde": 837,
      "Ne": 838,
      "Ġpro": 839,
      "')Ċ": 840,
      "On": 841,
      "ber": 842,
      "ayÄ±": 843,
      "ATIN": 844,
      "class": 845,
      "ĠLATIN": 846,
      "Ġkar": 847,
      "Ġbur": 848,
      "Ġgibi": 849,
      "ain": 850,
      "ex": 851,
      "Ġzaman": 852,
      "text": 853,
      "lo": 854,
      "lam": 855,
      "abilir": 856,
      "Ġneed": 857,
      "ÄŁim": 858,
      "ance": 859,
      "ĠÃ¶n": 860,
      "Ġiyi": 861,
      "uyor": 862,
      "ev": 863,
      "ix": 864,
      "Ġback": 865,
      "mem": 866,
      "pr": 867,
      "ĠdÃ¼ÅŁ": 868,
      "Ġshe": 869,
      "mey": 870,
      "kay": 871,
      "Ġsee": 872,
      "Ġob": 873,
      "def": 874,
      "Ġint": 875,
      "Ġmis": 876,
      "ite": 877,
      "Ġ[": 878,
      "ata": 879,
      "ÄŁr": 880,
      "ON": 881,
      "ther": 882,
      "))Ċ": 883,
      "Oh": 884,
      "Ġman": 885,
      "mÄ±ÅŁ": 886,
      "Ġwould": 887,
      "ĠÃ§Ä±k": 888,
      "alk": 889,
      "Ġnow": 890,
      "_f": 891,
      "Ġki": 892,
      "ict": 893,
      "ich": 894,
      "eb": 895,
      "ark": 896,
      "Ġ%": 897,
      "act": 898,
      "sa": 899,
      "eah": 900,
      "lÄ±": 901,
      "Ġtry": 902,
      "ress": 903,
      "man": 904,
      "Sen": 905,
      "Ġever": 906,
      "Ġsor": 907,
      "Ãĸ": 908,
      "lan": 909,
      "Ġwhen": 910,
      "Ġbak": 911,
      "san": 912,
      "dir": 913,
      "Ä±yorum": 914,
      "yn": 915,
      "read": 916,
      "odule": 917,
      "_s": 918,
      "ook": 919,
      "ice": 920,
      "Ġ==": 921,
      "But": 922,
      "ag": 923,
      "larÄ±n": 924,
      "way": 925,
      "Ġoff": 926,
      "eÃ§": 927,
      "(\"": 928,
      "Ġhad": 929,
      "est": 930,
      "ild": 931,
      "Ġ__": 932,
      "Ġraise": 933,
      "ull": 934,
      "ity": 935,
      "aÃ§": 936,
      "onna": 937,
      "ten": 938,
      "Ġlook": 939,
      "ies": 940,
      "other": 941,
      "ret": 942,
      "len": 943,
      "ĠThe": 944,
      "ings": 945,
      "alar": 946,
      "Ġbeen": 947,
      "ous": 948,
      "Ã¼t": 949,
      "ank": 950,
      "ary": 951,
      "Ġgoing": 952,
      "An": 953,
      "Ġgonna": 954,
      "Ã¼y": 955,
      "So": 956,
      "ĠÃ§al": 957,
      "RA": 958,
      "Ġother": 959,
      "ub": 960,
      "_p": 961,
      "atch": 962,
      "tÄ±": 963,
      "yth": 964,
      "Ġbul": 965,
      "code": 966,
      "Ġgerek": 967,
      "uck": 968,
      "Ġshould": 969,
      "ause": 970,
      "leri": 971,
      "In": 972,
      "ach": 973,
      "ALL": 974,
      "Well": 975,
      "lay": 976,
      "Ġwere": 977,
      "Ġcould": 978,
      ">>": 979,
      "Ġ\"\"\"Ċ": 980,
      ".__": 981,
      "ethod": 982,
      "Ġop": 983,
      "_t": 984,
      "ough": 985,
      "Ġfile": 986,
      "du": 987,
      "ĠYou": 988,
      "Ġgood": 989,
      "Ġexcept": 990,
      "lik": 991,
      "Ġnew": 992,
      "Ġac": 993,
      "ĠĠĠĠĠĠĠĠĠ": 994,
      "dÄ±": 995,
      "RE": 996,
      "Ġimport": 997,
      "ecek": 998,
      "iyorsun": 999,
      "day": 1000,
      "Ġag": 1001,
      "LE": 1002,
      "ĠSM": 1003,
      "asÄ±l": 1004,
      "Ġbel": 1005,
      "ef": 1006,
      "ĠdÃ¼ÅŁÃ¼n": 1007,
      "Ġover": 1008,
      "\"\"\"Ċ": 1009,
      "AP": 1010,
      "adece": 1011,
      "ĠolduÄŁunu": 1012,
      ".s": 1013,
      "Ġcall": 1014,
      "cod": 1015,
      "Hey": 1016,
      "ated": 1017,
      "Ġfe": 1018,
      "con": 1019,
      "HayÄ±r": 1020,
      "IG": 1021,
      "ish": 1022,
      "Ġfun": 1023,
      "They": 1024,
      "Ġvalue": 1025,
      "__(": 1026,
      "med": 1027,
      "iye": 1028,
      "Evet": 1029,
      "ĠgÃ¼n": 1030,
      "Ġwork": 1031,
      "esi": 1032,
      "ign": 1033,
      "ĠgeÃ§": 1034,
      "ĠSMALL": 1035,
      "ys": 1036,
      "Ġer": 1037,
      "form": 1038,
      "irst": 1039,
      "Ã¢": 1040,
      "Ġbr": 1041,
      "Ġour": 1042,
      "ction": 1043,
      "None": 1044,
      "Ġlist": 1045,
      "elp": 1046,
      "Ġam": 1047,
      "Ġtell": 1048,
      "Ġil": 1049,
      "ial": 1050,
      "**": 1051,
      "Ġobject": 1052,
      "Ġset": 1053,
      "Ama": 1054,
      "Ġsom": 1055,
      "ilen": 1056,
      "Ġdur": 1057,
      "ĠdÃ¶": 1058,
      "og": 1059,
      "Ġbenim": 1060,
      "ez": 1061,
      "Ġcome": 1062,
      "ĠÃ§alÄ±ÅŁ": 1063,
      "eler": 1064,
      "imdi": 1065,
      "imiz": 1066,
      "ody": 1067,
      "Ġyer": 1068,
      "ething": 1069,
      "bu": 1070,
      "lat": 1071,
      "Ġwr": 1072,
      "Ġdoes": 1073,
      "alÄ±": 1074,
      "Ġpe": 1075,
      "ti": 1076,
      "ents": 1077,
      "ence": 1078,
      "ĠhiÃ§": 1079,
      "ait": 1080,
      "IC": 1081,
      "ault": 1082,
      "Ġgir": 1083,
      "ave": 1084,
      "Ġthen": 1085,
      ".\"Ċ": 1086,
      "ca": 1087,
      "nt": 1088,
      "ered": 1089,
      "ayb": 1090,
      "ven": 1091,
      "Ġmore": 1092,
      "are": 1093,
      "Ġway": 1094,
      "ĠCh": 1095,
      "ya": 1096,
      "mand": 1097,
      "Ġmus": 1098,
      "tÄ±k": 1099,
      "Do": 1100,
      "dum": 1101,
      "put": 1102,
      "ames": 1103,
      "Ġhow": 1104,
      "Ġay": 1105,
      "ader": 1106,
      "wo": 1107,
      "ft": 1108,
      "Ġdown": 1109,
      "alse": 1110,
      "ree": 1111,
      "Ġtake": 1112,
      "Ã§ek": 1113,
      "old": 1114,
      "Ġbana": 1115,
      "),": 1116,
      "Ġonly": 1117,
      "que": 1118,
      "Ã¼zel": 1119,
      "tir": 1120,
      "lad": 1121,
      "Ġday": 1122,
      ".f": 1123,
      "Ġclass": 1124,
      "min": 1125,
      "rue": 1126,
      "Ãĩok": 1127,
      "Ġgr": 1128,
      "Ä±mÄ±z": 1129,
      "(f": 1130,
      "She": 1131,
      "ĠĠĠĠĠ": 1132,
      "ani": 1133,
      "fer": 1134,
      "Ġtan": 1135,
      "Ġadam": 1136,
      "ken": 1137,
      "Ġtak": 1138,
      "ĠCAP": 1139,
      "unuz": 1140,
      "ITAL": 1141,
      "ace": 1142,
      "Ġdidn": 1143,
      "ĠCAPITAL": 1144,
      "Ġsomething": 1145,
      "ecause": 1146,
      "Ġsev": 1147,
      "There": 1148,
      "Ġkim": 1149,
      "ss": 1150,
      "_l": 1151,
      "Ġmake": 1152,
      "Ġpart": 1153,
      "ov": 1154,
      "ĠÄ°": 1155,
      "oll": 1156,
      "init": 1157,
      "Ġgid": 1158,
      ";':": 1159,
      "OR": 1160,
      "ĠkonuÅŁ": 1161,
      "Ġlet": 1162,
      "How": 1163,
      "eck": 1164,
      "Ġonu": 1165,
      "ĠAll": 1166,
      "ople": 1167,
      "tin": 1168,
      "ud": 1169,
      "aba": 1170,
      "diÄŁ": 1171,
      "ely": 1172,
      "Tamam": 1173,
      "laÅŁ": 1174,
      "ING": 1175,
      "gr": 1176,
      "Ġtalk": 1177,
      "inin": 1178,
      "ife": 1179,
      "Ġhapp": 1180,
      "Ã¼Ã§": 1181,
      "All": 1182,
      ".t": 1183,
      "Ġsaid": 1184,
      "mam": 1185,
      "ĠNe": 1186,
      "Ġbeni": 1187,
      "add": 1188,
      "ning": 1189,
      "Ä±s": 1190,
      "Ġtek": 1191,
      "ĠyaÅŁ": 1192,
      "Ġsup": 1193,
      "Ġ<": 1194,
      "aki": 1195,
      "tan": 1196,
      "####": 1197,
      "dim": 1198,
      "=None": 1199,
      "Ġhand": 1200,
      "bir": 1201,
      "Ġtoo": 1202,
      "tÄ±r": 1203,
      "una": 1204,
      "stance": 1205,
      "Ġolur": 1206,
      "Yeah": 1207,
      "Ġreally": 1208,
      "Ġsc": 1209,
      "Ġnum": 1210,
      "Ġexp": 1211,
      "tÄ±ÄŁ": 1212,
      "ood": 1213,
      "Ġye": 1214,
      "Ġline": 1215,
      "ger": 1216,
      "'n": 1217,
      "Ġdis": 1218,
      "isi": 1219,
      "25": 1220,
      "Ġread": 1221,
      "reat": 1222,
      "key": 1223,
      "inle": 1224,
      "Ġcomp": 1225,
      "ka": 1226,
      "ND": 1227,
      "ory": 1228,
      "acaÄŁÄ±m": 1229,
      "If": 1230,
      ".\"\"\"Ċ": 1231,
      "ĠÃ¶nce": 1232,
      "\")Ċ": 1233,
      "_m": 1234,
      "Ġhay": 1235,
      "adan": 1236,
      "10": 1237,
      "Her": 1238,
      "oy": 1239,
      "ute": 1240,
      "Ġsan": 1241,
      "Ġfirst": 1242,
      "Ġkey": 1243,
      "Ġbet": 1244,
      "Ġbiz": 1245,
      "ĠyÃ¼z": 1246,
      "Ġap": 1247,
      "ail": 1248,
      "ittle": 1249,
      ".get": 1250,
      "====": 1251,
      "Ġgit": 1252,
      "Ġtar": 1253,
      "Ġyar": 1254,
      "dÄ±r": 1255,
      "men": 1256,
      "ĠĠĠĠĠĠĠĠĠĠĠĠĠĠĠĠĠ": 1257,
      "Ä±rak": 1258,
      "Ġaf": 1259,
      "ens": 1260,
      "Ġkur": 1261,
      "ĠaÃ§": 1262,
      "cek": 1263,
      "Ġguy": 1264,
      "ĠsÃ¶": 1265,
      "unda": 1266,
      "Ġmon": 1267,
      "Ä±ndan": 1268,
      "ins": 1269,
      "Ġ|": 1270,
      "ond": 1271,
      "Ġpre": 1272,
      "fore": 1273,
      "Ġmust": 1274,
      "args": 1275,
      "Ġarg": 1276,
      "Ġinto": 1277,
      "Ġnever": 1278,
      "ardÄ±m": 1279,
      "AR": 1280,
      "Ġwor": 1281,
      "ĠÃ¶ld": 1282,
      "let": 1283,
      "ought": 1284,
      "Ġhelp": 1285,
      "Ve": 1286,
      "tÃ¼": 1287,
      "Bur": 1288,
      "Ġsonra": 1289,
      "ator": 1290,
      "Ġhak": 1291,
      "ika": 1292,
      "Ar": 1293,
      "ade": 1294,
      "ble": 1295,
      "oÅŁ": 1296,
      "fo": 1297,
      "Ã¶r": 1298,
      "Ä±nÄ±z": 1299,
      "Ġmisin": 1300,
      "Ġbile": 1301,
      "ĠIt": 1302,
      "we": 1303,
      "Ġpos": 1304,
      "Ġmean": 1305,
      "maz": 1306,
      "Ġseni": 1307,
      "Ġcode": 1308,
      "unun": 1309,
      "Ġlittle": 1310,
      "Ġos": 1311,
      "ied": 1312,
      "kÃ¼": 1313,
      "(s": 1314,
      "Ġfind": 1315,
      "wr": 1316,
      "Ġpeople": 1317,
      "mel": 1318,
      "Ġwhere": 1319,
      "lace": 1320,
      "imi": 1321,
      "rame": 1322,
      "ty": 1323,
      "Ġwhich": 1324,
      "Ġstart": 1325,
      "par": 1326,
      "ĠnasÄ±l": 1327,
      "Ġyet": 1328,
      "Ġtheir": 1329,
      "Ġtwo": 1330,
      "ia": 1331,
      "ĠkÄ±z": 1332,
      "eki": 1333,
      "ĠĠĠĠĠĠĠĠĠĠĠĠĠĠĠĠĠĠĠĠ": 1334,
      "----------------": 1335,
      "Ġbunu": 1336,
      "inden": 1337,
      "Ġspec": 1338,
      "Ã¼ÄŁ": 1339,
      "Ġolan": 1340,
      "ream": 1341,
      "Ġpath": 1342,
      "Ġ{": 1343,
      "Ġmethod": 1344,
      "ĠWh": 1345,
      "gÃ¼n": 1346,
      "ye": 1347,
      "eld": 1348,
      "ITH": 1349,
      "lease": 1350,
      "Ġyak": 1351,
      "ĠIf": 1352,
      "eye": 1353,
      "OU": 1354,
      "ĠÃ¼z": 1355,
      "Ġhal": 1356,
      "Ġass": 1357,
      "Ġsana": 1358,
      "St": 1359,
      "eÅŁ": 1360,
      "Ġtest": 1361,
      "ove": 1362,
      "wn": 1363,
      "Ġdel": 1364,
      "Ġadd": 1365,
      "Ġbefore": 1366,
      "anc": 1367,
      "ily": 1368,
      "Ġbit": 1369,
      "ĠWITH": 1370,
      "ĠĠĠĠĠĠĠĠĠĠĠĠĠĠĠĠĠĠ": 1371,
      "ĠÃ§oc": 1372,
      "Ġkend": 1373,
      "Ġopt": 1374,
      "Ġmodule": 1375,
      "Ġunder": 1376,
      "Ġmusun": 1377,
      "tes": 1378,
      "vers": 1379,
      "Ġpass": 1380,
      "tern": 1381,
      "âĢ": 1382,
      "Ġsiz": 1383,
      "lara": 1384,
      "Ġthan": 1385,
      "Ġuy": 1386,
      "reak": 1387,
      "Okay": 1388,
      "Ġagain": 1389,
      "omp": 1390,
      "ĠkÃ¶": 1391,
      "Ġiz": 1392,
      "Ġmay": 1393,
      "ci": 1394,
      "eturn": 1395,
      "lu": 1396,
      "Ġsenin": 1397,
      "tim": 1398,
      "ener": 1399,
      "ĠWe": 1400,
      "ley": 1401,
      ".\\": 1402,
      "ount": 1403,
      "Ġqu": 1404,
      "Ä±yorsun": 1405,
      "ĠgÃ¶re": 1406,
      "ool": 1407,
      "ĠĠĠĠĠĠĠĠĠĠ": 1408,
      "Ġlast": 1409,
      "adi": 1410,
      "Ġbl": 1411,
      "imal": 1412,
      "tur": 1413,
      "anÄ±": 1414,
      "Ġduy": 1415,
      "Ġya": 1416,
      "Ġend": 1417,
      "ython": 1418,
      "ont": 1419,
      "Ġthing": 1420,
      "Ġistem": 1421,
      "Ä±rÄ±m": 1422,
      "ource": 1423,
      "Ġused": 1424,
      "ĠbÄ±rak": 1425,
      "ee": 1426,
      "ash": 1427,
      "row": 1428,
      "alled": 1429,
      "Ġlove": 1430,
      "din": 1431,
      "IS": 1432,
      "Ġzor": 1433,
      "_b": 1434,
      "lÄ±k": 1435,
      "ĠĠĠĠĠĠĠĠĠĠĠĠĠĠĠĠĠĠĠĠĠĠĠ": 1436,
      "attr": 1437,
      "ĠBu": 1438,
      "mez": 1439,
      "ster": 1440,
      "Ġask": 1441,
      "Ġded": 1442,
      "Ã¼nkÃ¼": 1443,
      "maya": 1444,
      "quest": 1445,
      "ting": 1446,
      "ĠAn": 1447,
      "vel": 1448,
      "Ã¼l": 1449,
      "eep": 1450,
      "fen": 1451,
      "larak": 1452,
      "Ġeven": 1453,
      "sh": 1454,
      "ince": 1455,
      "Ä±nÄ±n": 1456,
      "ather": 1457,
      "ÄŁer": 1458,
      "Ġresult": 1459,
      "Don": 1460,
      "sg": 1461,
      "ĠÃ¶yle": 1462,
      "ines": 1463,
      "Ġro": 1464,
      "ĠgerÃ§ek": 1465,
      "her": 1466,
      "Ġinsan": 1467,
      "),Ċ": 1468,
      "Ã¼yÃ¼k": 1469,
      "ayan": 1470,
      "tain": 1471,
      "value": 1472,
      "Bunu": 1473,
      "ĠNo": 1474,
      "Ġyol": 1475,
      "ĠSt": 1476,
      "so": 1477,
      "alÄ±m": 1478,
      "Come": 1479,
      "Ġhar": 1480,
      "Ġolarak": 1481,
      "Ġsec": 1482,
      "Ġlen": 1483,
      "ĠdÃ¶n": 1484,
      "Ġbab": 1485,
      "Ġmuch": 1486,
      "ange": 1487,
      "ĠAllah": 1488,
      "adÄ±ÄŁ": 1489,
      "Ġbecause": 1490,
      "ection": 1491,
      "esc": 1492,
      "val": 1493,
      "EN": 1494,
      "Ġburada": 1495,
      "ument": 1496,
      "Ġuse": 1497,
      "not": 1498,
      "import": 1499,
      "Ġevery": 1500,
      "riend": 1501,
      "Ġisted": 1502,
      "erim": 1503,
      "Ã¼tfen": 1504,
      "_d": 1505,
      "line": 1506,
      "tÄ±m": 1507,
      "Ġafter": 1508,
      "Ġwon": 1509,
      "Ġcr": 1510,
      "ĠIn": 1511,
      "Ġvery": 1512,
      "ĠHe": 1513,
      "Ġstring": 1514,
      "ĠWhat": 1515,
      "Ä±ld": 1516,
      "Ġolacak": 1517,
      "Ġoldu": 1518,
      "ition": 1519,
      "iyim": 1520,
      "ĠBen": 1521,
      "20": 1522,
      "Ġthose": 1523,
      "ĠThis": 1524,
      "_name": 1525,
      "sp": 1526,
      "Ġ...": 1527,
      "ĠgÃ¼zel": 1528,
      "uh": 1529,
      "arÄ±": 1530,
      "Seni": 1531,
      "Ġark": 1532,
      "Ġistiyorum": 1533,
      "Ġem": 1534,
      "Ġrun": 1535,
      "arn": 1536,
      "Ġlong": 1537,
      "idget": 1538,
      "Ġdoing": 1539,
      "meye": 1540,
      "Ġdata": 1541,
      "Why": 1542,
      "ocess": 1543,
      "ÄŁru": 1544,
      "file": 1545,
      "Ġthese": 1546,
      "Ġwhy": 1547,
      "Con": 1548,
      "Ġsadece": 1549,
      "ĠTrue": 1550,
      "ps": 1551,
      "ton": 1552,
      "ĠbÃ¶yle": 1553,
      "urr": 1554,
      "Ġsub": 1555,
      "ield": 1556,
      "Ãľ": 1557,
      "aybe": 1558,
      "Ġtext": 1559,
      "append": 1560,
      "Ġuz": 1561,
      "Ä°ÅŁ": 1562,
      "Ġbek": 1563,
      "ĠÃ§ek": 1564,
      "My": 1565,
      "Is": 1566,
      "cre": 1567,
      "coding": 1568,
      "Ch": 1569,
      "Ġak": 1570,
      "Ġdr": 1571,
      "Ġmin": 1572,
      "Åŀimdi": 1573,
      "ĠgÃ¼": 1574,
      "Ġonun": 1575,
      "Ġ('": 1576,
      "oin": 1577,
      "pos": 1578,
      "back": 1579,
      "Ġchar": 1580,
      "ale": 1581,
      "Ġtype": 1582,
      "Ġhappen": 1583,
      "Ġelif": 1584,
      "En": 1585,
      "000": 1586,
      "ways": 1587,
      "opt": 1588,
      "ĠyardÄ±m": 1589,
      "Ġsure": 1590,
      "Ä±mÄ±": 1591,
      "Ġstill": 1592,
      "thing": 1593,
      "Ġhead": 1594,
      "erh": 1595,
      "gil": 1596,
      ".st": 1597,
      "ES": 1598,
      "error": 1599,
      "Ġtra": 1600,
      "from": 1601,
      "oint": 1602,
      "ĠTh": 1603,
      "Ġkap": 1604,
      "='": 1605,
      "iter": 1606,
      "Not": 1607,
      "ug": 1608,
      "Ġgive": 1609,
      "As": 1610,
      "ele": 1611,
      "ĠmÃ¼": 1612,
      "Look": 1613,
      "ax": 1614,
      ">>>": 1615,
      "ĠkaÃ§": 1616,
      "Ġsys": 1617,
      "Ġlife": 1618,
      "Ġfin": 1619,
      "Ġokay": 1620,
      "Ġfeel": 1621,
      "Ġact": 1622,
      "Ġid": 1623,
      "03": 1624,
      "Ġcar": 1625,
      "Ġpol": 1626,
      "mas": 1627,
      "Ġcol": 1628,
      "essage": 1629,
      "tiÄŁ": 1630,
      "esin": 1631,
      "Ġbiraz": 1632,
      "ilename": 1633,
      "Get": 1634,
      "iss": 1635,
      "adaÅŁ": 1636,
      "path": 1637,
      "ything": 1638,
      "Ġanything": 1639,
      "my": 1640,
      "Ä±p": 1641,
      "Ġsize": 1642,
      "Ã¼re": 1643,
      "Ġbelie": 1644,
      "elim": 1645,
      "ems": 1646,
      "Ġile": 1647,
      "Ġbiliyor": 1648,
      "muÅŁ": 1649,
      "eÄŁ": 1650,
      "Ġtut": 1651,
      "ĠBir": 1652,
      "Ġser": 1653,
      "Ġiht": 1654,
      "enc": 1655,
      "Ġmem": 1656,
      "instance": 1657,
      "Let": 1658,
      "miyor": 1659,
      "ĠAr": 1660,
      "list": 1661,
      "ĠÃ§ocuk": 1662,
      "uth": 1663,
      "Ġform": 1664,
      "Ġhat": 1665,
      "Ġyan": 1666,
      "Onu": 1667,
      "ations": 1668,
      "ible": 1669,
      "âĻ": 1670,
      "HT": 1671,
      "Now": 1672,
      "trib": 1673,
      "'Ä±n": 1674,
      "eter": 1675,
      ".append": 1676,
      "endi": 1677,
      "Or": 1678,
      "19": 1679,
      "wh": 1680,
      "22": 1681,
      "igh": 1682,
      "âĻª": 1683,
      "Ġwait": 1684,
      "cÄ±": 1685,
      "fix": 1686,
      "Ex": 1687,
      "ED": 1688,
      "ĠFalse": 1689,
      "ript": 1690,
      "Ġgu": 1691,
      "amaz": 1692,
      ".d": 1693,
      "larÄ±nÄ±": 1694,
      ".m": 1695,
      "Bana": 1696,
      "Benim": 1697,
      "Just": 1698,
      "Ġgiv": 1699,
      "Ġ>": 1700,
      "sunuz": 1701,
      "Ġval": 1702,
      "alan": 1703,
      "fig": 1704,
      "Ġ--": 1705,
      "Ġfuck": 1706,
      "Ġx": 1707,
      "ĠÃ¶l": 1708,
      "trol": 1709,
      "ĠÃ¶ldÃ¼r": 1710,
      "yp": 1711,
      "Ġsame": 1712,
      "Ġwell": 1713,
      "anr": 1714,
      "Ġsorry": 1715,
      "ĠkarÅŁ": 1716,
      "Ġdefault": 1717,
      "ĠGod": 1718,
      "oh": 1719,
      "Ġper": 1720,
      "Who": 1721,
      "miyorum": 1722,
      ".path": 1723,
      "ower": 1724,
      "Ġhayat": 1725,
      "Ġfaz": 1726,
      "Ġrec": 1727,
      "Ġput": 1728,
      "Ġdoesn": 1729,
      "mad": 1730,
      "Ġbreak": 1731,
      "Ġthought": 1732,
      "ater": 1733,
      "Ġent": 1734,
      "body": 1735,
      "Ġdev": 1736,
      "ekk": 1737,
      "ext": 1738,
      "ara": 1739,
      "Ġthr": 1740,
      "eceÄŁim": 1741,
      "Ġgirl": 1742,
      "plement": 1743,
      "uple": 1744,
      "Ġalways": 1745,
      "Ġcommand": 1746,
      "Ġboy": 1747,
      "air": 1748,
      "may": 1749,
      "ny": 1750,
      "Ġwhile": 1751,
      "ĠÃ¶z": 1752,
      "ĠEvet": 1753,
      "12": 1754,
      "object": 1755,
      "Ġfunction": 1756,
      "(Ċ": 1757,
      "hing": 1758,
      "arch": 1759,
      "HA": 1760,
      "Ġtamam": 1761,
      "Ġneden": 1762,
      "['": 1763,
      "ebilir": 1764,
      "Ġnight": 1765,
      "Ġ>>>": 1766,
      "UT": 1767,
      "Ġsm": 1768,
      "Ġmak": 1769,
      "Ġreal": 1770,
      "ser": 1771,
      "ayÄ±m": 1772,
      "ĠZ": 1773,
      "ph": 1774,
      "ĠbÃ¼yÃ¼k": 1775,
      "arg": 1776,
      "Ġden": 1777,
      "ues": 1778,
      "als": 1779,
      "ekkÃ¼r": 1780,
      "Yes": 1781,
      "assert": 1782,
      "indow": 1783,
      "Biz": 1784,
      "Ġkeep": 1785,
      "Al": 1786,
      "Ġhome": 1787,
      "Ġter": 1788,
      "Ġald": 1789,
      "Ġkull": 1790,
      "Son": 1791,
      "endim": 1792,
      "Ġgeri": 1793,
      "Ġgetir": 1794,
      "Ġco": 1795,
      "anÄ±n": 1796,
      "ĠÅŁu": 1797,
      "Ġfriend": 1798,
      "Ġihtiy": 1799,
      "_h": 1800,
      "Ġacc": 1801,
      "LL": 1802,
      "ouse": 1803,
      "ecimal": 1804,
      "test": 1805,
      "sed": 1806,
      "ĠMr": 1807,
      "by": 1808,
      "Ġaway": 1809,
      "kin": 1810,
      "ren": 1811,
      "Ġkat": 1812,
      "Ġfound": 1813,
      "Sh": 1814,
      "lerini": 1815,
      "Re": 1816,
      "Ġcre": 1817,
      "Ġpat": 1818,
      "Ġtold": 1819,
      "qual": 1820,
      "']": 1821,
      "'in": 1822,
      "alueError": 1823,
      "ĠgÃ¶rd": 1824,
      "cs": 1825,
      "Ġcalled": 1826,
      "ement": 1827,
      "Ġplan": 1828,
      "ala": 1829,
      "(c": 1830,
      "ION": 1831,
      "Ġolabilir": 1832,
      "sen": 1833,
      "Ġkid": 1834,
      "Ġhakk": 1835,
      "ĠsÃ¶y": 1836,
      "Ġleft": 1837,
      "_n": 1838,
      "Ġvard": 1839,
      "ĠÅŁeyler": 1840,
      "mer": 1841,
      "ner": 1842,
      "arl": 1843,
      "Ġnumber": 1844,
      "Ġok": 1845,
      "Ġmade": 1846,
      "abi": 1847,
      "ĠAnd": 1848,
      "sel": 1849,
      "Ġbetter": 1850,
      "urrent": 1851,
      "aber": 1852,
      "Ġerror": 1853,
      "per": 1854,
      "Ġstop": 1855,
      "Beni": 1856,
      "ĠarkadaÅŁ": 1857,
      "eh": 1858,
      "ĠbaÅŁka": 1859,
      "Ġinan": 1860,
      "Sana": 1861,
      "Ġbas": 1862,
      "nem": 1863,
      "ollow": 1864,
      "arÄ±m": 1865,
      ".assert": 1866,
      "Ġthrough": 1867,
      "aj": 1868,
      "Ġkil": 1869,
      "amp": 1870,
      "Ġdif": 1871,
      "Sadece": 1872,
      "ĠaÅŁ": 1873,
      "Ġisinstance": 1874,
      "ĠgÃ¶z": 1875,
      "ote": 1876,
      "Ġistiyor": 1877,
      "Ġshow": 1878,
      "ceÄŁ": 1879,
      "Ġdire": 1880,
      "Ġthings": 1881,
      "ĠgÃ¶rÃ¼n": 1882,
      "pre": 1883,
      "ually": 1884,
      "Ġdec": 1885,
      "Ä°yi": 1886,
      "Ġsav": 1887,
      "Ġkind": 1888,
      "Ġopen": 1889,
      "Ġcontext": 1890,
      "ĠĠĠĠĠĠĠĠĠĠĠĠĠ": 1891,
      "Ġaz": 1892,
      "ĠÅŁeyi": 1893,
      "Ġsign": 1894,
      "Ġstat": 1895,
      "Ġyem": 1896,
      "ĠOh": 1897,
      "Ġtaraf": 1898,
      "aw": 1899,
      "Ġaround": 1900,
      "ĠyÄ±l": 1901,
      "Ġiy": 1902,
      "enden": 1903,
      "Neden": 1904,
      "'a": 1905,
      "Ġbun": 1906,
      "ected": 1907,
      "obj": 1908,
      "Ġiki": 1909,
      "ceÄŁim": 1910,
      "Are": 1911,
      "Ä±ÄŁÄ±": 1912,
      "Ġona": 1913,
      "Hadi": 1914,
      "dur": 1915,
      "Ġbeing": 1916,
      "ĠsÃ¼r": 1917,
      "ons": 1918,
      "Ġbelieve": 1919,
      "ian": 1920,
      "info": 1921,
      "opy": 1922,
      "Ġbiri": 1923,
      "REE": 1924,
      "eceÄŁ": 1925,
      "')": 1926,
      "(m": 1927,
      "land": 1928,
      "Ġyears": 1929,
      "dÄ±m": 1930,
      "gin": 1931,
      "mes": 1932,
      "stand": 1933,
      "Where": 1934,
      "ew": 1935,
      "Ġdone": 1936,
      "Ġown": 1937,
      "Ġloc": 1938,
      "IGHT": 1939,
      "Bak": 1940,
      "lass": 1941,
      "Ġyaz": 1942,
      "ope": 1943,
      "Ġchild": 1944,
      "ĠValueError": 1945,
      "Can": 1946,
      "Kim": 1947,
      "tÄ±n": 1948,
      "its": 1949,
      "Ġgreat": 1950,
      "ful": 1951,
      "Ã¼st": 1952,
      "ama": 1953,
      "of": 1954,
      "rar": 1955,
      "Return": 1956,
      "Bil": 1957,
      "Ġplace": 1958,
      "Ġnothing": 1959,
      "Bel": 1960,
      "Ġnext": 1961,
      "ST": 1962,
      "Ã¼tÃ¼n": 1963,
      "Ġresp": 1964,
      "ĠbaÄŁ": 1965,
      "########": 1966,
      "ious": 1967,
      "ĠkÃ¶tÃ¼": 1968,
      "string": 1969,
      "EÄŁer": 1970,
      "ĠSh": 1971,
      "ĠHayÄ±r": 1972,
      "ister": 1973,
      "Ġfazla": 1974,
      "eli": 1975,
      "Ġcour": 1976,
      "write": 1977,
      "():Ċ": 1978,
      "yon": 1979,
      "ĠÅŁimdi": 1980,
      "Ġkork": 1981,
      "11": 1982,
      "Ġsah": 1983,
      "ors": 1984,
      "ĠdoÄŁru": 1985,
      "ffer": 1986,
      "(d": 1987,
      "ved": 1988,
      "unc": 1989,
      "ĠPython": 1990,
      "ready": 1991,
      "OL": 1992,
      "ole": 1993,
      "When": 1994,
      "Ġdiye": 1995,
      "_dir": 1996,
      "erede": 1997,
      "dd": 1998,
      "Ġihtiyac": 1999,
      "Ġph": 2000,
      "DE": 2001,
      "_re": 2002,
      "Ġinde": 2003,
      "ĠAl": 2004,
      "ĠĠĠĠĠĠĠĠĠĠĠĠĠĠ": 2005,
      "Ġbiliyorum": 2006,
      "ete": 2007,
      "Ġalso": 2008,
      "cc": 2009,
      "Ġcase": 2010,
      "alÄ±y": 2011,
      "Ġinst": 2012,
      "Siz": 2013,
      "Ġhav": 2014,
      "bo": 2015,
      "urt": 2016,
      "ical": 2017,
      "pec": 2018,
      "Ġprot": 2019,
      "Ġoper": 2020,
      "BaÅŁ": 2021,
      "Pek": 2022,
      "to": 2023,
      "ĠsaÄŁ": 2024,
      "use": 2025,
      "ĠThat": 2026,
      "isin": 2027,
      "sw": 2028,
      "eyi": 2029,
      "ĠgÃ¶ster": 2030,
      "Ġkaz": 2031,
      "Hay": 2032,
      "OT": 2033,
      "aÄŁÄ±": 2034,
      "ym": 2035,
      "ush": 2036,
      "Ġbah": 2037,
      "lear": 2038,
      "Ġav": 2039,
      ".b": 2040,
      "':Ċ": 2041,
      "Ġins": 2042,
      "Ġits": 2043,
      "Ã¼nÃ¼": 2044,
      "sÄ±nÄ±z": 2045,
      "iyle": 2046,
      "member": 2047,
      "Ġguys": 2048,
      "ÃĩÃ¼nkÃ¼": 2049,
      "Ã¼Ã§Ã¼k": 2050,
      "Ġbig": 2051,
      "Ġvers": 2052,
      "ĠdÄ±ÅŁ": 2053,
      "Ġhaz": 2054,
      "Ġkullan": 2055,
      "ĠQ": 2056,
      "Ġinter": 2057,
      "plit": 2058,
      "Ġeverything": 2059,
      "Ġmod": 2060,
      "Ġgece": 2061,
      "Ġcheck": 2062,
      "ĠOn": 2063,
      ").": 2064,
      "HiÃ§": 2065,
      "Ġnames": 2066,
      "asÄ±nÄ±": 2067,
      "bilir": 2068,
      "tor": 2069,
      "ves": 2070,
      "Ġfollow": 2071,
      "imes": 2072,
      "ommand": 2073,
      "Ġplease": 2074,
      "ified": 2075,
      "Ġdirect": 2076,
      "Ġalready": 2077,
      "abil": 2078,
      "tar": 2079,
      "Ġfark": 2080,
      "Ġmoney": 2081,
      "unk": 2082,
      "ating": 2083,
      "ĠBO": 2084,
      "Sor": 2085,
      "red": 2086,
      "_ex": 2087,
      "ier": 2088,
      "urs": 2089,
      "ONT": 2090,
      "_w": 2091,
      "ĠdÃ¼ÅŁÃ¼nÃ¼yor": 2092,
      "San": 2093,
      "util": 2094,
      "ĠkiÅŁ": 2095,
      "Ġ!": 2096,
      "Ġtem": 2097,
      "Ġfam": 2098,
      "ĠistediÄŁ": 2099,
      "Yani": 2100,
      "Ġplay": 2101,
      "Ġhear": 2102,
      "****": 2103,
      "Ġkill": 2104,
      "Ãĸyle": 2105,
      "ĠartÄ±k": 2106,
      "\",Ċ": 2107,
      "Ġgiven": 2108,
      "15": 2109,
      "Ġfil": 2110,
      "ĠÅŁek": 2111,
      "Ġwom": 2112,
      "diÄŁim": 2113,
      "Ġum": 2114,
      "ters": 2115,
      "INGS": 2116,
      "tribute": 2117,
      "les": 2118,
      "Ġlot": 2119,
      "ĠAND": 2120,
      "asÄ±n": 2121,
      "Ġbad": 2122,
      "oup": 2123,
      "Ġoluyor": 2124,
      "acaÄŁÄ±z": 2125,
      "erhaba": 2126,
      "Ġturn": 2127,
      "Åŀu": 2128,
      "daki": 2129,
      "Ġmight": 2130,
      "fendim": 2131,
      "Ã¶z": 2132,
      "ĠsÃ¶yley": 2133,
      "ĠÃ§Ä±kar": 2134,
      "Ġanother": 2135,
      "Ã¢l": 2136,
      "kw": 2137,
      "ular": 2138,
      "Ġweek": 2139,
      "eyim": 2140,
      "True": 2141,
      "Ġkayb": 2142,
      ".tk": 2143,
      "Ġdiffer": 2144,
      "Ġsak": 2145,
      "Ġfr": 2146,
      "head": 2147,
      "net": 2148,
      "ĠhayÄ±r": 2149,
      "siniz": 2150,
      "uct": 2151,
      "False": 2152,
      "bug": 2153,
      "Ġunderstand": 2154,
      "ates": 2155,
      "Ġext": 2156,
      "fe": 2157,
      "ĠhoÅŁ": 2158,
      "Ä°n": 2159,
      "Ġsur": 2160,
      "Ġstand": 2161,
      "Ġcls": 2162,
      "format": 2163,
      "Your": 2164,
      "blem": 2165,
      "Did": 2166,
      "ocket": 2167,
      "the": 2168,
      "Ġdav": 2169,
      "ried": 2170,
      ".re": 2171,
      "TP": 2172,
      "ĠÃ¶ÄŁr": 2173,
      "Ġbytes": 2174,
      "ynÄ±": 2175,
      "85": 2176,
      "elen": 2177,
      "Ġrep": 2178,
      "ĠhiÃ§bir": 2179,
      "Ġsecond": 2180,
      "200": 2181,
      "utes": 2182,
      "ĠdeÄŁiÅŁ": 2183,
      "RAW": 2184,
      "til": 2185,
      "Ġanlam": 2186,
      "ĠSIG": 2187,
      "join": 2188,
      "lob": 2189,
      "Ġ@": 2190,
      "default": 2191,
      "Senin": 2192,
      "Ä°ÅŁte": 2193,
      "dik": 2194,
      "uff": 2195,
      "word": 2196,
      "Ġdurum": 2197,
      ").Ċ": 2198,
      "oÄŁ": 2199,
      "Ġgitt": 2200,
      "Ġdead": 2201,
      "ĠĠĠĠĠĠĠĠĠĠĠĠĠĠĠĠĠĠĠĠĠĠĠĠĠĠĠĠĠĠĠĠ": 2202,
      "sÄ±z": 2203,
      "Ġisn": 2204,
      "new": 2205,
      "yst": 2206,
      "Ġdemek": 2207,
      "ĠFr": 2208,
      "_st": 2209,
      "Ġbest": 2210,
      "emen": 2211,
      "ĠDRAW": 2212,
      "Ġprint": 2213,
      "ĠBOX": 2214,
      "ĠDRAWINGS": 2215,
      "Ġister": 2216,
      "Ġsir": 2217,
      "md": 2218,
      "04": 2219,
      "dam": 2220,
      "ĠaÃ§Ä±k": 2221,
      "ude": 2222,
      "ĠyaptÄ±ÄŁ": 2223,
      "iÄŁi": 2224,
      "ĠÃ¼zer": 2225,
      "Good": 2226,
      "asÄ±nda": 2227,
      "ĠSen": 2228,
      "Ġpay": 2229,
      "ici": 2230,
      "time": 2231,
      "Ġ?Ċ": 2232,
      "abile": 2233,
      "dÄ±n": 2234,
      "ual": 2235,
      "ined": 2236,
      "Ã§a": 2237,
      ".set": 2238,
      "erson": 2239,
      "Ġ!=": 2240,
      "be": 2241,
      "'nin": 2242,
      "ĠgerÃ§ekten": 2243,
      "ised": 2244,
      "lerin": 2245,
      "Ġparam": 2246,
      "REEK": 2247,
      "Ger": 2248,
      "adÄ±": 2249,
      "ĠGREEK": 2250,
      "Ġmet": 2251,
      "Thank": 2252,
      "ene": 2253,
      "Ġrel": 2254,
      "Ġolsun": 2255,
      "ĠhakkÄ±nda": 2256,
      "lib": 2257,
      "Ġargs": 2258,
      "========": 2259,
      "Ġsch": 2260,
      "Ġcount": 2261,
      "Then": 2262,
      "Ġsal": 2263,
      "OW": 2264,
      "kes": 2265,
      "ĠARA": 2266,
      "Ġder": 2267,
      "Ġmost": 2268,
      "Ġmessage": 2269,
      "leÅŁ": 2270,
      "ĠĠĠĠĠĠ": 2271,
      "Ġcame": 2272,
      "Ġmiss": 2273,
      "..Ċ": 2274,
      "ĠBr": 2275,
      "main": 2276,
      "Ġwrong": 2277,
      "Burada": 2278,
      "BIC": 2279,
      "Ġhell": 2280,
      "Ġleave": 2281,
      "masÄ±": 2282,
      "Ġexc": 2283,
      "ĠARABIC": 2284,
      "lardan": 2285,
      "Ġstay": 2286,
      "mÃ¼ÅŁ": 2287,
      "ĠsÃ¼re": 2288,
      "Ġediyor": 2289,
      "Ġdak": 2290,
      "Ġproblem": 2291,
      "Ġmeet": 2292,
      "andler": 2293,
      "Ġsaat": 2294,
      "Ã¼nde": 2295,
      "Ġcor": 2296,
      "Ġcoming": 2297,
      ".call": 2298,
      "ĠyÃ¼zden": 2299,
      "Ġmen": 2300,
      "RI": 2301,
      "Belki": 2302,
      "eg": 2303,
      "Ġ**": 2304,
      "lÃ¼": 2305,
      "ih": 2306,
      "ĠUn": 2307,
      "ĠsÄ±r": 2308,
      "Ġreg": 2309,
      "abii": 2310,
      "30": 2311,
      "Ġes": 2312,
      "Ġsel": 2313,
      "ĠgÃ¼ven": 2314,
      "rc": 2315,
      "Ġdoc": 2316,
      "rip": 2317,
      "tÃ¼r": 2318,
      "ĠX": 2319,
      "ead": 2320,
      "BLE": 2321,
      "EF": 2322,
      "Peki": 2323,
      "ception": 2324,
      "ran": 2325,
      "Ġyeni": 2326,
      "son": 2327,
      "Ġdict": 2328,
      "Ġner": 2329,
      "Ġrest": 2330,
      "aster": 2331,
      "Ġoption": 2332,
      "Ġwanted": 2333,
      "Ġnode": 2334,
      "Ġolmak": 2335,
      "ĠhazÄ±r": 2336,
      "aten": 2337,
      "oke": 2338,
      "cls": 2339,
      "Ġmany": 2340,
      "Ġframe": 2341,
      "Ġdost": 2342,
      "ift": 2343,
      "Ġmatch": 2344,
      "mayÄ±": 2345,
      "For": 2346,
      "Ġatt": 2347,
      "Ġtrying": 2348,
      "ĠSIGN": 2349,
      "Ġcare": 2350,
      "ither": 2351,
      "Ġsupport": 2352,
      "Ġcourse": 2353,
      "abel": 2354,
      "Ġort": 2355,
      "Ġederim": 2356,
      "ache": 2357,
      "ĠYeah": 2358,
      "Ġthree": 2359,
      "deÅŁ": 2360,
      "ward": 2361,
      "Ġhouse": 2362,
      "bar": 2363,
      "Ġtrue": 2364,
      "Ġbuld": 2365,
      "Ġbin": 2366,
      "Ġmor": 2367,
      "less": 2368,
      "ecut": 2369,
      "gether": 2370,
      "CK": 2371,
      "Ġtrans": 2372,
      "ever": 2373,
      "Ġmat": 2374,
      "Ġmut": 2375,
      "Ġenough": 2376,
      "Ġtel": 2377,
      "Ġmer": 2378,
      "_ch": 2379,
      "ormal": 2380,
      "VE": 2381,
      "type": 2382,
      "Ġhard": 2383,
      "gth": 2384,
      "Ä±yoruz": 2385,
      "root": 2386,
      "version": 2387,
      "'i": 2388,
      "Ġcurrent": 2389,
      "}Ċ": 2390,
      "Ġ`": 2391,
      "any": 2392,
      "])Ċ": 2393,
      "ask": 2394,
      "Ġfather": 2395,
      "url": 2396,
      "Ġanlat": 2397,
      "Ġwithout": 2398,
      "Ġsil": 2399,
      "Ġmom": 2400,
      "ilde": 2401,
      "Ġworld": 2402,
      "AM": 2403,
      "lÃ¼yor": 2404,
      "Ã¢lÃ¢": 2405,
      ".w": 2406,
      "ĠteÅŁ": 2407,
      "Ġroom": 2408,
      "Ġ:": 2409,
      "Ġpl": 2410,
      "Ġmsg": 2411,
      "var": 2412,
      "Ġkoy": 2413,
      "edir": 2414,
      "dict": 2415,
      "Ġide": 2416,
      "Ġizin": 2417,
      "Ġnerede": 2418,
      "Ġindex": 2419,
      "Ġfine": 2420,
      "ĠDecimal": 2421,
      "Ġargument": 2422,
      "lÄ±nda": 2423,
      "ĠdÃ¼n": 2424,
      "ĠkadÄ±n": 2425,
      "ĠsÃ¶z": 2426,
      "ason": 2427,
      "ocol": 2428,
      "iydi": 2429,
      "Ġtalking": 2430,
      "Ä±sÄ±": 2431,
      "ane": 2432,
      "ĠBay": 2433,
      "(name": 2434,
      "ĠBut": 2435,
      "ific": 2436,
      "exp": 2437,
      "16": 2438,
      "Ġyat": 2439,
      "ĠTH": 2440,
      "Ġsomeone": 2441,
      "Ġbar": 2442,
      "Ġmother": 2443,
      "Ġword": 2444,
      "Ġdest": 2445,
      "'e": 2446,
      "Test": 2447,
      "und": 2448,
      "Go": 2449,
      "ample": 2450,
      "Ġ[]Ċ": 2451,
      "32": 2452,
      "Ġoy": 2453,
      "ette": 2454,
      "--Ċ": 2455,
      "medi": 2456,
      "Ġtogether": 2457,
      "Ġgetting": 2458,
      "method": 2459,
      "resent": 2460,
      "iew": 2461,
      "Ġgeldi": 2462,
      "Ġhappened": 2463,
      "gili": 2464,
      "ĠiÃ§inde": 2465,
      "ystem": 2466,
      "vert": 2467,
      "Ġseen": 2468,
      "Ġlooking": 2469,
      "cak": 2470,
      "Ġdist": 2471,
      "anrÄ±m": 2472,
      "OM": 2473,
      "oot": 2474,
      "Ġpack": 2475,
      "Onun": 2476,
      "ĠhatÄ±r": 2477,
      "At": 2478,
      "Gel": 2479,
      "Ġrem": 2480,
      "Ġeach": 2481,
      "iÄŁer": 2482,
      "'):Ċ": 2483,
      "crement": 2484,
      "mesi": 2485,
      "inen": 2486,
      "ĠTamam": 2487,
      "Ġsource": 2488,
      "ness": 2489,
      "Ġik": 2490,
      "Ġformat": 2491,
      "06": 2492,
      "oo": 2493,
      "off": 2494,
      "Ġtop": 2495,
      "iles": 2496,
      "Ever": 2497,
      "Ġtyp": 2498,
      "Ġgeliyor": 2499,
      "ede": 2500,
      "'nÄ±n": 2501,
      ":\\": 2502,
      "iden": 2503,
      "ling": 2504,
      "Ġmar": 2505,
      "Ġ.": 2506,
      "ese": 2507,
      "Ġwasn": 2508,
      "Ġfamily": 2509,
      "mon": 2510,
      "num": 2511,
      "Ġsl": 2512,
      "ative": 2513,
      "Ġcont": 2514,
      "ĠolmalÄ±": 2515,
      "Daha": 2516,
      "Ã¶l": 2517,
      "Ġsuch": 2518,
      "El": 2519,
      "Ġtat": 2520,
      "ison": 2521,
      "Ġ+=": 2522,
      "rist": 2523,
      "ĠkÃ¼Ã§Ã¼k": 2524,
      "OUBLE": 2525,
      "ĠvardÄ±": 2526,
      "Ġinstance": 2527,
      "ĠaÄŁ": 2528,
      "anna": 2529,
      "ĠsuÃ§": 2530,
      "gÃ¼nÃ¼m": 2531,
      "ĠHey": 2532,
      "Maybe": 2533,
      "Ġsat": 2534,
      "idth": 2535,
      "Ġuntil": 2536,
      "Ġpoint": 2537,
      "(p": 2538,
      "=\"": 2539,
      "Ġorder": 2540,
      "raf": 2541,
      "Ġayr": 2542,
      "Ġ!Ċ": 2543,
      "Ġtuple": 2544,
      "Ġfull": 2545,
      "Ġtopl": 2546,
      "Ġuh": 2547,
      "tu": 2548,
      "ery": 2549,
      "Ġwidget": 2550,
      "[:": 2551,
      "ds": 2552,
      "Ġsorun": 2553,
      "oun": 2554,
      "ĠDOUBLE": 2555,
      "ĠgÃ¶rÃ¼ÅŁ": 2556,
      "ĠÃ¶nem": 2557,
      "Ġmonth": 2558,
      "Ġcharac": 2559,
      "ĠÃ¼st": 2560,
      "Ä±Ã§": 2561,
      "Ġpick": 2562,
      "Ä±ma": 2563,
      "Ä±zÄ±": 2564,
      "aut": 2565,
      "Ġboth": 2566,
      "ĠÅŀ": 2567,
      "Ġlaz": 2568,
      "Ġgerekiyor": 2569,
      "Ġilk": 2570,
      "Ġversion": 2571,
      "Please": 2572,
      "ĠlÃ¼tfen": 2573,
      "ify": 2574,
      "acaÄŁÄ±nÄ±": 2575,
      ".is": 2576,
      "dun": 2577,
      "Ġ'\"": 2578,
      "open": 2579,
      "Ġbizim": 2580,
      "ared": 2581,
      "pty": 2582,
      "ĠâĻª": 2583,
      "Ġbor": 2584,
      "ayacak": 2585,
      "item": 2586,
      "umu": 2587,
      "ersin": 2588,
      "Ġchang": 2589,
      "Ġusing": 2590,
      "Ġdes": 2591,
      "meyi": 2592,
      "Ãĸz": 2593,
      "anet": 2594,
      "Ġnice": 2595,
      "ady": 2596,
      "Ġburaya": 2597,
      "ENT": 2598,
      "ped": 2599,
      "Ġdir": 2600,
      "Ġyear": 2601,
      "Yap": 2602,
      "kat": 2603,
      "Ġfilename": 2604,
      "Ġremember": 2605,
      "eme": 2606,
      "ahat": 2607,
      "ello": 2608,
      "Ġjob": 2609,
      "likte": 2610,
      "Ġdok": 2611,
      "ouble": 2612,
      "_con": 2613,
      "Ġhour": 2614,
      "Ġemin": 2615,
      "ohn": 2616,
      "elam": 2617,
      "nder": 2618,
      "Ġ\"Ċ": 2619,
      "()\"": 2620,
      "ĠReturn": 2621,
      "Un": 2622,
      "Ġcons": 2623,
      "Ġclose": 2624,
      "14": 2625,
      "alarÄ±": 2626,
      "Ġposs": 2627,
      "ĠNot": 2628,
      "cremental": 2629,
      "kek": 2630,
      "ĠDo": 2631,
      "Ġimplement": 2632,
      "gram": 2633,
      "Ġkor": 2634,
      "Ġtoday": 2635,
      "Ġhep": 2636,
      "ĠdeÄŁilim": 2637,
      "aln": 2638,
      "Ġorada": 2639,
      "Bun": 2640,
      "NasÄ±l": 2641,
      "ĠÃĩ": 2642,
      "uÄŁu": 2643,
      ".h": 2644,
      "Ã¼ne": 2645,
      "azÄ±": 2646,
      "ĠFor": 2647,
      "Ġdevam": 2648,
      "pace": 2649,
      "Ġpret": 2650,
      "_type": 2651,
      "Ġwent": 2652,
      "alÄ±k": 2653,
      "Ġinv": 2654,
      "uments": 2655,
      "ident": 2656,
      "gel": 2657,
      "ĠHow": 2658,
      "List": 2659,
      "Ġlog": 2660,
      "Ġkab": 2661,
      "Ġbase": 2662,
      "Equal": 2663,
      "SE": 2664,
      "=False": 2665,
      "Here": 2666,
      "ina": 2667,
      "ĠtÃ¼m": 2668,
      "Ġgide": 2669,
      "andÄ±r": 2670,
      "Ġcontin": 2671,
      "plic": 2672,
      "ĠkarÅŁÄ±": 2673,
      "Ġvur": 2674,
      "ended": 2675,
      "ron": 2676,
      "inal": 2677,
      "Bab": 2678,
      "bers": 2679,
      "iable": 2680,
      "Ġsim": 2681,
      ".l": 2682,
      "Ġefendim": 2683,
      "ĠseÃ§": 2684,
      "ĠmÄ±sÄ±n": 2685,
      "Ġetmek": 2686,
      "aug": 2687,
      "ĠsÃ¶ylÃ¼yor": 2688,
      "Ġperson": 2689,
      "Ġsaw": 2690,
      "SanÄ±rÄ±m": 2691,
      "'Ä±": 2692,
      "umuz": 2693,
      "ĠĠĠĠĠĠĠĠĠĠĠĠĠĠĠĠĠĠĠĠĠĠĠĠĠĠĠ": 2694,
      "'))Ċ": 2695,
      "ĠsÃ¶yledi": 2696,
      "win": 2697,
      "ÅŁey": 2698,
      "lags": 2699,
      "Ġliv": 2700,
      "Ġknew": 2701,
      "valid": 2702,
      "alnÄ±z": 2703,
      "Ġfucking": 2704,
      "Ġear": 2705,
      "ĠeÄŁ": 2706,
      "ĠÃ§Ã¼nkÃ¼": 2707,
      "osed": 2708,
      "ĠlazÄ±m": 2709,
      "Ã¼c": 2710,
      "adÄ±m": 2711,
      "Ġyourself": 2712,
      "#Ċ": 2713,
      "coder": 2714,
      "ĠteÅŁekkÃ¼r": 2715,
      "Ġheader": 2716,
      "ĠÅŁekilde": 2717,
      "ID": 2718,
      "LÃ¼tfen": 2719,
      "gn": 2720,
      "ape": 2721,
      "Ġbuild": 2722,
      "work": 2723,
      "Ġkol": 2724,
      "Ġbey": 2725,
      "yr": 2726,
      "aret": 2727,
      "Ġmov": 2728,
      "Ġfik": 2729,
      "close": 2730,
      "Im": 2731,
      "ĠaynÄ±": 2732,
      "Ġbec": 2733,
      "Ġ\"__": 2734,
      "Ġguess": 2735,
      "lock": 2736,
      "lÄ±yor": 2737,
      "sy": 2738,
      "Ġprocess": 2739,
      "ĠyÃ¶": 2740,
      "Ġmind": 2741,
      ".write": 2742,
      "sem": 2743,
      "load": 2744,
      "Har": 2745,
      "Ġtam": 2746,
      "Ġsend": 2747,
      "Ã¼s": 2748,
      "Ġhast": 2749,
      "iyiz": 2750,
      "Ġeder": 2751,
      "100": 2752,
      "raw": 2753,
      "ĠgeÃ§ir": 2754,
      "(b": 2755,
      "over": 2756,
      "ired": 2757,
      "kaÃ§": 2758,
      "Ġwar": 2759,
      "Ġind": 2760,
      "ĠiÅŁte": 2761,
      "ween": 2762,
      "ably": 2763,
      "race": 2764,
      "Ġgener": 2765,
      "ctions": 2766,
      "Uh": 2767,
      "lere": 2768,
      "sc": 2769,
      "Ġ'.": 2770,
      "light": 2771,
      "Ġann": 2772,
      "Ġexception": 2773,
      "diÄŁini": 2774,
      "_r": 2775,
      "Ġsince": 2776,
      "encode": 2777,
      "Ġdesc": 2778,
      "larla": 2779,
      "_opt": 2780,
      "ikkat": 2781,
      "ĠHar": 2782,
      "mi": 2783,
      "Ġkendi": 2784,
      "ĠAt": 2785,
      "inizi": 2786,
      "ng": 2787,
      "Ġallow": 2788,
      "tik": 2789,
      "Ġspe": 2790,
      "rec": 2791,
      "ĠĠĠĠĠĠĠĠĠĠĠĠĠĠĠĠĠĠĠĠĠĠĠĠĠĠĠĠĠĠĠ": 2792,
      "ĠtaÅŁ": 2793,
      "ĠsÄ±k": 2794,
      "Ġbeh": 2795,
      "Ġvalues": 2796,
      "50": 2797,
      "ica": 2798,
      "ĠAma": 2799,
      "Ġwouldn": 2800,
      "GerÃ§ek": 2801,
      "AN": 2802,
      "Ona": 2803,
      "efon": 2804,
      "Ġmax": 2805,
      "edi": 2806,
      "itch": 2807,
      "Ġevent": 2808,
      "Ġaddress": 2809,
      ".de": 2810,
      "Ġsk": 2811,
      "opert": 2812,
      "\"\"\"": 2813,
      "teÅŁ": 2814,
      "ĠyapÄ±yor": 2815,
      ")\\": 2816,
      "Ah": 2817,
      "met": 2818,
      "akat": 2819,
      "ustom": 2820,
      "idir": 2821,
      "index": 2822,
      "_path": 2823,
      "'ya": 2824,
      "-b": 2825,
      "Ġonce": 2826,
      "usu": 2827,
      "Ġdakika": 2828,
      "'.": 2829,
      "13": 2830,
      "Ġek": 2831,
      "Ġbody": 2832,
      "org": 2833,
      "Ġmove": 2834,
      "Ġoyn": 2835,
      "Ġready": 2836,
      "Ġwoman": 2837,
      "Ġhigh": 2838,
      "Ġstate": 2839,
      "ĠLord": 2840,
      "ĠDr": 2841,
      "Ġolmaz": 2842,
      "rary": 2843,
      "Ġdet": 2844,
      "Ġfiles": 2845,
      "ayet": 2846,
      "Ġdifferent": 2847,
      "ml": 2848,
      "ĠonlarÄ±": 2849,
      "ann": 2850,
      "Ġwhole": 2851,
      "abb": 2852,
      "Ġidea": 2853,
      "(n": 2854,
      "Ġsing": 2855,
      "Ġkaf": 2856,
      "iyet": 2857,
      "Ġprom": 2858,
      "ott": 2859,
      "play": 2860,
      "ilerim": 2861,
      "'y": 2862,
      "Ġthank": 2863,
      "Ġmes": 2864,
      "859": 2865,
      "UM": 2866,
      "Ġbunun": 2867,
      "Ġdays": 2868,
      "Ġapp": 2869,
      "larÄ±m": 2870,
      "Um": 2871,
      "Ġitem": 2872,
      "Ä±yla": 2873,
      "Ġprov": 2874,
      "IL": 2875,
      "Ġbetween": 2876,
      "CE": 2877,
      "onse": 2878,
      "aces": 2879,
      "Ġencoding": 2880,
      "8859": 2881,
      "Ġod": 2882,
      "utils": 2883,
      "Ġsab": 2884,
      "Ġhaber": 2885,
      "Ġstack": 2886,
      "(_": 2887,
      "Bunun": 2888,
      "Ev": 2889,
      "gi": 2890,
      "uture": 2891,
      "oken": 2892,
      "())Ċ": 2893,
      "ĠÃ¶ÄŁren": 2894,
      "cel": 2895,
      "asÄ±na": 2896,
      "izi": 2897,
      "ĠolduÄŁu": 2898,
      "Ġkw": 2899,
      "Ġcomple": 2900,
      "AD": 2901,
      "Dur": 2902,
      "Ġcook": 2903,
      "eyse": 2904,
      "Pr": 2905,
      "date": 2906,
      "Ġfar": 2907,
      "ution": 2908,
      ".read": 2909,
      "Ġlive": 2910,
      "ĠÅŁans": 2911,
      "Ġunut": 2912,
      "ized": 2913,
      "Ä±ÄŁÄ±nÄ±": 2914,
      "-h": 2915,
      "Ġmaybe": 2916,
      "Ġwanna": 2917,
      "ots": 2918,
      "ineno": 2919,
      "Ġdin": 2920,
      "IGIT": 2921,
      "medim": 2922,
      "no": 2923,
      "Ġsit": 2924,
      "Ġfight": 2925,
      "ĠdoÄŁ": 2926,
      "char": 2927,
      "ĠMar": 2928,
      "GÃ¶r": 2929,
      "mm": 2930,
      "leep": 2931,
      "Ġlib": 2932,
      "Ġrequest": 2933,
      "ĠolmadÄ±ÄŁ": 2934,
      "--------------------------------": 2935,
      "ient": 2936,
      "ature": 2937,
      "Ġotur": 2938,
      "Ġmeans": 2939,
      "odec": 2940,
      "Ġilgili": 2941,
      "Because": 2942,
      "Ġ#Ċ": 2943,
      "ĠDIGIT": 2944,
      "reg": 2945,
      "module": 2946,
      "rib": 2947,
      "Ġbiliyorsun": 2948,
      "uyorum": 2949,
      "com": 2950,
      "Ġtook": 2951,
      "ĠDon": 2952,
      "Ġzam": 2953,
      "Biraz": 2954,
      "Ġgotta": 2955,
      "ĠdÃ¼ÅŁÃ¼nd": 2956,
      "Ġbaby": 2957,
      "],": 2958,
      "wise": 2959,
      "Ġyani": 2960,
      "Ġconn": 2961,
      "ures": 2962,
      "Ġswe": 2963,
      "Ġmiyim": 2964,
      "ision": 2965,
      "64": 2966,
      "right": 2967,
      "Ġwatch": 2968,
      "Ġnon": 2969,
      "ypeError": 2970,
      "angi": 2971,
      "ru": 2972,
      "Ġdilerim": 2973,
      "Ġbilmiyorum": 2974,
      "Bay": 2975,
      "rect": 2976,
      "Ã¼nden": 2977,
      "Ġparent": 2978,
      "iet": 2979,
      "Ġbize": 2980,
      "ÄŁl": 2981,
      "//": 2982,
      "ĠâĢ": 2983,
      "acaksÄ±n": 2984,
      "aydÄ±": 2985,
      "ĠCon": 2986,
      "ists": 2987,
      ".add": 2988,
      "18": 2989,
      "_key": 2990,
      "ilik": 2991,
      "resp": 2992,
      "Ġobjects": 2993,
      "where": 2994,
      "kan": 2995,
      "Ġmah": 2996,
      "ically": 2997,
      "Ä°Ã§": 2998,
      "diÄŁi": 2999,
      "Ġmorning": 3000,
      "emek": 3001,
      "Ġactually": 3002,
      "Ġwrite": 3003,
      "(t": 3004,
      "ited": 3005,
      "Ġalt": 3006,
      "roy": 3007,
      "Ġgidiyor": 3008,
      "IZ": 3009,
      "fr": 3010,
      "Ġsent": 3011,
      "quence": 3012,
      "operty": 3013,
      "Name": 3014,
      "Ġyeah": 3015,
      "Ġvere": 3016,
      "Ġhaf": 3017,
      "Ġblock": 3018,
      "Ġmatter": 3019,
      "OS": 3020,
      "Ġdinle": 3021,
      "Ġbirlikte": 3022,
      "ĠAmer": 3023,
      "ĠgÃ¶tÃ¼r": 3024,
      "ks": 3025,
      "ĠÃ¼Ã§": 3026,
      "inc": 3027,
      "ĠbÃ¼tÃ¼n": 3028,
      "Ġhold": 3029,
      "ĠIs": 3030,
      "likle": 3031,
      "Ġber": 3032,
      "Ġistiyorsun": 3033,
      "iÄŁini": 3034,
      "Ġmode": 3035,
      "Ġsaying": 3036,
      "Ġquest": 3037,
      "Ġgen": 3038,
      "ptal": 3039,
      "(),": 3040,
      "Ġincl": 3041,
      "Ġlines": 3042,
      "ĠSo": 3043,
      "ĠuÄŁr": 3044,
      "Ġuser": 3045,
      "=True": 3046,
      "Ġheard": 3047,
      "Ġdostum": 3048,
      "Kar": 3049,
      "Ġ\\": 3050,
      "Ġkes": 3051,
      "Ġdeal": 3052,
      "Ġbulun": 3053,
      "99": 3054,
      "IR": 3055,
      "amer": 3056,
      "17": 3057,
      "data": 3058,
      "uv": 3059,
      "Ġeither": 3060,
      "Ġistemiyorum": 3061,
      "Ya": 3062,
      "Mr": 3063,
      "Ġwalk": 3064,
      "amed": 3065,
      "Ġheart": 3066,
      "Ġshall": 3067,
      "Ġasla": 3068,
      "ĠEx": 3069,
      "Ġchange": 3070,
      "Ġoutput": 3071,
      "''": 3072,
      "Kend": 3073,
      "Ġpri": 3074,
      "ĠeÅŁ": 3075,
      "ĠkardeÅŁ": 3076,
      "ression": 3077,
      "ArtÄ±k": 3078,
      "Ġhey": 3079,
      "ĠOr": 3080,
      "Ġdep": 3081,
      "Ġalone": 3082,
      "Merhaba": 3083,
      "_de": 3084,
      "encoding": 3085,
      "aps": 3086,
      "oss": 3087,
      "Ġlost": 3088,
      "Pekala": 3089,
      "Ġpretty": 3090,
      "AS": 3091,
      "CT": 3092,
      "To": 3093,
      "uma": 3094,
      "Ġbuy": 3095,
      "ĠPr": 3096,
      "Ġassert": 3097,
      "Ãľz": 3098,
      "Ġkilled": 3099,
      "Ġload": 3100,
      "_file": 3101,
      "Ġago": 3102,
      "OP": 3103,
      "bably": 3104,
      "io": 3105,
      "ĠolmuÅŁ": 3106,
      "ern": 3107,
      "enin": 3108,
      "anda": 3109,
      "ĠOkay": 3110,
      "Ġdri": 3111,
      "struct": 3112,
      "input": 3113,
      "tp": 3114,
      "sted": 3115,
      "ĠkÄ±r": 3116,
      "olor": 3117,
      "Ġyeter": 3118,
      "eÅŁekkÃ¼r": 3119,
      "ĠyÃ¼k": 3120,
      "Ġfix": 3121,
      "endir": 3122,
      "Ġfew": 3123,
      "_list": 3124,
      "Ġschool": 3125,
      "result": 3126,
      "Ġobj": 3127,
      "ÅŁam": 3128,
      "Ġbuil": 3129,
      "ĠgÃ¶nder": 3130,
      "Ã¼ÄŁÃ¼m": 3131,
      "Ġbekle": 3132,
      "apped": 3133,
      "Wait": 3134,
      "malÄ±y": 3135,
      "ray": 3136,
      "Ġ)Ċ": 3137,
      "Ġwife": 3138,
      "Ġfield": 3139,
      "Ġshit": 3140,
      "esinlikle": 3141,
      ".g": 3142,
      "Ġsays": 3143,
      "Ġcodecs": 3144,
      "ompile": 3145,
      "'un": 3146,
      ".name": 3147,
      "QU": 3148,
      "sl": 3149,
      "ĠIS": 3150,
      "ention": 3151,
      "Ġhaven": 3152,
      "tag": 3153,
      "Ġmethods": 3154,
      "Ġkan": 3155,
      "ĠRIGHT": 3156,
      ".assertEqual": 3157,
      "Ġinput": 3158,
      "ĠYes": 3159,
      "Ġey": 3160,
      "ĠÃ¶nemli": 3161,
      "Ġclear": 3162,
      "bol": 3163,
      "oe": 3164,
      "âĢĻ": 3165,
      "GÃ¼zel": 3166,
      "_C": 3167,
      "dÃ¼": 3168,
      "Ã¼p": 3169,
      "Ġbring": 3170,
      "ket": 3171,
      "size": 3172,
      "Ġaff": 3173,
      "Ġonlar": 3174,
      "Ġexact": 3175,
      "ORM": 3176,
      "LO": 3177,
      "siz": 3178,
      "ĠbÃ¶l": 3179,
      "check": 3180,
      "Ġmyself": 3181,
      "ĠsavaÅŁ": 3182,
      "Tek": 3183,
      "vir": 3184,
      "ĠOS": 3185,
      ".\"": 3186,
      "\\\\": 3187,
      "mÄ±yorum": 3188,
      "ĠShe": 3189,
      "ĠuÃ§": 3190,
      "Ġtane": 3191,
      "ĠNew": 3192,
      "Par": 3193,
      "Ġhost": 3194,
      "Ġ'__": 3195,
      "andle": 3196,
      "ires": 3197,
      "liyor": 3198,
      "meden": 3199,
      "ral": 3200,
      "Ġmark": 3201,
      "Ġfl": 3202,
      "oper": 3203,
      "().": 3204,
      "ĠgÃ¶rÃ¼nÃ¼yor": 3205,
      "lean": 3206,
      "omb": 3207,
      "Ġeq": 3208,
      "Ġbenz": 3209,
      "Right": 3210,
      "loc": 3211,
      "only": 3212,
      "Ġgone": 3213,
      "itle": 3214,
      "Ġlater": 3215,
      "lerim": 3216,
      "Ġediyorum": 3217,
      "Ġlisten": 3218,
      "Of": 3219,
      "most": 3220,
      "Ġbed": 3221,
      "ĠgÃ¼Ã§": 3222,
      "ĠLEF": 3223,
      "007": 3224,
      "Ġerkek": 3225,
      "Ġuzak": 3226,
      "att": 3227,
      "Ġleast": 3228,
      "process": 3229,
      "ĠLEFT": 3230,
      "ileri": 3231,
      "Sonra": 3232,
      "Ġdiy": 3233,
      "Ġmaster": 3234,
      "emem": 3235,
      "004": 3236,
      "Ġseri": 3237,
      "insert": 3238,
      "Ġuzun": 3239,
      "ero": 3240,
      "Ġzaten": 3241,
      "buffer": 3242,
      "24": 3243,
      "aa": 3244,
      "Ġyere": 3245,
      "level": 3246,
      "Ġcou": 3247,
      "Context": 3248,
      "for": 3249,
      "Ġsort": 3250,
      "Ġcouldn": 3251,
      "lÄ±m": 3252,
      "Ġton": 3253,
      "Ġport": 3254,
      "ĠbakalÄ±m": 3255,
      "gan": 3256,
      "Ġcannot": 3257,
      "Ġcontinue": 3258,
      "iver": 3259,
      "orrow": 3260,
      "Ġmain": 3261,
      "larÄ±na": 3262,
      "Ġvak": 3263,
      "imizi": 3264,
      "UN": 3265,
      "ech": 3266,
      "lerine": 3267,
      "Ġpara": 3268,
      "_id": 3269,
      "ĠÃĩok": 3270,
      "Ġface": 3271,
      "amÄ±yorum": 3272,
      "Ġwants": 3273,
      "apping": 3274,
      "Ä±mÄ±zÄ±": 3275,
      "ged": 3276,
      "py": 3277,
      "Ġinit": 3278,
      "Ġsizi": 3279,
      "Ġharika": 3280,
      "Ġglob": 3281,
      "Ġpek": 3282,
      "atever": 3283,
      "Ġarguments": 3284,
      "Ġoptions": 3285,
      "Ġagainst": 3286,
      "Ġhaving": 3287,
      "ke": 3288,
      "link": 3289,
      "ERT": 3290,
      "US": 3291,
      "lic": 3292,
      "ĠiÅŁe": 3293,
      "oz": 3294,
      "place": 3295,
      "Ġkom": 3296,
      "Ġstream": 3297,
      "olog": 3298,
      "Ġexecut": 3299,
      "Ġedin": 3300,
      "ĠgÃ¶rmek": 3301,
      "Ġhisset": 3302,
      "Ġyoksa": 3303,
      "'),": 3304,
      "Ġaw": 3305,
      "Ġarab": 3306,
      "Ġvis": 3307,
      "arser": 3308,
      "Ġworking": 3309,
      "Ġ<=": 3310,
      "Ġsilah": 3311,
      "ĠBil": 3312,
      "One": 3313,
      "arak": 3314,
      "Ġdie": 3315,
      "Ġtoken": 3316,
      "Ġstuff": 3317,
      "ross": 3318,
      "ĠettiÄŁ": 3319,
      "Ġtekrar": 3320,
      "Ġeas": 3321,
      "ĠÃ¶ÄŁ": 3322,
      "Ġknows": 3323,
      "ultip": 3324,
      "ladÄ±": 3325,
      "ider": 3326,
      "ĠJack": 3327,
      "Ġwindow": 3328,
      "Ġflo": 3329,
      "Ġpower": 3330,
      "ĠWell": 3331,
      "Ġcontain": 3332,
      "Ġevet": 3333,
      "ladÄ±m": 3334,
      "Ġhandle": 3335,
      "ARK": 3336,
      "29": 3337,
      "Some": 3338,
      "rew": 3339,
      "Ġkay": 3340,
      "Ġdol": 3341,
      "avaÅŁ": 3342,
      "Ġsoon": 3343,
      "Ġfact": 3344,
      "Ġtom": 3345,
      "ĠHer": 3346,
      "Ä±ya": 3347,
      "ĠdÃ¼ny": 3348,
      "[-": 3349,
      "ili": 3350,
      "isini": 3351,
      "Ä±yordum": 3352,
      "Ġyapmak": 3353,
      "ĠRe": 3354,
      "lim": 3355,
      "Ġdam": 3356,
      "ics": 3357,
      "ĠAC": 3358,
      "Ġzorunda": 3359,
      "(cls": 3360,
      "Ä±cÄ±": 3361,
      "Ġsleep": 3362,
      "lain": 3363,
      "psi": 3364,
      "si": 3365,
      "Ġhurt": 3366,
      "Ġinform": 3367,
      "Ä±ca": 3368,
      "Ġblo": 3369,
      "othing": 3370,
      "oid": 3371,
      "ĠTypeError": 3372,
      "Ġdrink": 3373,
      "Ġkazan": 3374,
      "max": 3375,
      "Ġprogram": 3376,
      "abilirim": 3377,
      "viron": 3378,
      "vious": 3379,
      "eleri": 3380,
      "Ġanda": 3381,
      "Ġnef": 3382,
      "005": 3383,
      "Ġattribute": 3384,
      "006": 3385,
      "ipe": 3386,
      "ĠboÅŁ": 3387,
      "'),Ċ": 3388,
      "bette": 3389,
      "ung": 3390,
      "ides": 3391,
      "Ġserver": 3392,
      ".S": 3393,
      "Ġbizi": 3394,
      ".ex": 3395,
      "sek": 3396,
      "Ġinte": 3397,
      "Ä±ÄŁÄ±n": 3398,
      "Ä±ÄŁÄ±m": 3399,
      "Ġlevel": 3400,
      "eÄŁi": 3401,
      "side": 3402,
      "Ġbilir": 3403,
      "Ġwin": 3404,
      "ises": 3405,
      "Ġlate": 3406,
      "ĠBur": 3407,
      "Ġattr": 3408,
      "miÅŁti": 3409,
      "Ġbrother": 3410,
      "Have": 3411,
      "Ġcer": 3412,
      "ĠCar": 3413,
      "ĠEr": 3414,
      "ĠkiÅŁi": 3415,
      "UL": 3416,
      "Ġkah": 3417,
      "__Ċ": 3418,
      "Ġreturned": 3419,
      "Ġthinking": 3420,
      "Ġprefix": 3421,
      "Ġkaybet": 3422,
      "PE": 3423,
      "Wr": 3424,
      "ility": 3425,
      "ersen": 3426,
      "Ġkarar": 3427,
      "Ġdedi": 3428,
      "):": 3429,
      "anÄ±m": 3430,
      "ialog": 3431,
      "################": 3432,
      "Ġphone": 3433,
      "Ġgun": 3434,
      "ump": 3435,
      "ĠiÅŁi": 3436,
      "event": 3437,
      "(value": 3438,
      "OK": 3439,
      "uld": 3440,
      "reate": 3441,
      "ounds": 3442,
      "context": 3443,
      "Ġempty": 3444,
      "Ġ>=": 3445,
      "Ġinstead": 3446,
      "BÃ¶yle": 3447,
      "MA": 3448,
      "_se": 3449,
      "sam": 3450,
      "uÃ§": 3451,
      "Ġhemen": 3452,
      "(D": 3453,
      "EX": 3454,
      "ĠdiÄŁer": 3455,
      "state": 3456,
      "ĠCONT": 3457,
      "Ġvariable": 3458,
      "uÅŁtur": 3459,
      "Ġsave": 3460,
      "Ġhappy": 3461,
      "Ġsuper": 3462,
      "elease": 3463,
      "_S": 3464,
      "lÄ±ÅŁ": 3465,
      "view": 3466,
      "Ġhope": 3467,
      "ISO": 3468,
      "Ġfinally": 3469,
      "Ġsw": 3470,
      "Ä±yÄ±": 3471,
      "Ġspecified": 3472,
      "_error": 3473,
      "ĠÃ§aÄŁ": 3474,
      "Ä±lmÄ±ÅŁ": 3475,
      "Ġkimse": 3476,
      "Sorry": 3477,
      "Ġtimes": 3478,
      "Ġrahat": 3479,
      "coded": 3480,
      "ught": 3481,
      "Ġside": 3482,
      "start": 3483,
      "emez": 3484,
      "lag": 3485,
      "Allah": 3486,
      "_module": 3487,
      "Ġroot": 3488,
      "(path": 3489,
      ".text": 3490,
      "_in": 3491,
      "Ġsystem": 3492,
      "omain": 3493,
      "eydi": 3494,
      "Ġcreate": 3495,
      "Every": 3496,
      "-T": 3497,
      ".C": 3498,
      "fin": 3499,
      "lÄ±yorum": 3500,
      "Ġmur": 3501,
      "Ġhum": 3502,
      "ayÄ±n": 3503,
      "esini": 3504,
      "iting": 3505,
      "Ġart": 3506,
      "ĠtanÄ±ÅŁ": 3507,
      "oon": 3508,
      "ector": 3509,
      "Ġetti": 3510,
      "Ġtarget": 3511,
      "box": 3512,
      "Ġdad": 3513,
      "ĠdÃ¼z": 3514,
      "Ġhit": 3515,
      "Ġcal": 3516,
      "Ġcap": 3517,
      "Ġrequ": 3518,
      "Ġ(\"": 3519,
      "siness": 3520,
      "Ġspecial": 3521,
      "Ġmakes": 3522,
      "Ġdirectory": 3523,
      "malÄ±": 3524,
      "amak": 3525,
      "Ġbusiness": 3526,
      "Ġconfig": 3527,
      "=self": 3528,
      "ael": 3529,
      "ding": 3530,
      "meyecek": 3531,
      "_N": 3532,
      "ging": 3533,
      "adaki": 3534,
      "Ġ'%": 3535,
      "Ġseviyorum": 3536,
      "Ġposition": 3537,
      "Ġfriends": 3538,
      "_F": 3539,
      "xy": 3540,
      "ĠyalnÄ±z": 3541,
      "undan": 3542,
      "ATION": 3543,
      "Ġtruth": 3544,
      "Ġilg": 3545,
      "iyi": 3546,
      "anrÄ±": 3547,
      "Ġlocal": 3548,
      "Ġdavran": 3549,
      "ROL": 3550,
      "orge": 3551,
      "Ġwish": 3552,
      "asyon": 3553,
      "ĠIN": 3554,
      "utton": 3555,
      "ants": 3556,
      "ĠJohn": 3557,
      "IO": 3558,
      "madan": 3559,
      "Ġhon": 3560,
      "header": 3561,
      "Ġworry": 3562,
      "Git": 3563,
      "Ġnormal": 3564,
      "Ġsearch": 3565,
      "Ġparser": 3566,
      "memiÅŁ": 3567,
      "posed": 3568,
      "009": 3569,
      "iful": 3570,
      "Ä±lan": 3571,
      "Ġgelir": 3572,
      "Ġprobably": 3573,
      "ternal": 3574,
      "Ġentry": 3575,
      "See": 3576,
      "user": 3577,
      "_spec": 3578,
      "Ġkurt": 3579,
      "come": 3580,
      "nf": 3581,
      "ĠÅŁunu": 3582,
      "Ġanyone": 3583,
      "ĠCONTROL": 3584,
      "21": 3585,
      "ytes": 3586,
      "ouch": 3587,
      "008": 3588,
      "roll": 3589,
      "Ġgetattr": 3590,
      "Ãĩoc": 3591,
      "Ġhissed": 3592,
      "Ġhands": 3593,
      "Ġyarat": 3594,
      "Ġchildren": 3595,
      "Ġspeak": 3596,
      "sub": 3597,
      "ird": 3598,
      "umn": 3599,
      "mesini": 3600,
      "swith": 3601,
      "Ġgiy": 3602,
      "ases": 3603,
      "Ġreason": 3604,
      "ekt": 3605,
      "eket": 3606,
      "ences": 3607,
      "ĠdÄ±ÅŁarÄ±": 3608,
      "Ġyen": 3609,
      "aÄŁa": 3610,
      "address": 3611,
      "UTE": 3612,
      ".r": 3613,
      "Ġfall": 3614,
      "amb": 3615,
      "unction": 3616,
      "ital": 3617,
      "Ġreturns": 3618,
      "ĠparÃ§": 3619,
      "\".": 3620,
      "(obj": 3621,
      ">Ċ": 3622,
      "EV": 3623,
      "erek": 3624,
      "Ġsok": 3625,
      "Ġfig": 3626,
      "larda": 3627,
      "ICAL": 3628,
      "Ab": 3629,
      "IA": 3630,
      "Ġign": 3631,
      "Ġkontrol": 3632,
      "Ġinside": 3633,
      "orn": 3634,
      "ats": 3635,
      "Ġolduk": 3636,
      "ĠVe": 3637,
      "Ġminutes": 3638,
      "Selam": 3639,
      "Ġsocket": 3640,
      "Ġhot": 3641,
      "Ġgiz": 3642,
      "deki": 3643,
      "azy": 3644,
      "log": 3645,
      "dÄ±k": 3646,
      "Ġmil": 3647,
      "Ġkez": 3648,
      "miÅŁtim": 3649,
      "Ġmaking": 3650,
      "Ġkabul": 3651,
      "Implement": 3652,
      "-I": 3653,
      "\\'": 3654,
      "Ġyalan": 3655,
      "Ġgave": 3656,
      "Ġdeath": 3657,
      "used": 3658,
      "Ġminute": 3659,
      "Ġtelefon": 3660,
      "Ġpossible": 3661,
      "Ġtonight": 3662,
      "mit": 3663,
      "003": 3664,
      "Ġgroup": 3665,
      "ĠgÃ¶rev": 3666,
      "Ġident": 3667,
      "Ġextra": 3668,
      "Hi": 3669,
      "Ġdat": 3670,
      "Ġcopy": 3671,
      "diÅŁ": 3672,
      "Ġerrors": 3673,
      "Ġpackage": 3674,
      "Ġhafta": 3675,
      "db": 3676,
      "luk": 3677,
      "more": 3678,
      "ĠmÄ±y": 3679,
      "Ġolmam": 3680,
      "larÄ±nÄ±n": 3681,
      "build": 3682,
      "Ġdisc": 3683,
      "Ġhala": 3684,
      "Ġwonder": 3685,
      "mÄ±yor": 3686,
      ".split": 3687,
      "Kap": 3688,
      "Ġdig": 3689,
      "Ġima": 3690,
      "Ã¼ph": 3691,
      "ĠanlaÅŁ": 3692,
      "uyorsun": 3693,
      "ichael": 3694,
      "ync": 3695,
      "ĠWho": 3696,
      "Ġkids": 3697,
      "Dec": 3698,
      "ops": 3699,
      "INE": 3700,
      "Ġmisiniz": 3701,
      "typ": 3702,
      "Ġtypes": 3703,
      "Ġexactly": 3704,
      "ĠThey": 3705,
      "ĠyÄ±ld": 3706,
      "Ġhuh": 3707,
      "idden": 3708,
      "Ġdoor": 3709,
      "ĠGr": 3710,
      "Ġtomorrow": 3711,
      ".ISO": 3712,
      "doc": 3713,
      "ĠkÄ±s": 3714,
      "Ġconf": 3715,
      "Ġverir": 3716,
      "ucu": 3717,
      "Hello": 3718,
      "Ġ..": 3719,
      "inst": 3720,
      "Ġyield": 3721,
      "Ġfalan": 3722,
      "Ġansw": 3723,
      "ĠEn": 3724,
      "ĠExt": 3725,
      "Ġedil": 3726,
      "_size": 3727,
      "ERTICAL": 3728,
      "Like": 3729,
      "Ġgec": 3730,
      "Ġ'|": 3731,
      "Ġlight": 3732,
      "Ġrange": 3733,
      "ĠAB": 3734,
      "ĠFORM": 3735,
      "ground": 3736,
      "DÃ¼n": 3737,
      "xF": 3738,
      "Ġnedir": 3739,
      "Ġreport": 3740,
      "ekle": 3741,
      "Ġgets": 3742,
      "ĠKim": 3743,
      "Ġlooks": 3744,
      "ĠtarafÄ±ndan": 3745,
      "ided": 3746,
      "ĠVERTICAL": 3747,
      "Ã¼yorum": 3748,
      "Ġcolle": 3749,
      "ÃĸzÃ¼r": 3750,
      "Pro": 3751,
      "host": 3752,
      "Ġsol": 3753,
      "lex": 3754,
      "unca": 3755,
      "ĠIP": 3756,
      "Ġkurtar": 3757,
      "Ġsizin": 3758,
      "AslÄ±nda": 3759,
      "KÄ±z": 3760,
      "del": 3761,
      "Ġsym": 3762,
      "els": 3763,
      "Ġgar": 3764,
      "Ġkul": 3765,
      "Ġeve": 3766,
      "ĠBaÅŁ": 3767,
      "ersiniz": 3768,
      "ether": 3769,
      "ayÄ±p": 3770,
      "Ġgereken": 3771,
      "ished": 3772,
      "airs": 3773,
      "Ġstatement": 3774,
      "Ä°nsan": 3775,
      "Ã¼nÃ¼z": 3776,
      "Ġorig": 3777,
      "Ġteh": 3778,
      "Ġyakal": 3779,
      "Ġsingle": 3780,
      "ĠOSError": 3781,
      "Tell": 3782,
      "Ġsin": 3783,
      "Ġwarn": 3784,
      "GerÃ§ekten": 3785,
      "Sak": 3786,
      "Take": 3787,
      "dit": 3788,
      "Ġdebug": 3789,
      "Ġbeaut": 3790,
      "Ġsever": 3791,
      "ĠPar": 3792,
      "ĠĠĠĠĠĠĠĠĠĠĠĠĠĠĠĠĠĠĠĠĠĠ": 3793,
      "Ġinformation": 3794,
      "ean": 3795,
      "gun": 3796,
      "ĠateÅŁ": 3797,
      "unch": 3798,
      "ĠbirkaÃ§": 3799,
      "Ä°l": 3800,
      "ĠChrist": 3801,
      "mamÄ±z": 3802,
      "255": 3803,
      "Ġsahip": 3804,
      "ĠThere": 3805,
      "ĠyÃ¼r": 3806,
      "Ġfa": 3807,
      "Ġcho": 3808,
      "Ġintere": 3809,
      "ĠakÅŁam": 3810,
      ".start": 3811,
      "Ġfilm": 3812,
      "arÄ±n": 3813,
      "Ġmad": 3814,
      "ĠST": 3815,
      "uss": 3816,
      "ĠÃ§alÄ±ÅŁÄ±yor": 3817,
      "-Ċ": 3818,
      "Ġbay": 3819,
      "ored": 3820,
      "ately": 3821,
      "Ġyes": 3822,
      "irt": 3823,
      "ities": 3824,
      "ĠCHA": 3825,
      "__()\"": 3826,
      "errors": 3827,
      "Ġpolice": 3828,
      "pack": 3829,
      "xB": 3830,
      "iddi": 3831,
      "ĠGet": 3832,
      "BugÃ¼n": 3833,
      "obody": 3834,
      "masÄ±nÄ±": 3835,
      "']Ċ": 3836,
      "(object": 3837,
      "ces": 3838,
      "Ġpres": 3839,
      "idd": 3840,
      "Ġimportant": 3841,
      "))": 3842,
      "arning": 3843,
      "Ġfav": 3844,
      "Ġlaw": 3845,
      "ĠKey": 3846,
      "avi": 3847,
      "Ġyerde": 3848,
      "ĠâĻªĊ": 3849,
      "((": 3850,
      "Ġsand": 3851,
      "adÄ±n": 3852,
      "ĠCan": 3853,
      "ries": 3854,
      "ĠUP": 3855,
      "IM": 3856,
      "Ġlock": 3857,
      "rag": 3858,
      "ĠdeÄŁildi": 3859,
      "256": 3860,
      "ĠihtiyacÄ±m": 3861,
      "Ner": 3862,
      "comp": 3863,
      "ĠtÃ¼r": 3864,
      "ĠbÃ¼y": 3865,
      "ĠsaÃ§": 3866,
      "ages": 3867,
      "ĠÃ¶lÃ¼m": 3868,
      "ĠkarÅŁÄ±l": 3869,
      ".close": 3870,
      "por": 3871,
      "ving": 3872,
      "ĠhÄ±z": 3873,
      "ionary": 3874,
      "ĠyapÄ±yorsun": 3875,
      "Ġbook": 3876,
      "action": 3877,
      "Hayat": 3878,
      "Ġmurder": 3879,
      "Br": 3880,
      "Base": 3881,
      "Handler": 3882,
      "do": 3883,
      "Ġkut": 3884,
      "ailable": 3885,
      "Ġinsanlar": 3886,
      "offset": 3887,
      "ughter": 3888,
      "Ä±lar": 3889,
      "Ġforg": 3890,
      "Ġtaking": 3891,
      "Ġtrace": 3892,
      "erver": 3893,
      "ĠSc": 3894,
      "ĠMy": 3895,
      "Ġetk": 3896,
      "Ġsupposed": 3897,
      "Buraya": 3898,
      "Ġrunning": 3899,
      "Be": 3900,
      "YRI": 3901,
      "ĠeÄŁer": 3902,
      "lerde": 3903,
      "Ġexist": 3904,
      "RAC": 3905,
      "HE": 3906,
      "Yok": 3907,
      "Ġthough": 3908,
      "left": 3909,
      "amÄ±": 3910,
      "Ä±mda": 3911,
      "ĠAs": 3912,
      "ĠCYRI": 3913,
      "Ġherkes": 3914,
      "Ġbilmiyor": 3915,
      "ĠkaÃ§Ä±r": 3916,
      "LLIC": 3917,
      "ĠCYRILLIC": 3918,
      "Tr": 3919,
      "Hep": 3920,
      "Ãĸn": 3921,
      "Ġ{}Ċ": 3922,
      "HiÃ§bir": 3923,
      "Ġfollowing": 3924,
      "Kon": 3925,
      "])": 3926,
      "_info": 3927,
      "unday": 3928,
      "iled": 3929,
      "ctor": 3930,
      "Ġcontrol": 3931,
      "Ġneeds": 3932,
      "Ġparty": 3933,
      "********": 3934,
      "Ġcharacter": 3935,
      "aka": 3936,
      "Ġeat": 3937,
      "lerle": 3938,
      "mail": 3939,
      "Ġ|\\": 3940,
      "ĠÃ§ocuklar": 3941,
      "Ġhours": 3942,
      "RACTER": 3943,
      "Dr": 3944,
      "God": 3945,
      "TÃ¼m": 3946,
      "cuse": 3947,
      "anlar": 3948,
      "imin": 3949,
      "items": 3950,
      "ĠCome": 3951,
      "ĠvardÄ±r": 3952,
      ".n": 3953,
      "eorge": 3954,
      "Ġhik": 3955,
      "Ġhus": 3956,
      "amay": 3957,
      "imde": 3958,
      "Ġiter": 3959,
      "ĠÃ§ev": 3960,
      "itten": 3961,
      "Ġneeded": 3962,
      "Ġbelki": 3963,
      "ESIS": 3964,
      "Ġyemek": 3965,
      "ĠdeÄŁiÅŁtir": 3966,
      "ĠCHARACTER": 3967,
      "02": 3968,
      "RL": 3969,
      "Ġsection": 3970,
      "Ġdikkat": 3971,
      "Ġmana": 3972,
      "Ġveya": 3973,
      "\"\\": 3974,
      "irc": 3975,
      "Ġonlara": 3976,
      "ĠBayan": 3977,
      "lerden": 3978,
      "ĠHOR": 3979,
      "Any": 3980,
      "Ġbenimle": 3981,
      "ĠyakÄ±n": 3982,
      "aught": 3983,
      "ges": 3984,
      "liÄŁ": 3985,
      "Ġwater": 3986,
      "ets": 3987,
      "ĠTo": 3988,
      "_from": 3989,
      "ONTAL": 3990,
      "IZONTAL": 3991,
      "\":Ċ": 3992,
      "-in": 3993,
      "].": 3994,
      "Ġluck": 3995,
      "ĠSee": 3996,
      "tains": 3997,
      "spec": 3998,
      "dÃ¼r": 3999,
      "Ġplat": 4000,
      "Ġref": 4001,
      "ĠTanrÄ±m": 4002,
      "ption": 4003,
      "config": 4004,
      "ĠHORIZONTAL": 4005,
      "band": 4006,
      "ĠSam": 4007,
      "Ġsequence": 4008,
      "Ġburadan": 4009,
      "Ġmusunuz": 4010,
      "selves": 4011,
      "BaÅŁka": 4012,
      "ĠÃ¼zerinde": 4013,
      "abileceÄŁ": 4014,
      "Tom": 4015,
      "ney": 4016,
      "yla": 4017,
      "Ġain": 4018,
      "ĠbirÅŁey": 4019,
      "ĠGer": 4020,
      "Ġtrust": 4021,
      "ĠÄ°yi": 4022,
      "Stream": 4023,
      "Ġasked": 4024,
      "madÄ±m": 4025,
      "Ġgitti": 4026,
      ",\"": 4027,
      "Tabii": 4028,
      "suz": 4029,
      "Ġfail": 4030,
      "Ġlik": 4031,
      "ĠLet": 4032,
      "Bence": 4033,
      "Ġdedim": 4034,
      "Ġcrazy": 4035,
      "SÃ¶yle": 4036,
      "rt": 4037,
      "yim": 4038,
      "Ġberi": 4039,
      "Ġocc": 4040,
      "Ġkit": 4041,
      "ĠMARK": 4042,
      "Ġseb": 4043,
      "ĠGood": 4044,
      "Ġlead": 4045,
      "property": 4046,
      "Ġyerine": 4047,
      "ga": 4048,
      "gu": 4049,
      "Ġdate": 4050,
      "refix": 4051,
      "omple": 4052,
      "Ġstory": 4053,
      "34": 4054,
      "Ġdefined": 4055,
      "Ä°ki": 4056,
      "Ġgelen": 4057,
      "Implemented": 4058,
      "?\"Ċ": 4059,
      "Ol": 4060,
      "[i": 4061,
      "Ġpast": 4062,
      "ĠSan": 4063,
      "ending": 4064,
      "ĠOF": 4065,
      "abilirsin": 4066,
      "File": 4067,
      "mp": 4068,
      "xC": 4069,
      "xD": 4070,
      "ĠTom": 4071,
      "ured": 4072,
      "Ġheaders": 4073,
      "ĠsaldÄ±r": 4074,
      "Ġdescript": 4075,
      "GÃ¶": 4076,
      "\\u": 4077,
      "ivers": 4078,
      "patch": 4079,
      "xA": 4080,
      "yan": 4081,
      "Ġtab": 4082,
      "ĠWhere": 4083,
      "Ġaccess": 4084,
      "Ġpattern": 4085,
      "(x": 4086,
      ".join": 4087,
      "SC": 4088,
      "iam": 4089,
      "icy": 4090,
      "ĠSE": 4091,
      "ments": 4092,
      "ĠkarÄ±ÅŁ": 4093,
      "ĠgÃ¼nÃ¼": 4094,
      "Ġeveryone": 4095,
      "outh": 4096,
      "Ġshot": 4097,
      "plat": 4098,
      "Ġpassed": 4099,
      "âĢĿ": 4100,
      "Ġresults": 4101,
      "Ä±ldÄ±": 4102,
      "Listen": 4103,
      "Adam": 4104,
      "gÄ±n": 4105,
      "lines": 4106,
      "Ġfour": 4107,
      "utf": 4108,
      "ĠSte": 4109,
      "Ã¼rÃ¼z": 4110,
      "ship": 4111,
      "madÄ±": 4112,
      "mayÄ±n": 4113,
      "Haydi": 4114,
      "Ġeski": 4115,
      "can": 4116,
      "ms": 4117,
      "repr": 4118,
      "Ġhang": 4119,
      "ura": 4120,
      "ĠSp": 4121,
      "Ġkonu": 4122,
      "Ġhadi": 4123,
      "Ġfinal": 4124,
      "ĠgÃ¶rdÃ¼m": 4125,
      "Ġcertain": 4126,
      "_string": 4127,
      "tum": 4128,
      "Ġsar": 4129,
      "Ġbuna": 4130,
      "Ġht": 4131,
      "eder": 4132,
      "Ġfire": 4133,
      "Ġ'*": 4134,
      "eks": 4135,
      "Ġyapar": 4136,
      "Ġchance": 4137,
      "lamak": 4138,
      "eceÄŁiz": 4139,
      "FC": 4140,
      "duk": 4141,
      "Ġise": 4142,
      "itti": 4143,
      "Ġaccept": 4144,
      "Ġfunc": 4145,
      "Ġkendini": 4146,
      "(Decimal": 4147,
      "PT": 4148,
      "Ġesc": 4149,
      "icode": 4150,
      "aÅŁtÄ±r": 4151,
      "ĠÃ¶d": 4152,
      "BÃ¼tÃ¼n": 4153,
      "TanrÄ±m": 4154,
      "Ġtah": 4155,
      "aring": 4156,
      "atÄ±": 4157,
      "attern": 4158,
      "Ġtot": 4159,
      "ĠAb": 4160,
      "Ġolay": 4161,
      "ĠLIGHT": 4162,
      "ĠOK": 4163,
      "Ġless": 4164,
      "Ġimp": 4165,
      "after": 4166,
      "Ġkonus": 4167,
      "lama": 4168,
      "Ġerr": 4169,
      "ehir": 4170,
      "Ãĩocuk": 4171,
      "05": 4172,
      "xf": 4173,
      "Ġtag": 4174,
      "Ġwaiting": 4175,
      "(data": 4176,
      "ĠeÄŁlen": 4177,
      "Ġeyes": 4178,
      "23": 4179,
      "Ġauth": 4180,
      "Ġdiyor": 4181,
      "Ġhem": 4182,
      "ĠoÄŁl": 4183,
      "Ġcev": 4184,
      "Ġkav": 4185,
      "ĠMon": 4186,
      "Ġprotocol": 4187,
      "Sorun": 4188,
      "KE": 4189,
      "point": 4190,
      "Ġ$": 4191,
      "omet": 4192,
      "Ġrefer": 4193,
      "Ġdaughter": 4194,
      "Ġaptal": 4195,
      "ony": 4196,
      "ased": 4197,
      "aÅŁÄ±r": 4198,
      "ĠbugÃ¼n": 4199,
      "Ġstarted": 4200,
      "Ġbahset": 4201,
      "\".Ċ": 4202,
      "([": 4203,
      "_M": 4204,
      "_args": 4205,
      "eal": 4206,
      "mt": 4207,
      "ying": 4208,
      "ĠbazÄ±": 4209,
      "Ġthread": 4210,
      "ride": 4211,
      "Ġseninle": 4212,
      "ances": 4213,
      "Ġblood": 4214,
      "lÃ¼k": 4215,
      "meni": 4216,
      "sak": 4217,
      "yse": 4218,
      "stat": 4219,
      "Ġoffset": 4220,
      "Ġdisplay": 4221,
      "OWN": 4222,
      "ÃľzgÃ¼nÃ¼m": 4223,
      "Type": 4224,
      "aul": 4225,
      "ories": 4226,
      "aving": 4227,
      "loop": 4228,
      "Ġpolis": 4229,
      "Ġmissing": 4230,
      "With": 4231,
      "_set": 4232,
      "elik": 4233,
      "Ġgelecek": 4234,
      "UTF": 4235,
      "Ġresponse": 4236,
      "Ġsabah": 4237,
      "AG": 4238,
      "Bayan": 4239,
      "Ġsn": 4240,
      "Ä±lÄ±": 4241,
      "40": 4242,
      "nie": 4243,
      "anÄ±z": 4244,
      "ĠyaklaÅŁ": 4245,
      "ĠÃ¼zgÃ¼nÃ¼m": 4246,
      "gine": 4247,
      "raid": 4248,
      "Ġedecek": 4249,
      "Ġhasattr": 4250,
      "Ġburad": 4251,
      "ĠsanÄ±rÄ±m": 4252,
      "year": 4253,
      "tributeError": 4254,
      "ĠExtended": 4255,
      "Ġhusband": 4256,
      "\")": 4257,
      "Give": 4258,
      "GeÃ§": 4259,
      "Pol": 4260,
      "dout": 4261,
      "Ġyine": 4262,
      "Ġmas": 4263,
      "alt": 4264,
      "Ġneler": 4265,
      "Ġpo": 4266,
      "ĠBunu": 4267,
      "Ġonunla": 4268,
      "Ġquestion": 4269,
      "(r": 4270,
      "Ayr": 4271,
      "map": 4272,
      "~~": 4273,
      "Ġces": 4274,
      "Ġfuture": 4275,
      "osp": 4276,
      "ĠolmasÄ±": 4277,
      "Ġsafe": 4278,
      "strict": 4279,
      "Ã¼ÄŁÃ¼nÃ¼": 4280,
      "ĠThank": 4281,
      "Ġdoktor": 4282,
      "ĠteÅŁekkÃ¼rler": 4283,
      "Class": 4284,
      "Gr": 4285,
      "width": 4286,
      "Ġ/": 4287,
      "Ġfive": 4288,
      "otocol": 4289,
      "ĠalÄ±n": 4290,
      "Ġnews": 4291,
      "ĠkatÄ±l": 4292,
      "Ġstandard": 4293,
      "ai": 4294,
      "xE": 4295,
      "Ġnamed": 4296,
      "entry": 4297,
      "ĠEl": 4298,
      "ublic": 4299,
      ".sub": 4300,
      "(node": 4301,
      "Ġbeautiful": 4302,
      "Af": 4303,
      "Size": 4304,
      "Ġsus": 4305,
      "Ġbound": 4306,
      "Ġdied": 4307,
      "unt": 4308,
      "trans": 4309,
      "Ġraised": 4310,
      "ĠdÃ¶nd": 4311,
      "Ġsmall": 4312,
      "cy": 4313,
      "duÄŁ": 4314,
      "gul": 4315,
      "Ġ...Ċ": 4316,
      "Ġmuy": 4317,
      "ali": 4318,
      "Ġstep": 4319,
      "Ġable": 4320,
      "Ġboz": 4321,
      "codecs": 4322,
      "ĠÃ¶zel": 4323,
      "Ġserious": 4324,
      "mun": 4325,
      "Ġdream": 4326,
      "ĠulaÅŁ": 4327,
      "oph": 4328,
      "Ġeden": 4329,
      "Stop": 4330,
      "ĠExtendedContext": 4331,
      "kÄ±": 4332,
      "lin": 4333,
      "mod": 4334,
      "ĠLe": 4335,
      "ĠHT": 4336,
      "Ä±yorlar": 4337,
      "ĠyaptÄ±": 4338,
      "Ġzar": 4339,
      "Ġanymore": 4340,
      "DoÄŁru": 4341,
      "Ġrepresent": 4342,
      "Ġbehind": 4343,
      "ĠACUTE": 4344,
      ".P": 4345,
      "Mar": 4346,
      "zen": 4347,
      "elib": 4348,
      "Ġitems": 4349,
      "Ġconc": 4350,
      ".con": 4351,
      "Incremental": 4352,
      "ĠÄ°n": 4353,
      "Ġcreated": 4354,
      "Ġtemiz": 4355,
      "Ġberaber": 4356,
      "Lo": 4357,
      "diniz": 4358,
      "vis": 4359,
      "Ġaile": 4360,
      "Ġmag": 4361,
      "edim": 4362,
      "Ġ'<": 4363,
      "Ġlink": 4364,
      "ĠIm": 4365,
      "Ġwhether": 4366,
      "Ġparse": 4367,
      "Ġ['": 4368,
      "Ġhandler": 4369,
      "ĠWhy": 4370,
      ".se": 4371,
      "Yak": 4372,
      "elcome": 4373,
      "Ġcut": 4374,
      "ĠAP": 4375,
      "Ġdolar": 4376,
      "Ġtaken": 4377,
      "diÄŁin": 4378,
      "Ġcouple": 4379,
      ".gr": 4380,
      "IF": 4381,
      "ĠÃ¼l": 4382,
      "Ġyoung": 4383,
      "Ġ'-": 4384,
      "Ġclasses": 4385,
      "Ġmonths": 4386,
      "ĠNotImplemented": 4387,
      "OD": 4388,
      "ĠÃĸ": 4389,
      "Ġfree": 4390,
      "ladÄ±n": 4391,
      "Ġafraid": 4392,
      "Ġhalf": 4393,
      "Reader": 4394,
      "(input": 4395,
      "lant": 4396,
      "mar": 4397,
      "Ġot": 4398,
      "Ġkoc": 4399,
      "ief": 4400,
      "tens": 4401,
      "Ġbrought": 4402,
      "His": 4403,
      "like": 4404,
      "ĠfÄ±r": 4405,
      "etwork": 4406,
      "imple": 4407,
      "ittest": 4408,
      "Ġpresent": 4409,
      "oktor": 4410,
      "Ġforget": 4411,
      ".par": 4412,
      "cii": 4413,
      "_dirs": 4414,
      "Ġeasy": 4415,
      "_P": 4416,
      "friend": 4417,
      "lÄ±y": 4418,
      "Ġtes": 4419,
      "Ġmed": 4420,
      "Ġgame": 4421,
      "ĠSING": 4422,
      "last": 4423,
      "Ġistey": 4424,
      "aid": 4425,
      "Ġtown": 4426,
      "Ġbirbir": 4427,
      "abÄ±": 4428,
      "iyoruz": 4429,
      "Ġshoot": 4430,
      "ĠRFC": 4431,
      "Ġtrouble": 4432,
      "ĠWhen": 4433,
      "erry": 4434,
      "Ġses": 4435,
      "Ġclean": 4436,
      "Ġdecode": 4437,
      "Ġeff": 4438,
      "Info": 4439,
      "Ġkeyword": 4440,
      "ĠyanlÄ±ÅŁ": 4441,
      "Exception": 4442,
      "Ġdestroy": 4443,
      "ĠSINGLE": 4444,
      "GÃ¼n": 4445,
      "Nothing": 4446,
      "down": 4447,
      "Ġtable": 4448,
      "Ġmine": 4449,
      "Ġmess": 4450,
      "Ġlim": 4451,
      "ĠonlarÄ±n": 4452,
      "Ġoutside": 4453,
      ".py": 4454,
      "upport": 4455,
      "Onlar": 4456,
      "Ġkeys": 4457,
      "ĠQU": 4458,
      "Ġbuilt": 4459,
      "_value": 4460,
      "liÄŁi": 4461,
      "Ġurl": 4462,
      "Ġkok": 4463,
      "Ġris": 4464,
      "ĠÃ§ar": 4465,
      "Ġdefinit": 4466,
      "(other": 4467,
      "-s": 4468,
      ".root": 4469,
      "Buna": 4470,
      "face": 4471,
      "ĠHE": 4472,
      "ibility": 4473,
      "Ġexample": 4474,
      "ĠWill": 4475,
      "ĠJust": 4476,
      "ML": 4477,
      "xb": 4478,
      "err": 4479,
      "ena": 4480,
      "Ġdu": 4481,
      "Ġmill": 4482,
      "Ġpop": 4483,
      "Ġcharacters": 4484,
      "Harika": 4485,
      "Ġinteger": 4486,
      "ĠÃ§aÄŁÄ±r": 4487,
      "'ye": 4488,
      "Ġaut": 4489,
      "alog": 4490,
      "amÄ±z": 4491,
      "ived": 4492,
      "Ġquite": 4493,
      "Orada": 4494,
      "ĠfarklÄ±": 4495,
      "Ġanswer": 4496,
      "_B": 4497,
      "Ġ.Ċ": 4498,
      "Ġtouch": 4499,
      "Ġmily": 4500,
      "Ġshut": 4501,
      "ĠdeÄŁilsin": 4502,
      "Ġetme": 4503,
      "apper": 4504,
      "Ġoffice": 4505,
      "meliyim": 4506,
      "tributes": 4507,
      "_names": 4508,
      "Ġparameter": 4509,
      "Ġchanges": 4510,
      "lÄ±ÄŁ": 4511,
      "ational": 4512,
      "update": 4513,
      "stract": 4514,
      "Ä±nÄ±zÄ±": 4515,
      "Ġkolay": 4516,
      "Ġfikir": 4517,
      "ĠolmadÄ±ÄŁÄ±nÄ±": 4518,
      "II": 4519,
      "br": 4520,
      "miss": 4521,
      "sign": 4522,
      "lem": 4523,
      "Ġround": 4524,
      "Ġseem": 4525,
      "ĠbaÅŁar": 4526,
      ".pack": 4527,
      "_lib": 4528,
      "ĠyÃ¼zÃ¼nden": 4529,
      "Ġinitial": 4530,
      "Ġah": 4531,
      "Ġfel": 4532,
      "ĠSeni": 4533,
      "ĠÃ§Ã¶z": 4534,
      "iff": 4535,
      "Ġcalls": 4536,
      "Ġlength": 4537,
      "================": 4538,
      "Ġnefret": 4539,
      "\":": 4540,
      "PA": 4541,
      "fect": 4542,
      "isc": 4543,
      "ume": 4544,
      "ently": 4545,
      "ĠPh": 4546,
      "Ġettim": 4547,
      "next": 4548,
      "manÄ±n": 4549,
      "ency": 4550,
      "amazsÄ±n": 4551,
      "NE": 4552,
      "TH": 4553,
      "gers": 4554,
      "enn": 4555,
      "Ġprof": 4556,
      "Ġolursa": 4557,
      "ÃľÃ§": 4558,
      "Res": 4559,
      "etime": 4560,
      "Ġanne": 4561,
      "Ġsex": 4562,
      "Ġextens": 4563,
      "ĠyaptÄ±m": 4564,
      "Ġbitch": 4565,
      "anÄ±t": 4566,
      "aat": 4567,
      "tk": 4568,
      "Ġbuffer": 4569,
      "Ġcomes": 4570,
      "Ġraw": 4571,
      "'yi": 4572,
      "IX": 4573,
      "_str": 4574,
      "lus": 4575,
      "aydÄ±n": 4576,
      "ĠBak": 4577,
      "istan": 4578,
      "ĠYork": 4579,
      "(msg": 4580,
      "Ġmoment": 4581,
      "OF": 4582,
      "TeÅŁekkÃ¼r": 4583,
      "Ġcur": 4584,
      "ites": 4585,
      "ĠDav": 4586,
      "ilecek": 4587,
      "Ä±lmaz": 4588,
      "Ġencode": 4589,
      "uyu": 4590,
      "ĠiliÅŁ": 4591,
      "mamÄ±ÅŁ": 4592,
      "_options": 4593,
      "Ġskip": 4594,
      ";Ċ": 4595,
      "CUM": 4596,
      "Emin": 4597,
      "{}": 4598,
      "alib": 4599,
      "uluk": 4600,
      "Ġaren": 4601,
      "ontent": 4602,
      "Ġavailable": 4603,
      "ĠIPv": 4604,
      "80": 4605,
      "Kah": 4606,
      "gative": 4607,
      "rol": 4608,
      "sol": 4609,
      "van": 4610,
      "reen": 4611,
      "reet": 4612,
      "tax": 4613,
      "Ġnumar": 4614,
      "param": 4615,
      "extens": 4616,
      "Ġfront": 4617,
      "ĠFrank": 4618,
      "XX": 4619,
      "kli": 4620,
      "Ġdiv": 4621,
      "Ġcustom": 4622,
      "ĠNote": 4623,
      "Ġrecord": 4624,
      "'u": 4625,
      "Will": 4626,
      "],Ċ": 4627,
      "ping": 4628,
      "vice": 4629,
      "erg": 4630,
      "Ġhed": 4631,
      "abuk": 4632,
      "Ġherh": 4633,
      "ĠKar": 4634,
      "print": 4635,
      "Ġgider": 4636,
      "ools": 4637,
      "tiÄŁini": 4638,
      "CH": 4639,
      "col": 4640,
      "larÄ±nda": 4641,
      "Ann": 4642,
      "ĠBenim": 4643,
      "Ġcla": 4644,
      "ĠĠĠĠĠĠĠĠĠĠĠĠĠĠĠĠĠĠĠĠĠ": 4645,
      "Ġnear": 4646,
      "dist": 4647,
      "ĠMc": 4648,
      "ĠTr": 4649,
      "anger": 4650,
      "ressed": 4651,
      "yntax": 4652,
      "ookie": 4653,
      "_par": 4654,
      "Ġsecret": 4655,
      "ĠÃ¶zÃ¼r": 4656,
      "-M": 4657,
      "Key": 4658,
      "Say": 4659,
      "Tam": 4660,
      "cÃ¼": 4661,
      "lelib": 4662,
      "uation": 4663,
      "Ġpi": 4664,
      "Ġpap": 4665,
      "Ġbirini": 4666,
      "idence": 4667,
      "ĠMerhaba": 4668,
      "iyon": 4669,
      "Ġsepar": 4670,
      "Ġalive": 4671,
      "ĠkaldÄ±r": 4672,
      "manÄ±": 4673,
      "melisin": 4674,
      "bytes": 4675,
      "Qu": 4676,
      "Ġbre": 4677,
      "Ġ'_": 4678,
      "abc": 4679,
      "ifier": 4680,
      "ĠyaptÄ±n": 4681,
      "medin": 4682,
      "Ġdictionary": 4683,
      "Ok": 4684,
      "bel": 4685,
      "baÅŁ": 4686,
      "call": 4687,
      "Ġmal": 4688,
      "Ġgod": 4689,
      "Ġcnf": 4690,
      "ĠBel": 4691,
      "Ġshort": 4692,
      "ĠGo": 4693,
      "portError": 4694,
      "larÄ±ndan": 4695,
      "ĠaÅŁk": 4696,
      "Ġbahsed": 4697,
      "Ġcountry": 4698,
      "Ġattack": 4699,
      "AME": 4700,
      "27": 4701,
      "UP": 4702,
      "bil": 4703,
      "Ġbomb": 4704,
      "secon": 4705,
      "Ġheav": 4706,
      "Ġgoes": 4707,
      "Ġoraya": 4708,
      "headers": 4709,
      "'yÄ±": 4710,
      "Set": 4711,
      "gar": 4712,
      "oj": 4713,
      "Ġbenden": 4714,
      "adÄ±k": 4715,
      "aph": 4716,
      "ĠBar": 4717,
      "Ġolsa": 4718,
      "iyat": 4719,
      "elli": 4720,
      "ĠyaptÄ±k": 4721,
      "_time": 4722,
      "Ġayak": 4723,
      "Ġexpect": 4724,
      "arlie": 4725,
      "Ġplatform": 4726,
      "_class": 4727,
      "how": 4728,
      "udi": 4729,
      "Ġdile": 4730,
      "ĠDist": 4731,
      "Ä±lÄ±r": 4732,
      "gest": 4733,
      "Ġconv": 4734,
      "Ġedebilir": 4735,
      "lice": 4736,
      "alarÄ±nÄ±": 4737,
      "ĠistediÄŁim": 4738,
      "Ġbecome": 4739,
      "26": 4740,
      "tuple": 4741,
      "rem": 4742,
      "umb": 4743,
      "Ġche": 4744,
      "Ã¼kem": 4745,
      "LEX": 4746,
      "Ġfunctions": 4747,
      "_line": 4748,
      "wards": 4749,
      "ref": 4750,
      "eters": 4751,
      "Ġinc": 4752,
      "Ġwhatever": 4753,
      "Ġalmost": 4754,
      "ards": 4755,
      "Ġtimeout": 4756,
      "Ġgidip": 4757,
      "Ġassign": 4758,
      "ARE": 4759,
      "\\x": 4760,
      "Ġip": 4761,
      "irket": 4762,
      "lerinden": 4763,
      "ĠEd": 4764,
      "Ġteam": 4765,
      "upid": 4766,
      "Ġstrings": 4767,
      "Ġmember": 4768,
      "Ġchanged": 4769,
      "Ġindic": 4770,
      "'\\": 4771,
      "Ak": 4772,
      "KÃ¶": 4773,
      "_g": 4774,
      "kip": 4775,
      "lak": 4776,
      "Ġ&": 4777,
      "Ġsun": 4778,
      "asÄ±nÄ±n": 4779,
      "aced": 4780,
      "Ġ(Ċ": 4781,
      "Ä±lÄ±k": 4782,
      "Ġjoin": 4783,
      "ĠYOU": 4784,
      "Ġcalling": 4785,
      "Ġfavor": 4786,
      "'la": 4787,
      "Am": 4788,
      "ĠÃĸyle": 4789,
      "iltin": 4790,
      "Ä±ndaki": 4791,
      "Ġinfo": 4792,
      "ĠSe": 4793,
      "ĠBe": 4794,
      "verse": 4795,
      "ĠNeden": 4796,
      "Ġevlen": 4797,
      "abiliriz": 4798,
      "Herkes": 4799,
      "Ac": 4800,
      "Sc": 4801,
      "Ġsick": 4802,
      "urum": 4803,
      "oder": 4804,
      "Ġleg": 4805,
      "Ġkalk": 4806,
      "ails": 4807,
      "ancel": 4808,
      "eceÄŁini": 4809,
      "Ġoperation": 4810,
      "Ġtried": 4811,
      "Ġair": 4812,
      "Ġyiy": 4813,
      "Ġgez": 4814,
      "Ġcop": 4815,
      "ascii": 4816,
      "Excuse": 4817,
      "Ġpromise": 4818,
      "Ã¼kemmel": 4819,
      "Le": 4820,
      "bit": 4821,
      "Ġtabii": 4822,
      "Ġbeb": 4823,
      "Ark": 4824,
      "Ġcover": 4825,
      "Ġwomen": 4826,
      "pen": 4827,
      "Ġdialog": 4828,
      "Ġnor": 4829,
      "Ġbegin": 4830,
      "Ġtelling": 4831,
      "Ġhareket": 4832,
      "Ġboyunca": 4833,
      "Ġdocument": 4834,
      "Ġsimple": 4835,
      "AyrÄ±ca": 4836,
      "Demek": 4837,
      "dÃ¼n": 4838,
      "frame": 4839,
      "ris": 4840,
      "Ġahead": 4841,
      "ĠkÄ±": 4842,
      "iling": 4843,
      "Ġondan": 4844,
      "Ġdoctor": 4845,
      "andÄ±": 4846,
      "Ġsomebody": 4847,
      "kinter": 4848,
      "Ġwords": 4849,
      "ĠReturns": 4850,
      "\"),Ċ": 4851,
      "(*": 4852,
      "+--------------------------------": 4853,
      ".ch": 4854,
      "Would": 4855,
      "_th": 4856,
      "rey": 4857,
      "Ġkas": 4858,
      "imize": 4859,
      "iktir": 4860,
      "ĠalÄ±r": 4861,
      "ĠbaÅŁk": 4862,
      "ĠÃ§Ä±ktÄ±": 4863,
      "retsin": 4864,
      "Ġappe": 4865,
      "parse": 4866,
      "PekÃ¢lÃ¢": 4867,
      "Ġmarried": 4868,
      "ĠgenÃ§": 4869,
      "Ġkonusunda": 4870,
      "(text": 4871,
      "you": 4872,
      "oto": 4873,
      "ows": 4874,
      "ĠSer": 4875,
      "Ä±yordu": 4876,
      "Ġoldum": 4877,
      "anged": 4878,
      "lÄ±sÄ±n": 4879,
      "Ġdurdur": 4880,
      "queue": 4881,
      "''Ċ": 4882,
      "``": 4883,
      "Ġsister": 4884,
      "Ġmist": 4885,
      "ĠhÃ¼k": 4886,
      "Ġgem": 4887,
      "These": 4888,
      "ĠHadi": 4889,
      "Ã¼mÃ¼z": 4890,
      "('-": 4891,
      "Ġprec": 4892,
      "Ġcolumn": 4893,
      "ĠAttributeError": 4894,
      "Fr": 4895,
      "_or": 4896,
      "lor": 4897,
      "enÃ¼z": 4898,
      "ecess": 4899,
      "ĠAre": 4900,
      "ĠEm": 4901,
      "ĠendiÅŁ": 4902,
      "itting": 4903,
      "_call": 4904,
      "_code": 4905,
      "Ġgidelim": 4906,
      "Ã¼ÄŁÃ¼": 4907,
      "Ġeverybody": 4908,
      "Ġmutlu": 4909,
      "BÃ¼yÃ¼k": 4910,
      "FLEX": 4911,
      "Ġbra": 4912,
      "ural": 4913,
      "htem": 4914,
      "direct": 4915,
      "ĠDIA": 4916,
      "ĠPro": 4917,
      "ĠdeÄŁer": 4918,
      "ĠRabb": 4919,
      "ERESIS": 4920,
      "IRCUM": 4921,
      "ĠDIAERESIS": 4922,
      "IRCUMFLEX": 4923,
      "madÄ±ÄŁ": 4924,
      "part": 4925,
      "ements": 4926,
      "ĠSon": 4927,
      "ocus": 4928,
      "ĠÄ°ÅŁ": 4929,
      "indows": 4930,
      "ĠtatlÄ±m": 4931,
      "Ġinclud": 4932,
      "-S": 4933,
      "ĠsÄ±": 4934,
      "Ġbaba": 4935,
      "Ġcatch": 4936,
      "icro": 4937,
      "ĠCIRCUMFLEX": 4938,
      "Ġalmak": 4939,
      "derr": 4940,
      "Ġotherwise": 4941,
      "values": 4942,
      "ĠaldÄ±m": 4943,
      ".T": 4944,
      "pro": 4945,
      "uce": 4946,
      "Ġhate": 4947,
      "ilmiÅŁ": 4948,
      "Ġpush": 4949,
      "ĠTest": 4950,
      "Ġknown": 4951,
      "Ġspace": 4952,
      "sanÄ±z": 4953,
      "ached": 4954,
      "Ġgitmek": 4955,
      "meliyiz": 4956,
      "Ġimplementation": 4957,
      "Ġcookie": 4958,
      "-f": 4959,
      ".en": 4960,
      "FF": 4961,
      "_version": 4962,
      "aint": 4963,
      "split": 4964,
      "Ġyas": 4965,
      "Ġhap": 4966,
      "Ġsefer": 4967,
      "ffed": 4968,
      "Anne": 4969,
      "Ġworks": 4970,
      "Ġtakes": 4971,
      "Ġdrop": 4972,
      "Ġmeeting": 4973,
      "ĠâĢľ": 4974,
      ")[": 4975,
      "_text": 4976,
      "Ġ,": 4977,
      "Ġtav": 4978,
      "rest": 4979,
      "umber": 4980,
      "acÄ±": 4981,
      "ikle": 4982,
      "lerinde": 4983,
      "ĠTO": 4984,
      "Ġclosed": 4985,
      "ĠolduÄŁumu": 4986,
      "ĠÃ¶ldÃ¼": 4987,
      "Ġgirls": 4988,
      "ĠazÄ±ndan": 4989,
      "Ġnereden": 4990,
      "Ġearth": 4991,
      "Ġhuman": 4992,
      "AB": 4993,
      "Dinle": 4994,
      "_IN": 4995,
      "Ġcmd": 4996,
      "Ġfood": 4997,
      "isine": 4998,
      "Ġrepr": 4999,
      "Ġdog": 5000,
      "room": 5001,
      "ĠÅŁeye": 5002,
      "Ġparents": 5003,
      "_cache": 5004,
      "length": 5005,
      "Ġscript": 5006,
      "Ġexpected": 5007,
      "Ġhalde": 5008,
      "malÄ±yÄ±z": 5009,
      "By": 5010,
      "YardÄ±m": 5011,
      "_read": 5012,
      "ae": 5013,
      "fak": 5014,
      "lÄ±ÄŁÄ±": 5015,
      "nun": 5016,
      "ox": 5017,
      "Ġpict": 5018,
      "Ġans": 5019,
      "die": 5020,
      "ĠarasÄ±nda": 5021,
      "Ġship": 5022,
      "Ġattributes": 5023,
      "Ġenum": 5024,
      "Does": 5025,
      "Ġtakip": 5026,
      "ĠkonuÅŁmak": 5027,
      "keys": 5028,
      "ĠyÃ¶n": 5029,
      "Ġinterest": 5030,
      ")):Ċ": 5031,
      "Fakat": 5032,
      "kez": 5033,
      "Ġtree": 5034,
      "anny": 5035,
      "Ġmach": 5036,
      "Ġmultip": 5037,
      "Ġflags": 5038,
      "Ã§i": 5039,
      "ĠSor": 5040,
      "output": 5041,
      "ĠMichael": 5042,
      "ĠÅŁeyin": 5043,
      "ives": 5044,
      "mÄ±ÅŁtÄ±m": 5045,
      "Seninle": 5046,
      "Ġcolor": 5047,
      "Ġcomplet": 5048,
      "Ad": 5049,
      "Geri": 5050,
      "Ġloop": 5051,
      "Ġchunk": 5052,
      "_command": 5053,
      "Bizim": 5054,
      "Writer": 5055,
      "types": 5056,
      "Ġmilyon": 5057,
      "33": 5058,
      "cause": 5059,
      "kÃ¼n": 5060,
      "Ġburn": 5061,
      "Ã§Ä±": 5062,
      "ĠbeÅŁ": 5063,
      "lerinin": 5064,
      "ĠÅŁÃ¼ph": 5065,
      "Ġsonr": 5066,
      "lamÄ±ÅŁ": 5067,
      "memiz": 5068,
      "prec": 5069,
      "raceback": 5070,
      "Ġcevap": 5071,
      "Call": 5072,
      "Fuck": 5073,
      "Ã§e": 5074,
      "__,": 5075,
      "ĠiÃ§eri": 5076,
      "inder": 5077,
      "classmethod": 5078,
      "ully": 5079,
      "Ġliving": 5080,
      "Ġdamn": 5081,
      "EL": 5082,
      "Sev": 5083,
      "pek": 5084,
      "Ġtim": 5085,
      "Ġbat": 5086,
      "ense": 5087,
      "Ġpur": 5088,
      "Ġ'/": 5089,
      "vest": 5090,
      "Ġyapacak": 5091,
      "Ġlearn": 5092,
      "Ġyoktu": 5093,
      "ĠadamÄ±": 5094,
      "Ġletter": 5095,
      "Ġhayal": 5096,
      "Ġkapat": 5097,
      "ĠsÃ¶yler": 5098,
      "Decoder": 5099,
      "htemelen": 5100,
      "60": 5101,
      "IAL": 5102,
      "pose": 5103,
      "itive": 5104,
      "Ġrece": 5105,
      "Ġseems": 5106,
      "prefix": 5107,
      "]:Ċ": 5108,
      "_T": 5109,
      "Ġsix": 5110,
      "Ġhor": 5111,
      "itor": 5112,
      "emey": 5113,
      "---": 5114,
      "ĠĠĠĠĠĠĠĠĠĠĠĠĠĠĠĠĠĠĠĠĠĠĠĠ": 5115,
      "Ġstud": 5116,
      "ĠDOWN": 5117,
      "Ä±ÅŁÄ±k": 5118,
      "rozen": 5119,
      "Ġverdi": 5120,
      "Ġolmayacak": 5121,
      "Åŀey": 5122,
      "Ġoffic": 5123,
      "Ġgerekir": 5124,
      "control": 5125,
      "ccess": 5126,
      "ĠayrÄ±l": 5127,
      "Ġdrive": 5128,
      "Hak": 5129,
      "inter": 5130,
      "Ġbind": 5131,
      "Ġland": 5132,
      "Ġlineno": 5133,
      "ĠNow": 5134,
      "Ġalong": 5135,
      "'nun": 5136,
      "_data": 5137,
      "Ġsubclass": 5138,
      "Ġbekliyor": 5139,
      "kwargs": 5140,
      "Help": 5141,
      "fort": 5142,
      "mÃ¼yor": 5143,
      "rim": 5144,
      "ĠMom": 5145,
      "iÄŁin": 5146,
      "leÅŁtir": 5147,
      "Ġconnection": 5148,
      "Ġilgilen": 5149,
      "'.Ċ": 5150,
      "Dev": 5151,
      "with": 5152,
      "ĠÄ±s": 5153,
      "esinde": 5154,
      "entle": 5155,
      "ibi": 5156,
      "ardÄ±": 5157,
      "arken": 5158,
      "Ġglobal": 5159,
      "cle": 5160,
      "Ġrather": 5161,
      "ession": 5162,
      "ĠsÃ¶yledim": 5163,
      "OnlarÄ±": 5164,
      "_to": 5165,
      "ĠpeÅŁ": 5166,
      "Ġbitir": 5167,
      "(a": 5168,
      "Hemen": 5169,
      "just": 5170,
      "ĠsÄ±n": 5171,
      "rev": 5172,
      "Ġpost": 5173,
      "Ġanlay": 5174,
      "ĠHay": 5175,
      "Ġyours": 5176,
      "ĠsÃ¶ylemek": 5177,
      "BurasÄ±": 5178,
      "ĠyanÄ±nda": 5179,
      "ceÄŁiz": 5180,
      "ĠsÃ¼rÃ¼": 5181,
      "awn": 5182,
      "bb": 5183,
      "ply": 5184,
      "Ġsenden": 5185,
      "oud": 5186,
      "adÄ±r": 5187,
      "Ġ''Ċ": 5188,
      "Ġannem": 5189,
      "otoÄŁ": 5190,
      "Ġran": 5191,
      "Ġrule": 5192,
      "odes": 5193,
      "ĠĠĠĠĠĠĠĠĠĠĠĠĠĠĠĠĠĠĠĠĠĠĠĠĠĠ": 5194,
      "Ġstupid": 5195,
      "ĠÅŁark": 5196,
      "ĠaslÄ±nda": 5197,
      "ĠyapacaÄŁÄ±m": 5198,
      "Ä°k": 5199,
      "ĠtanÄ±m": 5200,
      "Ã¼ÄŁÃ¼n": 5201,
      "Conf": 5202,
      "Ġvalid": 5203,
      "Ġperfect": 5204,
      "-c": 5205,
      "Yine": 5206,
      "lif": 5207,
      "elete": 5208,
      "Ġcin": 5209,
      "enter": 5210,
      "ĠBeni": 5211,
      "ĠBana": 5212,
      "ĠRob": 5213,
      "Ġbox": 5214,
      "Ġsoru": 5215,
      "ĠÃ§alÄ±ÅŁÄ±yorum": 5216,
      "ĠyaÅŁam": 5217,
      "Babam": 5218,
      "Ġsweet": 5219,
      "Uz": 5220,
      "ename": 5221,
      "Ġindir": 5222,
      "Ä±mÄ±n": 5223,
      "ĠSelam": 5224,
      "Ġols": 5225,
      "Ġstick": 5226,
      "iÄŁim": 5227,
      "Ä±mÄ±za": 5228,
      "ĠÃ§ocuÄŁ": 5229,
      "ompiler": 5230,
      "Ä°lk": 5231,
      "\"?Ċ": 5232,
      "(?": 5233,
      "bat": 5234,
      "nown": 5235,
      "enny": 5236,
      "Ġred": 5237,
      "ĠDad": 5238,
      "ends": 5239,
      "Ġherif": 5240,
      "Ġlose": 5241,
      "Ġconvert": 5242,
      "ukarÄ±": 5243,
      "Ġanyway": 5244,
      "ĠbaÅŁÄ±na": 5245,
      ".compile": 5246,
      "builtin": 5247,
      "Ġyolu": 5248,
      "Ġprotect": 5249,
      "ĠOnu": 5250,
      "Ġnamespace": 5251,
      "ĠTHE": 5252,
      "HoÅŁ": 5253,
      "eff": 5254,
      "hash": 5255,
      "Ã©": 5256,
      "Ġsist": 5257,
      "urity": 5258,
      "Ġlanet": 5259,
      "ester": 5260,
      "ĠYour": 5261,
      "Ġgrand": 5262,
      "Ġnumbers": 5263,
      "Ġapart": 5264,
      "ĠdÃ¼ÅŁÃ¼nÃ¼yorsun": 5265,
      ".startswith": 5266,
      ".D": 5267,
      "Ġait": 5268,
      "oul": 5269,
      "Ġfre": 5270,
      "iding": 5271,
      "ĠMiss": 5272,
      "ĠGeorge": 5273,
      "ĠzamanÄ±": 5274,
      "return": 5275,
      "eredeyse": 5276,
      "Ġblack": 5277,
      "ypes": 5278,
      "mesine": 5279,
      "Thanks": 5280,
      "Ġlives": 5281,
      "ĠHTTP": 5282,
      "otoÄŁraf": 5283,
      "BÄ±rak": 5284,
      "_get": 5285,
      "ĠhÃ¢lÃ¢": 5286,
      "eyin": 5287,
      "ĠAv": 5288,
      "thers": 5289,
      "Ġsuff": 5290,
      "ĠiÅŁin": 5291,
      "meyeceÄŁim": 5292,
      "Ġ{'": 5293,
      "Ġmerak": 5294,
      "Ġ``": 5295,
      "ĠÃ¶ÄŁret": 5296,
      "Bar": 5297,
      "Ġcreat": 5298,
      "Ġwithin": 5299,
      "Ä±yorsunuz": 5300,
      "Ġyapmam": 5301,
      "Ġsense": 5302,
      "_table": 5303,
      "Ġcallback": 5304,
      "aliba": 5305,
      "(os": 5306,
      ".un": 5307,
      ".end": 5308,
      "Ġmot": 5309,
      "Ġglad": 5310,
      "Ġpeki": 5311,
      "Ġlabel": 5312,
      "closed": 5313,
      "Ġclos": 5314,
      "ĠJim": 5315,
      "(src": 5316,
      "Encoder": 5317,
      "Ġdinner": 5318,
      "Ġkonuda": 5319,
      ".insert": 5320,
      "://": 5321,
      "Def": 5322,
      "Es": 5323,
      "GÃ¼": 5324,
      "Se": 5325,
      "ha": 5326,
      "low": 5327,
      "tun": 5328,
      "vas": 5329,
      "ones": 5330,
      "Ġinsp": 5331,
      "ĠÅŁeyleri": 5332,
      "addy": 5333,
      "Ġbekley": 5334,
      "ĠÃ¼zerine": 5335,
      "Add": 5336,
      "Em": 5337,
      "aur": 5338,
      "diler": 5339,
      "miyorsun": 5340,
      "sÃ¼n": 5341,
      "illa": 5342,
      "Ġlab": 5343,
      "andan": 5344,
      "ĠHiÃ§": 5345,
      "ardon": 5346,
      "ildren": 5347,
      "Ġshouldn": 5348,
      "Ġsurpr": 5349,
      "Ġselect": 5350,
      "Jack": 5351,
      "pect": 5352,
      "Ġwidth": 5353,
      "Ġnecess": 5354,
      "omething": 5355,
      "iyorlar": 5356,
      "dialog": 5357,
      "azen": 5358,
      "ĠPeki": 5359,
      "Ġelement": 5360,
      "Ġleaving": 5361,
      "Ġparts": 5362,
      "_dict": 5363,
      "ĠdÃ¼ÅŁÃ¼nÃ¼yorum": 5364,
      "âĢĻs": 5365,
      "Ġtehlik": 5366,
      "90": 5367,
      "Kork": 5368,
      "base": 5369,
      "sana": 5370,
      "alent": 5371,
      "Ġolun": 5372,
      "Ġhepsi": 5373,
      "ĠRight": 5374,
      "Ġteach": 5375,
      "ilerin": 5376,
      "oved": 5377,
      "uhaf": 5378,
      "\"):Ċ": 5379,
      "(C": 5380,
      "Id": 5381,
      "Our": 5382,
      "ODE": 5383,
      "Ġut": 5384,
      "Ġtre": 5385,
      "Ġmac": 5386,
      "Ä±nday": 5387,
      "Ġliter": 5388,
      "Ġrap": 5389,
      "ĠbaÅŁlay": 5390,
      "irecek": 5391,
      "ording": 5392,
      "eneral": 5393,
      "Ġlonger": 5394,
      "ehen": 5395,
      "Ġlibrary": 5396,
      "GÃ¶z": 5397,
      "Up": 5398,
      "_un": 5399,
      "Ġsuc": 5400,
      "Ġbilg": 5401,
      "Annem": 5402,
      "Ġfunny": 5403,
      "Ġduring": 5404,
      "Ġhappens": 5405,
      "Ġsaniye": 5406,
      "Ġhikay": 5407,
      "65": 5408,
      "_new": 5409,
      "_address": 5410,
      "yal": 5411,
      "Ġtw": 5412,
      "Ġball": 5413,
      "Ġpain": 5414,
      "Ġinf": 5415,
      "acy": 5416,
      "ikler": 5417,
      "raise": 5418,
      "Ġupon": 5419,
      "Ġuygun": 5420,
      "Ġfeeling": 5421,
      "_keys": 5422,
      "ĠaltÄ±nda": 5423,
      "45": 5424,
      "Case": 5425,
      "bt": 5426,
      "msg": 5427,
      "ĠÃĩÃ¼nkÃ¼": 5428,
      "Ġpy": 5429,
      "aclass": 5430,
      "Ġiss": 5431,
      "ĠAm": 5432,
      "ĠdoÄŁr": 5433,
      "ĠHis": 5434,
      "raight": 5435,
      "Ġhimself": 5436,
      "Ġkims": 5437,
      "ancÄ±": 5438,
      "Ġbunlar": 5439,
      "Ġoptional": 5440,
      "Bunlar": 5441,
      "'le": 5442,
      ".B": 5443,
      "Ay": 5444,
      "Gid": 5445,
      "dis": 5446,
      "vate": 5447,
      "Ġmiyiz": 5448,
      "Ġhop": 5449,
      "Ġcity": 5450,
      "Ġcez": 5451,
      "Ġ\"%": 5452,
      "ĠCom": 5453,
      "ĠMart": 5454,
      "ATOR": 5455,
      "Ġpark": 5456,
      "memi": 5457,
      "_loc": 5458,
      "Ġexpression": 5459,
      "menin": 5460,
      "Ġzorunday": 5461,
      "install": 5462,
      "vars": 5463,
      "Ġancak": 5464,
      "ĠĠĠĠĠĠĠĠĠĠĠĠĠĠĠĠĠĠĠĠĠĠĠĠĠĠĠĠĠĠĠĠĠĠ": 5465,
      "ĠkaldÄ±": 5466,
      "loat": 5467,
      "meyin": 5468,
      "ehennem": 5469,
      "Wow": 5470,
      "fa": 5471,
      "elle": 5472,
      "Ġfp": 5473,
      "ĠLook": 5474,
      "vern": 5475,
      "Ġcommon": 5476,
      "Ġprod": 5477,
      "itted": 5478,
      "Ġstrong": 5479,
      "except": 5480,
      "ebr": 5481,
      "ĠacÄ±": 5482,
      "efore": 5483,
      "imizin": 5484,
      "ĠyardÄ±mcÄ±": 5485,
      "Ġoyun": 5486,
      "28": 5487,
      "Bekle": 5488,
      "KaÃ§": 5489,
      "ba": 5490,
      "gle": 5491,
      "match": 5492,
      "widget": 5493,
      "eniz": 5494,
      "Ġcool": 5495,
      "aptain": 5496,
      "Ä±ÄŁÄ±nda": 5497,
      "_filename": 5498,
      "itional": 5499,
      "ĠÃ§ekil": 5500,
      "erhaps": 5501,
      "Ġmesaj": 5502,
      "local": 5503,
      "ĠhÄ±zlÄ±": 5504,
      "platform": 5505,
      "KEY": 5506,
      "EM": 5507,
      "From": 5508,
      "Hat": 5509,
      "Uy": 5510,
      "Yeni": 5511,
      "tip": 5512,
      "Ġothers": 5513,
      "Ġciddi": 5514,
      "imden": 5515,
      "ĠgelmiÅŁ": 5516,
      "afe": 5517,
      "eceksin": 5518,
      "Ġperform": 5519,
      "Sizi": 5520,
      "plicit": 5521,
      "ĠoldukÃ§a": 5522,
      "AY": 5523,
      "Even": 5524,
      "Yan": 5525,
      "ĠkoÅŁ": 5526,
      "izing": 5527,
      "Which": 5528,
      "Ġbutton": 5529,
      "ĠgÃ¶rÃ¼yor": 5530,
      ".find": 5531,
      "Ġcompany": 5532,
      "Ġspecific": 5533,
      "Ġmodules": 5534,
      "Ġokul": 5535,
      "Ġbundan": 5536,
      "Elbette": 5537,
      "Ġwarnings": 5538,
      "ĠImportError": 5539,
      ")*": 5540,
      ".M": 5541,
      "48": 5542,
      "Lanet": 5543,
      "enry": 5544,
      "Ġfast": 5545,
      "esus": 5546,
      "ĠID": 5547,
      "Ġdear": 5548,
      "ĠÃ¶r": 5549,
      "ĠEv": 5550,
      "Ġvarsa": 5551,
      "###": 5552,
      "mÄ±ÅŁtÄ±": 5553,
      "ators": 5554,
      "escript": 5555,
      "Ġeminim": 5556,
      "Car": 5557,
      "TanrÄ±": 5558,
      "lendir": 5559,
      "wd": 5560,
      "Ġten": 5561,
      "Ġtri": 5562,
      "ĠmÃ¼z": 5563,
      "Ġcry": 5564,
      "urry": 5565,
      "decode": 5566,
      "Ġequ": 5567,
      "ican": 5568,
      "Ġhair": 5569,
      "ĠMan": 5570,
      "ĠbuluÅŁ": 5571,
      "Ġ{}": 5572,
      "Ġvisit": 5573,
      "De": 5574,
      "_arg": 5575,
      "strip": 5576,
      "ett": 5577,
      "ĠBiz": 5578,
      "ĠÅŁirket": 5579,
      "ĠdeÄŁildir": 5580,
      "ĠJul": 5581,
      "ogn": 5582,
      "ĠarkadaÅŁÄ±m": 5583,
      "STR": 5584,
      "Ġweeks": 5585,
      "Ġzarar": 5586,
      ".UTF": 5587,
      "EG": 5588,
      "Ġpis": 5589,
      "Ġpublic": 5590,
      "akes": 5591,
      "ĠÃ¶de": 5592,
      "Ġolmayan": 5593,
      "Ġfear": 5594,
      "ĠdÃ¶nÃ¼ÅŁ": 5595,
      "kinci": 5596,
      "ĠhoÅŁlan": 5597,
      "01": 5598,
      "fd": 5599,
      "ially": 5600,
      "Ġsound": 5601,
      "elect": 5602,
      "leConf": 5603,
      "Ġlie": 5604,
      "Ġones": 5605,
      "emin": 5606,
      "Ġsorum": 5607,
      "Ġquot": 5608,
      "options": 5609,
      "ĠISO": 5610,
      "Ġtraceback": 5611,
      "Doc": 5612,
      "find": 5613,
      "ĠkanÄ±t": 5614,
      "ĠAd": 5615,
      "ĠBl": 5616,
      "ĠMer": 5617,
      "ĠHi": 5618,
      "Ġgeldim": 5619,
      "ighlight": 5620,
      ".module": 5621,
      "Ġkurtul": 5622,
      "Bize": 5623,
      "Got": 5624,
      "YÃ¼z": 5625,
      "iers": 5626,
      "ĠÃ¼n": 5627,
      "Ġsey": 5628,
      "Ġdah": 5629,
      "Ã¼f": 5630,
      "Ġscared": 5631,
      "Ġbabam": 5632,
      "Ġidlelib": 5633,
      "Ġdistutils": 5634,
      "Ġinclude": 5635,
      "!r": 5636,
      "ILE": 5637,
      "Kal": 5638,
      "Mer": 5639,
      "tuÄŁ": 5640,
      "Ġbank": 5641,
      "Ġdersin": 5642,
      "Ã¼ld": 5643,
      "Ġinvest": 5644,
      "api": 5645,
      "onest": 5646,
      "Ġaram": 5647,
      "Ġboys": 5648,
      "_bytes": 5649,
      "AÃ§": 5650,
      "Sure": 5651,
      "Ġlady": 5652,
      "tÄ±ÄŁÄ±nÄ±": 5653,
      "Ġistedim": 5654,
      "Ġfinish": 5655,
      "ĠXXX": 5656,
      "(line": 5657,
      "Put": 5658,
      "SaÄŁ": 5659,
      "cmd": 5660,
      "nection": 5661,
      "xe": 5662,
      "Ġbal": 5663,
      "Ġbitti": 5664,
      "Ġdans": 5665,
      "Ġdeter": 5666,
      "Ġfoot": 5667,
      "ĠÃ§Ã¶": 5668,
      "ĠĠĠĠĠĠĠĠĠĠĠĠĠĠĠĠĠĠĠĠĠĠĠĠĠ": 5669,
      "ands": 5670,
      "chor": 5671,
      "ĠaraÅŁtÄ±r": 5672,
      "Ġorgan": 5673,
      "ĠPol": 5674,
      "essiz": 5675,
      "Ġsold": 5676,
      ".pop": 5677,
      "Ġhash": 5678,
      "ORT": 5679,
      "_map": 5680,
      "Ġworth": 5681,
      "masÄ±na": 5682,
      "Ġterr": 5683,
      "Ġbuldum": 5684,
      "ĠdÃ¼ÅŁÃ¼ndÃ¼m": 5685,
      ".update": 5686,
      "AÅŁ": 5687,
      "SÄ±r": 5688,
      "dÃ¼m": 5689,
      "eople": 5690,
      "meler": 5691,
      "now": 5692,
      "rel": 5693,
      "za": 5694,
      "Ġcell": 5695,
      "Ġfont": 5696,
      "itness": 5697,
      "Ġlar": 5698,
      "ĠSana": 5699,
      "ĠStr": 5700,
      "ĠDoc": 5701,
      "Ġsuccess": 5702,
      "Ġeval": 5703,
      "Ġbyte": 5704,
      "ĠadamÄ±n": 5705,
      "Ġadded": 5706,
      "Ġtamamen": 5707,
      "abileceÄŁim": 5708,
      "Ġdokun": 5709,
      "Ġ\\Ċ": 5710,
      "Neler": 5711,
      "malar": 5712,
      "Ä±sÄ±n": 5713,
      "Ġthrow": 5714,
      "ism": 5715,
      "Ġgovern": 5716,
      "Ġzero": 5717,
      "ources": 5718,
      "Ġtrack": 5719,
      "Ãĸl": 5720,
      "olly": 5721,
      "ĠÃ¶ldÃ¼re": 5722,
      "abilecek": 5723,
      "_context": 5724,
      "Ġthanks": 5725,
      ".value": 5726,
      "Kesinlikle": 5727,
      "Var": 5728,
      "Ġfill": 5729,
      "Ġ'''": 5730,
      "Ġlow": 5731,
      "ĠolduÄŁuna": 5732,
      "Ġamong": 5733,
      "Ġkendimi": 5734,
      "199": 5735,
      "landÄ±r": 5736,
      "Ġ::": 5737,
      "Everything": 5738,
      "_run": 5739,
      "malÄ±sÄ±n": 5740,
      "Ġignore": 5741,
      "ospital": 5742,
      ")\"": 5743,
      ".org": 5744,
      "AND": 5745,
      "Keep": 5746,
      "YarÄ±n": 5747,
      "ced": 5748,
      "uch": 5749,
      "Ġsum": 5750,
      "Ġke": 5751,
      "Ġ',": 5752,
      "div": 5753,
      "iley": 5754,
      "istry": 5755,
      "ĠetmiÅŁ": 5756,
      "ĠbaÅŁladÄ±": 5757,
      "Ġdefaults": 5758,
      "_handler": 5759,
      "Onunla": 5760,
      "ĠKeyError": 5761,
      "+\\": 5762,
      "DÃ¼ÅŁ": 5763,
      "John": 5764,
      "_event": 5765,
      "ky": 5766,
      "kar": 5767,
      "sys": 5768,
      "irler": 5769,
      "ĠkÄ±y": 5770,
      "Ġkesinlikle": 5771,
      "Ġbirth": 5772,
      "Ġvict": 5773,
      "emi": 5774,
      "ĠBob": 5775,
      "ĠCol": 5776,
      "ĠMin": 5777,
      "Ã¼mÃ¼": 5778,
      "Ã¼mkÃ¼n": 5779,
      "Ġcomput": 5780,
      "Ġanybody": 5781,
      "ĠChar": 5782,
      "ORD": 5783,
      "Ġpolit": 5784,
      "Ġfigure": 5785,
      "-P": 5786,
      "Hold": 5787,
      "Kendi": 5788,
      "rat": 5789,
      "Ġbast": 5790,
      "enÃ§": 5791,
      "Ġyold": 5792,
      "Those": 5793,
      "Ġitself": 5794,
      "ices": 5795,
      "ĠDid": 5796,
      "ros": 5797,
      "ĠRes": 5798,
      "IND": 5799,
      "uke": 5800,
      "Ġclient": 5801,
      "ebil": 5802,
      "Ġturned": 5803,
      "Ġortaya": 5804,
      "Ġ::=": 5805,
      "[\"": 5806,
      "yl": 5807,
      "Ġur": 5808,
      "inize": 5809,
      "Ġsap": 5810,
      "Ġyum": 5811,
      "Ġmap": 5812,
      "Ġlang": 5813,
      "ĠSadece": 5814,
      "__.__": 5815,
      "ender": 5816,
      "ndan": 5817,
      "(file": 5818,
      "(filename": 5819,
      "Ġcompat": 5820,
      "Ġquick": 5821,
      "Ġmemory": 5822,
      "Ġkorum": 5823,
      "ĠyÃ¶net": 5824,
      "ĠiliÅŁk": 5825,
      "Tel": 5826,
      "Ġbes": 5827,
      "irim": 5828,
      "outine": 5829,
      "Ġprison": 5830,
      ".pr": 5831,
      "Ġteklif": 5832,
      "ĠMrs": 5833,
      "Ġreplace": 5834,
      "CKET": 5835,
      "ĠDistutils": 5836,
      "ĠhÃ¼kÃ¼m": 5837,
      ".ext": 5838,
      "NS": 5839,
      "field": 5840,
      "go": 5841,
      "ram": 5842,
      "ĠÅŀimdi": 5843,
      "Ġdal": 5844,
      "ilter": 5845,
      "ĠolacaÄŁÄ±m": 5846,
      "html": 5847,
      "Ġistersen": 5848,
      "ĠbaÅŁl": 5849,
      "Ġkalb": 5850,
      "Ġbelir": 5851,
      "Ġcharset": 5852,
      "Ġtrain": 5853,
      "Ġentire": 5854,
      "mayacak": 5855,
      "UmarÄ±m": 5856,
      "(key": 5857,
      ".items": 5858,
      "36": 5859,
      "NA": 5860,
      "Vay": 5861,
      "YaÅŁ": 5862,
      "Ġdst": 5863,
      "ilar": 5864,
      "ĠĠĠĠĠĠĠĠĠĠĠĠĠĠĠĠĠĠĠĠĠĠĠĠĠĠĠĠ": 5865,
      "Ġstraight": 5866,
      "ĠGRA": 5867,
      "ĠyapmÄ±ÅŁ": 5868,
      "Ġjud": 5869,
      "Ġabove": 5870,
      "uya": 5871,
      "Only": 5872,
      "Benimle": 5873,
      "Ġmutl": 5874,
      "Ġfullname": 5875,
      "Ġzamanda": 5876,
      "Ġoriginal": 5877,
      "fg": 5878,
      "mitted": 5879,
      "xa": 5880,
      "Ġq": 5881,
      "Ġsorm": 5882,
      "Ġflag": 5883,
      "eta": 5884,
      "Ġnone": 5885,
      "Ġpress": 5886,
      "Ġarada": 5887,
      "Ġcond": 5888,
      "Ġevents": 5889,
      "_prefix": 5890,
      "Ġexplain": 5891,
      "ĠQu": 5892,
      "rupt": 5893,
      "ULT": 5894,
      "Ġhoney": 5895,
      "KonuÅŁ": 5896,
      "ĠÃ§evir": 5897,
      "Ġmillion": 5898,
      "Affed": 5899,
      "Baba": 5900,
      "Ġsek": 5901,
      "Ġyal": 5902,
      "ildi": 5903,
      "esine": 5904,
      "Ġpot": 5905,
      "ĠAh": 5906,
      "ĠolacaÄŁÄ±nÄ±": 5907,
      "ĠNasÄ±l": 5908,
      "Ġenviron": 5909,
      "ĠsÃ¶ylemiÅŁ": 5910,
      "_source": 5911,
      "Ġsett": 5912,
      "ajor": 5913,
      "Ġdurumda": 5914,
      "Ġgarip": 5915,
      "Nereye": 5916,
      "Mom": 5917,
      "Warning": 5918,
      "_op": 5919,
      "auth": 5920,
      "tÃ¼m": 5921,
      "eren": 5922,
      "Ġfakat": 5923,
      "itable": 5924,
      "Ġple": 5925,
      "Ä±ntÄ±": 5926,
      "abs": 5927,
      "Ä±rsÄ±z": 5928,
      "indim": 5929,
      "ĠKap": 5930,
      "Ġgelip": 5931,
      "Ġsonunda": 5932,
      "ĠdÃ¶v": 5933,
      "Ġduydum": 5934,
      "EST": 5935,
      "039": 5936,
      "ĠgÃ¶rdÃ¼n": 5937,
      "Ġinsert": 5938,
      "Ġcorrect": 5939,
      "After": 5940,
      "ĠGRAVE": 5941,
      "Cl": 5942,
      "_D": 5943,
      "bur": 5944,
      "gen": 5945,
      "Ġgentle": 5946,
      "aly": 5947,
      "ÄŁi": 5948,
      "lardÄ±": 5949,
      "ĠSet": 5950,
      "ĠÃ§en": 5951,
      "Ġarch": 5952,
      "ĠPek": 5953,
      "Ġunless": 5954,
      "ceÄŁini": 5955,
      "OTATION": 5956,
      "expected": 5957,
      "ĠyÃ¼ksek": 5958,
      "Ġyeniden": 5959,
      "'S": 5960,
      "Aman": 5961,
      "Could": 5962,
      "Me": 5963,
      "Sir": 5964,
      "ULL": 5965,
      "case": 5966,
      "oes": 5967,
      "uction": 5968,
      "Ġbayan": 5969,
      "Ġfell": 5970,
      "ĠfotoÄŁraf": 5971,
      "asure": 5972,
      "larÄ±mÄ±z": 5973,
      "Ġren": 5974,
      "ĠÃ§iz": 5975,
      "ĠDep": 5976,
      "osh": 5977,
      "ava": 5978,
      "ATED": 5979,
      "_sh": 5980,
      "diÄŁinde": 5981,
      "Ġcompiler": 5982,
      "nemli": 5983,
      "olean": 5984,
      "Ġremove": 5985,
      "ĠoÄŁlum": 5986,
      "-p": 5987,
      "</": 5988,
      "_int": 5989,
      "joy": 5990,
      "Ġdanger": 5991,
      "Ġma": 5992,
      "amadÄ±m": 5993,
      "Ġnok": 5994,
      "inger": 5995,
      "dec": 5996,
      "Ġbirisi": 5997,
      "ĠBo": 5998,
      "Ġhaft": 5999,
      "Ġgeldin": 6000,
      "indeki": 6001,
      "larÄ±nÄ±z": 6002,
      "ĠsanmÄ±yorum": 6003,
      "ĠsanÄ±yordum": 6004,
      "parent": 6005,
      "Run": 6006,
      "Widget": 6007,
      "bed": 6008,
      "copy": 6009,
      "kil": 6010,
      "Ġdomain": 6011,
      "Ġio": 6012,
      "Ġfault": 6013,
      "Ġ'''Ċ": 6014,
      "Ġdeep": 6015,
      "Ġemail": 6016,
      "Ġruh": 6017,
      "ĠMike": 6018,
      "ĠHim": 6019,
      "ective": 6020,
      "rav": 6021,
      "Ä±lacak": 6022,
      "Ġetmeye": 6023,
      "Hepsi": 6024,
      "attrib": 6025,
      "HTTP": 6026,
      "Bizi": 6027,
      "Ġmahk": 6028,
      ":]Ċ": 6029,
      "Man": 6030,
      "lish": 6031,
      "sing": 6032,
      "Ġhab": 6033,
      "Ġtheme": 6034,
      "asÄ±ndan": 6035,
      "ĠCl": 6036,
      "ĠDev": 6037,
      "ĠMac": 6038,
      "ĠRa": 6039,
      "Ġverdim": 6040,
      "Ġsoy": 6041,
      "Onlara": 6042,
      "ebile": 6043,
      "ĠCharlie": 6044,
      "ceksin": 6045,
      "Ġavoid": 6046,
      "ĠyaptÄ±ÄŁÄ±nÄ±": 6047,
      ".lower": 6048,
      "CTION": 6049,
      ".char": 6050,
      "38": 6051,
      "mal": 6052,
      "Ġaction": 6053,
      "Ġwed": 6054,
      "Ġkov": 6055,
      "omat": 6056,
      "Ġequal": 6057,
      "Ġforce": 6058,
      "ĠBab": 6059,
      "Ġolamaz": 6060,
      "lying": 6061,
      "Ġara": 6062,
      "azÄ±r": 6063,
      "Ġziy": 6064,
      "ĠRay": 6065,
      "duce": 6066,
      "Ġpartic": 6067,
      "Ä±sÄ±nÄ±": 6068,
      ",\\": 6069,
      "Com": 6070,
      "_RE": 6071,
      "bs": 6072,
      "Ġdark": 6073,
      "Ġhes": 6074,
      "ilah": 6075,
      "ayla": 6076,
      "Ġmeant": 6077,
      "ĠTk": 6078,
      "allow": 6079,
      "Ġvermek": 6080,
      "ĠiÅŁler": 6081,
      "Ġ*Ċ": 6082,
      "Ġasking": 6083,
      "Ãľst": 6084,
      "Ġmembers": 6085,
      "Ġsaved": 6086,
      "ĠdÃ¼zen": 6087,
      "Server": 6088,
      "VER": 6089,
      "erve": 6090,
      "Ġdik": 6091,
      "ĠyÄ±k": 6092,
      "Ġhospital": 6093,
      "ille": 6094,
      "lardÄ±r": 6095,
      "ĠSim": 6096,
      "ĠTHA": 6097,
      "Ġevde": 6098,
      "Ġevlat": 6099,
      "inizin": 6100,
      "loader": 6101,
      "ĠÃ¼zere": 6102,
      "ĠAngel": 6103,
      "Ġcoff": 6104,
      "Kimse": 6105,
      "Ġchoice": 6106,
      "Ġkitap": 6107,
      "AH": 6108,
      "oad": 6109,
      "yer": 6110,
      "Ġtitle": 6111,
      "Ġsig": 6112,
      "ora": 6113,
      "Ġgaz": 6114,
      "Ġcaught": 6115,
      "ization": 6116,
      "emp": 6117,
      "ĠAg": 6118,
      "Ġseeing": 6119,
      "_base": 6120,
      "Ġgiving": 6121,
      "ĠdÄ±ÅŁÄ±nda": 6122,
      "EXT": 6123,
      "ĠÃ¼y": 6124,
      "Ġtz": 6125,
      "Ġsell": 6126,
      "Ġpen": 6127,
      "Ġpull": 6128,
      "omin": 6129,
      "ceed": 6130,
      "Ġep": 6131,
      "ĠSH": 6132,
      "ĠBRA": 6133,
      "Ġali": 6134,
      "ĠGel": 6135,
      "ĠadÄ±m": 6136,
      "Ġolmadan": 6137,
      "active": 6138,
      "cale": 6139,
      "tÄ±ÄŁÄ±": 6140,
      "Ġnereye": 6141,
      "asks": 6142,
      "Ġbuilding": 6143,
      "_decode": 6144,
      "PACE": 6145,
      "Ġextension": 6146,
      "Ġcinayet": 6147,
      "!\"Ċ": 6148,
      "gie": 6149,
      "ric": 6150,
      "Ġtkinter": 6151,
      "Ġpad": 6152,
      "ĠDay": 6153,
      "001": 6154,
      "Ä±ÅŁÄ±": 6155,
      "ĠGÃ¼n": 6156,
      "ĠPaul": 6157,
      "aste": 6158,
      "ilerini": 6159,
      "Ġ*,": 6160,
      "ĠÃ§Ä±kart": 6161,
      "Ġquiet": 6162,
      "Ġsignal": 6163,
      "ddy": 6164,
      "ĠihtiyacÄ±": 6165,
      "Ġallowed": 6166,
      "Ä°Ã§eri": 6167,
      "ĠgÃ¼Ã§lÃ¼": 6168,
      "Ġmachine": 6169,
      "Ste": 6170,
      "iant": 6171,
      "tuk": 6172,
      "Ġcache": 6173,
      "Ġvide": 6174,
      "Ġru": 6175,
      "ĠAdam": 6176,
      "__',": 6177,
      "...?Ċ": 6178,
      "ĠOl": 6179,
      "Ġadv": 6180,
      "therwise": 6181,
      "ĠbakÄ±n": 6182,
      "ĠdÃ¶rt": 6183,
      "Ġyolunda": 6184,
      "ĠStop": 6185,
      "Ġtoplant": 6186,
      "ribution": 6187,
      ".e": 6188,
      "Old": 6189,
      "SS": 6190,
      "Sub": 6191,
      "command": 6192,
      "names": 6193,
      "xc": 6194,
      "onent": 6195,
      "Ġkick": 6196,
      "Ġfalse": 6197,
      "ĠRom": 6198,
      "().Ċ": 6199,
      "ĠJo": 6200,
      "ĠJoe": 6201,
      "New": 6202,
      "ayÄ±t": 6203,
      "Ġharc": 6204,
      "Ġterk": 6205,
      "'])Ċ": 6206,
      "iddle": 6207,
      "Ġbebek": 6208,
      "Ġkept": 6209,
      "ĠBRACKET": 6210,
      "AÄŁ": 6211,
      "dev": 6212,
      "emiz": 6213,
      "ĠÃ§ift": 6214,
      "ileÅŁ": 6215,
      "ĠTanrÄ±": 6216,
      "indent": 6217,
      "Ġexit": 6218,
      "ĠPat": 6219,
      "ips": 6220,
      "Ġyoktur": 6221,
      "exit": 6222,
      "_frame": 6223,
      "AnlaÅŁ": 6224,
      "Invalid": 6225,
      "Ġoverride": 6226,
      "Ġgidiyorum": 6227,
      "Ġakl": 6228,
      "Ġdiff": 6229,
      "Ġplaying": 6230,
      "Ġdakik": 6231,
      "Ġfloat": 6232,
      "Ġhttp": 6233,
      "Mu": 6234,
      "xd": 6235,
      "Ġbag": 6236,
      "enek": 6237,
      "Ġdil": 6238,
      "Ġhalk": 6239,
      "ald": 6240,
      "Ġcirc": 6241,
      "Ġkart": 6242,
      "Ġkiss": 6243,
      "uts": 6244,
      "apon": 6245,
      "Ġrid": 6246,
      "oloj": 6247,
      "ĠgeliÅŁ": 6248,
      "Ġverin": 6249,
      "Ġveriyorum": 6250,
      "efendi": 6251,
      "Ġrespons": 6252,
      "Ġseconds": 6253,
      "ounter": 6254,
      "Ġfields": 6255,
      "viously": 6256,
      "Ġsebeb": 6257,
      "ĠDavid": 6258,
      "Ġherhangi": 6259,
      "(codecs": 6260,
      "Act": 6261,
      "BI": 6262,
      "Str": 6263,
      "Two": 6264,
      "uf": 6265,
      "ĠdÃ¼zel": 6266,
      "Ġfd": 6267,
      "amet": 6268,
      "ĠĠĠĠĠĠĠĠĠĠĠĠĠĠĠĠĠĠĠĠĠĠĠĠĠĠĠĠĠĠ": 6269,
      "ĠMay": 6270,
      "Ġweird": 6271,
      "Ġsomewhere": 6272,
      "Ġtests": 6273,
      "Ġcommands": 6274,
      "Ġdifference": 6275,
      "response": 6276,
      "ĠuÄŁraÅŁ": 6277,
      "amera": 6278,
      "malÄ±yÄ±m": 6279,
      ".modules": 6280,
      ".,": 6281,
      ".id": 6282,
      ".errors": 6283,
      "Ell": 6284,
      "Hala": 6285,
      "aN": 6286,
      "co": 6287,
      "Ġeye": 6288,
      "Ġmention": 6289,
      "Ġmapping": 6290,
      "Ġhide": 6291,
      "Ġcause": 6292,
      "Ġintern": 6293,
      "Ġisim": 6294,
      "Ġbebe": 6295,
      "Ġwhose": 6296,
      "Ġolup": 6297,
      "ĠÅŁiÅŁ": 6298,
      "ĠDaha": 6299,
      "opri": 6300,
      "oci": 6301,
      "ĠWith": 6302,
      "Ġ[\"": 6303,
      "Ġistemiyor": 6304,
      "raries": 6305,
      "Biliyorum": 6306,
      ".bind": 6307,
      "ĠgÃ¶rÃ¼ÅŁÃ¼rÃ¼z": 6308,
      "Ġindent": 6309,
      "finity": 6310,
      "Ġsymbol": 6311,
      "Ġforgot": 6312,
      ")))Ċ": 6313,
      "-B": 6314,
      "Dikkat": 6315,
      "_on": 6316,
      "Ġsrc": 6317,
      "Ġbok": 6318,
      "Ġdiyorsun": 6319,
      "Ġdouble": 6320,
      "Ġhom": 6321,
      "unÃ§": 6322,
      "Ä±rÄ±": 6323,
      "ĠMary": 6324,
      "ĠiÃ§ine": 6325,
      "Ġyapma": 6326,
      "geÃ§": 6327,
      "Ġdair": 6328,
      "Ġetraf": 6329,
      "('<": 6330,
      "ffered": 6331,
      "Ġsaf": 6332,
      "Ġcallable": 6333,
      "0001": 6334,
      "Ġmemnun": 6335,
      "number": 6336,
      "Ġmoving": 6337,
      "Ġquestions": 6338,
      "Ġbreath": 6339,
      "-m": 6340,
      ".A": 6341,
      "KÃ¼Ã§Ã¼k": 6342,
      "Ä±c": 6343,
      "Ä±ll": 6344,
      "Ġtur": 6345,
      "Ġtreat": 6346,
      "orth": 6347,
      "Ġcold": 6348,
      "empt": 6349,
      "Ġrob": 6350,
      "Ġstar": 6351,
      "__.": 6352,
      "002": 6353,
      "aÄŁÄ±n": 6354,
      "Ġloader": 6355,
      "Ġcontains": 6356,
      "Ġediyorsun": 6357,
      "ĠYap": 6358,
      "Ġoffer": 6359,
      "layacak": 6360,
      "Ġworked": 6361,
      "ĠayÄ±r": 6362,
      "Ġseviyor": 6363,
      "Ġolurdu": 6364,
      "ĠkÃ¶pek": 6365,
      "ĠaldÄ±": 6366,
      ".warn": 6367,
      "Ġearly": 6368,
      "mission": 6369,
      "Ġnecessary": 6370,
      "AynÄ±": 6371,
      "Dam": 6372,
      "Down": 6373,
      "Great": 6374,
      "eel": 6375,
      "zip": 6376,
      "ĠMe": 6377,
      "ĠTV": 6378,
      "Ġbuf": 6379,
      "ĠPer": 6380,
      "ĠOf": 6381,
      "ĠEur": 6382,
      "ĠEND": 6383,
      "Ġcommun": 6384,
      "ÃĩÄ±k": 6385,
      "ilerine": 6386,
      "_lines": 6387,
      "addr": 6388,
      "Ġsanki": 6389,
      "Ġizle": 6390,
      "Ġroad": 6391,
      "Ġlocale": 6392,
      "Ġrespect": 6393,
      ".replace": 6394,
      "augh": 6395,
      ".debug": 6396,
      "Ġbuiltin": 6397,
      "Ġkayn": 6398,
      "ĠQUOTATION": 6399,
      "ĠbebeÄŁim": 6400,
      ".open": 6401,
      "31": 6402,
      "35": 6403,
      "Ey": 6404,
      "Nice": 6405,
      "_wr": 6406,
      "arah": 6407,
      "Ġih": 6408,
      "Ġrelease": 6409,
      "ĠHere": 6410,
      "ĠiÃ§er": 6411,
      "plist": 6412,
      "plied": 6413,
      "_pos": 6414,
      "Ġcompile": 6415,
      "mayacaÄŁÄ±m": 6416,
      "Ä°nan": 6417,
      "Ġbinary": 6418,
      "Ġmerkez": 6419,
      "Ġhissediyorum": 6420,
      "DiÄŁer": 6421,
      "_en": 6422,
      "zing": 6423,
      "ino": 6424,
      "inda": 6425,
      "arget": 6426,
      "Ġpun": 6427,
      "Ġview": 6428,
      "ĠAdd": 6429,
      "ĠCodec": 6430,
      "Ġweak": 6431,
      "ĠONE": 6432,
      "clude": 6433,
      "ĠolmadÄ±": 6434,
      "ormat": 6435,
      "Ġpray": 6436,
      "eful": 6437,
      "Ġreading": 6438,
      "Ġstarting": 6439,
      "Ġkendine": 6440,
      "ebilirim": 6441,
      "Ġcomplete": 6442,
      "=[": 6443,
      "Az": 6444,
      "glob": 6445,
      "inn": 6446,
      "ĠyaÄŁ": 6447,
      "Ã§ok": 6448,
      "istory": 6449,
      "rog": 6450,
      "INT": 6451,
      "buf": 6452,
      "Ġtanr": 6453,
      "Ġkidding": 6454,
      "Ġcontent": 6455,
      "Ġcontents": 6456,
      "Ġpickle": 6457,
      "Ġtotal": 6458,
      "ArkadaÅŁ": 6459,
      "Hem": 6460,
      "run": 6461,
      "Ä±t": 6462,
      "Ġsplit": 6463,
      "Ġmouth": 6464,
      "ĠkuÅŁ": 6465,
      "Ġlay": 6466,
      "ĠSiz": 6467,
      "Ġrock": 6468,
      "Ġdolu": 6469,
      "ĠYani": 6470,
      "Ġprop": 6471,
      "arsh": 6472,
      "convert": 6473,
      "Ġsevindim": 6474,
      "initial": 6475,
      "Ġ{Ċ": 6476,
      "Sizin": 6477,
      "(re": 6478,
      ".E": 6479,
      "07": 6480,
      "?\"": 6481,
      "Pat": 6482,
      "Ver": 6483,
      "Was": 6484,
      "_encode": 6485,
      "Ġcross": 6486,
      "adies": 6487,
      "Ġ'(": 6488,
      "Ġincre": 6489,
      "Ġ\"<": 6490,
      "ĠÅŁÃ¶yle": 6491,
      "Ġettik": 6492,
      "quote": 6493,
      "Ġevidence": 6494,
      "ĠgeÃ§en": 6495,
      "ICE": 6496,
      "ĠsakÄ±n": 6497,
      "ĠSenin": 6498,
      "PC": 6499,
      "PAR": 6500,
      "UR": 6501,
      "Very": 6502,
      "_default": 6503,
      "bind": 6504,
      "cript": 6505,
      "Ġidi": 6506,
      "Ġmiy": 6507,
      "ita": 6508,
      "ĠTeÅŁekkÃ¼r": 6509,
      "ĠgÃ¶st": 6510,
      "ĠEng": 6511,
      "Ġconstruct": 6512,
      "ĠsonuÃ§": 6513,
      "Ġdayan": 6514,
      "Ġprev": 6515,
      "ĠÃ§ocuÄŁu": 6516,
      "eleg": 6517,
      "ĠbunlarÄ±": 6518,
      "Ġparameters": 6519,
      "Ġselection": 6520,
      "Ġsupported": 6521,
      "Bundan": 6522,
      "Ġauthor": 6523,
      "ĠTHAI": 6524,
      "Bey": 6525,
      "OVE": 6526,
      "[key": 6527,
      "jan": 6528,
      "ming": 6529,
      "sey": 6530,
      "top": 6531,
      "Ġta": 6532,
      "Ġtill": 6533,
      "ĠhanÄ±m": 6534,
      "Ġfair": 6535,
      "amÄ±ÅŁ": 6536,
      "iller": 6537,
      "Ġord": 6538,
      "ĠGu": 6539,
      "ĠOne": 6540,
      "ĠburasÄ±": 6541,
      "ichard": 6542,
      "ĠgeÃ§miÅŁ": 6543,
      "imizde": 6544,
      "Ġwritten": 6545,
      "ĠinsanlarÄ±n": 6546,
      "option": 6547,
      "Ġfazl": 6548,
      "ĠUnicode": 6549,
      "winapi": 6550,
      "Ġkomik": 6551,
      "Ġattrs": 6552,
      "Kahretsin": 6553,
      "-left": 6554,
      "08": 6555,
      "AC": 6556,
      "Something": 6557,
      "]]": 6558,
      "_extens": 6559,
      "Ġbott": 6560,
      "alth": 6561,
      "Ġca": 6562,
      "eti": 6563,
      "Ġwhom": 6564,
      "http": 6565,
      "ola": 6566,
      "ĠÅŁaÅŁÄ±r": 6567,
      "ĠDÃ¼n": 6568,
      "__\"": 6569,
      "ellikle": 6570,
      "artÄ±ÅŁ": 6571,
      "Ä°st": 6572,
      "Ġenc": 6573,
      "Ġevil": 6574,
      "abled": 6575,
      ".com": 6576,
      "ĠyarÄ±ÅŁ": 6577,
      "madÄ±n": 6578,
      "ĠgÃ¶rdÃ¼ÄŁÃ¼m": 6579,
      "Ġiyiyim": 6580,
      "Ġgovernment": 6581,
      ".encode": 6582,
      "Cause": 6583,
      "Ġsad": 6584,
      "Ġders": 6585,
      "Ġla": 6586,
      "Ġrow": 6587,
      "ĠAlex": 6588,
      "ĠCall": 6589,
      "osing": 6590,
      "ĠvarmÄ±ÅŁ": 6591,
      "ĠgerektiÄŁini": 6592,
      "Child": 6593,
      "EDI": 6594,
      "Ġfollowed": 6595,
      "Ġappro": 6596,
      "################################": 6597,
      "Ġgizli": 6598,
      "IME": 6599,
      "Ġpiece": 6600,
      "Kaf": 6601,
      "May": 6602,
      "cul": 6603,
      "sik": 6604,
      "anlÄ±k": 6605,
      "Ġniye": 6606,
      "esiz": 6607,
      "urur": 6608,
      "Ġufak": 6609,
      "Ã¼nÃ¼n": 6610,
      "Ġseek": 6611,
      "Ġalan": 6612,
      "arts": 6613,
      "Ġloved": 6614,
      "Ġuses": 6615,
      "Ġbence": 6616,
      "Ġmusic": 6617,
      "Ġhappening": 6618,
      "Ġvariables": 6619,
      "Ġrules": 6620,
      "-up": 6621,
      "70": 6622,
      "Over": 6623,
      "cil": 6624,
      "ĠSA": 6625,
      "Ġstore": 6626,
      "ĠMark": 6627,
      "Ġaraba": 6628,
      "azar": 6629,
      "road": 6630,
      "ĠRun": 6631,
      "ansÄ±z": 6632,
      "ively": 6633,
      "Ġkalan": 6634,
      "Sence": 6635,
      "Ġcodec": 6636,
      "Ġasker": 6637,
      "Ġsecurity": 6638,
      "Ġrecogn": 6639,
      "Ġmodel": 6640,
      "Ġbehavi": 6641,
      "LOCK": 6642,
      "emember": 6643,
      "(ex": 6644,
      "CENT": 6645,
      "Efendim": 6646,
      "Node": 6647,
      "_test": 6648,
      "uel": 6649,
      "Ġwitness": 6650,
      "Ġcehennem": 6651,
      "Ġkir": 6652,
      "etimes": 6653,
      "itz": 6654,
      "oking": 6655,
      "Ġexists": 6656,
      "rian": 6657,
      "BirkaÃ§": 6658,
      "Ġstruct": 6659,
      "ileno": 6660,
      "ĠStream": 6661,
      "ĠThen": 6662,
      "abiliyor": 6663,
      "oÄŁu": 6664,
      "_char": 6665,
      "ektif": 6666,
      "Ġescape": 6667,
      "TeÅŁekkÃ¼rler": 6668,
      "belie": 6669,
      "baÅŁÄ±": 6670,
      "Ġmistake": 6671,
      "Oper": 6672,
      "Senden": 6673,
      "bin": 6674,
      "muyor": 6675,
      "rin": 6676,
      "uage": 6677,
      "elta": 6678,
      "Ġkr": 6679,
      "Ġvo": 6680,
      "Ġvaz": 6681,
      "Ġride": 6682,
      "ĠdolaÅŁ": 6683,
      "ĠText": 6684,
      "ibly": 6685,
      "ĠWindows": 6686,
      "ukat": 6687,
      "Ġbilmek": 6688,
      "rowser": 6689,
      "Ġevening": 6690,
      "Ġkorkut": 6691,
      "Ġinterface": 6692,
      "ĠtatlÄ±": 6693,
      "Ġbenziyor": 6694,
      "Ġrisk": 6695,
      "ĠÃ§eneni": 6696,
      "Beb": 6697,
      "[name": 6698,
      "][": 6699,
      "ball": 6700,
      "gy": 6701,
      "pol": 6702,
      "Ġtb": 6703,
      "Ġyeri": 6704,
      "Ġnobody": 6705,
      "izer": 6706,
      "that": 6707,
      "ackage": 6708,
      "ĠPeter": 6709,
      "Ġherk": 6710,
      "Ġconst": 6711,
      "Ġsensin": 6712,
      "Ġ[Ċ": 6713,
      "eÅŁit": 6714,
      "ĠyemeÄŁ": 6715,
      "Biliyor": 6716,
      "Ġhava": 6717,
      "ĠBurada": 6718,
      "Ġmagic": 6719,
      ".max": 6720,
      "56": 6721,
      "Doktor": 6722,
      "Nobody": 6723,
      "gÃ¼r": 6724,
      "try": 6725,
      "ww": 6726,
      "inci": 6727,
      "oney": 6728,
      "Ġdress": 6729,
      "Ġpan": 6730,
      "ecan": 6731,
      "Ġbeg": 6732,
      "ĠHello": 6733,
      "Ġdavet": 6734,
      "Ġunittest": 6735,
      "ĠUN": 6736,
      "ĠboÄŁ": 6737,
      "Ġacross": 6738,
      "ĠadamÄ±m": 6739,
      "meli": 6740,
      "eÅŁke": 6741,
      "attrs": 6742,
      "Ġistedi": 6743,
      "Ġtutuk": 6744,
      "Ġhayatta": 6745,
      "Ġaccount": 6746,
      "ĠaÅŁaÄŁÄ±": 6747,
      "TestCase": 6748,
      "Ġcoffee": 6749,
      "(args": 6750,
      ".in": 6751,
      "luÄŁ": 6752,
      "ĠmÃ¼kemmel": 6753,
      "Ġhonest": 6754,
      "ĠgÃ¼l": 6755,
      "ĠoÄŁ": 6756,
      "amayacak": 6757,
      "Ġeg": 6758,
      "ikan": 6759,
      "ĠAp": 6760,
      "ĠDe": 6761,
      "ĠTON": 6762,
      "ĠalÄ±ÅŁ": 6763,
      "ĠadÄ±": 6764,
      "protocol": 6765,
      "alarda": 6766,
      "Ġfeet": 6767,
      "Ġcourt": 6768,
      "ĠihtiyacÄ±n": 6769,
      "ĠaÄŁÄ±r": 6770,
      "slots": 6771,
      "Ġvictim": 6772,
      ".tag": 6773,
      "88": 6774,
      "fc": 6775,
      "ted": 6776,
      "Ġweren": 6777,
      "etler": 6778,
      "icate": 6779,
      "oly": 6780,
      "anager": 6781,
      "Ġdispatch": 6782,
      "Arab": 6783,
      "Ġdedin": 6784,
      "seniz": 6785,
      "Returns": 6786,
      "Ġrequires": 6787,
      "Ġfelt": 6788,
      ".Get": 6789,
      "Python": 6790,
      "Tak": 6791,
      "_ok": 6792,
      "han": 6793,
      "ham": 6794,
      "Ġsord": 6795,
      "Ã¼b": 6796,
      "Ġkesin": 6797,
      "Ġwhite": 6798,
      "olved": 6799,
      "Ġbusy": 6800,
      "ĠEll": 6801,
      "Ġelb": 6802,
      "appy": 6803,
      "Ġlooked": 6804,
      "Ġpeace": 6805,
      "ĠCheck": 6806,
      "Ġayar": 6807,
      "(frame": 6808,
      "_method": 6809,
      "HAN": 6810,
      "Ġdirectly": 6811,
      "sych": 6812,
      "respond": 6813,
      "Ġmanager": 6814,
      "Polis": 6815,
      "ĠsÄ±cak": 6816,
      "Ġnokt": 6817,
      "Gu": 6818,
      "Tat": 6819,
      "bor": 6820,
      "dy": 6821,
      "ko": 6822,
      "python": 6823,
      "ĠsÄ±nÄ±": 6824,
      "ength": 6825,
      "Ġcent": 6826,
      "imum": 6827,
      "akal": 6828,
      "Ġreach": 6829,
      "ĠSÄ±r": 6830,
      "ĠLou": 6831,
      "laÃ§": 6832,
      "ills": 6833,
      "ĠPlease": 6834,
      "Ġevl": 6835,
      "Ġpract": 6836,
      "maktan": 6837,
      "acaÄŁÄ±": 6838,
      ".co": 6839,
      "ĠÃ¶nÃ¼nde": 6840,
      "meyen": 6841,
      "_fd": 6842,
      "ynen": 6843,
      "Ġsometimes": 6844,
      "tÃ¼re": 6845,
      "ancy": 6846,
      "Ġistemez": 6847,
      "ĠIncremental": 6848,
      ".data": 6849,
      "Ãĸyleyse": 6850,
      "Ġcontaining": 6851,
      "Yoksa": 6852,
      "75": 6853,
      "_encoding": 6854,
      "fp": 6855,
      "pick": 6856,
      "Ġ]": 6857,
      "Ġdance": 6858,
      "else": 6859,
      "ĠyukarÄ±": 6860,
      "irm": 6861,
      "Ġremain": 6862,
      "Ã¼rÃ¼st": 6863,
      "Ġsug": 6864,
      "Ġetmez": 6865,
      "ĠsoÄŁ": 6866,
      "('\\": 6867,
      "Ãĸld": 6868,
      "Ġbelow": 6869,
      "diÄŁiniz": 6870,
      "Ġblow": 6871,
      "ESS": 6872,
      "ĠihtiyacÄ±mÄ±z": 6873,
      "Ġconsider": 6874,
      "ĠkÄ±sm": 6875,
      "IncrementalDecoder": 6876,
      "upported": 6877,
      "IP": 6878,
      "YalnÄ±z": 6879,
      "_buffer": 6880,
      "known": 6881,
      "source": 6882,
      "Ġsqu": 6883,
      "Ġboss": 6884,
      "anÄ±ÅŁ": 6885,
      "imd": 6886,
      "isinin": 6887,
      "Ġring": 6888,
      "ĠÅŁehir": 6889,
      "ĠalÄ±p": 6890,
      "Ġencoded": 6891,
      "ĠgeÃ§ti": 6892,
      ".file": 6893,
      "Ġground": 6894,
      "Ġkimin": 6895,
      "(sys": 6896,
      "ĠThese": 6897,
      "Ġenter": 6898,
      "senin": 6899,
      "ĠAlb": 6900,
      "Ġmoved": 6901,
      "ĠparÃ§asÄ±": 6902,
      "FA": 6903,
      "Parser": 6904,
      "Tab": 6905,
      "_header": 6906,
      "func": 6907,
      "kg": 6908,
      "rak": 6909,
      "Ġbi": 6910,
      "array": 6911,
      "Ġfat": 6912,
      "asa": 6913,
      "urch": 6914,
      "utely": 6915,
      "izmet": 6916,
      "empty": 6917,
      "olf": 6918,
      "ĠCr": 6919,
      "0000": 6920,
      "Ġseven": 6921,
      "Ġsuite": 6922,
      "ALF": 6923,
      "Ġabsol": 6924,
      "Ġett": 6925,
      "ĠkalÄ±r": 6926,
      "Ġstrict": 6927,
      ".send": 6928,
      "ĠtanÄ±": 6929,
      "ĠtakÄ±m": 6930,
      "ĠyarÄ±n": 6931,
      "week": 6932,
      "ĠkÄ±zÄ±": 6933,
      "create": 6934,
      "which": 6935,
      "ĠyaptÄ±ÄŁÄ±": 6936,
      "Ġmesel": 6937,
      "Ġverecek": 6938,
      "Ãĸnce": 6939,
      "Actually": 6940,
      "Dav": 6941,
      "Open": 6942,
      "RO": 6943,
      "_item": 6944,
      "_result": 6945,
      "function": 6946,
      "hell": 6947,
      "Ġtip": 6948,
      "Ġtuhaf": 6949,
      "erved": 6950,
      "ante": 6951,
      "ĠyavaÅŁ": 6952,
      "Ġcost": 6953,
      "Ġlamb": 6954,
      "ummy": 6955,
      "Ġstrip": 6956,
      "ĠMor": 6957,
      "ĠaltÄ±": 6958,
      "ĠmÄ±sÄ±nÄ±z": 6959,
      "tract": 6960,
      "ĠolmasÄ±nÄ±": 6961,
      "ledim": 6962,
      "Ġthemselves": 6963,
      "Ġgidiyorsun": 6964,
      "OUR": 6965,
      "enerate": 6966,
      "ĠistediÄŁini": 6967,
      "diÄŁimiz": 6968,
      "Ġslow": 6969,
      ".environ": 6970,
      "Ġcompletely": 6971,
      "Ġsuffix": 6972,
      "Ġinvestig": 6973,
      ".index": 6974,
      "09": 6975,
      "alet": 6976,
      "ban": 6977,
      "iol": 6978,
      "ware": 6979,
      "Ġage": 6980,
      "Ġbath": 6981,
      "Ġmel": 6982,
      "irl": 6983,
      "Ġkere": 6984,
      "aydÄ±m": 6985,
      "ury": 6986,
      "emy": 6987,
      "Ġ\"-": 6988,
      "ĠalmÄ±ÅŁ": 6989,
      "Ġyapmaya": 6990,
      "quences": 6991,
      "ullname": 6992,
      "ously": 6993,
      "Ġbroken": 6994,
      "dummy": 6995,
      "Ġgrow": 6996,
      "ĠsanÄ±yorsun": 6997,
      "ĠyetiÅŁ": 6998,
      "psini": 6999,
      "Ġstatus": 7000,
      "OLATED": 7001,
      "Ġsurv": 7002,
      "[:-": 7003,
      "_config": 7004,
      "Ġprovide": 7005,
      "ĠISOLATED": 7006,
      "ĠbÃ¶lÃ¼m": 7007,
      "ĠError": 7008,
      "Sakin": 7009,
      "+------------------------------------------------": 7010,
      "Ġpicture": 7011,
      "Ġmultiple": 7012,
      "-t": 7013,
      "::": 7014,
      "EP": 7015,
      "IVE": 7016,
      "Mut": 7017,
      "Niye": 7018,
      "aff": 7019,
      "dated": 7020,
      "ji": 7021,
      "normal": 7022,
      "Ġwake": 7023,
      "ĠAN": 7024,
      "ĠLÃ¼tfen": 7025,
      "ĠClass": 7026,
      "ĠPark": 7027,
      "Ä±lÄ±yor": 7028,
      "Ġimmedi": 7029,
      "irebilir": 7030,
      "ĠiÅŁaret": 7031,
      "cont": 7032,
      "ĠÄ°Ã§": 7033,
      "byte": 7034,
      "ĠeÄŁit": 7035,
      "ĠtaÅŁÄ±n": 7036,
      "Ġfloor": 7037,
      "ĠdolayÄ±": 7038,
      ".parse": 7039,
      ".charmap": 7040,
      "-C": 7041,
      "-R": 7042,
      "Mes": 7043,
      "_offset": 7044,
      "pend": 7045,
      "yd": 7046,
      "yin": 7047,
      "Ġsock": 7048,
      "enu": 7049,
      "Ġwelcome": 7050,
      "Ġkel": 7051,
      "ĠpiÅŁ": 7052,
      "iso": 7053,
      "dex": 7054,
      "section": 7055,
      "ĠBul": 7056,
      "lerimi": 7057,
      "ocal": 7058,
      "ĠTur": 7059,
      "Ä±ÅŁarÄ±": 7060,
      "Ġzen": 7061,
      "resh": 7062,
      "uyum": 7063,
      "ĠUh": 7064,
      "ordin": 7065,
      "Ġapplic": 7066,
      "Ġworried": 7067,
      "notation": 7068,
      "ĠkapÄ±": 7069,
      "ĠhayatÄ±m": 7070,
      "Ġkatil": 7071,
      "aÄŁÄ±t": 7072,
      "ĠrahatsÄ±z": 7073,
      ".group": 7074,
      "esterday": 7075,
      "Ġbirthday": 7076,
      "Ġwedding": 7077,
      "-You": 7078,
      "First": 7079,
      "OÄŁl": 7080,
      "People": 7081,
      "Zaman": 7082,
      "_W": 7083,
      "cu": 7084,
      "dÄ±ÄŁ": 7085,
      "Ġtor": 7086,
      "arlar": 7087,
      "ĠmÃ¼mkÃ¼n": 7088,
      "Ġintr": 7089,
      "idge": 7090,
      "ĠBE": 7091,
      "Ġshare": 7092,
      "Ġexpl": 7093,
      "ĠWil": 7094,
      "Ġbende": 7095,
      "Ġenv": 7096,
      "ĠUse": 7097,
      "Ancak": 7098,
      "Ġexceptions": 7099,
      "Ġwriting": 7100,
      "aniel": 7101,
      "laÅŁtÄ±r": 7102,
      "mene": 7103,
      "Ġindeed": 7104,
      "Ġproblems": 7105,
      "Ġregular": 7106,
      "Ġdescrib": 7107,
      "Ġdetails": 7108,
      "Ġglobals": 7109,
      "Ġlucky": 7110,
      "Ġrapor": 7111,
      "ĠTONOS": 7112,
      "'T": 7113,
      "'am": 7114,
      "Duy": 7115,
      "ded": 7116,
      "tec": 7117,
      "Ġsounds": 7118,
      "arth": 7119,
      "Ġdou": 7120,
      "Ġneyse": 7121,
      "umda": 7122,
      "Ġrepe": 7123,
      "sec": 7124,
      "Ġvir": 7125,
      "Ġbeat": 7126,
      "hteÅŁ": 7127,
      "ĠmeÅŁ": 7128,
      "ĠMad": 7129,
      "Ġshell": 7130,
      "ĠaltÄ±n": 7131,
      "rie": 7132,
      "(side": 7133,
      "Ġassoci": 7134,
      "Ġdeniz": 7135,
      "Ġaccording": 7136,
      "ĠâĢĵ": 7137,
      "Ġfailed": 7138,
      "abileceÄŁini": 7139,
      "Eminim": 7140,
      "precated": 7141,
      "Ġinspect": 7142,
      "hteÅŁem": 7143,
      "Sam": 7144,
      "move": 7145,
      "node": 7146,
      "Ġmir": 7147,
      "Ġmiydi": 7148,
      "lek": 7149,
      "alÄ±ÅŁ": 7150,
      "Ġcases": 7151,
      "Ġpal": 7152,
      "Ġdem": 7153,
      "ĠSch": 7154,
      "ĠLuc": 7155,
      "__)Ċ": 7156,
      "Ġexplicit": 7157,
      "Ġyapan": 7158,
      "ĠyapacaÄŁÄ±z": 7159,
      "ĠEOF": 7160,
      "uyla": 7161,
      "mekten": 7162,
      "edence": 7163,
      "lamaz": 7164,
      "manÄ±z": 7165,
      "Ġfeed": 7166,
      "Ġpolicy": 7167,
      "mask": 7168,
      "what": 7169,
      "Ġmovie": 7170,
      "omplete": 7171,
      "Ġtotally": 7172,
      "Devam": 7173,
      "\"]Ċ": 7174,
      "(get": 7175,
      "Window": 7176,
      "but": 7177,
      "ni": 7178,
      "Ġtas": 7179,
      "Ġsiy": 7180,
      "Ġsyntax": 7181,
      "Ġnet": 7182,
      "eyiz": 7183,
      "ĠĠĠĠĠĠĠĠĠĠĠĠĠĠĠĠĠĠĠĠĠĠĠĠĠĠĠĠĠ": 7184,
      "Ġnegative": 7185,
      "Ġarri": 7186,
      "iÅŁim": 7187,
      "ĠÅŁeyden": 7188,
      "Ġenjoy": 7189,
      "OUND": 7190,
      "Ġbekl": 7191,
      "Check": 7192,
      "Ġinstall": 7193,
      "Ġcookies": 7194,
      "Ġdigits": 7195,
      "_param": 7196,
      "ĠEurope": 7197,
      "(T": 7198,
      ".log": 7199,
      "=',": 7200,
      "BazÄ±": 7201,
      "Kan": 7202,
      "dunuz": 7203,
      "arry": 7204,
      "Ġham": 7205,
      "ĠkayÄ±t": 7206,
      "Ġincremental": 7207,
      "lerdi": 7208,
      "ĠCal": 7209,
      "ĠDEV": 7210,
      "ĠHep": 7211,
      "Ġexec": 7212,
      "ĠyapÄ±yorum": 7213,
      "avall": 7214,
      "ĠolmalÄ±y": 7215,
      "idebar": 7216,
      "ĠUND": 7217,
      "Ġtalked": 7218,
      "Ġhalle": 7219,
      "enerator": 7220,
      "ĠgÃ¼c": 7221,
      "ĠidleConf": 7222,
      "Ġsmell": 7223,
      "Read": 7224,
      "ĠbaÄŁlant": 7225,
      "diÄŁimi": 7226,
      "Ġortak": 7227,
      "frames": 7228,
      "Ġdatetime": 7229,
      "ĠmÄ±ydÄ±": 7230,
      "Ġcertainly": 7231,
      "IncrementalEncoder": 7232,
      "ĠÃ§arp": 7233,
      "Ġpaper": 7234,
      "ĠkÄ±sa": 7235,
      "Dad": 7236,
      "Ha": 7237,
      "Kes": 7238,
      "]\\": 7239,
      "_DE": 7240,
      "rick": 7241,
      "Ġthous": 7242,
      "Ġyoll": 7243,
      "Ġwall": 7244,
      "Ġgay": 7245,
      "ÅŁeyi": 7246,
      "Ġciv": 7247,
      "amÄ±yor": 7248,
      "ĠBy": 7249,
      "Ġstreet": 7250,
      "ĠList": 7251,
      "ĠDur": 7252,
      "ĠDef": 7253,
      "ĠMa": 7254,
      "Ġasync": 7255,
      "ĠgÃ¶tÃ¼re": 7256,
      "Ä°z": 7257,
      "ationship": 7258,
      "ĠYok": 7259,
      "Ġproperty": 7260,
      ".clear": 7261,
      "Ġduruyor": 7262,
      "tÄ±ÄŁÄ±m": 7263,
      "escape": 7264,
      "Ġbiliyoruz": 7265,
      "server": 7266,
      "Ġaccident": 7267,
      "Ġbased": 7268,
      "preter": 7269,
      "StreamReader": 7270,
      "StreamWriter": 7271,
      "second": 7272,
      "86": 7273,
      ">'": 7274,
      "Benden": 7275,
      "Hast": 7276,
      "Remember": 7277,
      "WO": 7278,
      "WORD": 7279,
      "Ġtired": 7280,
      "Ġdry": 7281,
      "reed": 7282,
      "Ġmail": 7283,
      "Ġfn": 7284,
      "Ġnak": 7285,
      "Ġpipe": 7286,
      "Ġpsych": 7287,
      "Ġinher": 7288,
      "Ġinvalid": 7289,
      "Ġrepl": 7290,
      "Ġbirine": 7291,
      "see": 7292,
      "iday": 7293,
      "Ġsteal": 7294,
      "ifest": 7295,
      "ĠKing": 7296,
      "ĠYa": 7297,
      "Ġmuh": 7298,
      "ĠURL": 7299,
      "Button": 7300,
      "layÄ±n": 7301,
      "elerini": 7302,
      "Ġnumer": 7303,
      "Ġmemo": 7304,
      "Shit": 7305,
      "Ġlogger": 7306,
      "script": 7307,
      "Ġsituation": 7308,
      "ĠABOVE": 7309,
      "Ġsebep": 7310,
      "Ġbrain": 7311,
      "Ġcompatibility": 7312,
      "AK": 7313,
      "Otur": 7314,
      "Ra": 7315,
      "SÃ¶z": 7316,
      "_Ċ": 7317,
      "las": 7318,
      "ĠtartÄ±ÅŁ": 7319,
      "Ġdraw": 7320,
      "replace": 7321,
      "lement": 7322,
      "Ġdek": 7323,
      "debug": 7324,
      "ĠBase": 7325,
      "ĠBLOCK": 7326,
      "ĠĠĠĠĠĠĠĠĠĠĠĠĠĠĠĠĠĠĠĠĠĠĠĠĠĠĠĠĠĠĠĠĠĠĠ": 7327,
      "andy": 7328,
      "thread": 7329,
      "Ġshared": 7330,
      "ĠcanÄ±m": 7331,
      "Ġcancel": 7332,
      "ĠkonuÅŁuyor": 7333,
      "mamÄ±": 7334,
      "OUT": 7335,
      "mezsin": 7336,
      "ĠaldÄ±n": 7337,
      "Ġkiller": 7338,
      "Ġcorrespond": 7339,
      "GÃ¶rÃ¼n": 7340,
      "aaaa": 7341,
      "Ġdescriptor": 7342,
      "ĠSEPAR": 7343,
      "Ġteslim": 7344,
      "ĠendiÅŁelen": 7345,
      "ĠSEPARATOR": 7346,
      "(h": 7347,
      "-only": 7348,
      ".'Ċ": 7349,
      ".error": 7350,
      "Ded": 7351,
      "Ġtail": 7352,
      "Ġsem": 7353,
      "Ġbp": 7354,
      "Ġdi": 7355,
      "Ġmey": 7356,
      "Ġhata": 7357,
      "Ġlat": 7358,
      "Ġbirinin": 7359,
      "ikleri": 7360,
      "ĠÃ§abuk": 7361,
      "dia": 7362,
      "ĠÃ¶p": 7363,
      "Ġalacak": 7364,
      "Ġoradan": 7365,
      "indir": 7366,
      "ĠEX": 7367,
      "Ġlov": 7368,
      "Ġhasn": 7369,
      "Never": 7370,
      "_sample": 7371,
      "ĠyaÅŁÄ±nda": 7372,
      "Ġcompar": 7373,
      "Ġbreakpoint": 7374,
      "Ġdecided": 7375,
      "ĠbaÄŁlÄ±": 7376,
      "Ġtransport": 7377,
      "Ġhighlight": 7378,
      "Ġfixed": 7379,
      "attle": 7380,
      "Ġvakit": 7381,
      "links": 7382,
      "Ġexisting": 7383,
      "omplet": 7384,
      "Ġbeginning": 7385,
      "(str": 7386,
      "-d": 7387,
      ".F": 7388,
      ".wr": 7389,
      ".format": 7390,
      "44": 7391,
      "BU": 7392,
      "HazÄ±r": 7393,
      "Ph": 7394,
      "hole": 7395,
      "mac": 7396,
      "rup": 7397,
      "uge": 7398,
      "well": 7399,
      "Ġsoul": 7400,
      "Ġyed": 7401,
      "Ġhel": 7402,
      "sep": 7403,
      "icle": 7404,
      "ĠÃ§eÅŁit": 7405,
      "ĠMax": 7406,
      "ĠOur": 7407,
      "Ä±lgÄ±n": 7408,
      "Ġengel": 7409,
      "Ġtep": 7410,
      "ĠsÃ¶yledin": 7411,
      "Ġamazing": 7412,
      "Ġproxy": 7413,
      "Ãĸnemli": 7414,
      "Ġagree": 7415,
      "conn": 7416,
      "Ġsets": 7417,
      "Ġtekn": 7418,
      "Ġdeliver": 7419,
      "ĠinsanlarÄ±": 7420,
      "adÄ±ÄŁÄ±nÄ±": 7421,
      "arling": 7422,
      "oÄŁun": 7423,
      "Ġoyunc": 7424,
      "Ġprovided": 7425,
      "register": 7426,
      "comple": 7427,
      "IZE": 7428,
      "Ġfaith": 7429,
      "âĢĿĊ": 7430,
      ".platform": 7431,
      "42": 7432,
      "Av": 7433,
      "Mad": 7434,
      "Silah": 7435,
      "celi": 7436,
      "Ġgift": 7437,
      "Ã¼per": 7438,
      "Ġpaid": 7439,
      "decoding": 7440,
      "ĠNOT": 7441,
      "Whatever": 7442,
      "Ġarm": 7443,
      "ĠGÃ¶r": 7444,
      "ĠPres": 7445,
      "ĠKat": 7446,
      "Ġgelin": 7447,
      "Ã¼ÅŁter": 7448,
      "ĠJames": 7449,
      "Ġproper": 7450,
      "Ġsayg": 7451,
      "reader": 7452,
      "Ġnewline": 7453,
      "ladÄ±k": 7454,
      "group": 7455,
      "State": 7456,
      "Ä±pkÄ±": 7457,
      "Shut": 7458,
      "_state": 7459,
      "ĠsÃ¼rekli": 7460,
      "Ġmenu": 7461,
      "Ġmarry": 7462,
      "Ã¼cÃ¼": 7463,
      "Ġwatching": 7464,
      "KardeÅŁ": 7465,
      "ĠkardeÅŁim": 7466,
      "Ġpoor": 7467,
      "~~~~": 7468,
      "Kom": 7469,
      "Make": 7470,
      "Zaten": 7471,
      "aled": 7472,
      "kind": 7473,
      "Ġ//": 7474,
      "Ġikinci": 7475,
      "alde": 7476,
      "alter": 7477,
      "ayÄ±z": 7478,
      "ayacaÄŁÄ±m": 7479,
      "isa": 7480,
      "isay": 7481,
      "owers": 7482,
      "ĠNer": 7483,
      "ĠDoktor": 7484,
      "....Ċ": 7485,
      "Ä±ÅŁtÄ±r": 7486,
      "usura": 7487,
      "Ġisterim": 7488,
      "Ġeng": 7489,
      "iÄŁine": 7490,
      "strap": 7491,
      "struction": 7492,
      "_col": 7493,
      "arsan": 7494,
      "Ġ+Ċ": 7495,
      "Inter": 7496,
      "foo": 7497,
      "Ġvideo": 7498,
      "Top": 7499,
      "_obj": 7500,
      "bl": 7501,
      "dat": 7502,
      "ients": 7503,
      "mine": 7504,
      "ened": 7505,
      "Ġge": 7506,
      "Ġkam": 7507,
      "Ġfool": 7508,
      "Ġanimal": 7509,
      "Ġlunch": 7510,
      "Ġrom": 7511,
      "Ġroll": 7512,
      "ĠÅŁah": 7513,
      "ĠNO": 7514,
      "Ġwear": 7515,
      "Ã¼rk": 7516,
      "othes": 7517,
      "defined": 7518,
      "_files": 7519,
      "ager": 7520,
      "ova": 7521,
      "Ġworse": 7522,
      "Stay": 7523,
      "Ġuyar": 7524,
      "Ġcrime": 7525,
      "Ġdeney": 7526,
      "Ġproto": 7527,
      "words": 7528,
      "ĠdÃ¼nya": 7529,
      "Ġcontact": 7530,
      "ĠÃ¼stÃ¼nde": 7531,
      "Ġborn": 7532,
      "Ġgidecek": 7533,
      "QUAL": 7534,
      "ology": 7535,
      "Ġrequired": 7536,
      "Loader": 7537,
      "ĠDEVICE": 7538,
      "(None": 7539,
      "={}": 7540,
      "fes": 7541,
      "Ġsert": 7542,
      "Ġmiddle": 7543,
      "unittest": 7544,
      "Ġ'+": 7545,
      "aking": 7546,
      "acing": 7547,
      "ids": 7548,
      "Ġstyle": 7549,
      "ĠLINE": 7550,
      "ĠCOM": 7551,
      "master": 7552,
      "ĠGre": 7553,
      "ĠGÃ¼zel": 7554,
      "ardan": 7555,
      "INED": 7556,
      "asÄ±yla": 7557,
      "Ġtrick": 7558,
      "_color": 7559,
      "Ġmissed": 7560,
      "larÄ±nÄ±zÄ±": 7561,
      "ĠyaÅŁlÄ±": 7562,
      "Ġgives": 7563,
      "Ġtermin": 7564,
      "preci": 7565,
      "ginÃ§": 7566,
      "ĠOnun": 7567,
      "ĠistediÄŁin": 7568,
      "Ġremoved": 7569,
      "Ġpersonal": 7570,
      "Ġheyecan": 7571,
      "Ġyeterli": 7572,
      "Tekrar": 7573,
      "Ġtahmin": 7574,
      "ĠÄ°ÅŁte": 7575,
      "GÃ¼ven": 7576,
      "Ġsuggest": 7577,
      "Option": 7578,
      "SION": 7579,
      "_only": 7580,
      "sat": 7581,
      "anya": 7582,
      "leg": 7583,
      "stroy": 7584,
      "Ġpair": 7585,
      "ĠSQU": 7586,
      "Ġnote": 7587,
      "ĠCaptain": 7588,
      "Ġbuddy": 7589,
      "ifies": 7590,
      "Ġalmaya": 7591,
      "ĠEver": 7592,
      "ĠFile": 7593,
      "Ä±ÄŁa": 7594,
      "ĠgerÃ§": 7595,
      "Ġclub": 7596,
      "Ġanywhere": 7597,
      "Ġzamanlar": 7598,
      "alara": 7599,
      "LEF": 7600,
      "Ã¢r": 7601,
      "Ä±nÄ±za": 7602,
      "Ġcarry": 7603,
      "ĠÃ¶lÃ¼": 7604,
      "ĠinanamÄ±yorum": 7605,
      "Ġdeclar": 7606,
      "ufffe": 7607,
      "Ġrelationship": 7608,
      "Ġselected": 7609,
      "undred": 7610,
      "ĠzamandÄ±r": 7611,
      "-l": 7612,
      "-w": 7613,
      ".version": 7614,
      "Ed": 7615,
      "GE": 7616,
      "LY": 7617,
      "MÃ¼": 7618,
      "Nerede": 7619,
      "Yar": 7620,
      "ts": 7621,
      "irin": 7622,
      "amber": 7623,
      "llib": 7624,
      "ĠHenry": 7625,
      "Ġheight": 7626,
      "Ã¼rÃ¼m": 7627,
      "Ġverb": 7628,
      "larÄ±yla": 7629,
      "iving": 7630,
      "ĠVer": 7631,
      "Ġkalacak": 7632,
      ".can": 7633,
      "abilirsiniz": 7634,
      "ONE": 7635,
      "Ã¶rt": 7636,
      "notations": 7637,
      "ĠolacaksÄ±n": 7638,
      "spath": 7639,
      "Ġtravel": 7640,
      "Ġbiliyordum": 7641,
      "Ġgirlfriend": 7642,
      "ebilirsin": 7643,
      "Ġberbat": 7644,
      "ytesIO": 7645,
      "Ġmillet": 7646,
      "ĠÃ¼lk": 7647,
      "DÃ¼ÅŁÃ¼n": 7648,
      "opriate": 7649,
      "Damn": 7650,
      "ĠSQUARE": 7651,
      "'nd": 7652,
      "500": 7653,
      "ACK": 7654,
      "Cal": 7655,
      "Yer": 7656,
      "Ġtick": 7657,
      "order": 7658,
      "Ġdiyorum": 7659,
      "eller": 7660,
      "alim": 7661,
      "ayd": 7662,
      "ising": 7663,
      "isplay": 7664,
      "Ä±rken": 7665,
      "Ġstation": 7666,
      "ĠGeneral": 7667,
      "ĠOtherwise": 7668,
      "ERR": 7669,
      "Ã¼ÅŁe": 7670,
      "()\",": 7671,
      "Ãĩek": 7672,
      "ĠolduÄŁumuz": 7673,
      "lier": 7674,
      "Ġspend": 7675,
      "achel": 7676,
      "Ġbroke": 7677,
      "cih": 7678,
      "ĠAny": 7679,
      "Ġfinished": 7680,
      "Whoa": 7681,
      "BakÄ±n": 7682,
      "_repr": 7683,
      "ymbol": 7684,
      "Ġchecked": 7685,
      "Ġregister": 7686,
      "EFINED": 7687,
      "Ġdestek": 7688,
      "Ġgidiyoruz": 7689,
      "Ġsorted": 7690,
      "uÅŁturucu": 7691,
      "Ãĩocuklar": 7692,
      "Ġreference": 7693,
      "ĠAPI": 7694,
      "_theme": 7695,
      "ĠÅŁarkÄ±": 7696,
      "ĠUNDEFINED": 7697,
      "Kat": 7698,
      "Miss": 7699,
      "SL": 7700,
      "gister": 7701,
      "label": 7702,
      "sr": 7703,
      "Ġglass": 7704,
      "Ġking": 7705,
      "Ġfit": 7706,
      "itions": 7707,
      "adata": 7708,
      "Ġdeprecated": 7709,
      "icult": 7710,
      "ĠLa": 7711,
      "ĠNick": 7712,
      "this": 7713,
      "lav": 7714,
      "ĠÃ¶le": 7715,
      "usun": 7716,
      "uses": 7717,
      "anta": 7718,
      "Ġchars": 7719,
      "ĠKon": 7720,
      "('.": 7721,
      "Ġbilgi": 7722,
      "ĠolduÄŁun": 7723,
      "Ġthinks": 7724,
      "ĠVal": 7725,
      "Ġspent": 7726,
      "(\"<": 7727,
      "ĠSMTP": 7728,
      "elerin": 7729,
      "ĠistemiÅŁ": 7730,
      "Ġzorund": 7731,
      "Ġsubprocess": 7732,
      "ĠgÃ¼le": 7733,
      "poss": 7734,
      "_host": 7735,
      "Ġinstances": 7736,
      "ĠborÃ§": 7737,
      "Ġhasta": 7738,
      "ĠException": 7739,
      "ĠyÄ±ldÄ±r": 7740,
      "Ä°nsanlar": 7741,
      "GeÃ§en": 7742,
      ".subwidget": 7743,
      "Ġdocumentation": 7744,
      "Ġparticular": 7745,
      "Operation": 7746,
      "Ġvoice": 7747,
      "Data": 7748,
      "Koc": 7749,
      "break": 7750,
      "eÄŁim": 7751,
      "ĠÄ±ÅŁ": 7752,
      "Ġtech": 7753,
      "Ġsoc": 7754,
      "Ġmock": 7755,
      "Ġcard": 7756,
      "Ġken": 7757,
      "Ġfish": 7758,
      "aket": 7759,
      "ĠSome": 7760,
      "Ġdold": 7761,
      "ulu": 7762,
      "ĠEÄŁer": 7763,
      "ĠFrame": 7764,
      "ĠFBI": 7765,
      "Ġele": 7766,
      "ĠgÃ¶rmÃ¼ÅŁ": 7767,
      "iven": 7768,
      "ĠÄ°s": 7769,
      "ART": 7770,
      "Ġyola": 7771,
      "ĠBiraz": 7772,
      "ursor": 7773,
      "Process": 7774,
      "ĠChristmas": 7775,
      "ĠNotImplementedError": 7776,
      "ĠolsaydÄ±": 7777,
      "Ġissue": 7778,
      "Ġcondition": 7779,
      "Ġgentlemen": 7780,
      "(root": 7781,
      "(context": 7782,
      "-What": 7783,
      "AteÅŁ": 7784,
      "CC": 7785,
      "NOW": 7786,
      "Ob": 7787,
      "mÄ±zÄ±": 7788,
      "raman": 7789,
      "sal": 7790,
      "ued": 7791,
      "Ġhook": 7792,
      "ĠkÄ±l": 7793,
      "Ġfut": 7794,
      "etch": 7795,
      "Ġneredeyse": 7796,
      "Ġpython": 7797,
      "vey": 7798,
      "Ä±klÄ±": 7799,
      "Ġbull": 7800,
      "Ġdefa": 7801,
      "ĠyaptÄ±r": 7802,
      "riage": 7803,
      "uper": 7804,
      ".copy": 7805,
      "Ġprog": 7806,
      "ynch": 7807,
      "Anlam": 7808,
      "Ġbulmak": 7809,
      "ference": 7810,
      "Ġappr": 7811,
      "insel": 7812,
      "Ġprivate": 7813,
      "Ġwonderful": 7814,
      "seconds": 7815,
      "KÃ¶tÃ¼": 7816,
      "Ġinteresting": 7817,
      "Ġenvironment": 7818,
      "\".\\": 7819,
      "'na": 7820,
      "(new": 7821,
      "55": 7822,
      "=%": 7823,
      "Kur": 7824,
      "Network": 7825,
      "ari": 7826,
      "Ġdrag": 7827,
      "Ġthreat": 7828,
      "ĠhenÃ¼z": 7829,
      "Ġkem": 7830,
      "Ġfur": 7831,
      "Ġfold": 7832,
      "akta": 7833,
      "Ġviol": 7834,
      "ulations": 7835,
      "ĠTix": 7836,
      "ĠalacaÄŁÄ±m": 7837,
      "ects": 7838,
      "Ġarea": 7839,
      "ipp": 7840,
      "iÄŁimi": 7841,
      "ĠparayÄ±": 7842,
      "ĠolduÄŁum": 7843,
      ".called": 7844,
      "\",\"": 7845,
      "ĠAnne": 7846,
      ".stack": 7847,
      "tiÄŁi": 7848,
      "ajest": 7849,
      "ĠseÃ§im": 7850,
      "ĠyÃ¼rÃ¼y": 7851,
      "Ġlimit": 7852,
      "ĠTestInfo": 7853,
      "ĠsÄ±nÄ±f": 7854,
      "avallÄ±": 7855,
      "(arg": 7856,
      ")]Ċ": 7857,
      ",errors": 7858,
      ".load": 7859,
      "89": 7860,
      "Jim": 7861,
      "Turn": 7862,
      "Try": 7863,
      "_L": 7864,
      "got": 7865,
      "mark": 7866,
      "ned": 7867,
      "raph": 7868,
      "tz": 7869,
      "tps": 7870,
      "iny": 7871,
      "Ġbought": 7872,
      "ores": 7873,
      "arr": 7874,
      "ĠdiÅŁ": 7875,
      "Ġmajor": 7876,
      "Ġhundred": 7877,
      "Ġgeni": 7878,
      "Ã¼le": 7879,
      "Ġpage": 7880,
      "otstrap": 7881,
      "ĠdemiÅŁ": 7882,
      "ication": 7883,
      "ĠÅŁur": 7884,
      "__':Ċ": 7885,
      "unuyor": 7886,
      "ersion": 7887,
      "ĠKur": 7888,
      "Biri": 7889,
      "Ä±ydÄ±": 7890,
      "ilenames": 7891,
      "ĠtanÄ±yor": 7892,
      "Ġprevious": 7893,
      "(source": 7894,
      "(cmd": 7895,
      "(module": 7896,
      "ĠbaÄŁÄ±ÅŁ": 7897,
      "_request": 7898,
      "board": 7899,
      "Ġmission": 7900,
      "Ġmatches": 7901,
      "Ġattempt": 7902,
      "Ġbulduk": 7903,
      "ĠButton": 7904,
      "ĠsÃ¶ylÃ¼yorum": 7905,
      "Ġyeterince": 7906,
      "Everybody": 7907,
      "SakÄ±n": 7908,
      "Ġoccur": 7909,
      "Telefon": 7910,
      "Ġpadx": 7911,
      ".\")Ċ": 7912,
      "Eve": 7913,
      "PER": 7914,
      "Sp": 7915,
      "Yet": 7916,
      "bet": 7917,
      "eq": 7918,
      "ker": 7919,
      "mana": 7920,
      "zu": 7921,
      "Ġbother": 7922,
      "oups": 7923,
      "Ġic": 7924,
      "ĠkÄ±Ã§": 7925,
      "une": 7926,
      "aklar": 7927,
      "Ġinn": 7928,
      "Ġeight": 7929,
      "appe": 7930,
      "ĠSat": 7931,
      "Ä±rlar": 7932,
      "ĠbeÄŁ": 7933,
      "ĠAss": 7934,
      "ĠLabel": 7935,
      "ĠTcl": 7936,
      "ĠOR": 7937,
      "gex": 7938,
      "Ġelements": 7939,
      "ĠdeÄŁiliz": 7940,
      "Ġgeldik": 7941,
      "ivalent": 7942,
      "ĠiÅŁle": 7943,
      "ledge": 7944,
      "lanmÄ±ÅŁ": 7945,
      ".show": 7946,
      "ntry": 7947,
      "Ġappreci": 7948,
      "Ġstarts": 7949,
      "Ġdelete": 7950,
      "Ġcharge": 7951,
      "Looks": 7952,
      "Ġsmart": 7953,
      "ĠkorkunÃ§": 7954,
      "ĠQue": 7955,
      "kwds": 7956,
      "Ġkaybed": 7957,
      "ĠTHREE": 7958,
      "ĠhatÄ±rlÄ±yor": 7959,
      "Ġlanguage": 7960,
      "Ġlovely": 7961,
      "'Cause": 7962,
      ".list": 7963,
      "Ap": 7964,
      "Bye": 7965,
      "filename": 7966,
      "hip": 7967,
      "malÄ±k": 7968,
      "pass": 7969,
      "Ġ]Ċ": 7970,
      "Ġ}Ċ": 7971,
      "Ġailes": 7972,
      "Ġseks": 7973,
      "Ġneydi": 7974,
      "....": 7975,
      "Ä±mdan": 7976,
      "ĠSir": 7977,
      "Ġradi": 7978,
      "Ġforward": 7979,
      "ĠBecause": 7980,
      "ula": 7981,
      "Ġneigh": 7982,
      "ĠHALF": 7983,
      "ibar": 7984,
      "ĠiÃ§ki": 7985,
      "-------": 7986,
      "ĠyapacaksÄ±n": 7987,
      "athan": 7988,
      "ĠKend": 7989,
      "Ġmix": 7990,
      "Ġedip": 7991,
      "ĠadÄ±na": 7992,
      "Erkek": 7993,
      "uzey": 7994,
      "Ä±yÄ±m": 7995,
      "lamaya": 7996,
      "Ġblue": 7997,
      "Ġcareful": 7998,
      "Ġtercih": 7999,
      "rench": 8000,
      "Request": 8001,
      "Ġbasit": 8002,
      "Ġsigns": 8003,
      "Ġoperations": 8004,
      "Ġdirectories": 8005,
      "Ġbuldun": 8006,
      "emezsin": 8007,
      "ĠGerÃ§ek": 8008,
      "itespace": 8009,
      "ĠvazgeÃ§": 8010,
      "Ġimmediately": 8011,
      ")'": 8012,
      ".net": 8013,
      "37": 8014,
      "Amer": 8015,
      "Dialog": 8016,
      "Ser": 8017,
      "_u": 8018,
      "house": 8019,
      "och": 8020,
      "})Ċ": 8021,
      "Ġtap": 8022,
      "Ġyesterday": 8023,
      "isiniz": 8024,
      "Three": 8025,
      "enty": 8026,
      "iki": 8027,
      "ĠÃ§at": 8028,
      "ahtar": 8029,
      "Ġolma": 8030,
      "ĠNode": 8031,
      "though": 8032,
      "Ġdefine": 8033,
      "raverse": 8034,
      "ĠReg": 8035,
      "ploy": 8036,
      "miÅŁtir": 8037,
      ".cur": 8038,
      "_flags": 8039,
      "ĠÃ§alÄ±ÅŁan": 8040,
      "_lineno": 8041,
      "Ġtarz": 8042,
      "meniz": 8043,
      "ĠhaklÄ±": 8044,
      "ĠyanÄ±na": 8045,
      ".match": 8046,
      "Ġxml": 8047,
      "ĠhayatÄ±nÄ±": 8048,
      "Ġyemin": 8049,
      "ĠbaÄŁÄ±r": 8050,
      "ĠAmerican": 8051,
      "Ġimage": 8052,
      "Ġdetermin": 8053,
      "-D": 8054,
      "Fine": 8055,
      "Out": 8056,
      "SaÃ§": 8057,
      "hur": 8058,
      "mÄ±yorsun": 8059,
      "range": 8060,
      "ĠÅŀu": 8061,
      "Ġsos": 8062,
      "ĠbÃ¶": 8063,
      "arp": 8064,
      "eless": 8065,
      "Ġgaliba": 8066,
      "Ġez": 8067,
      "idered": 8068,
      "Think": 8069,
      "ĠraÄŁ": 8070,
      "Ġforever": 8071,
      "Ġshop": 8072,
      "ĠOption": 8073,
      "Ä°sted": 8074,
      "ctools": 8075,
      "Ġelect": 8076,
      "ĠKom": 8077,
      "Ġclothes": 8078,
      "Ġtear": 8079,
      "Ġsende": 8080,
      "Ġboard": 8081,
      "Ġerken": 8082,
      "Ġscene": 8083,
      "IST": 8084,
      "Ġiyisi": 8085,
      "ĠÃ¼stÃ¼ne": 8086,
      "Ġbilirsin": 8087,
      "_argument": 8088,
      "Ġdifficult": 8089,
      "\"))Ċ": 8090,
      ":]": 8091,
      "BoÅŁ": 8092,
      "Frame": 8093,
      "More": 8094,
      "Sab": 8095,
      "Watch": 8096,
      "_root": 8097,
      "night": 8098,
      "ring": 8099,
      "ze": 8100,
      "Ġqueue": 8101,
      "orld": 8102,
      "Ġcamp": 8103,
      "Ġfrozen": 8104,
      "ispatch": 8105,
      "ĠrÃ¼y": 8106,
      "ĠTek": 8107,
      "ĠTWO": 8108,
      "istered": 8109,
      "clud": 8110,
      "Ġupdated": 8111,
      "Ġsonu": 8112,
      "Ġresource": 8113,
      "evk": 8114,
      "(func": 8115,
      "Ġboyfriend": 8116,
      "Ġphot": 8117,
      "_exception": 8118,
      ".decode": 8119,
      "Ġfighting": 8120,
      "'''Ċ": 8121,
      "Ġprior": 8122,
      "locale": 8123,
      "ĠBiliyorum": 8124,
      "Ġdefinitely": 8125,
      "Frank": 8126,
      "Ġlarge": 8127,
      ".extend": 8128,
      "Ġdangerous": 8129,
      "Ġdoubt": 8130,
      "(result": 8131,
      ".N": 8132,
      "Ag": 8133,
      "Aile": 8134,
      "TA": 8135,
      "fast": 8136,
      "gus": 8137,
      "Ġted": 8138,
      "Ġtrip": 8139,
      "aron": 8140,
      "Ġoh": 8141,
      "stairs": 8142,
      "ima": 8143,
      "Ġest": 8144,
      "emiyorum": 8145,
      "Ġrah": 8146,
      "ĠAy": 8147,
      "ĠDO": 8148,
      "ĠRed": 8149,
      "Ġelbette": 8150,
      "Ġvars": 8151,
      "().__": 8152,
      "inizden": 8153,
      "actor": 8154,
      "(\"%": 8155,
      "layan": 8156,
      "Asla": 8157,
      "ĠArab": 8158,
      "Ġplane": 8159,
      "asÄ±ndaki": 8160,
      "Ġkaybol": 8161,
      "Ġattention": 8162,
      "ILDE": 8163,
      "ĠdoÄŁum": 8164,
      "Ġappear": 8165,
      "ĠraÄŁmen": 8166,
      "\"I": 8167,
      ".test": 8168,
      "47": 8169,
      "92": 8170,
      "Iter": 8171,
      "URL": 8172,
      "_level": 8173,
      "_after": 8174,
      "mode": 8175,
      "sur": 8176,
      "uit": 8177,
      "Ġble": 8178,
      "ĠbiÃ§": 8179,
      "Ġill": 8180,
      "Ġmant": 8181,
      "stit": 8182,
      "edit": 8183,
      "edelta": 8184,
      "Ġ':": 8185,
      "Ġlan": 8186,
      "Ġlying": 8187,
      "eyle": 8188,
      "apt": 8189,
      "olun": 8190,
      "distr": 8191,
      "ĠÅŁeh": 8192,
      "ĠTabii": 8193,
      "ĠTILDE": 8194,
      "acket": 8195,
      "ĠEarth": 8196,
      "ĠRuss": 8197,
      "ĠWait": 8198,
      "Ġetmem": 8199,
      "Ġusually": 8200,
      "Ġtruck": 8201,
      "afet": 8202,
      "Ġbakma": 8203,
      "ĠgÃ¼nler": 8204,
      "Ġservice": 8205,
      "Oraya": 8206,
      "Ġrealize": 8207,
      "Ġopened": 8208,
      "Ġborder": 8209,
      "Ġbecom": 8210,
      "ĠHarry": 8211,
      "Kendini": 8212,
      "Someone": 8213,
      "ĠbÃ¼yÃ¼": 8214,
      "Ġconcern": 8215,
      "Ġclaim": 8216,
      "Ġincluding": 8217,
      "ĠIDLE": 8218,
      "Ġpunish": 8219,
      "distrib": 8220,
      "(st": 8221,
      "(dir": 8222,
      ").__": 8223,
      "-L": 8224,
      ".args": 8225,
      "={": 8226,
      "AF": 8227,
      "LD": 8228,
      "SavaÅŁ": 8229,
      "bile": 8230,
      "sure": 8231,
      "ydi": 8232,
      "Ġtk": 8233,
      "Ġbelli": 8234,
      "orat": 8235,
      "Ġgurur": 8236,
      "Ġcel": 8237,
      "asy": 8238,
      "Ġpil": 8239,
      "Ġtopr": 8240,
      "isinde": 8241,
      "acter": 8242,
      "Ġrich": 8243,
      "ĠBaba": 8244,
      "ĠLike": 8245,
      "olu": 8246,
      "Ġmez": 8247,
      "andom": 8248,
      "ĠMm": 8249,
      "ĠHelp": 8250,
      "ĠalÄ±yor": 8251,
      "Ġalabilir": 8252,
      "ĠyaparÄ±m": 8253,
      "ĠedeceÄŁim": 8254,
      "Ġbildir": 8255,
      "others": 8256,
      "anges": 8257,
      "_sub": 8258,
      "Ã¼yÃ¼": 8259,
      "_target": 8260,
      "Ġimportlib": 8261,
      "ĠgÃ¼neÅŁ": 8262,
      "eze": 8263,
      ".time": 8264,
      "_message": 8265,
      "Ġgitmem": 8266,
      "Ġpaths": 8267,
      "Ġizley": 8268,
      "Ġquote": 8269,
      "position": 8270,
      "Ġactual": 8271,
      "'],": 8272,
      "Ġdecor": 8273,
      "Sanki": 8274,
      "ĠpaylaÅŁ": 8275,
      "Ġmatching": 8276,
      "ecutable": 8277,
      "Ġplaces": 8278,
      "ĠaÄŁz": 8279,
      "Ġswear": 8280,
      "Ġexecuted": 8281,
      "ĠSanÄ±rÄ±m": 8282,
      "Ġterrible": 8283,
      "ĠDeprec": 8284,
      ".user": 8285,
      "Create": 8286,
      "Hang": 8287,
      "Jo": 8288,
      "Michael": 8289,
      "Sah": 8290,
      "YP": 8291,
      "]*": 8292,
      "nel": 8293,
      "wait": 8294,
      "Ġband": 8295,
      "Ġilet": 8296,
      "Ġmik": 8297,
      "ĠSm": 8298,
      "ĠDel": 8299,
      "Ġbuz": 8300,
      "ifiers": 8301,
      "ardÄ±n": 8302,
      "osity": 8303,
      "ĠKÄ±z": 8304,
      "aves": 8305,
      "ATA": 8306,
      "ĠolmasÄ±n": 8307,
      ".create": 8308,
      "ĠdÃ¼ÅŁÃ¼r": 8309,
      "ĠdÃ¼ÅŁÃ¼nmÃ¼ÅŁ": 8310,
      "Ã¢n": 8311,
      "Ġsetting": 8312,
      "wood": 8313,
      "Ġhandling": 8314,
      "Ġscrew": 8315,
      "ashed": 8316,
      "Ġfeels": 8317,
      "Ġistiyorsan": 8318,
      "Ġsavun": 8319,
      "Ġlocals": 8320,
      "Ġcurrently": 8321,
      ".destroy": 8322,
      "ĠgÃ¶rÃ¼nÃ¼yorsun": 8323,
      "Ġhonor": 8324,
      "Uzun": 8325,
      "Ġlambda": 8326,
      "={},": 8327,
      "-Evet": 8328,
      "Et": 8329,
      "Oy": 8330,
      "Path": 8331,
      "RON": 8332,
      "sÄ±": 8333,
      "tÄ±nÄ±z": 8334,
      "elist": 8335,
      "Ġhizmet": 8336,
      "Ġlaugh": 8337,
      "Ġreq": 8338,
      "Ġitir": 8339,
      "ĠSaÄŁ": 8340,
      "ĠCor": 8341,
      "ĠCAR": 8342,
      "ĠCommand": 8343,
      "andÄ±m": 8344,
      "ĠGÃ¶": 8345,
      "Ġevine": 8346,
      "mediÄŁini": 8347,
      "Ä±mÄ±zda": 8348,
      "udur": 8349,
      "tÄ±ÄŁÄ±n": 8350,
      "Ġhayvan": 8351,
      "Ġyarg": 8352,
      "Ġprefer": 8353,
      "archive": 8354,
      "Ġokum": 8355,
      "Ġiyilik": 8356,
      "bootstrap": 8357,
      "Ġoperator": 8358,
      "Ġdurumu": 8359,
      "Ġ'\"__": 8360,
      "ĠvereceÄŁim": 8361,
      "Ġawait": 8362,
      "-THAN": 8363,
      "memiÅŁtim": 8364,
      "Ġgeceler": 8365,
      "DÃ¼ny": 8366,
      "ĠParis": 8367,
      "****************": 8368,
      "amayÄ±z": 8369,
      "Ġiterable": 8370,
      "Ġreceived": 8371,
      "Ġbehavior": 8372,
      "(k": 8373,
      "-st": 8374,
      ".arg": 8375,
      "Hav": 8376,
      "Saat": 8377,
      "Welcome": 8378,
      "Yeter": 8379,
      "dig": 8380,
      "ja": 8381,
      "pc": 8382,
      "Ġsik": 8383,
      "Ġice": 8384,
      "Ġhung": 8385,
      "ality": 8386,
      "eds": 8387,
      "Ġrema": 8388,
      "uten": 8389,
      "aped": 8390,
      "ĠvÃ¼c": 8391,
      "oda": 8392,
      "ĠBer": 8393,
      "dire": 8394,
      "endar": 8395,
      "istic": 8396,
      "Ä°s": 8397,
      "ĠKos": 8398,
      "getitem": 8399,
      "Ġveriyor": 8400,
      "ĠgÃ¶rmeye": 8401,
      "ĠolduÄŁundan": 8402,
      "ĠkalmÄ±ÅŁ": 8403,
      "Ġspot": 8404,
      "Ġboat": 8405,
      "tÄ±lar": 8406,
      "Ġacaba": 8407,
      "Ã¢y": 8408,
      ".type": 8409,
      ".traverse": 8410,
      "ĠyaÅŁÄ±yor": 8411,
      "Ġpositive": 8412,
      "background": 8413,
      "ĠihtiyaÃ§": 8414,
      "Ġsahibi": 8415,
      "ĠanlamÄ±na": 8416,
      "month": 8417,
      "ĠsÃ¶ylÃ¼yorsun": 8418,
      "Ġgeneral": 8419,
      "_option": 8420,
      "ĠHarika": 8421,
      "Ġdebugger": 8422,
      "Ġhedef": 8423,
      "Leave": 8424,
      "Ġsistem": 8425,
      "attribute": 8426,
      "Ġziyaret": 8427,
      "Bas": 8428,
      "Bazen": 8429,
      "EH": 8430,
      "Hal": 8431,
      "LAG": 8432,
      "Pardon": 8433,
      "_vars": 8434,
      "gor": 8435,
      "mond": 8436,
      "onu": 8437,
      "Ġthird": 8438,
      "iri": 8439,
      "amaya": 8440,
      "ington": 8441,
      "Ġpid": 8442,
      "abstract": 8443,
      "ĠoluÅŁ": 8444,
      "ĠMal": 8445,
      "Ġjump": 8446,
      "ĠRichard": 8447,
      "ĠWest": 8448,
      "Ġchick": 8449,
      "reset": 8450,
      "Ä±ÄŁÄ±na": 8451,
      "Ġcomment": 8452,
      "ĠadÄ±nÄ±": 8453,
      "ĠJan": 8454,
      "ĠUm": 8455,
      "imizden": 8456,
      "manda": 8457,
      "Ġtarih": 8458,
      "Buradan": 8459,
      "Ġistemem": 8460,
      "Isn": 8461,
      ".stdout": 8462,
      "extra": 8463,
      "Ġsakin": 8464,
      "timeError": 8465,
      "variable": 8466,
      "Ġhastan": 8467,
      "Ġdollar": 8468,
      "Ġdescription": 8469,
      "Ġdefinition": 8470,
      "ĠsÄ±nÄ±r": 8471,
      "ĠRobert": 8472,
      "ĠgÃ¶stere": 8473,
      "ĠsoÄŁuk": 8474,
      "(ch": 8475,
      "-like": 8476,
      ".key": 8477,
      ">\\": 8478,
      "NO": 8479,
      "Too": 8480,
      "flags": 8481,
      "help": 8482,
      "ners": 8483,
      "parser": 8484,
      "rb": 8485,
      "rik": 8486,
      "Ġdere": 8487,
      "atic": 8488,
      "atus": 8489,
      "Ġmekt": 8490,
      "Ġcat": 8491,
      "isel": 8492,
      "urun": 8493,
      "ulmuÅŁ": 8494,
      "Ġwearing": 8495,
      "height": 8496,
      "acaklar": 8497,
      "Ġstrange": 8498,
      "_font": 8499,
      "alarÄ±n": 8500,
      "Ġbrow": 8501,
      "Ġamb": 8502,
      "ĠÃ¶zgÃ¼r": 8503,
      "Ġkilling": 8504,
      "_debug": 8505,
      "Everyone": 8506,
      ".Codec": 8507,
      "Ġignored": 8508,
      "configure": 8509,
      "ometimes": 8510,
      "_callback": 8511,
      "Ġapartment": 8512,
      "Dost": 8513,
      "Kab": 8514,
      "Sal": 8515,
      "Time": 8516,
      "UE": 8517,
      "bc": 8518,
      "best": 8519,
      "warn": 8520,
      "Ġiler": 8521,
      "Ġmask": 8522,
      "lemek": 8523,
      "aller": 8524,
      "stant": 8525,
      "Ġcen": 8526,
      "Ġcash": 8527,
      "Ġpaint": 8528,
      "Ġonlardan": 8529,
      "Ã¼rÃ¼": 8530,
      "Ġsens": 8531,
      "uced": 8532,
      "Ġproud": 8533,
      "OnlarÄ±n": 8534,
      "evin": 8535,
      "Ġbulur": 8536,
      "aches": 8537,
      "Ġopcode": 8538,
      "medik": 8539,
      ".frame": 8540,
      "Ġpartner": 8541,
      "Ġsuppose": 8542,
      "Ġmeaning": 8543,
      "Ġdeli": 8544,
      "Ġuyum": 8545,
      "giliz": 8546,
      "Ġactiv": 8547,
      "Ġserv": 8548,
      "bilirim": 8549,
      "target": 8550,
      "_widget": 8551,
      "Ãĸzel": 8552,
      "Ġpossibly": 8553,
      ".handle": 8554,
      "Ġbeyaz": 8555,
      "ĠAmerica": 8556,
      "Ġkahve": 8557,
      "About": 8558,
      "Ġsinir": 8559,
      "Ġinterested": 8560,
      "Ġsuspect": 8561,
      ".config": 8562,
      "ĠPhil": 8563,
      "escriptor": 8564,
      ".'": 8565,
      ".default": 8566,
      "66": 8567,
      "HÃ¢lÃ¢": 8568,
      "_all": 8569,
      "_next": 8570,
      "hoÅŁ": 8571,
      "lush": 8572,
      "vin": 8573,
      "ining": 8574,
      "Ġhi": 8575,
      "ilere": 8576,
      "uration": 8577,
      "ĠanlÄ±yorum": 8578,
      "Ġanchor": 8579,
      "Ġlower": 8580,
      "ĠIT": 8581,
      "ĠIND": 8582,
      "Ġvia": 8583,
      "ĠSU": 8584,
      "ĠSHA": 8585,
      "Ġ\".": 8586,
      "ĠALL": 8587,
      "ĠLo": 8588,
      "tha": 8589,
      "ĠDan": 8590,
      "ĠMus": 8591,
      "...\"Ċ": 8592,
      "Ġsep": 8593,
      "Ġseat": 8594,
      "Ġalak": 8595,
      "Ġchain": 8596,
      "Ġettin": 8597,
      "Ġunto": 8598,
      "Ġsoft": 8599,
      "quot": 8600,
      "ATH": 8601,
      "Ġolmaya": 8602,
      "ĠgÃ¶rÃ¼r": 8603,
      "Ġsong": 8604,
      "===": 8605,
      "ĠiÅŁini": 8606,
      "Ġraises": 8607,
      "Ġspir": 8608,
      "owner": 8609,
      "_sign": 8610,
      "DoÄŁ": 8611,
      "Ġ|Ċ": 8612,
      "Ġpathname": 8613,
      "ĠArg": 8614,
      "Ġguar": 8615,
      "ĠÃ¶ldÃ¼rmek": 8616,
      "ĠiyileÅŁ": 8617,
      "Ġlocation": 8618,
      "Ġinterpreter": 8619,
      "Ġstanding": 8620,
      "Ġbizimle": 8621,
      "Ġconsidered": 8622,
      "Ġkoruy": 8623,
      ".readline": 8624,
      "Ġfigured": 8625,
      "ĠyÄ±ldÄ±z": 8626,
      "Ġassignment": 8627,
      "Eski": 8628,
      "Ġpislik": 8629,
      "Ġevalu": 8630,
      "Affedersiniz": 8631,
      "'\"": 8632,
      "(M": 8633,
      ".cl": 8634,
      ".TestCase": 8635,
      "CL": 8636,
      "DÄ±ÅŁarÄ±": 8637,
      "George": 8638,
      "Mm": 8639,
      "Rob": 8640,
      "Since": 8641,
      "_ne": 8642,
      "_length": 8643,
      "button": 8644,
      "dÄ±ÄŁÄ±nÄ±": 8645,
      "ior": 8646,
      "lineno": 8647,
      "pid": 8648,
      "orig": 8649,
      "ĠilaÃ§": 8650,
      "Ġyay": 8651,
      "Ġhistory": 8652,
      "ila": 8653,
      "ades": 8654,
      "Ġana": 8655,
      "omuz": 8656,
      "Ã¶n": 8657,
      "ĠCo": 8658,
      "ĠDNA": 8659,
      "ĠHave": 8660,
      "ĠKah": 8661,
      "Ã¼me": 8662,
      "Ä±sÄ±z": 8663,
      "Ġdisappe": 8664,
      "250": 8665,
      "Still": 8666,
      "192": 8667,
      "ĠarkadaÅŁÄ±": 8668,
      "ĠaÅŁÄ±k": 8669,
      "_exp": 8670,
      "ASC": 8671,
      "ĠGerman": 8672,
      "Ġlikes": 8673,
      "Ġclause": 8674,
      "-Ne": 8675,
      "Bet": 8676,
      "Bob": 8677,
      "HI": 8678,
      "Ma": 8679,
      "Ondan": 8680,
      "Su": 8681,
      "_index": 8682,
      "block": 8683,
      "current": 8684,
      "tÃ¼k": 8685,
      "Ġdue": 8686,
      "Ġir": 8687,
      "Ġhuz": 8688,
      "Ġhangi": 8689,
      "ilt": 8690,
      "Ä±nca": 8691,
      "Ġoften": 8692,
      "utdown": 8693,
      "eref": 8694,
      "ĠSpec": 8695,
      "ĠÃ§Ä±lgÄ±n": 8696,
      "ĠTim": 8697,
      "Ġyapabilir": 8698,
      "Ġzek": 8699,
      "Ġupdate": 8700,
      "Ã¼ÅŁÃ¼rÃ¼z": 8701,
      "ÃĩalÄ±ÅŁ": 8702,
      "Åŀuna": 8703,
      "ĠsÃ¶ylemiÅŁtim": 8704,
      "Ġbool": 8705,
      "Ġprove": 8706,
      "ictor": 8707,
      "ago": 8708,
      "wrap": 8709,
      "ĠbabasÄ±": 8710,
      "adÄ±ÄŁÄ±": 8711,
      "files": 8712,
      "sene": 8713,
      "Ġstopped": 8714,
      "Bilmiyorum": 8715,
      "_start": 8716,
      "Ġexcuse": 8717,
      "ĠsÄ±ra": 8718,
      "Ġtransform": 8719,
      "Ġsimilar": 8720,
      "Ġkwargs": 8721,
      "uvvet": 8722,
      "Ġcaller": 8723,
      "_library": 8724,
      "Ġtehlikeli": 8725,
      "tecode": 8726,
      "ynchron": 8727,
      "Ġappropriate": 8728,
      "(type": 8729,
      "=_": 8730,
      "BER": 8731,
      "EC": 8732,
      "Jul": 8733,
      "Version": 8734,
      "count": 8735,
      "hood": 8736,
      "malarÄ±": 8737,
      "yu": 8738,
      "ĠbÄ±Ã§": 8739,
      "Ġdiz": 8740,
      "atural": 8741,
      "ĠmaÃ§": 8742,
      "Ġcops": 8743,
      "otion": 8744,
      "umed": 8745,
      "ential": 8746,
      "icon": 8747,
      "oked": 8748,
      "Ġrot": 8749,
      "lerdir": 8750,
      "Ġshift": 8751,
      "ĠcanÄ±na": 8752,
      "riple": 8753,
      "INAL": 8754,
      "Ġolman": 8755,
      "Ġkalmak": 8756,
      "Ġproject": 8757,
      "Ġ%Ċ": 8758,
      "Ġsevgil": 8759,
      "Ġkural": 8760,
      "parator": 8761,
      "Ġistemed": 8762,
      ".delete": 8763,
      "ĠÃ¶lmÃ¼ÅŁ": 8764,
      "Ġpatron": 8765,
      "ĠarkadaÅŁÄ±n": 8766,
      "Ġdecision": 8767,
      ".register": 8768,
      "ĠUnix": 8769,
      "ĠolmalÄ±sÄ±n": 8770,
      "Ã¼phe": 8771,
      "Ġexecutable": 8772,
      "ĠACCENT": 8773,
      "Ġcalm": 8774,
      "Ġdiscover": 8775,
      "Ġforgive": 8776,
      "Merak": 8777,
      "Muhtemelen": 8778,
      "Ġapplication": 8779,
      "Ġintrod": 8780,
      ".exp": 8781,
      "39": 8782,
      "EW": 8783,
      "Hangi": 8784,
      "MENT": 8785,
      "SIL": 8786,
      "bye": 8787,
      "kiler": 8788,
      "lapped": 8789,
      "oom": 8790,
      "tak": 8791,
      "ination": 8792,
      "Ġwind": 8793,
      "Ġgire": 8794,
      "Ġov": 8795,
      "edeni": 8796,
      "Ġpul": 8797,
      "Ġpady": 8798,
      "Ġang": 8799,
      "Ġli": 8800,
      "icide": 8801,
      "iyordum": 8802,
      "Ġifade": 8803,
      "ĠGe": 8804,
      "roat": 8805,
      "ĠPL": 8806,
      "Ġverici": 8807,
      "ffic": 8808,
      ".prefix": 8809,
      "Ġresim": 8810,
      "ĠdÃ¼ÅŁman": 8811,
      "_pattern": 8812,
      "Ġadama": 8813,
      "diÄŁine": 8814,
      "Ġcompare": 8815,
      "ĠÃ¶nceki": 8816,
      "Ġgitsin": 8817,
      "ension": 8818,
      "ĠyakÄ±nda": 8819,
      "eÄŁil": 8820,
      "Ġihtimal": 8821,
      "ĠyemeÄŁi": 8822,
      "Ġfilter": 8823,
      "ĠsÃ¶yleyeyim": 8824,
      "Ġrelative": 8825,
      "Ġ'.'": 8826,
      "recedence": 8827,
      "Ġdiscuss": 8828,
      "porter": 8829,
      "KEYWORD": 8830,
      "Ġequivalent": 8831,
      "ĠPresident": 8832,
      "utenant": 8833,
      "Ġderece": 8834,
      "SILON": 8835,
      "-g": 8836,
      "77": 8837,
      "Hmm": 8838,
      "Ot": 8839,
      "Per": 8840,
      "SON": 8841,
      "ValueError": 8842,
      "YT": 8843,
      "dar": 8844,
      "ford": 8845,
      "Ġayn": 8846,
      "Ġsla": 8847,
      "Ġskin": 8848,
      "Ġsessiz": 8849,
      "elplist": 8850,
      "rek": 8851,
      "Ġmid": 8852,
      "Ġwine": 8853,
      "Ġkum": 8854,
      "Ġfreak": 8855,
      "Ġfocus": 8856,
      "esinin": 8857,
      "deed": 8858,
      "search": 8859,
      "emed": 8860,
      "abet": 8861,
      "ĠStan": 8862,
      "ĠAk": 8863,
      "lerce": 8864,
      "ĠLond": 8865,
      "thur": 8866,
      "Ġarrest": 8867,
      "ĠGit": 8868,
      "Ġyapamam": 8869,
      "Ġyapmaz": 8870,
      "oses": 8871,
      "artesi": 8872,
      "Ãĩabuk": 8873,
      "ĠbaÅŁlat": 8874,
      ".command": 8875,
      "Ġilgil": 8876,
      "Ġgrup": 8877,
      ".top": 8878,
      "Ä±sÄ±nda": 8879,
      "LLA": 8880,
      "Ġpatient": 8881,
      "Ġavukat": 8882,
      "ĠdeÄŁiÅŁik": 8883,
      "icient": 8884,
      "ĠgÃ¼venlik": 8885,
      "Ġcollege": 8886,
      "Ġlawyer": 8887,
      "Ġbilmiyordum": 8888,
      "Ġrandev": 8889,
      "(Codec": 8890,
      "Ġcorresponding": 8891,
      "rupa": 8892,
      "'{": 8893,
      "-IND": 8894,
      "Del": 8895,
      "HO": 8896,
      "Jesus": 8897,
      "KadÄ±n": 8898,
      "PL": 8899,
      "PRE": 8900,
      "bon": 8901,
      "hes": 8902,
      "kim": 8903,
      "kanÄ±": 8904,
      "lt": 8905,
      "lamam": 8906,
      "Ġtuz": 8907,
      "Ġdude": 8908,
      "atures": 8909,
      "Ġcamera": 8910,
      "amadÄ±": 8911,
      "Ġnetwork": 8912,
      "ayload": 8913,
      "async": 8914,
      "Ġeh": 8915,
      "Ġvilla": 8916,
      "ĠAT": 8917,
      "olve": 8918,
      "dian": 8919,
      "ĠCarl": 8920,
      "ĠÅŁar": 8921,
      "ĠDanny": 8922,
      "Ġarmy": 8923,
      "ĠgÃ¶m": 8924,
      "ĠcanlÄ±": 8925,
      "ĠEmin": 8926,
      "Ä°y": 8927,
      "ationWarning": 8928,
      "ansa": 8929,
      "ĠiÅŁim": 8930,
      "ĠUT": 8931,
      "ynam": 8932,
      "REW": 8933,
      "codings": 8934,
      "Ġwriter": 8935,
      "Ġgrab": 8936,
      "writer": 8937,
      "ĠkÄ±zlar": 8938,
      "ĠgÃ¼cÃ¼": 8939,
      "ĠkapÄ±yÄ±": 8940,
      "ĠaÅŁaÄŁ": 8941,
      "Ġumut": 8942,
      "Ġtransfer": 8943,
      "Ġmarriage": 8944,
      "ĠgideceÄŁim": 8945,
      "-hmm": 8946,
      "ĠaltÄ±na": 8947,
      "Ġholding": 8948,
      "ĠbÃ¶lg": 8949,
      "Ġvakti": 8950,
      "Ġidentifier": 8951,
      "Ġimagine": 8952,
      "ĠkarÄ±ÅŁtÄ±r": 8953,
      "ĠBelki": 8954,
      "Address": 8955,
      "-INDIC": 8956,
      "*\\": 8957,
      "ASE": 8958,
      "EÅŁ": 8959,
      "Last": 8960,
      "UID": 8961,
      "_V": 8962,
      "handle": 8963,
      "udum": 8964,
      "vat": 8965,
      "ĠÄ±ÅŁÄ±k": 8966,
      "Ġtough": 8967,
      "Ġdarling": 8968,
      "elde": 8969,
      "elector": 8970,
      "Ã¼ret": 8971,
      "Ġkral": 8972,
      "Ġfly": 8973,
      "Ġnorm": 8974,
      "asing": 8975,
      "Ġreset": 8976,
      "oday": 8977,
      "Ġuc": 8978,
      "Ġdosy": 8979,
      "rove": 8980,
      "raft": 8981,
      "Ġloves": 8982,
      "Ġconvers": 8983,
      "uÄŁunu": 8984,
      "Ġedit": 8985,
      "Ġclock": 8986,
      "Ġimz": 8987,
      "ĠsÃ¶yleme": 8988,
      "Ġmuhtemelen": 8989,
      "ĠÃ¶ner": 8990,
      "uyorlar": 8991,
      "Ġsetup": 8992,
      "oger": 8993,
      "Ġways": 8994,
      "Ġistiyoruz": 8995,
      "Ġoperand": 8996,
      "ĠDoÄŁru": 8997,
      "Ġseveral": 8998,
      "package": 8999,
      "Ġleading": 9000,
      "ĠJimmy": 9001,
      "Ġliteral": 9002,
      "STRING": 9003,
      "Ġconstructor": 9004,
      "ĠRuntimeError": 9005,
      ".canvas": 9006,
      "Find": 9007,
      "Mon": 9008,
      "_e": 9009,
      "_object": 9010,
      "cÄ±k": 9011,
      "cÄ±sÄ±": 9012,
      "kel": 9013,
      "pat": 9014,
      "supported": 9015,
      "vc": 9016,
      "window": 9017,
      "Ġsample": 9018,
      "Ġsitting": 9019,
      "Ġdying": 9020,
      "ela": 9021,
      "ĠmÃ¼ÅŁter": 9022,
      "lect": 9023,
      "Ġneck": 9024,
      "utc": 9025,
      "uty": 9026,
      "seq": 9027,
      "larÄ±mÄ±": 9028,
      "iyordu": 9029,
      "leriyle": 9030,
      "olution": 9031,
      "ulate": 9032,
      "laire": 9033,
      "ĠarÄ±yor": 9034,
      "usan": 9035,
      "Ġjoke": 9036,
      "Ġgeliyorum": 9037,
      "uÄŁun": 9038,
      "quire": 9039,
      "ĠJesus": 9040,
      "ĠgÃ¶rÃ¼yorum": 9041,
      "ayÄ±f": 9042,
      "eviz": 9043,
      "priz": 9044,
      "Ġbelong": 9045,
      "ĠgeÃ§er": 9046,
      "Ġgrub": 9047,
      "mama": 9048,
      "ĠgitmiÅŁ": 9049,
      "Ã¼ÄŁÃ¼nde": 9050,
      "Ġkendisi": 9051,
      "Ġuygul": 9052,
      "Ġuseful": 9053,
      "Ġdrunk": 9054,
      "Ġtrailing": 9055,
      "eÄŁin": 9056,
      "Ġrecent": 9057,
      "ĠsÃ¶ylen": 9058,
      "ĠgÃ¶zÃ¼k": 9059,
      "Didn": 9060,
      "ifying": 9061,
      "Ã¼sÃ¼": 9062,
      "ĠyÃ¼ksel": 9063,
      "Ġcollections": 9064,
      "Ġkulak": 9065,
      "ĠkarÅŁÄ±laÅŁ": 9066,
      ".grid": 9067,
      "ĠSorry": 9068,
      "HatÄ±r": 9069,
      "ĠdÃ¶vÃ¼ÅŁ": 9070,
      "Ġzengin": 9071,
      "Ġappreciate": 9072,
      "%s": 9073,
      "-O": 9074,
      "84": 9075,
      "95": 9076,
      "BREW": 9077,
      "KeÅŁke": 9078,
      "Sit": 9079,
      "Yat": 9080,
      "cor": 9081,
      "ique": 9082,
      "Ġters": 9083,
      "Ġsake": 9084,
      "Ġbill": 9085,
      "Ġthou": 9086,
      "rep": 9087,
      "Ġyor": 9088,
      "ĠmaÄŁ": 9089,
      "Ġcy": 9090,
      "ira": 9091,
      "Ġtool": 9092,
      "Ä±nd": 9093,
      "Ġangel": 9094,
      "eces": 9095,
      "ico": 9096,
      "ĠSal": 9097,
      "ĠAf": 9098,
      "Ġstdout": 9099,
      "ĠTam": 9100,
      "Ġelinde": 9101,
      "ITE": 9102,
      "Ġimm": 9103,
      "inizde": 9104,
      "_count": 9105,
      "Ġoverr": 9106,
      "Ġlists": 9107,
      "Ġamel": 9108,
      "Ġsupplied": 9109,
      "Ġexpand": 9110,
      "Ġistemedim": 9111,
      "_before": 9112,
      "Ġyolunu": 9113,
      "Ġbaban": 9114,
      "Ġokuy": 9115,
      ".button": 9116,
      "_stmt": 9117,
      "ĠXML": 9118,
      "ification": 9119,
      "Ġgerekiyordu": 9120,
      "Unut": 9121,
      "Ġimplemented": 9122,
      "Ġearlier": 9123,
      "Ġbeyler": 9124,
      "Ġdepart": 9125,
      "Ġkahraman": 9126,
      "Ġswitch": 9127,
      "GÃ¼naydÄ±n": 9128,
      "ĠHEBREW": 9129,
      "Ġsebebi": 9130,
      ".result": 9131,
      ".entry": 9132,
      ":\"": 9133,
      "Found": 9134,
      "GET": 9135,
      "Move": 9136,
      "Siktir": 9137,
      "_add": 9138,
      "fully": 9139,
      "nl": 9140,
      "rop": 9141,
      "ugs": 9142,
      "vi": 9143,
      "Ġssl": 9144,
      "Ã¼ler": 9145,
      "eda": 9146,
      "Ġant": 9147,
      "Ġvamp": 9148,
      "ĠBunun": 9149,
      "Ġneither": 9150,
      "ĠCEDI": 9151,
      "andÄ±k": 9152,
      "ĠDam": 9153,
      "ĠTake": 9154,
      "Ġbuc": 9155,
      "Ġbus": 9156,
      "iydim": 9157,
      "Ġgold": 9158,
      "iÅŁan": 9159,
      "Ġevi": 9160,
      "iÃ§ek": 9161,
      "Ġbullet": 9162,
      "Ġscr": 9163,
      "Ġexperi": 9164,
      "Ġadditional": 9165,
      "adÄ±ÄŁÄ±m": 9166,
      "Ġrecurs": 9167,
      "eceÄŁi": 9168,
      "urtle": 9169,
      "Ġturns": 9170,
      "damn": 9171,
      "Ġsimply": 9172,
      "-bit": 9173,
      "Ġexecution": 9174,
      "Ġnefes": 9175,
      "Ġchoose": 9176,
      "Trans": 9177,
      "Ġisteyen": 9178,
      "Ġdestroyed": 9179,
      "Ġfavorite": 9180,
      "Ġtavs": 9181,
      "ominator": 9182,
      "Ġcelebr": 9183,
      "ĠCEDILLA": 9184,
      "(code": 9185,
      "(item": 9186,
      ".utf": 9187,
      "_trans": 9188,
      "cad": 9189,
      "nek": 9190,
      "Ä±da": 9191,
      "erini": 9192,
      "arily": 9193,
      "ĠdaÄŁ": 9194,
      "atÃ¶r": 9195,
      "Ġyab": 9196,
      "ĠkayÄ±p": 9197,
      "Ġfinger": 9198,
      "omas": 9199,
      "Ġladies": 9200,
      "Ġbiriyle": 9201,
      "ulous": 9202,
      "ĠCopy": 9203,
      "chars": 9204,
      "using": 9205,
      "aÄŁÄ±m": 9206,
      "Ġgetire": 9207,
      "ĠOk": 9208,
      "ĠOna": 9209,
      "osu": 9210,
      "Ġabs": 9211,
      "Ġgeldiniz": 9212,
      "Ġupset": 9213,
      "ĠolmayÄ±": 9214,
      "ounded": 9215,
      "Ġparmak": 9216,
      "Ã¼yorsun": 9217,
      "ĠÃ¶nc": 9218,
      "days": 9219,
      "ĠilginÃ§": 9220,
      "ania": 9221,
      "Ġprepar": 9222,
      "Ġhallet": 9223,
      "Ġcrap": 9224,
      "ĠaldÄ±k": 9225,
      "Should": 9226,
      "Ġplanet": 9227,
      "Ġbunch": 9228,
      "landÄ±": 9229,
      "Ġsahib": 9230,
      "Ġstaying": 9231,
      "Ġikna": 9232,
      "Ġprompt": 9233,
      "Annen": 9234,
      "Ġsonraki": 9235,
      "+----------------------------------------------------": 9236,
      "distribution": 9237,
      "(unittest": 9238,
      "-H": 9239,
      "-HayÄ±r": 9240,
      "Ciddi": 9241,
      "Handle": 9242,
      "Kul": 9243,
      "MTP": 9244,
      "OINT": 9245,
      "Que": 9246,
      "_other": 9247,
      "cer": 9248,
      "ear": 9249,
      "mo": 9250,
      "src": 9251,
      "zone": 9252,
      "Ġmiles": 9253,
      "Ã¼ce": 9254,
      "Ġkelim": 9255,
      "ĠnasÄ±": 9256,
      "asename": 9257,
      "eyg": 9258,
      "Ġrev": 9259,
      "ĠSub": 9260,
      "ĠSarah": 9261,
      "ĠÃ§ant": 9262,
      "verb": 9263,
      "ĠÅŁÃ¼k": 9264,
      "ĠDet": 9265,
      "Ġhale": 9266,
      "ĠMil": 9267,
      "ĠMag": 9268,
      "ĠHa": 9269,
      "elling": 9270,
      "Ġweight": 9271,
      "ĠyapalÄ±m": 9272,
      "ĠKal": 9273,
      "ports": 9274,
      "Ġedeyim": 9275,
      "Ġetc": 9276,
      "ĠkadÄ±nÄ±n": 9277,
      "plies": 9278,
      "ĠsÃ¶ylemem": 9279,
      "Ġstrength": 9280,
      "exception": 9281,
      "lamb": 9282,
      "_mode": 9283,
      "shit": 9284,
      "ĠgerÃ§ekleÅŁ": 9285,
      "Ġinsanlara": 9286,
      "ĠhayatÄ±": 9287,
      "madÄ±k": 9288,
      "Sonunda": 9289,
      "Ġstatic": 9290,
      "Ġdavr": 9291,
      "numer": 9292,
      "(base": 9293,
      "Ġallows": 9294,
      "Ġlibraries": 9295,
      "Ġconnect": 9296,
      "lication": 9297,
      "MAX": 9298,
      "rollbar": 9299,
      "ĠThanks": 9300,
      "Ġauto": 9301,
      "ĠSerb": 9302,
      "ĠAngeles": 9303,
      "Ġfurther": 9304,
      "300": 9305,
      "Bul": 9306,
      "IK": 9307,
      "Kol": 9308,
      "Rahat": 9309,
      "kiden": 9310,
      "mini": 9311,
      "Ã®": 9312,
      "Ġtight": 9313,
      "anch": 9314,
      "aries": 9315,
      "ĠdÃ¼rÃ¼st": 9316,
      "leme": 9317,
      "ĠkeÅŁ": 9318,
      "esinden": 9319,
      "uru": 9320,
      "ĠanladÄ±m": 9321,
      "Ġreve": 9322,
      "ĠSÃ¶yle": 9323,
      "Ġ\"\\": 9324,
      "Ġ\"\\'": 9325,
      "Ġbear": 9326,
      "ĠClar": 9327,
      "ĠPart": 9328,
      "ERE": 9329,
      "ĠKÃ¶": 9330,
      "Ġcomfort": 9331,
      "(),Ċ": 9332,
      "Åŀur": 9333,
      "ÄŁrenÃ§": 9334,
      "save": 9335,
      "_types": 9336,
      "ssl": 9337,
      "ĠkonuÅŁur": 9338,
      "adding": 9339,
      "inleÅŁ": 9340,
      "meleri": 9341,
      "Ġolanlar": 9342,
      "Ġuyan": 9343,
      "Ġquit": 9344,
      "Ġputting": 9345,
      "Ġmakin": 9346,
      "Ġkeeps": 9347,
      "_hook": 9348,
      "Ġkilit": 9349,
      "Ġdecide": 9350,
      "Ġdistribution": 9351,
      "Protocol": 9352,
      "Anyway": 9353,
      "Ġprecision": 9354,
      "ĠzorundayÄ±m": 9355,
      "Ġdahil": 9356,
      "Ġjudge": 9357,
      "ĠEnglish": 9358,
      "FAULT": 9359,
      "isayar": 9360,
      "possible": 9361,
      "(en": 9362,
      "-to": 9363,
      "93": 9364,
      "Alex": 9365,
      "Codec": 9366,
      "Den": 9367,
      "MIC": 9368,
      "Ooh": 9369,
      "_is": 9370,
      "ben": 9371,
      "bak": 9372,
      "dÄ±nÄ±z": 9373,
      "non": 9374,
      "Ġsurr": 9375,
      "Ġbod": 9376,
      "ĠdÃ¼k": 9377,
      "atik": 9378,
      "Ġhurry": 9379,
      "Ġ'{": 9380,
      "otal": 9381,
      "Ġdecoded": 9382,
      "Ġfore": 9383,
      "ĠBet": 9384,
      "ĠĠĠĠĠĠĠĠĠĠĠĠĠĠĠĠĠĠĠĠĠĠĠĠĠĠĠĠĠĠĠĠĠĠĠĠĠĠĠ": 9385,
      "ĠoluÅŁtur": 9386,
      "diff": 9387,
      "Ġ-=": 9388,
      "Ġsea": 9389,
      "Ġzip": 9390,
      "essor": 9391,
      "ieve": 9392,
      "Item": 9393,
      "uÄŁum": 9394,
      "ĠJess": 9395,
      "ĠJeff": 9396,
      "_sidebar": 9397,
      "Ġyerinde": 9398,
      "Ġwrap": 9399,
      "Ġ<<": 9400,
      "Ġyaramaz": 9401,
      "tÃ¼ÄŁ": 9402,
      "_by": 9403,
      "Ġsubject": 9404,
      "Ġdrug": 9405,
      ".strip": 9406,
      "encer": 9407,
      "timeout": 9408,
      "RIPT": 9409,
      "Ġhepimiz": 9410,
      "Ġappoint": 9411,
      "ĠAmerika": 9412,
      "ĠmÄ±yÄ±m": 9413,
      "iddet": 9414,
      "Ġliked": 9415,
      "ĠeÄŁlenceli": 9416,
      "ĠburadayÄ±m": 9417,
      "ĠWilliam": 9418,
      "ĠSorun": 9419,
      "Ġutan": 9420,
      "-A": 9421,
      "Bek": 9422,
      "Content": 9423,
      "Guy": 9424,
      "Red": 9425,
      "Sometimes": 9426,
      "Tah": 9427,
      "_len": 9428,
      "bad": 9429,
      "fun": 9430,
      "first": 9431,
      "kÄ±n": 9432,
      "ux": 9433,
      "xml": 9434,
      "Â´": 9435,
      "Â¶": 9436,
      "Ġtec": 9437,
      "Ġtabi": 9438,
      "Ġctypes": 9439,
      "irk": 9440,
      "Ġnaz": 9441,
      "Ġnedeni": 9442,
      "ayabilir": 9443,
      "asc": 9444,
      "decoder": 9445,
      "Ġredd": 9446,
      "ĠSec": 9447,
      "Ä±rt": 9448,
      "Ġbeer": 9449,
      "ĠBÃ¶yle": 9450,
      "ĠBÃ¼yÃ¼k": 9451,
      "ĠĠĠĠĠĠĠĠĠĠĠĠĠĠĠĠĠĠĠĠĠĠĠĠĠĠĠĠĠĠĠĠĠ": 9452,
      "ĠLee": 9453,
      "ĠDem": 9454,
      "endin": 9455,
      "ĠTra": 9456,
      "Ġ()Ċ": 9457,
      "ibe": 9458,
      "ersiz": 9459,
      "allen": 9460,
      "ĠRus": 9461,
      "ĠRead": 9462,
      "Ġsuffer": 9463,
      "Ġelem": 9464,
      "ayÄ±cÄ±": 9465,
      "ĠÃ§Ä±kan": 9466,
      "actory": 9467,
[...]
