{
  "version": "1.0",
  "truncation": null,
  "padding": null,
  "added_tokens": [
    {
      "id": 0,
      "content": "<unk>",
      "single_word": false,
      "lstrip": false,
      "rstrip": false,
      "normalized": false,
      "special": true
    },
    {
      "id": 1,
      "content": "<s>",
      "single_word": false,
      "lstrip": false,
      "rstrip": false,
      "normalized": false,
      "special": true
    },
    {
      "id": 2,
      "content": "</s>",
      "single_word": false,
      "lstrip": false,
      "rstrip": false,
      "normalized": false,
      "special": true
    },
    {
      "id": 3,
      "content": "<pad>",
      "single_word": false,
      "lstrip": false,
      "rstrip": false,
      "normalized": false,
      "special": true
    },
    {
      "id": 4,
      "content": "<|system|>",
      "single_word": false,
      "lstrip": false,
      "rstrip": false,
      "normalized": false,
      "special": true
    },
    {
      "id": 5,
      "content": "<|user|>",
      "single_word": false,
      "lstrip": false,
      "rstrip": false,
      "normalized": false,
      "special": true
    },
    {
      "id": 6,
      "content": "<|assistant|>",
      "single_word": false,
      "lstrip": false,
      "rstrip": false,
      "normalized": false,
      "special": true
    },
    {
      "id": 7,
      "content": "<|end|>",
      "single_word": false,
      "lstrip": false,
      "rstrip": false,
      "normalized": false,
      "special": true
    },
    {
      "id": 8,
      "content": "<|code|>",
      "single_word": false,
      "lstrip": false,
      "rstrip": false,
      "normalized": false,
      "special": true
    }
  ],
  "normalizer": null,
  "pre_tokenizer": {
    "type": "Sequence",
    "pretokenizers": [
      {
        "type": "Split",
        "pattern": {
          "Regex": "'(?i:[sdmt]|ll|ve|re)|[^\\r\\n\\p{L}\\p{N}]?+\\p{L}++|\\p{N}{1,3}+| ?[^\\s\\p{L}\\p{N}]++[\\r\\n]*+|\\s*[\\r\\n]|\\s+(?!\\S)|\\s+"
        },
        "behavior": "Isolated",
        "invert": false
      },
      {
        "type": "ByteLevel",
        "add_prefix_space": false,
        "trim_offsets": true,
        "use_regex": false
      }
    ]
  },
  "post_processor": {
    "type": "ByteLevel",
    "add_prefix_space": true,
    "trim_offsets": false,
    "use_regex": true
  },
  "decoder": {
    "type": "ByteLevel",
    "add_prefix_space": true,
    "trim_offsets": true,
    "use_regex": true
  },
  "model": {
    "type": "BPE",
    "dropout": null,
    "unk_token": "<unk>",
    "continuing_subword_prefix": null,
    "end_of_word_suffix": null,
    "fuse_unk": false,
    "byte_fallback": false,
    "ignore_merges": false,
    "vocab": {
      "<unk>": 0,
      "<s>": 1,
      "</s>": 2,
      "<pad>": 3,
      "<|system|>": 4,
      "<|user|>": 5,
      "<|assistant|>": 6,
      "<|end|>": 7,
      "<|code|>": 8,
      "!": 9,
      "\"": 10,
      "#": 11,
      "$": 12,
      "%": 13,
      "&": 14,
      "'": 15,
      "(": 16,
      ")": 17,
      "*": 18,
      "+": 19,
      ",": 20,
      "-": 21,
      ".": 22,
      "/": 23,
      "0": 24,
      "1": 25,
      "2": 26,
      "3": 27,
      "4": 28,
      "5": 29,
      "6": 30,
      "7": 31,
      "8": 32,
      "9": 33,
      ":": 34,
      ";": 35,
      "<": 36,
      "=": 37,
      ">": 38,
      "?": 39,
      "@": 40,
      "A": 41,
      "B": 42,
      "C": 43,
      "D": 44,
      "E": 45,
      "F": 46,
      "G": 47,
      "H": 48,
      "I": 49,
      "J": 50,
      "K": 51,
      "L": 52,
      "M": 53,
      "N": 54,
      "O": 55,
      "P": 56,
      "Q": 57,
      "R": 58,
      "S": 59,
      "T": 60,
      "U": 61,
      "V": 62,
      "W": 63,
      "X": 64,
      "Y": 65,
      "Z": 66,
      "[": 67,
      "\\": 68,
      "]": 69,
      "^": 70,
      "_": 71,
      "`": 72,
      "a": 73,
      "b": 74,
      "c": 75,
      "d": 76,
      "e": 77,
      "f": 78,
      "g": 79,
      "h": 80,
      "i": 81,
      "j": 82,
      "k": 83,
      "l": 84,
      "m": 85,
      "n": 86,
      "o": 87,
      "p": 88,
      "q": 89,
      "r": 90,
      "s": 91,
      "t": 92,
      "u": 93,
      "v": 94,
      "w": 95,
      "x": 96,
      "y": 97,
      "z": 98,
      "{": 99,
      "|": 100,
      "}": 101,
      "~": 102,
      "¡": 103,
      "¢": 104,
      "£": 105,
      "¤": 106,
      "¥": 107,
      "¦": 108,
      "§": 109,
      "¨": 110,
      "©": 111,
      "ª": 112,
      "«": 113,
      "¬": 114,
      "®": 115,
      "¯": 116,
      "°": 117,
      "±": 118,
      "²": 119,
      "³": 120,
      "´": 121,
      "µ": 122,
      "¶": 123,
      "·": 124,
      "¸": 125,
      "¹": 126,
      "º": 127,
      "»": 128,
      "¼": 129,
      "½": 130,
      "¾": 131,
      "¿": 132,
      "À": 133,
      "Á": 134,
      "Â": 135,
      "Ã": 136,
      "Ä": 137,
      "Å": 138,
      "Æ": 139,
      "Ç": 140,
      "È": 141,
      "É": 142,
      "Ê": 143,
      "Ë": 144,
      "Ì": 145,
      "Í": 146,
      "Î": 147,
      "Ï": 148,
      "Ð": 149,
      "Ñ": 150,
      "Ò": 151,
      "Ó": 152,
      "Ô": 153,
      "Õ": 154,
      "Ö": 155,
      "×": 156,
      "Ø": 157,
      "Ù": 158,
      "Ú": 159,
      "Û": 160,
      "Ü": 161,
      "Ý": 162,
      "Þ": 163,
      "ß": 164,
      "à": 165,
      "á": 166,
      "â": 167,
      "ã": 168,
      "ä": 169,
      "å": 170,
      "æ": 171,
      "ç": 172,
      "è": 173,
      "é": 174,
      "ê": 175,
      "ë": 176,
      "ì": 177,
      "í": 178,
      "î": 179,
      "ï": 180,
      "ð": 181,
      "ñ": 182,
      "ò": 183,
      "ó": 184,
      "ô": 185,
      "õ": 186,
      "ö": 187,
      "÷": 188,
      "ø": 189,
      "ù": 190,
      "ú": 191,
      "û": 192,
      "ü": 193,
      "ý": 194,
      "þ": 195,
      "ÿ": 196,
      "Ā": 197,
      "ā": 198,
      "Ă": 199,
      "ă": 200,
      "Ą": 201,
      "ą": 202,
      "Ć": 203,
      "ć": 204,
      "Ĉ": 205,
      "ĉ": 206,
      "Ċ": 207,
      "ċ": 208,
      "Č": 209,
      "č": 210,
      "Ď": 211,
      "ď": 212,
      "Đ": 213,
      "đ": 214,
      "Ē": 215,
      "ē": 216,
      "Ĕ": 217,
      "ĕ": 218,
      "Ė": 219,
      "ė": 220,
      "Ę": 221,
      "ę": 222,
      "Ě": 223,
      "ě": 224,
      "Ĝ": 225,
      "ĝ": 226,
      "Ğ": 227,
      "ğ": 228,
      "Ġ": 229,
      "ġ": 230,
      "Ģ": 231,
      "ģ": 232,
      "Ĥ": 233,
      "ĥ": 234,
      "Ħ": 235,
      "ħ": 236,
      "Ĩ": 237,
      "ĩ": 238,
      "Ī": 239,
      "ī": 240,
      "Ĭ": 241,
      "ĭ": 242,
      "Į": 243,
      "į": 244,
      "İ": 245,
      "ı": 246,
      "Ĳ": 247,
      "ĳ": 248,
      "Ĵ": 249,
      "ĵ": 250,
      "Ķ": 251,
      "ķ": 252,
      "ĸ": 253,
      "Ĺ": 254,
      "ĺ": 255,
      "Ļ": 256,
      "ļ": 257,
      "Ľ": 258,
      "ľ": 259,
      "Ŀ": 260,
      "ŀ": 261,
      "Ł": 262,
      "ł": 263,
      "Ń": 264,
      "ĠĠ": 265,
      "ĠĠĠĠ": 266,
      "Ä±": 267,
      ".Ċ": 268,
      "in": 269,
      "er": 270,
      "an": 271,
      "Ġb": 272,
      "Ġt": 273,
      "en": 274,
      "ar": 275,
      "Ġs": 276,
      "or": 277,
      "Ġd": 278,
      "Ã¼": 279,
      "ÅŁ": 280,
      "Ġo": 281,
      "Ġi": 282,
      "Ġa": 283,
      "ĠĠĠ": 284,
      "Ġy": 285,
      "el": 286,
      "ir": 287,
      "Ġg": 288,
      "Ġm": 289,
      "ĠĠĠĠĠĠĠĠ": 290,
      "at": 291,
      "Ġth": 292,
      "Ġk": 293,
      "on": 294,
      "Ġh": 295,
      "le": 296,
      "ÄŁ": 297,
      "ou": 298,
      "?Ċ": 299,
      "al": 300,
      "Ã§": 301,
      "et": 302,
      "am": 303,
      "im": 304,
      "Ä±n": 305,
      "il": 306,
      "un": 307,
      "ed": 308,
      "es": 309,
      "Ġw": 310,
      "ay": 311,
      "ak": 312,
      "Ã¶": 313,
      "st": 314,
      "ad": 315,
      "Ġc": 316,
      "Ġn": 317,
      "yor": 318,
      "Ġf": 319,
      "ur": 320,
      "Ġthe": 321,
      "ek": 322,
      "as": 323,
      "ĠĠĠĠĠĠĠ": 324,
      "it": 325,
      "Ġv": 326,
      "Ġp": 327,
      "ing": 328,
      "is": 329,
      "ey": 330,
      "Ġbir": 331,
      "ec": 332,
      "Ġr": 333,
      "um": 334,
      "lar": 335,
      "Ġyou": 336,
      "em": 337,
      "Ġto": 338,
      "Ä±m": 339,
      "..": 340,
      "iz": 341,
      "Ġ'": 342,
      "Ġol": 343,
      "ac": 344,
      "Ġde": 345,
      "Ġan": 346,
      "!Ċ": 347,
      "Ġin": 348,
      "Ä±r": 349,
      "om": 350,
      "li": 351,
      "ot": 352,
      "ab": 353,
      "ap": 354,
      "ut": 355,
      "de": 356,
      "ĠI": 357,
      "ok": 358,
      "elf": 359,
      "iyor": 360,
      "ĠÃ§": 361,
      "Ã¼n": 362,
      ":Ċ": 363,
      "re": 364,
      "ler": 365,
      "di": 366,
      ")Ċ": 367,
      "ow": 368,
      "Ġon": 369,
      "ah": 370,
      "Ġ=": 371,
      "ti": 372,
      "Ġe": 373,
      "ĠB": 374,
      "ĠÅŁ": 375,
      "ve": 376,
      "'s": 377,
      "ul": 378,
      "ĠS": 379,
      "ol": 380,
      "Ġl": 381,
      "Ġis": 382,
      "id": 383,
      "ce": 384,
      "aÅŁ": 385,
      "Ġof": 386,
      "Ä±z": 387,
      "se": 388,
      "ĠĠĠĠĠĠĠĠĠĠĠ": 389,
      "Ġar": 390,
      "Ä±k": 391,
      "ĠA": 392,
      "az": 393,
      "da": 394,
      "Ġ#": 395,
      "Th": 396,
      "Ġal": 397,
      "du": 398,
      "Ġit": 399,
      "Ġ\"": 400,
      "Ġand": 401,
      "--": 402,
      "ere": 403,
      "ĠÃ¶": 404,
      "ent": 405,
      "Ä±ÅŁ": 406,
      "Ġu": 407,
      "Ġself": 408,
      "Ġne": 409,
      "Ä±yor": 410,
      "ma": 411,
      "Ġbe": 412,
      "Ä±l": 413,
      "ic": 414,
      "'t": 415,
      "iy": 416,
      "ik": 417,
      "ĠiÃ§": 418,
      "sun": 419,
      "ig": 420,
      "Ġwh": 421,
      "Ġve": 422,
      "ĠgÃ¶": 423,
      "Ġfor": 424,
      "Ġdo": 425,
      "Ġbu": 426,
      "Ã¼r": 427,
      "ĠL": 428,
      "od": 429,
      "aÄŁ": 430,
      "end": 431,
      "yle": 432,
      "Ġthat": 433,
      "Ġyap": 434,
      "ĠN": 435,
      "ĠD": 436,
      "ĠC": 437,
      "ine": 438,
      "ĠM": 439,
      "ile": 440,
      "Ġif": 441,
      "ĠH": 442,
      "Ġ-": 443,
      "ĠĠĠĠĠĠĠĠĠĠĠĠĠĠĠĠ": 444,
      "eni": 445,
      "la": 446,
      "ĠiÃ§in": 447,
      "ver": 448,
      "Ã¼z": 449,
      "and": 450,
      "ini": 451,
      "iÅŁ": 452,
      "Ġst": 453,
      "...Ċ": 454,
      "ĠT": 455,
      "unu": 456,
      "Ġme": 457,
      "ĠdeÄŁ": 458,
      "ana": 459,
      "Ä°": 460,
      "ht": 461,
      "...": 462,
      "Ġz": 463,
      "ame": 464,
      "ld": 465,
      "Ġvar": 466,
      "oc": 467,
      "ĠÅŁey": 468,
      "Ġnot": 469,
      "):Ċ": 470,
      "Ġha": 471,
      "ly": 472,
      "You": 473,
      "op": 474,
      "ion": 475,
      "te": 476,
      "th": 477,
      "Ġist": 478,
      "self": 479,
      "Ġse": 480,
      "ch": 481,
      "Ä±nÄ±": 482,
      "ib": 483,
      "ĠdeÄŁil": 484,
      "__": 485,
      "urn": 486,
      "Ä±ÄŁ": 487,
      "ith": 488,
      "00": 489,
      "Bu": 490,
      "ece": 491,
      "nd": 492,
      "Ġmi": 493,
      "one": 494,
      "Ã¶yle": 495,
      "'Ċ": 496,
      "Ġda": 497,
      "iyorum": 498,
      "\"\"": 499,
      "Wh": 500,
      "ĠmÄ±": 501,
      "ers": 502,
      ",Ċ": 503,
      "Ġhe": 504,
      "ĠG": 505,
      "Ġmu": 506,
      "den": 507,
      "Ġgel": 508,
      "Ġli": 509,
      "eturn": 510,
      "Ġ(": 511,
      "Ġor": 512,
      "Ã¼m": 513,
      "est": 514,
      "Ġre": 515,
      "Ã¼ÅŁ": 516,
      "uz": 517,
      "Ġet": 518,
      "ra": 519,
      "Ġed": 520,
      "ĠK": 521,
      "Ġas": 522,
      "Ġbil": 523,
      "Ġben": 524,
      "ĠP": 525,
      "ĠO": 526,
      "dan": 527,
      "ĠE": 528,
      "Ġoldu": 529,
      "Ġolm": 530,
      "Ġsh": 531,
      "Ġdef": 532,
      "Ġver": 533,
      "ter": 534,
      "Ġger": 535,
      "uÅŁ": 536,
      "ell": 537,
      "ĠĠĠĠĠĠĠĠĠĠĠĠĠĠĠ": 538,
      "Ġpr": 539,
      "Ġwith": 540,
      "Ġwe": 541,
      "ilir": 542,
      "ll": 543,
      "Ġthis": 544,
      "tion": 545,
      "ue": 546,
      "os": 547,
      "Ġher": 548,
      "ight": 549,
      "ip": 550,
      "Ġreturn": 551,
      "ess": 552,
      "ant": 553,
      "ass": 554,
      "ĠR": 555,
      "ome": 556,
      "Ãĩ": 557,
      "Ä±nda": 558,
      "ard": 559,
      "Ġgo": 560,
      "Ġget": 561,
      "acak": 562,
      "Ã¼k": 563,
      "aya": 564,
      "yi": 565,
      "ack": 566,
      "ĠgÃ¶r": 567,
      "Ġkad": 568,
      "Ġhave": 569,
      "Ġcan": 570,
      "us": 571,
      "ry": 572,
      "Ġ'\\": 573,
      "sÄ±n": 574,
      "sin": 575,
      "Ġat": 576,
      "Ġwas": 577,
      "Ġsen": 578,
      "Bir": 579,
      "ust": 580,
      "aha": 581,
      "----": 582,
      "ill": 583,
      "ada": 584,
      "ĠF": 585,
      "if": 586,
      "(self": 587,
      "Ġex": 588,
      "Ġyour": 589,
      "av": 590,
      "Ġkn": 591,
      "ect": 592,
      "ÄŁim": 593,
      "ould": 594,
      "Ġel": 595,
      "ort": 596,
      "Ġare": 597,
      "ĠÃ§ok": 598,
      "art": 599,
      "Ben": 600,
      "'m": 601,
      "all": 602,
      "larÄ±": 603,
      "amam": 604,
      "._": 605,
      "vet": 606,
      "uk": 607,
      "ge": 608,
      "Ġad": 609,
      "ind": 610,
      "mek": 611,
      "Ġj": 612,
      "asÄ±": 613,
      "Åŀ": 614,
      "ate": 615,
      "ki": 616,
      "'re": 617,
      "aman": 618,
      "Ġfr": 619,
      "Ġmy": 620,
      "ĠbaÅŁ": 621,
      "ĠsÃ¶yle": 622,
      "Ġknow": 623,
      "ayÄ±r": 624,
      "ĠW": 625,
      "ĠiÅŁ": 626,
      "mak": 627,
      "ER": 628,
      "uy": 629,
      "iÃ§": 630,
      "ĠolduÄŁ": 631,
      "up": 632,
      "Ġ->": 633,
      "ob": 634,
      "\"Ċ": 635,
      "ath": 636,
      "ta": 637,
      "Ġen": 638,
      "out": 639,
      "Ġson": 640,
      "lan": 641,
      "Ä±na": 642,
      "On": 643,
      "acaÄŁ": 644,
      "iniz": 645,
      "Ġkadar": 646,
      "tr": 647,
      "Ġyok": 648,
      "The": 649,
      "ist": 650,
      "dÄ±": 651,
      "xt": 652,
      "pr": 653,
      "IN": 654,
      "Ġdaha": 655,
      "eden": 656,
      "af": 657,
      "ke": 658,
      "Ġkal": 659,
      "iler": 660,
      "Ġgib": 661,
      "Ġcon": 662,
      "Ġlo": 663,
      "Ġch": 664,
      "ation": 665,
      "edi": 666,
      "ĠY": 667,
      "ecek": 668,
      "ize": 669,
      "miÅŁ": 670,
      "eb": 671,
      "Ġ_": 672,
      "lÄ±": 673,
      "ime": 674,
      "Ġkon": 675,
      "Ġzaman": 676,
      "Ġpar": 677,
      "ie": 678,
      "ĠJ": 679,
      "'d": 680,
      "ÄŁr": 681,
      "ror": 682,
      "ayÄ±": 683,
      "Ġle": 684,
      "Ã¼yor": 685,
      "qu": 686,
      "Ġama": 687,
      "me": 688,
      "Ġbul": 689,
      "Ġall": 690,
      "eth": 691,
      "ode": 692,
      "AL": 693,
      "Ġ\"\"\"": 694,
      "Ġkar": 695,
      "Ġgibi": 696,
      "Ġev": 697,
      "Ġab": 698,
      "lam": 699,
      "It": 700,
      "abilir": 701,
      "ĠÃ¶n": 702,
      "Ġdon": 703,
      "port": 704,
      "Ġiyi": 705,
      "uyor": 706,
      "ep": 707,
      "Ġbur": 708,
      "ĠdÃ¼ÅŁ": 709,
      "',": 710,
      "Ġout": 711,
      "What": 712,
      "san": 713,
      "Ġwhat": 714,
      "aÃ§": 715,
      "lass": 716,
      "sa": 717,
      "ast": 718,
      "Ġun": 719,
      "ake": 720,
      "Ne": 721,
      "mÄ±ÅŁ": 722,
      "ĠÃ§Ä±k": 723,
      "uc": 724,
      "alÄ±": 725,
      "Ġki": 726,
      "eri": 727,
      "oy": 728,
      "ore": 729,
      "Sen": 730,
      "ork": 731,
      "ET": 732,
      "Ãĸ": 733,
      "mey": 734,
      "Ġbak": 735,
      "Ġup": 736,
      "ink": 737,
      "Ä±yorum": 738,
      "get": 739,
      "Ġcom": 740,
      "Ġus": 741,
      "man": 742,
      "eÃ§": 743,
      "larÄ±n": 744,
      "ff": 745,
      "ĠĠĠĠĠĠĠĠĠĠĠĠ": 746,
      "isin": 747,
      "TER": 748,
      "iyorsun": 749,
      "lik": 750,
      "name": 751,
      "ten": 752,
      "alar": 753,
      "Ġjust": 754,
      "Ġay": 755,
      "Ġsor": 756,
      "pt": 757,
      "Ġso": 758,
      "pe": 759,
      "Ã¼t": 760,
      "ĠNone": 761,
      "Ġfrom": 762,
      "tÄ±": 763,
      "he": 764,
      "Ã¼y": 765,
      "Ġhere": 766,
      "ĠÃ§al": 767,
      "inde": 768,
      "leri": 769,
      "ev": 770,
      "('": 771,
      "ase": 772,
      "Ġlike": 773,
      "Ġgerek": 774,
      "ans": 775,
      "AT": 776,
      "'ll": 777,
      "eki": 778,
      "ise": 779,
      "()": 780,
      "Ġhim": 781,
      "dum": 782,
      "Er": 783,
      "()Ċ": 784,
      "asÄ±l": 785,
      "Ġwant": 786,
      "ĠV": 787,
      "Ġgit": 788,
      "ally": 789,
      "eÅŁ": 790,
      "na": 791,
      "Ġtr": 792,
      "And": 793,
      "Ġabout": 794,
      "Ġright": 795,
      "lay": 796,
      "Ġby": 797,
      "ETTER": 798,
      "app": 799,
      "lo": 800,
      "ĠLETTER": 801,
      "Ġhis": 802,
      "ĠdÃ¼ÅŁÃ¼n": 803,
      "esi": 804,
      "Ġwill": 805,
      "adece": 806,
      "ĠolduÄŁunu": 807,
      "alue": 808,
      "ark": 809,
      "IT": 810,
      "Ġsu": 811,
      "HayÄ±r": 812,
      "We": 813,
      "Ġthere": 814,
      "dir": 815,
      "Evet": 816,
      "Ġbut": 817,
      "ĠgÃ¼n": 818,
      "set": 819,
      "len": 820,
      "dÄ±r": 821,
      "our": 822,
      "ĠgeÃ§": 823,
      "ult": 824,
      "tir": 825,
      "Ġim": 826,
      "der": 827,
      "Ġac": 828,
      "Ġdid": 829,
      "Ã¢": 830,
      "Ġthey": 831,
      "imdi": 832,
      "oth": 833,
      "ure": 834,
      "An": 835,
      "\\n": 836,
      "ÄŁi": 837,
      "Ġno": 838,
      "Ġsa": 839,
      "mem": 840,
      "ound": 841,
      "ĠdÃ¶": 842,
      "Ġany": 843,
      "iye": 844,
      "Ġbenim": 845,
      "ne": 846,
      "Ama": 847,
      "ĠÃ§alÄ±ÅŁ": 848,
      "Ġone": 849,
      "ang": 850,
      "able": 851,
      "Error": 852,
      "Ġyer": 853,
      "ÄŁini": 854,
      "eler": 855,
      "oug": 856,
      "ĠhiÃ§": 857,
      "Ġsay": 858,
      "##": 859,
      "Ġdur": 860,
      "izi": 861,
      "Ġgot": 862,
      "ive": 863,
      "ca": 864,
      "Ã¼zel": 865,
      "That": 866,
      "ven": 867,
      "Ġ'Ċ": 868,
      "tÄ±k": 869,
      "==": 870,
      "oÅŁ": 871,
      "Ã§ek": 872,
      "Ġbana": 873,
      "',Ċ": 874,
      "ty": 875,
      "Ġgid": 876,
      "ez": 877,
      "dim": 878,
      "Ġtan": 879,
      "orm": 880,
      "lat": 881,
      "lu": 882,
      "Ä±y": 883,
      "He": 884,
      "ace": 885,
      "Ãĩok": 886,
      "--------": 887,
      "Ä±mÄ±z": 888,
      "fr": 889,
      "ĠU": 890,
      "ÄŁer": 891,
      "':": 892,
      "Ġsev": 893,
      "Ġadam": 894,
      "gs": 895,
      ".c": 896,
      "ost": 897,
      "ain": 898,
      "ple": 899,
      "lad": 900,
      "Ġres": 901,
      "ock": 902,
      "Ġthink": 903,
      "Ġkim": 904,
      "ĠĠĠĠĠĠĠĠĠĠĠĠĠĠĠĠĠĠĠ": 905,
      "ide": 906,
      "ĠÄ°": 907,
      "Ġil": 908,
      "_c": 909,
      "ong": 910,
      "ĠkonuÅŁ": 911,
      "Ġonu": 912,
      "ani": 913,
      "Ġsp": 914,
      "ken": 915,
      "]Ċ": 916,
      "Tamam": 917,
      "str": 918,
      "aba": 919,
      "mam": 920,
      "Ã¼Ã§": 921,
      "ber": 922,
      "Ġop": 923,
      "Ġbeni": 924,
      "No": 925,
      "ĠyaÅŁ": 926,
      "Ġstr": 927,
      "tan": 928,
      "ject": 929,
      "ka": 930,
      "aki": 931,
      "Ġmusun": 932,
      "'n": 933,
      "tÄ±r": 934,
      "bir": 935,
      "Ä±s": 936,
      "Ä±yorsun": 937,
      "ef": 938,
      "og": 939,
      "Ġolur": 940,
      "Ġgir": 941,
      "int": 942,
      "Ġname": 943,
      "inle": 944,
      "Ġra": 945,
      "tÄ±ÄŁ": 946,
      "Ġtek": 947,
      "Ġelse": 948,
      "'ve": 949,
      "ord": 950,
      "Ġwho": 951,
      "isi": 952,
      "own": 953,
      "acaÄŁÄ±m": 954,
      "inin": 955,
      "Ġbel": 956,
      "Ġsome": 957,
      "adan": 958,
      "Ġtime": 959,
      "Ġhay": 960,
      "ĠyÃ¼z": 961,
      "Oh": 962,
      "led": 963,
      "una": 964,
      "This": 965,
      "Ã¶r": 966,
      ".p": 967,
      "Ġthem": 968,
      "Ġyar": 969,
      "Ġsan": 970,
      "ov": 971,
      "Ä±rak": 972,
      "Ġ*": 973,
      "adi": 974,
      "Ġhas": 975,
      "odu": 976,
      "Ġkur": 977,
      "ered": 978,
      "\",": 979,
      "ĠaÃ§": 980,
      "tim": 981,
      "ata": 982,
      "ook": 983,
      "ich": 984,
      "Ä±ndan": 985,
      "use": 986,
      "ick": 987,
      "unc": 988,
      "alk": 989,
      "ĠsÃ¶": 990,
      "day": 991,
      "ardÄ±m": 992,
      "ert": 993,
      "Ġyol": 994,
      "ex": 995,
      "ars": 996,
      "ĠÃ¶ld": 997,
      "Ġ+": 998,
      "Ġsonra": 999,
      "Her": 1000,
      "Ġhak": 1001,
      "Ve": 1002,
      "Bur": 1003,
      "ag": 1004,
      "Ã¼ÄŁ": 1005,
      "emek": 1006,
      "age": 1007,
      "Ä±nÄ±z": 1008,
      "Ġmisin": 1009,
      "eye": 1010,
      "Ġbile": 1011,
      "')Ċ": 1012,
      "ĠnasÄ±l": 1013,
      "eceÄŁim": 1014,
      "mel": 1015,
      "ATIN": 1016,
      "ĠLATIN": 1017,
      "ika": 1018,
      "ya": 1019,
      "text": 1020,
      "kÃ¼": 1021,
      "Ġseni": 1022,
      "Ġman": 1023,
      "ite": 1024,
      "unun": 1025,
      "ix": 1026,
      "Ġer": 1027,
      "Ġ[": 1028,
      "Ġneed": 1029,
      "ĠNe": 1030,
      "ĠÃ¶nce": 1031,
      "to": 1032,
      "Ġback": 1033,
      "kay": 1034,
      "ĠkÄ±z": 1035,
      "Ġob": 1036,
      "Ġbunu": 1037,
      "Hey": 1038,
      "Ġsee": 1039,
      "Ġolan": 1040,
      "Ġshe": 1041,
      "ance": 1042,
      "ON": 1043,
      "def": 1044,
      "gÃ¼n": 1045,
      "Ġtak": 1046,
      "ther": 1047,
      "Ġ%": 1048,
      "yn": 1049,
      "ĠÃ¼z": 1050,
      "Ġyak": 1051,
      "men": 1052,
      "Ġsana": 1053,
      "))Ċ": 1054,
      "ment": 1055,
      "cr": 1056,
      "Ã¼l": 1057,
      "tur": 1058,
      "Ġwould": 1059,
      "Ġnow": 1060,
      "ayan": 1061,
      "pl": 1062,
      "ĠÃ§oc": 1063,
      "Ar": 1064,
      "Ġkend": 1065,
      "Ġtar": 1066,
      "eah": 1067,
      "Ġem": 1068,
      "ayb": 1069,
      "Ġtry": 1070,
      "Ġuy": 1071,
      "class": 1072,
      "Ġever": 1073,
      "_s": 1074,
      "imiz": 1075,
      "ilen": 1076,
      "lara": 1077,
      "Ġsenin": 1078,
      "Ġte": 1079,
      "Ġwhen": 1080,
      "ĠkÃ¶": 1081,
      "Ġiz": 1082,
      "ri": 1083,
      "lÄ±k": 1084,
      "ary": 1085,
      "ub": 1086,
      "read": 1087,
      "way": 1088,
      "laÅŁ": 1089,
      "odule": 1090,
      "Ġ==": 1091,
      "But": 1092,
      "let": 1093,
      "ank": 1094,
      "Ġduy": 1095,
      "uck": 1096,
      "ity": 1097,
      "Ġoff": 1098,
      "enc": 1099,
      "Ġzor": 1100,
      "ĠbÄ±rak": 1101,
      ".\"Ċ": 1102,
      "ild": 1103,
      "Ġhal": 1104,
      "maya": 1105,
      "Ä±rÄ±m": 1106,
      "unda": 1107,
      "tor": 1108,
      "(\"": 1109,
      "ÄŁin": 1110,
      "Ã¼nkÃ¼": 1111,
      "onna": 1112,
      "Ġistem": 1113,
      "ĠThe": 1114,
      "larak": 1115,
      "Ġ__": 1116,
      "fen": 1117,
      "Ġraise": 1118,
      "Ä±nÄ±n": 1119,
      "ĠdÃ¶n": 1120,
      "ĠÃ¶yle": 1121,
      "ings": 1122,
      "ug": 1123,
      "ĠgerÃ§ek": 1124,
      "Ġlook": 1125,
      "tÃ¼": 1126,
      "ous": 1127,
      "ĠsÃ¼r": 1128,
      "llah": 1129,
      "Ġya": 1130,
      "Ã¼yÃ¼k": 1131,
      "Bunu": 1132,
      "RA": 1133,
      "other": 1134,
      "Ġkul": 1135,
      "esin": 1136,
      "anÄ±": 1137,
      "Ġbeen": 1138,
      "alÄ±m": 1139,
      "ach": 1140,
      "ĠCh": 1141,
      "Ġolarak": 1142,
      "Ġbit": 1143,
      "tu": 1144,
      "Ġbiz": 1145,
      "Ġgoing": 1146,
      "ĠyÄ±l": 1147,
      "ose": 1148,
      "So": 1149,
      "Ġgonna": 1150,
      "Ġinsan": 1151,
      "ĠBu": 1152,
      "ĠgÃ¼zel": 1153,
      "ley": 1154,
      "atch": 1155,
      "Ġother": 1156,
      "Ġburada": 1157,
      "ster": 1158,
      "yth": 1159,
      "cÄ±": 1160,
      "Ġyet": 1161,
      "itt": 1162,
      "adÄ±ÄŁ": 1163,
      "ro": 1164,
      "Ã¼tfen": 1165,
      "tÄ±m": 1166,
      "erim": 1167,
      "In": 1168,
      "edim": 1169,
      "ALL": 1170,
      "din": 1171,
      "Ġam": 1172,
      "Ġolacak": 1173,
      "ĠBen": 1174,
      "Ġshould": 1175,
      "ÄŁru": 1176,
      "Well": 1177,
      "Do": 1178,
      "arÄ±": 1179,
      "Ġwere": 1180,
      "_p": 1181,
      "ish": 1182,
      "Ġistiyorum": 1183,
      "Ġcould": 1184,
      "Seni": 1185,
      "iyim": 1186,
      ">>": 1187,
      "Ġark": 1188,
      "tin": 1189,
      "ebilir": 1190,
      "Ġ\"\"\"Ċ": 1191,
      "ĠYou": 1192,
      "Ġhad": 1193,
      ".__": 1194,
      "cept": 1195,
      "ough": 1196,
      "Ġhar": 1197,
      "imi": 1198,
      "ethod": 1199,
      "Åŀimdi": 1200,
      "Ġsadece": 1201,
      "Ġfile": 1202,
      "ĠbÃ¶yle": 1203,
      "dÄ±m": 1204,
      "iv": 1205,
      "ĠÃ¶ldÃ¼r": 1206,
      "Ġgood": 1207,
      "ice": 1208,
      "RE": 1209,
      "Ãľ": 1210,
      "Ġnew": 1211,
      "Ġuz": 1212,
      "ĠĠĠĠĠĠĠĠĠ": 1213,
      "Ä°ÅŁ": 1214,
      "Ġimport": 1215,
      "Ġbek": 1216,
      "meye": 1217,
      "ĠÃ§ek": 1218,
      "_f": 1219,
      "Ġbr": 1220,
      "LE": 1221,
      "Ġag": 1222,
      ".s": 1223,
      "ili": 1224,
      "Ġak": 1225,
      "mez": 1226,
      "Ġgr": 1227,
      "Ġonun": 1228,
      "ĠgÃ¼": 1229,
      "ĠSM": 1230,
      "fer": 1231,
      "AP": 1232,
      "eli": 1233,
      "Ġlist": 1234,
      "Ġover": 1235,
      "\"\"\"Ċ": 1236,
      "elp": 1237,
      "ĠyardÄ±m": 1238,
      "Ġcall": 1239,
      "Ġfe": 1240,
      "Ġile": 1241,
      "Ġgetir": 1242,
      "Ġkap": 1243,
      "Ä±mÄ±": 1244,
      "les": 1245,
      "IG": 1246,
      "alan": 1247,
      "ause": 1248,
      "Ġih": 1249,
      "ĠkaÃ§": 1250,
      "Ġfir": 1251,
      "They": 1252,
      "Ġvalue": 1253,
      "Ä±p": 1254,
      "__(": 1255,
      "tiy": 1256,
      "endi": 1257,
      "dur": 1258,
      "Ġbiraz": 1259,
      "ated": 1260,
      "Ġwork": 1261,
      "adaÅŁ": 1262,
      "muÅŁ": 1263,
      "ĠgÃ¶re": 1264,
      "elim": 1265,
      "ĠSMALL": 1266,
      "asÄ±nÄ±": 1267,
      "ft": 1268,
      "ls": 1269,
      "ĠmÃ¼": 1270,
      "tions": 1271,
      "Ġyan": 1272,
      "Ġtut": 1273,
      "Ġour": 1274,
      "ese": 1275,
      "None": 1276,
      "ĠÃ§ocuk": 1277,
      "ign": 1278,
      "Ġset": 1279,
      "Ġsom": 1280,
      "par": 1281,
      "**": 1282,
      "Onu": 1283,
      "ĠBir": 1284,
      "yon": 1285,
      "Ġtell": 1286,
      "ype": 1287,
      "form": 1288,
      "ody": 1289,
      "ci": 1290,
      "Ġgeldi": 1291,
      "'Ä±n": 1292,
      "maz": 1293,
      "Ġwr": 1294,
      "ents": 1295,
      "Ġilg": 1296,
      "Ġcome": 1297,
      "Ġobject": 1298,
      "ĠAn": 1299,
      "larÄ±nÄ±": 1300,
      "ond": 1301,
      "amaz": 1302,
      "ekk": 1303,
      "Bana": 1304,
      "ething": 1305,
      "Benim": 1306,
      "Ġdoes": 1307,
      "ames": 1308,
      "ait": 1309,
      "ave": 1310,
      "erh": 1311,
      "Ġnum": 1312,
      "IC": 1313,
      "Ġbiliyor": 1314,
      "anr": 1315,
      "ĠÃ¶l": 1316,
      "ĠkarÅŁ": 1317,
      "ies": 1318,
      "ault": 1319,
      "Ġthen": 1320,
      "Ġhayat": 1321,
      "Ġfaz": 1322,
      "Ġhat": 1323,
      "iss": 1324,
      "wo": 1325,
      "Ġsiz": 1326,
      "Ġmore": 1327,
      "ader": 1328,
      "),": 1329,
      "Ġway": 1330,
      "mad": 1331,
      "10": 1332,
      "oun": 1333,
      "ree": 1334,
      "eck": 1335,
      "ence": 1336,
      "put": 1337,
      "ys": 1338,
      "ĠÃ¶z": 1339,
      "Ġbilm": 1340,
      "ĠEvet": 1341,
      "min": 1342,
      "may": 1343,
      "Ġtamam": 1344,
      "ye": 1345,
      "Ġneden": 1346,
      "lerini": 1347,
      "Ġhow": 1348,
      "Ġbab": 1349,
      "alse": 1350,
      "Ġdown": 1351,
      "Ġtake": 1352,
      "act": 1353,
      "Ġonly": 1354,
      "ĠbÃ¼yÃ¼k": 1355,
      "ĠAllah": 1356,
      "ayÄ±m": 1357,
      "ekkÃ¼r": 1358,
      "lerin": 1359,
      "endim": 1360,
      "rue": 1361,
      "Ġclass": 1362,
      "Ġdev": 1363,
      "Ġgeri": 1364,
      "si": 1365,
      "ĠĠĠĠĠ": 1366,
      "ĠÅŁu": 1367,
      "eÅŁekkÃ¼r": 1368,
      "She": 1369,
      "eme": 1370,
      "Ġihtiy": 1371,
      "Ġinan": 1372,
      "low": 1373,
      "eyi": 1374,
      "ĠÃ¶ÄŁr": 1375,
      "ail": 1376,
      "ĠCAP": 1377,
      "Ġdidn": 1378,
      "ITAL": 1379,
      "Ġkat": 1380,
      "Ġbec": 1381,
      "'in": 1382,
      "ĠCAPITAL": 1383,
      "ĠgÃ¶rd": 1384,
      "Ġsomething": 1385,
      "ran": 1386,
      "There": 1387,
      "Ġhakk": 1388,
      "dr": 1389,
      "Ġden": 1390,
      "are": 1391,
      "Ġolabilir": 1392,
      "As": 1393,
      "mand": 1394,
      "ĠsÃ¶y": 1395,
      "OR": 1396,
      "Ġpe": 1397,
      "Ġmake": 1398,
      "ala": 1399,
      "Son": 1400,
      "ial": 1401,
      "ins": 1402,
      "How": 1403,
      "init": 1404,
      "Ġday": 1405,
      "Ġ...": 1406,
      "Ġqu": 1407,
      ";':": 1408,
      "old": 1409,
      "abi": 1410,
      "Ġlet": 1411,
      "25": 1412,
      "Beni": 1413,
      "ger": 1414,
      "lem": 1415,
      "ĠarkadaÅŁ": 1416,
      "aber": 1417,
      "âĢ": 1418,
      "Ã¼p": 1419,
      "ĠÅŁeyler": 1420,
      "ĠbaÅŁka": 1421,
      "ely": 1422,
      "Sana": 1423,
      "ople": 1424,
      "ade": 1425,
      "Ġetti": 1426,
      "Or": 1427,
      "con": 1428,
      "ara": 1429,
      "arÄ±m": 1430,
      "ING": 1431,
      "Ġtalk": 1432,
      "Sadece": 1433,
      "ĠaÅŁ": 1434,
      "Ġistedi": 1435,
      "ning": 1436,
      "ĠgÃ¶z": 1437,
      "En": 1438,
      "uh": 1439,
      "Ġhapp": 1440,
      "ood": 1441,
      "ĠgÃ¶rÃ¼n": 1442,
      "Ä°yi": 1443,
      "Ġsaid": 1444,
      "reat": 1445,
      ".f": 1446,
      "Ġaz": 1447,
      "ĠÅŁeyi": 1448,
      "dÄ±ÄŁ": 1449,
      "sen": 1450,
      "Ġsup": 1451,
      "Ġ<": 1452,
      "Ġtaraf": 1453,
      "eh": 1454,
      "Ġye": 1455,
      "list": 1456,
      "Ġbo": 1457,
      "Ġboy": 1458,
      "anÄ±n": 1459,
      "####": 1460,
      "enden": 1461,
      "=None": 1462,
      "Neden": 1463,
      "ement": 1464,
      "Ġap": 1465,
      "Ġiy": 1466,
      "Ġhand": 1467,
      "Ġtoo": 1468,
      "ĠsÃ¶yledi": 1469,
      "'a": 1470,
      "dun": 1471,
      "Yeah": 1472,
      "Ġiki": 1473,
      "stance": 1474,
      "ĠgÃ¶ster": 1475,
      "Ġdis": 1476,
      "Ġreally": 1477,
      "(f": 1478,
      "Ġona": 1479,
      "Ġexcept": 1480,
      "Hadi": 1481,
      "Ġkey": 1482,
      "ator": 1483,
      "Ġbiri": 1484,
      "fe": 1485,
      "ND": 1486,
      "ince": 1487,
      "Ġhep": 1488,
      "asÄ±n": 1489,
      "res": 1490,
      "ens": 1491,
      "Ġread": 1492,
      "Ġbet": 1493,
      "ĠÅŁimdi": 1494,
      "dÄ±n": 1495,
      "Ġyaz": 1496,
      "Bak": 1497,
      "lic": 1498,
      "If": 1499,
      "AR": 1500,
      "tÄ±n": 1501,
      ".\"\"\"Ċ": 1502,
      "tar": 1503,
      "ute": 1504,
      "Ġok": 1505,
      "\")Ċ": 1506,
      "Ã¼st": 1507,
      "eyim": 1508,
      "Ġaf": 1509,
      "Ġline": 1510,
      "ittle": 1511,
      "Bil": 1512,
      "Kim": 1513,
      "Ġfirst": 1514,
      "====": 1515,
      "_b": 1516,
      "Ã¼tÃ¼n": 1517,
      "Ġdol": 1518,
      "ĠbaÄŁ": 1519,
      "ĠdoÄŁru": 1520,
      "EÄŁer": 1521,
      "Ġsec": 1522,
      "ĠĠĠĠĠĠĠĠĠĠĠĠĠĠĠĠĠ": 1523,
      "key": 1524,
      "Ġkullan": 1525,
      "Ġmon": 1526,
      "ĠHayÄ±r": 1527,
      "Ġfazla": 1528,
      ".get": 1529,
      "land": 1530,
      "Ġkork": 1531,
      "Ġguy": 1532,
      "azÄ±r": 1533,
      "Bel": 1534,
      "ele": 1535,
      "_m": 1536,
      "(s": 1537,
      "Ã¼ÄŁÃ¼n": 1538,
      "Ġsah": 1539,
      "Ġdr": 1540,
      "Ġdiye": 1541,
      "Ġ|": 1542,
      "Ġpo": 1543,
      "Ġistiyor": 1544,
      "Ġarg": 1545,
      "Ġmust": 1546,
      "erede": 1547,
      "Ġfunc": 1548,
      "fore": 1549,
      "Ġnever": 1550,
      "Ġihtiyac": 1551,
      "args": 1552,
      "Ġinto": 1553,
      "Ġdir": 1554,
      "Ġbiliyorum": 1555,
      "avaÅŁ": 1556,
      "Ġbun": 1557,
      "Biz": 1558,
      "Ġhelp": 1559,
      "aÄŁÄ±": 1560,
      "ĠAr": 1561,
      "Ġsize": 1562,
      "Ġwor": 1563,
      "(c": 1564,
      "Ġexp": 1565,
      "malÄ±": 1566,
      "ret": 1567,
      "we": 1568,
      "oss": 1569,
      "BaÅŁ": 1570,
      "Pek": 1571,
      "nem": 1572,
      "fo": 1573,
      "ting": 1574,
      "ĠsaÄŁ": 1575,
      "Ġkaz": 1576,
      "Ġcr": 1577,
      ".t": 1578,
      "Hay": 1579,
      "vers": 1580,
      "Ġbah": 1581,
      "ĠIt": 1582,
      "sÄ±nÄ±z": 1583,
      "Ġmean": 1584,
      "Ġos": 1585,
      "wr": 1586,
      "ÃĩÃ¼nkÃ¼": 1587,
      "Ã¼Ã§Ã¼k": 1588,
      "Ġask": 1589,
      "ĠdÄ±ÅŁ": 1590,
      "Ġlittle": 1591,
      "ied": 1592,
      "eld": 1593,
      "esini": 1594,
      "ilece": 1595,
      "trol": 1596,
      "ĠWh": 1597,
      "Ġfind": 1598,
      "HiÃ§": 1599,
      "ĠkÃ¶tÃ¼": 1600,
      "Ġes": 1601,
      "Ġwhere": 1602,
      "Ġter": 1603,
      "ove": 1604,
      "medi": 1605,
      "Ġpeople": 1606,
      "edir": 1607,
      "ought": 1608,
      "daki": 1609,
      "iyle": 1610,
      "line": 1611,
      "tern": 1612,
      "Ġpart": 1613,
      "Ġfark": 1614,
      "Ch": 1615,
      "tÃ¼r": 1616,
      "Ġstart": 1617,
      "kin": 1618,
      "gr": 1619,
      "rar": 1620,
      "Ġwhich": 1621,
      "ĠÃ§Ä±kar": 1622,
      "ĠdÃ¼ÅŁÃ¼nÃ¼yor": 1623,
      "ream": 1624,
      "ĠkiÅŁ": 1625,
      "Ġtwo": 1626,
      "Ġtheir": 1627,
      "San": 1628,
      "Yani": 1629,
      "ĠĠĠĠĠĠĠĠĠĠĠĠĠĠĠĠĠĠĠĠ": 1630,
      "from": 1631,
      "ee": 1632,
      "Ãĸyle": 1633,
      "wn": 1634,
      "ener": 1635,
      "----------------": 1636,
      "ĠartÄ±k": 1637,
      "Ġspec": 1638,
      "ton": 1639,
      "Ġ{": 1640,
      "ÄŁu": 1641,
      "20": 1642,
      "ĠÅŁek": 1643,
      "emem": 1644,
      "Ġpath": 1645,
      "Ġass": 1646,
      "Ġmethod": 1647,
      "ash": 1648,
      "sed": 1649,
      "Ġtest": 1650,
      "OU": 1651,
      "ama": 1652,
      "Al": 1653,
      "ITH": 1654,
      "tes": 1655,
      "lease": 1656,
      "imal": 1657,
      "emen": 1658,
      "Ġoluyor": 1659,
      "ĠIf": 1660,
      "Åŀu": 1661,
      "acaÄŁÄ±z": 1662,
      "erhaba": 1663,
      "sÄ±z": 1664,
      "ory": 1665,
      "Ä°n": 1666,
      "aj": 1667,
      "fendim": 1668,
      "ĠsÃ¶yley": 1669,
      "eter": 1670,
      "Ã¶z": 1671,
      "Ġmay": 1672,
      "val": 1673,
      "asÄ±nda": 1674,
      "Ġbefore": 1675,
      "Ġkayb": 1676,
      "Ã¢l": 1677,
      "ede": 1678,
      "Ġunder": 1679,
      "ĠhayÄ±r": 1680,
      "siniz": 1681,
      "ĠWITH": 1682,
      "abil": 1683,
      "ĠĠĠĠĠĠĠĠĠĠĠĠĠĠĠĠĠĠ": 1684,
      "ia": 1685,
      "Ġsak": 1686,
      "Ġpl": 1687,
      "Ġmodule": 1688,
      "ĠhoÅŁ": 1689,
      "Senin": 1690,
      "ption": 1691,
      "Ġpass": 1692,
      "Ġdav": 1693,
      "St": 1694,
      "ĠolmalÄ±": 1695,
      "reak": 1696,
      "ĠhiÃ§bir": 1697,
      "Ġthan": 1698,
      "ĠdeÄŁiÅŁ": 1699,
      "Okay": 1700,
      "oh": 1701,
      "Ġanlam": 1702,
      "Ġagain": 1703,
      "Ä°ÅŁte": 1704,
      "ĠNo": 1705,
      "ĠWe": 1706,
      "Ġdurum": 1707,
      "type": 1708,
      "Ġdemek": 1709,
      "ont": 1710,
      "ct": 1711,
      "ition": 1712,
      "Ġplan": 1713,
      "cek": 1714,
      "All": 1715,
      "Don": 1716,
      "Ä±ÄŁÄ±": 1717,
      "ather": 1718,
      "19": 1719,
      "Ġdel": 1720,
      "ĠaÃ§Ä±k": 1721,
      "Ġdec": 1722,
      "ĠyaptÄ±ÄŁ": 1723,
      ".\\": 1724,
      "ene": 1725,
      "Ġlast": 1726,
      "urr": 1727,
      "dik": 1728,
      "ĠÃ¼zer": 1729,
      "Ġcomp": 1730,
      "ud": 1731,
      "Ġister": 1732,
      "Ġend": 1733,
      "lardan": 1734,
      "000": 1735,
      "odec": 1736,
      "ĠZ": 1737,
      "ann": 1738,
      "Ã§a": 1739,
      "'nin": 1740,
      "mer": 1741,
      "ĠgerÃ§ekten": 1742,
      "IS": 1743,
      "ĠĠĠĠĠĠĠĠĠĠ": 1744,
      "Ġgi": 1745,
      "Ġmem": 1746,
      "ale": 1747,
      "Ġder": 1748,
      "Ġolsun": 1749,
      "ĠhakkÄ±nda": 1750,
      "alled": 1751,
      "ĠIn": 1752,
      "El": 1753,
      "Ġgece": 1754,
      "Ġser": 1755,
      "Ġthing": 1756,
      "ython": 1757,
      "ource": 1758,
      "ily": 1759,
      "Ger": 1760,
      "leÅŁ": 1761,
      "masÄ±": 1762,
      "attr": 1763,
      "Ġused": 1764,
      "Ġtem": 1765,
      "Burada": 1766,
      "Ġlove": 1767,
      "mÃ¼ÅŁ": 1768,
      "ÄŁum": 1769,
      "my": 1770,
      "of": 1771,
      "ĠSen": 1772,
      "ĠĠĠĠĠĠĠĠĠĠĠĠĠĠĠĠĠĠĠĠĠĠĠ": 1773,
      "arn": 1774,
      "Ġdak": 1775,
      "Ġsaat": 1776,
      "ĠgÃ¼ven": 1777,
      "asÄ±na": 1778,
      "_t": 1779,
      "ĠyÃ¼zden": 1780,
      "Belki": 1781,
      "tain": 1782,
      "Ġeven": 1783,
      "ection": 1784,
      "ĠsÄ±r": 1785,
      "Ġro": 1786,
      "abii": 1787,
      "Ġresult": 1788,
      "sg": 1789,
      "ĠOn": 1790,
      "Ġayn": 1791,
      "lin": 1792,
      "elen": 1793,
      "row": 1794,
      "sh": 1795,
      "Peki": 1796,
      "),Ċ": 1797,
      "miyor": 1798,
      "Ġyeni": 1799,
      "ĠHe": 1800,
      "add": 1801,
      "mayÄ±": 1802,
      "vel": 1803,
      "adÄ±": 1804,
      "Ġpat": 1805,
      "value": 1806,
      "EN": 1807,
      "lÃ¼": 1808,
      "ĠhazÄ±r": 1809,
      "Ġolmak": 1810,
      "Ã¶n": 1811,
      "Come": 1812,
      "Ġlen": 1813,
      "inden": 1814,
      "Ġdost": 1815,
      "Ġort": 1816,
      "Ġederim": 1817,
      "elam": 1818,
      "amp": 1819,
      "deÅŁ": 1820,
      "Ġmuch": 1821,
      "eep": 1822,
      "ici": 1823,
      "Ġbecause": 1824,
      "Ġum": 1825,
      "import": 1826,
      "ument": 1827,
      "Ġevery": 1828,
      "Ä±yoruz": 1829,
      "eceÄŁ": 1830,
      "Ġuse": 1831,
      "kes": 1832,
      "Ġsal": 1833,
      "Ġbl": 1834,
      "'i": 1835,
      "Ġediyor": 1836,
      "liyor": 1837,
      "Ġdem": 1838,
      "_d": 1839,
      "Ġwon": 1840,
      "Ġafter": 1841,
      "Ġanlat": 1842,
      "ull": 1843,
      "Ġvery": 1844,
      "Ġkoy": 1845,
      "lÃ¼yor": 1846,
      "ĠWhat": 1847,
      "arg": 1848,
      "Ã¢lÃ¢": 1849,
      "ĠÃ¶nem": 1850,
      "Ġstring": 1851,
      "Con": 1852,
      "Ġmak": 1853,
      "Ġlong": 1854,
      "omp": 1855,
      "12": 1856,
      "dam": 1857,
      "ĠTh": 1858,
      "Ġizin": 1859,
      "sel": 1860,
      "oding": 1861,
      "Ġnerede": 1862,
      "ield": 1863,
      "lÄ±nda": 1864,
      "ĠdÃ¼n": 1865,
      "Ġthose": 1866,
      "idget": 1867,
      "ĠkadÄ±n": 1868,
      "ĠsÃ¶z": 1869,
      "ax": 1870,
      "ĠThis": 1871,
      "ire": 1872,
      ".d": 1873,
      "Is": 1874,
      "iend": 1875,
      "Ġsub": 1876,
      "âĻ": 1877,
      "_name": 1878,
      "path": 1879,
      "ĠSt": 1880,
      "Ġbas": 1881,
      "Gel": 1882,
      "ette": 1883,
      "Ġyat": 1884,
      "Ġmil": 1885,
      "Ġdes": 1886,
      "ount": 1887,
      "'e": 1888,
      "Ġco": 1889,
      "Ġsc": 1890,
      "Ġoy": 1891,
      "aten": 1892,
      "Ġdoing": 1893,
      "Why": 1894,
      "Ġdata": 1895,
      "ete": 1896,
      "ocess": 1897,
      "Ġhav": 1898,
      "ref": 1899,
      "ĠBay": 1900,
      "Siz": 1901,
      "Ġkil": 1902,
      "Ġrun": 1903,
      "Ġkonu": 1904,
      "âĻª": 1905,
      "Ġthese": 1906,
      "cak": 1907,
      "diÄŁim": 1908,
      "Ġwhy": 1909,
      "Ġmin": 1910,
      "Onun": 1911,
      "anrÄ±m": 1912,
      "ĠTrue": 1913,
      "likle": 1914,
      "Ġcol": 1915,
      "ilde": 1916,
      "Ġner": 1917,
      "tic": 1918,
      "Ä±sÄ±": 1919,
      "ĠhatÄ±r": 1920,
      "raf": 1921,
      "Ġik": 1922,
      "Ġfin": 1923,
      "ĠSh": 1924,
      "My": 1925,
      "igh": 1926,
      "ĠTamam": 1927,
      "ersin": 1928,
      "aybe": 1929,
      "ves": 1930,
      "Ġdedi": 1931,
      "Ġtop": 1932,
      "Ġtext": 1933,
      "append": 1934,
      "Ã¶l": 1935,
      "pec": 1936,
      "Ġprob": 1937,
      "'nÄ±n": 1938,
      "ilm": 1939,
      "tik": 1940,
      "so": 1941,
      "Ġenc": 1942,
      "Ġtel": 1943,
      "Daha": 1944,
      "by": 1945,
      "larÄ±m": 1946,
      "uth": 1947,
      "ĠvardÄ±": 1948,
      "ĠkÃ¼Ã§Ã¼k": 1949,
      "Ġgeliyor": 1950,
      "ĠgeÃ§ir": 1951,
      "Ġ('": 1952,
      "Sor": 1953,
      "iÄŁer": 1954,
      "uff": 1955,
      "ĠFr": 1956,
      "uv": 1957,
      "ĠaÄŁ": 1958,
      "ĠsuÃ§": 1959,
      "gÃ¼nÃ¼m": 1960,
      "..Ċ": 1961,
      "lose": 1962,
      "ES": 1963,
      "ih": 1964,
      "ict": 1965,
      "ser": 1966,
      "Ġtype": 1967,
      "Ġhappen": 1968,
      "lib": 1969,
      "iydi": 1970,
      "Ġayr": 1971,
      "03": 1972,
      "Ġelif": 1973,
      "ways": 1974,
      "iter": 1975,
      "Ġsorun": 1976,
      "Ġmut": 1977,
      "edin": 1978,
      "ĠgÃ¶rÃ¼ÅŁ": 1979,
      "ception": 1980,
      "ĠÃ¼st": 1981,
      "Ä±Ã§": 1982,
      "Ġsure": 1983,
      "ĠAl": 1984,
      "thing": 1985,
      "Ġ--": 1986,
      "iden": 1987,
      "anc": 1988,
      "Ä±zÄ±": 1989,
      "Not": 1990,
      "Ġpol": 1991,
      "Ġstill": 1992,
      "Ġinc": 1993,
      "Ġgerekiyor": 1994,
      "Get": 1995,
      "file": 1996,
      "Ġhead": 1997,
      "kat": 1998,
      "ĠlÃ¼tfen": 1999,
      "Sh": 2000,
      "acaÄŁÄ±nÄ±": 2001,
      "Ġilk": 2002,
      "Ġper": 2003,
      "andÄ±r": 2004,
      "Ġbizim": 2005,
      "Ġtat": 2006,
      "Ġgive": 2007,
      "='": 2008,
      "Ãĸz": 2009,
      "likte": 2010,
      "ĠÅŀ": 2011,
      "Ġburaya": 2012,
      "Ġav": 2013,
      "Yap": 2014,
      "Ġdok": 2015,
      "Ġlaz": 2016,
      "Look": 2017,
      "ange": 2018,
      "Ġgu": 2019,
      ">>>": 2020,
      "ilah": 2021,
      "ahat": 2022,
      "Ġlife": 2023,
      "Ġfeel": 2024,
      "NasÄ±l": 2025,
      "Ġ?Ċ": 2026,
      "Ġsys": 2027,
      "Ġokay": 2028,
      "anet": 2029,
      "Ġkol": 2030,
      "air": 2031,
      "essage": 2032,
      "ĠiÃ§inde": 2033,
      "alarÄ±": 2034,
      "ilename": 2035,
      "Ġemin": 2036,
      "ything": 2037,
      "kek": 2038,
      "Ġanything": 2039,
      "Ġkor": 2040,
      "son": 2041,
      "ĠgÃ¶tÃ¼r": 2042,
      "oin": 2043,
      "ĠdeÄŁilim": 2044,
      "Ġmer": 2045,
      "Ġkab": 2046,
      "Ġcar": 2047,
      "Ġorada": 2048,
      "ible": 2049,
      "gin": 2050,
      "Ġbelie": 2051,
      "ĠÃĩ": 2052,
      "Hep": 2053,
      "bilir": 2054,
      "acaksÄ±n": 2055,
      "Ġdevam": 2056,
      "oÄŁ": 2057,
      "azÄ±": 2058,
      "aln": 2059,
      "alÄ±k": 2060,
      "Bun": 2061,
      "duk": 2062,
      "Ġinter": 2063,
      "Ġform": 2064,
      "Let": 2065,
      "aret": 2066,
      "ĠtÃ¼m": 2067,
      ".b": 2068,
      "Ġvur": 2069,
      "ĠkarÅŁÄ±": 2070,
      "ations": 2071,
      "HT": 2072,
      "nder": 2073,
      "Ġchar": 2074,
      "Ex": 2075,
      "Now": 2076,
      "Ġefendim": 2077,
      "ĠseÃ§": 2078,
      "ĠmÄ±sÄ±n": 2079,
      "Ġetmek": 2080,
      "meyi": 2081,
      "ĠsÃ¶ylÃ¼yor": 2082,
      "Ã¼s": 2083,
      "wh": 2084,
      "trib": 2085,
      "SanÄ±rÄ±m": 2086,
      "be": 2087,
      "'Ä±": 2088,
      ".append": 2089,
      "ED": 2090,
      "Ġbin": 2091,
      "Ġval": 2092,
      "Ġrec": 2093,
      "22": 2094,
      "ÅŁey": 2095,
      "Ġistiyorsun": 2096,
      "Ġbiliyorsun": 2097,
      "yr": 2098,
      "dress": 2099,
      "alnÄ±z": 2100,
      "error": 2101,
      "enn": 2102,
      "ĠÃ§Ã¼nkÃ¼": 2103,
      "ĠlazÄ±m": 2104,
      "Just": 2105,
      "ĠteÅŁekkÃ¼r": 2106,
      "Ġwait": 2107,
      "emez": 2108,
      "ĠeÄŁ": 2109,
      "ĠÅŁekilde": 2110,
      "ĠFalse": 2111,
      "LÃ¼tfen": 2112,
      "unuz": 2113,
      "pos": 2114,
      "Ġ>": 2115,
      "ĠBr": 2116,
      "Ġfik": 2117,
      ".st": 2118,
      "ĠaynÄ±": 2119,
      "Who": 2120,
      "ox": 2121,
      "larla": 2122,
      "Ġx": 2123,
      "fig": 2124,
      "lere": 2125,
      "ĠGod": 2126,
      "not": 2127,
      "Ġent": 2128,
      "Ġfuck": 2129,
      "instance": 2130,
      "Ġwell": 2131,
      "Ġsame": 2132,
      "Ġbulun": 2133,
      "ram": 2134,
      "ater": 2135,
      "Ġsat": 2136,
      "Ġput": 2137,
      "Ġsorry": 2138,
      "kaÃ§": 2139,
      "ĠiÅŁte": 2140,
      "dÄ±k": 2141,
      "Ġmis": 2142,
      "adÄ±m": 2143,
      "Ġdefault": 2144,
      "crip": 2145,
      "LL": 2146,
      "Ġold": 2147,
      "Bab": 2148,
      ".path": 2149,
      "Ġins": 2150,
      "lerim": 2151,
      "Ġeder": 2152,
      "Ġthr": 2153,
      "Ġdoesn": 2154,
      "Ġbreak": 2155,
      "als": 2156,
      "iyiz": 2157,
      "ikkat": 2158,
      "HA": 2159,
      "Ġtam": 2160,
      "arch": 2161,
      "Ġthought": 2162,
      "Ġkendi": 2163,
      "ecimal": 2164,
      "inizi": 2165,
      "Ġod": 2166,
      "Ġpos": 2167,
      "ĠtaÅŁ": 2168,
      "ĠsÄ±k": 2169,
      "ĠAnd": 2170,
      "Ġalways": 2171,
      "ved": 2172,
      "Ġek": 2173,
      "GerÃ§ek": 2174,
      "ane": 2175,
      "ĠAma": 2176,
      "plement": 2177,
      "ike": 2178,
      "Ġcommand": 2179,
      "lÄ±yor": 2180,
      "efon": 2181,
      "ons": 2182,
      "ouse": 2183,
      "Ona": 2184,
      "Ä±ma": 2185,
      "teÅŁ": 2186,
      ".m": 2187,
      "Ġwhile": 2188,
      "object": 2189,
      "Ġfunction": 2190,
      "(Ċ": 2191,
      "hing": 2192,
      "aw": 2193,
      "Ġhast": 2194,
      "UT": 2195,
      "press": 2196,
      "Ġsm": 2197,
      "akat": 2198,
      "Ġdakika": 2199,
      "'ya": 2200,
      "Ġnight": 2201,
      "ĠOh": 2202,
      "Ġoyn": 2203,
      "usu": 2204,
      "['": 2205,
      "urt": 2206,
      "GÃ¶r": 2207,
      "umu": 2208,
      "Ġ>>>": 2209,
      "Ġolmaz": 2210,
      "ilerim": 2211,
      "Ġcl": 2212,
      "ĠMr": 2213,
      "Ġreal": 2214,
      "per": 2215,
      "Re": 2216,
      "ayet": 2217,
      "Ã¼nde": 2218,
      "ues": 2219,
      "ems": 2220,
      "ĠonlarÄ±": 2221,
      "abilece": 2222,
      "Ġbey": 2223,
      "indow": 2224,
      "Yes": 2225,
      "Ġkaf": 2226,
      "ool": 2227,
      "Ġgitti": 2228,
      "assert": 2229,
      "Ġbunun": 2230,
      "Ġkeep": 2231,
      "ext": 2232,
      "11": 2233,
      "Ġmes": 2234,
      "Ġcode": 2235,
      "ĠolduÄŁu": 2236,
      "ether": 2237,
      "Ġhome": 2238,
      "body": 2239,
      "Har": 2240,
      "Ġid": 2241,
      "'y": 2242,
      "Bunun": 2243,
      "Ġhaber": 2244,
      "eyse": 2245,
      "Pr": 2246,
      "Ã¼ne": 2247,
      "_h": 2248,
      "Ġfriend": 2249,
      "Ġacc": 2250,
      "15": 2251,
      "mesi": 2252,
      "ner": 2253,
      "urs": 2254,
      "Ġdoc": 2255,
      "Ã¼nÃ¼": 2256,
      "endir": 2257,
      "eceÄŁiz": 2258,
      "Ġsab": 2259,
      "Ġunut": 2260,
      "Ġaway": 2261,
      "oper": 2262,
      "amay": 2263,
      "Ġfound": 2264,
      "ĠÃ¶d": 2265,
      "Ġtold": 2266,
      "Ġshow": 2267,
      "qual": 2268,
      "']": 2269,
      "siz": 2270,
      "gel": 2271,
      "alueError": 2272,
      "ĠolmadÄ±ÄŁ": 2273,
      "200": 2274,
      "_n": 2275,
      "kan": 2276,
      "Ġdinle": 2277,
      "Ġotur": 2278,
      "ĠyÃ¶n": 2279,
      "Ġcalled": 2280,
      "Ġilgili": 2281,
      "Bay": 2282,
      "ION": 2283,
      "eceksin": 2284,
      "ful": 2285,
      "Ġkid": 2286,
      "ĠÅŁans": 2287,
      "enin": 2288,
      "Ġkes": 2289,
      "uyorum": 2290,
      "Biraz": 2291,
      "ĠdÃ¼ÅŁÃ¼nd": 2292,
      "Dur": 2293,
      "Ġyani": 2294,
      "Ġmiyim": 2295,
      "ght": 2296,
      "ilik": 2297,
      "Ġhaf": 2298,
      "Ġnumber": 2299,
      "ote": 2300,
      "Ġdilerim": 2301,
      "Ġbilmiyorum": 2302,
      "angi": 2303,
      "Ġbetter": 2304,
      "Ġmade": 2305,
      "urrent": 2306,
      "gi": 2307,
      "Ġbize": 2308,
      "Ä±yla": 2309,
      "ÄŁl": 2310,
      "inc": 2311,
      "Ġerror": 2312,
      "iyet": 2313,
      "Ġstop": 2314,
      "aydÄ±": 2315,
      "iyoruz": 2316,
      "ected": 2317,
      "Ġdostum": 2318,
      "ollow": 2319,
      "Ä°Ã§": 2320,
      "Ġleft": 2321,
      "Ġmah": 2322,
      "tif": 2323,
      "ileri": 2324,
      "lÄ±ÄŁ": 2325,
      "Ġgreat": 2326,
      "ĠgÃ¶nder": 2327,
      "Ġann": 2328,
      ".assert": 2329,
      "ew": 2330,
      "Ġdif": 2331,
      "Ġthrough": 2332,
      "Ġbirlikte": 2333,
      "ĠÃ¼Ã§": 2334,
      "ĠbÃ¼tÃ¼n": 2335,
      "ĠÃ¶nemli": 2336,
      "esine": 2337,
      "Ġmen": 2338,
      "oder": 2339,
      "Ġstat": 2340,
      "Ġisinstance": 2341,
      "ĠuÄŁr": 2342,
      "ope": 2343,
      "Ã¼ÄŁÃ¼m": 2344,
      "ptal": 2345,
      "refix": 2346,
      "Ġbar": 2347,
      "uple": 2348,
      "yÄ±m": 2349,
      "Ġber": 2350,
      "Ġkan": 2351,
      "Ġthings": 2352,
      "Ġkind": 2353,
      "Ġopen": 2354,
      "Ġistemiyorum": 2355,
      "Ġalt": 2356,
      "Ġcontext": 2357,
      "ĠĠĠĠĠĠĠĠĠĠĠĠĠ": 2358,
      "Can": 2359,
      "Ġsign": 2360,
      "Ã¼c": 2361,
      "Ġasla": 2362,
      "ren": 2363,
      "oman": 2364,
      "ĠeÅŁ": 2365,
      "Ġaround": 2366,
      "ĠkardeÅŁ": 2367,
      "ArtÄ±k": 2368,
      "Ya": 2369,
      "Ġ!Ċ": 2370,
      "quest": 2371,
      "Kar": 2372,
      "its": 2373,
      "Ev": 2374,
      "ole": 2375,
      "Merhaba": 2376,
      "ÅŁam": 2377,
      "Pekala": 2378,
      "Ãľz": 2379,
      "ĠolmuÅŁ": 2380,
      "obj": 2381,
      "met": 2382,
      ").": 2383,
      "30": 2384,
      "Kend": 2385,
      "Ġoper": 2386,
      "Are": 2387,
      "Ġbeing": 2388,
      "ĠkÄ±r": 2389,
      "Ġyeter": 2390,
      "Ġbelieve": 2391,
      "ĠQ": 2392,
      "ask": 2393,
      "ĠyÃ¼k": 2394,
      "eg": 2395,
      "eydi": 2396,
      "ÄŁimi": 2397,
      "REE": 2398,
      "Ġyears": 2399,
      "Ġmet": 2400,
      "oup": 2401,
      "stand": 2402,
      "ĠÃ¶ÄŁren": 2403,
      "Ġloc": 2404,
      "Where": 2405,
      "miyorum": 2406,
      "sy": 2407,
      "Ġdone": 2408,
      "esinlikle": 2409,
      "Ġown": 2410,
      "Ġcre": 2411,
      "info": 2412,
      "IGHT": 2413,
      "GÃ¼zel": 2414,
      "Ġrem": 2415,
      "ilecek": 2416,
      "'un": 2417,
      "abb": 2418,
      "ĠyapÄ±yor": 2419,
      "Ġchild": 2420,
      "ling": 2421,
      "ĠValueError": 2422,
      "Ġtra": 2423,
      "ST": 2424,
      "idir": 2425,
      "oz": 2426,
      "ildi": 2427,
      "Ġpay": 2428,
      "_dir": 2429,
      "ĠbÃ¶l": 2430,
      "ladÄ±": 2431,
      "Return": 2432,
      "Ġonlar": 2433,
      "Ġprot": 2434,
      "(m": 2435,
      "ĠsavaÅŁ": 2436,
      "Tek": 2437,
      "mÄ±yorum": 2438,
      "dict": 2439,
      "Ġnothing": 2440,
      "Ã¼nden": 2441,
      "ĠuÃ§": 2442,
      "Ġtane": 2443,
      "Ġadd": 2444,
      "Ol": 2445,
      "enÃ§": 2446,
      "Ġplace": 2447,
      "--Ċ": 2448,
      "Ġnext": 2449,
      "(d": 2450,
      "ush": 2451,
      "ĠgÃ¶rÃ¼nÃ¼yor": 2452,
      "########": 2453,
      "Ġcour": 2454,
      "yÄ±z": 2455,
      "OL": 2456,
      "Ġediyorum": 2457,
      "bar": 2458,
      "Ġbenz": 2459,
      "ohn": 2460,
      "DE": 2461,
      "():Ċ": 2462,
      "yp": 2463,
      "ĠgÃ¼Ã§": 2464,
      "Ġint": 2465,
      "ĠHar": 2466,
      "Ġerkek": 2467,
      "Ġuzak": 2468,
      "larÄ±na": 2469,
      "uyorsun": 2470,
      "ormal": 2471,
      "Sonra": 2472,
      "ready": 2473,
      "Ġdiy": 2474,
      "Ġedin": 2475,
      "ĠPython": 2476,
      "Ġgec": 2477,
      "Ġpre": 2478,
      "lerine": 2479,
      "Ġuzun": 2480,
      "Ġph": 2481,
      "Ġzaten": 2482,
      "Ġtekrar": 2483,
      "write": 2484,
      "Ġyere": 2485,
      "edik": 2486,
      "Ġvers": 2487,
      "ladÄ±m": 2488,
      "lÄ±m": 2489,
      "dÃ¼": 2490,
      "gun": 2491,
      "ĠbakalÄ±m": 2492,
      "ĠĠĠĠĠĠĠĠĠĠĠĠĠĠ": 2493,
      "Ġalso": 2494,
      "opy": 2495,
      "medim": 2496,
      "eleri": 2497,
      "Ġvak": 2498,
      "Ġmiss": 2499,
      "Ġcase": 2500,
      "ift": 2501,
      "Ġinst": 2502,
      "Ġresp": 2503,
      "OT": 2504,
      "Ġinde": 2505,
      "Ġverdi": 2506,
      "ĠThat": 2507,
      "Ġbor": 2508,
      "eya": 2509,
      "When": 2510,
      "ĠEn": 2511,
      "sw": 2512,
      "ĠÃĩok": 2513,
      "Ġpara": 2514,
      "Ä±mÄ±zÄ±": 2515,
      "Ġsizi": 2516,
      "amÄ±yorum": 2517,
      "imes": 2518,
      "erson": 2519,
      "Ġharika": 2520,
      "Ġpek": 2521,
      "gil": 2522,
      "Ġyalan": 2523,
      "ier": 2524,
      "ions": 2525,
      "Ä±cÄ±": 2526,
      "ĠiÅŁe": 2527,
      "ates": 2528,
      "ĠgÃ¶rmek": 2529,
      "Ġyoksa": 2530,
      "Ġhisset": 2531,
      "Ġkom": 2532,
      "lear": 2533,
      "ĠyapÄ±yorsun": 2534,
      "Ġsur": 2535,
      "Ġarab": 2536,
      "Ġsilah": 2537,
      "Ġparam": 2538,
      "eks": 2539,
      "ĠDo": 2540,
      "any": 2541,
      "Ġ!": 2542,
      "Ġkurt": 2543,
      "':Ċ": 2544,
      "Ġits": 2545,
      "Ġgirl": 2546,
      "arak": 2547,
      "string": 2548,
      "Ġguys": 2549,
      "ron": 2550,
      "Ġbig": 2551,
      "Ġkarar": 2552,
      "ina": 2553,
      "Ġevet": 2554,
      "Ġeverything": 2555,
      "unk": 2556,
      "_r": 2557,
      "ph": 2558,
      "Ġlin": 2559,
      "til": 2560,
      "Ġkay": 2561,
      "ĠdÃ¼ny": 2562,
      "the": 2563,
      "Ġcheck": 2564,
      "isini": 2565,
      "Ä±yordum": 2566,
      "Ġyapmak": 2567,
      "Ġkazan": 2568,
      "')": 2569,
      "deki": 2570,
      "Ġzorunda": 2571,
      "Ġdest": 2572,
      "Ġnames": 2573,
      "Ġfollow": 2574,
      "Git": 2575,
      "ÄŁine": 2576,
      "_op": 2577,
      "ommand": 2578,
      "Ġalready": 2579,
      "Ġsy": 2580,
      "Ġaile": 2581,
      "Ġplease": 2582,
      "Ġbekle": 2583,
      "ble": 2584,
      "Ġmoney": 2585,
      "ket": 2586,
      "ĠBO": 2587,
      "ONT": 2588,
      "Ah": 2589,
      "abilirim": 2590,
      "_ex": 2591,
      "Ġanda": 2592,
      "_w": 2593,
      "ĠboÅŁ": 2594,
      "Ġplay": 2595,
      "Um": 2596,
      "ating": 2597,
      "ĠHey": 2598,
      "bette": 2599,
      "luk": 2600,
      "Ġfam": 2601,
      "Ġbizi": 2602,
      "Ġturn": 2603,
      "Ġexc": 2604,
      "md": 2605,
      "Ġstand": 2606,
      "ĠPr": 2607,
      "Ġproblem": 2608,
      "\",Ċ": 2609,
      "util": 2610,
      "****": 2611,
      "uÃ§": 2612,
      "Ġhear": 2613,
      "Ġbilir": 2614,
      "Ġkabul": 2615,
      ").Ċ": 2616,
      "lÄ±yorum": 2617,
      "Ġkontrol": 2618,
      "ĠkiÅŁi": 2619,
      "Ġbad": 2620,
      "Ġgiven": 2621,
      "Ġkill": 2622,
      "lie": 2623,
      "Ġkaybet": 2624,
      "ĠdeÄŁiÅŁtir": 2625,
      "Ġkah": 2626,
      "Ä±mda": 2627,
      "Ã§e": 2628,
      "Ġrest": 2629,
      "Ġul": 2630,
      "ĠayrÄ±l": 2631,
      "Ġlot": 2632,
      "ersen": 2633,
      "ĠiÅŁi": 2634,
      "ious": 2635,
      "Ġspecif": 2636,
      "ĠAND": 2637,
      "INGS": 2638,
      "tribute": 2639,
      "BÃ¶yle": 2640,
      "Ġhemen": 2641,
      "ught": 2642,
      "Par": 2643,
      "sek": 2644,
      "ĠdiÄŁer": 2645,
      "gu": 2646,
      "lÄ±ÅŁ": 2647,
      "meden": 2648,
      "uÅŁtur": 2649,
      "Ġdavran": 2650,
      "oot": 2651,
      "uma": 2652,
      "kw": 2653,
      "Ġmight": 2654,
      "85": 2655,
      "Ġanother": 2656,
      "ĠÃ§aÄŁ": 2657,
      "diÅŁ": 2658,
      "ĠDr": 2659,
      "Ġkimse": 2660,
      "back": 2661,
      "sam": 2662,
      "head": 2663,
      "ĠUn": 2664,
      "ral": 2665,
      "rist": 2666,
      "Ġrahat": 2667,
      "True": 2668,
      "Ġdirect": 2669,
      "Ġdiffer": 2670,
      "04": 2671,
      "stem": 2672,
      ".tk": 2673,
      "gan": 2674,
      "ĠÃ¶zel": 2675,
      "var": 2676,
      "lob": 2677,
      "ayacak": 2678,
      "ĠtanÄ±ÅŁ": 2679,
      "ady": 2680,
      "ecut": 2681,
      "Ġunderstand": 2682,
      "At": 2683,
      "ĠdÃ¼z": 2684,
      "larda": 2685,
      "ĠÃ§ocu": 2686,
      "False": 2687,
      "ocket": 2688,
      "asyon": 2689,
      "Did": 2690,
      "bug": 2691,
      "oo": 2692,
      "Ġcls": 2693,
      "url": 2694,
      "format": 2695,
      "TP": 2696,
      "Ġmor": 2697,
      "Your": 2698,
      "Ġsir": 2699,
      "adaki": 2700,
      "umuz": 2701,
      "Ġseviyorum": 2702,
      "Un": 2703,
      "madan": 2704,
      "ĠyalnÄ±z": 2705,
      "Ġtopl": 2706,
      "Ġbytes": 2707,
      "Ġ@": 2708,
      "ucu": 2709,
      "Ä±ya": 2710,
      "anrÄ±": 2711,
      "Ġsecond": 2712,
      "RAW": 2713,
      "emember": 2714,
      "Ġbest": 2715,
      "ĠSIG": 2716,
      "Ġisn": 2717,
      "Ac": 2718,
      "join": 2719,
      "ĠHer": 2720,
      "Ġyarat": 2721,
      "word": 2722,
      "Ġdead": 2723,
      "new": 2724,
      "ason": 2725,
      "ĠĠĠĠĠĠĠĠĠĠĠĠĠĠĠĠĠĠĠĠĠĠĠĠĠĠĠĠĠĠĠĠ": 2726,
      "Ġgelir": 2727,
      "default": 2728,
      "omb": 2729,
      "16": 2730,
      "ĠBur": 2731,
      "ĠX": 2732,
      "ĠÅŁunu": 2733,
      "Ä±lmÄ±ÅŁ": 2734,
      "Ġprint": 2735,
      "ĠDRAW": 2736,
      "Ãĩoc": 2737,
      "Ġhissed": 2738,
      "odecs": 2739,
      "ĠBOX": 2740,
      "ĠDRAWINGS": 2741,
      "Ġkit": 2742,
      "Ä±ca": 2743,
      "ĠMar": 2744,
      "loc": 2745,
      "ors": 2746,
      "red": 2747,
      "eket": 2748,
      "ical": 2749,
      "aÄŁa": 2750,
      "ĠdÄ±ÅŁarÄ±": 2751,
      "ĠyÃ¼r": 2752,
      "Good": 2753,
      "bu": 2754,
      "mi": 2755,
      "Ġyapar": 2756,
      "ĠparÃ§": 2757,
      "lim": 2758,
      "lice": 2759,
      "utes": 2760,
      "elik": 2761,
      "Ġsahip": 2762,
      "Ġsok": 2763,
      "Ä±lan": 2764,
      "Ġolmam": 2765,
      "dip": 2766,
      "Ġmany": 2767,
      "Ġolduk": 2768,
      ".set": 2769,
      "Ġyen": 2770,
      "Ġ!=": 2771,
      "ny": 2772,
      "Ġhey": 2773,
      "ife": 2774,
      "memiÅŁ": 2775,
      "Selam": 2776,
      "Ġgiz": 2777,
      "REEK": 2778,
      "ery": 2779,
      "Ġkez": 2780,
      "abel": 2781,
      "andler": 2782,
      "ĠGREEK": 2783,
      "lock": 2784,
      "Ġsch": 2785,
      "br": 2786,
      "Thank": 2787,
      "ister": 2788,
      "Ġtelefon": 2789,
      "erek": 2790,
      "ĠOr": 2791,
      "ĠsÃ¶ylemiÅŁ": 2792,
      "ĠgÃ¶rev": 2793,
      "ised": 2794,
      "Ġargs": 2795,
      "ĠARA": 2796,
      "========": 2797,
      "Kap": 2798,
      "undan": 2799,
      "Ä±yÄ±": 2800,
      "Ġhafta": 2801,
      "ĠCar": 2802,
      "ĠVe": 2803,
      "time": 2804,
      "Ã¼re": 2805,
      "Then": 2806,
      "larÄ±nÄ±n": 2807,
      "Ġhala": 2808,
      "OW": 2809,
      "Ġmost": 2810,
      "Ġmessage": 2811,
      "anÄ±m": 2812,
      "ÄŁiniz": 2813,
      "_st": 2814,
      "ĠĠĠĠĠĠ": 2815,
      "ward": 2816,
      "Ġcame": 2817,
      "ĠanlaÅŁ": 2818,
      "iyi": 2819,
      "Ġleave": 2820,
      "Ġwrong": 2821,
      "Ã¼ph": 2822,
      "ĠARAB": 2823,
      "RI": 2824,
      "Ġhell": 2825,
      "EF": 2826,
      "Ġbay": 2827,
      "reg": 2828,
      "Ġstay": 2829,
      "Ġzorun": 2830,
      "Ġmisiniz": 2831,
      "ĠARABIC": 2832,
      "Ġrel": 2833,
      "ayÄ±p": 2834,
      "ica": 2835,
      "Ġfalan": 2836,
      "Ġverir": 2837,
      "Ġcor": 2838,
      "Ġmeet": 2839,
      "Ġgiy": 2840,
      "ĠkÄ±s": 2841,
      "ilmiÅŁ": 2842,
      "14": 2843,
      "amak": 2844,
      "ĠAmer": 2845,
      "Ġcoming": 2846,
      ".call": 2847,
      "ower": 2848,
      "ĠdoÄŁ": 2849,
      "Ġprog": 2850,
      "Ġ**": 2851,
      "Ġsizin": 2852,
      "Ä°nsan": 2853,
      "Ġmat": 2854,
      "ison": 2855,
      "DÃ¼n": 2856,
      "Ġnedir": 2857,
      "ĠtarafÄ±ndan": 2858,
      "rc": 2859,
      "Ġsav": 2860,
      "Ġtrans": 2861,
      "ersiniz": 2862,
      "Ã¼yorum": 2863,
      "Ġkurtar": 2864,
      "ÃĸzÃ¼r": 2865,
      "Ġmar": 2866,
      "AslÄ±nda": 2867,
      "ÄŁinde": 2868,
      "ayÄ±n": 2869,
      "ĠBaÅŁ": 2870,
      "duÄŁ": 2871,
      "Ġgereken": 2872,
      "Ġteh": 2873,
      "Ġbekliyor": 2874,
      "KÄ±z": 2875,
      "yla": 2876,
      "arÄ±n": 2877,
      "BLE": 2878,
      "oke": 2879,
      "Ġseb": 2880,
      "Allah": 2881,
      "For": 2882,
      "Sak": 2883,
      "unca": 2884,
      "mamÄ±z": 2885,
      "GerÃ§ekten": 2886,
      "50": 2887,
      "lak": 2888,
      "aster": 2889,
      "Ġoption": 2890,
      "Ġeve": 2891,
      "Ġdin": 2892,
      "ĠateÅŁ": 2893,
      "ĠbirkaÃ§": 2894,
      "iddi": 2895,
      "Ġwanted": 2896,
      "masÄ±nÄ±": 2897,
      "Ġnode": 2898,
      "Ġext": 2899,
      "ĠakÅŁam": 2900,
      "Ġmatch": 2901,
      "ache": 2902,
      "ekle": 2903,
      "ĠBil": 2904,
      "Ä±yorlar": 2905,
      "Ġframe": 2906,
      "Ġcare": 2907,
      "ĠâĻª": 2908,
      "Ġtes": 2909,
      "BugÃ¼n": 2910,
      "Ġtrying": 2911,
      "AM": 2912,
      "ĠSIGN": 2913,
      "gg": 2914,
      "ydÄ±": 2915,
      "ĠtÃ¼r": 2916,
      "Ġide": 2917,
      "ither": 2918,
      "Hayat": 2919,
      "Ġcourse": 2920,
      "que": 2921,
      "Ġ#Ċ": 2922,
      "ĠYeah": 2923,
      "Ġsupport": 2924,
      "ĠkatÄ±l": 2925,
      "Ġthree": 2926,
      "ĠÃ¶nc": 2927,
      "VE": 2928,
      "off": 2929,
      "Ġtrue": 2930,
      "ever": 2931,
      "ĠBut": 2932,
      "ĠdeÄŁildi": 2933,
      "Ġyerde": 2934,
      "ĠkarÅŁÄ±l": 2935,
      "ĠihtiyacÄ±m": 2936,
      "Ġhouse": 2937,
      "emey": 2938,
      "plit": 2939,
      "ĠbÃ¼y": 2940,
      "ĠsaÃ§": 2941,
      "Ġhard": 2942,
      "ĠÃ¶lÃ¼m": 2943,
      "100": 2944,
      "32": 2945,
      "CK": 2946,
      "ml": 2947,
      "}Ċ": 2948,
      "ĠhÄ±z": 2949,
      "eceÄŁini": 2950,
      "frame": 2951,
      "Ġyakal": 2952,
      "Ġfilm": 2953,
      "Ġenough": 2954,
      "Ner": 2955,
      "Ġ:": 2956,
      "Ġinsanlar": 2957,
      "madÄ±": 2958,
      ".r": 2959,
      "_ch": 2960,
      "Ġkut": 2961,
      "ead": 2962,
      "pace": 2963,
      "version": 2964,
      "Tabii": 2965,
      "dÃ¼r": 2966,
      "gth": 2967,
      "aÅŁtÄ±r": 2968,
      "Ġetk": 2969,
      "Buraya": 2970,
      "root": 2971,
      "TÃ¼m": 2972,
      "suz": 2973,
      "Ġgar": 2974,
      "Ġmom": 2975,
      "Ġcurrent": 2976,
      "lerde": 2977,
      "ĠeÄŁer": 2978,
      "lamak": 2979,
      "06": 2980,
      "Kon": 2981,
      "Ġ`": 2982,
      "ined": 2983,
      "tually": 2984,
      "anna": 2985,
      "lerle": 2986,
      "ĠGr": 2987,
      "ĠkaÃ§Ä±r": 2988,
      "])Ċ": 2989,
      "Yok": 2990,
      "mas": 2991,
      "Ġyemek": 2992,
      "Ġgidiyor": 2993,
      "HiÃ§bir": 2994,
      "Ġfather": 2995,
      "Ġwithout": 2996,
      "Ġworld": 2997,
      ".\"": 2998,
      "Go": 2999,
      "ecode": 3000,
      "lerden": 3001,
      "vert": 3002,
      "(p": 3003,
      ".w": 3004,
      "adÄ±n": 3005,
      "aÅŁÄ±r": 3006,
      "Ġroom": 3007,
      "eÄŁ": 3008,
      "sem": 3009,
      "ĠÃĸ": 3010,
      "Ġmsg": 3011,
      "ĠvardÄ±r": 3012,
      "Test": 3013,
      "anlar": 3014,
      "ĠÃ§ev": 3015,
      "Ġbelki": 3016,
      "ĠÃ§ocuklar": 3017,
      "Ġ.": 3018,
      "ĠKim": 3019,
      "Ġindex": 3020,
      "Ġdikkat": 3021,
      "Ġveya": 3022,
      "Ġbenimle": 3023,
      "gul": 3024,
      "ĠDecimal": 3025,
      "Ġargument": 3026,
      "ÅŁk": 3027,
      "Ġonlara": 3028,
      "ĠBayan": 3029,
      "ĠyakÄ±n": 3030,
      "less": 3031,
      "Ä°l": 3032,
      "ocol": 3033,
      "Ġtalking": 3034,
      "ian": 3035,
      "ĠTH": 3036,
      "iew": 3037,
      "(name": 3038,
      "Ġhik": 3039,
      "Ġword": 3040,
      "Ġsomeone": 3041,
      "Ġfun": 3042,
      "ĠTanrÄ±m": 3043,
      "madÄ±m": 3044,
      "Ġmother": 3045,
      "OM": 3046,
      "SÃ¶yle": 3047,
      "gn": 3048,
      "Ġtog": 3049,
      "Ġburadan": 3050,
      "Ġmusunuz": 3051,
      "BaÅŁka": 3052,
      "ĠbirÅŁey": 3053,
      "lama": 3054,
      "ĠÄ°yi": 3055,
      "Ġ[]Ċ": 3056,
      "ecause": 3057,
      "Ġtogether": 3058,
      "inal": 3059,
      "Ġdedim": 3060,
      "Ä±ldÄ±": 3061,
      "Ġgetting": 3062,
      "Bence": 3063,
      "method": 3064,
      "Ġfine": 3065,
      "Ġberi": 3066,
      "Ġyerine": 3067,
      "Ġhappened": 3068,
      "Ġdist": 3069,
      "esent": 3070,
      "Ġ\"Ċ": 3071,
      "Ġseen": 3072,
      "prec": 3073,
      "Ġlooking": 3074,
      "sak": 3075,
      "oj": 3076,
      "Ä°ki": 3077,
      "Ever": 3078,
      "Ġpack": 3079,
      "Ġuh": 3080,
      "Ä±yordu": 3081,
      "abilirsin": 3082,
      "Ġinv": 3083,
      "Ġeach": 3084,
      "'):Ċ": 3085,
      "po": 3086,
      "ĠsaldÄ±r": 3087,
      "tp": 3088,
      "18": 3089,
      "oe": 3090,
      "Ġsin": 3091,
      "Ġsource": 3092,
      "Ġformat": 3093,
      "Ġsel": 3094,
      "amer": 3095,
      "ample": 3096,
      "Ġbuy": 3097,
      "ĠkarÄ±ÅŁ": 3098,
      "ĠgÃ¼nÃ¼": 3099,
      "mayÄ±n": 3100,
      "Ã¼ÄŁÃ¼nÃ¼": 3101,
      "eor": 3102,
      "tive": 3103,
      "Ġeski": 3104,
      "gÄ±n": 3105,
      "Ã¼rÃ¼z": 3106,
      "Haydi": 3107,
      ":\\": 3108,
      "aut": 3109,
      "ative": 3110,
      "13": 3111,
      "TanrÄ±m": 3112,
      "Ġhadi": 3113,
      "ĠEl": 3114,
      "ĠgÃ¶rdÃ¼m": 3115,
      "tum": 3116,
      "Ġwasn": 3117,
      "Ġfamily": 3118,
      "ness": 3119,
      "Ġboth": 3120,
      "Ġbuna": 3121,
      "Ġmod": 3122,
      "Ġsuch": 3123,
      "ladÄ±ÄŁ": 3124,
      "ehir": 3125,
      "ĠeÄŁlen": 3126,
      "=\"": 3127,
      "crement": 3128,
      "liÄŁi": 3129,
      "Ġise": 3130,
      "ĠyaptÄ±": 3131,
      "ĠFor": 3132,
      "Ġ+=": 3133,
      "Ġkendini": 3134,
      "Fr": 3135,
      "ello": 3136,
      "OUBLE": 3137,
      "ts": 3138,
      "Ġinstance": 3139,
      "light": 3140,
      "BÃ¼tÃ¼n": 3141,
      "Maybe": 3142,
      "Ġhigh": 3143,
      "Ġgelen": 3144,
      "Ãĩocuk": 3145,
      "ĠâĢ": 3146,
      "Ġtah": 3147,
      "idth": 3148,
      "Ġcons": 3149,
      "Ġuntil": 3150,
      "Ġpoint": 3151,
      "uyu": 3152,
      "Ġorder": 3153,
      "mesini": 3154,
      "Ġkav": 3155,
      "Ġcev": 3156,
      "ulu": 3157,
      "Sorun": 3158,
      "Ġtyp": 3159,
      "Ġwidget": 3160,
      "Ġzam": 3161,
      "Ak": 3162,
      "amÄ±": 3163,
      "abÄ±": 3164,
      "[:": 3165,
      "Ġaptal": 3166,
      "emin": 3167,
      "ĠbugÃ¼n": 3168,
      "ĠDOUBLE": 3169,
      "Ġmonth": 3170,
      "Ġbahset": 3171,
      "ĠbazÄ±": 3172,
      "Ġsand": 3173,
      "Ġpick": 3174,
      "Ġseninle": 3175,
      "Ġcont": 3176,
      "ĠAt": 3177,
      "ĠHow": 3178,
      "ĠoÄŁl": 3179,
      "emi": 3180,
      "Ġolay": 3181,
      "sunda": 3182,
      "ÃľzgÃ¼nÃ¼m": 3183,
      "Ġversion": 3184,
      "ding": 3185,
      "Adam": 3186,
      "Please": 3187,
      "yse": 3188,
      "atÄ±": 3189,
      "etty": 3190,
      "Ġcount": 3191,
      "iyordum": 3192,
      "Ġsim": 3193,
      "Ġ'\"": 3194,
      "Bayan": 3195,
      "Ġsar": 3196,
      "diÄŁini": 3197,
      "Ä±lÄ±": 3198,
      "pty": 3199,
      "ĠÄ°n": 3200,
      "Ġsabah": 3201,
      "AN": 3202,
      "mm": 3203,
      "Ġnice": 3204,
      "ÄŁe": 3205,
      "Ġperson": 3206,
      "Ġchang": 3207,
      "Ġusing": 3208,
      "ĠJack": 3209,
      "AS": 3210,
      "ĠAs": 3211,
      "sanÄ±z": 3212,
      "ĠÃ¼zgÃ¼nÃ¼m": 3213,
      "ĠyaklaÅŁ": 3214,
      ".is": 3215,
      "cap": 3216,
      "Ġfilename": 3217,
      "item": 3218,
      "ĠNot": 3219,
      "ENT": 3220,
      "TeÅŁekkÃ¼r": 3221,
      "Ġdet": 3222,
      "Ġmov": 3223,
      "Ġremember": 3224,
      "oll": 3225,
      "ÄŁimiz": 3226,
      "Ġburad": 3227,
      "meyecek": 3228,
      "ĠsanÄ±rÄ±m": 3229,
      "Ġyear": 3230,
      "Ġhour": 3231,
      "Ġjob": 3232,
      "Ann": 3233,
      "fret": 3234,
      "#Ċ": 3235,
      "-b": 3236,
      "GeÃ§": 3237,
      "ga": 3238,
      "ped": 3239,
      "Ġyine": 3240,
      "Ġneler": 3241,
      "ĠBunu": 3242,
      "_con": 3243,
      "DoÄŁru": 3244,
      "Ġonunla": 3245,
      "Ayr": 3246,
      "List": 3247,
      "diniz": 3248,
      "ĠolmasÄ±": 3249,
      "Ġpolis": 3250,
      "Ġdoktor": 3251,
      "Ġhem": 3252,
      "Ġces": 3253,
      "ott": 3254,
      "main": 3255,
      "Ġrepr": 3256,
      "()\"": 3257,
      "_file": 3258,
      "tiÄŁini": 3259,
      "ĠalÄ±n": 3260,
      "ĠReturn": 3261,
      "ĠteÅŁekkÃ¼rler": 3262,
      "ffed": 3263,
      "for": 3264,
      "Ġsend": 3265,
      "Ä±yorsunuz": 3266,
      "ĠfarklÄ±": 3267,
      "Ġposs": 3268,
      "ĠdÃ¶nd": 3269,
      "cremental": 3270,
      "Uh": 3271,
      "code": 3272,
      "osed": 3273,
      "Ġimplement": 3274,
      ".h": 3275,
      ".n": 3276,
      "Ġtoday": 3277,
      "ladÄ±n": 3278,
      "ĠÃ¼zerinde": 3279,
      "Ġmas": 3280,
      "ĠDon": 3281,
      "Ġmuy": 3282,
      "ĠNew": 3283,
      "Ġeden": 3284,
      "Ġboz": 3285,
      "Ġyeme": 3286,
      "Ġzar": 3287,
      "_type": 3288,
      "ared": 3289,
      "Ġwent": 3290,
      "uments": 3291,
      "Ġtemiz": 3292,
      "Ġberaber": 3293,
      "17": 3294,
      "(n": 3295,
      "win": 3296,
      "Ġherkes": 3297,
      "Yak": 3298,
      "Ġweek": 3299,
      "Ġdolar": 3300,
      "Equal": 3301,
      "Here": 3302,
      "yan": 3303,
      "ĠÃ¼l": 3304,
      "Ġcontin": 3305,
      "Ġfikir": 3306,
      "=False": 3307,
      "mon": 3308,
      "ID": 3309,
      "cc": 3310,
      "ĠAll": 3311,
      "ended": 3312,
      "Ġkoc": 3313,
      "ekli": 3314,
      "oktor": 3315,
      "Ġsever": 3316,
      "ving": 3317,
      "Ġred": 3318,
      "Ġprov": 3319,
      "dÃ¼n": 3320,
      "Ġsol": 3321,
      "ĠfÄ±r": 3322,
      "ulti": 3323,
      "her": 3324,
      "ouble": 3325,
      "Ġsaw": 3326,
      "exp": 3327,
      "Ad": 3328,
      "mÄ±yor": 3329,
      "esinde": 3330,
      "iyorlar": 3331,
      "Ġistey": 3332,
      "-h": 3333,
      "Size": 3334,
      "bers": 3335,
      "Ġfull": 3336,
      "ĠĠĠĠĠĠĠĠĠĠĠĠĠĠĠĠĠĠĠĠĠĠĠĠĠĠĠ": 3337,
      "'))Ċ": 3338,
      "Ġbirbir": 3339,
      "duÄŁum": 3340,
      "Ġgelecek": 3341,
      "Ãĸn": 3342,
      "valid": 3343,
      "date": 3344,
      "lags": 3345,
      "Ġknew": 3346,
      "GÃ¼n": 3347,
      "iable": 3348,
      "Ġwar": 3349,
      "Ġear": 3350,
      "ĠChar": 3351,
      "ĠyanlÄ±ÅŁ": 3352,
      "(b": 3353,
      "Ġclose": 3354,
      "Ġfucking": 3355,
      "Ġprogram": 3356,
      "ael": 3357,
      "Ġot": 3358,
      "ĠonlarÄ±n": 3359,
      "Ġatt": 3360,
      "Onlar": 3361,
      "iyorsunuz": 3362,
      "Ġbase": 3363,
      "Ġyourself": 3364,
      "load": 3365,
      "Ġkok": 3366,
      "Ġfar": 3367,
      "ĠÃ§ar": 3368,
      "ĠaÅŁk": 3369,
      "Ġheader": 3370,
      "Buna": 3371,
      "Ġbuild": 3372,
      "ĠdeÄŁilsin": 3373,
      "GÃ¶": 3374,
      "Harika": 3375,
      "ĠÃ§aÄŁÄ±r": 3376,
      "eno": 3377,
      "Ġmind": 3378,
      "'ye": 3379,
      "bol": 3380,
      "work": 3381,
      "Ġgener": 3382,
      "eder": 3383,
      "ĠSan": 3384,
      "Ġ\"__": 3385,
      "raw": 3386,
      "Orada": 3387,
      "Ġguess": 3388,
      "Ġsaf": 3389,
      "process": 3390,
      "co": 3391,
      "amÄ±z": 3392,
      "Ġetme": 3393,
      "Ġprocess": 3394,
      "manÄ±n": 3395,
      "io": 3396,
      "Im": 3397,
      "kip": 3398,
      "Ä±nÄ±zÄ±": 3399,
      "ĠolmadÄ±ÄŁÄ±nÄ±": 3400,
      "irst": 3401,
      "ura": 3402,
      "ĠIs": 3403,
      "ĠCon": 3404,
      "ĠbaÅŁar": 3405,
      "ĠyÃ¼zÃ¼nden": 3406,
      "âĢĻ": 3407,
      "Ġkolay": 3408,
      "imde": 3409,
      "ĠÃ§Ã¶z": 3410,
      "Ġnefret": 3411,
      "ĠJohn": 3412,
      "ween": 3413,
      "Ġettim": 3414,
      "Ġses": 3415,
      "ably": 3416,
      "baÅŁ": 3417,
      "Ġolursa": 3418,
      "amazsÄ±n": 3419,
      "ĠistediÄŁim": 3420,
      "ĠLord": 3421,
      "Ġtuple": 3422,
      "Ġili": 3423,
      "Ã§Ä±": 3424,
      "Ġ'.": 3425,
      "ĠyaptÄ±m": 3426,
      "ĠTr": 3427,
      "manÄ±": 3428,
      "Ġsoru": 3429,
      "mamÄ±ÅŁ": 3430,
      "place": 3431,
      "ebilirim": 3432,
      "Ġsince": 3433,
      "ĠSeni": 3434,
      "Ġexception": 3435,
      ".write": 3436,
      "aat": 3437,
      "orn": 3438,
      "ĠkanÄ±": 3439,
      "larÄ±nda": 3440,
      "Ġanne": 3441,
      "ĠEr": 3442,
      "leÅŁtir": 3443,
      "Ġsit": 3444,
      "'yi": 3445,
      "aydÄ±n": 3446,
      "OS": 3447,
      "Ġbed": 3448,
      "Ġallow": 3449,
      "latform": 3450,
      "Ġwouldn": 3451,
      "IL": 3452,
      "Ġspe": 3453,
      "ĠĠĠĠĠĠĠĠĠĠĠĠĠĠĠĠĠĠĠĠĠĠĠĠĠĠĠĠĠĠĠ": 3454,
      "dayÄ±m": 3455,
      "Ġbeh": 3456,
      "Ġreg": 3457,
      "Ġvalues": 3458,
      "uluk": 3459,
      "ĠPar": 3460,
      "Ġbelir": 3461,
      "Ġonce": 3462,
      "struc": 3463,
      "ĠsÃ¼re": 3464,
      "encode": 3465,
      "Ġnumar": 3466,
      ")\\": 3467,
      "van": 3468,
      "Ġmax": 3469,
      "Ġaddress": 3470,
      "Ġevent": 3471,
      "Kah": 3472,
      "Tr": 3473,
      "dic": 3474,
      "\"\"\"": 3475,
      "ustom": 3476,
      "ichael": 3477,
      "Ġbitir": 3478,
      "ÃľÃ§": 3479,
      "Ġdile": 3480,
      "Ġhon": 3481,
      "ĠRe": 3482,
      "AD": 3483,
      "Ġbody": 3484,
      "abuk": 3485,
      "ĠgelmiÅŁ": 3486,
      "Ġherh": 3487,
      "index": 3488,
      "_path": 3489,
      "ĠdÃ¼ÅŁÃ¼nÃ¼yorsun": 3490,
      "'u": 3491,
      "'.": 3492,
      "alib": 3493,
      "Ġwoman": 3494,
      "meliyim": 3495,
      "ĠBenim": 3496,
      "Ġready": 3497,
      "Ġstate": 3498,
      "Ġsing": 3499,
      "itch": 3500,
      "Ä±lmaz": 3501,
      "ĠÃ¶zÃ¼r": 3502,
      "CE": 3503,
      "Ġhed": 3504,
      "Ġdays": 3505,
      "UM": 3506,
      "Ġbirini": 3507,
      "ĠMerhaba": 3508,
      "ĠkaldÄ±r": 3509,
      "typ": 3510,
      "24": 3511,
      "Ġprom": 3512,
      "Ã¼ÄŁÃ¼": 3513,
      "Ġidea": 3514,
      "iyon": 3515,
      "ĠyaptÄ±n": 3516,
      "Ġwhole": 3517,
      "meni": 3518,
      "ĠBak": 3519,
      "larÄ±ndan": 3520,
      "Ġbahsed": 3521,
      "859": 3522,
      "Ġdifferent": 3523,
      "Ġthank": 3524,
      "Ġoraya": 3525,
      "lerinden": 3526,
      "'yÄ±": 3527,
      "Ġ..": 3528,
      "emmel": 3529,
      "aces": 3530,
      "Ġitem": 3531,
      "cÃ¼": 3532,
      "Ġbenden": 3533,
      "Ġolsa": 3534,
      "oken": 3535,
      "ĠyaptÄ±k": 3536,
      "Ġayak": 3537,
      "ĠulaÅŁ": 3538,
      "Es": 3539,
      "ks": 3540,
      "sl": 3541,
      "ookie": 3542,
      "ds": 3543,
      "Ġevlen": 3544,
      "alarÄ±nÄ±": 3545,
      "Ġbetween": 3546,
      "Ġencoding": 3547,
      "8859": 3548,
      "Ä±ndaki": 3549,
      "acÄ±": 3550,
      "Ã¼kemmel": 3551,
      "Ġgider": 3552,
      "utils": 3553,
      "Emin": 3554,
      "Ġstack": 3555,
      "open": 3556,
      "(_": 3557,
      "Tam": 3558,
      "lÄ±ÄŁÄ±": 3559,
      "())Ċ": 3560,
      "Ġgidip": 3561,
      "play": 3562,
      "uture": 3563,
      "Ġcomple": 3564,
      "_re": 3565,
      "Ġah": 3566,
      "irket": 3567,
      "Ġkw": 3568,
      "Ġkalk": 3569,
      "melisin": 3570,
      "(t": 3571,
      "99": 3572,
      "Ġmal": 3573,
      "64": 3574,
      "sÃ¼n": 3575,
      "asÄ±nÄ±n": 3576,
      "iyat": 3577,
      ".read": 3578,
      "Ġali": 3579,
      "Ġkas": 3580,
      "Ġwanna": 3581,
      "ots": 3582,
      "Ġlive": 3583,
      "'la": 3584,
      "ĠÃĸyle": 3585,
      "Ġsent": 3586,
      "ĠNeden": 3587,
      "abiliriz": 3588,
      "KÃ¶": 3589,
      "fak": 3590,
      "iet": 3591,
      "Ġmaybe": 3592,
      "onse": 3593,
      "leep": 3594,
      "Ġfight": 3595,
      "Ä°st": 3596,
      "ĠetmiÅŁ": 3597,
      "indeki": 3598,
      "IGIT": 3599,
      "Ġmutlu": 3600,
      "ĠKar": 3601,
      "Ġyiy": 3602,
      "Ġgez": 3603,
      "eyin": 3604,
      "ized": 3605,
      "Ġmeans": 3606,
      "Ġedecek": 3607,
      "lÄ±sÄ±n": 3608,
      "Br": 3609,
      "att": 3610,
      "imin": 3611,
      "urum": 3612,
      "ited": 3613,
      "rew": 3614,
      "char": 3615,
      "Ġrequest": 3616,
      "--------------------------------": 3617,
      "Ġtabii": 3618,
      "ĠSo": 3619,
      "lamÄ±ÅŁ": 3620,
      "Ġhayal": 3621,
      "Because": 3622,
      "rup": 3623,
      "Ġnormal": 3624,
      "ision": 3625,
      "ĠDIGIT": 3626,
      "Ġbilg": 3627,
      "Ġbaby": 3628,
      "ature": 3629,
      "Ġconn": 3630,
      "ĠÃ§alÄ±ÅŁÄ±yor": 3631,
      "Ġgotta": 3632,
      "Ġhareket": 3633,
      "Ġboyunca": 3634,
      "AyrÄ±ca": 3635,
      "Mr": 3636,
      "module": 3637,
      "ung": 3638,
      "lines": 3639,
      "//": 3640,
      "Ayn": 3641,
      "Demek": 3642,
      "Of": 3643,
      "],": 3644,
      "medin": 3645,
      "rt": 3646,
      "wise": 3647,
      "ĠkÄ±": 3648,
      "Ġnon": 3649,
      "Ġtook": 3650,
      "diÄŁi": 3651,
      "Ġondan": 3652,
      "iktir": 3653,
      "ĠÃ§Ä±ktÄ±": 3654,
      "Ġfiles": 3655,
      "ĠÃ¶ÄŁret": 3656,
      "-s": 3657,
      "Dr": 3658,
      "ĠgenÃ§": 3659,
      "Ġmark": 3660,
      "imizi": 3661,
      "ĠalÄ±r": 3662,
      "Ġokul": 3663,
      "PekÃ¢lÃ¢": 3664,
      "Ġkonusunda": 3665,
      "Name": 3666,
      "nun": 3667,
      "Ġwatch": 3668,
      "Ġfil": 3669,
      "ump": 3670,
      "istan": 3671,
      "ypeError": 3672,
      "Ġtab": 3673,
      "Ġoldum": 3674,
      "ector": 3675,
      "inize": 3676,
      "Ġparent": 3677,
      "Ġdurdur": 3678,
      "Ġobj": 3679,
      "Ġapp": 3680,
      "Ġindir": 3681,
      "avi": 3682,
      "IR": 3683,
      "ĠhÃ¼k": 3684,
      "Ä±lÄ±r": 3685,
      "osp": 3686,
      "ried": 3687,
      "retsin": 3688,
      "Ġblock": 3689,
      "ĠHadi": 3690,
      "IZ": 3691,
      "US": 3692,
      "madÄ±ÄŁ": 3693,
      "enÃ¼z": 3694,
      "Ġmove": 3695,
      "adÄ±k": 3696,
      "ĠEx": 3697,
      "Ġexist": 3698,
      "ĠendiÅŁ": 3699,
      "Ġgidelim": 3700,
      "_key": 3701,
      "Ġyeah": 3702,
      "ĠAd": 3703,
      "ĠGer": 3704,
      "Ġactually": 3705,
      "Ġobjects": 3706,
      "where": 3707,
      "eorge": 3708,
      "BÃ¼yÃ¼k": 3709,
      "roy": 3710,
      "Ġswe": 3711,
      "Ġait": 3712,
      "htem": 3713,
      "Ark": 3714,
      "ĠdemiÅŁ": 3715,
      "Ġmorning": 3716,
      "lÃ¼k": 3717,
      "ean": 3718,
      "Ġey": 3719,
      "Ġmad": 3720,
      "ĠdeÄŁer": 3721,
      "ĠÄ°ÅŁ": 3722,
      "ĠtatlÄ±m": 3723,
      "det": 3724,
      "med": 3725,
      "ĠsÄ±": 3726,
      "Ġalmak": 3727,
      "ĠaldÄ±m": 3728,
      "Ä±lÄ±k": 3729,
      "ĠRabb": 3730,
      "ĠbaÅŁk": 3731,
      "Ġkurtul": 3732,
      "lant": 3733,
      "pek": 3734,
      "Ġhap": 3735,
      "ution": 3736,
      "ident": 3737,
      "idden": 3738,
      "operty": 3739,
      "Ġbaba": 3740,
      "aka": 3741,
      "ardÄ±": 3742,
      "quence": 3743,
      "Ġgitmek": 3744,
      "ĠgÃ¶rdÃ¼n": 3745,
      "Ġmatter": 3746,
      "Ġyas": 3747,
      "Ġsefer": 3748,
      "malÄ±yÄ±z": 3749,
      "aa": 3750,
      "Dinle": 3751,
      "ual": 3752,
      "Ġtav": 3753,
      "Ġdam": 3754,
      "lerinin": 3755,
      "olor": 3756,
      "ĠolduÄŁumu": 3757,
      "meliyiz": 3758,
      "ĠazÄ±ndan": 3759,
      "Ġnereden": 3760,
      "isine": 3761,
      "(),": 3762,
      "Ġsaying": 3763,
      "CT": 3764,
      "Tom": 3765,
      "Ã§i": 3766,
      "ĠÅŁeye": 3767,
      "Ã¼mÃ¼z": 3768,
      "Ġuser": 3769,
      "Ġtakip": 3770,
      "Ġhalde": 3771,
      "Ġwrite": 3772,
      "Ġlines": 3773,
      "=True": 3774,
      "YardÄ±m": 3775,
      "ern": 3776,
      "ero": 3777,
      "ech": 3778,
      "ĠarasÄ±nda": 3779,
      "Ġheard": 3780,
      "mÄ±ÅŁtÄ±m": 3781,
      "ĠkonuÅŁmak": 3782,
      "Ġ\\": 3783,
      "Ġton": 3784,
      "aceb": 3785,
      "Ġdeal": 3786,
      "Ġbebe": 3787,
      "Fakat": 3788,
      "com": 3789,
      "dy": 3790,
      "Ġeither": 3791,
      "ĠÅŁeyin": 3792,
      "kez": 3793,
      "Seninle": 3794,
      "Ġbitti": 3795,
      "data": 3796,
      "yim": 3797,
      "lex": 3798,
      "Ġoutput": 3799,
      "''": 3800,
      "Geri": 3801,
      "kÄ±": 3802,
      "ĠÄ±s": 3803,
      "anÄ±z": 3804,
      "Ġhold": 3805,
      "ĠiÃ§eri": 3806,
      "Ġheart": 3807,
      "Ġshit": 3808,
      "layacak": 3809,
      "ĠÃ¶ldÃ¼": 3810,
      "Ġques": 3811,
      "Bizim": 3812,
      "Ġmilyon": 3813,
      "amed": 3814,
      "Ġshall": 3815,
      "resp": 3816,
      "lendir": 3817,
      "ony": 3818,
      "reate": 3819,
      "ĠÅŁÃ¼ph": 3820,
      "ĠbeÅŁ": 3821,
      "Ġdair": 3822,
      "Ġchange": 3823,
      "Ġkapat": 3824,
      "Ġcevap": 3825,
      "_S": 3826,
      "_list": 3827,
      "Anne": 3828,
      "kÃ¼n": 3829,
      "Ġwalk": 3830,
      "olog": 3831,
      "ĠAB": 3832,
      "Ġpretty": 3833,
      "encoding": 3834,
      "Ġcer": 3835,
      "Ġalone": 3836,
      "Ġlost": 3837,
      "OP": 3838,
      "ena": 3839,
      "ekt": 3840,
      "lif": 3841,
      "Ġyapacak": 3842,
      "Ġsonr": 3843,
      "Ġyoktu": 3844,
      "ĠadamÄ±": 3845,
      "ĠsÃ¶yler": 3846,
      "htemelen": 3847,
      "Ġago": 3848,
      "Ġkilled": 3849,
      "cl": 3850,
      "Ġseri": 3851,
      "amb": 3852,
      "Ä±mÄ±n": 3853,
      "ĠOkay": 3854,
      "Ġilgilen": 3855,
      "ular": 3856,
      "itle": 3857,
      "Ġload": 3858,
      "Ġmode": 3859,
      "Ä±ÅŁÄ±k": 3860,
      "quir": 3861,
      "Ġgerekir": 3862,
      "memiz": 3863,
      "29": 3864,
      "vir": 3865,
      "Ġ)Ċ": 3866,
      "alt": 3867,
      "ĠIS": 3868,
      "Sev": 3869,
      "rik": 3870,
      "input": 3871,
      "ĠSam": 3872,
      "'nun": 3873,
      "ompile": 3874,
      "Hak": 3875,
      "Ġfew": 3876,
      "mÃ¼yor": 3877,
      "no": 3878,
      "Ġmain": 3879,
      "illi": 3880,
      "Ġfix": 3881,
      "diÄŁin": 3882,
      "Ġyolu": 3883,
      "Ġschool": 3884,
      "Ġaff": 3885,
      "Ġcin": 3886,
      "Ġbuil": 3887,
      "Ġlog": 3888,
      "Pol": 3889,
      "Wait": 3890,
      "size": 3891,
      "result": 3892,
      "Mar": 3893,
      "ĠBel": 3894,
      "apped": 3895,
      "Ġsays": 3896,
      "Ġwife": 3897,
      "Ġfield": 3898,
      "ĠpeÅŁ": 3899,
      "Ä°k": 3900,
      "Åŀey": 3901,
      "ĠsÃ¶yledim": 3902,
      "OnlarÄ±": 3903,
      "Ġcodecs": 3904,
      "rev": 3905,
      "-Ċ": 3906,
      ".name": 3907,
      "Hemen": 3908,
      "QU": 3909,
      "diler": 3910,
      "fes": 3911,
      "sp": 3912,
      "ĠsÄ±n": 3913,
      "lerinde": 3914,
      "ically": 3915,
      "ĠTom": 3916,
      "Ġhaven": 3917,
      "ĠsÃ¶ylemek": 3918,
      "ĠYes": 3919,
      "BurasÄ±": 3920,
      "ĠsÃ¼rÃ¼": 3921,
      "ĠyanÄ±nda": 3922,
      "Ġmethods": 3923,
      "Ġfikr": 3924,
      "part": 3925,
      "lean": 3926,
      "Ġinput": 3927,
      "ĠRIGHT": 3928,
      ".assertEqual": 3929,
      "Ġsenden": 3930,
      "adÄ±r": 3931,
      "otoÄŁ": 3932,
      "ĠÅŁark": 3933,
      "ĠyapacaÄŁÄ±m": 3934,
      "ĠaslÄ±nda": 3935,
      "ĠtanÄ±m": 3936,
      "uffer": 3937,
      "Ok": 3938,
      "UN": 3939,
      "Ġassert": 3940,
      "pression": 3941,
      "Yine": 3942,
      "Ġclear": 3943,
      "ĠBeni": 3944,
      "ĠBana": 3945,
      "ĠÃ§alÄ±ÅŁÄ±yorum": 3946,
      "Babam": 3947,
      "_C": 3948,
      "ivers": 3949,
      "acter": 3950,
      "Ġbring": 3951,
      "Ġols": 3952,
      "ĠSelam": 3953,
      "Ä±mÄ±za": 3954,
      "ĠyaÅŁam": 3955,
      "Ä°lk": 3956,
      "Uz": 3957,
      "Ġhost": 3958,
      "ĠOS": 3959,
      "Ġexact": 3960,
      "Ġmyself": 3961,
      "ORM": 3962,
      "40": 3963,
      "To": 3964,
      "andÄ±": 3965,
      "Ġherif": 3966,
      "ukarÄ±": 3967,
      "ĠbaÅŁÄ±na": 3968,
      "ĠOnu": 3969,
      "Ab": 3970,
      "HoÅŁ": 3971,
      "\\\\": 3972,
      "Ġvis": 3973,
      "Ġlanet": 3974,
      "andle": 3975,
      "Ġ'__": 3976,
      "Ġlisten": 3977,
      "Ġinclu": 3978,
      "Ġolmayacak": 3979,
      "ĠzamanÄ±": 3980,
      "().": 3981,
      "eredeyse": 3982,
      "otoÄŁraf": 3983,
      "bat": 3984,
      "do": 3985,
      "BÄ±rak": 3986,
      "LO": 3987,
      "Yan": 3988,
      "ĠhÃ¢lÃ¢": 3989,
      "aps": 3990,
      "Ġeq": 3991,
      "Ġmerak": 3992,
      "Right": 3993,
      "Ġgone": 3994,
      "only": 3995,
      "Ġlater": 3996,
      "oded": 3997,
      "007": 3998,
      "most": 3999,
      "Ġ.Ċ": 4000,
      "ĠSte": 4001,
      "ĠLEF": 4002,
      "Ġyapmam": 4003,
      "check": 4004,
      "Herkes": 4005,
      "aliba": 4006,
      ".g": 4007,
      "sana": 4008,
      "imize": 4009,
      "andan": 4010,
      "level": 4011,
      "Ġpeki": 4012,
      "Ġexecut": 4013,
      "Ġleast": 4014,
      "Ġbekley": 4015,
      "Ġkonuda": 4016,
      "ĠLEFT": 4017,
      "ai": 4018,
      "aceback": 4019,
      "?\"Ċ": 4020,
      "ĠSon": 4021,
      "ĠÅŁeyleri": 4022,
      "dÄ±ÄŁÄ±nÄ±": 4023,
      "ĠÃ¼zerine": 4024,
      "Ġmaster": 4025,
      "Dev": 4026,
      "eniz": 4027,
      "ĠHiÃ§": 4028,
      "ĠiÅŁin": 4029,
      "Ġcouldn": 4030,
      "insert": 4031,
      "Context": 4032,
      "aul": 4033,
      "enel": 4034,
      "Ġsort": 4035,
      "ĠHay": 4036,
      "ĠPeki": 4037,
      "ĠdÃ¼ÅŁÃ¼nÃ¼yorum": 4038,
      "Ġtehlik": 4039,
      "ĠÃ§evir": 4040,
      "Gr": 4041,
      "orrow": 4042,
      "Ġcou": 4043,
      "Ġtom": 4044,
      "Ġcannot": 4045,
      "Ġgroup": 4046,
      "Ġwrit": 4047,
      ".S": 4048,
      "Kork": 4049,
      "dec": 4050,
      "ets": 4051,
      "Ġru": 4052,
      "Ġolun": 4053,
      "ĠkaldÄ±": 4054,
      "Ġhepsi": 4055,
      "ĠhÄ±zlÄ±": 4056,
      "Ġcontinue": 4057,
      ".add": 4058,
      "GÃ¼": 4059,
      "Ġkr": 4060,
      "ilerin": 4061,
      "uhaf": 4062,
      "Ġdeli": 4063,
      "GÃ¶z": 4064,
      "_id": 4065,
      "lain": 4066,
      "Ä±ÄŁÄ±n": 4067,
      "ERT": 4068,
      "ebil": 4069,
      "ffer": 4070,
      "Ġwants": 4071,
      "apping": 4072,
      "ĠacÄ±": 4073,
      "Ġsaniye": 4074,
      "Ġuygun": 4075,
      "Ġhikay": 4076,
      "Ġglob": 4077,
      "Ġface": 4078,
      "Ġinit": 4079,
      "azen": 4080,
      "ĠWell": 4081,
      "Ġposition": 4082,
      "ney": 4083,
      "atever": 4084,
      "Ġoptions": 4085,
      "Ġarguments": 4086,
      "Ġagainst": 4087,
      "Ġhaving": 4088,
      "ĠaltÄ±nda": 4089,
      "ky": 4090,
      "ĠÃĩÃ¼nkÃ¼": 4091,
      "eti": 4092,
      "ĠShe": 4093,
      "ĠDav": 4094,
      "Ġstream": 4095,
      "ĠEd": 4096,
      "Ġkims": 4097,
      "Ġbunlar": 4098,
      "Bunlar": 4099,
      "'),": 4100,
      "oid": 4101,
      "py": 4102,
      "arr": 4103,
      "Ġaw": 4104,
      "Ġmiyiz": 4105,
      "Ġcez": 4106,
      "One": 4107,
      "Ġblo": 4108,
      "asy": 4109,
      "arser": 4110,
      "Ġworking": 4111,
      "âĢĿ": 4112,
      "Ġ<=": 4113,
      "'le": 4114,
      "Ġancak": 4115,
      "ARK": 4116,
      "yal": 4117,
      "Ġdie": 4118,
      "Ġdict": 4119,
      "Ġtoken": 4120,
      "Ġstuff": 4121,
      "SaÄŁ": 4122,
      "TanrÄ±": 4123,
      "usun": 4124,
      "atÄ±r": 4125,
      "Ġwindow": 4126,
      "Ġciddi": 4127,
      "Ġknows": 4128,
      "ĠyardÄ±mcÄ±": 4129,
      "Mer": 4130,
      "Ġflo": 4131,
      "ides": 4132,
      "Ġcontain": 4133,
      "Ġhandle": 4134,
      "Ġsahib": 4135,
      "KaÃ§": 4136,
      "Some": 4137,
      "Ġpower": 4138,
      "Ġanlay": 4139,
      "Ġsoon": 4140,
      "Ġmesaj": 4141,
      "Uy": 4142,
      "21": 4143,
      "Sizi": 4144,
      "Yeni": 4145,
      "Ġmo": 4146,
      "address": 4147,
      "ĠaldÄ±": 4148,
      "mÄ±ÅŁtÄ±": 4149,
      "ĠoldukÃ§a": 4150,
      ",\"": 4151,
      "Am": 4152,
      "[-": 4153,
      "fin": 4154,
      "Ġport": 4155,
      "ĠAC": 4156,
      "num": 4157,
      "ĠkoÅŁ": 4158,
      "Ġhit": 4159,
      "Ã¼ÅŁÃ¼n": 4160,
      "ĠgÃ¶rÃ¼yor": 4161,
      "othing": 4162,
      "Ġbundan": 4163,
      "Elbette": 4164,
      "Ġdokun": 4165,
      "sini": 4166,
      "Ġsleep": 4167,
      "debug": 4168,
      "ipe": 4169,
      "(cls": 4170,
      "Lanet": 4171,
      "MA": 4172,
      "dÃ¼m": 4173,
      "ros": 4174,
      "Ġbomb": 4175,
      "Ġhurt": 4176,
      "Ġinform": 4177,
      "Ġvarsa": 4178,
      "meyin": 4179,
      "Ġeminim": 4180,
      "):": 4181,
      "side": 4182,
      "004": 4183,
      "Ġparti": 4184,
      "Ay": 4185,
      "ng": 4186,
      "ĠmÃ¼z": 4187,
      "Ä±ntÄ±": 4188,
      "ĠTypeError": 4189,
      "ĠbuluÅŁ": 4190,
      "Ġdrink": 4191,
      "Ġzarar": 4192,
      "cel": 4193,
      "ms": 4194,
      "ted": 4195,
      "Ġhang": 4196,
      "viron": 4197,
      ".C": 4198,
      ".ex": 4199,
      "IA": 4200,
      "UL": 4201,
      "ĠÅŁirket": 4202,
      "max": 4203,
      "ĠdeÄŁildir": 4204,
      "005": 4205,
      "Ġolmayan": 4206,
      "Ġattribute": 4207,
      "ĠarkadaÅŁÄ±m": 4208,
      "ĠhoÅŁlan": 4209,
      "Aman": 4210,
      "OK": 4211,
      "por": 4212,
      "Ġsw": 4213,
      "Ġla": 4214,
      "006": 4215,
      "Ġserver": 4216,
      "'),Ċ": 4217,
      "ying": 4218,
      "Ġopt": 4219,
      "Ġgem": 4220,
      "Ġpis": 4221,
      "ĠBiz": 4222,
      "ĠYork": 4223,
      "ebilece": 4224,
      "menin": 4225,
      "ÄŁinden": 4226,
      "kinci": 4227,
      "Ġ,": 4228,
      "Ġinte": 4229,
      "point": 4230,
      "(D": 4231,
      "Ġmur": 4232,
      "imden": 4233,
      "Ġwin": 4234,
      "uman": 4235,
      "dev": 4236,
      "Ġlevel": 4237,
      "Ġsorum": 4238,
      "Annem": 4239,
      "Ġoyun": 4240,
      "Kal": 4241,
      "PE": 4242,
      "gar": 4243,
      "Ġgun": 4244,
      "ĠLe": 4245,
      "Ġattr": 4246,
      "Ġbrother": 4247,
      "Bekle": 4248,
      "Have": 4249,
      "Ġsist": 4250,
      "ility": 4251,
      "Ġgeldim": 4252,
      "Wr": 4253,
      "view": 4254,
      "Ġdom": 4255,
      "Ġprefix": 4256,
      "__Ċ": 4257,
      "Ġreturned": 4258,
      "arken": 4259,
      "Ġthinking": 4260,
      "types": 4261,
      "Bize": 4262,
      "YÃ¼z": 4263,
      "ĠÃ¼n": 4264,
      "inst": 4265,
      "Ġdah": 4266,
      "Ã¼ld": 4267,
      "Ġris": 4268,
      "ĠdoÄŁr": 4269,
      "ĠMon": 4270,
      "memi": 4271,
      "imizin": 4272,
      "Ġbabam": 4273,
      "ĠkanÄ±t": 4274,
      "EX": 4275,
      "mit": 4276,
      "pend": 4277,
      "Ġsey": 4278,
      "Ġ(\"": 4279,
      "ialog": 4280,
      "cript": 4281,
      "################": 4282,
      "Ġphone": 4283,
      "Ġdersin": 4284,
      "Ġannem": 4285,
      "ĠÃ¶r": 4286,
      "ounds": 4287,
      "ĠâĻªĊ": 4288,
      "(value": 4289,
      "bel": 4290,
      "malar": 4291,
      "lag": 4292,
      "Ġempty": 4293,
      "Ġ>=": 4294,
      "Ġinstead": 4295,
      "Ġistedim": 4296,
      "Ġherk": 4297,
      "meyeceÄŁim": 4298,
      "tÄ±ÄŁÄ±nÄ±": 4299,
      "Ġhappy": 4300,
      "Ġhope": 4301,
      "ital": 4302,
      "ĠAv": 4303,
      "ĠCONT": 4304,
      "Ġvariable": 4305,
      "Ġsave": 4306,
      "elease": 4307,
      "AÃ§": 4308,
      "masÄ±na": 4309,
      "ĠaraÅŁtÄ±r": 4310,
      "essiz": 4311,
      "siness": 4312,
      "Ġbuldum": 4313,
      "ISO": 4314,
      "Ġfinally": 4315,
      "ĠdÃ¼ÅŁÃ¼ndÃ¼m": 4316,
      "Ġspecified": 4317,
      "Af": 4318,
      "bil": 4319,
      "Ġcap": 4320,
      "ises": 4321,
      "ĠChrist": 4322,
      "Sorry": 4323,
      "SÄ±r": 4324,
      "_error": 4325,
      "econd": 4326,
      "ĠadamÄ±n": 4327,
      "Ġtamamen": 4328,
      "malÄ±sÄ±n": 4329,
      "\".Ċ": 4330,
      "erry": 4331,
      "Ġtimes": 4332,
      "utton": 4333,
      "Ġsystem": 4334,
      "Neler": 4335,
      "bek": 4336,
      "ĠÅŀimdi": 4337,
      "Ġrap": 4338,
      "larÄ±mÄ±z": 4339,
      "abilecek": 4340,
      "ĠSana": 4341,
      "event": 4342,
      "_module": 4343,
      "Ġroot": 4344,
      "Ġgarip": 4345,
      "Every": 4346,
      "(path": 4347,
      ".text": 4348,
      "Ġ...Ċ": 4349,
      "Ġdad": 4350,
      "Ġcreate": 4351,
      "Kesinlikle": 4352,
      "vis": 4353,
      "Ġfig": 4354,
      "ĠMc": 4355,
      "ĠolduÄŁuna": 4356,
      "elerini": 4357,
      "Ġkendimi": 4358,
      "ebilirsin": 4359,
      "uli": 4360,
      "Ġut": 4361,
      "Ġsun": 4362,
      "Ġside": 4363,
      "ouch": 4364,
      "iful": 4365,
      "Ġtarget": 4366,
      "Ġspecial": 4367,
      "YarÄ±n": 4368,
      "box": 4369,
      "emiz": 4370,
      "Ġaram": 4371,
      "ĠbaÅŁladÄ±": 4372,
      "ĠdÃ¶nÃ¼ÅŁ": 4373,
      "mayacak": 4374,
      "Ġmakes": 4375,
      "Onunla": 4376,
      "Ġdirectory": 4377,
      "EV": 4378,
      "Ġsoy": 4379,
      "Ġ'%": 4380,
      "die": 4381,
      "Ġbusiness": 4382,
      "Ġconfig": 4383,
      "=self": 4384,
      "func": 4385,
      "mesine": 4386,
      "Ġsap": 4387,
      "Ġima": 4388,
      "atur": 4389,
      "ĠkÄ±y": 4390,
      "Ġkesinlikle": 4391,
      "Ã¼mkÃ¼n": 4392,
      "Ãĸl": 4393,
      "_N": 4394,
      "Ġded": 4395,
      "Ġcal": 4396,
      "ases": 4397,
      "ĠIN": 4398,
      "reen": 4399,
      "azy": 4400,
      "Ġfriends": 4401,
      "Kendi": 4402,
      "dunuz": 4403,
      "esiz": 4404,
      "iles": 4405,
      "ants": 4406,
      "uya": 4407,
      "tag": 4408,
      "ATION": 4409,
      "Ġtruth": 4410,
      "Ġsuper": 4411,
      "Ġortaya": 4412,
      "IO": 4413,
      "_F": 4414,
      "ude": 4415,
      "ats": 4416,
      "Ġwish": 4417,
      "ROL": 4418,
      "ded": 4419,
      "ĠSadece": 4420,
      "ndan": 4421,
      "ĠEm": 4422,
      "context": 4423,
      "ĠyÃ¶net": 4424,
      "ĠiliÅŁk": 4425,
      "009": 4426,
      "Ġworry": 4427,
      "See": 4428,
      "tÃ¼m": 4429,
      "Ġsearch": 4430,
      "Ġparser": 4431,
      "header": 4432,
      "Ġteklif": 4433,
      "ternal": 4434,
      "posed": 4435,
      "cape": 4436,
      "ĠhÃ¼kÃ¼m": 4437,
      "sub": 4438,
      "Ġcop": 4439,
      "Ġprof": 4440,
      "Ġprobably": 4441,
      "Ġentry": 4442,
      "Tel": 4443,
      "ytes": 4444,
      "Ġdans": 4445,
      "ĠolacaÄŁÄ±m": 4446,
      "ĠNasÄ±l": 4447,
      "Ġistersen": 4448,
      "Ġkalb": 4449,
      "_spec": 4450,
      "UmarÄ±m": 4451,
      "Ġfav": 4452,
      "Ġpast": 4453,
      "umn": 4454,
      "008": 4455,
      "Ġanyone": 4456,
      "Ġhands": 4457,
      "Ġspeak": 4458,
      "ĠCONTROL": 4459,
      "De": 4460,
      "Vay": 4461,
      "YaÅŁ": 4462,
      "Ġip": 4463,
      "irler": 4464,
      "ĠBar": 4465,
      "ĠyapmÄ±ÅŁ": 4466,
      "Ġgetattr": 4467,
      "indim": 4468,
      "Ġzamanda": 4469,
      "ĠdÃ¶v": 4470,
      "Benimle": 4471,
      "Ġchildren": 4472,
      ".re": 4473,
      "doc": 4474,
      "kar": 4475,
      "ences": 4476,
      "swith": 4477,
      "\".": 4478,
      "Be": 4479,
      "Baba": 4480,
      "irc": 4481,
      "Ġfall": 4482,
      "Ġarada": 4483,
      "Ġreason": 4484,
      "ardon": 4485,
      "Ġlocal": 4486,
      "KonuÅŁ": 4487,
      "anda": 4488,
      "Ġinside": 4489,
      "UTE": 4490,
      "Ġbayan": 4491,
      "Ġyum": 4492,
      "ĠolacaÄŁÄ±nÄ±": 4493,
      "ĠÃ§en": 4494,
      "sunuz": 4495,
      "Ġreturns": 4496,
      "ĠgeÃ§ti": 4497,
      "Ġdurumda": 4498,
      "Nereye": 4499,
      "(obj": 4500,
      "-I": 4501,
      ">Ċ": 4502,
      "ba": 4503,
      "come": 4504,
      "mar": 4505,
      "Ġdal": 4506,
      "Ġign": 4507,
      "omple": 4508,
      "ĠMy": 4509,
      "Ġreport": 4510,
      "ICAL": 4511,
      "Affed": 4512,
      "\\'": 4513,
      "Ġfakat": 4514,
      "Ä±rsÄ±z": 4515,
      "omet": 4516,
      "ĠyapÄ±l": 4517,
      "Ġgelip": 4518,
      "Ġsonunda": 4519,
      "Ġduydum": 4520,
      "Ġkorum": 4521,
      "Hi": 4522,
      "Ġsus": 4523,
      "ird": 4524,
      "Ġlate": 4525,
      "Ġminutes": 4526,
      "nie": 4527,
      "ss": 4528,
      "tun": 4529,
      "Ġsocket": 4530,
      "Ã¼mÃ¼": 4531,
      "ĠyÃ¼ksek": 4532,
      "Ġyeniden": 4533,
      "23": 4534,
      "xF": 4535,
      "Ġdeath": 4536,
      "Ġcontrol": 4537,
      "ĠWho": 4538,
      "Ġmaking": 4539,
      "Ġminute": 4540,
      "Implement": 4541,
      "net": 4542,
      "Ä±sÄ±n": 4543,
      "Ġdig": 4544,
      "irim": 4545,
      "Ġgave": 4546,
      "Ġhuh": 4547,
      "ĠfotoÄŁraf": 4548,
      "omen": 4549,
      "ĠSor": 4550,
      "Ġdoor": 4551,
      "ĠKap": 4552,
      "esinden": 4553,
      "Ãľst": 4554,
      "nemli": 4555,
      "Ġextra": 4556,
      "ĠoÄŁlum": 4557,
      "Ġtonight": 4558,
      "eng": 4559,
      "Ġsek": 4560,
      "Ġdat": 4561,
      "003": 4562,
      "ĠPek": 4563,
      "ief": 4564,
      "ughter": 4565,
      "lor": 4566,
      "more": 4567,
      "nf": 4568,
      "Ġdiyor": 4569,
      "amadÄ±m": 4570,
      "Ġnok": 4571,
      "Ġbirisi": 4572,
      "ĠÃ§iz": 4573,
      "lerimi": 4574,
      "Ġgeldin": 4575,
      "larÄ±nÄ±z": 4576,
      "ĠsanmÄ±yorum": 4577,
      "ĠsanÄ±yordum": 4578,
      "dÄ±ÄŁÄ±": 4579,
      "Ġerrors": 4580,
      "Ġpackage": 4581,
      "Type": 4582,
      "mun": 4583,
      "over": 4584,
      "Ġhot": 4585,
      "etwork": 4586,
      "ics": 4587,
      "ĠPh": 4588,
      "user": 4589,
      "Ġwonder": 4590,
      "Ġpossible": 4591,
      "Bizi": 4592,
      "Ã¼f": 4593,
      "Ġfa": 4594,
      "asÄ±ndan": 4595,
      "Ġruh": 4596,
      "ĠÃ§Ã¶": 4597,
      "ĠAb": 4598,
      "Ġetmeye": 4599,
      "Ġharc": 4600,
      ".split": 4601,
      "Hepsi": 4602,
      "Ġkids": 4603,
      "Ġmahk": 4604,
      "Em": 4605,
      "Mu": 4606,
      "Take": 4607,
      "unch": 4608,
      "INE": 4609,
      "02": 4610,
      "IM": 4611,
      "ĠThey": 4612,
      "Ġdik": 4613,
      "ĠSp": 4614,
      "Ġverdim": 4615,
      "Onlara": 4616,
      "ync": 4617,
      "ground": 4618,
      "ĠyaptÄ±ÄŁÄ±nÄ±": 4619,
      "Ġtypes": 4620,
      "Ġexactly": 4621,
      "ris": 4622,
      "lec": 4623,
      "Ġtomorrow": 4624,
      ".ISO": 4625,
      "mes": 4626,
      "Ġkov": 4627,
      "Ġolamaz": 4628,
      "Ġara": 4629,
      "ĠCan": 4630,
      "Ġziy": 4631,
      "Ġizle": 4632,
      "Hello": 4633,
      "Like": 4634,
      "_in": 4635,
      "Ġyield": 4636,
      "Ġansw": 4637,
      "Ġlight": 4638,
      "_size": 4639,
      "Ġsingle": 4640,
      "ERTICAL": 4641,
      "state": 4642,
      "Ġrange": 4643,
      "Ġ'|": 4644,
      "ĠIP": 4645,
      "Ġvermek": 4646,
      "ĠFORM": 4647,
      "Ġlooks": 4648,
      "ĠdÃ¼zen": 4649,
      "cu": 4650,
      "Ġyes": 4651,
      "ĠGel": 4652,
      "ĠKey": 4653,
      "Ġgets": 4654,
      "Ġconf": 4655,
      "uce": 4656,
      "ĠyÄ±k": 4657,
      "amet": 4658,
      "lardÄ±": 4659,
      "lardÄ±r": 4660,
      "Ġevlat": 4661,
      "ĠVERTICAL": 4662,
      "ĠÃ¼zere": 4663,
      "Kimse": 4664,
      "Ġkaybol": 4665,
      "emezsin": 4666,
      "Ġkitap": 4667,
      "Tell": 4668,
      "db": 4669,
      "ĠST": 4670,
      "ished": 4671,
      "airs": 4672,
      "del": 4673,
      "dasÄ±n": 4674,
      "Ġfel": 4675,
      "Ä±ÄŁÄ±nÄ±": 4676,
      "Ġorig": 4677,
      "ĠbaÅŁlay": 4678,
      "Ġayar": 4679,
      "malÄ±yÄ±m": 4680,
      "ĠdÄ±ÅŁÄ±nda": 4681,
      "Ġstatement": 4682,
      "05": 4683,
      "ided": 4684,
      "iction": 4685,
      "ĠOSError": 4686,
      "Car": 4687,
      "Ser": 4688,
      "ĠÃ¼r": 4689,
      "ĠÃ¼y": 4690,
      "Ġurl": 4691,
      "Ġwarn": 4692,
      "ĠiÃ§er": 4693,
      "aÄŁÄ±n": 4694,
      "Ġolmadan": 4695,
      "ĠadÄ±m": 4696,
      "Ġevde": 4697,
      "tÄ±ÄŁÄ±": 4698,
      "Ġnereye": 4699,
      "Ġcinayet": 4700,
      "_tr": 4701,
      "ĠThere": 4702,
      "Ġht": 4703,
      "ities": 4704,
      "Ġdebug": 4705,
      "Ġbeaut": 4706,
      "ĠGet": 4707,
      "Ġpres": 4708,
      "ĠĠĠĠĠĠĠĠĠĠĠĠĠĠĠĠĠĠĠĠĠĠ": 4709,
      "Ġinformation": 4710,
      "ayla": 4711,
      "ĠGÃ¼n": 4712,
      "ĠiÅŁler": 4713,
      "ilerini": 4714,
      "Ġcho": 4715,
      "ĠÃ§Ä±kart": 4716,
      "ĠhaklÄ±": 4717,
      "ĠÃ§ekil": 4718,
      "255": 4719,
      "ĠihtiyacÄ±": 4720,
      "ĠgÃ¼Ã§lÃ¼": 4721,
      "tuk": 4722,
      ".start": 4723,
      "ces": 4724,
      "pack": 4725,
      "Ġcopy": 4726,
      "ĠCHA": 4727,
      "ĠOl": 4728,
      "ĠbakÄ±n": 4729,
      "ĠdÃ¶rt": 4730,
      "efendi": 4731,
      "Ġyolunda": 4732,
      "Ġdolu": 4733,
      "Ġinterest": 4734,
      "Ġgizli": 4735,
      "xB": 4736,
      "ately": 4737,
      "actor": 4738,
      "aban": 4739,
      "__()\"": 4740,
      "dÄ±z": 4741,
      "ha": 4742,
      "Ġders": 4743,
      "els": 4744,
      "Ġpop": 4745,
      "obody": 4746,
      "ayÄ±t": 4747,
      "Ġterk": 4748,
      "Ãĸzel": 4749,
      "errors": 4750,
      "Ä°Ã§eri": 4751,
      "Ġtoplant": 4752,
      "']Ċ": 4753,
      "(object": 4754,
      "))": 4755,
      "pect": 4756,
      "right": 4757,
      "arning": 4758,
      "Ġgaz": 4759,
      "ider": 4760,
      "ĠExt": 4761,
      "ĠUP": 4762,
      "Ġimportant": 4763,
      "ship": 4764,
      "AÄŁ": 4765,
      "Kur": 4766,
      "err": 4767,
      "oloj": 4768,
      "Ġlaw": 4769,
      "Ä±ÅŁÄ±": 4770,
      "verse": 4771,
      "ĠTanrÄ±": 4772,
      "oph": 4773,
      "ĠGood": 4774,
      "inizin": 4775,
      "Ġyoktur": 4776,
      "AnlaÅŁ": 4777,
      "Ġgidiyorum": 4778,
      "Ġdakik": 4779,
      "TeÅŁekkÃ¼rler": 4780,
      "((": 4781,
      "ters": 4782,
      "Ġmana": 4783,
      "action": 4784,
      "tiv": 4785,
      "Ġlock": 4786,
      "ĠMichael": 4787,
      "256": 4788,
      "HE": 4789,
      "Ġ$": 4790,
      "Ġolup": 4791,
      "ĠÃ§ift": 4792,
      "Ġbebek": 4793,
      "ileÅŁ": 4794,
      "ĠgeliÅŁ": 4795,
      "Ġverin": 4796,
      "Ġveriyorum": 4797,
      "Ġakl": 4798,
      "Ġsebeb": 4799,
      "Ġherhangi": 4800,
      "-c": 4801,
      "Ġbat": 4802,
      "ored": 4803,
      "Ġkart": 4804,
      "dif": 4805,
      "used": 4806,
      "ĠFrank": 4807,
      "fa": 4808,
      "ĠdÃ¼zel": 4809,
      "Ġhes": 4810,
      "ĠDe": 4811,
      ".close": 4812,
      "ĠuÄŁraÅŁ": 4813,
      "Ġmurder": 4814,
      "Handler": 4815,
      "Ġlim": 4816,
      "ailable": 4817,
      "offset": 4818,
      "Base": 4819,
      "God": 4820,
      "Hala": 4821,
      "Ġbook": 4822,
      "org": 4823,
      "ÄŁun": 4824,
      "ali": 4825,
      "ĠÅŁiÅŁ": 4826,
      "ĠSer": 4827,
      "Ġisim": 4828,
      "Ġarr": 4829,
      "ĠDaha": 4830,
      "ecekler": 4831,
      "miÅŁti": 4832,
      "Ä±sÄ±nÄ±": 4833,
      "Ġtaking": 4834,
      "mayacaÄŁÄ±m": 4835,
      "Biliyorum": 4836,
      "Ġmemnun": 4837,
      "ĠgÃ¶rÃ¼ÅŁÃ¼rÃ¼z": 4838,
      "YRI": 4839,
      "log": 4840,
      "Ġsupposed": 4841,
      "Ġrunning": 4842,
      "-S": 4843,
      "Dikkat": 4844,
      "Pat": 4845,
      "bo": 4846,
      "host": 4847,
      "Ġbok": 4848,
      "Ġdil": 4849,
      "Ġdiyorsun": 4850,
      "ĠkÄ±l": 4851,
      "unÃ§": 4852,
      "Ġret": 4853,
      "Ä±rÄ±": 4854,
      "ĠiÃ§ine": 4855,
      "Ġyapma": 4856,
      "Ġhaft": 4857,
      "Ġetraf": 4858,
      "RAC": 4859,
      "-in": 4860,
      ";Ċ": 4861,
      "RL": 4862,
      "Ġthough": 4863,
      "Ġca": 4864,
      "ĠCYRI": 4865,
      "ĠYap": 4866,
      "ages": 4867,
      "LLIC": 4868,
      "ĠCYRILLIC": 4869,
      "KÃ¼Ã§Ã¼k": 4870,
      "left": 4871,
      "iyordu": 4872,
      "Ġediyorsun": 4873,
      "geÃ§": 4874,
      "ĠayÄ±r": 4875,
      "Ġolurdu": 4876,
      "Ġ{}Ċ": 4877,
      "Sizin": 4878,
      "ĠtatlÄ±": 4879,
      "Ġfollowing": 4880,
      "])": 4881,
      "_info": 4882,
      "outh": 4883,
      "Ġeat": 4884,
      "Ġiter": 4885,
      "iled": 4886,
      "ĠTo": 4887,
      "Ġneeds": 4888,
      "Ġcharacter": 4889,
      "********": 4890,
      "Ġhours": 4891,
      "Res": 4892,
      "cy": 4893,
      "cuse": 4894,
      "dÄ±nÄ±z": 4895,
      "ĠÃ¶ÄŁ": 4896,
      "ĠCome": 4897,
      "ÃĩÄ±k": 4898,
      "ilerine": 4899,
      "Ġsanki": 4900,
      "Ġ|\\": 4901,
      "Ä°nan": 4902,
      "Ġkayn": 4903,
      "ĠÃ¼lk": 4904,
      "RACTER": 4905,
      "udi": 4906,
      "Ġhus": 4907,
      "items": 4908,
      "Ġran": 4909,
      "ebe": 4910,
      "SC": 4911,
      "Ä±c": 4912,
      "Ġneeded": 4913,
      "Ġparty": 4914,
      "ĠSenin": 4915,
      "ESIS": 4916,
      "Ġmerkez": 4917,
      "ĠÃ§ocuÄŁu": 4918,
      "Ġhissediyorum": 4919,
      "Ġsebep": 4920,
      "AynÄ±": 4921,
      "ĠCHARACTER": 4922,
      "tal": 4923,
      "Ġref": 4924,
      "Any": 4925,
      "Ġsection": 4926,
      "anny": 4927,
      "Ġfinal": 4928,
      "45": 4929,
      "DiÄŁer": 4930,
      "Ey": 4931,
      "sey": 4932,
      "Ġbal": 4933,
      "Ġhab": 4934,
      "Ġwater": 4935,
      "ĠSee": 4936,
      "ĠHOR": 4937,
      "ĠolmadÄ±": 4938,
      "tains": 4939,
      "property": 4940,
      "Ġkendine": 4941,
      "ĠkÃ¶pek": 4942,
      "landÄ±r": 4943,
      "selves": 4944,
      "\"\\": 4945,
      "].": 4946,
      "_from": 4947,
      "Ġdayan": 4948,
      "Ġfail": 4949,
      "iley": 4950,
      "ester": 4951,
      "ĠEv": 4952,
      "ĠYani": 4953,
      "ONTAL": 4954,
      "IZONTAL": 4955,
      "ĠyaÄŁ": 4956,
      "Ã§ok": 4957,
      "ĠLet": 4958,
      "Ġtanr": 4959,
      "ives": 4960,
      "madÄ±n": 4961,
      "lower": 4962,
      "enny": 4963,
      "ArkadaÅŁ": 4964,
      "Jack": 4965,
      "ĠRob": 4966,
      "Ġcertain": 4967,
      "ĠHORIZONTAL": 4968,
      "(r": 4969,
      "-M": 4970,
      "rol": 4971,
      "sik": 4972,
      "Ä±t": 4973,
      "enk": 4974,
      "Ġain": 4975,
      "Ġyor": 4976,
      "ĠkuÅŁ": 4977,
      "Ġluck": 4978,
      "Ġart": 4979,
      "Ġsequence": 4980,
      "ific": 4981,
      "ĠgeÃ§en": 4982,
      "Ġsevindim": 4983,
      "Ġasked": 4984,
      "Bar": 4985,
      "Hem": 4986,
      "band": 4987,
      "xD": 4988,
      "Ġsil": 4989,
      "start": 4990,
      "repr": 4991,
      "odes": 4992,
      "Ġtrust": 4993,
      "group": 4994,
      "Stream": 4995,
      "\":Ċ": 4996,
      "Ġocc": 4997,
      "ĠÅŁÃ¶yle": 4998,
      "ĠSE": 4999,
      "ĠSiz": 5000,
      "duÄŁu": 5001,
      "ĠOF": 5002,
      "Ġettik": 5003,
      "Ġcrazy": 5004,
      "ĠsakÄ±n": 5005,
      "ĠbÃ¶lg": 5006,
      "link": 5007,
      "oon": 5008,
      "Ġpain": 5009,
      "ĠMARK": 5010,
      "Ġlead": 5011,
      "uf": 5012,
      "anlÄ±": 5013,
      "Ġdate": 5014,
      "atik": 5015,
      "Ġceh": 5016,
      "like": 5017,
      "Ġstory": 5018,
      "ĠTeÅŁekkÃ¼r": 5019,
      "ĠGeorge": 5020,
      "ĠsonuÃ§": 5021,
      "config": 5022,
      "ĠbunlarÄ±": 5023,
      "Bundan": 5024,
      "ĠâĢľ": 5025,
      "Hav": 5026,
      "ines": 5027,
      "Ġkir": 5028,
      "azar": 5029,
      "rag": 5030,
      "Ġdefined": 5031,
      "Ġpolice": 5032,
      "Implemented": 5033,
      "80": 5034,
      "Kaf": 5035,
      "[i": 5036,
      "xC": 5037,
      "Ġmiy": 5038,
      "ĠhanÄ±m": 5039,
      "Ġshot": 5040,
      "ĠJim": 5041,
      "ĠburasÄ±": 5042,
      "ĠgeÃ§miÅŁ": 5043,
      "ĠinsanlarÄ±n": 5044,
      "Ġfazl": 5045,
      "Ġkomik": 5046,
      "Kahretsin": 5047,
      "Ġcli": 5048,
      "ĠIm": 5049,
      "acters": 5050,
      "ĠWhere": 5051,
      "Ġdescrip": 5052,
      "Ġheaders": 5053,
      "Ġaccess": 5054,
      "LA": 5055,
      "patch": 5056,
      "xA": 5057,
      "ĠÅŁaÅŁÄ±r": 5058,
      "ĠDÃ¼n": 5059,
      "artÄ±ÅŁ": 5060,
      "ĠyarÄ±ÅŁ": 5061,
      "ĠgÃ¶rdÃ¼ÄŁÃ¼m": 5062,
      "Ġiyiyim": 5063,
      "Ġpattern": 5064,
      "(x": 5065,
      ".join": 5066,
      "Az": 5067,
      "File": 5068,
      "Mut": 5069,
      "\\u": 5070,
      "itor": 5071,
      "ĠBe": 5072,
      "tens": 5073,
      "Ġeveryone": 5074,
      "Bey": 5075,
      "KE": 5076,
      "cess": 5077,
      "ĠgÃ¼l": 5078,
      "Ġfour": 5079,
      "Ġalan": 5080,
      "ĠvarmÄ±ÅŁ": 5081,
      "Ġsex": 5082,
      "Ġrefer": 5083,
      "ĠgerektiÄŁini": 5084,
      "iving": 5085,
      "Ġpassed": 5086,
      "Ġresults": 5087,
      "ĠbebeÄŁim": 5088,
      "FC": 5089,
      "aly": 5090,
      ".par": 5091,
      "Listen": 5092,
      "rary": 5093,
      "sal": 5094,
      "ĠmÃ¼kemmel": 5095,
      "Ġniye": 5096,
      "Ġufak": 5097,
      "Ġbence": 5098,
      "_string": 5099,
      "Ġ'*": 5100,
      "dist": 5101,
      "Ġchance": 5102,
      "Efendim": 5103,
      "PT": 5104,
      "_se": 5105,
      "tk": 5106,
      "Ġaraba": 5107,
      "maktan": 5108,
      "after": 5109,
      "Ġkalan": 5110,
      "Sence": 5111,
      "Ġaccept": 5112,
      "Ġasker": 5113,
      "(Decimal": 5114,
      "Ġmot": 5115,
      "ĠAm": 5116,
      "Ġrequir": 5117,
      "Dec": 5118,
      "His": 5119,
      "anlÄ±k": 5120,
      "ĠoÄŁ": 5121,
      "ĠLIGHT": 5122,
      "ĠOK": 5123,
      "BirkaÃ§": 5124,
      "print": 5125,
      "baÅŁÄ±": 5126,
      "Ġeyes": 5127,
      "Ġtag": 5128,
      "Ġauth": 5129,
      "ĠDev": 5130,
      "ĠFran": 5131,
      "strip": 5132,
      "Ġwaiting": 5133,
      "(data": 5134,
      "Senden": 5135,
      "mal": 5136,
      "Ġyem": 5137,
      "ektif": 5138,
      "Ġvaz": 5139,
      "Ġbilmek": 5140,
      "Ġsensin": 5141,
      "Ġkorkut": 5142,
      "Ġprotocol": 5143,
      "ĠÃ§eneni": 5144,
      "Lo": 5145,
      "last": 5146,
      "Ġdaughter": 5147,
      "ukat": 5148,
      "Doktor": 5149,
      "Le": 5150,
      "Say": 5151,
      "ps": 5152,
      "tiler": 5153,
      "vious": 5154,
      "enry": 5155,
      "Ġsn": 5156,
      "Ġdar": 5157,
      "Ġyeri": 5158,
      "Ġhalk": 5159,
      "ĠalÄ±ÅŁ": 5160,
      "eÅŁit": 5161,
      "Ġsupp": 5162,
      "Ġstarted": 5163,
      "Ġhava": 5164,
      "ĠBurada": 5165,
      "([": 5166,
      "27": 5167,
      "_M": 5168,
      "_args": 5169,
      "jan": 5170,
      "Ġthread": 5171,
      "ased": 5172,
      "uvar": 5173,
      "\")": 5174,
      "With": 5175,
      "eal": 5176,
      "gÃ¼r": 5177,
      "tiniz": 5178,
      "erg": 5179,
      "lek": 5180,
      "Ġpap": 5181,
      "ements": 5182,
      "ĠMart": 5183,
      "Ä±nÄ±f": 5184,
      "Ġdavet": 5185,
      "loop": 5186,
      "ĠadamÄ±m": 5187,
      "Ġoffset": 5188,
      "Ġtutuk": 5189,
      "Ġhayatta": 5190,
      "Ġkatil": 5191,
      "Ġdisplay": 5192,
      "OWN": 5193,
      "_set": 5194,
      "can": 5195,
      "mt": 5196,
      "Ã¼b": 5197,
      "ĠSim": 5198,
      "ĠAP": 5199,
      "ĠMer": 5200,
      "Ġmissing": 5201,
      "Ġblood": 5202,
      ".P": 5203,
      "Tat": 5204,
      "got": 5205,
      "Ġsig": 5206,
      "Ġkesin": 5207,
      "urur": 5208,
      "umb": 5209,
      "ĠadÄ±": 5210,
      "alarda": 5211,
      "ĠaÅŁaÄŁÄ±": 5212,
      "ĠihtiyacÄ±n": 5213,
      "ĠaÄŁÄ±r": 5214,
      "ĠeÄŁit": 5215,
      "UTF": 5216,
      "Ġresponse": 5217,
      "lus": 5218,
      "Ġconc": 5219,
      "ublic": 5220,
      "Ġbeautiful": 5221,
      "za": 5222,
      "Ġdedin": 5223,
      "year": 5224,
      "Ġstandard": 5225,
      "Give": 5226,
      "John": 5227,
      "Ġyoung": 5228,
      "raid": 5229,
      "Ġhasattr": 5230,
      "Ġnews": 5231,
      "tributeError": 5232,
      "ĠExtended": 5233,
      "Ġhusband": 5234,
      "Class": 5235,
      "IF": 5236,
      "dout": 5237,
      "luy": 5238,
      "Ġ/": 5239,
      "Ġta": 5240,
      "Ġtep": 5241,
      "Ä±mdan": 5242,
      "ĠÃ§Ä±l": 5243,
      "ĠÅŁehir": 5244,
      "olly": 5245,
      "isinin": 5246,
      "eÅŁke": 5247,
      "Ġimp": 5248,
      "ĠkapÄ±": 5249,
      "ĠboÄŁ": 5250,
      "ĠsÄ±cak": 5251,
      "Ġquestion": 5252,
      "Polis": 5253,
      "bb": 5254,
      "~~": 5255,
      "Ġfuture": 5256,
      "entry": 5257,
      "ĠGo": 5258,
      "ĠThank": 5259,
      "26": 5260,
      "Bul": 5261,
      "Gid": 5262,
      "Qu": 5263,
      "eff": 5264,
      "map": 5265,
      "muyor": 5266,
      "width": 5267,
      "Ġsuc": 5268,
      "alog": 5269,
      "Ġfive": 5270,
      "otocol": 5271,
      "Ã¼nÃ¼n": 5272,
      "ĠSÄ±r": 5273,
      "laÃ§": 5274,
      "Ġedebilir": 5275,
      "acaÄŁÄ±": 5276,
      "Ġistemez": 5277,
      "Ãĸyleyse": 5278,
      "Yoksa": 5279,
      "Ġnokt": 5280,
      "ced": 5281,
      "xE": 5282,
      "xf": 5283,
      "Ġbound": 5284,
      "elle": 5285,
      "Ġnamed": 5286,
      "Ġlab": 5287,
      "ĠLa": 5288,
      "Ġstep": 5289,
      ".sub": 5290,
      "(node": 5291,
      "Ġdied": 5292,
      "Ġdream": 5293,
      "ĠyukarÄ±": 5294,
      "Ġmag": 5295,
      "Ġfact": 5296,
      "emiyorum": 5297,
      "Ã¼rÃ¼st": 5298,
      "Ġetmez": 5299,
      "ĠJust": 5300,
      "Ãĸld": 5301,
      "Ġcompar": 5302,
      "Ġraised": 5303,
      "ĠihtiyacÄ±mÄ±z": 5304,
      "Ġsmall": 5305,
      "ĠkÄ±sm": 5306,
      "down": 5307,
      "Ġiden": 5308,
      "Ġable": 5309,
      ".con": 5310,
      "Stop": 5311,
      "Ġsafe": 5312,
      "Ġserious": 5313,
      "YalnÄ±z": 5314,
      "Zaman": 5315,
      "ae": 5316,
      "dat": 5317,
      "miyorsun": 5318,
      "sign": 5319,
      "ua": 5320,
      "Ġib": 5321,
      "elib": 5322,
      "Ġlink": 5323,
      "ĠaltÄ±": 5324,
      "ĠalÄ±p": 5325,
      "ebek": 5326,
      "Ġkimin": 5327,
      "senin": 5328,
      "eneral": 5329,
      "ĠparÃ§asÄ±": 5330,
      "ĠExtendedContext": 5331,
      "OD": 5332,
      "har": 5333,
      "rib": 5334,
      "etti": 5335,
      "umber": 5336,
      "ĠHT": 5337,
      "ĠRus": 5338,
      "Ġanymore": 5339,
      "Ġcreated": 5340,
      "Ġrepresent": 5341,
      "Ġbehind": 5342,
      "ĠACUTE": 5343,
      "Key": 5344,
      "anÄ±ÅŁ": 5345,
      "Ġtim": 5346,
      "elcome": 5347,
      "akal": 5348,
      "izmet": 5349,
      "Ġitems": 5350,
      "Ġwhether": 5351,
      "ĠkalÄ±r": 5352,
      "ĠtanÄ±": 5353,
      "ĠyarÄ±n": 5354,
      "Ġistemiyor": 5355,
      "Incremental": 5356,
      "ĠbaÄŁlÄ±": 5357,
      "ĠWhy": 5358,
      "ĠyaptÄ±ÄŁÄ±": 5359,
      "Ġmesel": 5360,
      "II": 5361,
      "Ver": 5362,
      "Yol": 5363,
      "Ġ'<": 5364,
      "Ġparse": 5365,
      "Ġ['": 5366,
      "Ġhandler": 5367,
      "Ġdoctor": 5368,
      "local": 5369,
      "SE": 5370,
      "inÃ§": 5371,
      "Ġtuhaf": 5372,
      "ĠyavaÅŁ": 5373,
      "ired": 5374,
      "Ġmed": 5375,
      "Ġmid": 5376,
      "Ġcut": 5377,
      "Ġfree": 5378,
      "ĠmÄ±sÄ±nÄ±z": 5379,
      "ĠolmasÄ±nÄ±": 5380,
      "Ġengel": 5381,
      "ansÄ±z": 5382,
      "layÄ±n": 5383,
      "Ġgidiyorsun": 5384,
      "Ġkurb": 5385,
      "ĠkÄ±zÄ±": 5386,
      "Ġtaken": 5387,
      "ĠistediÄŁini": 5388,
      "seniz": 5389,
      "aÄŁÄ±t": 5390,
      "Ġcouple": 5391,
      "Ġrapor": 5392,
      "Tak": 5393,
      "asa": 5394,
      "Ġ'-": 5395,
      "Ġhalf": 5396,
      "Ġclasses": 5397,
      "Ġdestroy": 5398,
      "Ġmonths": 5399,
      "ĠNotImplemented": 5400,
      "bur": 5401,
      "Ġtable": 5402,
      "Ġkere": 5403,
      "aydÄ±m": 5404,
      "stat": 5405,
      "reet": 5406,
      "ĠalmÄ±ÅŁ": 5407,
      "ĠÃ¶p": 5408,
      "Ġyapmaya": 5409,
      "rav": 5410,
      "osh": 5411,
      "ify": 5412,
      "Ġpark": 5413,
      "ladÄ±k": 5414,
      "ĠsanÄ±yorsun": 5415,
      "ĠtakÄ±m": 5416,
      "ĠyetiÅŁ": 5417,
      "Ġafraid": 5418,
      "Reader": 5419,
      "ĠbÃ¶lÃ¼m": 5420,
      "Sakin": 5421,
      "(input": 5422,
      "Ġeasy": 5423,
      "Ġprec": 5424,
      "Ġpresent": 5425,
      "Ġbrought": 5426,
      "Ġfavor": 5427,
      "NE": 5428,
      "Niye": 5429,
      "aring": 5430,
      "Ġmulti": 5431,
      "ĠAdam": 5432,
      "Ġforget": 5433,
      "ĠLÃ¼tfen": 5434,
      "Ġorgan": 5435,
      "ĠiÅŁaret": 5436,
      "lang": 5437,
      "ĠÄ°Ã§": 5438,
      "ittest": 5439,
      "cii": 5440,
      "ĠdolayÄ±": 5441,
      "ĠWhen": 5442,
      "199": 5443,
      "ĠtaÅŁÄ±n": 5444,
      "_dirs": 5445,
      "ictionary": 5446,
      "_P": 5447,
      "Ġgame": 5448,
      "Ġmine": 5449,
      "Ġtown": 5450,
      "ĠSING": 5451,
      "Ġshoot": 5452,
      "ational": 5453,
      "friend": 5454,
      "60": 5455,
      "AH": 5456,
      "Ġbes": 5457,
      "ĠpiÅŁ": 5458,
      "Ġpost": 5459,
      "Ä±ÅŁtÄ±r": 5460,
      "Ä±ÅŁarÄ±": 5461,
      "ĠRFC": 5462,
      "Ġelb": 5463,
      "lamaz": 5464,
      "meyen": 5465,
      "manÄ±z": 5466,
      "ĠyaÅŁlÄ±": 5467,
      "dayÄ±z": 5468,
      "Arab": 5469,
      "laÅŁtÄ±r": 5470,
      "licy": 5471,
      "landÄ±": 5472,
      "abiliyor": 5473,
      "ĠrahatsÄ±z": 5474,
      "_B": 5475,
      "Ã©": 5476,
      "Ġmess": 5477,
      "Ġkel": 5478,
      "ume": 5479,
      "Ġeff": 5480,
      "ĠPat": 5481,
      "upport": 5482,
      "Info": 5483,
      "parator": 5484,
      "Ġkeyword": 5485,
      "Exception": 5486,
      "ĠQU": 5487,
      "ĠSINGLE": 5488,
      "Duy": 5489,
      "ML": 5490,
      "Mes": 5491,
      "Nothing": 5492,
      "OÄŁl": 5493,
      "Ġburn": 5494,
      "Ġgide": 5495,
      "ĠmÃ¼mkÃ¼n": 5496,
      "ÄŁuk": 5497,
      "ams": 5498,
      "Ġclean": 5499,
      "larÄ±mÄ±": 5500,
      "ĠSc": 5501,
      "ĠHE": 5502,
      "ĠGÃ¶r": 5503,
      "Ġbende": 5504,
      "ists": 5505,
      "Ġoutside": 5506,
      "eÅŁem": 5507,
      "Ancak": 5508,
      "elerin": 5509,
      "Ġseviyor": 5510,
      ".py": 5511,
      "Ġbilmiyor": 5512,
      "Ġdecode": 5513,
      "ances": 5514,
      "Tekrar": 5515,
      "Ġbuilt": 5516,
      "?\"": 5517,
      "_value": 5518,
      "ently": 5519,
      "ibility": 5520,
      "Ġdefinit": 5521,
      "Ġappr": 5522,
      "ompiler": 5523,
      "(other": 5524,
      ".root": 5525,
      "face": 5526,
      "gÄ±": 5527,
      "sol": 5528,
      "ĠsayÄ±": 5529,
      "Ġneyse": 5530,
      "ĠaltÄ±n": 5531,
      "ĠmeÅŁ": 5532,
      "hteÅŁem": 5533,
      "Ġexample": 5534,
      "mene": 5535,
      "_par": 5536,
      "Ġdeniz": 5537,
      "Ġcharacters": 5538,
      "abileceÄŁini": 5539,
      "Eminim": 5540,
      "ĠCr": 5541,
      "ĠMac": 5542,
      "Ġinteger": 5543,
      "Aile": 5544,
      "Kan": 5545,
      "gili": 5546,
      "inter": 5547,
      "Ġdek": 5548,
      "Ġaut": 5549,
      "Ġmiydi": 5550,
      "aph": 5551,
      "ĠSe": 5552,
      "Ġyapan": 5553,
      "ĠyapacaÄŁÄ±z": 5554,
      "miÅŁtim": 5555,
      "ĠÃ¶nÃ¼nde": 5556,
      "apper": 5557,
      "Ġquite": 5558,
      "Ġparameter": 5559,
      "Devam": 5560,
      "Ġanswer": 5561,
      "Kes": 5562,
      "Ġtouch": 5563,
      "etime": 5564,
      "Ġcur": 5565,
      "icode": 5566,
      "Ġshut": 5567,
      "anger": 5568,
      "Ġoffice": 5569,
      "writ": 5570,
      "tributes": 5571,
      "_names": 5572,
      "Ġchanges": 5573,
      "BazÄ±": 5574,
      "Def": 5575,
      "mp": 5576,
      "Ġsiy": 5577,
      "ÄŁinizi": 5578,
      "eyiz": 5579,
      "olon": 5580,
      "ĠÅŁeyden": 5581,
      "update": 5582,
      "stract": 5583,
      "ĠhayatÄ±m": 5584,
      "Ġheyec": 5585,
      "duÄŁunu": 5586,
      "ĠkÄ±sa": 5587,
      "-T": 5588,
      "Ed": 5589,
      "FF": 5590,
      "_lib": 5591,
      "miss": 5592,
      "Ġtur": 5593,
      "Ġdi": 5594,
      "Ġround": 5595,
      "ĠMor": 5596,
      "Ġseem": 5597,
      "aving": 5598,
      ".pack": 5599,
      "Ġerr": 5600,
      "ency": 5601,
      "Ġoverr": 5602,
      "Ġcalls": 5603,
      "insel": 5604,
      "lineno": 5605,
      "Ġinitial": 5606,
      "\":": 5607,
      "Benden": 5608,
      "TH": 5609,
      "_str": 5610,
      "ennem": 5611,
      "ĠkayÄ±t": 5612,
      "Ġplatform": 5613,
      "emove": 5614,
      "tip": 5615,
      "ĠBl": 5616,
      "ĠBob": 5617,
      "ĠyapÄ±yorum": 5618,
      "ĠmÄ±ydÄ±": 5619,
      "mekten": 5620,
      "ĠgÃ¼c": 5621,
      "ĠbaÄŁlant": 5622,
      "Ġlength": 5623,
      "Ġortak": 5624,
      "================": 5625,
      "ĠÅŁarkÄ±": 5626,
      "Ġtas": 5627,
      "Ġma": 5628,
      "unt": 5629,
      "ĠHep": 5630,
      "Ġmus": 5631,
      "Ġpro": 5632,
      "Ġmoment": 5633,
      "IX": 5634,
      "PA": 5635,
      "sÄ±": 5636,
      "try": 5637,
      "Ġ&": 5638,
      "arlar": 5639,
      "Ã¼cr": 5640,
      "ÅŁeyi": 5641,
      "lecek": 5642,
      "amÄ±yor": 5643,
      "ĠStr": 5644,
      "Ä°z": 5645,
      "mamÄ±": 5646,
      "ugh": 5647,
      "Ġbiliyoruz": 5648,
      "Enc": 5649,
      "ĠeÄŁlenc": 5650,
      "ĠÃ§arp": 5651,
      "utf": 5652,
      "Ġaren": 5653,
      "Ġextens": 5654,
      "allÄ±": 5655,
      "Ġcomes": 5656,
      "Ġ*Ċ": 5657,
      "Ġbitch": 5658,
      "Ġfire": 5659,
      "33": 5660,
      "engin": 5661,
      "amÄ±ÅŁ": 5662,
      "esinin": 5663,
      "Ġpi": 5664,
      "Ġbirine": 5665,
      "dig": 5666,
      "Ġbuffer": 5667,
      "Ġraw": 5668,
      "ĠAngel": 5669,
      "ĠdolaÅŁ": 5670,
      "Ġyeterli": 5671,
      "Ġbenziyor": 5672,
      "AB": 5673,
      "CH": 5674,
      "Dav": 5675,
      "ĠMan": 5676,
      "Ġdrop": 5677,
      "(msg": 5678,
      "Otur": 5679,
      "SÃ¶z": 5680,
      "gative": 5681,
      "ĠtartÄ±ÅŁ": 5682,
      "Ġskip": 5683,
      "iller": 5684,
      "ures": 5685,
      "Ġvir": 5686,
      "ĠaldÄ±n": 5687,
      "Ġverecek": 5688,
      "ĠcanÄ±m": 5689,
      "uyla": 5690,
      "ĠYok": 5691,
      "Ġuyar": 5692,
      "ĠistemiÅŁ": 5693,
      "ĠyÄ±ldÄ±r": 5694,
      "annot": 5695,
      "Ġmillet": 5696,
      "GÃ¶rÃ¼n": 5697,
      "_options": 5698,
      "Ġteslim": 5699,
      "CUM": 5700,
      "{}": 5701,
      "Ġcook": 5702,
      "abc": 5703,
      "ĠAh": 5704,
      "ĠMike": 5705,
      "tax": 5706,
      "ontent": 5707,
      "Ġavailable": 5708,
      "ĠIPv": 5709,
      "XX": 5710,
      "mana": 5711,
      "Ġhata": 5712,
      "alÄ±ÅŁ": 5713,
      "Ġbirinin": 5714,
      "oto": 5715,
      "ĠÃ§abuk": 5716,
      "Ġalacak": 5717,
      "ĠNor": 5718,
      "Ġgelin": 5719,
      "Ġoradan": 5720,
      "afet": 5721,
      "lamaya": 5722,
      "ĠyaÅŁÄ±nda": 5723,
      "Ġtekn": 5724,
      "meli": 5725,
      "ĠsÃ¼rekli": 5726,
      "tual": 5727,
      "Ġencode": 5728,
      "extens": 5729,
      "Ġvakit": 5730,
      "wards": 5731,
      "Ġmey": 5732,
      "Ġcustom": 5733,
      "ĠNote": 5734,
      "Ġshort": 5735,
      "Ġfront": 5736,
      "Ġrecord": 5737,
      "DÃ¼ÅŁÃ¼n": 5738,
      "HazÄ±r": 5739,
      "\\x": 5740,
      "],Ċ": 5741,
      "fect": 5742,
      "enek": 5743,
      "ĠÃ§eÅŁit": 5744,
      "ĠsÃ¶yledin": 5745,
      "ĠolduÄŁum": 5746,
      "ĠYa": 5747,
      "Ãĸnemli": 5748,
      "imizde": 5749,
      "ĠinsanlarÄ±": 5750,
      "ĠakÄ±l": 5751,
      "Ġoyunc": 5752,
      "oÄŁun": 5753,
      "Ã¼cÃ¼": 5754,
      "NA": 5755,
      "ually": 5756,
      "inci": 5757,
      "Ġnor": 5758,
      "uke": 5759,
      "ĠJo": 5760,
      "Ġtrouble": 5761,
      "Hast": 5762,
      "Silah": 5763,
      "ping": 5764,
      "Ġcla": 5765,
      "Ġvic": 5766,
      "eyle": 5767,
      "eci": 5768,
      "Ã¼nÃ¼z": 5769,
      "Ġnear": 5770,
      "ĠĠĠĠĠĠĠĠĠĠĠĠĠĠĠĠĠĠĠĠĠ": 5771,
      "Ġmuh": 5772,
      "Ã¼ÅŁter": 5773,
      "lanmÄ±ÅŁ": 5774,
      "yntax": 5775,
      "Ä±pkÄ±": 5776,
      "Ġsecret": 5777,
      "ĠkardeÅŁim": 5778,
      "KardeÅŁ": 5779,
      "ĠendiÅŁelen": 5780,
      "UP": 5781,
      "lelib": 5782,
      "sim": 5783,
      "yet": 5784,
      "idence": 5785,
      "Ġserv": 5786,
      "bytes": 5787,
      "Ġalive": 5788,
      "Zaten": 5789,
      "gie": 5790,
      "rak": 5791,
      "sine": 5792,
      "Ġdictionary": 5793,
      "Ġikinci": 5794,
      "Ġgod": 5795,
      "ÄŁa": 5796,
      "isay": 5797,
      "Ġ'_": 5798,
      "ĠBab": 5799,
      "ola": 5800,
      "ĠDoktor": 5801,
      "Ġisterim": 5802,
      "usura": 5803,
      "upid": 5804,
      "Ġduruyor": 5805,
      "uÅŁturucu": 5806,
      "AME": 5807,
      "Ġcountry": 5808,
      "Set": 5809,
      "bit": 5810,
      "ories": 5811,
      "Ġcnf": 5812,
      "Ġheav": 5813,
      "portError": 5814,
      "ments": 5815,
      "Ġattack": 5816,
      "Bit": 5817,
      "Will": 5818,
      "_g": 5819,
      "las": 5820,
      "lit": 5821,
      "Ġbast": 5822,
      "Ġiht": 5823,
      "ĠÅŁah": 5824,
      "erebilir": 5825,
      "Ä±lÄ±yor": 5826,
      "ĠDur": 5827,
      "ĠGÃ¼zel": 5828,
      "Ġgoes": 5829,
      "LEX": 5830,
      "ails": 5831,
      "Ġdeney": 5832,
      "ĠdÃ¼nya": 5833,
      "headers": 5834,
      "ĠAmerik": 5835,
      "ĠCharlie": 5836,
      "!\"Ċ": 5837,
      "uation": 5838,
      "Ġtip": 5839,
      "Ġind": 5840,
      "ĠBul": 5841,
      "ols": 5842,
      "ĠDist": 5843,
      "ards": 5844,
      "Ġche": 5845,
      "Ġexpect": 5846,
      "Char": 5847,
      "Kul": 5848,
      "how": 5849,
      "yl": 5850,
      "ĠsÄ±nÄ±f": 5851,
      "Ġdiv": 5852,
      "atta": 5853,
      "Ġkamer": 5854,
      "ĠNer": 5855,
      "Ġbildir": 5856,
      "ĠRay": 5857,
      "larÄ±nÄ±zÄ±": 5858,
      "_class": 5859,
      "ĠÃ¶lÃ¼": 5860,
      "Ġbecome": 5861,
      "Ã¼per": 5862,
      "ĠistediÄŁin": 5863,
      "Ġfunctions": 5864,
      "ĠOnun": 5865,
      "Ġpolit": 5866,
      "ĠÄ°ÅŁte": 5867,
      "GÃ¼ven": 5868,
      "_line": 5869,
      "AÅŁ": 5870,
      "mbol": 5871,
      "Ġkam": 5872,
      "Ġinfo": 5873,
      "Ġindic": 5874,
      "lerdi": 5875,
      "Ġalmaya": 5876,
      "Ġalmost": 5877,
      "Ġwhatever": 5878,
      "Ġedil": 5879,
      "ĠgerÃ§e": 5880,
      "asÄ±yla": 5881,
      "Ġzamanlar": 5882,
      "alara": 5883,
      "Ã¢r": 5884,
      "tÄ±ÄŁÄ±m": 5885,
      "Ġtimeout": 5886,
      "Ã¶rt": 5887,
      "ĠinanamÄ±yorum": 5888,
      "dÄ±ÄŁÄ±m": 5889,
      "Ġassign": 5890,
      "ĠzamandÄ±r": 5891,
      "Ġchanged": 5892,
      "Ġidentif": 5893,
      "ARE": 5894,
      "au": 5895,
      "gine": 5896,
      "Ġair": 5897,
      "Ġ(Ċ": 5898,
      "Ġjoin": 5899,
      "Ġstrings": 5900,
      "Ġmember": 5901,
      "ancel": 5902,
      "\"?Ċ": 5903,
      "'\\": 5904,
      "Nerede": 5905,
      "OF": 5906,
      "lamam": 5907,
      "lilik": 5908,
      "ru": 5909,
      "iling": 5910,
      "illa": 5911,
      "iltin": 5912,
      "Ã¼rÃ¼m": 5913,
      "eceÄŁi": 5914,
      "larÄ±yla": 5915,
      "Ġkalacak": 5916,
      "ĠYOU": 5917,
      "abilirsiniz": 5918,
      "evk": 5919,
      "Ä±nÄ±za": 5920,
      "adÄ±ÄŁÄ±nÄ±": 5921,
      "ĠolacaksÄ±n": 5922,
      "Ġcalling": 5923,
      "Ġbiliyordum": 5924,
      "Ġkeys": 5925,
      "Ġberbat": 5926,
      "Ġtahmin": 5927,
      "Kom": 5928,
      "Ot": 5929,
      "ko": 5930,
      "ĠJoe": 5931,
      ")*": 5932,
      "BI": 5933,
      "cil": 5934,
      "Ġdiyorum": 5935,
      "Ġyal": 5936,
      "Ġhaz": 5937,
      "aket": 5938,
      "ured": 5939,
      "Ä±klÄ±": 5940,
      "ĠdoÄŁum": 5941,
      "Ã¼ÅŁe": 5942,
      "Ãĩek": 5943,
      "ĠolduÄŁun": 5944,
      "ĠolduÄŁumuz": 5945,
      "Ġleg": 5946,
      "Ġtried": 5947,
      "Ġgidecek": 5948,
      "Ġgidiyoruz": 5949,
      "daydÄ±": 5950,
      "cih": 5951,
      "Ġdisc": 5952,
      "BakÄ±n": 5953,
      "Ġoperation": 5954,
      "Ġpromise": 5955,
      "Yar": 5956,
      "tem": 5957,
      "inn": 5958,
      "erif": 5959,
      "Ġken": 5960,
      "ascii": 5961,
      "ĠSar": 5962,
      "target": 5963,
      "Ġcover": 5964,
      "Excuse": 5965,
      ".T": 5966,
      "34": 5967,
      "ji": 5968,
      "Ġbre": 5969,
      "Ġsick": 5970,
      "Ġwomen": 5971,
      "ayÄ±z": 5972,
      "Ä±rken": 5973,
      "Ġbegin": 5974,
      "Ġbilgi": 5975,
      "avallÄ±": 5976,
      "Ġadv": 5977,
      "ĠkonuÅŁuyor": 5978,
      "Ġbasit": 5979,
      "Ġdocument": 5980,
      "ĠborÃ§": 5981,
      "GeÃ§en": 5982,
      "ĠDavid": 5983,
      "_pr": 5984,
      "call": 5985,
      "Ġtap": 5986,
      "Ġdialog": 5987,
      "Ġhor": 5988,
      "ands": 5989,
      "ova": 5990,
      "Ġtelling": 5991,
      "Ġhasta": 5992,
      "Ġwords": 5993,
      "Ġsimple": 5994,
      "(*": 5995,
      "AteÅŁ": 5996,
      "EL": 5997,
      "Koc": 5998,
      "Se": 5999,
      "ior": 6000,
      "split": 6001,
      "ĠÄ±ÅŁ": 6002,
      "Ġahead": 6003,
      "ÄŁunu": 6004,
      "Ġpur": 6005,
      "ecess": 6006,
      "Ġrece": 6007,
      "Ä±ÄŁÄ±m": 6008,
      "ĠEÄŁer": 6009,
      "ĠgÃ¶rmÃ¼ÅŁ": 6010,
      "Ġele": 6011,
      "Ġsomebody": 6012,
      "Ġyola": 6013,
      "ĠBiraz": 6014,
      "Ġappe": 6015,
      "kinter": 6016,
      "Ġdestek": 6017,
      "Ä°nsanlar": 6018,
      "Ġsinir": 6019,
      "ĠReturns": 6020,
      "ĠolsaydÄ±": 6021,
      "Telefon": 6022,
      "\"),Ċ": 6023,
      "+--------------------------------": 6024,
      ".ch": 6025,
      "Would": 6026,
      "_th": 6027,
      "bs": 6028,
      "pen": 6029,
      "zu": 6030,
      "Ġyay": 6031,
      "alde": 6032,
      "ĠAre": 6033,
      "Ġloop": 6034,
      "register": 6035,
      "Ġmarried": 6036,
      "(text": 6037,
      "MÃ¼": 6038,
      "Yer": 6039,
      "mÄ±zÄ±": 6040,
      "Ġsert": 6041,
      "Ġsister": 6042,
      "ĠdiÅŁ": 6043,
      "Ġmac": 6044,
      "ÄŁinin": 6045,
      "Ġneredeyse": 6046,
      "cep": 6047,
      "ĠyaptÄ±r": 6048,
      "Ġdefa": 6049,
      "Ġbulmak": 6050,
      "ĠdÃ¼ÅŁÃ¼r": 6051,
      "layan": 6052,
      "anged": 6053,
      "ĠyaÅŁÄ±n": 6054,
      "Ġclos": 6055,
      "queue": 6056,
      "''Ċ": 6057,
      "28": 6058,
      "``": 6059,
      "dis": 6060,
      "ni": 6061,
      "pat": 6062,
      "test": 6063,
      "apon": 6064,
      "These": 6065,
      "osu": 6066,
      "('-": 6067,
      "itting": 6068,
      "parse": 6069,
      "_time": 6070,
      "Ġcolumn": 6071,
      "indows": 6072,
      "ĠAttributeError": 6073,
      "90": 6074,
      "SÃ¼r": 6075,
      "_or": 6076,
      "ĠhenÃ¼z": 6077,
      "ilere": 6078,
      "Ġcoun": 6079,
      "ĠÅŁur": 6080,
      "ĠalacaÄŁÄ±m": 6081,
      "ĠparayÄ±": 6082,
      "_call": 6083,
      "_code": 6084,
      "ĠÃ¶ÄŁrenc": 6085,
      "Ġkaybed": 6086,
      "Ġeverybody": 6087,
      "ĠseÃ§im": 6088,
      "ĠyÃ¼rÃ¼y": 6089,
      "SakÄ±n": 6090,
      "'na": 6091,
      "FLEX": 6092,
      "raman": 6093,
      "you": 6094,
      "ille": 6095,
      "ĠDIA": 6096,
      "ocus": 6097,
      "ĠKur": 6098,
      "ERESIS": 6099,
      "next": 6100,
      "IRCUM": 6101,
      "ĠDIAERESIS": 6102,
      "IRCUMFLEX": 6103,
      ".D": 6104,
      "Av": 6105,
      "BoÅŁ": 6106,
      "Top": 6107,
      "awn": 6108,
      "dle": 6109,
      "han": 6110,
      "Ġten": 6111,
      "Ġseks": 6112,
      "Ġpush": 6113,
      "ows": 6114,
      "Ġez": 6115,
      "ĠMiss": 6116,
      "rain": 6117,
      "Biri": 6118,
      "Ġbulduk": 6119,
      "derr": 6120,
      "ĠtanÄ±yor": 6121,
      "ĠbaÄŁÄ±ÅŁ": 6122,
      "Ġmilli": 6123,
      "ĠsÃ¶ylÃ¼yorum": 6124,
      "Ġyeterince": 6125,
      "Var": 6126,
      "bet": 6127,
      "Ġcatch": 6128,
      "ĠCIRCUMFLEX": 6129,
      "ĠKon": 6130,
      "ession": 6131,
      "cause": 6132,
      "eful": 6133,
      "Ġbelli": 6134,
      "Ġotherwise": 6135,
      "Eve": 6136,
      "Ste": 6137,
      "oÄŁu": 6138,
      "Ġgenel": 6139,
      "ĠkÄ±Ã§": 6140,
      "Ġham": 6141,
      "Ġhate": 6142,
      "Ġcookie": 6143,
      "ita": 6144,
      "Ġvide": 6145,
      "ĠbeÄŁ": 6146,
      "Ġbud": 6147,
      "ĠdeÄŁiliz": 6148,
      "inder": 6149,
      "Ġknown": 6150,
      "ebrik": 6151,
      "Anlam": 6152,
      "ached": 6153,
      "Ġgeldik": 6154,
      "Ġapart": 6155,
      "ĠkorkunÃ§": 6156,
      "values": 6157,
      "ĠQu": 6158,
      "Ġimplementation": 6159,
      "_version": 6160,
      "mod": 6161,
      "alim": 6162,
      "Ġfood": 6163,
      "Ġcond": 6164,
      "Ġlearn": 6165,
      "Ġspace": 6166,
      "Ġtakes": 6167,
      "Ġworks": 6168,
      "Ġmeeting": 6169,
      ")[": 6170,
      "_text": 6171,
      "cls": 6172,
      "malÄ±k": 6173,
      "Ġsl": 6174,
      "Ġhuman": 6175,
      "Ġneydi": 6176,
      "Ġfl": 6177,
      "uru": 6178,
      "ĠiÃ§ki": 6179,
      "ĠyapacaksÄ±n": 6180,
      "ĠTO": 6181,
      "unuyor": 6182,
      "Ġedip": 6183,
      "ĠPaul": 6184,
      "Ġolmay": 6185,
      "ĠadÄ±na": 6186,
      "ĠWill": 6187,
      "Ġbuldun": 6188,
      "New": 6189,
      "Erkek": 6190,
      "Ġgirls": 6191,
      "oved": 6192,
      "Ġtercih": 6193,
      "Ġclosed": 6194,
      "Ãĩocuklar": 6195,
      "Ġearth": 6196,
      "ĠGerÃ§ek": 6197,
      "ĠsÄ±nÄ±r": 6198,
      "48": 6199,
      "_IN": 6200,
      "ham": 6201,
      "Ġcmd": 6202,
      "abs": 6203,
      "ĠTest": 6204,
      "Ġlib": 6205,
      "uzey": 6206,
      "Ġparents": 6207,
      "length": 6208,
      "_cache": 6209,
      "Ġexpected": 6210,
      "Ġhttp": 6211,
      "_read": 6212,
      "ĠÅŀu": 6213,
      "Ġmach": 6214,
      "ones": 6215,
      "isiniz": 6216,
      "Ġolma": 6217,
      "ahtar": 6218,
      "tial": 6219,
      "Ġep": 6220,
      "Ä±lacak": 6221,
      "Ġship": 6222,
      "Ġattributes": 6223,
      "Ġenum": 6224,
      "ĠÃ§alÄ±ÅŁan": 6225,
      "ĠÄ°s": 6226,
      "Ġyolc": 6227,
      "Ġtarz": 6228,
      "Does": 6229,
      "ĠyanÄ±na": 6230,
      "ĠhayatÄ±nÄ±": 6231,
      "ĠbaÄŁÄ±r": 6232,
      "Ġbilirsin": 6233,
      "ĠvazgeÃ§": 6234,
      ")):Ċ": 6235,
      "-f": 6236,
      "fort": 6237,
      "yer": 6238,
      "ino": 6239,
      "Ġtree": 6240,
      "Ġflags": 6241,
      "acy": 6242,
      "output": 6243,
      "Ġmakin": 6244,
      "Ġcolor": 6245,
      ".un": 6246,
      "65": 6247,
      "SaÃ§": 6248,
      "mÄ±yorsun": 6249,
      "xb": 6250,
      "Ġbind": 6251,
      "Ġsik": 6252,
      "Ġyemin": 6253,
      "Ġgaliba": 6254,
      "ĠraÄŁ": 6255,
      "Ġans": 6256,
      "lerimiz": 6257,
      "enter": 6258,
      "Ġedildi": 6259,
      "ĠRes": 6260,
      "Ġchunk": 6261,
      "_command": 6262,
      "strict": 6263,
      "Ġerken": 6264,
      "ĠgÃ¼le": 6265,
      "control": 6266,
      "Ġiyisi": 6267,
      "asÄ±ndaki": 6268,
      "diÄŁimiz": 6269,
      "ĠhatÄ±rlÄ±yor": 6270,
      "ĠÃ¼stÃ¼ne": 6271,
      "Ġsavun": 6272,
      "Ġdamn": 6273,
      "Writer": 6274,
      "'.Ċ": 6275,
      "By": 6276,
      "Fuck": 6277,
      "_to": 6278,
      "akta": 6279,
      "Ġsende": 6280,
      ".com": 6281,
      "Ġrisk": 6282,
      "Call": 6283,
      "tuple": 6284,
      "inda": 6285,
      "iri": 6286,
      "ĠrÃ¼y": 6287,
      "Ġ'/": 6288,
      "tiÄŁim": 6289,
      "ending": 6290,
      "ĠMom": 6291,
      "ĠMary": 6292,
      "__,": 6293,
      "Ġliving": 6294,
      "ĠedeceÄŁim": 6295,
      "Ġsonu": 6296,
      "meniz": 6297,
      "croll": 6298,
      "classmethod": 6299,
      "ĠBiliyorum": 6300,
      "IAL": 6301,
      "ged": 6302,
      "ges": 6303,
      "Ġsix": 6304,
      "lemek": 6305,
      "ald": 6306,
      "...?Ċ": 6307,
      "Ġseems": 6308,
      "Ġless": 6309,
      "ichard": 6310,
      "Ġletter": 6311,
      "Decoder": 6312,
      "hur": 6313,
      "itive": 6314,
      "Ġrol": 6315,
      "---": 6316,
      "Ġdog": 6317,
      "ĠGit": 6318,
      "Ġelbette": 6319,
      "Ġoffic": 6320,
      "ĠgÃ¼venli": 6321,
      "oxy": 6322,
      "ĠbÃ¼yÃ¼": 6323,
      "ĠraÄŁmen": 6324,
      ".se": 6325,
      "EM": 6326,
      "]:Ċ": 6327,
      "su": 6328,
      "ĠDOWN": 6329,
      "ĠĠĠĠĠĠĠĠĠĠĠĠĠĠĠĠĠĠĠĠĠĠĠĠ": 6330,
      "Ġstud": 6331,
      "ĠKend": 6332,
      "ĠPer": 6333,
      "Asla": 6334,
      "keys": 6335,
      "Ġdrive": 6336,
      ".B": 6337,
      "Gi": 6338,
      "tÄ±nÄ±z": 6339,
      "with": 6340,
      "ĠbiÃ§": 6341,
      "Ġmel": 6342,
      "Ġmekt": 6343,
      "Ġhop": 6344,
      "oud": 6345,
      "Ġrah": 6346,
      "Ġalong": 6347,
      "ĠNow": 6348,
      "Ġstupid": 6349,
      "ĠTabii": 6350,
      "Ġmez": 6351,
      "Ġetmem": 6352,
      "Ġconv": 6353,
      "Ġbakma": 6354,
      "Ã¼yÃ¼": 6355,
      "Ġteam": 6356,
      "Oraya": 6357,
      "Ġoku": 6358,
      "Biliyor": 6359,
      "_data": 6360,
      "Ġsubclass": 6361,
      "Kendini": 6362,
      "Ġlineno": 6363,
      "kwargs": 6364,
      "Help": 6365,
      "_T": 6366,
      "Ġbi": 6367,
      "Ġdri": 6368,
      "amber": 6369,
      "Ġtopr": 6370,
      "entle": 6371,
      "Ã¢n": 6372,
      "Ġconnection": 6373,
      "Ġglobal": 6374,
      "-P": 6375,
      "SavaÅŁ": 6376,
      "Ġbank": 6377,
      "Ġgurur": 6378,
      "ĠalÄ±yor": 6379,
      "Ġalabilir": 6380,
      "ĠyaparÄ±m": 6381,
      "ĠMa": 6382,
      "ified": 6383,
      "isinde": 6384,
      "Ġgitmem": 6385,
      "ĠgÃ¼neÅŁ": 6386,
      "member": 6387,
      "Ġhayvan": 6388,
      "Ġizley": 6389,
      "Sanki": 6390,
      "addy": 6391,
      "ĠaÄŁz": 6392,
      "ĠpaylaÅŁ": 6393,
      "ĠfÄ±rs": 6394,
      "ĠSanÄ±rÄ±m": 6395,
      "(a": 6396,
      "cle": 6397,
      "mini": 6398,
      "ply": 6399,
      "Ġrather": 6400,
      "eman": 6401,
      "Dost": 6402,
      "Kat": 6403,
      "Sab": 6404,
      "field": 6405,
      "just": 6406,
      "yin": 6407,
      "elete": 6408,
      "Ä±nca": 6409,
      "Ġ''Ċ": 6410,
      "ĠÃ§ant": 6411,
      "ĠAlex": 6412,
      "ĠDad": 6413,
      "ĠKom": 6414,
      "ĠKÄ±z": 6415,
      "ĠolmasÄ±n": 6416,
      "ĠvereceÄŁim": 6417,
      "ardÄ±n": 6418,
      "Ġyours": 6419,
      "ĠgitmiÅŁ": 6420,
      "ĠdÃ¼ÅŁÃ¼nmÃ¼ÅŁ": 6421,
      "ĠYour": 6422,
      "Ġistiyorsan": 6423,
      "abileceÄŁim": 6424,
      "ĠgÃ¶rÃ¼nÃ¼yorsun": 6425,
      "Uzun": 6426,
      "Ġvisit": 6427,
      "Ġic": 6428,
      "eyn": 6429,
      "ĠĠĠĠĠĠĠĠĠĠĠĠĠĠĠĠĠĠĠĠĠĠĠĠĠĠ": 6430,
      "Ġmist": 6431,
      "Ġbox": 6432,
      "Conf": 6433,
      "Ġperfect": 6434,
      "Ġvalid": 6435,
      "-Evet": 6436,
      "Oy": 6437,
      "Sah": 6438,
      "Ġhizmet": 6439,
      "ective": 6440,
      "ĠÃ§at": 6441,
      "dia": 6442,
      "ĠÅŁeh": 6443,
      "ĠSaÄŁ": 6444,
      "Ġitir": 6445,
      "ĠTek": 6446,
      "Ġbilin": 6447,
      "acaklar": 6448,
      "ecektir": 6449,
      "Ġevine": 6450,
      "ĠgÃ¼nler": 6451,
      "Ä±mÄ±zda": 6452,
      "Ġgrup": 6453,
      "ĠAnne": 6454,
      "Ġiyilik": 6455,
      "Ġdurumu": 6456,
      "amayÄ±z": 6457,
      "Ġgeceler": 6458,
      "DÃ¼ny": 6459,
      "Ġsweet": 6460,
      "Ġsistem": 6461,
      "01": 6462,
      "Et": 6463,
      "Sc": 6464,
      "kn": 6465,
      "rect": 6466,
      "ename": 6467,
      "Ġstic": 6468,
      "ĠBaba": 6469,
      "ĠCom": 6470,
      "ĠNoel": 6471,
      "(?": 6472,
      "Man": 6473,
      "Mad": 6474,
      "Saat": 6475,
      "YÄ±l": 6476,
      "Yeter": 6477,
      "col": 6478,
      "tak": 6479,
      "Ġmant": 6480,
      "ĠvÃ¼c": 6481,
      "ĠPol": 6482,
      "ĠgÃ¶rmeye": 6483,
      "Ġsense": 6484,
      "ĠolduÄŁundan": 6485,
      "ĠkalmÄ±ÅŁ": 6486,
      "Ġlose": 6487,
      "alarÄ±n": 6488,
      "tÄ±lar": 6489,
      "Ġacaba": 6490,
      "Ġanyway": 6491,
      ".compile": 6492,
      "ĠyaÅŁÄ±yor": 6493,
      "tÄ±ÄŁÄ±n": 6494,
      "Ġgrand": 6495,
      "ĠihtiyaÃ§": 6496,
      "ĠanlamÄ±na": 6497,
      "ĠsÃ¶ylÃ¼yorsun": 6498,
      "ĠHarika": 6499,
      "Ġnamespace": 6500,
      "memiÅŁtim": 6501,
      "Ġhedef": 6502,
      "Ġsahibi": 6503,
      "Ġziyaret": 6504,
      "://": 6505,
      "Up": 6506,
      "_un": 6507,
      "aid": 6508,
      "hash": 6509,
      "Ġmik": 6510,
      "oub": 6511,
      "Ġlan": 6512,
      "Ġconvert": 6513,
      "unction": 6514,
      "room": 6515,
      "Ġnumbers": 6516,
      ".startswith": 6517,
      "Bazen": 6518,
      "Ġted": 6519,
      "Ġglad": 6520,
      "eta": 6521,
      "urity": 6522,
      "ĠoluÅŁ": 6523,
      "tiÄŁi": 6524,
      "eniÅŁ": 6525,
      "Ġlives": 6526,
      "ĠadÄ±nÄ±": 6527,
      "ĠsoÄŁuk": 6528,
      "ĠgiriÅŁ": 6529,
      "Buradan": 6530,
      "meliy": 6531,
      "Ġtarih": 6532,
      "Ġistemem": 6533,
      "Ġokum": 6534,
      "Ã¼ÄŁÃ¼nde": 6535,
      "Ġsakin": 6536,
      "Ġblack": 6537,
      "Ġhastan": 6538,
      "lÄ±ÄŁa": 6539,
      "Ġremain": 6540,
      "Thanks": 6541,
      "KÃ¶tÃ¼": 6542,
      "ĠHTTP": 6543,
      "Ġcreat": 6544,
      "Ġnak": 6545,
      "icros": 6546,
      "ĠMark": 6547,
      "thers": 6548,
      "ĠKat": 6549,
      "Ġelement": 6550,
      "Ġsuff": 6551,
      "Ġ{'": 6552,
      "Ġ``": 6553,
      "meler": 6554,
      "ĠbÃ¶": 6555,
      "Ġyedi": 6556,
      "elli": 6557,
      "aced": 6558,
      "ĠBo": 6559,
      "Ã¼rÃ¼": 6560,
      "ĠHis": 6561,
      "Ġlik": 6562,
      "ĠPeter": 6563,
      "Ġwithin": 6564,
      "uss": 6565,
      "Ä±ydÄ±": 6566,
      "Ġstrong": 6567,
      "rian": 6568,
      "ebiliriz": 6569,
      "Ġcallback": 6570,
      "ĠÃ¶zgÃ¼r": 6571,
      "_table": 6572,
      "(os": 6573,
      ".end": 6574,
      "Ha": 6575,
      "Sar": 6576,
      "_get": 6577,
      "gen": 6578,
      "Ġinf": 6579,
      "Ġlabel": 6580,
      "afe": 6581,
      "ived": 6582,
      "(src": 6583,
      "Ġdinner": 6584,
      "install": 6585,
      "Encoder": 6586,
      ".insert": 6587,
      "Wow": 6588,
      "Ġpot": 6589,
      "leriyle": 6590,
      "Ġonlardan": 6591,
      "ĠAy": 6592,
      "ĠPark": 6593,
      "OnlarÄ±n": 6594,
      "Ġbulur": 6595,
      "Ä±yÄ±m": 6596,
      "Ġshouldn": 6597,
      "lication": 6598,
      "ĠÃ¼stÃ¼nde": 6599,
      "Ġbizimle": 6600,
      "Ġbeyaz": 6601,
      "giliz": 6602,
      "Ġsurpr": 6603,
      "ĠTHE": 6604,
      "Ãĸnc": 6605,
      "(C": 6606,
      "Su": 6607,
      "kel": 6608,
      "Ġtor": 6609,
      "ami": 6610,
      "omething": 6611,
      "ĠLou": 6612,
      "ries": 6613,
      "ildren": 6614,
      "DÄ±ÅŁarÄ±": 6615,
      "HÃ¢lÃ¢": 6616,
      "hoÅŁ": 6617,
      "alent": 6618,
      "Ġwidth": 6619,
      "Ġnecess": 6620,
      "ĠanlÄ±yorum": 6621,
      "liy": 6622,
      "dialog": 6623,
      "ulmuÅŁ": 6624,
      "Ġliter": 6625,
      "ĠgÃ¶m": 6626,
      "ibe": 6627,
      "Ä±ÄŁa": 6628,
      "Ġettin": 6629,
      "Ġolmaya": 6630,
      "ĠgÃ¶rÃ¼r": 6631,
      "ĠiÅŁini": 6632,
      "Ġleaving": 6633,
      "Ġuyum": 6634,
      "ĠyÄ±ldÄ±z": 6635,
      "ĠÃ¶ldÃ¼rmek": 6636,
      "ĠiyileÅŁ": 6637,
      "Ġdress": 6638,
      "Ġparts": 6639,
      "Ġkoruy": 6640,
      "Ġprotect": 6641,
      "âĢĻs": 6642,
      "Eski": 6643,
      "Ġpislik": 6644,
      "Affedersiniz": 6645,
      "Ġgidebilir": 6646,
      "36": 6647,
      "Kab": 6648,
      "Our": 6649,
      "go": 6650,
      "eds": 6651,
      "Ġalak": 6652,
      "eref": 6653,
      "Ġlibr": 6654,
      "ĠRight": 6655,
      "Ġteach": 6656,
      "Ġmodif": 6657,
      "\"):Ċ": 6658,
      "-p": 6659,
      "ODE": 6660,
      "_dict": 6661,
      "Ġlar": 6662,
      "ĠilaÃ§": 6663,
      "onu": 6664,
      "Ġhun": 6665,
      "urun": 6666,
      "Ġintern": 6667,
      "ĠAman": 6668,
      "vern": 6669,
      "http": 6670,
      "Ã¼me": 6671,
      "Ġkalp": 6672,
      "ĠÃ¶ner": 6673,
      "ording": 6674,
      "ĠkÃ¶t": 6675,
      "ĠarkadaÅŁÄ±": 6676,
      "ĠaÅŁÄ±k": 6677,
      "licit": 6678,
      "Ġlonger": 6679,
      "ozen": 6680,
      "Ä°stedi": 6681,
      "Merak": 6682,
      "Muhtemelen": 6683,
      "Ġlibrary": 6684,
      "-Ne": 6685,
      "Case": 6686,
      "Sam": 6687,
      "des": 6688,
      "vas": 6689,
      "Ġtw": 6690,
      "Ġtre": 6691,
      "isel": 6692,
      "api": 6693,
      "reed": 6694,
      "Ã¼rk": 6695,
      "ĠTV": 6696,
      "Ġduring": 6697,
      "Ġhappens": 6698,
      "Ġfeeling": 6699,
      "Ġfunny": 6700,
      "Ondan": 6701,
      "_new": 6702,
      "_address": 6703,
      "tÃ¼k": 6704,
      "ĠyanÄ±": 6705,
      "Ġhuz": 6706,
      "Ġhangi": 6707,
      "ima": 6708,
      "ism": 6709,
      "ender": 6710,
      "Ġyapabilir": 6711,
      "Ġhair": 6712,
      "Ã¼ÅŁÃ¼rÃ¼z": 6713,
      "raise": 6714,
      "ĠcanlÄ±": 6715,
      "Åŀuna": 6716,
      "Ġupon": 6717,
      "ATOR": 6718,
      "aniel": 6719,
      "Ġkural": 6720,
      "ĠbabasÄ±": 6721,
      "ĠsÃ¶ylen": 6722,
      "sene": 6723,
      "Bilmiyorum": 6724,
      "eleg": 6725,
      "ĠsÄ±ra": 6726,
      "diÄŁimi": 6727,
      "uvvet": 6728,
      "Ġvakti": 6729,
      "ĠsÃ¶ylemiÅŁtim": 6730,
      "eÄŁil": 6731,
      "Ġmodel": 6732,
      "Ġtehlikeli": 6733,
      "ĠÃ§Ä±lgÄ±n": 6734,
      "Pro": 6735,
      "base": 6736,
      "msg": 6737,
      "environ": 6738,
      "Ġcity": 6739,
      "Ġpen": 6740,
      "aclass": 6741,
      "Ġ\"%": 6742,
      "raight": 6743,
      "ĠWil": 6744,
      "Ġhimself": 6745,
      "Ġoptional": 6746,
      "_keys": 6747,
      "gÃ¼": 6748,
      "malarÄ±": 6749,
      "rim": 6750,
      "ĠbÄ±Ã§": 6751,
      "ĠmaÃ§": 6752,
      "Ġpy": 6753,
      "omain": 6754,
      "iding": 6755,
      "Ġolman": 6756,
      "ĠcanÄ±na": 6757,
      "Ġexpression": 6758,
      "ayÄ±f": 6759,
      "ĠgideceÄŁim": 6760,
      "Ġsevgil": 6761,
      "ĠÃ¶lmÃ¼ÅŁ": 6762,
      "ĠarkadaÅŁÄ±n": 6763,
      "Ã¼phe": 6764,
      "ĠolmalÄ±sÄ±n": 6765,
      "-B": 6766,
      "Amer": 6767,
      "best": 6768,
      "kil": 6769,
      "ites": 6770,
      "Ġpan": 6771,
      "Ġana": 6772,
      "ĠĠĠĠĠĠĠĠĠĠĠĠĠĠĠĠĠĠĠĠĠĠĠĠĠĠĠĠĠĠĠĠĠĠ": 6773,
      "opt": 6774,
      "loat": 6775,
      "lub": 6776,
      "KEY": 6777,
      ".M": 6778,
      "Even": 6779,
      "GE": 6780,
      "Hangi": 6781,
      "edeni": 6782,
      "esus": 6783,
      "Ġfp": 6784,
      "Ä±rlar": 6785,
      "aptain": 6786,
      "ĠAk": 6787,
      "ican": 6788,
      "ĠLook": 6789,
      "Ġifade": 6790,
      "Ġverici": 6791,
      "Ġkalmak": 6792,
      "ĠdÃ¼ÅŁman": 6793,
      "Ġcommon": 6794,
      "Ġgitsin": 6795,
      "Ġadama": 6796,
      "Ġresim": 6797,
      "efore": 6798,
      "ĠyakÄ±nda": 6799,
      "itted": 6800,
      "Ġdoldur": 6801,
      "ĠsÃ¶yleyeyim": 6802,
      "itional": 6803,
      "Ġcool": 6804,
      "ĠDoÄŁru": 6805,
      "ĠÃ¶nceki": 6806,
      "ĠyemeÄŁi": 6807,
      "Ġihtimal": 6808,
      "Pardon": 6809,
      "kim": 6810,
      "widget": 6811,
      "ela": 6812,
      "irin": 6813,
      "ĠKah": 6814,
      "_filename": 6815,
      "erhaps": 6816,
      "Ġterr": 6817,
      "Ġselect": 6818,
      "From": 6819,
      "Str": 6820,
      "label": 6821,
      "rat": 6822,
      "teki": 6823,
      "vars": 6824,
      "Ġsos": 6825,
      "Ġsessiz": 6826,
      "Ġothers": 6827,
      "Ġidi": 6828,
      "leme": 6829,
      "Ġfast": 6830,
      "izyon": 6831,
      "lerce": 6832,
      "olu": 6833,
      "iddet": 6834,
      "ĠLuc": 6835,
      "Ġyapamam": 6836,
      "Ġyapmaz": 6837,
      "Ãĩabuk": 6838,
      "ÃĩalÄ±ÅŁ": 6839,
      "artesi": 6840,
      "ĠbaÅŁlat": 6841,
      "miÅŁsin": 6842,
      "Ġbakar": 6843,
      "ĠVer": 6844,
      "Ġbutton": 6845,
      "mama": 6846,
      "Ġhalle": 6847,
      "Ġkulak": 6848,
      "Ġbilmiyordum": 6849,
      "ĠaÅŁaÄŁ": 6850,
      "ĠdeÄŁiÅŁik": 6851,
      "ĠgÃ¼venlik": 6852,
      "Ġavukat": 6853,
      "rupa": 6854,
      "Ġrandev": 6855,
      "07": 6856,
      "onom": 6857,
      "ilar": 6858,
      "izing": 6859,
      "Ġdear": 6860,
      "div": 6861,
      "Which": 6862,
      "tention": 6863,
      ".find": 6864,
      "Ġmodules": 6865,
      "Ġcompany": 6866,
      "uva": 6867,
      "Ġwarnings": 6868,
      "ĠImportError": 6869,
      "ceptions": 6870,
      "HatÄ±r": 6871,
      "KadÄ±n": 6872,
      "kanÄ±": 6873,
      "kabÄ±": 6874,
      "Ġtuz": 6875,
      "Ġcry": 6876,
      "ĠID": 6877,
      "ĠÅŁar": 6878,
      "Ġaray": 6879,
      "andÄ±m": 6880,
      "usal": 6881,
      "ĠiÅŁim": 6882,
      "uyorlar": 6883,
      "###": 6884,
      "Ä±sÄ±nda": 6885,
      "acaÄŁÄ±mÄ±": 6886,
      "ĠgÃ¼cÃ¼": 6887,
      "ĠkapÄ±yÄ±": 6888,
      "Ġumut": 6889,
      "ĠaltÄ±na": 6890,
      "emeyiz": 6891,
      "ĠkarÄ±ÅŁtÄ±r": 6892,
      "ĠBelki": 6893,
      "wd": 6894,
      "oul": 6895,
      "Ġfay": 6896,
      "itz": 6897,
      "Ġpublic": 6898,
      "Ġequ": 6899,
      "olf": 6900,
      "oya": 6901,
      "ogn": 6902,
      "Ġ{}": 6903,
      "35": 6904,
      "Doc": 6905,
      "Sal": 6906,
      "_arg": 6907,
      "luluk": 6908,
      "sc": 6909,
      "ĠÄ±ÅŁÄ±k": 6910,
      "enler": 6911,
      "Ġsound": 6912,
      "Ġkral": 6913,
      "Ġnefes": 6914,
      "Ġdosy": 6915,
      "Ġbuz": 6916,
      "Ä°y": 6917,
      "Ġmuhtemelen": 6918,
      "ĠPro": 6919,
      "Ġpress": 6920,
      "Ġweeks": 6921,
      "Ġelek": 6922,
      "ĠsÃ¶yleme": 6923,
      "Ġimz": 6924,
      "adÄ±ÄŁÄ±": 6925,
      "Ġistiyoruz": 6926,
      "Ġpatron": 6927,
      "ĠÅŁanslÄ±": 6928,
      "STR": 6929,
      "isayar": 6930,
      ".A": 6931,
      ".UTF": 6932,
      "Bek": 6933,
      "Hal": 6934,
      "bed": 6935,
      "dar": 6936,
      "Ġball": 6937,
      "ense": 6938,
      "elect": 6939,
      "Ġrob": 6940,
      "Ġones": 6941,
      "ĠHi": 6942,
      "ĠGu": 6943,
      "ĠRa": 6944,
      "Ġfear": 6945,
      "Got": 6946,
      "NS": 6947,
      "cÄ±k": 6948,
      "cÄ±sÄ±": 6949,
      "fd": 6950,
      "laman": 6951,
      "long": 6952,
      "xe": 6953,
      "ĠteÅŁ": 6954,
      "arry": 6955,
      "Ġdiz": 6956,
      "ĠmÃ¼ÅŁter": 6957,
      "atÃ¶r": 6958,
      "amaya": 6959,
      "amadÄ±": 6960,
      "urry": 6961,
      "inger": 6962,
      "Ġland": 6963,
      "ĠarÄ±yor": 6964,
      "Ġuc": 6965,
      "aÄŁÄ±m": 6966,
      "ĠMad": 6967,
      "iÅŁan": 6968,
      "Ġzengin": 6969,
      "options": 6970,
      "Ġgeliyorum": 6971,
      "Ġlie": 6972,
      "ĠOf": 6973,
      "ĠgÃ¶rÃ¼yorum": 6974,
      "inizden": 6975,
      "priz": 6976,
      "Ġtraceback": 6977,
      "Herk": 6978,
      "ĠkÄ±zlar": 6979,
      "Ġkendisi": 6980,
      "Ġuygul": 6981,
      "Ġquot": 6982,
      "ĠgÃ¶zÃ¼k": 6983,
      "Ġderece": 6984,
      "Ġgerekiyordu": 6985,
      "Ã¼sÃ¼": 6986,
      "Ġkahraman": 6987,
      "ĠkarÅŁÄ±laÅŁ": 6988,
      "-R": 6989,
      "dit": 6990,
      "find": 6991,
      "Ġsad": 6992,
      "Ġscript": 6993,
      "akes": 6994,
      "Ġdepend": 6995,
      "ĠDoc": 6996,
      "ested": 6997,
      "ighlight": 6998,
      ".module": 6999,
      "build": 7000,
      "Ġinclude": 7001,
      "Ciddi": 7002,
      "EG": 7003,
      "KeÅŁke": 7004,
      "rum": 7005,
      "Ġters": 7006,
      "ĠmaÄŁ": 7007,
      "leConf": 7008,
      "Ġfoot": 7009,
      "diÄŁiniz": 7010,
      "Ġprodu": 7011,
      "ĠdÃ¼ÅŁÃ¼nc": 7012,
      "Ġyolunu": 7013,
      "Ġistemedim": 7014,
      "Ġbaban": 7015,
      "Ġboys": 7016,
      "Ġhepimiz": 7017,
      "Ġokuy": 7018,
      "Ġscared": 7019,
      "Ġbeyler": 7020,
      "Ġidlelib": 7021,
      "Unut": 7022,
      "Ġdistutils": 7023,
      "GÃ¼naydÄ±n": 7024,
      "ospu": 7025,
      "ĠdÃ¶vÃ¼ÅŁ": 7026,
      "Ġsebebi": 7027,
      "luyum": 7028,
      "ĠmeÅŁgul": 7029,
      "!r": 7030,
      "Put": 7031,
      "ora": 7032,
      "Ġdeter": 7033,
      "Ġkem": 7034,
      "imd": 7035,
      "Ġlady": 7036,
      "ĠMe": 7037,
      "ĠGÃ¶": 7038,
      "trans": 7039,
      "Ġtrip": 7040,
      "_bytes": 7041,
      "ĠXXX": 7042,
      "38": 7043,
      "ILE": 7044,
      "Sure": 7045,
      "Siktir": 7046,
      "medik": 7047,
      "ydÄ±m": 7048,
      "ydÄ±n": 7049,
      "anya": 7050,
      "ĠkayÄ±p": 7051,
      "ĠBunun": 7052,
      "ĠCal": 7053,
      "Ġzevk": 7054,
      "ops": 7055,
      "Ġevi": 7056,
      "Ä±sÄ±z": 7057,
      "Ġyarg": 7058,
      "arsh": 7059,
      "Ġkulland": 7060,
      "Ġilgil": 7061,
      "madÄ±k": 7062,
      "ORT": 7063,
      "Ġkilit": 7064,
      "Ġfinish": 7065,
      "ĠMrs": 7066,
      "ĠyÃ¼ksel": 7067,
      "Ġtavs": 7068,
      ")\"": 7069,
      ".org": 7070,
      "cmd": 7071,
      "nection": 7072,
      "Ġsum": 7073,
      "alter": 7074,
      "Ġcell": 7075,
      "Ġfont": 7076,
      "itness": 7077,
      "isa": 7078,
      "ĠMay": 7079,
      "ĠĠĠĠĠĠĠĠĠĠĠĠĠĠĠĠĠĠĠĠĠĠĠĠĠ": 7080,
      ".pop": 7081,
      "Ġhash": 7082,
      "Ġgrub": 7083,
      "_map": 7084,
      "Ġworth": 7085,
      "Ġadded": 7086,
      ".update": 7087,
      "EÅŁ": 7088,
      "Keep": 7089,
      "eople": 7090,
      "ĠdaÄŁ": 7091,
      "Ġdedik": 7092,
      "Ġbiriyle": 7093,
      "ĠaldÄ±k": 7094,
      "Ġgeldiniz": 7095,
      "ĠEur": 7096,
      "ĠolmayÄ±": 7097,
      "ĠiÅŁle": 7098,
      "iÃ§ek": 7099,
      "IND": 7100,
      "ebilecek": 7101,
      "Ġparmak": 7102,
      "Ã¼yorsun": 7103,
      "Ġbuldu": 7104,
      "Ġeval": 7105,
      "Ġtrack": 7106,
      "ĠgeÃ§er": 7107,
      "ĠilginÃ§": 7108,
      "Ġikna": 7109,
      "lerimizi": 7110,
      "Annen": 7111,
      "Ġ\\Ċ": 7112,
      "Ġsonraki": 7113,
      "Ġsuccess": 7114,
      "(line": 7115,
      "08": 7116,
      "Me": 7117,
      "Yet": 7118,
      "match": 7119,
      "nek": 7120,
      "oes": 7121,
      "Ġthrow": 7122,
      "Ġfill": 7123,
      "Ġlow": 7124,
      "ĠDid": 7125,
      "Ġzero": 7126,
      "chor": 7127,
      "ĠOna": 7128,
      "Ġgovern": 7129,
      "ĠJames": 7130,
      "ources": 7131,
      "Ġamong": 7132,
      "_context": 7133,
      "Ġthanks": 7134,
      "-HayÄ±r": 7135,
      ".value": 7136,
      "orat": 7137,
      "Ġkelim": 7138,
      "aklar": 7139,
      "eyg": 7140,
      "Ġ'''": 7141,
      "ĠÅŁÃ¼k": 7142,
      "ĠyapalÄ±m": 7143,
      "ersiz": 7144,
      "Ġedeyim": 7145,
      "ayalet": 7146,
      "ĠkadÄ±nÄ±n": 7147,
      "Ġelinde": 7148,
      "ĠsÃ¶ylemem": 7149,
      "Ġconstruc": 7150,
      "ÄŁrenÃ§": 7151,
      "Ġbyte": 7152,
      "Ġyarar": 7153,
      "Ġuyan": 7154,
      "Ġhallet": 7155,
      "Ġinsanlara": 7156,
      "ĠhayatÄ±": 7157,
      "Sonunda": 7158,
      "_run": 7159,
      "Ġ::": 7160,
      "Everything": 7161,
      "ospital": 7162,
      "Ġignore": 7163,
      "abancÄ±": 7164,
      "ĠdÃ¼zelt": 7165,
      "31": 7166,
      "Sir": 7167,
      "Yat": 7168,
      "ging": 7169,
      "Ġbag": 7170,
      "Ġkop": 7171,
      "Ġ',": 7172,
      "Ġhale": 7173,
      "ĠEmin": 7174,
      "ORD": 7175,
      "Ġdefaults": 7176,
      "_handler": 7177,
      "ĠKeyError": 7178,
      "+\\": 7179,
      "AY": 7180,
      "Kol": 7181,
      "Rahat": 7182,
      "_event": 7183,
      "kiden": 7184,
      "oint": 7185,
      "rel": 7186,
      "sys": 7187,
      "ĠdÃ¼rÃ¼st": 7188,
      "Ã¼ler": 7189,
      "ĠkeÅŁ": 7190,
      "eymiÅŁ": 7191,
      "Ġbirth": 7192,
      "ĠanladÄ±m": 7193,
      "tig": 7194,
      "ĠSch": 7195,
      "ĠSÃ¶yle": 7196,
      "html": 7197,
      "eceÄŁin": 7198,
      "Åŀur": 7199,
      "Ġcomput": 7200,
      "evizyon": 7201,
      "Ġanybody": 7202,
      "ĠkonuÅŁur": 7203,
      "ĠkonuÅŁtu": 7204,
      "inleÅŁ": 7205,
      "Ġolanlar": 7206,
      "Ġistemedi": 7207,
      "ajor": 7208,
      "ĠzorundayÄ±m": 7209,
      "Ġdahil": 7210,
      "Ġfigure": 7211,
      "Ġutan": 7212,
      "70": 7213,
      "Ġmap": 7214,
      "....": 7215,
      "Those": 7216,
      "Ġitself": 7217,
      "iki": 7218,
      "ept": 7219,
      "Ġturned": 7220,
      "Ġclient": 7221,
      "Ġ::=": 7222,
      ".,": 7223,
      "75": 7224,
      "[\"": 7225,
      "iver": 7226,
      "ric": 7227,
      "ĠdÃ¼k": 7228,
      "Ġkum": 7229,
      "ĠoluÅŁtur": 7230,
      "Ġdeep": 7231,
      "Ġlang": 7232,
      "ĠLo": 7233,
      "__.__": 7234,
      "ĠmÄ±yÄ±m": 7235,
      "ĠKÃ¶": 7236,
      "Ġveriyor": 7237,
      "Ġyerinde": 7238,
      "Ġyaramaz": 7239,
      "pare": 7240,
      "(file": 7241,
      "(filename": 7242,
      "Ġcompat": 7243,
      "Ġmemory": 7244,
      "amayacak": 7245,
      "gular": 7246,
      "ĠAmerika": 7247,
      "Ġtehdit": 7248,
      "ĠburadayÄ±m": 7249,
      "Okul": 7250,
      "ĠSorun": 7251,
      "Ġcehennem": 7252,
      "ĠeÄŁlenceli": 7253,
      "(key": 7254,
      "Hold": 7255,
      "May": 7256,
      "SS": 7257,
      "gle": 7258,
      "spec": 7259,
      "Ã®": 7260,
      "ilter": 7261,
      "lied": 7262,
      "ĠAg": 7263,
      "very": 7264,
      "Ġprison": 7265,
      "ĠJuli": 7266,
      "Ġtrain": 7267,
      "CKET": 7268,
      "ĠDistutils": 7269,
      "Com": 7270,
      "Fark": 7271,
      "Ph": 7272,
      "decode": 7273,
      "ient": 7274,
      "lÄ±yoruz": 7275,
      "mur": 7276,
      "Ã¼ce": 7277,
      "Ġnedeni": 7278,
      "ization": 7279,
      "ĠBÃ¶yle": 7280,
      "ĠBÃ¼yÃ¼k": 7281,
      "endin": 7282,
      "ĠDay": 7283,
      "Ä±ÄŁÄ±nda": 7284,
      "ayÄ±cÄ±": 7285,
      "ĠÃ§Ä±kan": 7286,
      "mamalÄ±": 7287,
      "meleri": 7288,
      "ĠtakÄ±l": 7289,
      "ĠuyuÅŁturucu": 7290,
      "ĠbÄ±rakÄ±n": 7291,
      "leyin": 7292,
      "Ġcharset": 7293,
      "ĠaÅŁkÄ±na": 7294,
      "urumda": 7295,
      "Ġelektr": 7296,
      ".items": 7297,
      "Tab": 7298,
      "auth": 7299,
      "rick": 7300,
      "Ġq": 7301,
      "Ġtec": 7302,
      "Ġdst": 7303,
      "edit": 7304,
      "aca": 7305,
      "ĠBun": 7306,
      "ĠĠĠĠĠĠĠĠĠĠĠĠĠĠĠĠĠĠĠĠĠĠĠĠĠĠĠĠ": 7307,
      "Ġstraight": 7308,
      "ĠGRA": 7309,
      "outine": 7310,
      "Only": 7311,
      "Ġabove": 7312,
      "Ġquick": 7313,
      "Ġentire": 7314,
      "Ġfullname": 7315,
      "Ġhoney": 7316,
      "Ġoriginal": 7317,
      "Ġmillion": 7318,
      "'S": 7319,
      "HenÃ¼z": 7320,
      "Jim": 7321,
      "Tah": 7322,
      "joy": 7323,
      "mitted": 7324,
      "xa": 7325,
      "Ġtabi": 7326,
      "Ġnone": 7327,
      "ĠolayÄ±": 7328,
      "lerinizi": 7329,
      "ĠSet": 7330,
      "olun": 7331,
      "Ġyapabilirim": 7332,
      "lying": 7333,
      "Ġordu": 7334,
      "Ġbilim": 7335,
      "Ġevents": 7336,
      "ĠgÃ¼nah": 7337,
      "AnlÄ±yorum": 7338,
      "ĠyaÅŁay": 7339,
      "except": 7340,
      "ĠkÄ±zÄ±m": 7341,
      "adÄ±ÄŁÄ±m": 7342,
      "_prefix": 7343,
      "Ġolabilirim": 7344,
      "Ġexplain": 7345,
      "mediÄŁini": 7346,
      "Ġmahvet": 7347,
      "Ġkahve": 7348,
      "Ġisteyen": 7349,
      "ULT": 7350,
      "Ġdescriptor": 7351,
      "AND": 7352,
      "Den": 7353,
      "Mom": 7354,
      "ystem": 7355,
      "Ġhom": 7356,
      "eters": 7357,
      "Ġple": 7358,
      "Ġrock": 7359,
      "Ġiss": 7360,
      "ĠMax": 7361,
      "ĠHim": 7362,
      "ava": 7363,
      "athan": 7364,
      "Ġenviron": 7365,
      "_source": 7366,
      "Ġsett": 7367,
      "Ġcolle": 7368,
      "byte": 7369,
      "EST": 7370,
      "omplete": 7371,
      "Tabi": 7372,
      "ULL": 7373,
      "Warning": 7374,
      "fg": 7375,
      "Ġnaz": 7376,
      "asÄ±z": 7377,
      "isyon": 7378,
      "Ġbirden": 7379,
      "Ġlay": 7380,
      "ĠyapmadÄ±m": 7381,
      "ĠHenry": 7382,
      "Ġseven": 7383,
      "Ġpriv": 7384,
      "Ġexit": 7385,
      "allow": 7386,
      "miÅŁtir": 7387,
      "ĠsÃ¶yledik": 7388,
      "ĠhatÄ±rlat": 7389,
      "039": 7390,
      "Ġbulunan": 7391,
      "ĠsatÄ±n": 7392,
      "ĠkÄ±rÄ±k": 7393,
      "ĠdÃ¼nyanÄ±n": 7394,
      "After": 7395,
      "ĠkÄ±yafet": 7396,
      "ĠgerÃ§eÄŁi": 7397,
      "ĠGRAVE": 7398,
      "_D": 7399,
      "Ġgay": 7400,
      "Ġgentle": 7401,
      "Ġflag": 7402,
      "Ġarch": 7403,
      "ĠDan": 7404,
      "ĠKal": 7405,
      "Ġunless": 7406,
      "olean": 7407,
      "OTATION": 7408,
      "expected": 7409,
      "AdÄ±": 7410,
      "Could": 7411,
      "Nered": 7412,
      "bak": 7413,
      "case": 7414,
      "dÃ¼ÄŁÃ¼m": 7415,
      "Ġiler": 7416,
      "Ġciv": 7417,
      "Ġfell": 7418,
      "Ġbirlik": 7419,
      "Ġonay": 7420,
      "ĠherÅŁeyi": 7421,
      "Ġjud": 7422,
      "acaÄŁÄ±na": 7423,
      "ĠkalÄ±n": 7424,
      "ĠÃ§Ä±kÄ±yor": 7425,
      "ATED": 7426,
      "ĠbÃ¶ylece": 7427,
      "Ġsizinle": 7428,
      "ĠettiÄŁini": 7429,
      "ĠsÃ¶yleyeceÄŁim": 7430,
      "ĠanlamÄ±": 7431,
      "Ġcompiler": 7432,
      "Ġediyoruz": 7433,
      "precated": 7434,
      "Ãĸnce": 7435,
      "09": 7436,
      "</": 7437,
      "Del": 7438,
      "Rabb": 7439,
      "Sub": 7440,
      "Widget": 7441,
      "oli": 7442,
      "Ġdanger": 7443,
      "addr": 7444,
      "asi": 7445,
      "parent": 7446,
      "HTTP": 7447,
      "Ġremove": 7448,
      "Id": 7449,
      "Run": 7450,
      "bap": 7451,
      "lish": 7452,
      "sing": 7453,
      "uÄŁu": 7454,
      "Ġio": 7455,
      "Ġkus": 7456,
      "ĠhÄ±rsÄ±z": 7457,
      "Ġfault": 7458,
      "eydim": 7459,
      "Ġ'''Ċ": 7460,
      "ĠolasÄ±": 7461,
      "Ġoldun": 7462,
      "ĠgÃ¶k": 7463,
      "ĠNick": 7464,
      "Ġrepl": 7465,
      "Åŀunu": 7466,
      "quote": 7467,
      "ĠÃ§alÄ±ÅŁÄ±yorsun": 7468,
      "Ġkimsenin": 7469,
      "ĠyaÅŁamak": 7470,
      "Ġstrip": 7471,
      "ĠkÄ±zÄ±n": 7472,
      "Ġduydun": 7473,
      "ĠÃ¶ldÃ¼rdÃ¼": 7474,
      "Ġgetirdim": 7475,
      "ĠgeldiÄŁini": 7476,
      "range": 7477,
      "ĠfarkÄ±nda": 7478,
      "Ġisterdim": 7479,
      "attrib": 7480,
      "ÄŁumuz": 7481,
      "ĠeÅŁy": 7482,
      "asks": 7483,
      "ĠyalnÄ±zca": 7484,
      "ĠdÄ±ÅŁarÄ±da": 7485,
      "YanlÄ±ÅŁ": 7486,
      "Ġdomain": 7487,
      "ĠDÃ¼nya": 7488,
      "(ex": 7489,
      ".ext": 7490,
      ".lower": 7491,
      "500": 7492,
      ":]Ċ": 7493,
      "_int": 7494,
      "rin": 7495,
      "Ġwed": 7496,
      "Ġtheme": 7497,
      "ington": 7498,
      "tist": 7499,
      "andy": 7500,
      "ĠFBI": 7501,
      "arts": 7502,
      "Ġaction": 7503,
      "Ġavoid": 7504,
      "CTION": 7505,
      ".char": 7506,
      "Gar": 7507,
      "Jo": 7508,
      "La": 7509,
      "Yemek": 7510,
      "Yalan": 7511,
      "bay": 7512,
      "uel": 7513,
      "ĠÃľ": 7514,
      "Ġtitle": 7515,
      "Ġdark": 7516,
      "Ġequal": 7517,
      "ĠBÄ±rak": 7518,
      "uldu": 7519,
      "ĠaradÄ±": 7520,
      "ĠAc": 7521,
      "Ä±ÄŁÄ±na": 7522,
      "Ġettir": 7523,
      "Ġsene": 7524,
      "Ġsence": 7525,
      "Ġpartic": 7526,
      "ĠÃ§Ä±kmÄ±ÅŁ": 7527,
      "Ġimk": 7528,
      "Ġtakdir": 7529,
      "ferin": 7530,
      "ĠÃ¶zle": 7531,
      "Ġbecer": 7532,
      "ĠArtÄ±k": 7533,
      "abilmek": 7534,
      "ĠyaptÄ±ÄŁÄ±n": 7535,
      "ĠhatÄ±rlam": 7536,
      "'yu": 7537,
      "'yla": 7538,
      "Ġspecific": 7539,
      "ĠzorundasÄ±n": 7540,
      "Ġcesaret": 7541,
      "HaklÄ±sÄ±n": 7542,
      "Ġvideo": 7543,
      "_RE": 7544,
      "losed": 7545,
      "sil": 7546,
      "ires": 7547,
      "Ġmir": 7548,
      "Ġforce": 7549,
      "ĠDel": 7550,
      "ĠCol": 7551,
      "ĠTk": 7552,
      "Ġmeant": 7553,
      "ibly": 7554,
      "001": 7555,
      "Ġener": 7556,
      "aste": 7557,
      "Ġasking": 7558,
      "Ġmembers": 7559,
      "Ġsaved": 7560,
      "Server": 7561,
      "BeÅŁ": 7562,
      "VER": 7563,
      "ben": 7564,
      "arasÄ±": 7565,
      "Ġhospital": 7566,
      "eda": 7567,
      "Ġniyet": 7568,
      "eyken": 7569,
      "eydin": 7570,
      "ĠSH": 7571,
      "Ġbuf": 7572,
      "ĠTHA": 7573,
      "och": 7574,
      "oci": 7575,
      "ibi": 7576,
      "ĠGeÃ§": 7577,
      "Ġorad": 7578,
      "avuÅŁ": 7579,
      "ĠiÅŁleri": 7580,
      "iÃ§in": 7581,
      "Ġsonsuz": 7582,
      "ĠbulmuÅŁ": 7583,
      "alarÄ±na": 7584,
      "loader": 7585,
      "ĠtanÄ±k": 7586,
      "ĠtanÄ±yorum": 7587,
      "ĠkonuÅŁma": 7588,
      "Ġkendim": 7589,
      "encer": 7590,
      "Ġhepsini": 7591,
      "Ġcoff": 7592,
      "ĠsuÃ§lu": 7593,
      "diÅŁelen": 7594,
      "Ġfikrim": 7595,
      "ĠmÃ¼zik": 7596,
      "Ġchoice": 7597,
      "Kaz": 7598,
      "Ma": 7599,
      "Michael": 7600,
      "buffer": 7601,
      "ku": 7602,
      "Ġbol": 7603,
      "Ġgiving": 7604,
      "Ġnet": 7605,
      "Ġpad": 7606,
      "lies": 7607,
      "ĠTam": 7608,
      "ĠUm": 7609,
      "Ġseeing": 7610,
      "_base": 7611,
      "EXT": 7612,
      "Ġcaught": 7613,
      ",\\": 7614,
      "Dam": 7615,
      "copy": 7616,
      "iÄŁ": 7617,
      "mÃ¼yorum": 7618,
      "ray": 7619,
      "ross": 7620,
      "Ġtz": 7621,
      "Ġsell": 7622,
      "Ġkast": 7623,
      "asure": 7624,
      "emli": 7625,
      "emedi": 7626,
      "tiÅŁ": 7627,
      "ĠBRA": 7628,
      "ĠÅŁef": 7629,
      "ĠSun": 7630,
      "Ġlat": 7631,
      "ĠyapmayÄ±": 7632,
      "Ä°s": 7633,
      "Ġzek": 7634,
      "ersem": 7635,
      "ĠWith": 7636,
      "ĠYardÄ±m": 7637,
      "ĠbulaÅŁ": 7638,
      "uyoruz": 7639,
      "cale": 7640,
      "achel": 7641,
      "Ġhatta": 7642,
      "ĠÃ¶ÄŁrendi": 7643,
      "ĠgÃ¶steriyor": 7644,
      "Ġsaklan": 7645,
      "_decode": 7646,
      "Ġistiyorsunuz": 7647,
      "ĠsaldÄ±rÄ±": 7648,
      "Ġseverim": 7649,
      "Ġbuilding": 7650,
      "Ġbelirt": 7651,
      "ĠPekala": 7652,
      "TatlÄ±m": 7653,
      "PACE": 7654,
      "Ġextension": 7655,
      "Ġitiraf": 7656,
      "Gu": 7657,
      "Ġtkinter": 7658,
      "irt": 7659,
      "Ġpil": 7660,
      "active": 7661,
      "ahi": 7662,
      "Ġard": 7663,
      "ĠALL": 7664,
      "ĠHol": 7665,
      "usa": 7666,
      "().Ċ": 7667,
      "Ġ*,": 7668,
      "Ġemail": 7669,
      "road": 7670,
      "Ġquiet": 7671,
      "ĠStop": 7672,
      "Ġsignal": 7673,
      "Ġallowed": 7674,
      "Ġregist": 7675,
      "ribution": 7676,
      "Ġmachine": 7677,
      ".e": 7678,
      "UR": 7679,
      "bin": 7680,
      "erve": 7681,
      "Ġcache": 7682,
      "Ġcirc": 7683,
      "Ġrenk": 7684,
      "ĠyapÄ±yoruz": 7685,
      "....Ċ": 7686,
      "__',": 7687,
      "Ġgelmez": 7688,
      "Ġvermem": 7689,
      "Ġprop": 7690,
      "ĠbaÅŁkan": 7691,
      "ilerinin": 7692,
      "ĠsaygÄ±": 7693,
      "Ġgidin": 7694,
      "Ġgirdi": 7695,
      "ĠaÃ§Ä±l": 7696,
      "therwise": 7697,
      "ĠÃ¼zgÃ¼n": 7698,
      "Ġduymak": 7699,
      "Ġhaline": 7700,
      "ĠgÃ¶rebil": 7701,
      "Ġnumara": 7702,
      "ĠinanÄ±lmaz": 7703,
      "ĠgÃ¶rÃ¼ntÃ¼": 7704,
      "Ġdava": 7705,
      "Ġyatak": 7706,
      "Ġikiniz": 7707,
      "Ġincel": 7708,
      "ĠâĢĵ": 7709,
      "amÄ±zda": 7710,
      "ĠAvrupa": 7711,
      "ĠÃ¶ÄŁle": 7712,
      "ebrikler": 7713,
      "eygamber": 7714,
      "command": 7715,
      "gers": 7716,
      "rie": 7717,
      "Ġkick": 7718,
      "Ġkamp": 7719,
      "Ġkept": 7720,
      "Ġfalse": 7721,
      "ĠBer": 7722,
      "ĠEar": 7723,
      "_sh": 7724,
      "ajest": 7725,
      "'])Ċ": 7726,
      "Ġlocale": 7727,
      "ĠBRACKET": 7728,
      "Cal": 7729,
      "Neyse": 7730,
      "_frame": 7731,
      "vat": 7732,
      "Ġgayet": 7733,
      "Ġvah": 7734,
      "ĠolacaÄŁÄ±z": 7735,
      "Ä±rt": 7736,
      "Ġonlarla": 7737,
      "ĠSA": 7738,
      "ĠaraÃ§": 7739,
      "ĠAp": 7740,
      "maÄŁ": 7741,
      "ĠHoÅŁ": 7742,
      "Ġsepar": 7743,
      "Ġetmiyor": 7744,
      "ĠasÄ±l": 7745,
      "Ġverme": 7746,
      "sinin": 7747,
      "indent": 7748,
      "ĠdÃ¼ÅŁÃ¼nÃ¼r": 7749,
      "Ä±nÄ±zda": 7750,
      "Ġkendilerine": 7751,
      "Invalid": 7752,
      "Ä°ÅŁe": 7753,
      "Ġilgisi": 7754,
      "ĠÃ¶lÃ¼r": 7755,
      "ĠsÃ¶yleyecek": 7756,
      "Ġincit": 7757,
      "Yapma": 7758,
      "Ġdiff": 7759,
      "Ġplaying": 7760,
      "ĠbayÄ±l": 7761,
      "iversit": 7762,
      "ĠHiÃ§bir": 7763,
      "Ġfloat": 7764,
      "ĠhanÄ±mefendi": 7765,
      "Ġoverride": 7766,
      "Gir": 7767,
      "Oper": 7768,
      "ker": 7769,
      "now": 7770,
      "xc": 7771,
      "Ġkiss": 7772,
      "Ġfut": 7773,
      "Ġroman": 7774,
      "idge": 7775,
      "Ġseconds": 7776,
      "locale": 7777,
      "Ġfields": 7778,
      "'nd": 7779,
      "-m": 7780,
      ".group": 7781,
      "Bas": 7782,
      "Bebe": 7783,
      "Nice": 7784,
      "Two": 7785,
      "dÃ¼k": 7786,
      "kÄ±n": 7787,
      "vi": 7788,
      "Ġeye": 7789,
      "ĠbalÄ±k": 7790,
      "Ġoda": 7791,
      "ĠkÃ¼l": 7792,
      "Ġnin": 7793,
      "Ġfd": 7794,
      "lip": 7795,
      "tihar": 7796,
      "ĠÅŁiddet": 7797,
      "ĠĠĠĠĠĠĠĠĠĠĠĠĠĠĠĠĠĠĠĠĠĠĠĠĠĠĠĠĠĠ": 7798,
      "Ġstar": 7799,
      "ĠGÃ¼": 7800,
      "acaÄŁÄ±n": 7801,
      "lamasÄ±": 7802,
      "inks": 7803,
      "isinden": 7804,
      "Ġyerini": 7805,
      "luÄŁu": 7806,
      "Ġadamlar": 7807,
      "Ġsomewhere": 7808,
      "dayken": 7809,
      "Ġyoluna": 7810,
      "Ġ[\"": 7811,
      "ĠkulÃ¼b": 7812,
      "Ġbizden": 7813,
      "ĠistediÄŁimi": 7814,
      "Ġtarafta": 7815,
      "Ġistiyorlar": 7816,
      "(codecs": 7817,
      "Ġtests": 7818,
      "Ġdavr": 7819,
      "NasÄ±lsÄ±n": 7820,
      "dukÃ§a": 7821,
      "Ġinterpr": 7822,
      "Ġcommands": 7823,
      "ĠolmadÄ±ÄŁÄ±": 7824,
      "ĠbarÄ±ÅŁ": 7825,
      "ĠuÃ§ak": 7826,
      "ĠHarry": 7827,
      "Ġrespons": 7828,
      "Ġdifference": 7829,
      "Ġcorrect": 7830,
      "Nereden": 7831,
      "Ġpickle": 7832,
      "Ġbahsediyorsun": 7833,
      "Gidip": 7834,
      ".modules": 7835,
      "-O": 7836,
      "-Bu": 7837,
      ".id": 7838,
      ".errors": 7839,
      "IP": 7840,
      "fix": 7841,
      "eren": 7842,
      "ari": 7843,
      "Ġir": 7844,
      "Ġmapping": 7845,
      "Ġhide": 7846,
      "Ġcause": 7847,
      "ĠSak": 7848,
      "Ġforgot": 7849,
      "ĠGeneral": 7850,
      "Ġwhose": 7851,
      "raries": 7852,
      "Ġcollec": 7853,
      "ancy": 7854,
      ".bind": 7855,
      "Ġmention": 7856,
      "finity": 7857,
      "Ġindent": 7858,
      "Ġbreath": 7859,
      ")))Ċ": 7860,
      "Bilir": 7861,
      "Great": 7862,
      "Kalk": 7863,
      "_on": 7864,
      "aN": 7865,
      "bor": 7866,
      "lÄ±yorsun": 7867,
      "names": 7868,
      "Ġblow": 7869,
      "Ġsrc": 7870,
      "Ġdua": 7871,
      "onent": 7872,
      "edektif": 7873,
      "Ġcodec": 7874,
      "umhur": 7875,
      "Ġgelmedi": 7876,
      "Ġlider": 7877,
      "istory": 7878,
      "Ġloader": 7879,
      "ĠYÃ¼z": 7880,
      "ĠkaranlÄ±k": 7881,
      "('<": 7882,
      "ĠVal": 7883,
      "Ä±mÄ±zÄ±n": 7884,
      "Ġresmi": 7885,
      "Ġyoldan": 7886,
      "Ã¼lÃ¼": 7887,
      "ĠgerÃ§ekleÅŁ": 7888,
      "Ġcallable": 7889,
      "Ġtarafa": 7890,
      "0001": 7891,
      "ĠhatÄ±rlÄ±yorum": 7892,
      "ĠÃ¼stÃ¼n": 7893,
      "Baban": 7894,
      "Ġmoving": 7895,
      "Ġgezeg": 7896,
      "Ġquestions": 7897,
      "actory": 7898,
      "Ġhaberi": 7899,
      "Ġkurban": 7900,
      "GÃ¶rÃ¼nÃ¼ÅŁe": 7901,
      "Ġcondition": 7902,
      "Ġnazik": 7903,
      "AC": 7904,
      "Bob": 7905,
      "Down": 7906,
      "George": 7907,
      "Rob": 7908,
      "Ġtreat": 7909,
      "Ġyah": 7910,
      "ĠDi": 7911,
      "ĠMil": 7912,
      "ĠTel": 7913,
      "opri": 7914,
      "__.": 7915,
      "002": 7916,
      "Ġweird": 7917,
      "ĠRom": 7918,
      "Ġcontains": 7919,
      "Ġoffer": 7920,
      "Ġworked": 7921,
      ".warn": 7922,
      "Ġearly": 7923,
      "ĠISO": 7924,
      "mission": 7925,
      "Ġnecessary": 7926,
      ".debug": 7927,
      "Ber": 7928,
      "EÄŁ": 7929,
      "Mon": 7930,
      "Neredeyse": 7931,
      "_lines": 7932,
      "rec": 7933,
      "ĠbayÄ±m": 7934,
      "ĠaÄŁr": 7935,
      "onun": 7936,
      "Ġcold": 7937,
      "ĠbirÃ§ok": 7938,
      "emy": 7939,
      "emiyor": 7940,
      "ĠÃ§am": 7941,
      "ĠÅŁeref": 7942,
      "ictor": 7943,
      "ĠDef": 7944,
      "ĠGar": 7945,
      "Ġgelmek": 7946,
      "Ġedelim": 7947,
      "ĠKral": 7948,
      "ĠOne": 7949,
      "ĠEs": 7950,
      "ĠEND": 7951,
      "Ġolmas": 7952,
      "Ġveren": 7953,
      "Ġproper": 7954,
      "Ġweak": 7955,
      "inizde": 7956,
      "uct": 7957,
      "Ġcommun": 7958,
      "alarÄ±nÄ±n": 7959,
      "ĠsoruÅŁtur": 7960,
      "Ġgiden": 7961,
      "daydÄ±m": 7962,
      "Ã¼lÃ¼k": 7963,
      "Ġkendime": 7964,
      "ĠkapalÄ±": 7965,
      "ICE": 7966,
      "Ġsizden": 7967,
      "ĠinanÄ±yorum": 7968,
      "ĠgÃ¶rdÃ¼k": 7969,
      "convert": 7970,
      "ĠdÄ±ÅŁÄ±": 7971,
      "Ġserbest": 7972,
      "Ġroad": 7973,
      "Ġikisi": 7974,
      "Hepimiz": 7975,
      "ĠÃ¶dey": 7976,
      "ĠverdiÄŁi": 7977,
      "ĠhikÃ¢": 7978,
      "response": 7979,
      "Ġbuiltin": 7980,
      "econds": 7981,
      "ÃĸlÃ¼m": 7982,
      ".replace": 7983,
      "Ġgazet": 7984,
      "ĠQUOTATION": 7985,
      "los": 7986,
      "top": 7987,
      "Ġhel": 7988,
      "etin": 7989,
      "etim": 7990,
      "Ġpal": 7991,
      "Ġrelease": 7992,
      "Ġtotal": 7993,
      "ahk": 7994,
      "ĠSev": 7995,
      "exit": 7996,
      "_pos": 7997,
      "Ġcompile": 7998,
      "ĠAlman": 7999,
      "Ġbinary": 8000,
      "inclu": 8001,
      "Mil": 8002,
      "mayan": 8003,
      "uild": 8004,
      "zip": 8005,
      "Ġselam": 8006,
      "Ġdouble": 8007,
      "Ġileri": 8008,
      "alandÄ±r": 8009,
      "Ġview": 8010,
      "Ġverebilir": 8011,
      "ahiÅŁ": 8012,
      "ĠCodec": 8013,
      "ĠMal": 8014,
      "ĠHere": 8015,
      "ĠTur": 8016,
      "ĠzayÄ±f": 8017,
      "ĠedilmiÅŁ": 8018,
      "ĠONE": 8019,
      "Ġpray": 8020,
      "acaktÄ±r": 8021,
      "Ġelde": 8022,
      "INT": 8023,
      "ĠkalmadÄ±": 8024,
      "Ġgerekli": 8025,
      "ĠyerleÅŁtir": 8026,
      "ĠUN": 8027,
      "ĠÄ°ki": 8028,
      "Herh": 8029,
      "imizden": 8030,
      "Ġreading": 8031,
      "Ã¼ÄŁÃ¼nÃ¼z": 8032,
      "Ġstarting": 8033,
      "Ġdemektir": 8034,
      "Ġediyorlar": 8035,
      "BunlarÄ±": 8036,
      "ĠsÃ¶ylemiÅŁtin": 8037,
      "ĠParis": 8038,
      "Ġcomplete": 8039,
      "madÄ±ÄŁÄ±nÄ±": 8040,
      "Ä±ÅŁÄ±klÄ±": 8041,
      "ĠHaydi": 8042,
      "AÃ§Ä±k": 8043,
      "ĠtoplantÄ±": 8044,
      ".open": 8045,
      "=[": 8046,
      "Was": 8047,
      "bul": 8048,
      "glob": 8049,
      "prefix": 8050,
      "ante": 8051,
      "Ġsk": 8052,
      "Ġlamb": 8053,
      "ormat": 8054,
      "frames": 8055,
      "wood": 8056,
      "Ġinsert": 8057,
      "Ġkidding": 8058,
      "Ġcontents": 8059,
      "ĠAngeles": 8060,
      ".E": 8061,
      "Aptal": 8062,
      "Per": 8063,
      "Sim": 8064,
      "eel": 8065,
      "vin": 8066,
      "ww": 8067,
      "ĠtÄ±r": 8068,
      "Ġiti": 8069,
      "Ġyana": 8070,
      "Ġmouth": 8071,
      "Ġfena": 8072,
      "Ġpull": 8073,
      "ĠaldÄ±ÄŁ": 8074,
      "ĠgÃ¶st": 8075,
      "aÄŁÄ±nÄ±": 8076,
      "ĠÅŁeytan": 8077,
      "ĠmuhteÅŁem": 8078,
      "Ġgelince": 8079,
      "Ġgelmiyor": 8080,
      "ĠKan": 8081,
      "ĠolmasÄ±na": 8082,
      "Ġatlat": 8083,
      "tract": 8084,
      "ĠkaldÄ±m": 8085,
      "Ġzamanlarda": 8086,
      "mÄ±ÅŁsÄ±n": 8087,
      "evin": 8088,
      "Ġgerekecek": 8089,
      "adies": 8090,
      "ĠkÃ¶y": 8091,
      "Ġizliyor": 8092,
      "DoÄŁr": 8093,
      "ĠgeldiÄŁinde": 8094,
      "initial": 8095,
      "ĠdÃ¼ÅŁÃ¼nÃ¼yordum": 8096,
      "Ġ{Ċ": 8097,
      "Ġderin": 8098,
      "Ġbununla": 8099,
      "Kendimi": 8100,
      "ĠÃ¶ÄŁrenmek": 8101,
      "ĠyapÄ±yorsunuz": 8102,
      "gging": 8103,
      "Ġcontent": 8104,
      "duÄŁumuz": 8105,
      "âĢĿĊ": 8106,
      "Mutlu": 8107,
      "ÃĸldÃ¼r": 8108,
      "PAR": 8109,
      "_encode": 8110,
      "Ġ'(": 8111,
      "Ġintr": 8112,
      "ĠSal": 8113,
      "Ġ\"<": 8114,
      "option": 8115,
      "tha": 8116,
      "ĠKos": 8117,
      "ĠRun": 8118,
      "Ġevidence": 8119,
      "lick": 8120,
      "Ġcross": 8121,
      "Ġwritten": 8122,
      "ĠRobert": 8123,
      "Ġauthor": 8124,
      "-C": 8125,
      "44": 8126,
      "88": 8127,
      "Kusura": 8128,
      "PC": 8129,
      "Para": 8130,
      "Tut": 8131,
      "Very": 8132,
      "_default": 8133,
      "bind": 8134,
      "say": 8135,
      "xd": 8136,
      "Ġbott": 8137,
      "ĠtÃ¼k": 8138,
      "atic": 8139,
      "attern": 8140,
      "Ġkuvvet": 8141,
      "Ġcent": 8142,
      "Ġcenn": 8143,
      "ĠpiÃ§": 8144,
      "Ġanlar": 8145,
      "diven": 8146,
      "Ġaraya": 8147,
      "ĠalÄ±yorum": 8148,
      "mail": 8149,
      "ĠgÃ¶n": 8150,
      "ĠgÃ¶ÄŁ": 8151,
      "ĠyapÄ±lan": 8152,
      "ĠdeÄŁiller": 8153,
      "ĠvermiÅŁ": 8154,
      "Ġproj": 8155,
      "ĠkadÄ±nÄ±": 8156,
      "ĠparÃ§a": 8157,
      "Ġevil": 8158,
      "Ġsorunu": 8159,
      "ordin": 8160,
      "Ġsanat": 8161,
      "eceÄŁimi": 8162,
      "Ġharik": 8163,
      "Ġkazand": 8164,
      "ĠÅŀey": 8165,
      "Ġunutma": 8166,
      "lÄ±ÄŁÄ±n": 8167,
      "Kendine": 8168,
      "Ġvaktim": 8169,
      "Ġhissettir": 8170,
      "Ġparameters": 8171,
      "Ġsupported": 8172,
      "Ġselection": 8173,
      "Ġhikaye": 8174,
      "Ġkorumak": 8175,
      "Ġmiydin": 8176,
      "ĠeÄŁitim": 8177,
      "Ġkelime": 8178,
      "ĠTHAI": 8179,
      "OVE": 8180,
      "Something": 8181,
      "[key": 8182,
      "ders": 8183,
      "gy": 8184,
      "run": 8185,
      "ress": 8186,
      "Ġtill": 8187,
      "aron": 8188,
      "arda": 8189,
      "else": 8190,
      "ira": 8191,
      "Ġfair": 8192,
      "ĠAyn": 8193,
      "Ġreh": 8194,
      "Ġrep": 8195,
      "ĠKing": 8196,
      "ipp": 8197,
      "ĠRichard": 8198,
      "iste": 8199,
      "Ġact": 8200,
      "ĠEng": 8201,
      "ĠUnicode": 8202,
      "winapi": 8203,
      "Ġattrs": 8204,
      "-up": 8205,
      "-left": 8206,
      "AK": 8207,
      "Galiba": 8208,
      "Olamaz": 8209,
      "]]": 8210,
      "_extens": 8211,
      "cad": 8212,
      "mond": 8213,
      "taki": 8214,
      "anan": 8215,
      "alth": 8216,
      "emp": 8217,
      "liÄŁini": 8218,
      "Ġwhom": 8219,
      "Ġifad": 8220,
      "Ġmev": 8221,
      "__\"": 8222,
      "Birlikte": 8223,
      "ĠbaÅŁÄ±ma": 8224,
      "Ġsona": 8225,
      "ilerden": 8226,
      "Ġkarak": 8227,
      "Ġayet": 8228,
      "lenmiÅŁ": 8229,
      "abled": 8230,
      "Ġhaydi": 8231,
      "Ġuydur": 8232,
      "ĠbÄ±rakÄ±r": 8233,
      "Ġuzman": 8234,
      "ĠÃ¶lÃ§": 8235,
      "Ġtaraftan": 8236,
      "ators": 8237,
      "ĠsaÄŁlam": 8238,
      "Child": 8239,
      "Ġderler": 8240,
      "ursuz": 8241,
      "ĠÅŁanslar": 8242,
      "Ġprev": 8243,
      "ĠdÃ¼nyada": 8244,
      "Ġkavga": 8245,
      "ĠdÃ¶ndÃ¼": 8246,
      "ĠiliÅŁ": 8247,
      "Ġhediy": 8248,
      "Ġhesap": 8249,
      "Ġmektup": 8250,
      "ĠfÄ±rsat": 8251,
      "Ġgovernment": 8252,
      "Cause": 8253,
      "tely": 8254,
      "urch": 8255,
      "Ġpun": 8256,
      "Ġrow": 8257,
      "izer": 8258,
      "ula": 8259,
      "Ġcareful": 8260,
      "EDI": 8261,
      "sych": 8262,
      "Ġfollowed": 8263,
      "################################": 8264,
      "IME": 8265,
      ".'": 8266,
      ".encode": 8267,
      "Hang": 8268,
      "SuÃ§": 8269,
      "layÄ±p": 8270,
      "ming": 8271,
      "vey": 8272,
      "Ã»": 8273,
      "ano": 8274,
      "ema": 8275,
      "emeye": 8276,
      "emedim": 8277,
      "ĠÅŁart": 8278,
      "ĠDNA": 8279,
      "...\"Ċ": 8280,
      "Ġseek": 8281,
      "estroy": 8282,
      "ĠgÃ¶rmedim": 8283,
      "ĠWindows": 8284,
      "Ġloved": 8285,
      "quire": 8286,
      "Ġuses": 8287,
      "Ġgittim": 8288,
      "appy": 8289,
      "ĠgÃ¼nÃ¼n": 8290,
      "ĠgeÃ§iyor": 8291,
      "ĠyÄ±llar": 8292,
      "ĠÃ§ocuklarÄ±": 8293,
      "Ġderec": 8294,
      "Ġhappening": 8295,
      "ĠdÃ¼ÅŁÃ¼ndÃ¼ÄŁÃ¼m": 8296,
      "Ġbenzer": 8297,
      "duÄŁun": 8298,
      "ĠyaklaÅŁÄ±k": 8299,
      "Ġherhalde": 8300,
      "Ġrules": 8301,
      "Ġvariables": 8302,
      "Ġdediler": 8303,
      "42": 8304,
      "Bah": 8305,
      "Over": 8306,
      "etimes": 8307,
      "imet": 8308,
      "Ġride": 8309,
      "ĠSus": 8310,
      "ices": 8311,
      "Ġstore": 8312,
      "Ġsecurity": 8313,
      "ĠStream": 8314,
      "Ġrecogn": 8315,
      "Ġenter": 8316,
      "ederal": 8317,
      "Ġbehavi": 8318,
      "LOCK": 8319,
      "Ġpiece": 8320,
      ".max": 8321,
      "CENT": 8322,
      "Hatta": 8323,
      "Node": 8324,
      "iÄŁi": 8325,
      "lili": 8326,
      "well": 8327,
      "ĠyayÄ±n": 8328,
      "Ġwitness": 8329,
      "Ġneyin": 8330,
      "Ġvo": 8331,
      "oking": 8332,
      "Ġeg": 8333,
      "aze": 8334,
      "Ġzeki": 8335,
      "ardÄ±k": 8336,
      "Åŀaka": 8337,
      "ffered": 8338,
      "ĠÃ§alÄ±ÅŁtÄ±m": 8339,
      "Ġyerden": 8340,
      "ĠÄ°l": 8341,
      "Ġsplit": 8342,
      "ĠyarÄ±m": 8343,
      "ileno": 8344,
      "ĠyÄ±lÄ±nda": 8345,
      "param": 8346,
      "ĠbahÃ§": 8347,
      "Ġescape": 8348,
      "ĠfarkÄ±n": 8349,
      "Ġevening": 8350,
      "rowser": 8351,
      "ĠThen": 8352,
      "Ġinterface": 8353,
      "ĠgittiÄŁini": 8354,
      "ĠÃ§aÄŁr": 8355,
      "_char": 8356,
      "ĠElbette": 8357,
      "YakÄ±nda": 8358,
      "Ġkoca": 8359,
      "ĠbaÅŁarÄ±lÄ±": 8360,
      "Ġexists": 8361,
      "ĠSonra": 8362,
      "belie": 8363,
      "Ġheyecan": 8364,
      "Ġkamyon": 8365,
      "ĠGerÃ§ekten": 8366,
      "Ġmistake": 8367,
      "(re": 8368,
      "ja": 8369,
      "lis": 8370,
      "edeki": 8371,
      "Ġcamer": 8372,
      "ury": 8373,
      "Ġring": 8374,
      "empt": 8375,
      "azi": 8376,
      "ĠCall": 8377,
      "ĠHello": 8378,
      "ĠText": 8379,
      "icture": 8380,
      "ĠPhil": 8381,
      "BaÄŁ": 8382,
      "EP": 8383,
      "[name": 8384,
      "][": 8385,
      "bilece": 8386,
      "lt": 8387,
      "mine": 8388,
      "sÃ¼": 8389,
      "Ġbazen": 8390,
      "Ġtb": 8391,
      "arsÄ±n": 8392,
      "Ġmerh": 8393,
      "ĠkandÄ±r": 8394,
      "oney": 8395,
      "amÄ±n": 8396,
      "imle": 8397,
      "ila": 8398,
      "aklan": 8399,
      "Ġnobody": 8400,
      "uri": 8401,
      "Ã¼ncÃ¼": 8402,
      "ĠHa": 8403,
      "lav": 8404,
      "thur": 8405,
      "Ġedersin": 8406,
      "ĠOk": 8407,
      "Ġverdin": 8408,
      "ackage": 8409,
      "ĠÃ§oktan": 8410,
      "ĠbaÅŁlÄ±yor": 8411,
      "ĠbaÅŁlang": 8412,
      "oyu": 8413,
      "ÃĸÄŁr": 8414,
      "leniyor": 8415,
      "ĠÃ§alÄ±ÅŁmak": 8416,
      "ago": 8417,
      "Ġ[Ċ": 8418,
      "Ġkendisine": 8419,
      "Ġduyg": 8420,
      "Ġduyuyorum": 8421,
      "ĠsÃ¼rece": 8422,
      "ĠBence": 8423,
      "Ġfeet": 8424,
      "amazsÄ±nÄ±z": 8425,
      "ĠyazÄ±k": 8426,
      "Ġsahn": 8427,
      "pressed": 8428,
      "Bununla": 8429,
      "asyonu": 8430,
      "ĠtÃ¼rlÃ¼": 8431,
      "Ġmuydu": 8432,
      "Ġelbis": 8433,
      "Ġvictim": 8434,
      "ĠdÃ¼ÅŁÃ¼nmÃ¼ÅŁtÃ¼m": 8435,
      "ĠEurope": 8436,
      ".'Ċ": 8437,
      "Nobody": 8438,
      "cis": 8439,
      "rate": 8440,
      "Ġtale": 8441,
      "Ġgal": 8442,
      "ett": 8443,
      "etch": 8444,
      "esh": 8445,
      "ĠTON": 8446,
      "that": 8447,
      "Ġconst": 8448,
      "Ġunittest": 8449,
      "Ġacross": 8450,
      "attrs": 8451,
      "_test": 8452,
      "TestCase": 8453,
      "Ġcoffee": 8454,
      "(args": 8455,
      "Kor": 8456,
      "MÃ¼kemmel": 8457,
      "dÃ¼ÄŁÃ¼nÃ¼": 8458,
      "fc": 8459,
      "viÃ§": 8460,
      "Ġboss": 8461,
      "ĠtÄ±k": 8462,
      "Ġsesini": 8463,
      "ÅŁa": 8464,
      "ĠkÃ¶r": 8465,
      "asÄ±nÄ±z": 8466,
      "Ġlos": 8467,
      "ĠarÄ±yorum": 8468,
      "Ġbudur": 8469,
      "ĠDanny": 8470,
      "Ġedebilirim": 8471,
      "ĠsÃ¶ylediler": 8472,
      "aft": 8473,
      "eceksiniz": 8474,
      "ĠÃ§Ä±kmak": 8475,
      "ĠbakayÄ±m": 8476,
      "meme": 8477,
      "ĠUh": 8478,
      "muÅŁtum": 8479,
      "ĠAnn": 8480,
      "ĠbaÄŁÄ±m": 8481,
      "ĠÅŁeker": 8482,
      "ihir": 8483,
      "Ãľzer": 8484,
      "uyorsunuz": 8485,
      "Ġtelefonu": 8486,
      "ĠBaÅŁka": 8487,
      "Ġhonest": 8488,
      "slots": 8489,
      "Ġherkesin": 8490,
      "Ġfayd": 8491,
      "Ġimzal": 8492,
      "-H": 8493,
      "55": 8494,
      "ende": 8495,
      "irk": 8496,
      "Ġweren": 8497,
      "olved": 8498,
      "ends": 8499,
      "anta": 8500,
      "indir": 8501,
      "Ġdispatch": 8502,
      "ESS": 8503,
      "Returns": 8504,
      "Ġfelt": 8505,
      "Ġrequires": 8506,
      "'ne": 8507,
      "(frame": 8508,
      ".pr": 8509,
      ".Get": 8510,
      "Alex": 8511,
      "FA": 8512,
      "Gec": 8513,
      "KÄ±r": 8514,
      "Python": 8515,
      "RO": 8516,
      "_ok": 8517,
      "ford": 8518,
      "pol": 8519,
      "Ġ]": 8520,
      "Ã¼ll": 8521,
      "ĠyoÄŁun": 8522,
      "elere": 8523,
      "Ġmek": 8524,
      "ediler": 8525,
      "Ġnered": 8526,
      "larÄ±mÄ±zÄ±": 8527,
      "ĠBey": 8528,
      "ĠStan": 8529,
      "ĠalayÄ±m": 8530,
      "Ġbusy": 8531,
      "Ġistedik": 8532,
      "Birbir": 8533,
      "iff": 8534,
      "Bende": 8535,
      "Ġgittik": 8536,
      "Ä±mÄ±zdan": 8537,
      "Ġseviy": 8538,
      "ĠÄ°st": 8539,
      "meliyat": 8540,
      "Ġlooked": 8541,
      "ĠCheck": 8542,
      "Ġuzay": 8543,
      "mezsin": 8544,
      "Ġsometimes": 8545,
      "Ġbilmedi": 8546,
      "_method": 8547,
      "ĠbunlarÄ±n": 8548,
      "ĠsaÄŁlay": 8549,
      "ĠanlamÄ±yorum": 8550,
      "Ġikimiz": 8551,
      "larÄ±ma": 8552,
      "ĠayrÄ±ca": 8553,
      "HAN": 8554,
      "Ġannen": 8555,
      "ĠdavranÄ±ÅŁ": 8556,
      "Ġdirectly": 8557,
      "ĠsarhoÅŁ": 8558,
      "Ġceset": 8559,
      "Ġmuydun": 8560,
      "ĠayakkabÄ±": 8561,
      "attle": 8562,
      "respond": 8563,
      "function": 8564,
      "Ġmanager": 8565,
      "ĠbaÄŁlantÄ±": 8566,
      "ĠakÄ±llÄ±": 8567,
      "Ġhuzur": 8568,
      "-D": 8569,
      "86": 8570,
      "Mor": 8571,
      "ear": 8572,
      "python": 8573,
      "ength": 8574,
      "Ġdance": 8575,
      "Ġmail": 8576,
      "escrip": 8577,
      "Ġfak": 8578,
      "uts": 8579,
      "Ġwhite": 8580,
      "Ġreach": 8581,
      "ĠPlease": 8582,
      ".co": 8583,
      "_fd": 8584,
      "week": 8585,
      "ĠIncremental": 8586,
      ".data": 8587,
      "gged": 8588,
      "Frank": 8589,
      "Ġcontaining": 8590,
      "Ġmusic": 8591,
      "known": 8592,
      "_encoding": 8593,
      "dÃ¼z": 8594,
      "dated": 8595,
      "fp": 8596,
      "gal": 8597,
      "mac": 8598,
      "pick": 8599,
      "ysa": 8600,
      "Ġslow": 8601,
      "Ġkuz": 8602,
      "aklarÄ±": 8603,
      "iso": 8604,
      "empty": 8605,
      "abet": 8606,
      "ĠÅŁan": 8607,
      "ĠÅŁÃ¼phe": 8608,
      "azla": 8609,
      "Ġverdik": 8610,
      "ĠherÅŁey": 8611,
      "uyordum": 8612,
      "ĠÃ§Ä±kÄ±p": 8613,
      "Ġsorunun": 8614,
      "('\\": 8615,
      "eÅŁil": 8616,
      "ĠsayÄ±lmaz": 8617,
      "Ġbelow": 8618,
      "ĠsanmÄ±ÅŁtÄ±m": 8619,
      "ĠolanÄ±": 8620,
      "Ã¼lmÃ¼ÅŁ": 8621,
      "ĠmÃ¼cad": 8622,
      "ĠaÅŁÄ±rÄ±": 8623,
      "Biliyorsun": 8624,
      "Ã¼ÄŁÃ¼ne": 8625,
      "ĠhoÅŁuma": 8626,
      "eceÄŁine": 8627,
      "Ġsalak": 8628,
      "vestig": 8629,
      "enneme": 8630,
      "Ġannesi": 8631,
      "Olmaz": 8632,
      "laka": 8633,
      "Ġconsider": 8634,
      "Akl": 8635,
      "Ġmoved": 8636,
      "Ġkimseyi": 8637,
      "IncrementalDecoder": 8638,
      "upported": 8639,
      "Dostum": 8640,
      "'T": 8641,
      "Mak": 8642,
      "Open": 8643,
      "mo": 8644,
      "source": 8645,
      "utely": 8646,
      "ĠAN": 8647,
      "ĠLond": 8648,
      "ĠCo": 8649,
      "laire": 8650,
      "ĠTÃ¼rk": 8651,
      "Ġstrict": 8652,
      "ously": 8653,
      "Ġground": 8654,
      ".file": 8655,
      "_buffer": 8656,
      "(sys": 8657,
      "ĠArab": 8658,
      "ĠThese": 8659,
      "Ġencoded": 8660,
      "_help": 8661,
      "Ġprevious": 8662,
      "'yle": 8663,
      ".gr": 8664,
      "67": 8665,
      "Parser": 8666,
      "Sp": 8667,
      "_header": 8668,
      "normal": 8669,
      "ule": 8670,
      "ware": 8671,
      "xy": 8672,
      "Ġailen": 8673,
      "elta": 8674,
      "Ġcana": 8675,
      "Ġcost": 8676,
      "lier": 8677,
      "ĠalÄ±rÄ±m": 8678,
      "sunu": 8679,
      "ĠClass": 8680,
      "Ġzehir": 8681,
      "ĠedeceÄŁiz": 8682,
      "ALF": 8683,
      "Ġabsol": 8684,
      "alÄ±sÄ±n": 8685,
      "Ġsuite": 8686,
      "Ġsugg": 8687,
      "derim": 8688,
      "Ġacil": 8689,
      "ĠÃ§alÄ±ÅŁtÄ±r": 8690,
      "Ġadamla": 8691,
      "ĠyarÄ±sÄ±": 8692,
      "ĠkÄ±zgÄ±n": 8693,
      "Ġduygu": 8694,
      "Ġhalled": 8695,
      "ĠdÃ¶nem": 8696,
      "ĠsÃ¼redir": 8697,
      "ĠÃ¶ldÃ¼rmeye": 8698,
      ".send": 8699,
      "ĠettiÄŁi": 8700,
      "OUR": 8701,
      "Ġtemsil": 8702,
      "Ġortadan": 8703,
      "ĠaÄŁaÃ§": 8704,
      "which": 8705,
      "Ġoynay": 8706,
      "GÃ¶rdÃ¼n": 8707,
      "Actually": 8708,
      "ĠOrada": 8709,
      "ĠsÃ¶ylemiÅŁti": 8710,
      "ĠÃ¶ÄŁretmen": 8711,
      "array": 8712,
      "Ġsorumlu": 8713,
      "Ġmultiple": 8714,
      "ĠbeÄŁen": 8715,
      "Etraf": 8716,
      "imdilik": 8717,
      ".environ": 8718,
      "Fran": 8719,
      "Mem": 8720,
      "Ra": 8721,
      "Sin": 8722,
      "_item": 8723,
      "_result": 8724,
      "kg": 8725,
      "ze": 8726,
      "Ġest": 8727,
      "erved": 8728,
      "ummy": 8729,
      "Ġtot": 8730,
      "ĠMo": 8731,
      "0000": 8732,
      "ĠJeff": 8733,
      "Ġthemselves": 8734,
      "ager": 8735,
      "tools": 8736,
      "Ġbroken": 8737,
      "Ġgrow": 8738,
      "enerate": 8739,
      "Ġdescr": 8740,
      "Ġsurv": 8741,
      "ĠError": 8742,
      "Ġcompletely": 8743,
      "ĠJimmy": 8744,
      "Ġmagic": 8745,
      "Ġsuffix": 8746,
      "!\"": 8747,
      ".index": 8748,
      "::": 8749,
      "First": 8750,
      "IVE": 8751,
      "UÃ§": 8752,
      "_loc": 8753,
      "give": 8754,
      "ĠÃ¢": 8755,
      "Ġbath": 8756,
      "Ġdoub": 8757,
      "Ġage": 8758,
      "imum": 8759,
      "unan": 8760,
      "Ġfool": 8761,
      "Ġvamp": 8762,
      "Ġpas": 8763,
      "Ġpicture": 8764,
      "liÄŁe": 8765,
      "lerdir": 8766,
      "ĠBE": 8767,
      "ĠBal": 8768,
      "ĠAÄŁ": 8769,
      "Ġ\"-": 8770,
      "ĠLi": 8771,
      "ĠDen": 8772,
      "ĠCor": 8773,
      "ĠiÃ§ind": 8774,
      "ĠTim": 8775,
      "ĠRed": 8776,
      "ÄŁimizi": 8777,
      "ĠiÅŁlem": 8778,
      "make": 8779,
      "ĠolduÄŁunda": 8780,
      "quences": 8781,
      "dummy": 8782,
      "bert": 8783,
      "Ġyolda": 8784,
      "ĠhaklÄ±sÄ±n": 8785,
      "Ġgetirdi": 8786,
      "ĠgÃ¶stermek": 8787,
      "ĠumarÄ±m": 8788,
      "ullname": 8789,
      "Ġstatus": 8790,
      "OLATED": 8791,
      "ĠyÃ¼rÃ¼": 8792,
      "Kapa": 8793,
      "DÃ¼nya": 8794,
      "Ġdikkatli": 8795,
      "[:-": 8796,
      "_config": 8797,
      "Ġprovide": 8798,
      "ĠdemiÅŁtim": 8799,
      "ĠISOLATED": 8800,
      "Ġkimseye": 8801,
      "Affedersin": 8802,
      "ĠkÄ±smÄ±": 8803,
      "ĠAmerikan": 8804,
      "ĠNereye": 8805,
      "+------------------------------------------------": 8806,
      "-You": 8807,
      "BU": 8808,
      "Hap": 8809,
      "Men": 8810,
      "Ter": 8811,
      "hell": 8812,
      "anne": 8813,
      "lement": 8814,
      "Ġwake": 8815,
      "Ġwelcome": 8816,
      "Ġinvestig": 8817,
      "omin": 8818,
      "ects": 8819,
      "Ġenjoy": 8820,
      "Ġimmedi": 8821,
      "Ġfloor": 8822,
      ".parse": 8823,
      ".charmap": 8824,
      "-L": 8825,
      "Zor": 8826,
      "_offset": 8827,
      "but": 8828,
      "Ġsock": 8829,
      "Ġoh": 8830,
      "Ġilet": 8831,
      "elly": 8832,
      "Ġker": 8833,
      "ledi": 8834,
      "Ã§akal": 8835,
      "Ġanahtar": 8836,
      "Ä±rsÄ±n": 8837,
      "ĠSm": 8838,
      "Ġyapman": 8839,
      "Ġistersin": 8840,
      "Ġetmeyi": 8841,
      "Ġettiler": 8842,
      "ĠKr": 8843,
      "ĠKaÃ§": 8844,
      "Ġprac": 8845,
      "ĠbaÅŁlar": 8846,
      "ĠWilli": 8847,
      "Ġzamanki": 8848,
      "oger": 8849,
      "ĠdÃ¶nÃ¼p": 8850,
      "ĠyazÄ±yor": 8851,
      "Ġworried": 8852,
      "Ġanlama": 8853,
      "Ġdelik": 8854,
      "ĠyaptÄ±ÄŁÄ±m": 8855,
      "_dis": 8856,
      "unuzu": 8857,
      "Ġaccount": 8858,
      "Acele": 8859,
      "ĠBaÅŁkan": 8860,
      "Ġmuyum": 8861,
      "esterday": 8862,
      "ĠoÄŁlu": 8863,
      "Ġbirthday": 8864,
      "Ġwedding": 8865,
      "'am": 8866,
      "People": 8867,
      "_W": 8868,
      "bon": 8869,
      "iol": 8870,
      "Ġrek": 8871,
      "see": 8872,
      "Ġalg": 8873,
      "ĠDEV": 8874,
      "ĠClar": 8875,
      "Ġregular": 8876,
      "ĠPres": 8877,
      "Ġshare": 8878,
      "ills": 8879,
      "Ġexceptions": 8880,
      "Ġenv": 8881,
      "edence": 8882,
      "ĠYan": 8883,
      "Ġuni": 8884,
      "ĠUse": 8885,
      "Ġindeed": 8886,
      "Ġproblems": 8887,
      "Ġdetails": 8888,
      "Ġwriting": 8889,
      "Ġglobals": 8890,
      "Ġlucky": 8891,
      "ĠTONOS": 8892,
      "-K": 8893,
      ".tag": 8894,
      "47": 8895,
      "Kral": 8896,
      "Yaz": 8897,
      "iate": 8898,
      "oom": 8899,
      "yÃ¼z": 8900,
      "ĠÃľzgÃ¼nÃ¼m": 8901,
      "Ġsip": 8902,
      "Ġsounds": 8903,
      "ÅŁu": 8904,
      "Ġiman": 8905,
      "Ġhum": 8906,
      "ĠhÃ¼cr": 8907,
      "Ġanti": 8908,
      "ĠÃ§ab": 8909,
      "Ġonur": 8910,
      "ĠBin": 8911,
      "Ġbeat": 8912,
      "ĠList": 8913,
      "ĠHem": 8914,
      "Ġorospu": 8915,
      "Ġrepe": 8916,
      "Ġshell": 8917,
      "uydu": 8918,
      "acaÄŁÄ±mÄ±zÄ±": 8919,
      "Ġgibiydi": 8920,
      "Ġbaksana": 8921,
      "ĠolduÄŁunuzu": 8922,
      "ĠadamlarÄ±": 8923,
      "Ġemir": 8924,
      "Ġduyuyor": 8925,
      "ĠdÃ¶nÃ¼yor": 8926,
      "Ġamaz": 8927,
      "EndiÅŁelen": 8928,
      "(side": 8929,
      "ĠsaÄŁlÄ±k": 8930,
      "writer": 8931,
      "Ġassoci": 8932,
      "Ġdelil": 8933,
      "ĠsÄ±rada": 8934,
      "Ġinspect": 8935,
      "ĠhastalÄ±k": 8936,
      "Ġaccording": 8937,
      "lÄ±ÄŁÄ±na": 8938,
      "Ġkutu": 8939,
      "ĠÄ°ngiliz": 8940,
      "Ġhediye": 8941,
      "Ġyasak": 8942,
      "ĠÃ¶rnek": 8943,
      "Ġfailed": 8944,
      "ĠSarah": 8945,
      "Ġlangu": 8946,
      "Ġitibar": 8947,
      "Ġtotally": 8948,
      "Dad": 8949,
      "TA": 8950,
      "node": 8951,
      "Ġtad": 8952,
      "leti": 8953,
      "Ġcases": 8954,
      "embe": 8955,
      "dex": 8956,
      "__)Ċ": 8957,
      "ĠEOF": 8958,
      "ĠReg": 8959,
      "ĠJess": 8960,
      "ĠUND": 8961,
      "Inter": 8962,
      "Ġpolicy": 8963,
      "Ġexplicit": 8964,
      "Check": 8965,
      "what": 8966,
      "Ġmovie": 8967,
      "Ġmotor": 8968,
      "\"]Ċ": 8969,
      "(get": 8970,
      "TÄ±pkÄ±": 8971,
      "Window": 8972,
      "_Ċ": 8973,
      "ball": 8974,
      "htiy": 8975,
      "sÃ¼z": 8976,
      "zi": 8977,
      "Ġsyntax": 8978,
      "orth": 8979,
      "Ġilerle": 8980,
      "und": 8981,
      "Ġpsik": 8982,
      "ĠSavaÅŁ": 8983,
      "Ġlaf": 8984,
      "ĠAli": 8985,
      "ĠÃ¶f": 8986,
      "Ġnegative": 8987,
      "ĠLee": 8988,
      "ĠĠĠĠĠĠĠĠĠĠĠĠĠĠĠĠĠĠĠĠĠĠĠĠĠĠĠĠĠ": 8989,
      "ÄŁimde": 8990,
      "Ġburda": 8991,
      "alarÄ±nda": 8992,
      "Ġerke": 8993,
      "OUND": 8994,
      "valtÄ±": 8995,
      "atherine": 8996,
      "ĠodasÄ±nda": 8997,
      "ĠkÄ±rmÄ±zÄ±": 8998,
      "Ġinstall": 8999,
      "ĠdoÄŁal": 9000,
      "emeyeceÄŁim": 9001,
      "ĠsaÃ§ma": 9002,
      "Ġzamana": 9003,
      "struct": 9004,
      "Ġahbap": 9005,
      "Afed": 9006,
      "Ġdigits": 9007,
      "Ġcookies": 9008,
      "Ġyolculuk": 9009,
      ".log": 9010,
      "=',": 9011,
      "uan": 9012,
      "Ġpsych": 9013,
      "umun": 9014,
      "Ġincremental": 9015,
      "ulan": 9016,
      "Ġarm": 9017,
      "rave": 9018,
      "Ġproperty": 9019,
      "lendi": 9020,
      "idebar": 9021,
      "Ġpeace": 9022,
      "enerator": 9023,
      "Ġbased": 9024,
      "server": 9025,
      "Ġsmell": 9026,
      "Read": 9027,
      "ĠidleConf": 9028,
      "aaaa": 9029,
      "Ġdatetime": 9030,
      "Ġlimit": 9031,
      "Ġcertainly": 9032,
      "Ġpaper": 9033,
      "IncrementalEncoder": 9034,
      "(T": 9035,
      "Boy": 9036,
      "Tar": 9037,
      "]\\": 9038,
      "_DE": 9039,
      "bc": 9040,
      "mask": 9041,
      "pass": 9042,
      "ruk": 9043,
      "uge": 9044,
      "Ġteki": 9045,
      "Ġmec": 9046,
      "Ġthous": 9047,
      "unma": 9048,
      "Ġwall": 9049,
      "Ġnes": 9050,
      "omas": 9051,
      "ĠÃ§iÃ§ek": 9052,
      "Ä±za": 9053,
      "Ä±klar": 9054,
      "ĠAfr": 9055,
      "Ġaldat": 9056,
      "Ġstreet": 9057,
      "Ġasync": 9058,
      "Ġbilmem": 9059,
      "ĠbildiÄŁim": 9060,
      "ÅŀÃ¼ph": 9061,
      "ĠbaÅŁlam": 9062,
      "ĠWest": 9063,
      "ĠkalsÄ±n": 9064,
      "ationship": 9065,
      "ĠÃ§alÄ±ÅŁÄ±yoruz": 9066,
      ".clear": 9067,
      "Ġolurum": 9068,
      "tÄ±ÄŁÄ±nda": 9069,
      "tÄ±ÄŁÄ±mÄ±z": 9070,
      "ĠyakÄ±ÅŁÄ±klÄ±": 9071,
      "menizi": 9072,
      "Ġuyuy": 9073,
      "ĠÃ¶yleyse": 9074,
      "adÄ±ÄŁÄ±n": 9075,
      "ĠolacaktÄ±r": 9076,
      "Ġtutun": 9077,
      "Ġolabilirsin": 9078,
      "cont": 9079,
      "Ġtalked": 9080,
      "ampiyon": 9081,
      "Shit": 9082,
      "Ġbiliyorsunuz": 9083,
      "Whoa": 9084,
      "Ġederiz": 9085,
      "Ġaccident": 9086,
      "Ġmenu": 9087,
      "Ġkaybettim": 9088,
      "Kaptan": 9089,
      "ĠzorundayÄ±z": 9090,
      "Ġbekliyorum": 9091,
      "Ġbuydu": 9092,
      "Ġotob": 9093,
      "Aynen": 9094,
      "StreamReader": 9095,
      "StreamWriter": 9096,
      ".F": 9097,
      "37": 9098,
      ">'": 9099,
      "Ee": 9100,
      "Miss": 9101,
      "Remember": 9102,
      "WO": 9103,
      "WORD": 9104,
      "Yen": 9105,
      "mark": 9106,
      "nav": 9107,
      "Ġbrain": 9108,
      "Ġtired": 9109,
      "Ġdry": 9110,
      "etr": 9111,
      "Ġfn": 9112,
      "Ġfre": 9113,
      "Ġpipe": 9114,
      "Ġinher": 9115,
      "Ġinvalid": 9116,
      "uly": 9117,
      "icate": 9118,
      "Ġsteal": 9119,
      "ĠURL": 9120,
      "Button": 9121,
      "Ġnumer": 9122,
      "OUT": 9123,
      "Ġmemo": 9124,
      "Ġsituation": 9125,
      "ology": 9126,
      "ĠABOVE": 9127,
      "Ġlogger": 9128,
      "Ġcompatibility": 9129,
      "AdÄ±m": 9130,
      "AÅŁk": 9131,
      "Po": 9132,
      "bistan": 9133,
      "house": 9134,
      "mesin": 9135,
      "rit": 9136,
      "zz": 9137,
      "Ä±pl": 9138,
      "erver": 9139,
      "ĠbÄ±k": 9140,
      "Ġtail": 9141,
      "Ġsall": 9142,
      "ĠsÃ¼per": 9143,
      "Ġdraw": 9144,
      "ĠdaÄŁÄ±t": 9145,
      "ĠyabancÄ±": 9146,
      "amda": 9147,
      "Ġfit": 9148,
      "ising": 9149,
      "Ġbira": 9150,
      "ĠÃ§ay": 9151,
      "ĠBLOCK": 9152,
      "sep": 9153,
      "ĠHemen": 9154,
      "ĠĠĠĠĠĠĠĠĠĠĠĠĠĠĠĠĠĠĠĠĠĠĠĠĠĠĠĠĠĠĠĠĠĠĠ": 9155,
      "thread": 9156,
      "Ã¼mden": 9157,
      "Ġreplace": 9158,
      "ĠKesinlikle": 9159,
      "ĠEX": 9160,
      "Ġshared": 9161,
      "Ġvermiyor": 9162,
      "Ġproxy": 9163,
      "Ġcancel": 9164,
      "ĠkadarÄ±yla": 9165,
      "dÄ±lar": 9166,
      "miÅŁim": 9167,
      "Ġbulunuyor": 9168,
      "Ġabs": 9169,
      "ĠbakÄ±ÅŁ": 9170,
      "ĠbakmayÄ±n": 9171,
      "Ġgerekmiyor": 9172,
      "Ġtrace": 9173,
      "Ġsuit": 9174,
      "ĠÄ°sa": 9175,
      "ĠsanÄ±yor": 9176,
      "Ġhasn": 9177,
      "ĠkÃ¶pe": 9178,
      "Ġiyidir": 9179,
      "Ġtermin": 9180,
      "Ġkiller": 9181,
      "Ġederek": 9182,
      "iyeti": 9183,
      "Ġsymbol": 9184,
      "Ġveririm": 9185,
      "Ġcorrespond": 9186,
      "Ġtransport": 9187,
      "ĠsaÃ§malÄ±k": 9188,
      "ĠburadasÄ±n": 9189,
      "Ġedenler": 9190,
      "Ġdomuz": 9191,
      "Ã¼ldÃ¼": 9192,
      "ĠtanrÄ±m": 9193,
      "rolasÄ±": 9194,
      "ĠSEPAR": 9195,
      "ĠpiÅŁir": 9196,
      "Ġsiyah": 9197,
      "uvalet": 9198,
      "ĠSEPARATOR": 9199,
      "-only": 9200,
      ".error": 9201,
      "89": 9202,
      "Der": 9203,
      "Turn": 9204,
      "boy": 9205,
      "return": 9206,
      "tek": 9207,
      "Ġec": 9208,
      "ĠOur": 9209,
      "uper": 9210,
      "ĠJake": 9211,
      "_sample": 9212,
      "Ġpoor": 9213,
      "Ġdecided": 9214,
      "Ġbreakpoint": 9215,
      "Ġborn": 9216,
      "Ġhighlight": 9217,
      "Ġexisting": 9218,
      "Ġfixed": 9219,
      "porter": 9220,
      "Ġbeginning": 9221,
      "(h": 9222,
      "(str": 9223,
      ".format": 9224,
      "300": 9225,
      "Aferin": 9226,
      "CC": 9227,
      "Kayb": 9228,
      "LD": 9229,
      "SÄ±k": 9230,
      "Vur": 9231,
      "YavaÅŁ": 9232,
      "cal": 9233,
      "casÄ±": 9234,
      "oÃ§": 9235,
      "yen": 9236,
      "arÄ±z": 9237,
      "Ġsesi": 9238,
      "Ġyav": 9239,
      "irkin": 9240,
      "etik": 9241,
      "une": 9242,
      "ĠÃ§oÄŁu": 9243,
      "Ġeh": 9244,
      "ĠÅŁap": 9245,
      "ĠAf": 9246,
      "ĠÃ¶le": 9247,
      "ĠgÃ¶l": 9248,
      "ĠNO": 9249,
      "ĠNOT": 9250,
      "thiÅŁ": 9251,
      "Ġgeleni": 9252,
      "Ġolmuyor": 9253,
      "Ġvermez": 9254,
      "ĠsÃ¶ylemedin": 9255,
      "ĠiÅŁine": 9256,
      "iÃ§e": 9257,
      "mÄ±ÅŁtÄ±r": 9258,
      "ĠeriÅŁ": 9259,
      "ĠgerÃ§ekleÅŁtir": 9260,
      "ĠÃ¶ldÃ¼rÃ¼r": 9261,
      "Ġagree": 9262,
      "Ġgetirir": 9263,
      "ĠmÃ¼dÃ¼r": 9264,
      "Ġsets": 9265,
      "Ã¼stÃ¼": 9266,
      "ĠsÄ±rasÄ±nda": 9267,
      "Ġumurumda": 9268,
      "ĠayrÄ±": 9269,
      "GÃ¶rÃ¼ÅŁÃ¼rÃ¼z": 9270,
      "OldukÃ§a": 9271,
      "ĠCarol": 9272,
      "ĠanlaÅŁma": 9273,
      "Ġprovided": 9274,
      "Ġkasab": 9275,
      "Ġokula": 9276,
      "IZE": 9277,
      "Ġfaith": 9278,
      "AnlaÅŁÄ±ldÄ±": 9279,
      "Ġilgilendir": 9280,
      "ĠALLAH": 9281,
      "Bilirsin": 9282,
      "Ġamazing": 9283,
      "close": 9284,
      "ially": 9285,
      "Ġsuck": 9286,
      "Ġgift": 9287,
      "Ġmask": 9288,
      "onnie": 9289,
      "etic": 9290,
      "Ġcep": 9291,
      "Ġpaid": 9292,
      "izz": 9293,
      "acing": 9294,
      "Ġannot": 9295,
      "ĠBy": 9296,
      "ĠBase": 9297,
      "Ġstyle": 9298,
      "Whatever": 9299,
      "ifest": 9300,
      ".platform": 9301,
      "reader": 9302,
      "Ġnewline": 9303,
      "Ort": 9304,
      "State": 9305,
      "Shut": 9306,
      "Ġsmart": 9307,
      "_state": 9308,
      "Ġmarry": 9309,
      "Ġwatching": 9310,
      "~~~~": 9311,
      "92": 9312,
      "Ali": 9313,
      "Make": 9314,
      "create": 9315,
      "udr": 9316,
      "Ġ//": 9317,
      "ĠbasÄ±n": 9318,
      "Ġalet": 9319,
      "ĠgeniÅŁ": 9320,
      "atal": 9321,
      "ona": 9322,
      "esyon": 9323,
      "Ġpair": 9324,
      "ĠMag": 9325,
      "Ġgelebilir": 9326,
      "acaksÄ±nÄ±z": 9327,
      "ĠbaÅŁa": 9328,
      "ĠiÅŁten": 9329,
      "Ġevinde": 9330,
      "Never": 9331,
      "ĠgÃ¼nde": 9332,
      "AnladÄ±m": 9333,
      "ĠkonuÅŁabilir": 9334,
      "strap": 9335,
      "'nde": 9336,
      "Ã¶rÃ¼": 9337,
      "Ġ+Ċ": 9338,
      "muÅŁum": 9339,
      "Ġdevr": 9340,
      "Ġdevlet": 9341,
      "Kims": 9342,
      "foo": 9343,
      "Ġcrime": 9344,
      "Stay": 9345,
      "Ġoyunu": 9346,
      "ĠsÄ±kÄ±": 9347,
      "Ġekip": 9348,
      "odern": 9349,
      "Ġotel": 9350,
      "Trans": 9351,
      "Ġsekiz": 9352,
      "Ġlaborat": 9353,
      "anÄ±ÅŁtÄ±ÄŁ": 9354,
      "ĠbÄ±Ã§ak": 9355,
      "-w": 9356,
      "AF": 9357,
      "Mas": 9358,
      "_obj": 9359,
      "nik": 9360,
      "oad": 9361,
      "enum": 9362,
      "Ġcamp": 9363,
      "iting": 9364,
      "Ġanimal": 9365,
      "Ġlunch": 9366,
      "ids": 9367,
      "master": 9368,
      "ĠDem": 9369,
      "ĠMm": 9370,
      "ĠHak": 9371,
      "ĠTak": 9372,
      "Ġwear": 9373,
      "Ġtrick": 9374,
      "othes": 9375,
      "_col": 9376,
      "Ġstruct": 9377,
      "LEF": 9378,
      "conn": 9379,
      "ART": 9380,
      "Ġworse": 9381,
      "Ġproto": 9382,
      "Ġrespect": 9383,
      "words": 9384,
      "Ġcontact": 9385,
      "_files": 9386,
      "forman": 9387,
      "QUAL": 9388,
      "ĠSteve": 9389,
      "Patron": 9390,
      "Ġrequired": 9391,
      "Loader": 9392,
      "ĠDEVICE": 9393,
      "(None": 9394,
      "={}": 9395,
      "Kil": 9396,
      "LY": 9397,
      "Olay": 9398,
      "ij": 9399,
      "lot": 9400,
      "tarÄ±": 9401,
      "ĠsÃ¼t": 9402,
      "Ġscr": 9403,
      "orld": 9404,
      "Ġgives": 9405,
      "ality": 9406,
      "alÄ±ÄŁÄ±": 9407,
      "amayÄ±": 9408,
      "unittest": 9409,
      "ediye": 9410,
      "Ġcih": 9411,
      "iser": 9412,
      "Ġrot": 9413,
      "lararasÄ±": 9414,
      "Ġ'+": 9415,
      "Ġef": 9416,
      "Ġarka": 9417,
      "Ġalk": 9418,
      "ĠLINE": 9419,
      "aÄŁan": 9420,
      "Ġyapabilece": 9421,
      "ĠCOM": 9422,
      "ĠCaptain": 9423,
[...]
